#version: 0.2 - Trained by `huggingface/tokenizers`
Ġ t
i n
Ġ a
č Ċ
e r
o n
Ġ s
r e
Ġt h
Ġ w
e s
o r
Ġ b
a t
Ġ c
in g
Ġ f
i s
o u
i t
e n
l l
a n
Ġ m
a r
Ġt o
Ġ p
Ġ o
Ġ d
Ġth e
e d
Ġ l
Ġ h
s t
r o
Ġ in
a l
m p
Ġo f
Ġ n
Ġ is
i c
e l
e t
i on
a s
Ġ g
a c
l e
Ġ re
i g
u t
Ġ T
v e
o t
Ġ S
Ġb e
Ġa n
Ġf or
i ll
Ġ on
o w
o m
l y
a y
a mp
Ġ e
Ġ &
v er
u n
i d
en t
c t
Ġ I
l a
l d
o d
c h
Ġ y
a d
Ġ M
ig h
a ll
t er
Ġs o
Ġ it
Ġs t
i m
es la
u st
u p
Ġth at
t h
Ġ A
i r
Ġw e
it h
o p
u s
i l
Ġw h
Ġn e
es t
Ġw ill
a m
Ġ r
ou t
k e
Ġb ut
Ġc o
Ġ C
Ġw ith
Ġp ro
c e
T h
u r
ĠT esla
ou ld
Ġy ou
igh t
i f
Ġan d
Ġa t
c k
Ġa re
all y
er e
Ġ v
ar s
at ion
Ġs h
Ġg o
er s
Ġ W
Ġt r
Ġm o
Ġh a
at e
a b
Ġ en
u l
s e
u re
Ġd o
Ġ or
g e
Ġ ro
an d
ou n
Ġn ot
Ġa s
Ġe x
o l
Ġb y
ĠT h
Ġ F
Ġth is
an t
Ġd e
Ġs e
it y
r a
ac e
Ġ j
k s
u m
Ġl i
om e
Ġc on
r i
Ġ H
or t
Ġw or
Ġa b
Ġ B
p e
ou r
Ġ (
Ġm a
Ġ N
Ġ D
Ġa ll
Ġ P
ac t
Ġa l
p p
e a
ro m
od el
Ġf rom
Ġl o
Ġw as
Ġc h
g h
Ġha ve
in e
i p
ar d
q u
Ġ E
ac k
Ġ un
on e
. .
re at
p ace
es s
l o
e w
ou gh
Ġ L
Ġ R
Ġ up
ar t
Ġ k
u e
Ġ G
a in
Ġm e
" "
Ġco mp
s s
o st
on g
Ġab out
Ġc ar
a st
el y
ct ion
k ing
Ġth an
a re
i re
i mp
ck et
ĠM odel
Ġli ke
i ve
Ġj ust
is t
Ġ us
a p
e m
id e
Ġt e
Y es
oun d
Ġy e
c on
i es
Ġt im
r y
Ġne ed
e ct
Ġ out
' s
Ġgo od
Ġa r
d u
Ġh e
en d
Ġp re
m ent
Ġro cket
Ġmo re
ĠS t
un ch
ver y
Ġc an
Ġm y
Ġc om
' t
x t
Ġ imp
Ġw ould
c i
o re
Ġp o
Ġn o
Ġh igh
as e
a unch
t s
u ll
Ġh as
an y
u ch
i a
Ġp l
i v
ig n
n t
b le
d er
i z
as s
Ġa d
ab le
Ġtim e
Ġan y
p er
up er
s ion
e f
ic e
u b
Ġ U
Ġpro du
ou s
ow er
Ġ O
e op
Ġo ver
Ġen g
i e
Ġt a
Th e
eop le
on t
Ġg reat
ĠS pace
ay s
v ing
Ġ J
Ġb u
Ġb et
am e
Ġ if
Ġl aunch
l ight
Ġ our
Ġg et
s o
Ġto o
v en
an s
ar g
Ġl and
Ġ V
f f
T esla
Ġth r
Ġm uch
Ġp eople
Ġa ct
Ġs a
h ip
Ġsh ould
ir st
it e
Ġc ars
a ge
Ġwe e
Ġth ere
Ġne xt
u ally
e p
u d
Ġs ome
.. .
Ġon e
Ġa pp
in k
in d
al con
c c
Ġ .
Ġt est
ĠTh e
at ter
or y
o o
h ing
f t
Ġso on
Ġl e
Ġwor k
Ġma ke
b ab
Ġthe y
ic h
ow n
Ġ ~
ea h
in t
Ġa g
Ġd es
an ks
p ort
o od
W e
Ġn ow
d ay
Ġin c
en ce
r ic
Ġye ar
Ġmo st
at ed
ac h
b e
p t
h er
b it
Ġne w
ĠW ill
Ġf a
w are
Ġa m
an ce
an ge
Ġr ight
Ġo th
Ġh ard
Ġm on
Ġcon t
re e
Ġs p
ra g
Ġeng ine
at s
Ġon ly
Ġit s
Y eah
b er
Ġd ri
v i
Ġyou r
Ġso l
Ġl ong
Ġk n
or s
Ġwh o
Ġw ay
Ġ %
Ġwh at
W h
g y
Ġbet ter
en s
Ġf e
ur n
ĠSpace X
ul t
bab ly
at er
o s
ad e
act ly
Ġp er
Ġp art
E x
w e
Y ou
Ġ ""
v el
oun t
Ġs pe
Ġin t
Ġmon th
Ġte am
Ġf irst
Ġ qu
ay be
Ġre c
Ġwee k
Ġb ack
0 0
o c
Ġprodu ction
h a
ar y
g r
rag on
ĠW e
k es
Ġwh ich
ĠF alcon
Ġa ut
Ġwh en
at ing
ic le
w n
Ġf un
Ġ X
Ġre s
f ter
ic al
ull y
Ġland ing
Ġ el
n d
Ġf ew
Ġre al
f er
Ġm any
t ing
Ġa cc
Ġs m
Ġm in
Ġimp ro
or m
ĠM ars
Ġact ually
Ġf light
i ld
or d
Ġye ars
Ġb o
Ġl ot
i al
ro w
Ġs y
Ġs er
o se
Ġe ven
Th is
Ġs up
Ġw ere
or n
Ġkn ow
il ity
Ġoth er
on s
Ġp r
Ġd id
le ase
Ġdo es
Ġa fter
Ġor bit
Ġp ower
w ay
is h
Ġthe ir
Ġlo o
Ġar t
Ġth en
m ost
Ġre ally
Th anks
Ġm is
Ġin ter
Ġth ink
ĠI t
I t
Ġex p
ion s
Ġh el
ic k
Ġun der
i le
a us
Ġdes ign
Ġthe m
Ex actly
an g
i ble
Ġe very
Ġth ing
Ġb ig
Ġso ft
Ġc r
Ġ $
il ot
ĠC h
y s
Ġcom ing
Ġtr ue
G ood
ĠS uper
Ġw ant
J ust
u ck
p h
re ss
om et
ĠTh is
Ġse e
Ġthr ust
Ġo wn
Ġha pp
Ġc ould
o ld
re d
N o
st em
ars hip
ation s
v es
ar th
Ġ ...
is e
ic ally
ĠI n
it t
l ic
el f
Ġwor ld
Ġsoft ware
ad y
Ġpo int
I n
ar k
ut ure
op ilot
S t
Ġal so
Ġ very
u al
ot h
Ġd own
t y
Ġbe ing
Ġl if
Ġs uper
Ġf act
Ġs pace
un n
ĠD ragon
Ġex t
Ġ ver
Ġen d
Ġsy stem
Ġf uture
v ed
ĠA ut
) .
Ġd if
W ill
er ing
Ġof f
Ġa ir
Th at
Ġgo ing
ĠU S
Ġel ect
Ġp ub
H a
Ġg en
Ġd el
l es
Ġs ay
Ġf in
Ġco st
Ġus e
iz e
Ġs ure
Ġsa f
Ġth ough
ver al
Ġad d
Ġb est
Ġre g
a g
a il
Ġh um
Ġhel p
c ed
Ġg r
ĠA l
Ġbu ild
Ġbe en
ĠE arth
Ġst ill
n e
en se
Ġd is
Ġ -
in es
Ġs c
ers on
Ġto day
ch arg
e x
m er
Ġh ow
Ġneed ed
vi ew
e ll
y ing
el s
Ġ :
Ġ ve
Ġelect ric
v y
Ġd ay
Ġimpro ve
ic s
Ġf ast
Ġtr ans
Ġde f
aus e
Ġ *
er t
Ġs u
r on
Ġ ,
Ġb atter
Ġwe ll
ea vy
Ġsh ort
Ġc all
omet hing
w ard
Ġt w
Ġs ame
an k
ment s
Ġsol ar
Ġint o
p en
Ġlo ve
p l
Ġen er
f ore
Ġm ade
I f
M odel
Ġp h
Ġcon f
at ure
Ġst art
o ve
Ġo pt
Ġad v
N ot
o ol
Ġs ub
Ġd one
Ġd ont
Ġte ch
w ays
re ci
ar ly
Ġh ad
Ġpre ss
Ġag ain
a k
ĠAut opilot
f ul
f orm
Ġpro bably
Ġcon s
i x
i ver
l ow
Ġv ide
ĠSt arship
a z
Ġsh ow
pe ct
Ġbe fore
Ġc l
Ġal most
Ġthr ough
Ġmonth s
Ġ im
Ġf ar
Ġener gy
Ġre qu
re m
Ġc lo
Ġf ire
Ġg as
Ġre t
th ing
Ġdri ve
l et
or ing
Ġbe c
op ef
ort ant
it ion
ble m
w es
Ġ K
Ġch ange
Ġth ose
Ġl ast
Ġe ver
il es
at ch
an e
Ġsup port
Ġw r
Ġta ke
Ġve h
Ġd ays
opef ully
est ing
ĠC an
ĠJ ust
Ġsm all
Ġt unn
er o
Ġat t
ĠW h
in it
Ġd on
! !
P ro
Ġo b
init ely
o b
Ġc le
et y
Ġvide o
R e
Ġart icle
Ġhum an
v ent
Ġar ound
Ġspe ed
Ġin d
Ġg u
ĠSuper charg
wes ome
r ue
Ġl ow
Ġin s
ĠS h
Ġpro blem
if ic
Ġapp reci
Ġpub lic
a pe
Ġf ull
re ady
ir ing
ĠL A
Ġmis sion
Ġbo ost
ĠN e
es hip
Ġdo ing
Ġde p
od e
Ġwor king
ap t
a w
o ver
er m
Ġgen er
it ing
A l
Ġc ount
Ġl ess
Ġcont ro
itt le
G reat
Ġm et
Ġst r
at h
Ġle g
Ġver sion
az ing
Ġm ass
Ġup d
ol o
Ġb el
Ġal ways
l i
Ġco ol
g g
es e
Ġwh y
ss ible
Ġta x
i ous
Ġen ough
Ġse c
Ġs omething
Ġre ad
op e
ĠN o
c y
Ġl ittle
Ġv al
Ġcomp let
or re
Ġl ea
Ġlif e
om ing
ĠA I
Ġsh ip
A b
t ty
Ġ ent
Ġc ent
et s
o mp
ĠTh at
i b
Ġs ur
Ġs ign
ĠR e
ud e
Ġapp ro
Ġbatter y
A m
Ġall ow
Ġser v
Ġ id
Ġsaf ety
ur re
at her
Ġh our
Ġre m
id s
one y
y es
Ġo pen
ut ion
Ġm ed
Ġup gr
Ġd ue
om m
Ġex ce
Ġp erson
h e
Ġ /
Ġb r
Ġm iles
Ġa v
er y
Ġp ass
ĠI f
ĠH eavy
ĠR o
ci al
Ġtech n
I ts
Ġ You
Ġt al
Ġro ll
j or
as on
ound s
Ġprodu ct
Ġinc re
Ġst age
Ġcomp any
Ġthing s
or row
Ġimp ortant
Ġ z
ff ic
Ġsa id
Ġma kes
Ha ha
c ome
Ġp ay
Ġl ater
al if
as h
Ġan n
Ġc ap
k ely
in a
Ġs k
Ġhapp en
Ġrequ ire
' m
l ess
Ġa wesome
Ġm atter
Ġp ost
Ġin v
Ġwee ks
o f
or ry
ĠI ts
alif orn
e ar
f act
it er
Ġcontro l
S pace
o ck
Ġal ready
Ġpl an
aliforn ia
) ,
c es
Ġp ri
Ġr ange
Ġv s
Ġpress ure
on d
T rue
at es
ol ar
ĠN ot
Ġst e
Ġtr a
lo ad
ie ve
Ġam azing
Ġdif fer
i an
i ed
Ġf r
al f
Ġwh ere
it ed
m orrow
u mp
Ġto morrow
Ġd ire
im ate
ate ll
Ġor der
Ġle vel
o ll
t w
Ġm oney
Ġse em
Ġloo k
ĠAl so
Ġ Y
or th
la m
Ġp ack
Ġma x
ff ect
Ġtunn el
urre nt
c ess
Ġre lease
Ġre view
Ġde m
Ġcr it
Ġtw o
Ġagain st
F alcon
g en
n g
Ġse veral
Ġf ix
it s
Ġh is
ig a
Ġr is
Ġeng ines
Ġcall ed
Ġ ke
Ġf ree
Ġre f
Th ere
Ġengine ering
Ġveh icle
n ing
Ġo per
Ġpo ssible
ĠThe y
Ġfact ory
Ġserv ice
ĠC alifornia
Ġext rem
ic t
Ġre p
ill ion
od y
n ot
ar ge
form ance
S o
i ly
Ġ es
Ġm an
Ġcom m
ĠP ro
M aybe
j ect
Ġb ad
ust om
"" "
a ut
Ġv ia
ĠSt ation
O k
Ġc are
Ġh old
Ġn ight
d s
l in
Ġb oth
Ġp ar
ĠC ape
Ġun t
Ġqu est
Ġd et
im e
Ġfa v
Ġboost er
Ġupd ate
in al
Ġw ater
Ġb as
Ġc reat
Ġis s
Ġne ver
Ġid ea
O n
ir on
Ġv is
Ġgo es
Ġe arly
Ġs et
Ġm aybe
Ġl im
Ġwith out
Ġde c
ction s
Ġinc l
Ġw ind
ĠT ex
Ġst op
Ġli ve
Ġcomp ut
Wh at
ĠCh ina
ert ain
A nd
Ġs atell
ist s
Ġany thing
olo gy
k ed
p r
Ġs ide
Ġs elf
Ġc our
ve il
ĠTex as
an ced
il t
lo y
S h
Ġ +
Ġs al
Ġs im
st er
Ġre us
ĠI m
Ġv i
Ġcomp et
Ġhigh er
Ġris k
. "
a ir
e c
v id
at ive
Ġtim es
ĠSupercharg er
Ġmed ia
Ġli kely
orre ct
F or
S D
i um
Ġre ar
Ġv ol
Ġlo c
apt or
Ġc ustom
Ġm ot
Ġk ids
Ġhe ad
Ġag o
w h
Ġin st
Ġy et
ur ing
Ġex per
Ġde al
ong r
iz ed
Space X
t e
Ġus ed
Ġown ers
i ant
w it
at or
Ġh and
ation al
ĠN ew
ĠD o
ĠG iga
Ġpl ay
oo ks
Ġwh ile
ĠH e
Ġcle ar
Ġf ly
Ġneed s
Ġa p
Ġl ight
el d
Ġe as
ent s
Ġro ad
Ġun veil
Ġus ing
Ġfe el
Ġa ch
at a
Ġreg ul
e ver
n o
Ġm ay
oun ce
ri ving
end ing
1 00
S ure
i o
n al
it ive
Ġn um
ĠS o
ef initely
Ġloo ks
Ġhour s
an ies
el come
Ġtr y
Ġmo on
Ġcomp anies
Ġmin s
omm end
1 0
a ve
Ġw ar
Ġp ie
ough t
Ġaut o
C ool
l an
Ġs ense
at ely
Ġunt il
e ck
n y
ra z
Ġdire ct
u es
Ġs imp
Ġb ra
Ġl et
ot her
ĠF or
ra ft
r u
s er
ĠA ll
Ġco ver
Ġmo ve
Ġma king
Ġdel iver
Ġt on
Ġc re
Ġf l
am er
ab ility
ĠSt ar
Ġoth ers
vel op
Ġbec ause
Ġinv est
m b
Ġb lo
Ġf ully
ic les
la d
and ing
vi ous
Ġrec ommend
Ġret urn
Pro bably
C ongr
M y
c l
re s
Ġh y
op per
ur al
Ġte mp
Ġt we
Ġde velop
Ġch ang
mer ic
Ġpri or
v al
Ġm ight
Ġm ph
Ġh alf
Ġg ot
Ġy es
Ġthough t
Ġdis c
Ġlea st
ou d
Ġl ower
al ity
Ġn et
ĠF SD
um e
Ġma jor
Ġdif f
F irst
mp t
un d
im ing
ĠA meric
Ġcon st
Ġfe ature
W ow
a ke
im es
Ġv ac
Ġbuild ing
T o
Ġtechn ology
Ġfav or
c raft
Ġt urn
id er
ust ain
Ġr ate
Ġtr ack
oo k
g er
Ġc ase
am es
ĠU n
Ġaut om
Ġorbit al
Ġcour se
w er
at ic
Ġc urrent
Ġf ind
ou se
Ġpre tty
Ġnew s
Ġsp ac
Ġcent er
i ent
in s
Ġm ust
al e
el er
le x
ci ally
Ġdri ving
Ġwr ong
Ġdep loy
u ro
Ġa c
Ġs ize
ent ion
Ġpo s
ing le
Ġbu y
Ġdoes nt
Ġz ero
Ġann ounce
l ine
Ġa way
Ġre st
Ġthat s
ĠC omp
con d
Ġopt ion
D ragon
R o
ir m
Ġpr ice
a x
n ess
it ies
Ġclo se
Ġhuman ity
er n
re en
Ġc red
Ġd ata
Ġn ame
as es
ĠM aybe
Ġex pect
ĠTh ere
Ġme ans
arg et
Ġvi ew
raz y
i en
er lin
Ġc ome
Ġc amer
is ing
Ġd r
Ġh ere
ot e
Ġfor ward
id ent
Ġst re
Ġwor th
Ġhard ware
Ab out
b al
Ġf al
it es
Ġyou re
Ġtr uck
Ġadv anced
e ed
i eld
Ġto p
Ġn on
ĠA m
Ġfun d
Ġval ue
D o
Ġb ody
Ġp ut
Ġh ot
Ġpro p
Ġtr ying
In ter
ark et
A ll
S orry
d own
Ġt erm
Ġs light
Ġc razy
ar ch
Ġo k
ul ation
Ġme an
iv es
iter ally
a i
Ġth ese
Ġro ck
Ġro of
Ġj our
Ġcl imate
Ġappreci ated
Ġdet ail
Ġsal es
c o
Ġ !
Ġh ome
ad ster
Ġr ad
Ġab le
ĠR aptor
Ġany one
Al so
' re
Y up
a veral
or k
ĠO n
Ġbu ilt
Ġget ting
ĠCan averal
y per
Ġ Q
Ġre d
Th ats
ĠN Y
Ġacc eler
Ġbel ieve
g t
l ed
in ce
ith er
Ġde ep
Ġj ob
iv ely
we en
Ġke ep
Ġquest ion
Ġpie ce
L aunch
e g
p s
v t
Ġs n
Ġw elcome
Ġd ro
ent ial
Ġwh e
ol ut
um m
ĠB oring
pe cially
Ġk ind
Ġob vious
' ve
Ġst ud
us s
Ġj o
lo op
Ġk m
cc ess
ron eship
o g
it ude
Ġm ult
Ġo x
Ġre ason
Ġrocket s
Ġag ree
Ġim o
yper loop
e e
i ally
t le
Ġt ons
Ġth ree
Ġb l
Ġg ra
Ġpro b
Ġex c
Ġpl ace
Sh ould
Ġfal se
u el
Ġs ound
ic ult
et h
Ġe vent
ul ations
ĠD e
a v
us h
Ġha ha
ĠN ow
ĠP ower
ĠE uro
Ġgr ound
l ass
Ġs ustain
et her
Ġan other
ter n
C oming
r act
Ġw on
is m
Ġde ath
Ġthan ks
Ġsome one
Ġpart s
Ġextrem ely
e mpt
Ġc ant
Ġe qu
Ġr a
Ġgo vt
ber t
Ġvol ume
A s
Ġs ci
Ġb it
Ġf ine
Ġd ist
ad ing
Ġne ar
Ġco ll
Ġlong er
Ġper formance
Ġsu ccess
Ġupgr ade
3 0
s olut
Ġt arget
Ġf ri
ll ent
Ġre ach
Ġfor m
ad ed
ur b
D efinitely
H e
P re
re ed
Ġb ar
Ġp od
Ġo ld
Ġin f
Ġhe at
iv en
The y
oll ow
Ġcrit ical
Ro cket
g ress
i ence
l ink
Ġs w
Ġc ertain
Ġh ope
ent ry
ter s
Ġse ll
Ġwor ks
Ġch ance
gr am
Ġfr ont
wit ter
Ġspac eship
5 0
r al
y gen
it al
ro ss
ot s
Ġcom b
Ġbet ween
Ġtest ing
Ġsay ing
Ġsub s
Ġcons ider
ĠRo adster
Ġes pecially
c ent
d riving
u g
Ġs low
Ġs ingle
Ġm od
et ary
as ing
ch ed
ĠA t
Ġfa iring
Ġgener al
Ġbr ing
Ġox ygen
r ac
Ġm ach
Ġl at
Ġre pl
pp y
Ġspe c
Ġdef initely
Ġopt im
wh ere
Ġslight ly
B ut
r ass
Ġb urn
Ġup per
Ġcomp lex
Ġfe ed
ys ics
b on
Ġ u
ic ul
el oc
Ġst and
Ġst ore
ire d
Ġeas y
S ome
b s
Ġ iron
Ġb ro
at ically
Ġl arg
Ġg ive
Ġr un
ĠH yperloop
bab ility
Ġfa ir
Ġrec ord
Inter esting
C ity
M ost
ut e
th er
Ġnot hing
iz ation
ef t
Ġcont in
Ġsu gg
ib ly
Ġregul at
ĠEuro pe
d d
u ly
Ġl aw
Ġl eft
Ġh opefully
Ġex ist
Ġab ove
ap id
You re
Ġpr im
Ġimprove ments
Ġdiff icult
Ġannounce ment
eloc ity
W ere
a it
h opper
k en
s ed
Ġc orrect
Ġd roneship
ter m
Ġst ory
ĠW ould
pe ll
ĠG ood
end s
c ing
en g
Ġha ving
oo king
ĠComp any
L ove
a id
i er
l or
Ġ Z
in ed
it ch
Ġp ol
ĠA s
Ġdid nt
Ġcomplet e
N ew
e ch
r id
s ure
y ond
Ġc aus
Ġh ist
et ing
ad es
Ġst ate
Ġpro gress
Ġgo al
Ġma g
Ġrem ain
Ġtal k
Ġpay load
Ġt ough
Ġf ound
Ġl ine
Ġfa il
Ġwho le
Ġatt empt
fact ory
olar City
Ġmot or
Ġnum ber
solut ely
s ing
u ge
u um
in ts
Ġw ont
Ġf ollow
Ġm arket
Ġp ad
Ġre port
ĠS e
ad a
Ġv elocity
Ġch arge
Ġch eck
qu e
con om
Ġpre s
Ġweek end
Ġleg s
i am
j ust
p on
Ġth in
Ġf le
is ion
Ġl iterally
ĠT witter
Ġde b
em s
Ġfast er
Ġincre ase
Ġcomput er
pell ant
V ery
o id
r uck
er es
Ġb re
Ġf uel
is sion
Ġst ock
Ġtr ip
ab ly
ĠH igh
Ġtoo k
ward s
Ġmatter s
Ġdiffer ence
Ġsustain able
l ish
w all
Ġ ult
Ġf lam
ĠM ay
Ġwe ather
Ġr apid
ĠE x
Ġunder st
ific ant
Ġmult ip
B tw
f ect
l as
o y
Ġc ity
ar ing
Ġd ate
Ġg iant
ĠS N
qu id
du ction
Ġits elf
Ġconf irm
ĠNe ed
b ack
v ie
Ġc ell
Ġin it
Ġre ady
ĠTh anks
Ġhe ard
Ġbet a
Ġsup p
Ġdid n
Ġevery one
Ġsystem s
Ġreus able
O f
W ould
f ort
m os
s wer
Ġp ur
Ġe ar
Ġpro t
Ġpro gram
if y
Ġma in
Ġpre c
Ġact ual
Ġdoes n
Ġthrust ers
ĠIn tern
Ġent ire
A t
I m
Ġp m
ul ts
ĠH ow
Ġcar bon
Ġte ll
Ġfun ction
Ġdesign ed
ĠGiga factory
Ġach ie
Ġton ight
h old
t en
Ġ ed
at ulations
Ġc ause
Ġm ile
Ġh or
ĠS ome
Ġe m
Ġta kes
Ġsol ution
Ġ- -
Ġappro val
Ġtra ffic
Ġvac uum
eth row
e v
p ut
Ġa ction
Ġa ffect
Ġc ry
Ġm id
Ġm ention
Ġto t
et er
Ġre ce
ĠA r
ir d
Ġse cond
ri b
Ġlo g
S A
m ing
in y
Ġs ens
Ġf il
Ġbe g
if ul
ap s
ore d
Ġadd ress
Ġiss ues
Ġwhe el
A W
H ow
N e
t o
t on
Ġs un
Ġf t
Ġd uring
Ġg ame
Ġre l
Ġe ach
up t
ir c
op ing
Ġro om
Ġimp act
Ġpl us
Ġpr oud
St arship
Ġtrans port
ĠWh at
Ġsatell ite
Ġsugg est
L ooks
s ide
z z
Ġw in
Ġb oring
Ġm er
ĠM y
Ġro b
ast er
ĠO ur
Ġta king
Wh en
oc us
Ġcost s
Ġlim ited
ĠStar link
Ġhist ory
Ġfle et
f ace
o ice
t a
w ise
Ġs ince
Ġw ish
Ġf low
as ed
Ġre entry
ĠM ore
ĠC y
ĠN or
Ġar g
Ġfin ish
erson ic
Ġsign ificant
Ġste el
Ġtra vel
Ġsatell ites
Ġcustom ers
A n
H igh
Ġw atch
Ġp ric
Ġp lease
Ġin j
ĠS un
am ber
ĠC o
Ġpro pellant
ort s
pp ing
iv il
Ġph one
Ġiss ue
ĠOn ly
A ct
P lease
l t
l ing
o ing
Ġs uch
ou ble
ver t
Ġat mos
Ġcount ry
Ġexc iting
rass hopper
' d
M a
S ounds
t ical
Ġl ate
Ġe mp
Ġe ffect
Ġe ither
ĠM on
Ġne g
Ġr amp
Ġtr ick
and s
Ġme ant
Ġacc ess
Ġveh icles
Ġfix ed
Ġcred it
O r
u fact
y n
Ġs ent
ou ch
Ġm ind
Ġp ure
Ġp ain
Ġis n
Ġg e
Ġg ames
ac ing
Ġbe aut
Ġan swer
ĠI s
th ough
ĠH opefully
ĠB ut
ire s
Ġget s
Ġinc red
Ġhapp y
ĠSh ould
Ġseem s
Ġloc al
Ġchang es
Pre tty
g le
u ff
Ġs us
Ġr ide
Ġwith in
ur ate
Ġsh are
ĠB o
Ġlo ad
Ġsm o
Ġsaf e
Ġbatter ies
Congr atulations
Ġinj ur
d ers
u ct
on om
Ġw ent
Ġm orn
Ġp ic
Ġd ig
Ġd est
al th
Ġbe yond
ver s
ĠA ust
ce pt
Ġsh e
Ġmo vie
Ġli quid
lo bal
ĠG reat
Ġlaunch es
Ġ~ $
Ġfact or
Ġstr ong
Ġinst all
Ġmultip lan
Ġmorn ing
! ?
N ow
Ġt ank
or king
ar ily
Ġh im
Ġan al
Ġe conom
un k
ent ly
Ġpro bability
ri es
Ġch amber
Ġfin s
Ġconf ig
Ġrequire d
Ġblo ck
Ġdetail s
Ġs our
Ġb ook
ing s
Ġm us
Ġh eavy
th e
Ġco re
ĠC O
Ġdo ck
Ġas k
ĠP er
ough ly
ĠO r
Ġle ad
Ġspe cial
Ġinter esting
Ġown er
Ġim m
Ġprior ity
ai la
Ġrad ar
Ġmach ine
M e
d it
i very
n er
o h
r upt
Ġp ast
Ġp ick
Ġd ual
id es
Ġlo st
ĠG rasshopper
ĠSt ill
Ġatt ack
Ġman ufact
Ġpos itive
bert ruck
6 0
A ut
O ne
W orth
l er
Ġc y
Ġc at
Ġc ode
ro te
est ed
ur s
Ġare a
Ġex actly
ist ic
Ġus ef
Ġtunn els
Ġind ust
Ġappreci ate
Ġexce ed
Ġusef ul
5 00
n ect
y pe
es ign
Ġc ivil
Ġf iring
Ġl arge
Ġon line
ab y
ĠH W
ĠB et
ea k
ĠE ven
iz ing
ĠU AW
Ġpart y
Ġqu ite
ious ly
ĠAmeric a
umm on
S uper
o on
s elf
w ork
Ġt iny
in ation
Ġf o
Ġf our
Ġd ens
ro ll
un e
ĠM a
ĠM ot
ĠA ir
am ed
ce an
Ġor ders
Ġcon c
ĠP lease
Ġch arg
Ġme m
Ġmost ly
Ġper fect
Ġreal ity
Ġloo king
Ġimprove ment
pl an
Ġread ing
Ġtwe et
Ġsw ap
Ġstand ard
o v
ou th
Ġm illion
Ġl ist
Ġre n
ol ine
Ġhe ll
ub e
ff ord
Ġinc ent
Ġbig ger
Ġmet al
he ad
aila ble
a h
v ity
Ġw rote
Ġm ode
Ġp ot
Ġd iam
ut es
Ġsh ield
ĠTh ats
Ġde ad
um b
Ġun less
Ġsc ale
Ab solutely
Ġexce pt
pr il
Ġcre ate
Ġfavor ite
Ġindust ry
S e
W as
g est
Ġs ong
Ġs ite
Ġc oun
Ġf ocus
Ġh er
ac ks
ig ate
Ġst atic
am ent
Ġco ld
ĠL ove
ĠR uss
Ġpo ints
Ġhapp ens
Ġdel ivery
Ġexce llent
Ġsk y
ĠPower wall
Ġregulat ory
Ġbeaut iful
C h
C an
I mp
e ad
t itude
Ġ ice
Ġp op
Ġo cean
Ġre le
Ġwh ite
Ġmo ving
ul es
Ġas s
Ġtest s
Ġcle an
Ġmission s
Ġcomplet ed
Ġhy d
Ġiron y
ech n
e y
o k
r is
Ġa fford
Ġw ide
Ġc al
Ġf ig
Ġto wards
Ġh on
Ġh over
ro t
Ġg iven
Ġen able
ure d
Ġse ats
Ġus ually
Ġpre d
Ġam ount
Ġpart icul
Ġpub lish
Ġav oid
ĠPro bably
On ly
Ġautom atically
Ġcamer a
Ġfeed back
Ġmultiplan etary
v iron
Ġ ut
Ġs ounds
is ed
Ġm ess
Ġof fer
Ġis nt
Ġg lass
ig inal
ĠA nd
Ġr id
Ġsh ot
Ġen sure
se mb
Ġj ud
Ġal though
Ġch all
We ll
Ġaut onom
Ġver tical
Ġfin al
Al most
Ġcount ries
Ġav ailable
Ġoper ating
Ġcreat ed
Congr ats
Ġexpect ed
Ġfri end
N ice
m an
v ol
re t
re nd
Ġw d
ar ter
Ġo p
st ron
Ġbe h
ĠM erlin
Ġpro v
if e
Ġas ked
um er
ĠB r
pp ed
ĠE ng
ph ere
ell ig
Ġcrit ic
Ġbas ically
Ġach ieve
Ġhy p
Ġnet work
Ġtrack ing
Ġsuccess ful
Ġbre ak
Ġdiam eter
2 0
P h
Ġp an
Ġh ouse
id ual
ĠM ach
Ġpro vid
Ġen viron
Ġch ar
ĠE V
Ġcom es
Ġta ken
Ġle ar
Ġser ies
Ġcr ash
Ġbas ed
Ġexper ience
M ore
i k
Ġs it
Ġw ait
or ld
Ġf lo
Ġl ab
Ġre fer
ĠT o
Ġfor ce
Ġe ffic
ĠM ost
Ġnot e
ĠP h
ci ent
Ġart icles
omet imes
Ġgr id
Ġshow s
Ġbec ome
ib ility
Ġhappen ed
Ġdiffer ent
ict ure
Ġrep air
Ġincl ud
Ġincl ude
Ġsubs id
ethrow er
c ast
c oming
g reed
Ġt or
re l
Ġf la
Ġp at
Ġp ark
Ġof ten
Ġan t
ĠA pril
am s
Ġv ote
Ġse en
are d
Ġad just
Ġany way
Ġact ive
ber g
Ġspace craft
Ġroll ing
Ġdeal ers
Ġcomb ust
Ġprim ary
Ġtot al
O h
n ed
u c
Ġ ign
ill ions
Ġon ce
ĠI ve
ĠC ar
Ġpro cess
Ġthan k
iv ing
gr ound
Ġcustom er
Ġap pe
ĠAmeric an
Ġfeature s
Ġcamer as
Ġfund ament
Ġatmos phere
ĠPer formance
Ġprov ide
A greed
G lad
H opefully
c om
e ing
i or
i ans
u le
Ġ '
Ġb ase
at ors
Ġp icture
ĠA d
il ar
Ġtr ain
Ġcon nect
Ġwor d
Ġab ort
Ġcar ry
iv ed
Ġflight s
ang er
mer cial
Ġrequ est
Ġclo ser
ĠNe xt
Ġopen ing
Ġdeliver ed
Ġac ross
D e
O ur
U n
W ith
n a
Ġp aid
Ġd am
ĠS p
ent ially
Ġne cess
ĠN A
Ġal titude
Ġwork ed
Ġsc reen
iver se
over ed
Ġcreat ing
Ġprop ul
Ġjour nal
Ġsn ow
Ġsci ence
ellig ence
W D
o x
y e
Ġ er
Ġt urb
Ġf all
en cy
Ġm ist
Ġp ump
Ġh uge
ac ed
ut h
Ġst or
Ġpro m
Ġal one
Ġevery thing
Ġdem and
Ġfly ing
Ġbl ack
Ġcertain ly
ĠIntern et
Ne xt
Act ually
Ġdens ity
b ers
h aps
o le
p ro
in c
Ġa ctions
Ġs end
Ġth eres
Ġb illion
Ġm om
Ġto w
Ġd en
ĠA re
op s
us ion
Ġr ain
Ġco ast
Th ank
ure s
Ġpre m
Ġpre vent
orn e
Ġelectric ity
Ġph ysics
Ġgu ess
Ġsimp le
Ġra ise
Ġlat est
ĠSun day
Ġsour ce
in ing
ar ant
Ġh at
Ġn amed
el ves
ac es
le ct
Ġfor g
ĠI nd
Ġst ation
ĠA n
Ġab s
em ber
Ġar ri
Ġgreat er
Ġdes c
Ġres ults
itt en
unn ing
Ġpass ed
Ġinit ial
ĠNA SA
s elves
re n
Ġb tw
Ġd ark
Ġg row
ac ity
Ġr d
ĠW as
oun ts
ĠP ar
Ġun c
"" .
Wh y
Ġsee ing
ĠSupercharg ers
olo g
Ġextrem e
Ġcompet ition
Ġnum bers
Ġdeath s
Ġrapid ly
Ġear li
Ġtor que
Ġcombust ion
T urn
c an
g ether
p ar
s h
u gh
Ġs qu
Ġs ays
Ġb ought
Ġm ount
Ġto gether
Ġh ate
Ġre du
ĠS orry
ĠI d
us hing
Ġpro f
ĠW ith
Ġde g
act ion
Ġout side
Ġhe ar
Ġthey re
Ġgas oline
Ġob v
Ġbel ow
100 0
Ġgra vity
Ġpres ent
L ong
i ke
p m
Ġt ube
in ess
Ġb ank
Ġc atch
Ġn orm
as ons
un ately
ĠA pp
ir th
Ġwe b
and y
Ġno se
Ġcont ract
Ġel se
Ġstr uct
Ġquest ions
Ġinvest ors
Ġblo g
Ġdeploy ed
Ġpric es
r an
v in
Ġ Yes
re w
re ad
Ġd ut
ĠS er
ĠI mp
ter day
Ġtr ied
ĠH ope
ĠN orth
Ġk ill
Ġme eting
em i
Ġcom mercial
ater ial
Ġlanding s
Ġother wise
Ġinter view
ag es
Ġshort s
pen sion
Ġmass ive
Ġincre asing
Ġcomm un
Ġwind ow
ĠDo ge
ru ction
Ġcurrent ly
co in
ĠNor way
Ġsus pension
Ġsit u
B est
L A
b y
i ens
o ke
u it
Ġt er
Ġt el
Ġs uck
Ġth rot
Ġo il
Ġl atter
Ġg lobal
ver n
Ġwe ight
Ġv ar
Ġv id
Ġgo vern
Ġro le
ra in
ĠR ep
ap an
Ġhe ight
ĠJ apan
Ġland ed
ĠV ery
Ġacc urate
Ġunder way
Ġadd ing
ne y
ĠCan ada
Ġversion s
Ġsur face
ict ion
Ġvis it
ec ause
ĠFor ce
und red
pon se
Ġthin king
fort unately
Ġearli er
L ooking
S olarCity
c ore
m m
y p
Ġt en
Ġm aterial
ĠS ep
ĠM ode
th orne
ĠW ere
Ġas semb
ĠTh urs
Ġcom ments
Ġany where
bit al
ens ive
00 0
Ġlif t
Ġperson ally
Ġcontin u
Ġenviron ment
c ape
t ime
Ġt ouch
Ġs ched
Ġc or
it ical
Ġto ld
Ġo pp
ĠT oo
am ing
Ġv ast
Ġor iginal
ant ic
Ġal iens
Ġbu g
Ġqu ality
Ġreal ize
Ġsm art
Ġmin or
Ġimpro ved
ys is
Ġgu ys
Ġcap acity
Ġste ering
Ġsimp ly
ien cy
Ġprot ot
Ġhor se
Ġrece ived
Ġbeg in
ĠCy bertruck
Ġcivil ization
A pp
l on
l ack
m r
p le
Ġt ight
Ġt mr
Ġa ero
Ġth o
at ively
Ġc ut
Ġf an
Ġd ouble
ed i
Ġl ink
Ġh it
ĠT X
ĠA iming
Ġne ural
Ġr unning
ĠF ound
Ġse par
ĠH ave
ĠL ot
Ġk id
Ġhe alth
ĠO ne
Ġsp end
oc a
Ġacc ount
Ġpower ed
Ġbig gest
Ġwant ed
Ha ppy
Ġgu y
Ġtal ent
Ġrequire s
ond on
Ġdem o
aut s
Ġvis ion
Ġkind a
Ġdist ance
zz le
Ġanal ysis
Ġimm edi
Ġtmr w
o ssible
p ite
r s
w ide
Ġb low
Ġb irth
et ting
ĠC H
ĠC ould
ĠC omm
Ġv ent
Ġdo or
ĠB ase
ĠB oca
ĠE aster
Ġar r
Ġpo ss
iv ity
ous ly
Ġthr u
Ġhard er
we et
Ġres ponse
St ar
Ġsub ject
Ġcl ar
Ġent ry
Ġsur pr
Ġproduct s
Ġturn ed
Ġconc ern
Ġcoun ter
Ġcritic ism
Ġnorm al
A iming
B oring
a f
m s
m as
Ġ i
er ry
Ġs l
is s
Ġl ay
Ġh undred
Ġn av
ĠS olar
om s
om es
Ġr oughly
Ġr ules
ke y
ĠC l
if t
ĠF e
ra ph
ĠL ooking
Ġsol ve
Ġext end
ag ed
Ġsmall er
Ġbra king
Ġsci ent
Ġpod s
Ġcry o
Ġpain t
Ġchall eng
D on
D ont
e k
h i
m it
Ġ et
Ġ ide
Ġb us
Ġc ases
Ġf am
Ġl as
Ġn d
ĠT e
ĠS emi
Ġe gg
Ġst ar
Ġco lor
ĠL ondon
Ġme as
Ġcan not
Ġhigh est
ĠJ uly
ĠJ oh
port s
Ġengine ers
Ġfe els
Ġres pect
Ġins ide
Ġsim ulation
Ġinst ead
Ġstore s
Ġneg ative
Ġmus ic
Ġmanufact uring
Ġant i
ĠJoh n
f or
p ir
z e
es las
at t
Ġc ow
Ġc ame
ou b
it ors
Ġd anger
Ġh ol
ic a
Ġre li
ĠS at
la id
ĠM ust
Ġr ating
Ġbut ton
ĠF rid
ĠD a
ĠE n
ĠG en
Ġout put
Ġpl ant
Ġad vert
Ġqu arter
Ġinter nal
Ġopt ions
Ġav g
Ġke y
Ġpar king
Ġdirect ly
Ġcre w
Ġyes terday
Ġconsider ed
Ġlarg er
Ġmag n
Ġunderst and
Ġconfirm ed
Ġinjur ies
Ġpot ential
Ġafford able
Ġeffic iency
C omp
E ng
T r
W orking
h or
r ist
u x
Ġ ill
on ic
Ġb s
Ġb ot
Ġc ash
Ġf ight
Ġf ore
el t
ĠS olarCity
ĠS outh
ct or
Ġso cial
ce ed
ul ed
Ġdo ors
ĠTh ose
ĠB erlin
ĠL o
ĠL aunch
ĠG o
iv idual
Ġsa w
ep end
oo gle
Ġdes er
ord ing
Ġlot s
Ġinter ior
Ġexp la
St ill
Ġshort ly
Ġret ro
Ġob ject
ific ation
Ġupgr aded
Ġset ting
Ġtwe ets
Ġdr one
Ġacceler ation
eg as
rac y
Ġlarg est
Ġsupp ly
ĠHow ever
Ġstor age
Ġbank rupt
ĠSep t
g ing
o int
r or
Ġ ess
Ġt it
Ġa stron
Ġs um
Ġw ays
Ġb aby
Ġc la
Ġc ur
Ġc irc
is hing
Ġp age
Ġp ush
Ġd ie
st r
Ġre asons
op ter
Ġr at
Ġr are
Ġr ail
ĠC ons
and en
Ġj ack
ĠH ouse
ĠP l
Ġlo op
ain s
ist ics
Ġhe ating
ĠO b
Ġbu ying
Ġapp ly
Ġdes pite
Ġupgr ades
ĠRo cket
Ġhand le
ĠNY T
Ġmod er
Ġprec ision
Ġarg u
ĠIs p
ĠBo eing
Ġinclud ing
ĠInd ia
Ġthrot tle
ĠFrid ay
n ight
Ġ ir
er al
Ġw om
Ġb i
Ġf it
en e
Ġg lad
ĠS m
ĠS ummon
amp le
ĠM e
Ġst ep
Ġwe ap
Ġr out
lo ck
"" ,
are nt
Ġmy self
xt rem
Ġimp ress
iv al
Ġmis le
Ġexp end
Ġdel ay
ell ing
iver s
Ġclo sed
ĠRe ally
Ġappro ach
Ġoper ation
Ġinf l
Ġult ra
Ġincred ible
vol ution
Ġhyp ersonic
Ġmom ent
Ġweb cast
Ġgovern ment
F R
I nd
M ars
O ver
U D
a kes
a iting
s igh
Ġa head
Ġw al
or ter
Ġp ath
ic o
el e
Ġre b
ĠT eslas
Ġe p
ch ool
ĠM art
Ġso ld
ith ium
ĠF irst
ĠB ro
Ġwas n
ĠG oogle
Ġout come
Ġimp ossible
Ġpl ans
ĠV egas
Ġdri ver
Ġkn own
Ġext ra
Ġoff ic
Ġtrans fer
Ġstart s
Ġwr itten
Ġappreci ation
Ġsur v
Ġlet ter
Ġpos ition
Ġrock s
rac o
Ġlaw s
Ġtrick y
Ġprotot ype
A ny
B C
H i
e gr
g o
u gg
Ġs il
re es
Ġb ay
Ġh ur
ic es
ac hing
ĠT rend
id th
ĠM any
im ent
th anks
op ump
ce llent
if f
Ġen ab
and om
ĠH aw
Ġwor se
ĠB ig
our ces
Ġprodu ced
Ġsoon er
Ġ% .
Ġint egr
Ġmin im
Ġexp on
Ġthem selves
Ha ve
Ġph ys
rem ont
Ġsupport ing
ĠWh y
Ġstr ange
Ġhappen ing
vid ence
Ġfil ter
Ġshare hold
Ġut ility
Ġchar ac
Ġfundament al
Ġchalleng es
hi bit
Ġet c
Ġrat io
B et
U V
U p
a ugh
b all
f ord
o es
r ing
s c
s et
t ion
Ġt un
Ġs ometimes
re am
Ġc orn
ar ks
Ġp et
Ġo dd
ĠT echn
ĠI M
up port
ĠA ny
ur y
ur ity
Ġse qu
Ġ( ~
Ġch ild
ĠR ed
Ġfa ke
Ġsp l
Ġteam s
Ġres er
Ġimpro ves
Ġhum ans
Ġdis ag
form ation
Re ally
Ġins ane
Ġproblem s
Ġtax es
Ġval id
Ġappro x
Ġdem oc
ng th
Ġlim it
Ġwind s
Ġstop p
Ġsim ilar
ĠDo es
Ġinvest igate
Ġreturn ed
Ġdevelop ment
Ġfinish ed
Ġfo ot
Ġparticul arly
Ġautonom ous
Ġprovid ed
Ġnecess ary
Ġassemb ly
E very
n es
r ust
u la
Ġc ross
Ġp ed
Ġn ational
ic y
ĠT r
ĠS UV
Ġon es
om b
igh ter
Ġor g
ĠF ull
Ġse at
ĠH ard
ĠH ear
ĠB e
pe ed
ĠP art
ĠP res
Ġch oice
ĠE very
art ing
con ds
Ġimp ort
ĠO ther
atter y
Ġcont rib
Ġmin us
Ġser ious
Ġpower ful
Ġworld wide
ĠSh ort
Ġlevel s
Ġes cape
Ġreus ability
Ġdr am
Ġstre ngth
Ġobvious ly
Ġcoll e
Ġsuggest ions
ĠAust ral
ĠMot or
Ġcharg ing
Ġturb opump
Ġmisle ading
Ġdisag ree
E ven
F air
H oping
T esting
d ing
e ace
g or
m on
o ly
p ha
Ġt all
Ġt ap
Ġt iles
Ġth ous
Ġth read
Ġb ill
Ġm odel
Ġm arg
Ġm illions
ar ry
Ġto wer
ic ense
ig ation
Ġe ff
ĠI P
Ġy eah
ĠM ass
ĠA ug
Ġr ather
if ied
ĠTh en
ra ul
um ent
ĠD ont
ard ing
Ġun li
Ġup load
ain less
Ġme ch
ss il
pt ion
Wh o
Ġres ources
Ġser ve
Ġinter ested
Ġair craft
Ġph ot
Ġind epend
Ġplay ing
Ġwar ming
Ġfl u
Ġstud y
Ġrepl ace
ĠMon day
ĠAust in
Ġpan els
Ġimmedi ately
E O
F ull
G oing
M A
S omething
S olar
U S
m ak
r ant
r ound
v ation
y r
Ġ ur
Ġt anks
Ġs ports
Ġb ooks
en ge
an sion
Ġp ushing
Ġo cc
Ġg one
ĠT op
Ġbe ha
Ġe vidence
ent er
all ey
ur ance
ĠF remont
Ġse a
ra w
um in
um ing
ri an
ĠH a
ack ed
ĠL ooks
ĠG M
Ġno zzle
Ġint elligence
Ġacc ident
Ġimpro ving
Ġknow s
Ġthrust er
Ġgener ator
Ġsec urity
Am azing
Ġallow ed
Ġrem ember
Ġann ual
Ġpost ed
Ġlight s
Ġconst ant
Ġconst ra
Ġjob s
Ġexist ing
Ġflam ethrower
Ġcell s
Ġachie ved
Ġfig ure
Ġmess ed
Ġpat ents
ĠRep orts
Ġmagn itude
Ġsum mer
ĠHaw thorne
B oth
R aptor
S ame
b o
b ur
k m
v est
in der
in ite
re al
Ġp itch
Ġd ying
Ġl bs
Ġh ar
ion al
Ġg im
Ġg reen
ac y
ĠS F
Ġbe er
od s
ĠM om
im ov
ĠA p
ĠA WD
ir t
Ġwe bs
Ġare nt
Ġtr uth
Ġmo b
ab il
ul ar
ri ef
Ġwor ds
Ġma int
Ġlo se
Ġhe x
Ġhe art
ĠSt e
Ġtest ed
Ġhard core
Ġsp ent
os ite
ĠWe ll
Ġaut opilot
Ġexp lan
Ġstart ed
Ġwr ite
Ġins p
Ġmet h
Ġcomplet ely
Ġallow ing
Ġroll out
Ġcap ability
Ġloc ations
Ġmag ic
ĠSe ems
Ġrob ot
Ġincred ibly
Ġsmo oth
Imp ortant
Ġsitu ation
ĠFound ation
ĠTe am
pir ation
anden berg
xtrem ely
A A
B ig
a king
i pping
l antic
n ers
y th
y ear
Ġ est
Ġt ip
on y
Ġc ast
Ġf i
Ġf iction
en ces
Ġp ort
et ic
Ġg ave
Ġg ives
ĠM ont
us sion
Ġco ating
ate ver
Ġde v
um an
ĠB est
ĠB tw
ĠD ec
Ġal ien
Ġun ion
ost er
Ġhigh way
ĠV alley
Ġper i
oc al
ĠCh rist
ĠIn st
Ġadd ed
Ġreg ions
Ġconf ident
Not hing
Ġind ividual
Ġgu arant
apt ors
Ġmet ric
Ġbel ie
Ġval ve
Ġallow s
ĠPro duction
Ġdisc ussion
Ġjour ney
Ġacceler ate
ĠAt lantic
Ġoptim istic
eng th
ĠAr t
Me ant
Ġren der
ĠPar ad
Ġhundred s
Ġcolle ge
yth on
8 5
B ecause
T A
T ry
a pp
b or
l ay
r ame
Ġa ge
Ġa iming
Ġs umm
Ġb en
Ġc amp
an a
Ġm il
Ġp eak
Ġd ry
Ġd umb
Ġn ice
ve y
ill e
id a
ter nal
Ġst ates
Th ese
Ġv oice
ĠW ish
Ġtr uly
Ġen c
Ġse conds
Ġab ility
ĠD on
ĠP ac
Ġal umin
pp er
Ġcom fort
Ġpl ane
ĠV andenberg
Ġfa ith
Ex c
Ġint ense
Ġexp ensive
Ġhel ium
ĠIn s
Ġhelp ful
Ġadv ent
Ġcl ass
Ġim ag
Ġplan et
ĠY ork
Ġmax im
Ġref und
Ġoper ational
Ġcare ful
Ġbra in
cl ing
ural ink
Ġdevelop ing
Ġchang ing
Ġconst ruction
Do es
Ġdro ps
lor ida
Ġaddress ed
Ma jor
Ġcy c
Ġexceed s
ĠBet a
ĠBet ter
Ġincent ives
Se ems
Ġhyd ro
Ġsubsid ies
Ġredu ce
Ġcommun ic
Ġide as
Ġargu ably
1 2
I d
M ax
P er
T O
d en
m ission
r ous
s es
v ate
w ill
Ġt b
Ġt our
Ġt ires
on es
Ġw all
at est
Ġh ea
Ġh ous
Ġh ang
ic ro
Ġg ig
ĠT ues
Ġan gle
Ġe ve
ĠA C
Ġwe ve
Ġwh ats
Ġwh ether
am m
Ġpro ject
Ġdo g
Ġro t
Ġex ec
Ġse ction
um ers
Ġcon vin
ri ed
ĠB it
ĠD ri
ĠP C
Ġlo ss
Ġhigh ly
ep ends
Ġinc orrect
Ġ% ,
we ek
Ġqu i
Ġrec all
Ġfun ny
Ġres ol
Ġres ale
Ġmin utes
Ġpr int
ex actly
Ġve ctor
Ġstart ing
Ġfire d
Ġcap ital
Ġdire ction
Ġpack age
Ġhold ing
Ġmot ors
Ġcred ibility
Ġterm inal
Ġcomplex ity
Ġdeb ate
ĠHigh ly
Ġfunction ality
ĠCo ast
ĠRuss ian
Ġhyd raul
Ġhon or
Ġpred ict
Ġjournal ists
lect ric
Ġdesc ri
Ġmount ed
Ġhol id
Ġcla im
Ġweap ons
Ġwebs ite
B ack
F e
I P
R es
S igh
T ime
f ather
i ew
n ow
r ation
r ough
r ange
v ille
er os
on na
Ġs at
Ġs ad
Ġb an
it or
Ġh os
Ġn or
ot ive
ĠM k
ĠM ight
Ġst y
Ġst uff
up iter
th rough
am n
Ġr ound
Ġr andom
ur ther
ra v
um ul
ri ane
Ġwor ry
Ġma p
ĠD el
ĠD efinitely
ĠP eople
ĠP laid
Ġal ong
Ġun its
reat ing
ĠR aptors
Ġover r
ven ue
Ġdri ven
Ġrec ent
Ġel ev
Ġfew er
Ġmin ute
Ġsup ersonic
Ġfin an
Ġtrans it
Ġtw ice
Ġim age
Re view
ĠSupercharg ing
Ġcontro ll
Ġsec ret
Ġincre ases
Ġpri vate
Ġautom otive
Ġprob able
Ġwon der
Ġregulat ors
Ġlog istics
Ġinjur y
Aut opilot
plan etary
Ġpop ulation
Ġbeh ind
Ġbeh alf
Ġlear n
De ep
Ġstruct ure
Ġbirth day
Ġposs ibly
Ġclar ify
ĠCons umer
Ġexpend able
ĠAustral ia
Ġmarg in
Ġmob ile
Ġhydraul ic
A C
L ive
P U
f ully
k a
m i
m k
u ild
in ks
Ġs wit
Ġf urther
it ter
it able
et ry
le vel
Ġre se
ĠM T
ĠM uch
ĠM ax
Ġst ay
Ġst ack
im ately
ĠA b
Ġco ok
ur ation
Ġsh ut
ĠW ed
Ġex act
ĠF lorida
Ġcon ven
Ġun iverse
Ġcomp elling
Ġwould n
ci ous
Ġpl aces
ĠJ une
Ġmon op
Ġsol id
Wh ile
Ġqu ick
fer ence
Ġmin i
Ġbo ard
Ġsc ore
Ġcons umers
ition al
ĠWh en
Ġleg al
Ġcool ing
Ġcap able
ĠNot hing
ump tion
Ġcomm on
ĠNew s
Ġfeel ing
Ġwar m
res ent
Ġdro p
Ġfri ends
Ġpur ch
Ġfla ps
Ġmeas ure
oub t
Ġastron auts
ĠPres ident
Ġhea vi
Ġrese arch
+ +
A I
H ard
H uge
N or
b ody
c ool
f rame
i os
m e
o ving
p or
r itical
s on
Ġ )
Ġs weet
Ġc andy
it ect
en sion
ro p
ic rous
Ġre act
Ġre aching
Ġe at
ch itect
ĠM arch
Ġst orm
Ġst ations
ust ed
us e
Ġr ace
se ll
ĠF AA
Ġli ves
ĠB FR
ĠN N
ĠD M
are n
Ġar chitect
Ġpo ll
ud icrous
Ġdri ves
Ġbo at
ĠSuper d
Ġdown load
Ġfire s
Ġind eed
Ġupd ated
Ġcent ral
ĠRe qu
ash down
Ġprop ag
Ġmean ing
Ġacceler ating
Ġstud ent
Ġevent ually
Ġpol icy
ĠIntern ational
Ġhor iz
Ġaffect s
Ġcry pt
ĠMa jor
ye ars
Ġdut y
Ġvent il
Ġfam ily
Ġoffic ial
Ġexplan ation
Ġsumm ary
Ġalumin um
1 9
B attery
L anding
V iew
f it
p ital
w orld
Ġf ac
an o
an gh
Ġd rag
ed ic
Ġl ines
Ġl ithium
Ġn one
ic on
et ch
ac opter
le ar
ot ally
ĠS omething
Ġan g
ĠM in
ĠM ex
Ġr acing
Ġyou d
ĠW est
and a
Ġcon vers
Ġcon dit
ĠD id
Ġall oc
ĠP ython
Ġlo ck
ĠE ast
ĠL Z
ĠL ong
ĠL arry
Ġk Wh
Ġcom ment
ef f
ĠU I
ĠJ upiter
Ġact iv
Ġsa ve
Ġhard est
ult ane
Ġrec irc
Ġexp ansion
St op
Ġext ending
Ġgr ad
Ġgr and
ĠAl most
Ġshow ing
Re g
Ġgener ated
Ġupd ates
Ġtal king
ĠNot e
Ġcomput ing
Ġsim ultane
Ġeas ily
Ġfl ies
Ġchang ed
led ge
Ġwhe els
Ġgra ph
ĠDe ep
Ġequ al
Ġthin ks
How ever
Ma king
Ġdock ing
Ġlead er
Ġpropul s
Ġpropul sion
Ġmist ake
Turn s
Ġbegin ning
Ind eed
Ġgim bal
ĠPac ific
Ġpropag anda
angh ai
ĠMex ico
Ġcondit ions
1 5
C y
N eed
P eople
T C
Y our
c el
d ds
l ation
o j
p ower
r ack
w o
w ord
y eah
on str
Ġs lam
Ġs chool
re y
or ters
Ġc ave
Ġf re
Ġf usion
ou g
Ġp ull
Ġd edic
Ġin put
Ġin hibit
Ġre v
ut s
ĠM ar
ĠA P
ĠC on
ĠC ant
Th en
Th ose
Ġtr ad
Ġen em
Ġex ample
Ġse ver
Ġse mi
ĠH oping
ĠB y
Ġch e
ĠR es
ĠG od
end ed
Ġlaunch ing
ind a
Ġcont act
Ġback up
Ġsy n
Ġser iously
Ġthough ts
Ġhelp ing
Ġwr iting
ĠWh o
Ġtechn ical
Ġlim its
Ġap art
Ġrecommend ed
Ġturn s
Most ly
dd ing
Ġreport s
Ġem ail
to ff
yn am
Ġdest ination
Aut o
Ġtrain ing
Ġdam age
Ġsurpr ising
Ġscient ists
Eng ine
Ġmoder ate
Ġped est
Ġmech an
ĠHa ppy
Ġmaint ain
Ġperi od
. """
A cc
F light
M ight
R ep
S im
T echn
e or
h as
r ors
u z
Ġt ype
er ature
Ġw ild
Ġb io
an ces
Ġm ark
Ġp en
Ġd iv
Ġd ynam
st op
et ail
Ġg ear
ĠS il
ill y
Ġe mb
Ġst ra
up p
ir us
ir rel
Ġwe igh
ĠC ol
ur d
ers ion
ĠW W
ĠW orking
Ġtr unk
Ġdo ll
ant age
Ġwor st
ĠD oug
ĠP ay
Ġlo an
Ġme et
Ġhe aring
Ġprodu ce
Ġour s
Ġsp in
Ġyour self
Ġaut hor
Ġair frame
Ġdel ta
Ġtrans ition
ak a
Ġcons umption
Ġbec oming
li ke
Ġship s
Ġsur round
Ġappro ved
he ed
Ġlater al
ock heed
Ġfr ame
Ġexper ts
Ġpie ces
Ġbra ke
Ġcoll ect
Ġinf o
Ġcontin ue
Ġcaus ing
Ġfail ure
Ġprec ise
Ġachie ving
Ġsmo king
Ġdest ro
Ġeconom y
Ġfo ssil
Ġmem e
Ġjud ge
ĠBr it
ĠAre a
Ġsched ule
Ġfore ver
arent ly
Ġfoot age
ĠHear ing
Ġeff ort
Ġunli kely
Ġflu id
Nor way
C ant
D id
E arth
H T
I s
M uch
S N
S p
S un
V ac
b ase
d le
f light
g ed
o ying
s ub
u ed
y stem
Ġt roll
Ġc apt
Ġf ill
Ġf ool
Ġd in
Ġh ole
Ġre volution
ĠT ri
ot a
Ġbe at
ch eck
ĠM r
ĠA ct
ĠA MA
Ġwe ird
Ġwh atever
Ġare as
se qu
Ġro w
ant s
Ġse ctions
ĠH er
ĠD C
ĠD ay
Ġal ert
ard s
ĠG oing
ĠU N
Ġland s
Ġsp ir
Ġ"" "
Ġspe ak
Ġfun ds
Ġmis s
Ġinter est
Ġexp lo
Pro b
ific ial
Ġleg is
li ed
Ġsign al
urre n
Ġbr ight
Ġsk ill
oll o
On ce
Ġwar rant
Ġdeliver ing
cl us
Ġac cept
Ġjo ke
reed om
Ġrepl aced
ĠAs ia
Ġcaus ed
Ġmer ch
Ġge o
Ġpick up
Ġop in
Ġflo or
uc lear
Ġappe ars
ĠThurs day
Ġrout e
Ġsurv ival
Ġcorn er
Ġdram atically
Ġconstant ly
Ġhos pital
Ġarchitect ure
Ġwarrant y
1 1
2 5
3 5
A r
C ar
C ould
D esign
G iga
H old
M ust
P r
S aw
W elcome
a wn
d o
e en
g in
h ow
h anced
i ef
i que
o al
o la
t rue
in ter
in ally
Ġb all
Ġb and
Ġc orre
ou ter
an ium
Ġd raw
Ġl ane
al er
ig ating
ĠS c
ĠS ame
ĠA wesome
am b
Ġco al
ĠC orre
ĠC rew
Ġyou ll
Ġtr ust
Ġmo ves
Ġex ternal
ĠF lam
Ġab solutely
ĠP lan
Ġch ick
ip le
Ġcomp ared
Ġus es
ide o
du ct
iz es
ĠO TA
ĠV an
Ġact u
Ġsa ving
Ġrec ently
Ġsup pl
ĠCh ica
Ġwant s
ne um
Ġsu it
Ġvide os
Ġcl oud
Ġdep art
erm an
Ġtechn ically
Ġorder ed
Ġexper iment
Ġunveil ing
Ġbra kes
Ġlet ting
ru ctions
Ġdeliver ies
Ġdisc overed
Ġkeep s
Ġevent s
Ġbro ad
Ġprim arily
Ġprot ect
Ġem oj
Ġsens ible
Ġrob ots
Ġwish es
Ġdig ging
Ġautonom y
Ġlab or
Ġabort ed
Ġabs urd
raph y
Ġadvert ising
Ġtit anium
ĠMart in
Ġintegr ated
Ġexpon ential
Ġvalid ation
ĠDri ve
Ġpropuls ive
Ġdedic ated
Ġchick en
G iven
I C
L atest
N Y
S c
g n
h ood
l and
p aring
r ank
s y
Ġs ed
Ġw ise
at tle
Ġf ace
Ġm atch
Ġm icro
Ġp yr
Ġd ied
ed eral
Ġin formation
Ġn ar
Ġn ature
ĠT imes
ĠS en
Ġe mer
la st
ĠM c
Ġst ainless
ĠA riane
ĠW orth
Ġha vent
ĠB ar
ĠB anks
ĠP re
Ġal gor
ea ut
Ġch art
ĠR UD
ĠR IP
ĠG ot
ain t
Ġcar go
Ġus er
Ġtim ing
ĠO x
ĠO ver
ĠO ct
Ġgreat est
Ġbu ff
Ġam b
os ed
Ġres c
Ġacc ording
Ġexp os
itt ed
ĠUS A
Ġreg ion
Ġadv antage
ĠK ore
Ġatt ention
Ġins pe
ĠNe uralink
Ġsec s
Ġserv ices
Ġid ent
Ġpack et
Ġref light
Ġcompet itors
Ġmot ion
Ġtemp erature
Ġspac es
Ġlat ency
Ġoptim ized
ĠAs imov
Ġremain s
Ġfound ation
Ġentire ly
Ġsignificant ly
An n
Ġload s
Ġinstall ed
Super charg
ĠRuss ia
Ġcal c
Ġbreak through
Ph ysics
Ġforg ot
Ġsqu irrel
ĠApp le
Ġenvironment al
Ġarr ay
Ġlay er
Ġjack et
Ġwom en
Ġcharac ter
Ġtun ed
ĠAug ust
Ġindepend ent
mak ers
ĠChrist mas
Ġsat is
ĠRequ ires
Ġalgor ith
8 0
A re
A fter
B usted
G u
L e
P art
S ign
U m
U sing
a ks
k n
l ies
m ins
v il
v ada
y ou
Ġt rend
in ux
Ġs ing
or bital
Ġb ur
Ġf irm
is es
Ġp ilot
Ġin ert
al t
ĠT ry
id ed
la unch
ĠM an
ĠA st
ir l
ul ated
ge e
Ġex it
ĠF ate
Ġse arch
our se
Ġch ip
ip ment
ĠE xtremely
lo se
ĠR H
Ġup coming
Ġcomp ress
Ġus ers
em ent
Ġwould nt
ci ence
ont al
Ġbu mp
Ġapp lied
ric k
Ġam ounts
Ġengine er
Ġsol ved
Ġper haps
we ar
Ġback ground
Ġres ult
Ġbo ys
ick el
ĠCh eck
Ġhapp iness
Ġcould nt
oth s
Ġlif toff
Ġhelp s
Ġhow ever
pect ed
ĠNe vada
aw att
Ġlea k
Ġsk etch
Ġorder ing
Ġref ine
Ġcomm and
Ġdec ades
ertain ly
Ġreus e
Ġloc ation
Ġdeal er
Ġplay ed
Ġthought ful
Ġdeploy ment
Ġrest ored
Ġjo in
Ġequ ipment
Ġspec ies
pon ed
Ġsupp orters
Ġpur ple
ethrow ers
Ġtot ally
Ġrele ases
Ġrele ased
Ġop ens
ĠPh D
Ġabs or
Ġarri ves
Ġlas er
Ġdanger ous
Ġreli ability
ĠRed dit
Ġthous ands
Ġhex acopter
Per haps
ĠBit coin
Ġqui et
Ġholid ay
Ġsty le
ĠSuperd raco
Ġconvers ation
Cy bertruck
Ġstra ight
HT SA
Ġopin ion
D riving
D epends
M ass
M oon
P A
S J
T E
V ideo
a ult
c one
h ere
i ot
o king
o gee
p ay
p ons
u ilt
v able
Ġ outer
Ġs ix
Ġs illy
or bit
Ġb day
Ġb orn
an cy
Ġm ir
Ġp ending
Ġp neum
Ġd oubt
Ġh es
Ġin vent
al act
Ġn at
Ġn om
Ġg onna
ac c
Ġre charg
ut er
ve al
ot es
ill iant
ĠI V
ĠI ron
ch ang
all el
up s
ir gin
out s
Ġbut t
ĠC A
ĠC urrent
Ġpro s
Th ree
Th ought
ĠW ar
ab les
ĠF ord
Ġj ump
um ans
Ġcon d
Ġcon vert
ĠH is
ĠH ait
ĠB lo
ĠP r
Ġlo ved
ĠL ike
Ġme g
"" ."
Ġad m
ĠJ on
ĠV ersion
ĠV irgin
Ġsa fer
oo h
ft ware
Ġper mission
Ex cellent
Ġres ist
Ġpr inc
Ġmis sed
Ġinter planetary
Ġthem e
Ġevery where
Ġcr ush
In c
Ġgr ou
Ġdef e
Ġtw ea
Ġadv ice
Ġadv ance
reci ated
ix ed
Ġcle arly
Re ad
ĠSh anghai
Ġboost ers
erm i
Ġlea ve
Ġsur vey
Ġpost poned
Ġplan ning
Ġoper ate
not her
Ġes th
Ġap ogee
Ġroad s
Ġsimp l
ru ct
vious ly
Ġstre am
Ġstud io
He aded
Ġsubs onic
Ġmention ed
Ġfil ters
Ġemp loy
Ġfocus ed
ĠEng ine
ĠEV s
cient ists
Ġer rors
Ġfall ing
Ġdesc rib
Ġvar iant
Ġopp ort
Ġsepar ation
Ġsepar ate
Star link
Ġi Ph
for ce
Ġsharehold ers
Ġspl ashdown
Ġdemoc racy
Ġstopp ed
ĠIP O
ĠAp ollo
Ġtb h
Ġreact or
Ġventil ators
Ġdestro y
Ġsaving s
ĠOx ford
Ġexpos ure
ĠHait i
! "
4 00
C l
C ont
I nt
L ife
P V
R uss
S T
S er
S upport
g es
h opefully
i ation
i ers
p oint
r ate
s p
Ġt ire
Ġa mp
Ġs on
re ak
Ġth res
Ġw ing
Ġb iz
Ġc ult
Ġf u
en n
en ing
Ġm al
Ġm ine
ar rass
Ġo oh
Ġl ength
Ġl inks
st e
et e
ig s
Ġan cient
ly ing
ĠI nt
od es
ch e
ĠM er
ĠA ud
ĠA ng
il ities
Ġne igh
Ġr ise
Ġco res
Th rust
ĠW on
Ġtr i
Ġex cess
ĠTh ail
ĠF ermi
Ġli kes
ri ble
ĠB ill
our s
ĠD esign
ĠP an
Ġch ain
ĠE nd
ĠE lectric
ack ing
lo ve
em etry
Ġpre t
Ġpl aced
int elligence
ric ks
Ġfa ult
Ġsol ving
Ġpart ies
wn s
Ġart ificial
Ġexp l
Ġunder ground
lic ations
ne xt
Ġfast est
Ġtw itter
Ġclo s
Ġbec omes
Ġind ic
Ġpublic ly
Ġcount down
Ġmet er
Ġcomplet ing
ĠRe ad
ĠY our
Ġdem onstr
Ġpar ach
Ġpar allel
Ġvis ible
Ġstop s
Ġcompet itive
Ġvol can
Ġhand s
Ġhand ling
Ġeas ier
Ġcover ed
Ġcover age
cl ud
Ġmajor ity
Launch ing
Ġexc ited
Ġra ised
Ġsell ing
Ġspec ific
Ġremain ing
Ġfollow ing
Ġfollow ed
Ġdeb t
Ġapproval s
Ġlog s
Ġwatch ing
Ġemp has
Ġrid icul
Ġappe ar
Ġdut ies
ĠImp ro
Ġter rible
Ġlas ers
Ġegg s
Ġdeser ves
Ġbankrupt cy
Ġwal k
Ġchild ren
ĠMont y
ĠParad ox
Ġben ef
Ġimag ine
Ġconven ient
ĠDM V
Ġhoriz ontal
Ġfre qu
Ġemb arrass
Ġpyr am
ĠSen ate
ĠKore a
Ġinspe ction
Ġthres hold
ĠThail and
! )
2 50
4 0
A nother
C he
D T
M any
M ach
P ut
R ight
S F
T S
b ot
c omp
h r
l ors
o il
p ack
r ong
s ounds
Ġt ree
Ġs ummon
Ġw er
Ġb rief
at able
Ġc and
Ġf ive
Ġf ood
Ġf ield
Ġf reedom
en u
Ġm ill
Ġto ol
Ġp ers
ed y
Ġl uck
Ġh rs
st anding
Ġin no
al o
et ed
et ime
Ġg rey
Ġre venue
ĠT al
ot ed
ĠS A
ĠS hip
ĠS elf
ĠS ince
om berg
Ġe g
ver se
id ence
id ering
Ġit er
Ġco ff
Ġco lors
ĠC ourse
Ġpro ceed
if ically
Ġv ary
Ġsh own
Ġtr action
Ġnot ice
ĠH opper
ĠB l
ĠB lack
ĠL et
ĠL inux
ĠR ight
Ġup on
ĠG u
ĠG et
Ġad ults
ĠO ffic
Ġgreat ly
Wh ich
ord ers
row ser
Ġexp ress
Ġworld s
Ġlif etime
Ġhum or
Ġcall ing
Ġatt ach
Ġcent ers
Ġplan ned
Ġste am
Ġamazing ly
gen cy
Ġrep resent
Ġdet ect
Ġbas ic
Ġvis iting
Ġcomput ers
Ġvi ol
Ġexper t
Ġfund ing
Ġrad io
Ġdist ract
ĠAt las
Ġspec ifically
ĠZ ip
Ġfail ed
Ġrece ive
ĠMore over
Ġarg ument
Ġpric ing
Ġinstall ation
ĠMa kes
Se cond
Ġmist akes
olog ical
Ġsuck s
Ġconcern s
Ġess ential
Ġimpress ive
Ġhur t
bo ard
ĠDel ta
por ate
Ġcrypt o
Techn ically
ĠDoug las
urren cy
Ġnar row
alact ic
Ġemphas ize
Che ck
B lo
C urrent
E D
S ide
W al
b oy
c er
f ast
p her
v ant
w ed
w idth
z en
Ġ Yeah
Ġ urb
in ary
Ġb attle
Ġc m
is is
an ing
Ġp ics
Ġthe ory
Ġl mk
mp h
Ġn ons
Ġn uclear
el p
el ect
Ġg ar
Ġg un
Ġg iving
Ġre pe
ĠT V
ĠT ime
ĠS ign
Ġbe ats
om al
un t
Ġst uck
Ġwe ak
us ed
ĠC enter
ĠC ritical
Ġv irus
Ġsh ipping
ĠW SJ
ĠTh ank
Ġse al
Ġj unk
ĠH ar
ĠB S
ĠB ay
ĠD an
ĠP ic
Ġlo aded
Ġun kn
ew ay
ĠG PU
ap se
Ġte xt
con s
ci ety
ĠU pper
ĠV ol
Ġsome how
Ġpower t
Ġinter n
Ġcr isis
Ġsuper all
ĠAl pha
ak en
Ġcons cious
ane u
ĠWh ite
Pro duction
Al ways
Al ready
Ġsign ed
ĠYou re
Ġroll s
less ly
Ġfix ing
ĠThey re
So on
Ġdec ade
Ġhead er
Ġap ocal
Ġvac c
Ġoption al
ĠQ A
Ġdro ve
ee ing
Ġreport ing
ĠNeed s
Ġwin ter
Ġwatch ed
Ġcharg er
Ġmem es
ah em
Ġshield ing
Ġpop ular
Ġrid ing
Ġlear ned
ik ola
Ġfundament ally
Ġdeg rees
Ġtalent ed
ĠFe b
ĠNYT imes
ĠSm art
Ġphys ical
bur g
Ġguarant eed
app reciated
Ġresol ution
Ġpurch ase
Ġalloc ation
Reg arding
Ġsever e
ĠGod ot
ĠFlam ethrower
ooh oo
Ġgrou p
ĠiPh one
wns ville
Ġembarrass ing
Ġurb an
Ġunkn own
3 00
4 5
A ir
A stron
B y
F rom
F inal
G oal
G erman
H is
J uly
K inda
L ike
M in
R O
T om
T od
T otally
U h
W oohoo
e er
f all
f aces
g raphy
m a
o ss
w ar
w as
Ġa ud
Ġs ort
re st
re te
Ġth erm
Ġw ast
Ġw idth
Ġb al
Ġm aneu
Ġd ive
Ġd ial
Ġd ivers
Ġl icense
Ġh ops
al ready
Ġn u
Ġn ets
ic ious
Ġg l
ac eship
ĠT urn
ĠS ol
ow ers
om ain
Ġe vol
Ġst at
Ġwe alth
Ġr ig
Ġr ule
Ġco lon
ĠC ash
ĠC EO
if ies
ation ary
Ġsh orter
Ġtr ouble
oun cing
ĠTh ese
ĠF orm
ri er
ĠN HTSA
ĠN ikola
ĠD is
act ually
ĠE U
Ġun it
Ġun fortunately
ĠL ife
ost ing
ap it
con el
Ġar ms
Ġpl at
ĠU LA
Ġprodu ces
Ġmon key
Ġsy mpt
Ġmis sing
Ġexp anding
ĠIn f
Ġfact o
Ġext ension
Ġsc al
pl ay
Ġsub tle
form ed
ĠStarship s
pect ive
atch ed
Ġdon ate
Ġgener ation
Ġsign ature
Ġid iot
Ġann oying
Ġhold s
Ġunt rue
Ġcomput e
Ġcompet ing
Ġcre ation
Ġtemp or
Ġtwe eting
Ġconst it
ĠUn iverse
Ġac id
Ġbuy ers
Ġstre ets
ĠDe aler
Ġmach ines
Ġbro ke
Ġpol itical
Ġsuggest s
Ġeffect ive
ĠBo oster
ĠOr der
ĠOr bital
rupt ion
ĠMot ors
Ġren ew
Ġrefer ence
Ġrepair s
Ġprocess ing
Un fortunately
Ġer ror
Ġstruct ural
yp es
ĠFe els
ĠJohn ny
Ġbot t
Ġsetting s
ĠBro wnsville
Ġpet ition
ĠDoes nt
Ġphot o
Ġfi ber
Ġmil est
eros ene
Ġoverr ide
Ġelev ator
Ġswit ch
ĠAb out
Ġche ese
Ġbio graphy
Ġspir it
Ġbump er
Ser iously
B as
C on
G ot
L ast
M W
N N
O pen
P al
R est
S at
W orld
a ur
b ut
b ox
c ceed
e ction
f irst
o very
s pace
v ice
w d
w ith
y d
Ġa w
Ġa im
Ġth reat
Ġth ird
es ides
or se
or der
or ical
Ġb rowser
Ġc ities
Ġf at
Ġf wd
ou ple
it ud
Ġm elt
Ġp ap
Ġp ounds
Ġp acks
Ġp eace
Ġd ies
Ġl oud
Ġl ighter
ro wn
ro ph
Ġn orth
et ter
le e
ĠS ec
ill ing
Ġe ye
ct ors
ĠI C
ĠM un
all out
ter ing
Ġst ars
Ġst abil
us able
am mer
Ġco vid
ur ally
ĠW ater
ĠW atch
Ġtr ail
Ġtr illion
Ġen j
ul ating
Ġnot ing
Ġas cent
Ġex clus
ĠF l
Ġse x
Ġli e
Ġab t
ĠB ob
ĠB lock
ĠB MW
Ġlo ves
ĠE l
ĠE ffect
ew ard
ĠL aw
ĠL icense
ĠL udicrous
ĠG Wh
ĠG ear
Ġme mb
Ġcomp la
Ġcomp ens
ire ct
ist ent
con t
Ġar riving
end ar
ĠSt an
Ġno ise
Ġhigh light
Ġpl ate
ĠU p
ĠO f
ĠO k
vi or
Wh ere
Ġint ro
Ġqu ote
Ġrec overed
Ġrec overy
Ġwhen ever
Ġres pons
Ġunder appreciated
itt ee
Ġspace port
Ġend orse
Ġsu cceed
Ġcall s
Ġsub orbital
Ġgu ide
Ġdep ends
Ġgener ate
Ġstr ate
gg ing
Ġperson al
fact ion
Ġplan ets
Ġref lect
ning s
Ġexper ien
Do ge
Ġput ting
Ġreach ed
Ġu h
ĠZ ero
Ġult imately
Ġunderst anding
Ġinit i
Ġed itor
Ġmid dle
Ġneg atively
Ġanswer ed
Ġanal y
Ġeconom ic
Ġattack ed
ah n
Ġass uming
Ġhon ored
Ġchall enge
Ġign ore
Ġign ition
Ġconnect ed
Ġnecess arily
Ġprom ising
ĠPar is
Ġnose cone
Ġhealth y
Ġarr ays
Ġpush ed
Ġphys ically
Ġorg an
Ġbeha vior
vest igating
Exc ited
Ġadvent ure
Ġcyc les
Ġmonop oly
Ġquick ly
Ġactiv ate
Ġsimultane ously
ĠSil icon
Ġweigh s
Ġsed an
Ġsatis faction
Ġopport un
Ġamp l
Ġexpl ode
Ġridicul ous
Ġcoff ee
Ġbal ance
Ġmilest one
. ""
C ons
D ef
E as
F SD
H ere
H ell
I ve
I ron
L i
L iterally
N ever
P S
P lay
Q u
S ingle
a iring
a ily
b ow
c all
d y
d om
e es
g ot
g ood
g ian
h en
j o
m ed
m ore
n or
p re
s atell
s ustain
w he
Ġw eld
es c
Ġb other
Ġc it
Ġc op
Ġc ute
Ġf old
ll a
ar re
Ġp ist
Ġd ream
Ġl ame
Ġh ide
ro om
Ġin acc
Ġn ested
ic ing
el es
el ing
ion ics
ot or
ĠS X
ĠS am
ĠS ur
un g
ĠM ain
im ler
Ġr an
Ġr um
ĠC ity
ĠC ont
Ġpro te
if ts
if ying
Ġtr iv
ab in
Ġdo om
Ġas king
ant ed
Ġse ason
ra st
Ġli ber
Ġli ked
ĠH Q
ĠB raz
ĠB ecause
ĠD ef
Ġal pha
Ġwas nt
Ġch em
ĠE vil
Ġk ick
ost ationary
Ġjust ice
em ed
Ġgood ness
iz ations
ĠJ an
ep ing
ud den
atter n
port ion
ric t
Ġsp here
ats h
Ġfe ar
Ex p
we ight
ount ain
Ġacc ounts
Ġbo x
Ġsy mb
Ġpr act
Ġorbit s
Ġexp and
uck er
St ay
ex pected
Ġtrans l
Ġtrans mit
Ġtw ist
Ġener g
Ġph ones
Ġfar m
Ġret ired
Re ason
ĠNo v
Ġsign s
Ġbr ought
Ġtal ked
Ġincre ased
Ġdec ide
wh ich
Ġdevelop ed
Ġdisc ount
Ġrest art
Ġcomb ined
Ġbring ing
Ġstate ment
Ġflam e
ĠEx cellent
Ġunderst ood
Ġtell ing
Ġsens ors
Ġrel ative
Ġimpact s
Ġwin ning
Ġmer ger
Ġemp ty
Ġdig ital
Ch ina
Ġparticul ar
Ġoffer ing
ĠEng lish
Ġprovid ing
Ġeffic ient
ĠSer ies
Ġincreasing ly
Ġvast ly
Ġkid ding
ĠDa imler
ĠLo ved
Ġdeser ve
Ġcur ious
Ġir l
Ġwom an
Ġep is
Ġep ic
Ġminim ize
Ġsharehold er
Up gr
augh t
sc ope
Ġsequ ence
Every thing
nes ota
piration ally
ĠInst ructions
Ġbelie ving
Ġhous ing
Ġheavi ly
Ġgrand father
Ġtrad itional
Ġdynam ic
Ġcollect ive
Ġdin ner
Ġband width
Ġalgorith m
ĠVirgin ia
Ġtwea ks
Ġbenef it
Ġinno vation
Ġviol ence
Ġnons ense
ĠForm ula
Ġplat form
ĠUp d
whe el
ĠBraz il
1 4
A wesome
G etting
H ad
M otor
O b
R ed
c ri
g oing
h ouse
l im
o ys
r atic
s w
u y
u is
u itive
w yn
Ġ =
Ġ [
Ġt ast
er oth
Ġw aiting
at ory
Ġc aut
Ġc aught
ing e
Ġf og
an n
Ġm enu
ar ke
Ġp upp
Ġp attern
Ġd uration
Ġd aily
Ġl b
Ġh ull
st s
ro ved
Ġin ev
Ġg ain
Ġre duction
ot al
Ġfor um
un ion
Ġst ress
ĠA nt
op t
Ġne ut
am ination
ĠC ent
ĠC ost
ĠC ount
Th eres
if ting
Ġsh ear
Ġtr im
Ġdo o
and er
oun ced
ra p
ra ge
Ġli ving
ĠH am
ĠH ere
ĠB us
ĠB rian
ĠD etail
ĠP eace
ard ians
Ġun re
ĠL e
ĠL ook
ĠR ad
ĠR and
ĠR WD
Ġk erosene
are s
Ġus age
em ents
ry pt
Ġpre p
ĠSt one
any e
ass is
ĠV ac
int uitive
Ġcont ent
Ġdri vers
ens us
os es
Ġpart ners
Ġel ements
Ġinter face
red ibly
Ġreg ard
Ġadv oc
Ġthrough out
Ġins ert
Ġins urance
Ġdep th
Ġtax pay
Ġread ers
Ġval u
Ġent er
Ġent ertain
Ġrem o
Ġav ionics
Ġroll er
ffic ient
Ġdec ision
Ġunveil ed
Ġfl at
Ġdisc uss
ĠUn der
Ġview s
Inter view
Ġterm s
Ġjour no
Ġdro pped
Ġjo ined
Ġmult i
Ġreason able
Ġoptim ization
Ġfair ly
Ġsugg esting
Ġcaus es
Ġmid night
Ġrob ust
ta ire
Ġramp ing
Ġstrong ly
Ġpick ed
Ch ris
Ġbreak fast
Ġflo ating
Ġtrain s
pro bably
Ġden y
Ġprem ise
Ġarri ved
Ġunc ertain
Ġpresent ation
Ġsitu ations
ĠComm ission
Ġsl ower
Ġnav igation
ĠCl arke
Ġreli able
ĠSat urn
Ġexpla in
Ġcirc le
Any one
Ġstopp ing
Ġcontrib ution
ĠSte ven
Ġrobot ax
Ġproject s
Ġprint ing
Ġdescri be
Ġdescri ption
Ġfinan cing
uild ing
Ġauthor ities
check ing
Ġexplo sion
Ġresc ue
Ġspaces uit
Ġsing ing
Ġfirm ware
Ġinert ia
Ġrecharg ing
Thought ful
Cl imate
Ġpers pective
pher ic
ĠHar ris
ĠVol taire
Ġconscious ness
Tod ay
Ġsympt oms
ĠInf inite
Ġmemb ers
Ġcit iz
5 5
; &
A P
A d
A h
A p
C alifornia
D r
D amn
E F
L ockheed
M E
P ower
R em
R oughly
S he
T W
T wo
b ed
c ar
c rack
e um
f l
g us
i pe
k g
k ra
m ate
r ont
s ight
v ative
y al
z ard
Ġt ea
Ġt ick
in ction
on ored
Ġs ele
re le
Ġth us
Ġth ick
Ġw ood
Ġb reat
Ġb omb
Ġc ats
Ġf acing
Ġf elt
Ġf ederal
is on
en ger
ll ow
an os
ar l
ar ian
Ġl id
Ġh ence
ro x
Ġin ference
al most
Ġn ickel
el a
el ess
as y
Ġbe ach
ow ed
om ments
amp ing
ent y
ĠM ad
ĠM erry
Ġst ick
im ation
im arily
op p
us ually
Ġr ich
ĠC ongr
ers ey
and on
Ġas p
Ġex ting
ĠF H
ĠF rank
Ġde orbit
ĠH ad
ĠH ell
ĠB en
ĠB el
Ġma ster
ĠD amn
Ġch oo
ĠE conom
Ġun s
ĠL atter
ĠG ary
ĠG iving
Ġout fit
ĠSt ock
Ġcan cer
Ġcom et
Ġover he
ĠJ eff
ĠJ ersey
Ġact ing
Ġsa ved
Ġshould nt
Ġsome where
Ġle ading
Ġdes cent
Ġright s
Ġcont ing
Ġsp ot
Ġsp oke
Wh ats
vel ope
Ġrec og
ĠX mas
ord s
Ġbo gus
ĠIt al
ang ing
Ha ving
Ġreg en
Ġreg arding
ag ic
Ġdef ense
Ġph ase
Ġadv is
Ġcons umer
Ġcons idering
ĠK im
ĠJust ice
Ġdon ating
ob ahn
Ġins an
Ġins ight
Ġdep ending
erm any
Ab ort
Ġsur faces
Ġpass ing
Ġpass enger
Ġz one
Ġplan es
Ġfr ames
Ġwhere as
Ġman ip
Ġman age
Ġcreat ive
Ġwind ward
Ġcompet e
ĠDo D
ĠStar base
Ġpos it
Ro adster
Ġfund ed
Ġdetail ed
co very
ĠOn ion
Ġred esign
Ġcoll ision
Ġslow ly
Ġmod ern
Ġbro ken
ĠSe emed
Ġcheck s
ĠHigh est
Ġflam ethrowers
Ġachie ves
Ma kes
Ġeconom ics
Ġblock ed
Ġmus eum
Ġdock s
Ġlead ers
Ġattack ing
Ġmanufact ur
Ġcy cl
Ġmem ory
plan et
Ġass ess
ĠEng ines
Ġpark ed
Ġgrow th
olog ies
ĠImp ortant
Ġkill ing
Ġwindow s
Ġsched uled
Ġopp osite
Ġir rele
Ġinfl u
Ġsil ver
Ġcharac ters
ula h
mon th
Ġinsp ired
ĠArt ists
bor hood
Ġcyc le
Ġhous es
umul ative
aren ts
ĠAP J
Ġenem ies
eor ge
ĠPay Pal
Ġcapt ured
ĠUN IC
Ġemoj i
Ġbuff er
ĠRH D
Ġcompress ion
Ġnom inal
Ġmeg a
Ġprinc iple
Ġbiz arre
Ġneigh borhood
Ġpyram ids
Ġpowert rain
Ġsuperall oy
ĠStan ford
sustain ing
Ġprote ction
Ġliber ty
Ġinev itable
crack er
kra ine
Ġlid ar
ĠEconom ist
Ġrecog n
ĠUNIC EF
6 00
A dding
B eaut
D one
D raco
F ound
G I
G en
H yperloop
K ids
L ot
R ough
S m
V AC
Y ay
c ies
g et
g ment
h uman
i us
m aybe
o e
p ose
r out
s i
s cientists
t est
y uz
Ġ ?
Ġ ie
Ġt able
Ġa ware
Ġa ward
on ly
on ge
Ġs orry
Ġw a
Ġw ave
es is
Ġb ab
Ġc lic
Ġf ought
Ġp owers
Ġo wed
Ġd y
Ġd er
Ġl ining
Ġh op
Ġh ero
ro ck
et t
as semb
Ġg rief
le ment
ig ger
ut ions
ĠT ra
ot ic
ĠS upport
Ġbe ast
Ġan ten
Ġfor mer
ver age
ent ions
ad er
ad ian
ĠM arket
Ġst anding
th rop
ĠA F
ĠA ss
Ġwill ing
am a
Ġco inc
ĠC ather
Ġpro of
Ġpro portion
ĠW orld
Ġmo ons
Ġmo ved
Ġen velope
Ġor ig
ol ies
ra pped
Ġcon gr
ĠH as
ĠH umans
ĠH VAC
ĠB BC
ĠP R
ĠP ri
Ġal ive
Ġch oc
Ġun e
ĠL ess
ĠL os
ĠR T
ĠR em
ĠG etting
Ġme al
ist ing
Ġgood s
Ġar m
Ġpre fer
Ġta il
Ġour selves
Ġsa ves
Ġle ase
We ve
Ġsp an
Ġkn ew
we ll
wn er
Ġafter no
Ġhel d
ĠIn ter
Ġlif ting
Ġspace flight
Ġair port
Ġfin ally
Ġsaf ely
ne cess
Ġsc am
Ġtrans action
Ġconf usion
ak er
low ing
vent ion
ĠSh ow
ĠLA X
Ġmet ap
Ġtax ing
Ġlea ving
Ġpass word
Ġroll ed
Ġinv ited
ĠY ay
Ġcour ses
Ġsal e
air s
Ġhead ed
Ġwar ning
ru g
Ġinvest or
res h
Ġnon stop
Ġsn ail
As cent
Ġinf inite
Ġpol ice
just ing
Ġbre aks
ĠMay ans
Ġinit ially
Ġprogram s
Ġaffect ed
Or iginal
Ġsent ient
Ġge ostationary
Ġcivil izations
Ġconc rete
Ġincent ive
Ġhyp oc
ĠAd ams
Ġjournal ism
Ġpump s
Ġblack outs
Ġmom ents
Ġprevent ed
Ġforg et
Ġgrow ing
sh ould
ĠWith out
Ġtel esc
Ġhorse f
ĠBase ball
Ġlay ers
ĠEn hanced
ĠSept ember
iff icult
Ġenab led
Ġexpon entially
Bet ter
ĠIM F
nes day
ĠTr ans
ĠOther wise
ĠMass ie
Ġreplace ment
Ġconstra int
Ġmeth ane
Ġcommunic ation
Id e
Ġconvin ced
Ġcontroll ed
Ġcook ies
ĠWed nesday
Ġmini ature
ios is
Ġpedest rian
Rep ly
ĠBrit ain
Ġsuppl iers
Ġamb ient
Ann ouncing
ĠTry ing
Ġcond ition
ĠAud i
ĠAng eles
Ġpret ending
Ġparach utes
Ġvolcan o
ĠImpro bability
Ġgl itch
Ġmelt down
Ġnorth ern
Ġanaly sts
Ġinacc urate
Ġcaut ious
Ġunre ason
Beaut iful
ĠCather ine
% .
2 500
8 00
C P
D A
G lobal
H O
H es
M s
M erlin
P rom
R ad
S W
T witter
T aking
U s
b ac
b urn
b reak
c il
h ost
l ishing
m ber
o ff
o gy
p ad
p ass
p ress
s our
t r
t age
t icle
v ely
w thorne
Ġ q
Ġt ent
in king
Ġs ight
Ġs ample
re asing
Ġw if
Ġb unch
Ġb ricks
at r
at ics
ing er
is dom
ou st
en ess
an cing
Ġm ar
Ġm ath
ar a
Ġto bac
Ġp arents
Ġo h
Ġo dds
Ġd i
Ġd ome
Ġd are
Ġd iver
Ġd ude
Ġl ed
Ġl ugg
Ġl augh
Ġh ats
st ers
st ery
ro gen
al s
al in
Ġn ic
Ġn uts
ic opter
Ġg est
ut tle
ĠT akes
ĠT otal
ĠS C
ĠS an
ĠS pr
ĠS ystem
ill s
id den
ent ed
ĠI R
ĠI rid
ĠM em
ĠM ade
ĠM ission
Ġst one
Ġst able
up id
th at
ĠA dding
op h
op ia
il i
Ġne ither
Ġr n
ce ll
Ġare n
Ġv ents
Ġsh ape
Ġgo ld
ĠW ow
Ġen rout
Ġas ks
ĠF allout
ĠF TW
ra ud
Ġj am
ri ans
ĠH en
Ġab solut
ĠB aby
Ġma k
ĠN av
ĠD J
ĠP DT
ĠP alo
Ġal ign
Ġlo b
Ġlo sing
Ġch ose
Ġch erry
qu ence
ĠE qu
Ġun d
Ġun expected
ĠL i
ĠR en
art ed
ĠG old
Ġcar ried
Ġcar makers
ry s
Ġar c
Ġmy stery
Ġpo or
ef ore
ĠU lt
Ġover all
Ġlaunch pad
Ġact s
Ġshould n
... "
Ġapp lies
Ġapp lications
oo f
Ġinc ome
be ll
Ġsp onge
Ġfe es
ult ure
Ġ"" :
Ġint ended
Ġrec y
oc racy
Ġaut ose
Ġres idual
Ġacc umul
Ġhel icopter
Ġcr ane
In st
Ġsuper human
Ġend s
Ġend ed
ĠAut o
Ha wthorne
Ġsaf est
Ġgr ade
ĠAl to
Ġdis m
Ġdis p
Ġdis play
Ġsc en
Ġsu fficient
ĠK night
Ġwr iter
ĠWh ere
Re c
Re ality
ĠSh uttle
ib ration
Ġrem inder
ĠRo ad
Ġsk i
Ġsk it
ĠY ear
Ġreview s
Ġpar am
Ġvol tage
Ġhead line
Ġinst ant
Ġlight ning
Ġunveil s
ĠSo ftware
lad e
Ġturn ing
ern el
Ġkeep ing
Ġjo y
og raph
Ġequ ator
Ġra ising
Ġnear by
Ġspec s
Ġbro ther
Ġpol it
Ġtough est
ĠEx c
Ġed ge
Ġsecond ary
Ġlog o
Ġsens itive
Ġrel ated
ĠCy ber
ĠCy cling
Or bit
ĠBut t
Ġshe er
Ġconfig ur
Ġdead ly
Ġexcept ional
Ġcoun cil
Ġpred ic
Ġpred iction
Ġjud ic
Ġdam n
Ġstor ies
Ġprevent ing
ren ch
sh irt
Ġprof itable
Ġdeg ree
Ġtel emetry
yp se
Ġclar ification
Ġcriticism s
ĠGen eral
Ġcur ve
Ġenab ling
ĠTechn ically
Ġorg s
ĠBe yond
ĠEvery one
Ġthous and
Ġocc up
Ġhar ness
Ġinsp iring
Ġest ate
Ġindividual s
Exc iting
Ġmaxim um
Ġmaxim ize
Ġhydro gen
Ġconvin ces
sell er
Ġpedest rians
Acc ording
Ġfool ish
Ġlegis lation
Ar ticle
Ġactu ator
Ġdefe ated
ruct ure
Ġtri ppy
ĠOffic er
Ġgar age
Tom orrow
ĠFl int
Ġstrate gy
Ġrum or
Ġinsert ion
Ġuncertain ty
Ġafterno on
Ġtobac co
Ġlugg age
Ġgest ures
ĠIrid ium
ĠMem or
Ġenrout e
Ġautose quence
2 00
7 0
7 8
C all
C reating
C ertainly
E d
E n
E PA
G rid
H eavy
M er
M erry
M oving
N A
O E
O ther
P l
S ad
S light
S ens
W ar
W ed
a ign
a ft
a ution
b ook
c is
c ur
c ount
d e
d ed
f ric
g u
h igh
h ours
h lee
h ammer
k t
l enn
m o
m in
o ch
o vie
p a
p unk
r if
r ich
s ame
t oo
u ish
w ing
Ġ ion
in j
Ġa verage
Ġs ac
Ġs igh
Ġs outh
Ġw ings
Ġw isdom
or ch
or ks
Ġb ars
Ġc ouple
Ġc abin
Ġf raud
ou l
ou ri
en cies
Ġm ix
Ġto ast
Ġp olar
Ġp last
Ġp si
Ġd re
Ġd at
Ġd ense
Ġd omain
Ġl ol
Ġl iter
Ġn ames
et ers
Ġg alactic
Ġre in
Ġre verse
ĠT arget
ĠT BC
ĠT wo
ĠS ch
ĠS lack
ĠS peed
Ġbe ar
Ġan omal
Ġe arth
un der
ch es
Ġso ck
Ġst ri
us k
us ic
il ogy
Ġr ally
Ġr ated
ĠC apit
Ġpro d
Ġpro per
Ġv ict
Ġsh d
Ġsh ift
ĠW ant
Ġtr igger
Ġtr ilogy
ul it
oun ter
Ġex ists
ol ving
ĠTh ird
ĠF it
ĠF uture
ace book
Ġj ury
um es
ĠH or
Ġab orts
ĠN ice
ĠN ature
ĠD OE
ĠP ort
Ġal ar
Ġch utes
ĠE gg
ĠE lon
Ġun a
ĠL anding
Ġk ale
ĠG over
ĠG ermany
ĠG eorge
ĠG lenn
ain ment
ost eer
Ġpre burn
Ġpl s
Ġpl ot
ub lic
Ġta ugh
ĠV TO
cc up
Ġle eward
Ġdes ert
Ġsp o
ors es
ens ing
Ġper man
Ġpart ly
Ġpart ial
we gian
Ġint ention
Ġqu ant
oc urrency
gr ing
Ġres on
Ġser ver
Ġinter se
ĠCh anos
ress ing
ress ive
omet er
red it
Ġ... "
ĠIn c
lic it
St orm
St range
St rong
Ġfact s
Ġair plan
Ġreg ime
ag o
ell ow
Ġcons er
ĠCan adian
Re ading
Re covery
vent ions
Ġmed s
Ġmed ium
ond a
Ġdiffer ences
oll y
Ġcomm itted
Ġdec ided
Ġsal t
Ġowners hip
Ġregul ations
Ġmove ment
Ġfl ush
Ġbuilding s
ĠUn fortunately
Ġdr ift
ĠAm ish
Do ing
Ġred und
Ġdeep ly
Ġdro pping
Ġjo kes
ĠDe v
Ġcoll apse
Ġsell ers
Ġcomb ine
Ġrepl ies
Ġstore d
Ġhist orical
ĠSe cond
Ġpres ident
Ġult imate
ĠNeed ed
Ġsens or
Ġsun set
Ġrel atively
ĠNor wegian
Ġmeant ime
Ġpure ly
Ġfactor ies
Ġstrong er
Ġhell o
Ġcal endar
Ġoffer ed
Ġenviron ments
ĠMost ly
Ġdam aged
Ġredu ced
ĠDoge coin
Ġtel ep
Ġblow s
ĠCould n
Ġcounter act
Ġnav igate
Ġbus iness
Ġcow s
Eng ines
Ġill ust
Ġobject s
Ġess entially
ĠOb ama
Up coming
Ġdemoc ratic
ĠDoes n
Ġturbopump s
Ġindepend ently
Ġocc ur
Ġguarant ee
ĠParad ise
Ġcamp aign
Ġwall s
ĠPC R
Deep ly
Ġmeaning ful
Ġfac ility
Ġenem y
Ġsyn ch
Ġdoll ar
Ġlegis l
ĠPre paring
Supercharg er
ĠAst on
Ġresist ance
Ġfu els
Thrust er
ĠTal ulah
oss ibly
Ġenj oy
Ġiniti ated
Eas ier
satell ites
Ġsymb iosis
opt im
Ġneut ral
ĠBus iness
ĠCommission er
Ah em
andon ed
Ġinsan ely
Ġclic ks
Ġrecy cling
fric a
Ġplast ic
ĠSlack er
Ġanomal ies
ĠCapit ol
Ġtaugh t
ĠVTO L
Ġairplan es
9 0
? """
B Q
B aby
B lack
C orrect
D C
E A
E nd
F O
I S
M r
N ight
O S
S hip
S ha
T V
T el
a ic
b ic
b est
b lowing
c ap
d ays
e xt
g an
g ering
h and
i ary
l ines
m ous
r ite
r ance
r ding
r bur
s peed
t al
y ay
z a
z es
z ero
Ġ x
Ġt ied
in er
Ġa eros
Ġs udden
re ally
Ġth or
Ġb od
Ġb ang
Ġb ots
Ġc up
Ġc ord
Ġc ath
Ġf ather
it as
an oid
Ġm T
Ġm kt
ar ah
Ġp un
Ġp sy
Ġo ps
Ġh its
Ġh idden
Ġh orses
st ream
ro st
Ġin ver
Ġin duction
al ax
ic king
el ds
Ġg end
ĠT w
ĠT est
ot ing
ot ely
ot os
ĠS n
ĠS w
ĠS ing
ĠS ub
ow ea
Ġe yes
un ds
id ing
ct im
Ġy aw
Ġy rs
ĠM t
ĠM ac
ĠM oon
all ow
Ġst ag
im ated
ĠA frica
il an
Ġr ing
Ġr ates
ĠC ars
ĠC lass
ĠC ulture
Ġpro ve
Ġsh ops
ĠW aiting
Ġha ven
ul ate
ĠTh ree
ĠF ri
ĠF ree
ĠF acebook
Ġde ck
Ġse as
ĠH uman
ĠH EPA
ĠB on
ĠB as
ĠB ost
ĠB oth
ĠB TC
ĠN rbur
ĠD ie
ĠD rag
ĠD ick
ĠD ifficult
ĠP un
ĠP ors
Ġal tern
Ġlo ses
Ġlo vely
Ġch ea
Ġch ief
qu is
ĠE d
ĠE s
ĠE mp
ĠE asy
Ġun f
ĠL ockheed
Ġcomp ar
ast roph
ĠSt ep
Ġpo cket
Ġno on
Ġhigh ways
Ġpl ays
ĠU kraine
Ġover se
Ġover ha
Ġover sight
ĠJ im
atter ies
Ġag reed
Ġam end
Ġright ly
Ġcont ains
Ġkn ight
Ġkn ife
Ġfe e
os al
Ġper mit
Ġpart ially
Ġqu otes
Ġrec over
oc o
Ġbo om
Ġexp licit
ick ed
ĠCh rys
ph ob
Ġver b
Ġver ify
Ġend urance
ĠAut obahn
ail s
ne ed
Ġ- &
ert o
Ġstart ups
Not e
Ġsub st
reci ate
Ġshow ed
pect or
Ġthrough put
Ġim ages
Ġret ire
Ġret ract
Ġsupport s
Ġob t
Ġob ser
ĠNe ver
ese arch
Ġsec ured
Ġent rance
Ġcent ury
omp eted
Ġserv icing
Ġrem otely
ution al
Ġbr illiant
Ġpass ive
Ġpass age
ĠRo yal
Ġimportant ly
Ġinv as
Ġcontrol s
Ġreview ing
Ġreview ed
Ġrep ly
Ġrep orter
Ġman ual
Ġpar anoid
Ġdec lin
Ġcour t
ilt on
Ġvi be
Ġloc ally
ounce ment
ĠSo C
Ġsimp ler
ser ve
Ġdisc ounts
ĠUn iv
Ġbuy er
Ġcred its
Ġstre ams
Ġtruck s
Ġroof s
Ġbl ue
ĠDe us
Ġra ises
Ġdist rib
urb o
He ard
Ġbar rel
ched uled
Ġgeneral ized
Ġspec ulation
Ġoptim al
Ġlarg ely
Ġmultip le
Ġconfirm ation
Ġpur pose
Ġear n
Ġprot est
Ġfunction al
rib ed
Ġbeg ins
Ġflow s
Ġatmos pheric
Ġshare s
cept ion
Ġsour ces
ner gy
Ġcat astroph
Ġperfect ly
Ġexcept ions
Ġfig ured
ĠPh ysics
Ġinclud es
Ġcarry ing
Un der
ĠSp aceship
Ġprom ote
pro of
Ġprem i
arant eed
Ġunc ompeted
Ġsqu are
Ġkill ed
Ġcontinu ance
Ġcor porate
rs ly
ĠComm ittee
Ġconcern ed
Ġscient ific
Ġcrew ed
Ġill usion
Ġexpla ined
Ġrail s
Ġapply ing
ĠRocket s
Ġimpress ion
Ġenab les
Bet ween
Ġspl it
Ġreser vation
Who a
mak er
Ġconstra ined
ony mous
Ġfiction al
Ġhydro phob
Ġgig awatt
Ġelev ators
Ġswit ched
Ġshut down
Ġheavi er
Ġfac ilities
ĠDid n
Ġlock ed
ledge hammer
Need s
Ġsurprising ly
Ġdoll ars
ĠBrit ish
sequ ences
Ġabsurd ly
Supercharg ers
Sign ing
Ġbutt ons
Ġesth etic
Russ ia
Ġclos est
TS LA
Blo omberg
Ġrepe ated
Ġintern ally
Ġapocal ypse
Ġdial og
ĠTurn s
Ġstabil ize
Ġpract ical
Ġenerg ized
uis her
Ġtick et
Ġexting uisher
Ġirrele vant
Ġanten na
Ġabsolut e
Ġlob by
rding er
Ġaeros pace
Ġbod ies
Ġcath ode
alax y
owea pon
ĠNrbur gring
ĠPors che
Ġoverha ul
ĠChrys ler
Ġhydrophob ic
! ).
% ,
) :
+ ,
7 5
9 000
A L
B ought
C NN
C redit
E uro
E xtremely
E lectric
F F
F i
F ran
F lying
G iant
H W
L Y
L ater
L ots
L ov
M is
M et
M id
M ission
R I
R el
S am
S ometimes
T unn
T imes
Y ep
a ac
a fter
b et
b ased
d ri
d ies
e as
g ar
h ance
h ock
i ents
l ar
l ot
l ol
l ong
l ich
m y
m unds
r and
s lo
u k
u erto
x ic
y up
y ard
Ġt ar
Ġt ile
in ent
in ated
in ishing
Ġa we
Ġs an
Ġs ats
Ġs ick
Ġs onic
Ġs elect
re h
Ġw ine
Ġw ider
es y
Ġb ed
Ġb ull
Ġb ake
Ġb illions
Ġb last
at me
Ġc ate
Ġc ous
Ġc opper
Ġc ards
Ġf ish
is k
is in
ou rage
it ers
en ed
an es
Ġm s
Ġm ad
Ġm all
Ġm and
ar f
Ġp ill
Ġp ace
Ġo atme
Ġd ust
Ġthe ore
Ġl ic
Ġl ung
Ġh orn
st and
al ty
mp ting
ic ians
ic ago
as hing
Ġg ather
Ġre el
ut tal
ĠT il
ĠT rue
ĠT ED
ot t
ot hing
ĠS ay
ĠS im
ĠS uch
ĠS ounds
ĠS cience
Ġbe am
Ġfor ced
ill a
ill erson
Ġe ating
ĠI ce
ĠM iss
Ġso le
Ġit ems
Ġst owed
th ink
ĠA fter
ĠA mb
Ġwe ar
op ark
Ġwh om
ke ys
Ġbut ter
Ġco aster
ĠC t
ĠC up
ĠC ur
ĠC ool
ĠC reating
ĠC omments
Ġpro hibit
ur ized
Ġv ig
Ġsh all
Ġsh ots
Ġsh oes
ĠW ork
ab led
Ġen orm
se c
Ġdo zen
Ġex amination
ĠTh aic
Ġse am
ra vity
ra isin
Ġwor ried
ĠB uff
our nal
ĠN ut
ĠD ep
ĠD ark
Ġall oy
ĠP uerto
Ġch assis
ine craft
qu ire
qu iv
ĠE gy
ĠE nergy
ĠE FF
lo oking
ew ays
ĠL im
ĠL mk
ĠL TE
ĠR D
ĠR est
ĠR ive
ĠR ob
ĠR ush
ĠR ico
Ġk W
Ġk ernel
ĠG reen
Ġcomp l
ast ic
Ġus able
em e
Ġte ars
Ġhe atsh
ĠSt ud
Ġcan cel
Ġimp ed
ef fect
ĠU s
ĠO S
ĠO h
ĠO slo
Ġlaunch ed
light s
arg o
Ġwork ers
Ġam ong
Ġmon keys
Ġcont ext
Ġacc el
Ġknow ing
Ġpr inter
Ġart ists
Ġhel o
Ġunder est
ĠCh icago
Ġown ed
ĠIn conel
ĠIn vestigating
In it
Ġfact ors
Ġoff ice
ĠAl ready
Ġbuild s
ĠEarth s
Ġdis abled
Ġsc roll
Ġtrans p
Ġconf lic
Ġadv ise
ix ing
Ġclo sing
Ġret ains
wes om
ĠK och
ĠWh ats
Ġdon ated
Ġbel ts
ĠRe veal
Ġbr an
Ġincre ment
Ġz omb
Ġrequire ments
Ġpost ing
Ġtra ject
lam e
lam ed
Ġrep lic
ĠPro b
Ġhold ers
Ġpar af
Ġcreat or
Ġlim bic
Ġdec ent
Ġdec ides
pr ise
Sh ort
Ġsim ulations
Ġcompet itor
For got
Ġinst r
ĠStar man
cl ass
Ġtemp s
Ġtemp ting
Ġprior ities
Ġdisc lo
ote ch
Ġstre aming
Ġhot test
eg ap
Ġsn ake
og s
ĠPower pack
As imov
Ġtarget ed
Ġreach es
Ġold er
Ġinf rast
Ġsubs cri
Ġmod s
Ġrepl ied
Ġcontin ent
Ġcontin ues
Ġfollow s
Ġflam ing
Ġed ited
Ġem ission
Ġrece ives
Ġrel ent
Ġtrick ery
Or der
ĠIs aac
Ġpic king
Ġeconom ies
Ġblock s
Ġdock ed
Ġjud gment
ĠBr illiant
Ġpan el
ĠMach ine
Ġlear ning
Ġfla re
Ġpat ients
De ath
Ġprom ised
Ġden ying
Ġarri ve
Ġassemb led
Ġcontinu ous
Ġtouch down
Ġbug s
Ġhorse power
App arently
Ġaccount ing
Ġimmedi ate
Ġposs ibility
Ġsurpr ised
af e
Ġpaint ed
Ġcow bell
ĠDa vid
Ġplant s
Tr uth
ĠLo op
Ġtit le
str ong
Ġinfl atable
Ġreb uttal
Ġlaws uit
Ġhur ts
Ġtun ing
Ġodd ly
ĠTechn ology
Ġsequ el
ĠEvery thing
Ġdram a
Big gest
Ġcast ing
Ġben ch
Ġenc ourage
ĠIns pector
Ġhang ing
Ġhang ar
Ġterminal s
ios hock
Ġstorm y
Ġang els
ĠMin nesota
Ġgraph ite
Ġtrad em
Ġmechan ical
Acc urate
Sim ilar
Ġmark ets
Ġmiss ile
Ġdraw ing
ĠCorre ll
Sc reen
Ġmir ror
Ġpneum atics
Ġnat urally
Ġesth et
Ġsimpl ify
Ġemploy ee
Ġemploy ees
Ġvariant s
ste in
ĠInt ense
ĠMer c
Ġwer ent
Ġcand id
ĠSA E
Ġiter ation
Wal ked
Ġvirus es
Ġvacc ines
Ġmaneu ver
Ġcolon y
Ġrenew able
Ġbott om
itud inal
ĠSec ret
Ġexclus ive
Ġcompens ate
Ġuh h
ĠCont in
wyn ne
Ġlb f
Ġentertain ing
Ġremo ved
Dr one
Ġcoinc idence
Ġune quiv
ĠRem ind
Ġwif i
Ġdi ap
ĠRoad sters
ograph ic
ĠCyber punk
Ġillust rate
Ġdistrib ution
Tunn els
bet a
dies el
Ġsan ctim
Ġoatme al
ĠTil burg
ĠAmb ien
Ġenorm ous
ĠThaic om
ĠEgy pt
ĠRush more
Ġheatsh ield
effect ive
Ġtraject ory
Ġparaf oil
Ġinfrast ructure
Ġsubscri ption
1 50
7 50
7 500
B e
B it
B FR
B esides
B ioshock
C H
C lose
D ue
D etail
F ear
F und
G od
G ary
H ex
H ope
I gn
L ets
L ook
M ed
N orth
N av
O ut
P C
P lan
S ystem
T op
T ap
W anted
Y o
a o
a ire
a uc
b ig
b ust
g ers
h ol
i j
k i
l ands
m ap
n age
o ked
o ssil
p o
r ight
r ason
t aken
u h
u ations
v it
v et
Ġ ing
Ġt reat
Ġt ether
Ġt une
Ġt rees
in formation
Ġa ka
Ġs le
Ġs ledgehammer
Ġw ire
Ġw ins
es us
Ġb ac
Ġb la
Ġb ol
Ġb ore
Ġb ub
Ġb ored
Ġb order
Ġc d
Ġc am
Ġc ert
Ġf inger
ou der
Ġm amm
Ġp ucker
Ġp airs
Ġd im
Ġl ions
Ġl ouder
Ġh oney
Ġin her
al es
el ming
Ġg aps
Ġg irl
Ġre veal
ut al
ĠT ay
ĠT ree
ĠT ook
ĠT ruck
ĠT otally
ot ers
ĠS y
ĠS her
ĠS ending
ĠS ometimes
ĠS eeing
ly mp
ay ed
ch ange
ĠM N
ĠM ed
ĠM et
ĠM ob
ĠM ountain
ĠM ovie
Ġso ciety
Ġst ats
Ġst ole
Ġst aged
op olies
us ing
am ine
Ġr uled
Ġco v
ĠC R
ĠC am
ĠC oming
ĠC PU
Ġpro ven
Th ird
ĠW ind
ĠW ang
Ġha zard
ure auc
Ġnot es
Ġex ha
Ġex iting
ol ist
ĠF rom
ĠF ully
ĠF ran
Ġj et
Ġcon ne
Ġcon vey
ĠH H
ĠH AL
ĠB eing
ĠB eaut
ĠN ational
ĠD ata
ĠD epends
ĠP ot
ĠP ink
pp osite
Ġch ann
ip s
qu es
ĠE ither
ĠE ST
Ġun able
Ġun real
Ġun ique
ĠL ight
ĠL EO
ĠR ow
ĠR om
ĠR oof
Ġup set
art s
ĠG iven
ain ts
ap ore
end ent
Ġpre v
Ġcan cell
Ġpl enty
ign ed
ĠU m
Ġover b
Ġover load
Ġeng aged
ĠJ am
ĠJ esus
Ġbu d
ĠV ast
ĠV ader
ep s
Ġsome ones
Ġapp arently
ĠThe ir
Ġdri vet
Ġkn ock
Ġwho se
we ets
Ġaut osteer
Ġsm arter
Ġbo ats
row s
Ġser ved
Ġknow ledge
Ġafter wards
ish es
Ġunder wear
ĠSuper intelligence
In s
St arting
Ġreg ional
Ġhelp ed
ĠAl ways
Ġsc orch
Ġtrans mission
Ġdef end
Ġsu ff
ron ic
pl us
Ġph r
Ġconf ined
Ġcons ensus
Ġrequ esting
Ġsupport ed
Ġsupport ive
ero id
Re asons
Ġind irect
Ġpublic ations
erm al
Ġmass ively
Ġent ering
ĠRe c
Ġupgr ading
Ġbr anding
Ġbr utal
Ġpay wall
Ġste er
Ġwhere ver
ĠY elp
Ġtunnel ing
Ġref uel
Ġref illing
ĠPro ject
ject ed
Ġhold er
Ġdet ection
Ġbas is
Ġdec line
wh ile
wh elming
te mpting
ĠNew ton
ĠHe art
Ġfeel ings
Ġregul arly
ĠSo ciety
ser iously
Ġfl uct
Ġrecommend ation
Ġvac ation
Ġautom ation
line ar
Ġrest rict
Ġview ed
Ġgra in
ĠDe ath
Ġequ ity
Ġequ ival
Ġfri ed
Pre cis
Ġpod cast
They re
Ġexist ential
ĠAs hlee
Ġcaus eway
Ġtough er
Ġfound ry
Ġult rason
ĠEx actly
Ġear nings
ĠAr m
ĠAr s
Ġfil ed
Ġsun light
Ġsuggest ed
zz y
Ġmer its
Ġarg ue
ĠCo vid
Ġge ological
Ġmultiplan et
Ġlead s
Ġpot at
Se veral
Imp ro
Imp ressive
Ġafford ability
Ġmess age
ĠBr ing
Ġlab eling
Ġrefer ral
ĠPh il
ĠPh otos
Ġsubsid y
Ġadjust ed
Ġconnect s
Ġjournal ist
ĠSer b
ĠImp act
Ġvar ious
ĠLot us
Ġvent ing
Star hopper
af ety
Ġcryo gen
ĠJohn son
Ġcow boy
Comp let
ĠGo al
Ġretro fit
Ġastron om
Ġcirc um
Ġbi kes
Ġwal ks
ĠMart ian
Ġsil ence
Ġminim izing
Bet a
ĠTechn ica
Ġreser ved
Ġapprox imation
Ġeff orts
Ġunli ke
Ġconstra ints
ods peed
ĠSte ve
ĠChrist ie
Ġrender ing
Ġcomfort able
Does n
Ġgig antic
Ġrot ation
Fe b
Ġdownload ing
Ġang les
cel and
Ġpull ing
Ġdynam ically
Ġsurround ed
ĠAct ually
ĠHer bert
Ġspeak er
Ġdepart ed
Ġemoj is
Ġsquirrel s
Le asing
rick y
Ġrefine ment
Ġrefine ments
chang ed
Ġdescrib ing
Ġdescrib ed
Ġdestroy ed
Ġmal igned
Ġclos ely
clud ing
Put ting
Astron auts
Ġtherm ometer
Ġevol ving
Bas ic
Ġpap er
Ġtrail ers
ĠEl ise
Ġendorse ments
Ġexperien ced
call ed
Ġdoom ed
Ġchem ical
Ġepis ode
Ġpupp et
Ġtaxpay er
Ġvalu able
Ġrobotax i
Ġcitiz en
Ġbreat he
Ġposit ives
Ġmanufactur ers
Sm all
assemb ly
Ġorig inally
Ġtelesc oping
ĠRen o
Ġscen ar
Ġparam eters
ĠExc iting
Sens ible
count ry
Ġdat ab
ĠSch rdinger
ĠHor iz
ĠGover nor
ĠInc redibly
Ġtelep ort
Ġcompar able
ĠStep hen
Ġdialog ue
Lov ely
reh ensive
Ġbull et
Ġmand ate
Ġtheore tical
Ġlic ensing
Ġseam lessly
ĠBuff ett
Ġinstr ument
Ġbore scope
Ġexha ust
ĠBeaut y
ĠPink er
Ġdrivet rain
Ġfluct uations
Ġequival ent
Precis ely
" ...
* ,
1 6
3 9
3 80
5 50
A F
A T
A dd
B o
B el
B ase
C al
C ause
D el
D roneship
E S
E l
E xt
F un
F ate
F uture
F rank
G as
H ang
I T
L etter
M ake
N on
N one
P ay
R a
R oc
S S
S imp
S arah
T H
T oo
T old
T ouch
T ube
U N
U AW
U mm
U pper
W r
W atch
a el
b ra
b ound
b efore
c ra
c orrect
f ar
f ire
g as
g iving
h ard
h icle
i oweapon
i Fi
k ind
k ins
l ist
m are
o z
o ft
p ri
p iring
r ative
s m
s id
s hip
s ize
s ives
t ot
t urn
t ronic
v ance
v olut
y our
z er
Ġ um
Ġt ed
Ġt ub
Ġt int
Ġt orn
in cess
Ġa st
on ious
on av
Ġs ir
Ġs ites
Ġs orts
Ġs ides
re aming
es pecially
or al
or ies
or porate
Ġb er
Ġb le
Ġb oun
Ġb are
Ġb rag
Ġb att
Ġb ureauc
at ri
Ġc ig
Ġc row
Ġf ant
Ġf rag
ou is
ou ched
it a
Ġm as
Ġm ature
Ġm outh
Ġm arks
Ġto y
Ġp e
Ġp ays
Ġp ets
Ġd ow
Ġd ancing
ed ge
Ġl unch
Ġl ang
Ġl ake
Ġl anes
Ġh i
Ġh al
Ġh om
Ġh acked
Ġh alt
Ġh osting
st ar
st ate
st one
ro l
Ġin ject
al ing
al ue
Ġn ull
et itive
Ġg all
Ġg ift
Ġg love
ac itors
Ġre nt
Ġre ward
ut ur
ĠT ough
ĠT erm
ĠT weets
ĠS K
ĠS ingle
Ġbe ll
Ġbe gging
Ġan ec
amp ed
ĠI ll
od d
od ed
Ġy a
Ġy ard
ad d
ĠM ich
ĠM aster
ĠM egap
Ġit em
Ġst d
Ġst ated
im ary
th ere
ĠA v
Ġwe aring
il os
Ġne ck
Ġr ude
ĠC all
Ġv ul
Ġsh op
Ġsh ade
Ġsh aft
ĠW ings
ĠW iFi
Ġtr ash
Ġtr ading
Ġen hanced
ul se
ul pt
ul ators
Ġro ver
Ġro se
Ġex change
ĠTh ought
ĠF B
ĠF ar
ĠF ool
ĠF ear
ĠF rench
Ġse ated
um ents
Ġcon ver
ĠH P
ĠH it
ĠH itch
ĠH elp
ĠB BQ
ĠN ob
ĠN ana
ĠN TS
ĠD one
ĠD roneship
Ġall oys
ĠP ol
ĠP ost
Ġlo ops
ĠL ast
ĠL ive
ĠL ouis
ĠR ange
ĠR ele
ĠG ames
ĠG irl
ĠG arf
Ġcomp lic
ss entially
are t
imp ortant
ist ant
con nect
Ġtim el
Ġout standing
Ġpre orders
ĠSt ay
ĠSt ars
Ġcom ic
Ġno body
Ġhas nt
Ġpl ug
Ġpl acing
nt own
ĠU sed
ĠU FO
Ġover head
Ġover press
Ġover whelming
so ft
arg lass
ĠV oice
Ġthere fore
ud ge
ind ing
Ġthey d
own er
int in
ach ed
ach ell
her es
Ġsp ring
Ġyour s
Ġfe et
Ġper cent
Ex cept
vel ength
Ġspe ech
Ġrec ap
ĠWe ve
Ġacc ur
Ġbo ss
most ly
Ġinter ventions
Ġdesign ing
ang ers
ang ely
Ġcr u
Ġcr ater
ys cra
ph ysics
In f
St ud
St atic
Ġoff set
Ġdel ight
Ġadd ition
Ġadd itional
Ġreg imes
ag on
ced es
ne ar
Ġsc ene
Ġsc ulpt
pl ace
pl ane
Ġph ased
Ġsub way
Ġcons ist
az on
Ġfire ball
ĠK ev
ero ids
Ġatt acks
Pro blem
Ġind isting
Ġgener ators
Ġcount ed
Ġmet ro
Ġlea ked
ĠRe g
Ġappro aching
Ġappro pri
Ġopen ly
Ġmed ical
Ġz illion
Ġpay ing
Ġpay ment
Ġcap ita
Ġsk yscra
Ġpri zes
ond ing
Ġste ady
oll ower
Ġseem ed
Ġlook ed
cess ion
Ġfix es
Ġke pt
Ġref ers
Ġrep aid
Ġman ually
Ġcare s
Ġnight mare
pr imarily
Ġhead lines
ĠDo ing
ĠHe aded
Ġap olog
Ġregul ator
cl ude
Ġprior it
ĠUn ivers
Ġfind s
Ġdeploy able
Ġexpect ing
Ġdr ink
Ġtruck ing
ĠAm azon
Do jo
Ġrad i
ĠQ u
Ġred dit
ĠNY C
Ġsn ugg
ee ze
Ġbl own
ĠEuro pa
Ġform ally
He y
Ġbar rier
Ġslow ed
Ġoptim ize
icul arly
Ġrun s
Ġcorrect ing
Ġcorrect ly
ĠWould n
Ġmag ical
ĠSe veral
Ġfle w
Ġunderst ands
Ġprec aution
At tempting
Ġtell s
Ġed it
Ġed uc
Ne uralink
Ġtransport ing
High ly
Ġshe ep
unk el
Ġconfig uration
ĠCO PV
ĠPer haps
Ġmanufact ure
roll ed
Ġlist ening
Ġsong s
ok er
Ġfig uring
ik i
Ġrefer red
Ġadjust s
Ġign ite
Ġprocess es
ĠAd justing
Ġconnect or
Ġtow ing
Ġtow el
Ġtow ers
Ġunc over
Ġsqu eeze
Ġprof ound
Ġcontract s
ĠJapan ese
Ġcontinu ed
App reciate
Ġhol es
Tr ans
Ġfight ing
Ġexpla ins
Ġobject ive
Ġcirc uit
ĠPl um
Ġargu ing
Ġbi ological
Ġweap on
Ġimpress ed
Ġpath s
Ġreb ate
ĠBro ok
iff s
Ġcorn ers
ĠAny thing
Ġreser ve
Every one
ĠTr ump
ĠHard core
Ġcontrib ute
ĠShort ville
Ġhar m
ĠAp art
abil ities
Ġest ab
ĠInst a
Ġdiscussion s
Try ing
Ġcamp ing
ĠTues day
Ġqui eter
Ġrecall s
Ġprint ed
Ġholid ays
Back ground
Ġrandom ly
rav itas
Ġfinan cial
Ġcook ie
Ġconven ience
Ġresearch ers
Ġcrypt ocurrency
ĠWest world
eff ic
Ġgrad ually
Engine ers
Sim ulations
sub sid
Ġtroll s
Ġrevolution ary
Ġinterest s
Ġexplo sives
Ġskill s
do or
Ġcorre ctions
Ġcorre sp
launch ed
Ġpneum atic
Ġnat ural
ĠIron y
Ġpros per
ĠBlo omberg
ĠPr incess
Ġadm ired
Inc reasing
Ġcult ural
Ġfu zzy
Ġexcess ive
clud es
Ġconvenient ly
Ġmill ise
Ġluck y
Ġattach ed
Ġjunk yard
Ġsort ed
ĠSol arglass
Ġrespons ible
Ġreflect ive
Ġorgan ization
Ġopportun ity
Ġopportun ities
Ġcop y
Ġpist on
Ġtriv ia
ĠDef ense
Ob viously
Ġtast es
ĠFrank lin
Ġinflu ence
Ġwa velength
ĠTra vel
ĠInter planetary
Prom ising
pass word
Ġpredic ting
Ġoccup ant
uish able
ccup y
Ġpun y
Ġinver ter
Ġstag gering
Ġamend ment
Ġcatastroph ic
Ġpremi ere
Euro pe
Ġbran ch
Ġemission s
Ġtradem ark
Ġesthet ics
Ġcandid ate
Ġdiap ers
ĠMed tronic
Ġchann els
linear ities
ĠSerb ia
Ġcryogen ic
Roc oco
Simp le
volut ions
Ġtub es
Ġboun cy
Ġdow ntown
Ġlang u
Ġhal ves
Ġanec d
ilos oph
Ġvul ner
ĠNTS B
ĠGarf unkel
Ġoverpress ure
achell a
ĠKev lar
Ġindisting uishable
Ġskyscra per
Ġprecaution ary
' ll
) !
2 000
; $
A ss
A lex
B T
B u
B uilding
C R
C ut
C ome
C ost
C IS
D is
D une
E R
E nt
E arly
E lon
F ro
F ri
F orm
F lam
F airing
F inishing
G ave
G BT
H er
H mm
H onored
K anye
L I
L ist
L ord
L ying
M M
M T
M ay
N u
N et
O ffic
P ost
P ics
P ossibly
R R
R en
R ele
S k
S pe
S pl
S cience
S cientists
T est
T ues
V ar
W ent
W ont
Y um
a ine
a wesome
a gram
a ired
a que
b acks
c ou
c ut
d a
d em
d ef
d efinitely
d esign
e al
e mp
e hicle
f y
g s
h enge
i la
i est
i ber
l ate
m al
m od
m ight
m ark
m ax
m eme
n ice
n os
n etic
p ul
p one
r ad
r ated
s ha
s uring
t ra
t ower
t ruck
u j
u ys
u zzle
v ies
v anced
w r
Ġ |
Ġ !!
Ġ umm
Ġ umb
Ġ ulit
Ġt i
Ġt end
Ġt aps
Ġt yp
Ġt reating
Ġa wesom
er a
er ated
er ved
er bal
on a
Ġs en
Ġs ue
Ġs port
Ġs led
re ly
re lla
Ġw id
Ġb esides
at ers
Ġc umulative
Ġf ate
ou red
it ur
en al
an age
an na
Ġm m
Ġm ouse
Ġm ush
Ġto il
Ġp ix
Ġp uzzle
Ġd ign
Ġd irt
Ġd usk
Ġl a
Ġl atch
Ġl ets
Ġl uc
st orm
ro at
ro id
ro ach
ro oms
Ġin ner
Ġin conel
ic ip
et ts
Ġg lo
Ġg lor
Ġg rown
ig ated
ut ers
ut ive
ĠT wit
ĠT ax
ĠT weet
ĠS ure
ĠS imp
ĠS cient
ĠS andy
ly ss
amp os
amp oline
Ġe ast
Ġe volution
un ar
id ents
ĠI l
ĠI rel
ĠI celand
Ġy oke
ad o
ad ily
ĠM oo
ĠM ult
ĠM oth
ĠM icro
ĠM oses
Ġso rely
Ġst rain
Ġst iff
Ġst upid
Ġst icking
ĠA cc
ĠA dd
ĠA GI
ĠA lyss
ir ical
op ian
us etts
il er
il ies
il isk
Ġr ink
Ġr anging
ĠC overed
ĠC ampos
Ġpro x
ars e
Ġsh r
Ġsh es
Ġsh ill
Ġsh ad
Ġsh ifts
ĠW ars
Ġtr agic
Ġtr ampoline
Ġmo vies
Ġen force
Ġen hance
Ġen suring
Ġdo c
Ġor ph
ge on
Ġro ot
Ġex its
ĠF P
ĠF i
ĠF act
ĠF ront
ĠF rost
Ġse ater
um ber
Ġli vest
Ġcon cept
Ġcon ference
Ġcon sequences
ri a
ĠH o
ĠB O
ĠB ank
ĠB reak
ĠB orders
ĠB uy
ĠB uilding
pe ars
ĠN C
ĠN O
ĠN V
ĠN ight
ĠN uys
ĠD ys
ĠD ual
ĠD oubt
Ġall eg
ĠP at
ĠP ut
ĠP ong
ĠP ark
ĠP rav
ine m
ip l
qu ila
Ġun usually
lo or
ĠL eg
ĠL ots
ĠG A
ĠG iant
ĠG lad
ĠG TO
ĠG host
ĠG ravity
Ġcar rier
king s
imp act
Ġjust ify
Ġout let
ment ed
ĠSt ates
ĠSt arted
Ġcom edy
Ġimp ly
Ġpo ol
Ġpo ison
Ġad ult
ĠU K
Ġprodu cing
ĠO per
ĠO ff
ĠO pen
ĠO dds
ĠO pposite
ĠO CIS
Ġover la
Ġover come
Ġover coming
ĠJ ack
ĠV lad
Ġapp oint
ric ane
ach usetts
Ġcont empt
Ġsol ves
Ġlong itudinal
ount ing
Ġspe aking
Ġint act
Ġmonth ly
Ġrec ess
Ġback ed
ĠWe ird
Ġsm ash
Ġmin ed
Ġbo oms
Ġpr one
ish ed
Ġexp ense
Ġunder p
Ġcr ack
ĠCh ris
ĠSuper Draco
red ict
Ġ... (
Ġlif ts
Ġsuper intelligence
Ġend ing
ĠAut om
Ġpub lishing
Ġdel icious
Ġcost ly
Ġadd s
ag ing
ag ers
Ġgr ace
Ġgr ind
ĠAl titude
Ġdis ruption
Ġdef ault
Ġshort age
Ġconf used
Ġcons istent
az z
Ġshow ers
Ġbec ame
ĠK anye
ĠK CR
Ġatt est
Ġatt end
ob v
Re al
Ġind ex
Ġgu est
Ġgu ardians
ĠSh e
ĠSh op
Ġappreci ative
Ġdep ressing
Ġcontro vers
Ġcool ed
ope z
ĠRe ality
Ġhour ly
Ġrem oving
Ġpass es
Ġtal ents
ason ic
Ġann ounced
Ġcap abilities
Ġrequire ment
Ġpost pone
Ġinv ite
ear ning
iter acy
Ġste adily
Ġdiffer ently
Ġcrit ique
Ġoper ations
Ġcomm ands
ĠPro duct
ĠPro pul
Ġbad ly
Ġcare fully
lin ks
Ġrisk y
ium s
Ġhead s
Ġinst ructions
Ġdeal ing
ĠDo ctors
ĠDo jo
Ġplay er
Ġclear ance
ĠSo on
Ġmove ments
ĠStar hopper
Ġinvest igated
val u
Ġhalf way
ĠUn ited
ention ally
Ġannounce ments
Ġrest ore
ness es
Ġhot el
Ġprop osed
eg al
eth eless
Ġequ ally
As pirationally
Ġform s
Ġspaceship s
Ġpol ite
Ġpres ents
Ġdeb ris
Ġstock s
Ġconfirm ing
hold ers
Ġaffect ing
Ġmention ing
Ġbeg un
Ġtravel ing
An cient
ĠSun g
ĠCo achella
Act iv
ĠMon th
Ġsus pect
Ġdest ruction
Ġshe et
Ġinstall ers
ĠOr bit
Ġimm une
Ġcy ber
ĠAir craft
Ġmetal s
ĠRuss ians
Can ada
Ġpop ulated
Ġass ets
Ġhon est
Ġpublish ed
Ġjud ging
Ġop aque
Ġadjust ing
ĠCar lo
ĠAd ela
Un less
ĠSp ain
Ġturb ine
Ġprom inent
pro b
Ġprem ature
Ġprem iums
Ġstation ary
ĠId eas
Ġprof it
Ġcatch ing
ĠApp rox
ĠSer vice
Ġthrot t
ĠRep l
Ġcontinu ing
Ġcor ruption
Ġsubject s
Ġsurpr ise
Ġfam ilies
ĠEn ough
Ġadvert ise
Ġess ay
ĠOb viously
ĠSm oking
ĠMe ant
Ġexpend ed
Ġinfl ation
Ind ividual
Ġwal king
Ġreb uilt
Ġsurv ive
Ġhur ricane
Ġintegr ity
augh ty
ĠAny one
Ġsequ itur
Ġmodel s
ĠMass achusetts
ular ity
Ġmeth ods
Ġsmooth ly
Ġcast le
Ġfi at
ĠMont e
bor g
Ġenc ounter
Does nt
Ġcommunic ations
amm ers
Ġrot ate
Ġexec s
Ġexec utive
Ġloss es
Ġresol ved
Ġclaim ed
Fe els
Ġcontroll ing
Ġpurch ases
++ ,
sell ers
Ġpoll s
ĠEast ern
Ġsimultane ous
ĠCon c
Engine ering
Ġmechan ics
Ġdiv ision
Ġtransition ing
Ġsurround ing
Sun day
check ed
Ġmiss ives
Ġsignal s
Ġbright ness
Ġskill z
Ġexternal ity
ĠVan cou
Ġemer gency
Ġinvent ed
ĠJon ah
Russ ian
Thrust ers
ĠPan asonic
Ġdemonstr ate
Ġfrequ ency
Ġwer en
ĠBlack rock
ĠGu aranteed
Current ly
cons umer
Ġapocal y
Ġmaneu vers
Ġstat us
Ġsignature s
Ġtempor ary
Ġconstit u
Ġrenew ables
Bas ically
ĠIC B
Ġcompla ining
Ġrespons ibility
Iron ically
Qu il
Ġpist ons
ĠSX SW
ĠSur face
Ġtransmit ting
Upgr ades
Red dit
sw ers
Ġgain ed
ĠCount down
ĠDetail s
rypt on
ĠStone cut
ĠStone henge
Ġadvoc ates
Ġsele ctions
ĠCongr atulations
Ġchoo sing
Ġcycl ists
Ġassess ment
Ġproportion ately
ĠPri ze
Ġmetap hor
Ide ally
Ġunreason ably
Rad ar
ĠSpr ing
Ġmak er
ĠNav igate
Ġsufficient ly
Ġconfigur ator
Ġcouncil s
Ġjudic ial
cur ve
Ġrein force
Ġvict ory
Ġtrigger ed
ĠEgg s
Ġpreburn er
Ġperman ent
Ġquant um
Strong est
Ġredund ant
Tel emetry
Ġpsy ch
Ġgend er
ĠTw ain
Ġchea per
ĠEmp ire
Ġpocket s
dri ven
Ġpill ar
ĠMiss ouri
ĠNut cracker
Ġcompl ac
Ġzomb ie
ĠIsaac son
Ġmaneuver ing
ĠContin ued
Ġsanctim onious
Ign ition
Ġbub ble
Ġinher ently
Ġscenar io
Bo oster
Ra ul
tot ypes
Ġcrow d
Ġfant astic
ĠTerm inal
ĠMich ael
ĠHitch ens
Ġcomplic ated
Ġappropri ate
Ġlangu age
Alex ander
Fro do
List ening
Spe cial
Ġumb rella
Ġulit mate
Ġawesom eness
Ġmush room
Ġdign ity
Ġluc rative
Ġglor ious
ĠTwit meme
ĠIrel and
ĠMicro soft
ĠAlyss a
Ġorph anage
ĠDys on
ĠOpen AI
ĠOCIS LY
ĠKCR W
Ġcontrovers ial
ĠPropul sion
ĠAdela ide
ĠVancou ver
ĠStonecut ters
$ $
2 7
3 3
4 2
4 7
? ""
A pril
A riane
B een
C A
C le
C ow
C over
C omes
C Sat
D es
D ock
D awn
E C
E ar
E ither
E ST
F il
F ront
F ossil
G S
G lass
G onna
G rad
H D
H M
H acked
H umans
H yd
I ran
J udge
L iam
L aren
M ade
M illions
M ountain
N ope
O wner
O lymp
P ic
P ull
P ass
P ushing
P AC
P resent
R amp
S ew
S ince
S entry
S now
U ran
W B
W ore
W ish
W atched
Y ED
a j
a ited
b iz
b atteries
c urrent
d ir
d ark
d ead
e per
e vi
f e
f irm
f ired
g ic
g el
h es
h op
i as
k y
k ill
k ist
k Wh
m ay
m any
m uch
m ult
m arket
n amb
o in
o or
o em
o ci
o oming
r ator
r ising
r ification
s om
s up
s pect
t rack
t opia
u i
v o
w in
w on
y aw
z be
z ens
Ġ ich
Ġ ought
Ġ ouch
Ġt in
Ġt ides
Ġt ouched
in le
in ery
Ġa pt
Ġa wards
er on
on est
Ġs ig
Ġs am
Ġs we
re g
re et
re eway
Ġw ed
Ġw ound
Ġw ipe
es on
Ġb on
Ġb ays
Ġb atch
at urally
Ġc g
Ġc able
Ġc ape
Ġc urrency
Ġf ed
Ġf ro
Ġf ab
is sing
ou pl
it ation
it ary
it ang
it ute
it rogen
an ic
an ze
Ġm el
Ġm ur
Ġm ere
Ġm ort
Ġm imes
ar ia
Ġto ss
Ġto xic
Ġp eop
Ġp uff
Ġp laid
Ġp oured
Ġo re
Ġd ain
Ġd ice
Ġd oth
Ġd ash
Ġd rain
Ġd rug
Ġd ipl
ed ia
Ġl ady
Ġl air
Ġl aid
Ġl ined
Ġl udicrous
Ġl apse
Ġh ire
Ġh oping
Ġh oly
st ruction
ro pped
Ġin cons
al op
al so
mp ath
Ġn itrogen
Ġis land
el is
el vin
et ric
ion ally
as er
Ġg ent
Ġg ang
Ġg aming
Ġg odd
le y
Ġre ele
ig ital
ĠT om
ĠT urbo
ĠS S
ĠS ade
ĠS entry
ĠS ug
ĠS chool
ĠS ales
Ġfor th
Ġfor cing
ill ed
Ġon board
om ats
amp les
Ġe in
Ġe valu
id en
ct ic
ĠI D
ĠI vo
la ut
Ġy ield
ad ay
ad oes
ĠM W
ĠM our
ĠM ull
ĠM ia
ĠM SF
ĠM inecraft
all i
ter ed
ter ia
Ġst ro
im izing
th ur
th ose
th ermal
ĠA yn
ĠA gency
ĠA eron
Ġne arly
Ġr ac
Ġr ural
Ġr ides
Ġco at
Ġco king
Ġco ord
Ġco bal
ĠC reat
ĠC apt
ĠC oll
ĠC ustom
ĠC ivil
ĠC andy
ĠC omb
ĠC ertainly
ĠC argo
Ġpro ving
ur ai
ur atively
Ġv on
Ġv ir
Ġsh red
Ġsh arks
ers ized
ĠW ing
ĠW ent
ĠW ik
ĠW ME
Ġtr ial
Ġmo od
Ġha il
ab out
ul istic
se at
Ġdo zens
Ġex empt
ol era
ĠTh eres
ĠF ew
ĠF ish
ĠF iring
ĠF inal
ĠF air
ĠF und
ĠF ield
ĠF ocus
ĠF oster
ĠF ederal
ĠF ault
ĠF ixed
ĠF reeway
ant e
Ġde ar
Ġde eper
Ġse es
ra it
Ġj azz
ĠH at
ĠH oo
ĠH uz
ĠH onored
ĠB ow
ĠB ur
ĠB old
ĠB oy
ĠB arry
Ġma il
Ġma ps
ĠD r
ĠD ad
ĠD ue
ĠD arth
ĠD ict
ĠD ams
ĠD enal
ĠD EST
ĠD WB
Ġall evi
ĠP U
ĠP ending
ĠP eter
ĠP ana
ĠP ledge
ĠP aint
ĠP enn
ĠP ucker
ĠP redict
ĠP itang
act ively
Ġch ef
ip les
ip edia
qu oted
ĠE xt
ĠE ph
ĠE PA
ĠE DT
ĠE AP
Ġun ivers
Ġun cont
Ġun seat
lo sed
ew art
ĠL ars
ĠL ea
ĠL iv
ĠL iterally
ĠL ee
ĠL ands
ĠL ogs
ĠR G
ĠR ises
ĠR esearch
Ġup rising
Ġk it
Ġk itten
ĠG G
ĠG es
ĠG ive
ĠG oll
ĠG lobal
ĠG reg
ain ing
ain ting
Ġcomp ell
Ġcomp osite
Ġcomp ares
ss ue
Ġcar maker
imp anze
ist ocracy
ist rator
ap or
ap acitors
em arket
Yes terday
Ġye llow
con ser
ect s
ect ic
Ġar cing
Ġar istocracy
Ġhe h
Ġpre cious
ĠSt ri
ĠSt arting
ĠSt ainless
ĠSt alin
ĠSt ewart
Ġimp ulse
Ġwould ve
ore s
Ġpo se
Ġno is
der a
Ġad apt
ĠU zbe
ĠO wner
ĠO ccupy
ĠSpace flight
ĠJ ong
ĠJ ord
ĠJ olly
Ġbet s
ven ience
ans ive
ĠV inge
ĠV TV
