{"<|endoftext|>":0,"!":1,"\"":2,"#":3,"$":4,"%":5,"&":6,"'":7,"(":8,")":9,"*":10,"+":11,",":12,"-":13,".":14,"/":15,"0":16,"1":17,"2":18,"3":19,"4":20,"5":21,"6":22,"7":23,"8":24,"9":25,":":26,";":27,"<":28,"=":29,">":30,"?":31,"@":32,"A":33,"B":34,"C":35,"D":36,"E":37,"F":38,"G":39,"H":40,"I":41,"J":42,"K":43,"L":44,"M":45,"N":46,"O":47,"P":48,"Q":49,"R":50,"S":51,"T":52,"U":53,"V":54,"W":55,"X":56,"Y":57,"Z":58,"[":59,"\\":60,"]":61,"^":62,"_":63,"`":64,"a":65,"b":66,"c":67,"d":68,"e":69,"f":70,"g":71,"h":72,"i":73,"j":74,"k":75,"l":76,"m":77,"n":78,"o":79,"p":80,"q":81,"r":82,"s":83,"t":84,"u":85,"v":86,"w":87,"x":88,"y":89,"z":90,"{":91,"|":92,"}":93,"~":94,"¡":95,"¢":96,"£":97,"¤":98,"¥":99,"¦":100,"§":101,"¨":102,"©":103,"ª":104,"«":105,"¬":106,"®":107,"¯":108,"°":109,"±":110,"²":111,"³":112,"´":113,"µ":114,"¶":115,"·":116,"¸":117,"¹":118,"º":119,"»":120,"¼":121,"½":122,"¾":123,"¿":124,"À":125,"Á":126,"Â":127,"Ã":128,"Ä":129,"Å":130,"Æ":131,"Ç":132,"È":133,"É":134,"Ê":135,"Ë":136,"Ì":137,"Í":138,"Î":139,"Ï":140,"Ð":141,"Ñ":142,"Ò":143,"Ó":144,"Ô":145,"Õ":146,"Ö":147,"×":148,"Ø":149,"Ù":150,"Ú":151,"Û":152,"Ü":153,"Ý":154,"Þ":155,"ß":156,"à":157,"á":158,"â":159,"ã":160,"ä":161,"å":162,"æ":163,"ç":164,"è":165,"é":166,"ê":167,"ë":168,"ì":169,"í":170,"î":171,"ï":172,"ð":173,"ñ":174,"ò":175,"ó":176,"ô":177,"õ":178,"ö":179,"÷":180,"ø":181,"ù":182,"ú":183,"û":184,"ü":185,"ý":186,"þ":187,"ÿ":188,"Ā":189,"ā":190,"Ă":191,"ă":192,"Ą":193,"ą":194,"Ć":195,"ć":196,"Ĉ":197,"ĉ":198,"Ċ":199,"ċ":200,"Č":201,"č":202,"Ď":203,"ď":204,"Đ":205,"đ":206,"Ē":207,"ē":208,"Ĕ":209,"ĕ":210,"Ė":211,"ė":212,"Ę":213,"ę":214,"Ě":215,"ě":216,"Ĝ":217,"ĝ":218,"Ğ":219,"ğ":220,"Ġ":221,"ġ":222,"Ģ":223,"ģ":224,"Ĥ":225,"ĥ":226,"Ħ":227,"ħ":228,"Ĩ":229,"ĩ":230,"Ī":231,"ī":232,"Ĭ":233,"ĭ":234,"Į":235,"į":236,"İ":237,"ı":238,"Ĳ":239,"ĳ":240,"Ĵ":241,"ĵ":242,"Ķ":243,"ķ":244,"ĸ":245,"Ĺ":246,"ĺ":247,"Ļ":248,"ļ":249,"Ľ":250,"ľ":251,"Ŀ":252,"ŀ":253,"Ł":254,"ł":255,"Ń":256,"Ġt":257,"in":258,"Ġa":259,"er":260,"on":261,"Ġs":262,"re":263,"Ġth":264,"Ġw":265,"es":266,"or":267,"Ġb":268,"at":269,"Ġc":270,"ing":271,"Ġf":272,"is":273,"ou":274,"it":275,"en":276,"ll":277,"an":278,"Ġm":279,"ar":280,"Ġto":281,"Ġp":282,"Ġo":283,"Ġd":284,"Ġthe":285,"ed":286,"Ġl":287,"Ġh":288,"st":289,"ro":290,"Ġin":291,"al":292,"mp":293,"Ġof":294,"Ġn":295,"Ġis":296,"ic":297,"el":298,"et":299,"ion":300,"as":301,"Ġg":302,"ac":303,"le":304,"Ġre":305,"ig":306,"ut":307,"ĠT":308,"ve":309,"ot":310,"ĠS":311,"Ġbe":312,"Ġan":313,"Ġfor":314,"ill":315,"Ġon":316,"ow":317,"om":318,"ly":319,"ay":320,"amp":321,"Ġe":322,"Ġ&":323,"ver":324,"un":325,"id":326,"ent":327,"ct":328,"ĠI":329,"la":330,"ld":331,"od":332,"ch":333,"Ġy":334,"ad":335,"ĠM":336,"igh":337,"all":338,"ter":339,"Ġso":340,"Ġit":341,"Ġst":342,"im":343,"esla":344,"ust":345,"up":346,"Ġthat":347,"th":348,"ĠA":349,"ir":350,"Ġwe":351,"ith":352,"op":353,"us":354,"il":355,"Ġwh":356,"Ġne":357,"est":358,"Ġwill":359,"am":360,"Ġr":361,"out":362,"ke":363,"Ġbut":364,"Ġco":365,"ĠC":366,"Ġwith":367,"Ġpro":368,"ce":369,"Th":370,"ur":371,"ĠTesla":372,"ould":373,"Ġyou":374,"ight":375,"if":376,"Ġand":377,"Ġat":378,"ck":379,"Ġare":380,"ally":381,"ere":382,"Ġv":383,"ars":384,"ation":385,"Ġsh":386,"Ġgo":387,"ers":388,"ĠW":389,"Ġtr":390,"Ġmo":391,"Ġha":392,"ate":393,"ab":394,"Ġen":395,"ul":396,"se":397,"ure":398,"Ġdo":399,"Ġor":400,"ge":401,"Ġro":402,"and":403,"oun":404,"Ġnot":405,"Ġas":406,"Ġex":407,"ol":408,"Ġby":409,"ĠTh":410,"ĠF":411,"Ġthis":412,"ant":413,"Ġde":414,"Ġse":415,"ity":416,"ra":417,"ace":418,"Ġj":419,"ks":420,"um":421,"Ġli":422,"ome":423,"Ġcon":424,"ri":425,"ĠH":426,"ort":427,"Ġwor":428,"Ġab":429,"ĠB":430,"pe":431,"our":432,"Ġ(":433,"Ġma":434,"ĠN":435,"ĠD":436,"Ġall":437,"ĠP":438,"act":439,"Ġal":440,"pp":441,"ea":442,"rom":443,"odel":444,"Ġfrom":445,"Ġlo":446,"Ġwas":447,"Ġch":448,"gh":449,"Ġhave":450,"ine":451,"ip":452,"ard":453,"qu":454,"ĠE":455,"ack":456,"Ġun":457,"one":458,"..":459,"reat":460,"pace":461,"ess":462,"lo":463,"ew":464,"ough":465,"ĠL":466,"ĠR":467,"Ġup":468,"art":469,"Ġk":470,"ue":471,"ĠG":472,"ain":473,"Ġme":474,"\"\"":475,"Ġcomp":476,"ss":477,"ost":478,"ong":479,"Ġabout":480,"Ġcar":481,"ast":482,"ely":483,"ction":484,"king":485,"Ġthan":486,"are":487,"ire":488,"imp":489,"cket":490,"ĠModel":491,"Ġlike":492,"ive":493,"Ġjust":494,"ist":495,"Ġus":496,"ap":497,"em":498,"ide":499,"Ġte":500,"Yes":501,"ound":502,"Ġye":503,"con":504,"ies":505,"Ġtim":506,"ry":507,"Ġneed":508,"ect":509,"Ġout":510,"'s":511,"Ġgood":512,"Ġar":513,"du":514,"Ġhe":515,"end":516,"Ġpre":517,"ment":518,"Ġrocket":519,"Ġmore":520,"ĠSt":521,"unch":522,"very":523,"Ġcan":524,"Ġmy":525,"Ġcom":526,"'t":527,"xt":528,"Ġimp":529,"Ġwould":530,"ci":531,"ore":532,"Ġpo":533,"Ġno":534,"Ġhigh":535,"ase":536,"aunch":537,"ts":538,"ull":539,"Ġhas":540,"any":541,"uch":542,"ia":543,"Ġpl":544,"iv":545,"ign":546,"nt":547,"ble":548,"der":549,"iz":550,"ass":551,"Ġad":552,"able":553,"Ġtime":554,"Ġany":555,"per":556,"uper":557,"sion":558,"ef":559,"ice":560,"ub":561,"ĠU":562,"Ġprodu":563,"ous":564,"ower":565,"ĠO":566,"eop":567,"Ġover":568,"Ġeng":569,"ie":570,"Ġta":571,"The":572,"eople":573,"ont":574,"Ġgreat":575,"ĠSpace":576,"ays":577,"ving":578,"ĠJ":579,"Ġbu":580,"Ġbet":581,"ame":582,"Ġif":583,"Ġlaunch":584,"light":585,"Ġour":586,"Ġget":587,"so":588,"Ġtoo":589,"ven":590,"ans":591,"arg":592,"Ġland":593,"ĠV":594,"ff":595,"Tesla":596,"Ġthr":597,"Ġmuch":598,"Ġpeople":599,"Ġact":600,"Ġsa":601,"hip":602,"Ġshould":603,"irst":604,"ite":605,"Ġcars":606,"age":607,"Ġwee":608,"Ġthere":609,"Ġnext":610,"ually":611,"ep":612,"ud":613,"Ġsome":614,"...":615,"Ġone":616,"Ġapp":617,"ink":618,"ind":619,"alcon":620,"cc":621,"Ġ.":622,"Ġtest":623,"ĠThe":624,"atter":625,"ory":626,"oo":627,"hing":628,"ft":629,"Ġsoon":630,"Ġle":631,"Ġwork":632,"Ġmake":633,"bab":634,"Ġthey":635,"ich":636,"own":637,"Ġ~":638,"eah":639,"int":640,"Ġag":641,"Ġdes":642,"anks":643,"port":644,"ood":645,"We":646,"Ġnow":647,"day":648,"Ġinc":649,"ence":650,"ric":651,"Ġyear":652,"Ġmost":653,"ated":654,"ach":655,"be":656,"pt":657,"her":658,"bit":659,"Ġnew":660,"ĠWill":661,"Ġfa":662,"ware":663,"Ġam":664,"ance":665,"ange":666,"Ġright":667,"Ġoth":668,"Ġhard":669,"Ġmon":670,"Ġcont":671,"ree":672,"Ġsp":673,"rag":674,"Ġengine":675,"ats":676,"Ġonly":677,"Ġits":678,"Yeah":679,"ber":680,"Ġdri":681,"vi":682,"Ġyour":683,"Ġsol":684,"Ġlong":685,"Ġkn":686,"ors":687,"Ġwho":688,"Ġway":689,"Ġ%":690,"Ġwhat":691,"Wh":692,"gy":693,"Ġbetter":694,"ens":695,"Ġfe":696,"urn":697,"ĠSpaceX":698,"ult":699,"bably":700,"ater":701,"os":702,"ade":703,"actly":704,"Ġper":705,"Ġpart":706,"Ex":707,"we":708,"You":709,"Ġ\"\"":710,"vel":711,"ount":712,"Ġspe":713,"Ġint":714,"Ġmonth":715,"Ġteam":716,"Ġfirst":717,"Ġqu":718,"aybe":719,"Ġrec":720,"Ġweek":721,"Ġback":722,"00":723,"oc":724,"Ġproduction":725,"ha":726,"ary":727,"gr":728,"ragon":729,"ĠWe":730,"kes":731,"Ġwhich":732,"ĠFalcon":733,"Ġaut":734,"Ġwhen":735,"ating":736,"icle":737,"wn":738,"Ġfun":739,"ĠX":740,"Ġres":741,"fter":742,"ical":743,"ully":744,"Ġlanding":745,"Ġel":746,"nd":747,"Ġfew":748,"Ġreal":749,"fer":750,"Ġmany":751,"ting":752,"Ġacc":753,"Ġsm":754,"Ġmin":755,"Ġimpro":756,"orm":757,"ĠMars":758,"Ġactually":759,"Ġflight":760,"ild":761,"ord":762,"Ġyears":763,"Ġbo":764,"Ġlot":765,"ial":766,"row":767,"Ġsy":768,"Ġser":769,"ose":770,"Ġeven":771,"This":772,"Ġsup":773,"Ġwere":774,"orn":775,"Ġknow":776,"ility":777,"Ġother":778,"ons":779,"Ġpr":780,"Ġdid":781,"lease":782,"Ġdoes":783,"Ġafter":784,"Ġorbit":785,"Ġpower":786,"way":787,"ish":788,"Ġtheir":789,"Ġloo":790,"Ġart":791,"Ġthen":792,"most":793,"Ġreally":794,"Thanks":795,"Ġmis":796,"Ġinter":797,"Ġthink":798,"ĠIt":799,"It":800,"Ġexp":801,"ions":802,"Ġhel":803,"ick":804,"Ġunder":805,"ile":806,"aus":807,"Ġdesign":808,"Ġthem":809,"Exactly":810,"ang":811,"ible":812,"Ġevery":813,"Ġthing":814,"Ġbig":815,"Ġsoft":816,"Ġcr":817,"Ġ$":818,"ilot":819,"ĠCh":820,"ys":821,"Ġcoming":822,"Ġtrue":823,"Good":824,"ĠSuper":825,"Ġwant":826,"Just":827,"uck":828,"ph":829,"ress":830,"omet":831,"ĠThis":832,"Ġsee":833,"Ġthrust":834,"Ġown":835,"Ġhapp":836,"Ġcould":837,"old":838,"red":839,"No":840,"stem":841,"arship":842,"ations":843,"ves":844,"arth":845,"Ġ...":846,"ise":847,"ically":848,"ĠIn":849,"itt":850,"lic":851,"elf":852,"Ġworld":853,"Ġsoftware":854,"ady":855,"Ġpoint":856,"In":857,"ark":858,"uture":859,"opilot":860,"St":861,"Ġalso":862,"Ġvery":863,"ual":864,"oth":865,"Ġdown":866,"ty":867,"Ġbeing":868,"Ġlif":869,"Ġsuper":870,"Ġfact":871,"Ġspace":872,"unn":873,"ĠDragon":874,"Ġext":875,"Ġver":876,"Ġend":877,"Ġsystem":878,"Ġfuture":879,"ved":880,"ĠAut":881,").":882,"Ġdif":883,"Will":884,"ering":885,"Ġoff":886,"Ġair":887,"That":888,"Ġgoing":889,"ĠUS":890,"Ġelect":891,"Ġpub":892,"Ha":893,"Ġgen":894,"Ġdel":895,"les":896,"Ġsay":897,"Ġfin":898,"Ġcost":899,"Ġuse":900,"ize":901,"Ġsure":902,"Ġsaf":903,"Ġthough":904,"veral":905,"Ġadd":906,"Ġbest":907,"Ġreg":908,"ag":909,"ail":910,"Ġhum":911,"Ġhelp":912,"ced":913,"Ġgr":914,"ĠAl":915,"Ġbuild":916,"Ġbeen":917,"ĠEarth":918,"Ġstill":919,"ne":920,"ense":921,"Ġdis":922,"Ġ-":923,"ines":924,"Ġsc":925,"erson":926,"Ġtoday":927,"charg":928,"ex":929,"mer":930,"Ġhow":931,"Ġneeded":932,"view":933,"ell":934,"ying":935,"els":936,"Ġ:":937,"Ġve":938,"Ġelectric":939,"vy":940,"Ġday":941,"Ġimprove":942,"ics":943,"Ġfast":944,"Ġtrans":945,"Ġdef":946,"ause":947,"Ġ*":948,"ert":949,"Ġsu":950,"ron":951,"Ġ,":952,"Ġbatter":953,"Ġwell":954,"eavy":955,"Ġshort":956,"Ġcall":957,"omething":958,"ward":959,"Ġtw":960,"Ġsame":961,"ank":962,"ments":963,"Ġsolar":964,"Ġinto":965,"pen":966,"Ġlove":967,"pl":968,"Ġener":969,"fore":970,"Ġmade":971,"If":972,"Model":973,"Ġph":974,"Ġconf":975,"ature":976,"Ġstart":977,"ove":978,"Ġopt":979,"Ġadv":980,"Not":981,"ool":982,"Ġsub":983,"Ġdone":984,"Ġdont":985,"Ġtech":986,"ways":987,"reci":988,"arly":989,"Ġhad":990,"Ġpress":991,"Ġagain":992,"ak":993,"ĠAutopilot":994,"ful":995,"form":996,"Ġprobably":997,"Ġcons":998,"ix":999,"iver":1000,"low":1001,"Ġvide":1002,"ĠStarship":1003,"az":1004,"Ġshow":1005,"pect":1006,"Ġbefore":1007,"Ġcl":1008,"Ġalmost":1009,"Ġthrough":1010,"Ġmonths":1011,"Ġim":1012,"Ġfar":1013,"Ġenergy":1014,"Ġrequ":1015,"rem":1016,"Ġclo":1017,"Ġfire":1018,"Ġgas":1019,"Ġret":1020,"thing":1021,"Ġdrive":1022,"let":1023,"oring":1024,"Ġbec":1025,"opef":1026,"ortant":1027,"ition":1028,"blem":1029,"wes":1030,"ĠK":1031,"Ġchange":1032,"Ġthose":1033,"Ġlast":1034,"Ġever":1035,"iles":1036,"atch":1037,"ane":1038,"Ġsupport":1039,"Ġwr":1040,"Ġtake":1041,"Ġveh":1042,"Ġdays":1043,"opefully":1044,"esting":1045,"ĠCan":1046,"ĠJust":1047,"Ġsmall":1048,"Ġtunn":1049,"ero":1050,"Ġatt":1051,"ĠWh":1052,"init":1053,"Ġdon":1054,"!!":1055,"Pro":1056,"Ġob":1057,"initely":1058,"ob":1059,"Ġcle":1060,"ety":1061,"Ġvideo":1062,"Re":1063,"Ġarticle":1064,"Ġhuman":1065,"vent":1066,"Ġaround":1067,"Ġspeed":1068,"Ġind":1069,"Ġgu":1070,"ĠSupercharg":1071,"wesome":1072,"rue":1073,"Ġlow":1074,"Ġins":1075,"ĠSh":1076,"Ġproblem":1077,"ific":1078,"Ġappreci":1079,"Ġpublic":1080,"ape":1081,"Ġfull":1082,"ready":1083,"iring":1084,"ĠLA":1085,"Ġmission":1086,"Ġboost":1087,"ĠNe":1088,"eship":1089,"Ġdoing":1090,"Ġdep":1091,"ode":1092,"Ġworking":1093,"apt":1094,"aw":1095,"over":1096,"erm":1097,"Ġgener":1098,"iting":1099,"Al":1100,"Ġcount":1101,"Ġless":1102,"Ġcontro":1103,"ittle":1104,"Great":1105,"Ġmet":1106,"Ġstr":1107,"ath":1108,"Ġleg":1109,"Ġversion":1110,"azing":1111,"Ġmass":1112,"Ġupd":1113,"olo":1114,"Ġbel":1115,"Ġalways":1116,"li":1117,"Ġcool":1118,"gg":1119,"ese":1120,"Ġwhy":1121,"ssible":1122,"Ġtax":1123,"ious":1124,"Ġenough":1125,"Ġsec":1126,"Ġsomething":1127,"Ġread":1128,"ope":1129,"ĠNo":1130,"cy":1131,"Ġlittle":1132,"Ġval":1133,"Ġcomplet":1134,"orre":1135,"Ġlea":1136,"Ġlife":1137,"oming":1138,"ĠAI":1139,"Ġship":1140,"Ab":1141,"tty":1142,"Ġent":1143,"Ġcent":1144,"ets":1145,"omp":1146,"ĠThat":1147,"ib":1148,"Ġsur":1149,"Ġsign":1150,"ĠRe":1151,"ude":1152,"Ġappro":1153,"Ġbattery":1154,"Am":1155,"Ġallow":1156,"Ġserv":1157,"Ġid":1158,"Ġsafety":1159,"urre":1160,"ather":1161,"Ġhour":1162,"Ġrem":1163,"ids":1164,"oney":1165,"yes":1166,"Ġopen":1167,"ution":1168,"Ġmed":1169,"Ġupgr":1170,"Ġdue":1171,"omm":1172,"Ġexce":1173,"Ġperson":1174,"he":1175,"Ġ/":1176,"Ġbr":1177,"Ġmiles":1178,"Ġav":1179,"ery":1180,"Ġpass":1181,"ĠIf":1182,"ĠHeavy":1183,"ĠRo":1184,"cial":1185,"Ġtechn":1186,"Its":1187,"ĠYou":1188,"Ġtal":1189,"Ġroll":1190,"jor":1191,"ason":1192,"ounds":1193,"Ġproduct":1194,"Ġincre":1195,"Ġstage":1196,"Ġcompany":1197,"Ġthings":1198,"orrow":1199,"Ġimportant":1200,"Ġz":1201,"ffic":1202,"Ġsaid":1203,"Ġmakes":1204,"Haha":1205,"come":1206,"Ġpay":1207,"Ġlater":1208,"alif":1209,"ash":1210,"Ġann":1211,"Ġcap":1212,"kely":1213,"ina":1214,"Ġsk":1215,"Ġhappen":1216,"Ġrequire":1217,"'m":1218,"less":1219,"Ġawesome":1220,"Ġmatter":1221,"Ġpost":1222,"Ġinv":1223,"Ġweeks":1224,"of":1225,"orry":1226,"ĠIts":1227,"aliforn":1228,"ear":1229,"fact":1230,"iter":1231,"Ġcontrol":1232,"Space":1233,"ock":1234,"Ġalready":1235,"Ġplan":1236,"alifornia":1237,"),":1238,"ces":1239,"Ġpri":1240,"Ġrange":1241,"Ġvs":1242,"Ġpressure":1243,"ond":1244,"True":1245,"ates":1246,"olar":1247,"ĠNot":1248,"Ġste":1249,"Ġtra":1250,"load":1251,"ieve":1252,"Ġamazing":1253,"Ġdiffer":1254,"ian":1255,"ied":1256,"Ġfr":1257,"alf":1258,"Ġwhere":1259,"ited":1260,"morrow":1261,"ump":1262,"Ġtomorrow":1263,"Ġdire":1264,"imate":1265,"atell":1266,"Ġorder":1267,"Ġlevel":1268,"oll":1269,"tw":1270,"Ġmoney":1271,"Ġseem":1272,"Ġlook":1273,"ĠAlso":1274,"ĠY":1275,"orth":1276,"lam":1277,"Ġpack":1278,"Ġmax":1279,"ffect":1280,"Ġtunnel":1281,"urrent":1282,"cess":1283,"Ġrelease":1284,"Ġreview":1285,"Ġdem":1286,"Ġcrit":1287,"Ġtwo":1288,"Ġagainst":1289,"Falcon":1290,"gen":1291,"ng":1292,"Ġseveral":1293,"Ġfix":1294,"its":1295,"Ġhis":1296,"iga":1297,"Ġris":1298,"Ġengines":1299,"Ġcalled":1300,"Ġke":1301,"Ġfree":1302,"Ġref":1303,"There":1304,"Ġengineering":1305,"Ġvehicle":1306,"ning":1307,"Ġoper":1308,"Ġpossible":1309,"ĠThey":1310,"Ġfactory":1311,"Ġservice":1312,"ĠCalifornia":1313,"Ġextrem":1314,"ict":1315,"Ġrep":1316,"illion":1317,"ody":1318,"not":1319,"arge":1320,"formance":1321,"So":1322,"ily":1323,"Ġes":1324,"Ġman":1325,"Ġcomm":1326,"ĠPro":1327,"Maybe":1328,"ject":1329,"Ġbad":1330,"ustom":1331,"\"\"\"":1332,"aut":1333,"Ġvia":1334,"ĠStation":1335,"Ok":1336,"Ġcare":1337,"Ġhold":1338,"Ġnight":1339,"ds":1340,"lin":1341,"Ġboth":1342,"Ġpar":1343,"ĠCape":1344,"Ġunt":1345,"Ġquest":1346,"Ġdet":1347,"ime":1348,"Ġfav":1349,"Ġbooster":1350,"Ġupdate":1351,"inal":1352,"Ġwater":1353,"Ġbas":1354,"Ġcreat":1355,"Ġiss":1356,"Ġnever":1357,"Ġidea":1358,"On":1359,"iron":1360,"Ġvis":1361,"Ġgoes":1362,"Ġearly":1363,"Ġset":1364,"Ġmaybe":1365,"Ġlim":1366,"Ġwithout":1367,"Ġdec":1368,"ctions":1369,"Ġincl":1370,"Ġwind":1371,"ĠTex":1372,"Ġstop":1373,"Ġlive":1374,"Ġcomput":1375,"What":1376,"ĠChina":1377,"ertain":1378,"And":1379,"Ġsatell":1380,"ists":1381,"Ġanything":1382,"ology":1383,"ked":1384,"pr":1385,"Ġside":1386,"Ġself":1387,"Ġcour":1388,"veil":1389,"ĠTexas":1390,"anced":1391,"ilt":1392,"loy":1393,"Sh":1394,"Ġ+":1395,"Ġsal":1396,"Ġsim":1397,"ster":1398,"Ġreus":1399,"ĠIm":1400,"Ġvi":1401,"Ġcompet":1402,"Ġhigher":1403,"Ġrisk":1404,".\"":1405,"air":1406,"ec":1407,"vid":1408,"ative":1409,"Ġtimes":1410,"ĠSupercharger":1411,"Ġmedia":1412,"Ġlikely":1413,"orrect":1414,"For":1415,"SD":1416,"ium":1417,"Ġrear":1418,"Ġvol":1419,"Ġloc":1420,"aptor":1421,"Ġcustom":1422,"Ġmot":1423,"Ġkids":1424,"Ġhead":1425,"Ġago":1426,"wh":1427,"Ġinst":1428,"Ġyet":1429,"uring":1430,"Ġexper":1431,"Ġdeal":1432,"ongr":1433,"ized":1434,"SpaceX":1435,"te":1436,"Ġused":1437,"Ġowners":1438,"iant":1439,"wit":1440,"ator":1441,"Ġhand":1442,"ational":1443,"ĠNew":1444,"ĠDo":1445,"ĠGiga":1446,"Ġplay":1447,"ooks":1448,"Ġwhile":1449,"ĠHe":1450,"Ġclear":1451,"Ġfly":1452,"Ġneeds":1453,"Ġap":1454,"Ġlight":1455,"eld":1456,"Ġeas":1457,"ents":1458,"Ġroad":1459,"Ġunveil":1460,"Ġusing":1461,"Ġfeel":1462,"Ġach":1463,"ata":1464,"Ġregul":1465,"ever":1466,"no":1467,"Ġmay":1468,"ounce":1469,"riving":1470,"ending":1471,"100":1472,"Sure":1473,"io":1474,"nal":1475,"itive":1476,"Ġnum":1477,"ĠSo":1478,"efinitely":1479,"Ġlooks":1480,"Ġhours":1481,"anies":1482,"elcome":1483,"Ġtry":1484,"Ġmoon":1485,"Ġcompanies":1486,"Ġmins":1487,"ommend":1488,"10":1489,"ave":1490,"Ġwar":1491,"Ġpie":1492,"ought":1493,"Ġauto":1494,"Cool":1495,"lan":1496,"Ġsense":1497,"ately":1498,"Ġuntil":1499,"eck":1500,"ny":1501,"raz":1502,"Ġdirect":1503,"ues":1504,"Ġsimp":1505,"Ġbra":1506,"Ġlet":1507,"other":1508,"ĠFor":1509,"raft":1510,"ru":1511,"ser":1512,"ĠAll":1513,"Ġcover":1514,"Ġmove":1515,"Ġmaking":1516,"Ġdeliver":1517,"Ġton":1518,"Ġcre":1519,"Ġfl":1520,"amer":1521,"ability":1522,"ĠStar":1523,"Ġothers":1524,"velop":1525,"Ġbecause":1526,"Ġinvest":1527,"mb":1528,"Ġblo":1529,"Ġfully":1530,"icles":1531,"lad":1532,"anding":1533,"vious":1534,"Ġrecommend":1535,"Ġreturn":1536,"Probably":1537,"Congr":1538,"My":1539,"cl":1540,"res":1541,"Ġhy":1542,"opper":1543,"ural":1544,"Ġtemp":1545,"Ġtwe":1546,"Ġdevelop":1547,"Ġchang":1548,"meric":1549,"Ġprior":1550,"val":1551,"Ġmight":1552,"Ġmph":1553,"Ġhalf":1554,"Ġgot":1555,"Ġyes":1556,"Ġthought":1557,"Ġdisc":1558,"Ġleast":1559,"oud":1560,"Ġlower":1561,"ality":1562,"Ġnet":1563,"ĠFSD":1564,"ume":1565,"Ġmajor":1566,"Ġdiff":1567,"First":1568,"mpt":1569,"und":1570,"iming":1571,"ĠAmeric":1572,"Ġconst":1573,"Ġfeature":1574,"Wow":1575,"ake":1576,"imes":1577,"Ġvac":1578,"Ġbuilding":1579,"To":1580,"Ġtechnology":1581,"Ġfavor":1582,"craft":1583,"Ġturn":1584,"ider":1585,"ustain":1586,"Ġrate":1587,"Ġtrack":1588,"ook":1589,"ger":1590,"Ġcase":1591,"ames":1592,"ĠUn":1593,"Ġautom":1594,"Ġorbital":1595,"Ġcourse":1596,"wer":1597,"atic":1598,"Ġcurrent":1599,"Ġfind":1600,"ouse":1601,"Ġpretty":1602,"Ġnews":1603,"Ġspac":1604,"Ġcenter":1605,"ient":1606,"ins":1607,"Ġmust":1608,"ale":1609,"eler":1610,"lex":1611,"cially":1612,"Ġdriving":1613,"Ġwrong":1614,"Ġdeploy":1615,"uro":1616,"Ġac":1617,"Ġsize":1618,"ention":1619,"Ġpos":1620,"ingle":1621,"Ġbuy":1622,"Ġdoesnt":1623,"Ġzero":1624,"Ġannounce":1625,"line":1626,"Ġaway":1627,"Ġrest":1628,"Ġthats":1629,"ĠComp":1630,"cond":1631,"Ġoption":1632,"Dragon":1633,"Ro":1634,"irm":1635,"Ġprice":1636,"ax":1637,"ness":1638,"ities":1639,"Ġclose":1640,"Ġhumanity":1641,"ern":1642,"reen":1643,"Ġcred":1644,"Ġdata":1645,"Ġname":1646,"ases":1647,"ĠMaybe":1648,"Ġexpect":1649,"ĠThere":1650,"Ġmeans":1651,"arget":1652,"Ġview":1653,"razy":1654,"ien":1655,"erlin":1656,"Ġcome":1657,"Ġcamer":1658,"ising":1659,"Ġdr":1660,"Ġhere":1661,"ote":1662,"Ġforward":1663,"ident":1664,"Ġstre":1665,"Ġworth":1666,"Ġhardware":1667,"About":1668,"bal":1669,"Ġfal":1670,"ites":1671,"Ġyoure":1672,"Ġtruck":1673,"Ġadvanced":1674,"eed":1675,"ield":1676,"Ġtop":1677,"Ġnon":1678,"ĠAm":1679,"Ġfund":1680,"Ġvalue":1681,"Do":1682,"Ġbody":1683,"Ġput":1684,"Ġhot":1685,"Ġprop":1686,"Ġtrying":1687,"Inter":1688,"arket":1689,"All":1690,"Sorry":1691,"down":1692,"Ġterm":1693,"Ġslight":1694,"Ġcrazy":1695,"arch":1696,"Ġok":1697,"ulation":1698,"Ġmean":1699,"ives":1700,"iterally":1701,"ai":1702,"Ġthese":1703,"Ġrock":1704,"Ġroof":1705,"Ġjour":1706,"Ġclimate":1707,"Ġappreciated":1708,"Ġdetail":1709,"Ġsales":1710,"co":1711,"Ġ!":1712,"Ġhome":1713,"adster":1714,"Ġrad":1715,"Ġable":1716,"ĠRaptor":1717,"Ġanyone":1718,"Also":1719,"'re":1720,"Yup":1721,"averal":1722,"ork":1723,"ĠOn":1724,"Ġbuilt":1725,"Ġgetting":1726,"ĠCanaveral":1727,"yper":1728,"ĠQ":1729,"Ġred":1730,"Thats":1731,"ĠNY":1732,"Ġacceler":1733,"Ġbelieve":1734,"gt":1735,"led":1736,"ince":1737,"ither":1738,"Ġdeep":1739,"Ġjob":1740,"ively":1741,"ween":1742,"Ġkeep":1743,"Ġquestion":1744,"Ġpiece":1745,"Launch":1746,"eg":1747,"ps":1748,"vt":1749,"Ġsn":1750,"Ġwelcome":1751,"Ġdro":1752,"ential":1753,"Ġwhe":1754,"olut":1755,"umm":1756,"ĠBoring":1757,"pecially":1758,"Ġkind":1759,"Ġobvious":1760,"'ve":1761,"Ġstud":1762,"uss":1763,"Ġjo":1764,"loop":1765,"Ġkm":1766,"ccess":1767,"roneship":1768,"og":1769,"itude":1770,"Ġmult":1771,"Ġox":1772,"Ġreason":1773,"Ġrockets":1774,"Ġagree":1775,"Ġimo":1776,"yperloop":1777,"ee":1778,"ially":1779,"tle":1780,"Ġtons":1781,"Ġthree":1782,"Ġbl":1783,"Ġgra":1784,"Ġprob":1785,"Ġexc":1786,"Ġplace":1787,"Should":1788,"Ġfalse":1789,"uel":1790,"Ġsound":1791,"icult":1792,"eth":1793,"Ġevent":1794,"ulations":1795,"ĠDe":1796,"av":1797,"ush":1798,"Ġhaha":1799,"ĠNow":1800,"ĠPower":1801,"ĠEuro":1802,"Ġground":1803,"lass":1804,"Ġsustain":1805,"ether":1806,"Ġanother":1807,"tern":1808,"Coming":1809,"ract":1810,"Ġwon":1811,"ism":1812,"Ġdeath":1813,"Ġthanks":1814,"Ġsomeone":1815,"Ġparts":1816,"Ġextremely":1817,"empt":1818,"Ġcant":1819,"Ġequ":1820,"Ġra":1821,"Ġgovt":1822,"bert":1823,"Ġvolume":1824,"As":1825,"Ġsci":1826,"Ġbit":1827,"Ġfine":1828,"Ġdist":1829,"ading":1830,"Ġnear":1831,"Ġcoll":1832,"Ġlonger":1833,"Ġperformance":1834,"Ġsuccess":1835,"Ġupgrade":1836,"30":1837,"solut":1838,"Ġtarget":1839,"Ġfri":1840,"llent":1841,"Ġreach":1842,"Ġform":1843,"aded":1844,"urb":1845,"Definitely":1846,"He":1847,"Pre":1848,"reed":1849,"Ġbar":1850,"Ġpod":1851,"Ġold":1852,"Ġinf":1853,"Ġheat":1854,"iven":1855,"They":1856,"ollow":1857,"Ġcritical":1858,"Rocket":1859,"gress":1860,"ience":1861,"link":1862,"Ġsw":1863,"Ġcertain":1864,"Ġhope":1865,"entry":1866,"ters":1867,"Ġsell":1868,"Ġworks":1869,"Ġchance":1870,"gram":1871,"Ġfront":1872,"witter":1873,"Ġspaceship":1874,"50":1875,"ral":1876,"ygen":1877,"ital":1878,"ross":1879,"ots":1880,"Ġcomb":1881,"Ġbetween":1882,"Ġtesting":1883,"Ġsaying":1884,"Ġsubs":1885,"Ġconsider":1886,"ĠRoadster":1887,"Ġespecially":1888,"cent":1889,"driving":1890,"ug":1891,"Ġslow":1892,"Ġsingle":1893,"Ġmod":1894,"etary":1895,"asing":1896,"ched":1897,"ĠAt":1898,"Ġfairing":1899,"Ġgeneral":1900,"Ġbring":1901,"Ġoxygen":1902,"rac":1903,"Ġmach":1904,"Ġlat":1905,"Ġrepl":1906,"ppy":1907,"Ġspec":1908,"Ġdefinitely":1909,"Ġoptim":1910,"where":1911,"Ġslightly":1912,"But":1913,"rass":1914,"Ġburn":1915,"Ġupper":1916,"Ġcomplex":1917,"Ġfeed":1918,"ysics":1919,"bon":1920,"Ġu":1921,"icul":1922,"eloc":1923,"Ġstand":1924,"Ġstore":1925,"ired":1926,"Ġeasy":1927,"Some":1928,"bs":1929,"Ġiron":1930,"Ġbro":1931,"atically":1932,"Ġlarg":1933,"Ġgive":1934,"Ġrun":1935,"ĠHyperloop":1936,"bability":1937,"Ġfair":1938,"Ġrecord":1939,"Interesting":1940,"City":1941,"Most":1942,"ute":1943,"ther":1944,"Ġnothing":1945,"ization":1946,"eft":1947,"Ġcontin":1948,"Ġsugg":1949,"ibly":1950,"Ġregulat":1951,"ĠEurope":1952,"dd":1953,"uly":1954,"Ġlaw":1955,"Ġleft":1956,"Ġhopefully":1957,"Ġexist":1958,"Ġabove":1959,"apid":1960,"Youre":1961,"Ġprim":1962,"Ġimprovements":1963,"Ġdifficult":1964,"Ġannouncement":1965,"elocity":1966,"Were":1967,"ait":1968,"hopper":1969,"ken":1970,"sed":1971,"Ġcorrect":1972,"Ġdroneship":1973,"term":1974,"Ġstory":1975,"ĠWould":1976,"pell":1977,"ĠGood":1978,"ends":1979,"cing":1980,"eng":1981,"Ġhaving":1982,"ooking":1983,"ĠCompany":1984,"Love":1985,"aid":1986,"ier":1987,"lor":1988,"ĠZ":1989,"ined":1990,"itch":1991,"Ġpol":1992,"ĠAs":1993,"Ġdidnt":1994,"Ġcomplete":1995,"New":1996,"ech":1997,"rid":1998,"sure":1999,"yond":2000,"Ġcaus":2001,"Ġhist":2002,"eting":2003,"ades":2004,"Ġstate":2005,"Ġprogress":2006,"Ġgoal":2007,"Ġmag":2008,"Ġremain":2009,"Ġtalk":2010,"Ġpayload":2011,"Ġtough":2012,"Ġfound":2013,"Ġline":2014,"Ġfail":2015,"Ġwhole":2016,"Ġattempt":2017,"factory":2018,"olarCity":2019,"Ġmotor":2020,"Ġnumber":2021,"solutely":2022,"sing":2023,"uge":2024,"uum":2025,"ints":2026,"Ġwont":2027,"Ġfollow":2028,"Ġmarket":2029,"Ġpad":2030,"Ġreport":2031,"ĠSe":2032,"ada":2033,"Ġvelocity":2034,"Ġcharge":2035,"Ġcheck":2036,"que":2037,"conom":2038,"Ġpres":2039,"Ġweekend":2040,"Ġlegs":2041,"iam":2042,"just":2043,"pon":2044,"Ġthin":2045,"Ġfle":2046,"ision":2047,"Ġliterally":2048,"ĠTwitter":2049,"Ġdeb":2050,"ems":2051,"Ġfaster":2052,"Ġincrease":2053,"Ġcomputer":2054,"pellant":2055,"Very":2056,"oid":2057,"ruck":2058,"eres":2059,"Ġbre":2060,"Ġfuel":2061,"ission":2062,"Ġstock":2063,"Ġtrip":2064,"ably":2065,"ĠHigh":2066,"Ġtook":2067,"wards":2068,"Ġmatters":2069,"Ġdifference":2070,"Ġsustainable":2071,"lish":2072,"wall":2073,"Ġult":2074,"Ġflam":2075,"ĠMay":2076,"Ġweather":2077,"Ġrapid":2078,"ĠEx":2079,"Ġunderst":2080,"ificant":2081,"Ġmultip":2082,"Btw":2083,"fect":2084,"las":2085,"oy":2086,"Ġcity":2087,"aring":2088,"Ġdate":2089,"Ġgiant":2090,"ĠSN":2091,"quid":2092,"duction":2093,"Ġitself":2094,"Ġconfirm":2095,"ĠNeed":2096,"back":2097,"vie":2098,"Ġcell":2099,"Ġinit":2100,"Ġready":2101,"ĠThanks":2102,"Ġheard":2103,"Ġbeta":2104,"Ġsupp":2105,"Ġdidn":2106,"Ġeveryone":2107,"Ġsystems":2108,"Ġreusable":2109,"Of":2110,"Would":2111,"fort":2112,"mos":2113,"swer":2114,"Ġpur":2115,"Ġear":2116,"Ġprot":2117,"Ġprogram":2118,"ify":2119,"Ġmain":2120,"Ġprec":2121,"Ġactual":2122,"Ġdoesn":2123,"Ġthrusters":2124,"ĠIntern":2125,"Ġentire":2126,"At":2127,"Im":2128,"Ġpm":2129,"ults":2130,"ĠHow":2131,"Ġcarbon":2132,"Ġtell":2133,"Ġfunction":2134,"Ġdesigned":2135,"ĠGigafactory":2136,"Ġachie":2137,"Ġtonight":2138,"hold":2139,"ten":2140,"Ġed":2141,"atulations":2142,"Ġcause":2143,"Ġmile":2144,"Ġhor":2145,"ĠSome":2146,"Ġem":2147,"Ġtakes":2148,"Ġsolution":2149,"Ġ--":2150,"Ġapproval":2151,"Ġtraffic":2152,"Ġvacuum":2153,"ethrow":2154,"ev":2155,"put":2156,"Ġaction":2157,"Ġaffect":2158,"Ġcry":2159,"Ġmid":2160,"Ġmention":2161,"Ġtot":2162,"eter":2163,"Ġrece":2164,"ĠAr":2165,"ird":2166,"Ġsecond":2167,"rib":2168,"Ġlog":2169,"SA":2170,"ming":2171,"iny":2172,"Ġsens":2173,"Ġfil":2174,"Ġbeg":2175,"iful":2176,"aps":2177,"ored":2178,"Ġaddress":2179,"Ġissues":2180,"Ġwheel":2181,"AW":2182,"How":2183,"Ne":2184,"to":2185,"ton":2186,"Ġsun":2187,"Ġft":2188,"Ġduring":2189,"Ġgame":2190,"Ġrel":2191,"Ġeach":2192,"upt":2193,"irc":2194,"oping":2195,"Ġroom":2196,"Ġimpact":2197,"Ġplus":2198,"Ġproud":2199,"Starship":2200,"Ġtransport":2201,"ĠWhat":2202,"Ġsatellite":2203,"Ġsuggest":2204,"Looks":2205,"side":2206,"zz":2207,"Ġwin":2208,"Ġboring":2209,"Ġmer":2210,"ĠMy":2211,"Ġrob":2212,"aster":2213,"ĠOur":2214,"Ġtaking":2215,"When":2216,"ocus":2217,"Ġcosts":2218,"Ġlimited":2219,"ĠStarlink":2220,"Ġhistory":2221,"Ġfleet":2222,"face":2223,"oice":2224,"ta":2225,"wise":2226,"Ġsince":2227,"Ġwish":2228,"Ġflow":2229,"ased":2230,"Ġreentry":2231,"ĠMore":2232,"ĠCy":2233,"ĠNor":2234,"Ġarg":2235,"Ġfinish":2236,"ersonic":2237,"Ġsignificant":2238,"Ġsteel":2239,"Ġtravel":2240,"Ġsatellites":2241,"Ġcustomers":2242,"An":2243,"High":2244,"Ġwatch":2245,"Ġpric":2246,"Ġplease":2247,"Ġinj":2248,"ĠSun":2249,"amber":2250,"ĠCo":2251,"Ġpropellant":2252,"orts":2253,"pping":2254,"ivil":2255,"Ġphone":2256,"Ġissue":2257,"ĠOnly":2258,"Act":2259,"Please":2260,"lt":2261,"ling":2262,"oing":2263,"Ġsuch":2264,"ouble":2265,"vert":2266,"Ġatmos":2267,"Ġcountry":2268,"Ġexciting":2269,"rasshopper":2270,"'d":2271,"Ma":2272,"Sounds":2273,"tical":2274,"Ġlate":2275,"Ġemp":2276,"Ġeffect":2277,"Ġeither":2278,"ĠMon":2279,"Ġneg":2280,"Ġramp":2281,"Ġtrick":2282,"ands":2283,"Ġmeant":2284,"Ġaccess":2285,"Ġvehicles":2286,"Ġfixed":2287,"Ġcredit":2288,"Or":2289,"ufact":2290,"yn":2291,"Ġsent":2292,"ouch":2293,"Ġmind":2294,"Ġpure":2295,"Ġpain":2296,"Ġisn":2297,"Ġge":2298,"Ġgames":2299,"acing":2300,"Ġbeaut":2301,"Ġanswer":2302,"ĠIs":2303,"though":2304,"ĠHopefully":2305,"ĠBut":2306,"ires":2307,"Ġgets":2308,"Ġincred":2309,"Ġhappy":2310,"ĠShould":2311,"Ġseems":2312,"Ġlocal":2313,"Ġchanges":2314,"Pretty":2315,"gle":2316,"uff":2317,"Ġsus":2318,"Ġride":2319,"Ġwithin":2320,"urate":2321,"Ġshare":2322,"ĠBo":2323,"Ġload":2324,"Ġsmo":2325,"Ġsafe":2326,"Ġbatteries":2327,"Congratulations":2328,"Ġinjur":2329,"ders":2330,"uct":2331,"onom":2332,"Ġwent":2333,"Ġmorn":2334,"Ġpic":2335,"Ġdig":2336,"Ġdest":2337,"alth":2338,"Ġbeyond":2339,"vers":2340,"ĠAust":2341,"cept":2342,"Ġshe":2343,"Ġmovie":2344,"Ġliquid":2345,"lobal":2346,"ĠGreat":2347,"Ġlaunches":2348,"Ġ~$":2349,"Ġfactor":2350,"Ġstrong":2351,"Ġinstall":2352,"Ġmultiplan":2353,"Ġmorning":2354,"!?":2355,"Now":2356,"Ġtank":2357,"orking":2358,"arily":2359,"Ġhim":2360,"Ġanal":2361,"Ġeconom":2362,"unk":2363,"ently":2364,"Ġprobability":2365,"ries":2366,"Ġchamber":2367,"Ġfins":2368,"Ġconfig":2369,"Ġrequired":2370,"Ġblock":2371,"Ġdetails":2372,"Ġsour":2373,"Ġbook":2374,"ings":2375,"Ġmus":2376,"Ġheavy":2377,"the":2378,"Ġcore":2379,"ĠCO":2380,"Ġdock":2381,"Ġask":2382,"ĠPer":2383,"oughly":2384,"ĠOr":2385,"Ġlead":2386,"Ġspecial":2387,"Ġinteresting":2388,"Ġowner":2389,"Ġimm":2390,"Ġpriority":2391,"aila":2392,"Ġradar":2393,"Ġmachine":2394,"Me":2395,"dit":2396,"ivery":2397,"ner":2398,"oh":2399,"rupt":2400,"Ġpast":2401,"Ġpick":2402,"Ġdual":2403,"ides":2404,"Ġlost":2405,"ĠGrasshopper":2406,"ĠStill":2407,"Ġattack":2408,"Ġmanufact":2409,"Ġpositive":2410,"bertruck":2411,"60":2412,"Aut":2413,"One":2414,"Worth":2415,"ler":2416,"Ġcy":2417,"Ġcat":2418,"Ġcode":2419,"rote":2420,"ested":2421,"urs":2422,"Ġarea":2423,"Ġexactly":2424,"istic":2425,"Ġusef":2426,"Ġtunnels":2427,"Ġindust":2428,"Ġappreciate":2429,"Ġexceed":2430,"Ġuseful":2431,"500":2432,"nect":2433,"ype":2434,"esign":2435,"Ġcivil":2436,"Ġfiring":2437,"Ġlarge":2438,"Ġonline":2439,"aby":2440,"ĠHW":2441,"ĠBet":2442,"eak":2443,"ĠEven":2444,"izing":2445,"ĠUAW":2446,"Ġparty":2447,"Ġquite":2448,"iously":2449,"ĠAmerica":2450,"ummon":2451,"Super":2452,"oon":2453,"self":2454,"work":2455,"Ġtiny":2456,"ination":2457,"Ġfo":2458,"Ġfour":2459,"Ġdens":2460,"roll":2461,"une":2462,"ĠMa":2463,"ĠMot":2464,"ĠAir":2465,"amed":2466,"cean":2467,"Ġorders":2468,"Ġconc":2469,"ĠPlease":2470,"Ġcharg":2471,"Ġmem":2472,"Ġmostly":2473,"Ġperfect":2474,"Ġreality":2475,"Ġlooking":2476,"Ġimprovement":2477,"plan":2478,"Ġreading":2479,"Ġtweet":2480,"Ġswap":2481,"Ġstandard":2482,"ov":2483,"outh":2484,"Ġmillion":2485,"Ġlist":2486,"Ġren":2487,"oline":2488,"Ġhell":2489,"ube":2490,"fford":2491,"Ġincent":2492,"Ġbigger":2493,"Ġmetal":2494,"head":2495,"ailable":2496,"ah":2497,"vity":2498,"Ġwrote":2499,"Ġmode":2500,"Ġpot":2501,"Ġdiam":2502,"utes":2503,"Ġshield":2504,"ĠThats":2505,"Ġdead":2506,"umb":2507,"Ġunless":2508,"Ġscale":2509,"Absolutely":2510,"Ġexcept":2511,"pril":2512,"Ġcreate":2513,"Ġfavorite":2514,"Ġindustry":2515,"Se":2516,"Was":2517,"gest":2518,"Ġsong":2519,"Ġsite":2520,"Ġcoun":2521,"Ġfocus":2522,"Ġher":2523,"acks":2524,"igate":2525,"Ġstatic":2526,"ament":2527,"Ġcold":2528,"ĠLove":2529,"ĠRuss":2530,"Ġpoints":2531,"Ġhappens":2532,"Ġdelivery":2533,"Ġexcellent":2534,"Ġsky":2535,"ĠPowerwall":2536,"Ġregulatory":2537,"Ġbeautiful":2538,"Ch":2539,"Can":2540,"Imp":2541,"ead":2542,"titude":2543,"Ġice":2544,"Ġpop":2545,"Ġocean":2546,"Ġrele":2547,"Ġwhite":2548,"Ġmoving":2549,"ules":2550,"Ġass":2551,"Ġtests":2552,"Ġclean":2553,"Ġmissions":2554,"Ġcompleted":2555,"Ġhyd":2556,"Ġirony":2557,"echn":2558,"ey":2559,"ok":2560,"ris":2561,"Ġafford":2562,"Ġwide":2563,"Ġcal":2564,"Ġfig":2565,"Ġtowards":2566,"Ġhon":2567,"Ġhover":2568,"rot":2569,"Ġgiven":2570,"Ġenable":2571,"ured":2572,"Ġseats":2573,"Ġusually":2574,"Ġpred":2575,"Ġamount":2576,"Ġparticul":2577,"Ġpublish":2578,"Ġavoid":2579,"ĠProbably":2580,"Only":2581,"Ġautomatically":2582,"Ġcamera":2583,"Ġfeedback":2584,"Ġmultiplanetary":2585,"viron":2586,"Ġut":2587,"Ġsounds":2588,"ised":2589,"Ġmess":2590,"Ġoffer":2591,"Ġisnt":2592,"Ġglass":2593,"iginal":2594,"ĠAnd":2595,"Ġrid":2596,"Ġshot":2597,"Ġensure":2598,"semb":2599,"Ġjud":2600,"Ġalthough":2601,"Ġchall":2602,"Well":2603,"Ġautonom":2604,"Ġvertical":2605,"Ġfinal":2606,"Almost":2607,"Ġcountries":2608,"Ġavailable":2609,"Ġoperating":2610,"Ġcreated":2611,"Congrats":2612,"Ġexpected":2613,"Ġfriend":2614,"Nice":2615,"man":2616,"vol":2617,"ret":2618,"rend":2619,"Ġwd":2620,"arter":2621,"Ġop":2622,"stron":2623,"Ġbeh":2624,"ĠMerlin":2625,"Ġprov":2626,"ife":2627,"Ġasked":2628,"umer":2629,"ĠBr":2630,"pped":2631,"ĠEng":2632,"phere":2633,"ellig":2634,"Ġcritic":2635,"Ġbasically":2636,"Ġachieve":2637,"Ġhyp":2638,"Ġnetwork":2639,"Ġtracking":2640,"Ġsuccessful":2641,"Ġbreak":2642,"Ġdiameter":2643,"20":2644,"Ph":2645,"Ġpan":2646,"Ġhouse":2647,"idual":2648,"ĠMach":2649,"Ġprovid":2650,"Ġenviron":2651,"Ġchar":2652,"ĠEV":2653,"Ġcomes":2654,"Ġtaken":2655,"Ġlear":2656,"Ġseries":2657,"Ġcrash":2658,"Ġbased":2659,"Ġexperience":2660,"More":2661,"ik":2662,"Ġsit":2663,"Ġwait":2664,"orld":2665,"Ġflo":2666,"Ġlab":2667,"Ġrefer":2668,"ĠTo":2669,"Ġforce":2670,"Ġeffic":2671,"ĠMost":2672,"Ġnote":2673,"ĠPh":2674,"cient":2675,"Ġarticles":2676,"ometimes":2677,"Ġgrid":2678,"Ġshows":2679,"Ġbecome":2680,"ibility":2681,"Ġhappened":2682,"Ġdifferent":2683,"icture":2684,"Ġrepair":2685,"Ġinclud":2686,"Ġinclude":2687,"Ġsubsid":2688,"ethrower":2689,"cast":2690,"coming":2691,"greed":2692,"Ġtor":2693,"rel":2694,"Ġfla":2695,"Ġpat":2696,"Ġpark":2697,"Ġoften":2698,"Ġant":2699,"ĠApril":2700,"ams":2701,"Ġvote":2702,"Ġseen":2703,"ared":2704,"Ġadjust":2705,"Ġanyway":2706,"Ġactive":2707,"berg":2708,"Ġspacecraft":2709,"Ġrolling":2710,"Ġdealers":2711,"Ġcombust":2712,"Ġprimary":2713,"Ġtotal":2714,"Oh":2715,"ned":2716,"uc":2717,"Ġign":2718,"illions":2719,"Ġonce":2720,"ĠIve":2721,"ĠCar":2722,"Ġprocess":2723,"Ġthank":2724,"iving":2725,"ground":2726,"Ġcustomer":2727,"Ġappe":2728,"ĠAmerican":2729,"Ġfeatures":2730,"Ġcameras":2731,"Ġfundament":2732,"Ġatmosphere":2733,"ĠPerformance":2734,"Ġprovide":2735,"Agreed":2736,"Glad":2737,"Hopefully":2738,"com":2739,"eing":2740,"ior":2741,"ians":2742,"ule":2743,"Ġ'":2744,"Ġbase":2745,"ators":2746,"Ġpicture":2747,"ĠAd":2748,"ilar":2749,"Ġtrain":2750,"Ġconnect":2751,"Ġword":2752,"Ġabort":2753,"Ġcarry":2754,"ived":2755,"Ġflights":2756,"anger":2757,"mercial":2758,"Ġrequest":2759,"Ġcloser":2760,"ĠNext":2761,"Ġopening":2762,"Ġdelivered":2763,"Ġacross":2764,"De":2765,"Our":2766,"Un":2767,"With":2768,"na":2769,"Ġpaid":2770,"Ġdam":2771,"ĠSp":2772,"entially":2773,"Ġnecess":2774,"ĠNA":2775,"Ġaltitude":2776,"Ġworked":2777,"Ġscreen":2778,"iverse":2779,"overed":2780,"Ġcreating":2781,"Ġpropul":2782,"Ġjournal":2783,"Ġsnow":2784,"Ġscience":2785,"elligence":2786,"WD":2787,"ox":2788,"ye":2789,"Ġer":2790,"Ġturb":2791,"Ġfall":2792,"ency":2793,"Ġmist":2794,"Ġpump":2795,"Ġhuge":2796,"aced":2797,"uth":2798,"Ġstor":2799,"Ġprom":2800,"Ġalone":2801,"Ġeverything":2802,"Ġdemand":2803,"Ġflying":2804,"Ġblack":2805,"Ġcertainly":2806,"ĠInternet":2807,"Next":2808,"Actually":2809,"Ġdensity":2810,"bers":2811,"haps":2812,"ole":2813,"pro":2814,"inc":2815,"Ġactions":2816,"Ġsend":2817,"Ġtheres":2818,"Ġbillion":2819,"Ġmom":2820,"Ġtow":2821,"Ġden":2822,"ĠAre":2823,"ops":2824,"usion":2825,"Ġrain":2826,"Ġcoast":2827,"Thank":2828,"ures":2829,"Ġprem":2830,"Ġprevent":2831,"orne":2832,"Ġelectricity":2833,"Ġphysics":2834,"Ġguess":2835,"Ġsimple":2836,"Ġraise":2837,"Ġlatest":2838,"ĠSunday":2839,"Ġsource":2840,"ining":2841,"arant":2842,"Ġhat":2843,"Ġnamed":2844,"elves":2845,"aces":2846,"lect":2847,"Ġforg":2848,"ĠInd":2849,"Ġstation":2850,"ĠAn":2851,"Ġabs":2852,"ember":2853,"Ġarri":2854,"Ġgreater":2855,"Ġdesc":2856,"Ġresults":2857,"itten":2858,"unning":2859,"Ġpassed":2860,"Ġinitial":2861,"ĠNASA":2862,"selves":2863,"ren":2864,"Ġbtw":2865,"Ġdark":2866,"Ġgrow":2867,"acity":2868,"Ġrd":2869,"ĠWas":2870,"ounts":2871,"ĠPar":2872,"Ġunc":2873,"\"\".":2874,"Why":2875,"Ġseeing":2876,"ĠSuperchargers":2877,"olog":2878,"Ġextreme":2879,"Ġcompetition":2880,"Ġnumbers":2881,"Ġdeaths":2882,"Ġrapidly":2883,"Ġearli":2884,"Ġtorque":2885,"Ġcombustion":2886,"Turn":2887,"can":2888,"gether":2889,"par":2890,"sh":2891,"ugh":2892,"Ġsqu":2893,"Ġsays":2894,"Ġbought":2895,"Ġmount":2896,"Ġtogether":2897,"Ġhate":2898,"Ġredu":2899,"ĠSorry":2900,"ĠId":2901,"ushing":2902,"Ġprof":2903,"ĠWith":2904,"Ġdeg":2905,"action":2906,"Ġoutside":2907,"Ġhear":2908,"Ġtheyre":2909,"Ġgasoline":2910,"Ġobv":2911,"Ġbelow":2912,"1000":2913,"Ġgravity":2914,"Ġpresent":2915,"Long":2916,"ike":2917,"pm":2918,"Ġtube":2919,"iness":2920,"Ġbank":2921,"Ġcatch":2922,"Ġnorm":2923,"asons":2924,"unately":2925,"ĠApp":2926,"irth":2927,"Ġweb":2928,"andy":2929,"Ġnose":2930,"Ġcontract":2931,"Ġelse":2932,"Ġstruct":2933,"Ġquestions":2934,"Ġinvestors":2935,"Ġblog":2936,"Ġdeployed":2937,"Ġprices":2938,"ran":2939,"vin":2940,"ĠYes":2941,"rew":2942,"read":2943,"Ġdut":2944,"ĠSer":2945,"ĠImp":2946,"terday":2947,"Ġtried":2948,"ĠHope":2949,"ĠNorth":2950,"Ġkill":2951,"Ġmeeting":2952,"emi":2953,"Ġcommercial":2954,"aterial":2955,"Ġlandings":2956,"Ġotherwise":2957,"Ġinterview":2958,"ages":2959,"Ġshorts":2960,"pension":2961,"Ġmassive":2962,"Ġincreasing":2963,"Ġcommun":2964,"Ġwindow":2965,"ĠDoge":2966,"ruction":2967,"Ġcurrently":2968,"coin":2969,"ĠNorway":2970,"Ġsuspension":2971,"Ġsitu":2972,"Best":2973,"LA":2974,"by":2975,"iens":2976,"oke":2977,"uit":2978,"Ġter":2979,"Ġtel":2980,"Ġsuck":2981,"Ġthrot":2982,"Ġoil":2983,"Ġlatter":2984,"Ġglobal":2985,"vern":2986,"Ġweight":2987,"Ġvar":2988,"Ġvid":2989,"Ġgovern":2990,"Ġrole":2991,"rain":2992,"ĠRep":2993,"apan":2994,"Ġheight":2995,"ĠJapan":2996,"Ġlanded":2997,"ĠVery":2998,"Ġaccurate":2999,"Ġunderway":3000,"Ġadding":3001,"ney":3002,"ĠCanada":3003,"Ġversions":3004,"Ġsurface":3005,"iction":3006,"Ġvisit":3007,"ecause":3008,"ĠForce":3009,"undred":3010,"ponse":3011,"Ġthinking":3012,"fortunately":3013,"Ġearlier":3014,"Looking":3015,"SolarCity":3016,"core":3017,"mm":3018,"yp":3019,"Ġten":3020,"Ġmaterial":3021,"ĠSep":3022,"ĠMode":3023,"thorne":3024,"ĠWere":3025,"Ġassemb":3026,"ĠThurs":3027,"Ġcomments":3028,"Ġanywhere":3029,"bital":3030,"ensive":3031,"000":3032,"Ġlift":3033,"Ġpersonally":3034,"Ġcontinu":3035,"Ġenvironment":3036,"cape":3037,"time":3038,"Ġtouch":3039,"Ġsched":3040,"Ġcor":3041,"itical":3042,"Ġtold":3043,"Ġopp":3044,"ĠToo":3045,"aming":3046,"Ġvast":3047,"Ġoriginal":3048,"antic":3049,"Ġaliens":3050,"Ġbug":3051,"Ġquality":3052,"Ġrealize":3053,"Ġsmart":3054,"Ġminor":3055,"Ġimproved":3056,"ysis":3057,"Ġguys":3058,"Ġcapacity":3059,"Ġsteering":3060,"Ġsimply":3061,"iency":3062,"Ġprotot":3063,"Ġhorse":3064,"Ġreceived":3065,"Ġbegin":3066,"ĠCybertruck":3067,"Ġcivilization":3068,"App":3069,"lon":3070,"lack":3071,"mr":3072,"ple":3073,"Ġtight":3074,"Ġtmr":3075,"Ġaero":3076,"Ġtho":3077,"atively":3078,"Ġcut":3079,"Ġfan":3080,"Ġdouble":3081,"edi":3082,"Ġlink":3083,"Ġhit":3084,"ĠTX":3085,"ĠAiming":3086,"Ġneural":3087,"Ġrunning":3088,"ĠFound":3089,"Ġsepar":3090,"ĠHave":3091,"ĠLot":3092,"Ġkid":3093,"Ġhealth":3094,"ĠOne":3095,"Ġspend":3096,"oca":3097,"Ġaccount":3098,"Ġpowered":3099,"Ġbiggest":3100,"Ġwanted":3101,"Happy":3102,"Ġguy":3103,"Ġtalent":3104,"Ġrequires":3105,"ondon":3106,"Ġdemo":3107,"auts":3108,"Ġvision":3109,"Ġkinda":3110,"Ġdistance":3111,"zzle":3112,"Ġanalysis":3113,"Ġimmedi":3114,"Ġtmrw":3115,"ossible":3116,"pite":3117,"rs":3118,"wide":3119,"Ġblow":3120,"Ġbirth":3121,"etting":3122,"ĠCH":3123,"ĠCould":3124,"ĠComm":3125,"Ġvent":3126,"Ġdoor":3127,"ĠBase":3128,"ĠBoca":3129,"ĠEaster":3130,"Ġarr":3131,"Ġposs":3132,"ivity":3133,"ously":3134,"Ġthru":3135,"Ġharder":3136,"weet":3137,"Ġresponse":3138,"Star":3139,"Ġsubject":3140,"Ġclar":3141,"Ġentry":3142,"Ġsurpr":3143,"Ġproducts":3144,"Ġturned":3145,"Ġconcern":3146,"Ġcounter":3147,"Ġcriticism":3148,"Ġnormal":3149,"Aiming":3150,"Boring":3151,"af":3152,"ms":3153,"mas":3154,"Ġi":3155,"erry":3156,"Ġsl":3157,"iss":3158,"Ġlay":3159,"Ġhundred":3160,"Ġnav":3161,"ĠSolar":3162,"oms":3163,"omes":3164,"Ġroughly":3165,"Ġrules":3166,"key":3167,"ĠCl":3168,"ift":3169,"ĠFe":3170,"raph":3171,"ĠLooking":3172,"Ġsolve":3173,"Ġextend":3174,"aged":3175,"Ġsmaller":3176,"Ġbraking":3177,"Ġscient":3178,"Ġpods":3179,"Ġcryo":3180,"Ġpaint":3181,"Ġchalleng":3182,"Don":3183,"Dont":3184,"ek":3185,"hi":3186,"mit":3187,"Ġet":3188,"Ġide":3189,"Ġbus":3190,"Ġcases":3191,"Ġfam":3192,"Ġlas":3193,"Ġnd":3194,"ĠTe":3195,"ĠSemi":3196,"Ġegg":3197,"Ġstar":3198,"Ġcolor":3199,"ĠLondon":3200,"Ġmeas":3201,"Ġcannot":3202,"Ġhighest":3203,"ĠJuly":3204,"ĠJoh":3205,"ports":3206,"Ġengineers":3207,"Ġfeels":3208,"Ġrespect":3209,"Ġinside":3210,"Ġsimulation":3211,"Ġinstead":3212,"Ġstores":3213,"Ġnegative":3214,"Ġmusic":3215,"Ġmanufacturing":3216,"Ġanti":3217,"ĠJohn":3218,"for":3219,"pir":3220,"ze":3221,"eslas":3222,"att":3223,"Ġcow":3224,"Ġcame":3225,"oub":3226,"itors":3227,"Ġdanger":3228,"Ġhol":3229,"ica":3230,"Ġreli":3231,"ĠSat":3232,"laid":3233,"ĠMust":3234,"Ġrating":3235,"Ġbutton":3236,"ĠFrid":3237,"ĠDa":3238,"ĠEn":3239,"ĠGen":3240,"Ġoutput":3241,"Ġplant":3242,"Ġadvert":3243,"Ġquarter":3244,"Ġinternal":3245,"Ġoptions":3246,"Ġavg":3247,"Ġkey":3248,"Ġparking":3249,"Ġdirectly":3250,"Ġcrew":3251,"Ġyesterday":3252,"Ġconsidered":3253,"Ġlarger":3254,"Ġmagn":3255,"Ġunderstand":3256,"Ġconfirmed":3257,"Ġinjuries":3258,"Ġpotential":3259,"Ġaffordable":3260,"Ġefficiency":3261,"Comp":3262,"Eng":3263,"Tr":3264,"Working":3265,"hor":3266,"rist":3267,"ux":3268,"Ġill":3269,"onic":3270,"Ġbs":3271,"Ġbot":3272,"Ġcash":3273,"Ġfight":3274,"Ġfore":3275,"elt":3276,"ĠSolarCity":3277,"ĠSouth":3278,"ctor":3279,"Ġsocial":3280,"ceed":3281,"uled":3282,"Ġdoors":3283,"ĠThose":3284,"ĠBerlin":3285,"ĠLo":3286,"ĠLaunch":3287,"ĠGo":3288,"ividual":3289,"Ġsaw":3290,"epend":3291,"oogle":3292,"Ġdeser":3293,"ording":3294,"Ġlots":3295,"Ġinterior":3296,"Ġexpla":3297,"Still":3298,"Ġshortly":3299,"Ġretro":3300,"Ġobject":3301,"ification":3302,"Ġupgraded":3303,"Ġsetting":3304,"Ġtweets":3305,"Ġdrone":3306,"Ġacceleration":3307,"egas":3308,"racy":3309,"Ġlargest":3310,"Ġsupply":3311,"ĠHowever":3312,"Ġstorage":3313,"Ġbankrupt":3314,"ĠSept":3315,"ging":3316,"oint":3317,"ror":3318,"Ġess":3319,"Ġtit":3320,"Ġastron":3321,"Ġsum":3322,"Ġways":3323,"Ġbaby":3324,"Ġcla":3325,"Ġcur":3326,"Ġcirc":3327,"ishing":3328,"Ġpage":3329,"Ġpush":3330,"Ġdie":3331,"str":3332,"Ġreasons":3333,"opter":3334,"Ġrat":3335,"Ġrare":3336,"Ġrail":3337,"ĠCons":3338,"anden":3339,"Ġjack":3340,"ĠHouse":3341,"ĠPl":3342,"Ġloop":3343,"ains":3344,"istics":3345,"Ġheating":3346,"ĠOb":3347,"Ġbuying":3348,"Ġapply":3349,"Ġdespite":3350,"Ġupgrades":3351,"ĠRocket":3352,"Ġhandle":3353,"ĠNYT":3354,"Ġmoder":3355,"Ġprecision":3356,"Ġargu":3357,"ĠIsp":3358,"ĠBoeing":3359,"Ġincluding":3360,"ĠIndia":3361,"Ġthrottle":3362,"ĠFriday":3363,"night":3364,"Ġir":3365,"eral":3366,"Ġwom":3367,"Ġbi":3368,"Ġfit":3369,"ene":3370,"Ġglad":3371,"ĠSm":3372,"ĠSummon":3373,"ample":3374,"ĠMe":3375,"Ġstep":3376,"Ġweap":3377,"Ġrout":3378,"lock":3379,"\"\",":3380,"arent":3381,"Ġmyself":3382,"xtrem":3383,"Ġimpress":3384,"ival":3385,"Ġmisle":3386,"Ġexpend":3387,"Ġdelay":3388,"elling":3389,"ivers":3390,"Ġclosed":3391,"ĠReally":3392,"Ġapproach":3393,"Ġoperation":3394,"Ġinfl":3395,"Ġultra":3396,"Ġincredible":3397,"volution":3398,"Ġhypersonic":3399,"Ġmoment":3400,"Ġwebcast":3401,"Ġgovernment":3402,"FR":3403,"Ind":3404,"Mars":3405,"Over":3406,"UD":3407,"akes":3408,"aiting":3409,"sigh":3410,"Ġahead":3411,"Ġwal":3412,"orter":3413,"Ġpath":3414,"ico":3415,"ele":3416,"Ġreb":3417,"ĠTeslas":3418,"Ġep":3419,"chool":3420,"ĠMart":3421,"Ġsold":3422,"ithium":3423,"ĠFirst":3424,"ĠBro":3425,"Ġwasn":3426,"ĠGoogle":3427,"Ġoutcome":3428,"Ġimpossible":3429,"Ġplans":3430,"ĠVegas":3431,"Ġdriver":3432,"Ġknown":3433,"Ġextra":3434,"Ġoffic":3435,"Ġtransfer":3436,"Ġstarts":3437,"Ġwritten":3438,"Ġappreciation":3439,"Ġsurv":3440,"Ġletter":3441,"Ġposition":3442,"Ġrocks":3443,"raco":3444,"Ġlaws":3445,"Ġtricky":3446,"Ġprototype":3447,"Any":3448,"BC":3449,"Hi":3450,"egr":3451,"go":3452,"ugg":3453,"Ġsil":3454,"rees":3455,"Ġbay":3456,"Ġhur":3457,"ices":3458,"aching":3459,"ĠTrend":3460,"idth":3461,"ĠMany":3462,"iment":3463,"thanks":3464,"opump":3465,"cellent":3466,"iff":3467,"Ġenab":3468,"andom":3469,"ĠHaw":3470,"Ġworse":3471,"ĠBig":3472,"ources":3473,"Ġproduced":3474,"Ġsooner":3475,"Ġ%.":3476,"Ġintegr":3477,"Ġminim":3478,"Ġexpon":3479,"Ġthemselves":3480,"Have":3481,"Ġphys":3482,"remont":3483,"Ġsupporting":3484,"ĠWhy":3485,"Ġstrange":3486,"Ġhappening":3487,"vidence":3488,"Ġfilter":3489,"Ġsharehold":3490,"Ġutility":3491,"Ġcharac":3492,"Ġfundamental":3493,"Ġchallenges":3494,"hibit":3495,"Ġetc":3496,"Ġratio":3497,"Bet":3498,"UV":3499,"Up":3500,"augh":3501,"ball":3502,"ford":3503,"oes":3504,"ring":3505,"sc":3506,"set":3507,"tion":3508,"Ġtun":3509,"Ġsometimes":3510,"ream":3511,"Ġcorn":3512,"arks":3513,"Ġpet":3514,"Ġodd":3515,"ĠTechn":3516,"ĠIM":3517,"upport":3518,"ĠAny":3519,"ury":3520,"urity":3521,"Ġsequ":3522,"Ġ(~":3523,"Ġchild":3524,"ĠRed":3525,"Ġfake":3526,"Ġspl":3527,"Ġteams":3528,"Ġreser":3529,"Ġimproves":3530,"Ġhumans":3531,"Ġdisag":3532,"formation":3533,"Really":3534,"Ġinsane":3535,"Ġproblems":3536,"Ġtaxes":3537,"Ġvalid":3538,"Ġapprox":3539,"Ġdemoc":3540,"ngth":3541,"Ġlimit":3542,"Ġwinds":3543,"Ġstopp":3544,"Ġsimilar":3545,"ĠDoes":3546,"Ġinvestigate":3547,"Ġreturned":3548,"Ġdevelopment":3549,"Ġfinished":3550,"Ġfoot":3551,"Ġparticularly":3552,"Ġautonomous":3553,"Ġprovided":3554,"Ġnecessary":3555,"Ġassembly":3556,"Every":3557,"nes":3558,"rust":3559,"ula":3560,"Ġcross":3561,"Ġped":3562,"Ġnational":3563,"icy":3564,"ĠTr":3565,"ĠSUV":3566,"Ġones":3567,"omb":3568,"ighter":3569,"Ġorg":3570,"ĠFull":3571,"Ġseat":3572,"ĠHard":3573,"ĠHear":3574,"ĠBe":3575,"peed":3576,"ĠPart":3577,"ĠPres":3578,"Ġchoice":3579,"ĠEvery":3580,"arting":3581,"conds":3582,"Ġimport":3583,"ĠOther":3584,"attery":3585,"Ġcontrib":3586,"Ġminus":3587,"Ġserious":3588,"Ġpowerful":3589,"Ġworldwide":3590,"ĠShort":3591,"Ġlevels":3592,"Ġescape":3593,"Ġreusability":3594,"Ġdram":3595,"Ġstrength":3596,"Ġobviously":3597,"Ġcolle":3598,"Ġsuggestions":3599,"ĠAustral":3600,"ĠMotor":3601,"Ġcharging":3602,"Ġturbopump":3603,"Ġmisleading":3604,"Ġdisagree":3605,"Even":3606,"Fair":3607,"Hoping":3608,"Testing":3609,"ding":3610,"eace":3611,"gor":3612,"mon":3613,"oly":3614,"pha":3615,"Ġtall":3616,"Ġtap":3617,"Ġtiles":3618,"Ġthous":3619,"Ġthread":3620,"Ġbill":3621,"Ġmodel":3622,"Ġmarg":3623,"Ġmillions":3624,"arry":3625,"Ġtower":3626,"icense":3627,"igation":3628,"Ġeff":3629,"ĠIP":3630,"Ġyeah":3631,"ĠMass":3632,"ĠAug":3633,"Ġrather":3634,"ified":3635,"ĠThen":3636,"raul":3637,"ument":3638,"ĠDont":3639,"arding":3640,"Ġunli":3641,"Ġupload":3642,"ainless":3643,"Ġmech":3644,"ssil":3645,"ption":3646,"Who":3647,"Ġresources":3648,"Ġserve":3649,"Ġinterested":3650,"Ġaircraft":3651,"Ġphot":3652,"Ġindepend":3653,"Ġplaying":3654,"Ġwarming":3655,"Ġflu":3656,"Ġstudy":3657,"Ġreplace":3658,"ĠMonday":3659,"ĠAustin":3660,"Ġpanels":3661,"Ġimmediately":3662,"EO":3663,"Full":3664,"Going":3665,"MA":3666,"Something":3667,"Solar":3668,"US":3669,"mak":3670,"rant":3671,"round":3672,"vation":3673,"yr":3674,"Ġur":3675,"Ġtanks":3676,"Ġsports":3677,"Ġbooks":3678,"enge":3679,"ansion":3680,"Ġpushing":3681,"Ġocc":3682,"Ġgone":3683,"ĠTop":3684,"Ġbeha":3685,"Ġevidence":3686,"enter":3687,"alley":3688,"urance":3689,"ĠFremont":3690,"Ġsea":3691,"raw":3692,"umin":3693,"uming":3694,"rian":3695,"ĠHa":3696,"acked":3697,"ĠLooks":3698,"ĠGM":3699,"Ġnozzle":3700,"Ġintelligence":3701,"Ġaccident":3702,"Ġimproving":3703,"Ġknows":3704,"Ġthruster":3705,"Ġgenerator":3706,"Ġsecurity":3707,"Amazing":3708,"Ġallowed":3709,"Ġremember":3710,"Ġannual":3711,"Ġposted":3712,"Ġlights":3713,"Ġconstant":3714,"Ġconstra":3715,"Ġjobs":3716,"Ġexisting":3717,"Ġflamethrower":3718,"Ġcells":3719,"Ġachieved":3720,"Ġfigure":3721,"Ġmessed":3722,"Ġpatents":3723,"ĠReports":3724,"Ġmagnitude":3725,"Ġsummer":3726,"ĠHawthorne":3727,"Both":3728,"Raptor":3729,"Same":3730,"bo":3731,"bur":3732,"km":3733,"vest":3734,"inder":3735,"inite":3736,"real":3737,"Ġpitch":3738,"Ġdying":3739,"Ġlbs":3740,"Ġhar":3741,"ional":3742,"Ġgim":3743,"Ġgreen":3744,"acy":3745,"ĠSF":3746,"Ġbeer":3747,"ods":3748,"ĠMom":3749,"imov":3750,"ĠAp":3751,"ĠAWD":3752,"irt":3753,"Ġwebs":3754,"Ġarent":3755,"Ġtruth":3756,"Ġmob":3757,"abil":3758,"ular":3759,"rief":3760,"Ġwords":3761,"Ġmaint":3762,"Ġlose":3763,"Ġhex":3764,"Ġheart":3765,"ĠSte":3766,"Ġtested":3767,"Ġhardcore":3768,"Ġspent":3769,"osite":3770,"ĠWell":3771,"Ġautopilot":3772,"Ġexplan":3773,"Ġstarted":3774,"Ġwrite":3775,"Ġinsp":3776,"Ġmeth":3777,"Ġcompletely":3778,"Ġallowing":3779,"Ġrollout":3780,"Ġcapability":3781,"Ġlocations":3782,"Ġmagic":3783,"ĠSeems":3784,"Ġrobot":3785,"Ġincredibly":3786,"Ġsmooth":3787,"Important":3788,"Ġsituation":3789,"ĠFoundation":3790,"ĠTeam":3791,"piration":3792,"andenberg":3793,"xtremely":3794,"AA":3795,"Big":3796,"aking":3797,"ipping":3798,"lantic":3799,"ners":3800,"yth":3801,"year":3802,"Ġest":3803,"Ġtip":3804,"ony":3805,"Ġcast":3806,"Ġfi":3807,"Ġfiction":3808,"ences":3809,"Ġport":3810,"etic":3811,"Ġgave":3812,"Ġgives":3813,"ĠMont":3814,"ussion":3815,"Ġcoating":3816,"atever":3817,"Ġdev":3818,"uman":3819,"ĠBest":3820,"ĠBtw":3821,"ĠDec":3822,"Ġalien":3823,"Ġunion":3824,"oster":3825,"Ġhighway":3826,"ĠValley":3827,"Ġperi":3828,"ocal":3829,"ĠChrist":3830,"ĠInst":3831,"Ġadded":3832,"Ġregions":3833,"Ġconfident":3834,"Nothing":3835,"Ġindividual":3836,"Ġguarant":3837,"aptors":3838,"Ġmetric":3839,"Ġbelie":3840,"Ġvalve":3841,"Ġallows":3842,"ĠProduction":3843,"Ġdiscussion":3844,"Ġjourney":3845,"Ġaccelerate":3846,"ĠAtlantic":3847,"Ġoptimistic":3848,"ength":3849,"ĠArt":3850,"Meant":3851,"Ġrender":3852,"ĠParad":3853,"Ġhundreds":3854,"Ġcollege":3855,"ython":3856,"85":3857,"Because":3858,"TA":3859,"Try":3860,"app":3861,"bor":3862,"lay":3863,"rame":3864,"Ġage":3865,"Ġaiming":3866,"Ġsumm":3867,"Ġben":3868,"Ġcamp":3869,"ana":3870,"Ġmil":3871,"Ġpeak":3872,"Ġdry":3873,"Ġdumb":3874,"Ġnice":3875,"vey":3876,"ille":3877,"ida":3878,"ternal":3879,"Ġstates":3880,"These":3881,"Ġvoice":3882,"ĠWish":3883,"Ġtruly":3884,"Ġenc":3885,"Ġseconds":3886,"Ġability":3887,"ĠDon":3888,"ĠPac":3889,"Ġalumin":3890,"pper":3891,"Ġcomfort":3892,"Ġplane":3893,"ĠVandenberg":3894,"Ġfaith":3895,"Exc":3896,"Ġintense":3897,"Ġexpensive":3898,"Ġhelium":3899,"ĠIns":3900,"Ġhelpful":3901,"Ġadvent":3902,"Ġclass":3903,"Ġimag":3904,"Ġplanet":3905,"ĠYork":3906,"Ġmaxim":3907,"Ġrefund":3908,"Ġoperational":3909,"Ġcareful":3910,"Ġbrain":3911,"cling":3912,"uralink":3913,"Ġdeveloping":3914,"Ġchanging":3915,"Ġconstruction":3916,"Does":3917,"Ġdrops":3918,"lorida":3919,"Ġaddressed":3920,"Major":3921,"Ġcyc":3922,"Ġexceeds":3923,"ĠBeta":3924,"ĠBetter":3925,"Ġincentives":3926,"Seems":3927,"Ġhydro":3928,"Ġsubsidies":3929,"Ġreduce":3930,"Ġcommunic":3931,"Ġideas":3932,"Ġarguably":3933,"12":3934,"Id":3935,"Max":3936,"Per":3937,"TO":3938,"den":3939,"mission":3940,"rous":3941,"ses":3942,"vate":3943,"will":3944,"Ġtb":3945,"Ġtour":3946,"Ġtires":3947,"ones":3948,"Ġwall":3949,"atest":3950,"Ġhea":3951,"Ġhous":3952,"Ġhang":3953,"icro":3954,"Ġgig":3955,"ĠTues":3956,"Ġangle":3957,"Ġeve":3958,"ĠAC":3959,"Ġweve":3960,"Ġwhats":3961,"Ġwhether":3962,"amm":3963,"Ġproject":3964,"Ġdog":3965,"Ġrot":3966,"Ġexec":3967,"Ġsection":3968,"umers":3969,"Ġconvin":3970,"ried":3971,"ĠBit":3972,"ĠDri":3973,"ĠPC":3974,"Ġloss":3975,"Ġhighly":3976,"epends":3977,"Ġincorrect":3978,"Ġ%,":3979,"week":3980,"Ġqui":3981,"Ġrecall":3982,"Ġfunny":3983,"Ġresol":3984,"Ġresale":3985,"Ġminutes":3986,"Ġprint":3987,"exactly":3988,"Ġvector":3989,"Ġstarting":3990,"Ġfired":3991,"Ġcapital":3992,"Ġdirection":3993,"Ġpackage":3994,"Ġholding":3995,"Ġmotors":3996,"Ġcredibility":3997,"Ġterminal":3998,"Ġcomplexity":3999,"Ġdebate":4000,"ĠHighly":4001,"Ġfunctionality":4002,"ĠCoast":4003,"ĠRussian":4004,"Ġhydraul":4005,"Ġhonor":4006,"Ġpredict":4007,"Ġjournalists":4008,"lectric":4009,"Ġdescri":4010,"Ġmounted":4011,"Ġholid":4012,"Ġclaim":4013,"Ġweapons":4014,"Ġwebsite":4015,"Back":4016,"Fe":4017,"IP":4018,"Res":4019,"Sigh":4020,"Time":4021,"father":4022,"iew":4023,"now":4024,"ration":4025,"rough":4026,"range":4027,"ville":4028,"eros":4029,"onna":4030,"Ġsat":4031,"Ġsad":4032,"Ġban":4033,"itor":4034,"Ġhos":4035,"Ġnor":4036,"otive":4037,"ĠMk":4038,"ĠMight":4039,"Ġsty":4040,"Ġstuff":4041,"upiter":4042,"through":4043,"amn":4044,"Ġround":4045,"Ġrandom":4046,"urther":4047,"rav":4048,"umul":4049,"riane":4050,"Ġworry":4051,"Ġmap":4052,"ĠDel":4053,"ĠDefinitely":4054,"ĠPeople":4055,"ĠPlaid":4056,"Ġalong":4057,"Ġunits":4058,"reating":4059,"ĠRaptors":4060,"Ġoverr":4061,"venue":4062,"Ġdriven":4063,"Ġrecent":4064,"Ġelev":4065,"Ġfewer":4066,"Ġminute":4067,"Ġsupersonic":4068,"Ġfinan":4069,"Ġtransit":4070,"Ġtwice":4071,"Ġimage":4072,"Review":4073,"ĠSupercharging":4074,"Ġcontroll":4075,"Ġsecret":4076,"Ġincreases":4077,"Ġprivate":4078,"Ġautomotive":4079,"Ġprobable":4080,"Ġwonder":4081,"Ġregulators":4082,"Ġlogistics":4083,"Ġinjury":4084,"Autopilot":4085,"planetary":4086,"Ġpopulation":4087,"Ġbehind":4088,"Ġbehalf":4089,"Ġlearn":4090,"Deep":4091,"Ġstructure":4092,"Ġbirthday":4093,"Ġpossibly":4094,"Ġclarify":4095,"ĠConsumer":4096,"Ġexpendable":4097,"ĠAustralia":4098,"Ġmargin":4099,"Ġmobile":4100,"Ġhydraulic":4101,"AC":4102,"Live":4103,"PU":4104,"fully":4105,"ka":4106,"mi":4107,"mk":4108,"uild":4109,"inks":4110,"Ġswit":4111,"Ġfurther":4112,"itter":4113,"itable":4114,"etry":4115,"level":4116,"Ġrese":4117,"ĠMT":4118,"ĠMuch":4119,"ĠMax":4120,"Ġstay":4121,"Ġstack":4122,"imately":4123,"ĠAb":4124,"Ġcook":4125,"uration":4126,"Ġshut":4127,"ĠWed":4128,"Ġexact":4129,"ĠFlorida":4130,"Ġconven":4131,"Ġuniverse":4132,"Ġcompelling":4133,"Ġwouldn":4134,"cious":4135,"Ġplaces":4136,"ĠJune":4137,"Ġmonop":4138,"Ġsolid":4139,"While":4140,"Ġquick":4141,"ference":4142,"Ġmini":4143,"Ġboard":4144,"Ġscore":4145,"Ġconsumers":4146,"itional":4147,"ĠWhen":4148,"Ġlegal":4149,"Ġcooling":4150,"Ġcapable":4151,"ĠNothing":4152,"umption":4153,"Ġcommon":4154,"ĠNews":4155,"Ġfeeling":4156,"Ġwarm":4157,"resent":4158,"Ġdrop":4159,"Ġfriends":4160,"Ġpurch":4161,"Ġflaps":4162,"Ġmeasure":4163,"oubt":4164,"Ġastronauts":4165,"ĠPresident":4166,"Ġheavi":4167,"Ġresearch":4168,"++":4169,"AI":4170,"Hard":4171,"Huge":4172,"Nor":4173,"body":4174,"cool":4175,"frame":4176,"ios":4177,"me":4178,"oving":4179,"por":4180,"ritical":4181,"son":4182,"Ġ)":4183,"Ġsweet":4184,"Ġcandy":4185,"itect":4186,"ension":4187,"rop":4188,"icrous":4189,"Ġreact":4190,"Ġreaching":4191,"Ġeat":4192,"chitect":4193,"ĠMarch":4194,"Ġstorm":4195,"Ġstations":4196,"usted":4197,"use":4198,"Ġrace":4199,"sell":4200,"ĠFAA":4201,"Ġlives":4202,"ĠBFR":4203,"ĠNN":4204,"ĠDM":4205,"aren":4206,"Ġarchitect":4207,"Ġpoll":4208,"udicrous":4209,"Ġdrives":4210,"Ġboat":4211,"ĠSuperd":4212,"Ġdownload":4213,"Ġfires":4214,"Ġindeed":4215,"Ġupdated":4216,"Ġcentral":4217,"ĠRequ":4218,"ashdown":4219,"Ġpropag":4220,"Ġmeaning":4221,"Ġaccelerating":4222,"Ġstudent":4223,"Ġeventually":4224,"Ġpolicy":4225,"ĠInternational":4226,"Ġhoriz":4227,"Ġaffects":4228,"Ġcrypt":4229,"ĠMajor":4230,"years":4231,"Ġduty":4232,"Ġventil":4233,"Ġfamily":4234,"Ġofficial":4235,"Ġexplanation":4236,"Ġsummary":4237,"Ġaluminum":4238,"19":4239,"Battery":4240,"Landing":4241,"View":4242,"fit":4243,"pital":4244,"world":4245,"Ġfac":4246,"ano":4247,"angh":4248,"Ġdrag":4249,"edic":4250,"Ġlines":4251,"Ġlithium":4252,"Ġnone":4253,"icon":4254,"etch":4255,"acopter":4256,"lear":4257,"otally":4258,"ĠSomething":4259,"Ġang":4260,"ĠMin":4261,"ĠMex":4262,"Ġracing":4263,"Ġyoud":4264,"ĠWest":4265,"anda":4266,"Ġconvers":4267,"Ġcondit":4268,"ĠDid":4269,"Ġalloc":4270,"ĠPython":4271,"Ġlock":4272,"ĠEast":4273,"ĠLZ":4274,"ĠLong":4275,"ĠLarry":4276,"ĠkWh":4277,"Ġcomment":4278,"eff":4279,"ĠUI":4280,"ĠJupiter":4281,"Ġactiv":4282,"Ġsave":4283,"Ġhardest":4284,"ultane":4285,"Ġrecirc":4286,"Ġexpansion":4287,"Stop":4288,"Ġextending":4289,"Ġgrad":4290,"Ġgrand":4291,"ĠAlmost":4292,"Ġshowing":4293,"Reg":4294,"Ġgenerated":4295,"Ġupdates":4296,"Ġtalking":4297,"ĠNote":4298,"Ġcomputing":4299,"Ġsimultane":4300,"Ġeasily":4301,"Ġflies":4302,"Ġchanged":4303,"ledge":4304,"Ġwheels":4305,"Ġgraph":4306,"ĠDeep":4307,"Ġequal":4308,"Ġthinks":4309,"However":4310,"Making":4311,"Ġdocking":4312,"Ġleader":4313,"Ġpropuls":4314,"Ġpropulsion":4315,"Ġmistake":4316,"Turns":4317,"Ġbeginning":4318,"Indeed":4319,"Ġgimbal":4320,"ĠPacific":4321,"Ġpropaganda":4322,"anghai":4323,"ĠMexico":4324,"Ġconditions":4325,"15":4326,"Cy":4327,"Need":4328,"People":4329,"TC":4330,"Your":4331,"cel":4332,"dds":4333,"lation":4334,"oj":4335,"power":4336,"rack":4337,"wo":4338,"word":4339,"yeah":4340,"onstr":4341,"Ġslam":4342,"Ġschool":4343,"rey":4344,"orters":4345,"Ġcave":4346,"Ġfre":4347,"Ġfusion":4348,"oug":4349,"Ġpull":4350,"Ġdedic":4351,"Ġinput":4352,"Ġinhibit":4353,"Ġrev":4354,"uts":4355,"ĠMar":4356,"ĠAP":4357,"ĠCon":4358,"ĠCant":4359,"Then":4360,"Those":4361,"Ġtrad":4362,"Ġenem":4363,"Ġexample":4364,"Ġsever":4365,"Ġsemi":4366,"ĠHoping":4367,"ĠBy":4368,"Ġche":4369,"ĠRes":4370,"ĠGod":4371,"ended":4372,"Ġlaunching":4373,"inda":4374,"Ġcontact":4375,"Ġbackup":4376,"Ġsyn":4377,"Ġseriously":4378,"Ġthoughts":4379,"Ġhelping":4380,"Ġwriting":4381,"ĠWho":4382,"Ġtechnical":4383,"Ġlimits":4384,"Ġapart":4385,"Ġrecommended":4386,"Ġturns":4387,"Mostly":4388,"dding":4389,"Ġreports":4390,"Ġemail":4391,"toff":4392,"ynam":4393,"Ġdestination":4394,"Auto":4395,"Ġtraining":4396,"Ġdamage":4397,"Ġsurprising":4398,"Ġscientists":4399,"Engine":4400,"Ġmoderate":4401,"Ġpedest":4402,"Ġmechan":4403,"ĠHappy":4404,"Ġmaintain":4405,"Ġperiod":4406,".\"\"\"":4407,"Acc":4408,"Flight":4409,"Might":4410,"Rep":4411,"Sim":4412,"Techn":4413,"eor":4414,"has":4415,"rors":4416,"uz":4417,"Ġtype":4418,"erature":4419,"Ġwild":4420,"Ġbio":4421,"ances":4422,"Ġmark":4423,"Ġpen":4424,"Ġdiv":4425,"Ġdynam":4426,"stop":4427,"etail":4428,"Ġgear":4429,"ĠSil":4430,"illy":4431,"Ġemb":4432,"Ġstra":4433,"upp":4434,"irus":4435,"irrel":4436,"Ġweigh":4437,"ĠCol":4438,"urd":4439,"ersion":4440,"ĠWW":4441,"ĠWorking":4442,"Ġtrunk":4443,"Ġdoll":4444,"antage":4445,"Ġworst":4446,"ĠDoug":4447,"ĠPay":4448,"Ġloan":4449,"Ġmeet":4450,"Ġhearing":4451,"Ġproduce":4452,"Ġours":4453,"Ġspin":4454,"Ġyourself":4455,"Ġauthor":4456,"Ġairframe":4457,"Ġdelta":4458,"Ġtransition":4459,"aka":4460,"Ġconsumption":4461,"Ġbecoming":4462,"like":4463,"Ġships":4464,"Ġsurround":4465,"Ġapproved":4466,"heed":4467,"Ġlateral":4468,"ockheed":4469,"Ġframe":4470,"Ġexperts":4471,"Ġpieces":4472,"Ġbrake":4473,"Ġcollect":4474,"Ġinfo":4475,"Ġcontinue":4476,"Ġcausing":4477,"Ġfailure":4478,"Ġprecise":4479,"Ġachieving":4480,"Ġsmoking":4481,"Ġdestro":4482,"Ġeconomy":4483,"Ġfossil":4484,"Ġmeme":4485,"Ġjudge":4486,"ĠBrit":4487,"ĠArea":4488,"Ġschedule":4489,"Ġforever":4490,"arently":4491,"Ġfootage":4492,"ĠHearing":4493,"Ġeffort":4494,"Ġunlikely":4495,"Ġfluid":4496,"Norway":4497,"Cant":4498,"Did":4499,"Earth":4500,"HT":4501,"Is":4502,"Much":4503,"SN":4504,"Sp":4505,"Sun":4506,"Vac":4507,"base":4508,"dle":4509,"flight":4510,"ged":4511,"oying":4512,"sub":4513,"ued":4514,"ystem":4515,"Ġtroll":4516,"Ġcapt":4517,"Ġfill":4518,"Ġfool":4519,"Ġdin":4520,"Ġhole":4521,"Ġrevolution":4522,"ĠTri":4523,"ota":4524,"Ġbeat":4525,"check":4526,"ĠMr":4527,"ĠAct":4528,"ĠAMA":4529,"Ġweird":4530,"Ġwhatever":4531,"Ġareas":4532,"sequ":4533,"Ġrow":4534,"ants":4535,"Ġsections":4536,"ĠHer":4537,"ĠDC":4538,"ĠDay":4539,"Ġalert":4540,"ards":4541,"ĠGoing":4542,"ĠUN":4543,"Ġlands":4544,"Ġspir":4545,"Ġ\"\"\"":4546,"Ġspeak":4547,"Ġfunds":4548,"Ġmiss":4549,"Ġinterest":4550,"Ġexplo":4551,"Prob":4552,"ificial":4553,"Ġlegis":4554,"lied":4555,"Ġsignal":4556,"urren":4557,"Ġbright":4558,"Ġskill":4559,"ollo":4560,"Once":4561,"Ġwarrant":4562,"Ġdelivering":4563,"clus":4564,"Ġaccept":4565,"Ġjoke":4566,"reedom":4567,"Ġreplaced":4568,"ĠAsia":4569,"Ġcaused":4570,"Ġmerch":4571,"Ġgeo":4572,"Ġpickup":4573,"Ġopin":4574,"Ġfloor":4575,"uclear":4576,"Ġappears":4577,"ĠThursday":4578,"Ġroute":4579,"Ġsurvival":4580,"Ġcorner":4581,"Ġdramatically":4582,"Ġconstantly":4583,"Ġhospital":4584,"Ġarchitecture":4585,"Ġwarranty":4586,"11":4587,"25":4588,"35":4589,"Ar":4590,"Car":4591,"Could":4592,"Design":4593,"Giga":4594,"Hold":4595,"Must":4596,"Pr":4597,"Saw":4598,"Welcome":4599,"awn":4600,"do":4601,"een":4602,"gin":4603,"how":4604,"hanced":4605,"ief":4606,"ique":4607,"oal":4608,"ola":4609,"true":4610,"inter":4611,"inally":4612,"Ġball":4613,"Ġband":4614,"Ġcorre":4615,"outer":4616,"anium":4617,"Ġdraw":4618,"Ġlane":4619,"aler":4620,"igating":4621,"ĠSc":4622,"ĠSame":4623,"ĠAwesome":4624,"amb":4625,"Ġcoal":4626,"ĠCorre":4627,"ĠCrew":4628,"Ġyoull":4629,"Ġtrust":4630,"Ġmoves":4631,"Ġexternal":4632,"ĠFlam":4633,"Ġabsolutely":4634,"ĠPlan":4635,"Ġchick":4636,"iple":4637,"Ġcompared":4638,"Ġuses":4639,"ideo":4640,"duct":4641,"izes":4642,"ĠOTA":4643,"ĠVan":4644,"Ġactu":4645,"Ġsaving":4646,"Ġrecently":4647,"Ġsuppl":4648,"ĠChica":4649,"Ġwants":4650,"neum":4651,"Ġsuit":4652,"Ġvideos":4653,"Ġcloud":4654,"Ġdepart":4655,"erman":4656,"Ġtechnically":4657,"Ġordered":4658,"Ġexperiment":4659,"Ġunveiling":4660,"Ġbrakes":4661,"Ġletting":4662,"ructions":4663,"Ġdeliveries":4664,"Ġdiscovered":4665,"Ġkeeps":4666,"Ġevents":4667,"Ġbroad":4668,"Ġprimarily":4669,"Ġprotect":4670,"Ġemoj":4671,"Ġsensible":4672,"Ġrobots":4673,"Ġwishes":4674,"Ġdigging":4675,"Ġautonomy":4676,"Ġlabor":4677,"Ġaborted":4678,"Ġabsurd":4679,"raphy":4680,"Ġadvertising":4681,"Ġtitanium":4682,"ĠMartin":4683,"Ġintegrated":4684,"Ġexponential":4685,"Ġvalidation":4686,"ĠDrive":4687,"Ġpropulsive":4688,"Ġdedicated":4689,"Ġchicken":4690,"Given":4691,"IC":4692,"Latest":4693,"NY":4694,"Sc":4695,"gn":4696,"hood":4697,"land":4698,"paring":4699,"rank":4700,"sy":4701,"Ġsed":4702,"Ġwise":4703,"attle":4704,"Ġface":4705,"Ġmatch":4706,"Ġmicro":4707,"Ġpyr":4708,"Ġdied":4709,"ederal":4710,"Ġinformation":4711,"Ġnar":4712,"Ġnature":4713,"ĠTimes":4714,"ĠSen":4715,"Ġemer":4716,"last":4717,"ĠMc":4718,"Ġstainless":4719,"ĠAriane":4720,"ĠWorth":4721,"Ġhavent":4722,"ĠBar":4723,"ĠBanks":4724,"ĠPre":4725,"Ġalgor":4726,"eaut":4727,"Ġchart":4728,"ĠRUD":4729,"ĠRIP":4730,"ĠGot":4731,"aint":4732,"Ġcargo":4733,"Ġuser":4734,"Ġtiming":4735,"ĠOx":4736,"ĠOver":4737,"ĠOct":4738,"Ġgreatest":4739,"Ġbuff":4740,"Ġamb":4741,"osed":4742,"Ġresc":4743,"Ġaccording":4744,"Ġexpos":4745,"itted":4746,"ĠUSA":4747,"Ġregion":4748,"Ġadvantage":4749,"ĠKore":4750,"Ġattention":4751,"Ġinspe":4752,"ĠNeuralink":4753,"Ġsecs":4754,"Ġservices":4755,"Ġident":4756,"Ġpacket":4757,"Ġreflight":4758,"Ġcompetitors":4759,"Ġmotion":4760,"Ġtemperature":4761,"Ġspaces":4762,"Ġlatency":4763,"Ġoptimized":4764,"ĠAsimov":4765,"Ġremains":4766,"Ġfoundation":4767,"Ġentirely":4768,"Ġsignificantly":4769,"Ann":4770,"Ġloads":4771,"Ġinstalled":4772,"Supercharg":4773,"ĠRussia":4774,"Ġcalc":4775,"Ġbreakthrough":4776,"Physics":4777,"Ġforgot":4778,"Ġsquirrel":4779,"ĠApple":4780,"Ġenvironmental":4781,"Ġarray":4782,"Ġlayer":4783,"Ġjacket":4784,"Ġwomen":4785,"Ġcharacter":4786,"Ġtuned":4787,"ĠAugust":4788,"Ġindependent":4789,"makers":4790,"ĠChristmas":4791,"Ġsatis":4792,"ĠRequires":4793,"Ġalgorith":4794,"80":4795,"Are":4796,"After":4797,"Busted":4798,"Gu":4799,"Le":4800,"Part":4801,"Sign":4802,"Um":4803,"Using":4804,"aks":4805,"kn":4806,"lies":4807,"mins":4808,"vil":4809,"vada":4810,"you":4811,"Ġtrend":4812,"inux":4813,"Ġsing":4814,"orbital":4815,"Ġbur":4816,"Ġfirm":4817,"ises":4818,"Ġpilot":4819,"Ġinert":4820,"alt":4821,"ĠTry":4822,"ided":4823,"launch":4824,"ĠMan":4825,"ĠAst":4826,"irl":4827,"ulated":4828,"gee":4829,"Ġexit":4830,"ĠFate":4831,"Ġsearch":4832,"ourse":4833,"Ġchip":4834,"ipment":4835,"ĠExtremely":4836,"lose":4837,"ĠRH":4838,"Ġupcoming":4839,"Ġcompress":4840,"Ġusers":4841,"ement":4842,"Ġwouldnt":4843,"cience":4844,"ontal":4845,"Ġbump":4846,"Ġapplied":4847,"rick":4848,"Ġamounts":4849,"Ġengineer":4850,"Ġsolved":4851,"Ġperhaps":4852,"wear":4853,"Ġbackground":4854,"Ġresult":4855,"Ġboys":4856,"ickel":4857,"ĠCheck":4858,"Ġhappiness":4859,"Ġcouldnt":4860,"oths":4861,"Ġliftoff":4862,"Ġhelps":4863,"Ġhowever":4864,"pected":4865,"ĠNevada":4866,"awatt":4867,"Ġleak":4868,"Ġsketch":4869,"Ġordering":4870,"Ġrefine":4871,"Ġcommand":4872,"Ġdecades":4873,"ertainly":4874,"Ġreuse":4875,"Ġlocation":4876,"Ġdealer":4877,"Ġplayed":4878,"Ġthoughtful":4879,"Ġdeployment":4880,"Ġrestored":4881,"Ġjoin":4882,"Ġequipment":4883,"Ġspecies":4884,"poned":4885,"Ġsupporters":4886,"Ġpurple":4887,"ethrowers":4888,"Ġtotally":4889,"Ġreleases":4890,"Ġreleased":4891,"Ġopens":4892,"ĠPhD":4893,"Ġabsor":4894,"Ġarrives":4895,"Ġlaser":4896,"Ġdangerous":4897,"Ġreliability":4898,"ĠReddit":4899,"Ġthousands":4900,"Ġhexacopter":4901,"Perhaps":4902,"ĠBitcoin":4903,"Ġquiet":4904,"Ġholiday":4905,"Ġstyle":4906,"ĠSuperdraco":4907,"Ġconversation":4908,"Cybertruck":4909,"Ġstraight":4910,"HTSA":4911,"Ġopinion":4912,"Driving":4913,"Depends":4914,"Mass":4915,"Moon":4916,"PA":4917,"SJ":4918,"TE":4919,"Video":4920,"ault":4921,"cone":4922,"here":4923,"iot":4924,"oking":4925,"ogee":4926,"pay":4927,"pons":4928,"uilt":4929,"vable":4930,"Ġouter":4931,"Ġsix":4932,"Ġsilly":4933,"orbit":4934,"Ġbday":4935,"Ġborn":4936,"ancy":4937,"Ġmir":4938,"Ġpending":4939,"Ġpneum":4940,"Ġdoubt":4941,"Ġhes":4942,"Ġinvent":4943,"alact":4944,"Ġnat":4945,"Ġnom":4946,"Ġgonna":4947,"acc":4948,"Ġrecharg":4949,"uter":4950,"veal":4951,"otes":4952,"illiant":4953,"ĠIV":4954,"ĠIron":4955,"chang":4956,"allel":4957,"ups":4958,"irgin":4959,"outs":4960,"Ġbutt":4961,"ĠCA":4962,"ĠCurrent":4963,"Ġpros":4964,"Three":4965,"Thought":4966,"ĠWar":4967,"ables":4968,"ĠFord":4969,"Ġjump":4970,"umans":4971,"Ġcond":4972,"Ġconvert":4973,"ĠHis":4974,"ĠHait":4975,"ĠBlo":4976,"ĠPr":4977,"Ġloved":4978,"ĠLike":4979,"Ġmeg":4980,"\"\".\"":4981,"Ġadm":4982,"ĠJon":4983,"ĠVersion":4984,"ĠVirgin":4985,"Ġsafer":4986,"ooh":4987,"ftware":4988,"Ġpermission":4989,"Excellent":4990,"Ġresist":4991,"Ġprinc":4992,"Ġmissed":4993,"Ġinterplanetary":4994,"Ġtheme":4995,"Ġeverywhere":4996,"Ġcrush":4997,"Inc":4998,"Ġgrou":4999,"Ġdefe":5000,"Ġtwea":5001,"Ġadvice":5002,"Ġadvance":5003,"reciated":5004,"ixed":5005,"Ġclearly":5006,"Read":5007,"ĠShanghai":5008,"Ġboosters":5009,"ermi":5010,"Ġleave":5011,"Ġsurvey":5012,"Ġpostponed":5013,"Ġplanning":5014,"Ġoperate":5015,"nother":5016,"Ġesth":5017,"Ġapogee":5018,"Ġroads":5019,"Ġsimpl":5020,"ruct":5021,"viously":5022,"Ġstream":5023,"Ġstudio":5024,"Headed":5025,"Ġsubsonic":5026,"Ġmentioned":5027,"Ġfilters":5028,"Ġemploy":5029,"Ġfocused":5030,"ĠEngine":5031,"ĠEVs":5032,"cientists":5033,"Ġerrors":5034,"Ġfalling":5035,"Ġdescrib":5036,"Ġvariant":5037,"Ġopport":5038,"Ġseparation":5039,"Ġseparate":5040,"Starlink":5041,"ĠiPh":5042,"force":5043,"Ġshareholders":5044,"Ġsplashdown":5045,"Ġdemocracy":5046,"Ġstopped":5047,"ĠIPO":5048,"ĠApollo":5049,"Ġtbh":5050,"Ġreactor":5051,"Ġventilators":5052,"Ġdestroy":5053,"Ġsavings":5054,"ĠOxford":5055,"Ġexposure":5056,"ĠHaiti":5057,"!\"":5058,"400":5059,"Cl":5060,"Cont":5061,"Int":5062,"Life":5063,"PV":5064,"Russ":5065,"ST":5066,"Ser":5067,"Support":5068,"ges":5069,"hopefully":5070,"iation":5071,"iers":5072,"point":5073,"rate":5074,"sp":5075,"Ġtire":5076,"Ġamp":5077,"Ġson":5078,"reak":5079,"Ġthres":5080,"Ġwing":5081,"Ġbiz":5082,"Ġcult":5083,"Ġfu":5084,"enn":5085,"ening":5086,"Ġmal":5087,"Ġmine":5088,"arrass":5089,"Ġooh":5090,"Ġlength":5091,"Ġlinks":5092,"ste":5093,"ete":5094,"igs":5095,"Ġancient":5096,"lying":5097,"ĠInt":5098,"odes":5099,"che":5100,"ĠMer":5101,"ĠAud":5102,"ĠAng":5103,"ilities":5104,"Ġneigh":5105,"Ġrise":5106,"Ġcores":5107,"Thrust":5108,"ĠWon":5109,"Ġtri":5110,"Ġexcess":5111,"ĠThail":5112,"ĠFermi":5113,"Ġlikes":5114,"rible":5115,"ĠBill":5116,"ours":5117,"ĠDesign":5118,"ĠPan":5119,"Ġchain":5120,"ĠEnd":5121,"ĠElectric":5122,"acking":5123,"love":5124,"emetry":5125,"Ġpret":5126,"Ġplaced":5127,"intelligence":5128,"ricks":5129,"Ġfault":5130,"Ġsolving":5131,"Ġparties":5132,"wns":5133,"Ġartificial":5134,"Ġexpl":5135,"Ġunderground":5136,"lications":5137,"next":5138,"Ġfastest":5139,"Ġtwitter":5140,"Ġclos":5141,"Ġbecomes":5142,"Ġindic":5143,"Ġpublicly":5144,"Ġcountdown":5145,"Ġmeter":5146,"Ġcompleting":5147,"ĠRead":5148,"ĠYour":5149,"Ġdemonstr":5150,"Ġparach":5151,"Ġparallel":5152,"Ġvisible":5153,"Ġstops":5154,"Ġcompetitive":5155,"Ġvolcan":5156,"Ġhands":5157,"Ġhandling":5158,"Ġeasier":5159,"Ġcovered":5160,"Ġcoverage":5161,"clud":5162,"Ġmajority":5163,"Launching":5164,"Ġexcited":5165,"Ġraised":5166,"Ġselling":5167,"Ġspecific":5168,"Ġremaining":5169,"Ġfollowing":5170,"Ġfollowed":5171,"Ġdebt":5172,"Ġapprovals":5173,"Ġlogs":5174,"Ġwatching":5175,"Ġemphas":5176,"Ġridicul":5177,"Ġappear":5178,"Ġduties":5179,"ĠImpro":5180,"Ġterrible":5181,"Ġlasers":5182,"Ġeggs":5183,"Ġdeserves":5184,"Ġbankruptcy":5185,"Ġwalk":5186,"Ġchildren":5187,"ĠMonty":5188,"ĠParadox":5189,"Ġbenef":5190,"Ġimagine":5191,"Ġconvenient":5192,"ĠDMV":5193,"Ġhorizontal":5194,"Ġfrequ":5195,"Ġembarrass":5196,"Ġpyram":5197,"ĠSenate":5198,"ĠKorea":5199,"Ġinspection":5200,"Ġthreshold":5201,"ĠThailand":5202,"!)":5203,"250":5204,"40":5205,"Another":5206,"Che":5207,"DT":5208,"Many":5209,"Mach":5210,"Put":5211,"Right":5212,"SF":5213,"TS":5214,"bot":5215,"comp":5216,"hr":5217,"lors":5218,"oil":5219,"pack":5220,"rong":5221,"sounds":5222,"Ġtree":5223,"Ġsummon":5224,"Ġwer":5225,"Ġbrief":5226,"atable":5227,"Ġcand":5228,"Ġfive":5229,"Ġfood":5230,"Ġfield":5231,"Ġfreedom":5232,"enu":5233,"Ġmill":5234,"Ġtool":5235,"Ġpers":5236,"edy":5237,"Ġluck":5238,"Ġhrs":5239,"standing":5240,"Ġinno":5241,"alo":5242,"eted":5243,"etime":5244,"Ġgrey":5245,"Ġrevenue":5246,"ĠTal":5247,"oted":5248,"ĠSA":5249,"ĠShip":5250,"ĠSelf":5251,"ĠSince":5252,"omberg":5253,"Ġeg":5254,"verse":5255,"idence":5256,"idering":5257,"Ġiter":5258,"Ġcoff":5259,"Ġcolors":5260,"ĠCourse":5261,"Ġproceed":5262,"ifically":5263,"Ġvary":5264,"Ġshown":5265,"Ġtraction":5266,"Ġnotice":5267,"ĠHopper":5268,"ĠBl":5269,"ĠBlack":5270,"ĠLet":5271,"ĠLinux":5272,"ĠRight":5273,"Ġupon":5274,"ĠGu":5275,"ĠGet":5276,"Ġadults":5277,"ĠOffic":5278,"Ġgreatly":5279,"Which":5280,"orders":5281,"rowser":5282,"Ġexpress":5283,"Ġworlds":5284,"Ġlifetime":5285,"Ġhumor":5286,"Ġcalling":5287,"Ġattach":5288,"Ġcenters":5289,"Ġplanned":5290,"Ġsteam":5291,"Ġamazingly":5292,"gency":5293,"Ġrepresent":5294,"Ġdetect":5295,"Ġbasic":5296,"Ġvisiting":5297,"Ġcomputers":5298,"Ġviol":5299,"Ġexpert":5300,"Ġfunding":5301,"Ġradio":5302,"Ġdistract":5303,"ĠAtlas":5304,"Ġspecifically":5305,"ĠZip":5306,"Ġfailed":5307,"Ġreceive":5308,"ĠMoreover":5309,"Ġargument":5310,"Ġpricing":5311,"Ġinstallation":5312,"ĠMakes":5313,"Second":5314,"Ġmistakes":5315,"ological":5316,"Ġsucks":5317,"Ġconcerns":5318,"Ġessential":5319,"Ġimpressive":5320,"Ġhurt":5321,"board":5322,"ĠDelta":5323,"porate":5324,"Ġcrypto":5325,"Technically":5326,"ĠDouglas":5327,"urrency":5328,"Ġnarrow":5329,"alactic":5330,"Ġemphasize":5331,"Check":5332,"Blo":5333,"Current":5334,"ED":5335,"Side":5336,"Wal":5337,"boy":5338,"cer":5339,"fast":5340,"pher":5341,"vant":5342,"wed":5343,"width":5344,"zen":5345,"ĠYeah":5346,"Ġurb":5347,"inary":5348,"Ġbattle":5349,"Ġcm":5350,"isis":5351,"aning":5352,"Ġpics":5353,"Ġtheory":5354,"Ġlmk":5355,"mph":5356,"Ġnons":5357,"Ġnuclear":5358,"elp":5359,"elect":5360,"Ġgar":5361,"Ġgun":5362,"Ġgiving":5363,"Ġrepe":5364,"ĠTV":5365,"ĠTime":5366,"ĠSign":5367,"Ġbeats":5368,"omal":5369,"unt":5370,"Ġstuck":5371,"Ġweak":5372,"used":5373,"ĠCenter":5374,"ĠCritical":5375,"Ġvirus":5376,"Ġshipping":5377,"ĠWSJ":5378,"ĠThank":5379,"Ġseal":5380,"Ġjunk":5381,"ĠHar":5382,"ĠBS":5383,"ĠBay":5384,"ĠDan":5385,"ĠPic":5386,"Ġloaded":5387,"Ġunkn":5388,"eway":5389,"ĠGPU":5390,"apse":5391,"Ġtext":5392,"cons":5393,"ciety":5394,"ĠUpper":5395,"ĠVol":5396,"Ġsomehow":5397,"Ġpowert":5398,"Ġintern":5399,"Ġcrisis":5400,"Ġsuperall":5401,"ĠAlpha":5402,"aken":5403,"Ġconscious":5404,"aneu":5405,"ĠWhite":5406,"Production":5407,"Always":5408,"Already":5409,"Ġsigned":5410,"ĠYoure":5411,"Ġrolls":5412,"lessly":5413,"Ġfixing":5414,"ĠTheyre":5415,"Soon":5416,"Ġdecade":5417,"Ġheader":5418,"Ġapocal":5419,"Ġvacc":5420,"Ġoptional":5421,"ĠQA":5422,"Ġdrove":5423,"eeing":5424,"Ġreporting":5425,"ĠNeeds":5426,"Ġwinter":5427,"Ġwatched":5428,"Ġcharger":5429,"Ġmemes":5430,"ahem":5431,"Ġshielding":5432,"Ġpopular":5433,"Ġriding":5434,"Ġlearned":5435,"ikola":5436,"Ġfundamentally":5437,"Ġdegrees":5438,"Ġtalented":5439,"ĠFeb":5440,"ĠNYTimes":5441,"ĠSmart":5442,"Ġphysical":5443,"burg":5444,"Ġguaranteed":5445,"appreciated":5446,"Ġresolution":5447,"Ġpurchase":5448,"Ġallocation":5449,"Regarding":5450,"Ġsevere":5451,"ĠGodot":5452,"ĠFlamethrower":5453,"oohoo":5454,"Ġgroup":5455,"ĠiPhone":5456,"wnsville":5457,"Ġembarrassing":5458,"Ġurban":5459,"Ġunknown":5460,"300":5461,"45":5462,"Air":5463,"Astron":5464,"By":5465,"From":5466,"Final":5467,"Goal":5468,"German":5469,"His":5470,"July":5471,"Kinda":5472,"Like":5473,"Min":5474,"RO":5475,"Tom":5476,"Tod":5477,"Totally":5478,"Uh":5479,"Woohoo":5480,"eer":5481,"fall":5482,"faces":5483,"graphy":5484,"ma":5485,"oss":5486,"war":5487,"was":5488,"Ġaud":5489,"Ġsort":5490,"rest":5491,"rete":5492,"Ġtherm":5493,"Ġwast":5494,"Ġwidth":5495,"Ġbal":5496,"Ġmaneu":5497,"Ġdive":5498,"Ġdial":5499,"Ġdivers":5500,"Ġlicense":5501,"Ġhops":5502,"already":5503,"Ġnu":5504,"Ġnets":5505,"icious":5506,"Ġgl":5507,"aceship":5508,"ĠTurn":5509,"ĠSol":5510,"owers":5511,"omain":5512,"Ġevol":5513,"Ġstat":5514,"Ġwealth":5515,"Ġrig":5516,"Ġrule":5517,"Ġcolon":5518,"ĠCash":5519,"ĠCEO":5520,"ifies":5521,"ationary":5522,"Ġshorter":5523,"Ġtrouble":5524,"ouncing":5525,"ĠThese":5526,"ĠForm":5527,"rier":5528,"ĠNHTSA":5529,"ĠNikola":5530,"ĠDis":5531,"actually":5532,"ĠEU":5533,"Ġunit":5534,"Ġunfortunately":5535,"ĠLife":5536,"osting":5537,"apit":5538,"conel":5539,"Ġarms":5540,"Ġplat":5541,"ĠULA":5542,"Ġproduces":5543,"Ġmonkey":5544,"Ġsympt":5545,"Ġmissing":5546,"Ġexpanding":5547,"ĠInf":5548,"Ġfacto":5549,"Ġextension":5550,"Ġscal":5551,"play":5552,"Ġsubtle":5553,"formed":5554,"ĠStarships":5555,"pective":5556,"atched":5557,"Ġdonate":5558,"Ġgeneration":5559,"Ġsignature":5560,"Ġidiot":5561,"Ġannoying":5562,"Ġholds":5563,"Ġuntrue":5564,"Ġcompute":5565,"Ġcompeting":5566,"Ġcreation":5567,"Ġtempor":5568,"Ġtweeting":5569,"Ġconstit":5570,"ĠUniverse":5571,"Ġacid":5572,"Ġbuyers":5573,"Ġstreets":5574,"ĠDealer":5575,"Ġmachines":5576,"Ġbroke":5577,"Ġpolitical":5578,"Ġsuggests":5579,"Ġeffective":5580,"ĠBooster":5581,"ĠOrder":5582,"ĠOrbital":5583,"ruption":5584,"ĠMotors":5585,"Ġrenew":5586,"Ġreference":5587,"Ġrepairs":5588,"Ġprocessing":5589,"Unfortunately":5590,"Ġerror":5591,"Ġstructural":5592,"ypes":5593,"ĠFeels":5594,"ĠJohnny":5595,"Ġbott":5596,"Ġsettings":5597,"ĠBrownsville":5598,"Ġpetition":5599,"ĠDoesnt":5600,"Ġphoto":5601,"Ġfiber":5602,"Ġmilest":5603,"erosene":5604,"Ġoverride":5605,"Ġelevator":5606,"Ġswitch":5607,"ĠAbout":5608,"Ġcheese":5609,"Ġbiography":5610,"Ġspirit":5611,"Ġbumper":5612,"Seriously":5613,"Bas":5614,"Con":5615,"Got":5616,"Last":5617,"MW":5618,"NN":5619,"Open":5620,"Pal":5621,"Rest":5622,"Sat":5623,"World":5624,"aur":5625,"but":5626,"box":5627,"cceed":5628,"ection":5629,"first":5630,"overy":5631,"space":5632,"vice":5633,"wd":5634,"with":5635,"yd":5636,"Ġaw":5637,"Ġaim":5638,"Ġthreat":5639,"Ġthird":5640,"esides":5641,"orse":5642,"order":5643,"orical":5644,"Ġbrowser":5645,"Ġcities":5646,"Ġfat":5647,"Ġfwd":5648,"ouple":5649,"itud":5650,"Ġmelt":5651,"Ġpap":5652,"Ġpounds":5653,"Ġpacks":5654,"Ġpeace":5655,"Ġdies":5656,"Ġloud":5657,"Ġlighter":5658,"rown":5659,"roph":5660,"Ġnorth":5661,"etter":5662,"lee":5663,"ĠSec":5664,"illing":5665,"Ġeye":5666,"ctors":5667,"ĠIC":5668,"ĠMun":5669,"allout":5670,"tering":5671,"Ġstars":5672,"Ġstabil":5673,"usable":5674,"ammer":5675,"Ġcovid":5676,"urally":5677,"ĠWater":5678,"ĠWatch":5679,"Ġtrail":5680,"Ġtrillion":5681,"Ġenj":5682,"ulating":5683,"Ġnoting":5684,"Ġascent":5685,"Ġexclus":5686,"ĠFl":5687,"Ġsex":5688,"Ġlie":5689,"Ġabt":5690,"ĠBob":5691,"ĠBlock":5692,"ĠBMW":5693,"Ġloves":5694,"ĠEl":5695,"ĠEffect":5696,"eward":5697,"ĠLaw":5698,"ĠLicense":5699,"ĠLudicrous":5700,"ĠGWh":5701,"ĠGear":5702,"Ġmemb":5703,"Ġcompla":5704,"Ġcompens":5705,"irect":5706,"istent":5707,"cont":5708,"Ġarriving":5709,"endar":5710,"ĠStan":5711,"Ġnoise":5712,"Ġhighlight":5713,"Ġplate":5714,"ĠUp":5715,"ĠOf":5716,"ĠOk":5717,"vior":5718,"Where":5719,"Ġintro":5720,"Ġquote":5721,"Ġrecovered":5722,"Ġrecovery":5723,"Ġwhenever":5724,"Ġrespons":5725,"Ġunderappreciated":5726,"ittee":5727,"Ġspaceport":5728,"Ġendorse":5729,"Ġsucceed":5730,"Ġcalls":5731,"Ġsuborbital":5732,"Ġguide":5733,"Ġdepends":5734,"Ġgenerate":5735,"Ġstrate":5736,"gging":5737,"Ġpersonal":5738,"faction":5739,"Ġplanets":5740,"Ġreflect":5741,"nings":5742,"Ġexperien":5743,"Doge":5744,"Ġputting":5745,"Ġreached":5746,"Ġuh":5747,"ĠZero":5748,"Ġultimately":5749,"Ġunderstanding":5750,"Ġiniti":5751,"Ġeditor":5752,"Ġmiddle":5753,"Ġnegatively":5754,"Ġanswered":5755,"Ġanaly":5756,"Ġeconomic":5757,"Ġattacked":5758,"ahn":5759,"Ġassuming":5760,"Ġhonored":5761,"Ġchallenge":5762,"Ġignore":5763,"Ġignition":5764,"Ġconnected":5765,"Ġnecessarily":5766,"Ġpromising":5767,"ĠParis":5768,"Ġnosecone":5769,"Ġhealthy":5770,"Ġarrays":5771,"Ġpushed":5772,"Ġphysically":5773,"Ġorgan":5774,"Ġbehavior":5775,"vestigating":5776,"Excited":5777,"Ġadventure":5778,"Ġcycles":5779,"Ġmonopoly":5780,"Ġquickly":5781,"Ġactivate":5782,"Ġsimultaneously":5783,"ĠSilicon":5784,"Ġweighs":5785,"Ġsedan":5786,"Ġsatisfaction":5787,"Ġopportun":5788,"Ġampl":5789,"Ġexplode":5790,"Ġridiculous":5791,"Ġcoffee":5792,"Ġbalance":5793,"Ġmilestone":5794,".\"\"":5795,"Cons":5796,"Def":5797,"Eas":5798,"FSD":5799,"Here":5800,"Hell":5801,"Ive":5802,"Iron":5803,"Li":5804,"Literally":5805,"Never":5806,"PS":5807,"Play":5808,"Qu":5809,"Single":5810,"airing":5811,"aily":5812,"bow":5813,"call":5814,"dy":5815,"dom":5816,"ees":5817,"got":5818,"good":5819,"gian":5820,"hen":5821,"jo":5822,"med":5823,"more":5824,"nor":5825,"pre":5826,"satell":5827,"sustain":5828,"whe":5829,"Ġweld":5830,"esc":5831,"Ġbother":5832,"Ġcit":5833,"Ġcop":5834,"Ġcute":5835,"Ġfold":5836,"lla":5837,"arre":5838,"Ġpist":5839,"Ġdream":5840,"Ġlame":5841,"Ġhide":5842,"room":5843,"Ġinacc":5844,"Ġnested":5845,"icing":5846,"eles":5847,"eling":5848,"ionics":5849,"otor":5850,"ĠSX":5851,"ĠSam":5852,"ĠSur":5853,"ung":5854,"ĠMain":5855,"imler":5856,"Ġran":5857,"Ġrum":5858,"ĠCity":5859,"ĠCont":5860,"Ġprote":5861,"ifts":5862,"ifying":5863,"Ġtriv":5864,"abin":5865,"Ġdoom":5866,"Ġasking":5867,"anted":5868,"Ġseason":5869,"rast":5870,"Ġliber":5871,"Ġliked":5872,"ĠHQ":5873,"ĠBraz":5874,"ĠBecause":5875,"ĠDef":5876,"Ġalpha":5877,"Ġwasnt":5878,"Ġchem":5879,"ĠEvil":5880,"Ġkick":5881,"ostationary":5882,"Ġjustice":5883,"emed":5884,"Ġgoodness":5885,"izations":5886,"ĠJan":5887,"eping":5888,"udden":5889,"attern":5890,"portion":5891,"rict":5892,"Ġsphere":5893,"atsh":5894,"Ġfear":5895,"Exp":5896,"weight":5897,"ountain":5898,"Ġaccounts":5899,"Ġbox":5900,"Ġsymb":5901,"Ġpract":5902,"Ġorbits":5903,"Ġexpand":5904,"ucker":5905,"Stay":5906,"expected":5907,"Ġtransl":5908,"Ġtransmit":5909,"Ġtwist":5910,"Ġenerg":5911,"Ġphones":5912,"Ġfarm":5913,"Ġretired":5914,"Reason":5915,"ĠNov":5916,"Ġsigns":5917,"Ġbrought":5918,"Ġtalked":5919,"Ġincreased":5920,"Ġdecide":5921,"which":5922,"Ġdeveloped":5923,"Ġdiscount":5924,"Ġrestart":5925,"Ġcombined":5926,"Ġbringing":5927,"Ġstatement":5928,"Ġflame":5929,"ĠExcellent":5930,"Ġunderstood":5931,"Ġtelling":5932,"Ġsensors":5933,"Ġrelative":5934,"Ġimpacts":5935,"Ġwinning":5936,"Ġmerger":5937,"Ġempty":5938,"Ġdigital":5939,"China":5940,"Ġparticular":5941,"Ġoffering":5942,"ĠEnglish":5943,"Ġproviding":5944,"Ġefficient":5945,"ĠSeries":5946,"Ġincreasingly":5947,"Ġvastly":5948,"Ġkidding":5949,"ĠDaimler":5950,"ĠLoved":5951,"Ġdeserve":5952,"Ġcurious":5953,"Ġirl":5954,"Ġwoman":5955,"Ġepis":5956,"Ġepic":5957,"Ġminimize":5958,"Ġshareholder":5959,"Upgr":5960,"aught":5961,"scope":5962,"Ġsequence":5963,"Everything":5964,"nesota":5965,"pirationally":5966,"ĠInstructions":5967,"Ġbelieving":5968,"Ġhousing":5969,"Ġheavily":5970,"Ġgrandfather":5971,"Ġtraditional":5972,"Ġdynamic":5973,"Ġcollective":5974,"Ġdinner":5975,"Ġbandwidth":5976,"Ġalgorithm":5977,"ĠVirginia":5978,"Ġtweaks":5979,"Ġbenefit":5980,"Ġinnovation":5981,"Ġviolence":5982,"Ġnonsense":5983,"ĠFormula":5984,"Ġplatform":5985,"ĠUpd":5986,"wheel":5987,"ĠBrazil":5988,"14":5989,"Awesome":5990,"Getting":5991,"Had":5992,"Motor":5993,"Ob":5994,"Red":5995,"cri":5996,"going":5997,"house":5998,"lim":5999,"oys":6000,"ratic":6001,"sw":6002,"uy":6003,"uis":6004,"uitive":6005,"wyn":6006,"Ġ=":6007,"Ġ[":6008,"Ġtast":6009,"eroth":6010,"Ġwaiting":6011,"atory":6012,"Ġcaut":6013,"Ġcaught":6014,"inge":6015,"Ġfog":6016,"ann":6017,"Ġmenu":6018,"arke":6019,"Ġpupp":6020,"Ġpattern":6021,"Ġduration":6022,"Ġdaily":6023,"Ġlb":6024,"Ġhull":6025,"sts":6026,"roved":6027,"Ġinev":6028,"Ġgain":6029,"Ġreduction":6030,"otal":6031,"Ġforum":6032,"union":6033,"Ġstress":6034,"ĠAnt":6035,"opt":6036,"Ġneut":6037,"amination":6038,"ĠCent":6039,"ĠCost":6040,"ĠCount":6041,"Theres":6042,"ifting":6043,"Ġshear":6044,"Ġtrim":6045,"Ġdoo":6046,"ander":6047,"ounced":6048,"rap":6049,"rage":6050,"Ġliving":6051,"ĠHam":6052,"ĠHere":6053,"ĠBus":6054,"ĠBrian":6055,"ĠDetail":6056,"ĠPeace":6057,"ardians":6058,"Ġunre":6059,"ĠLe":6060,"ĠLook":6061,"ĠRad":6062,"ĠRand":6063,"ĠRWD":6064,"Ġkerosene":6065,"ares":6066,"Ġusage":6067,"ements":6068,"rypt":6069,"Ġprep":6070,"ĠStone":6071,"anye":6072,"assis":6073,"ĠVac":6074,"intuitive":6075,"Ġcontent":6076,"Ġdrivers":6077,"ensus":6078,"oses":6079,"Ġpartners":6080,"Ġelements":6081,"Ġinterface":6082,"redibly":6083,"Ġregard":6084,"Ġadvoc":6085,"Ġthroughout":6086,"Ġinsert":6087,"Ġinsurance":6088,"Ġdepth":6089,"Ġtaxpay":6090,"Ġreaders":6091,"Ġvalu":6092,"Ġenter":6093,"Ġentertain":6094,"Ġremo":6095,"Ġavionics":6096,"Ġroller":6097,"fficient":6098,"Ġdecision":6099,"Ġunveiled":6100,"Ġflat":6101,"Ġdiscuss":6102,"ĠUnder":6103,"Ġviews":6104,"Interview":6105,"Ġterms":6106,"Ġjourno":6107,"Ġdropped":6108,"Ġjoined":6109,"Ġmulti":6110,"Ġreasonable":6111,"Ġoptimization":6112,"Ġfairly":6113,"Ġsuggesting":6114,"Ġcauses":6115,"Ġmidnight":6116,"Ġrobust":6117,"taire":6118,"Ġramping":6119,"Ġstrongly":6120,"Ġpicked":6121,"Chris":6122,"Ġbreakfast":6123,"Ġfloating":6124,"Ġtrains":6125,"probably":6126,"Ġdeny":6127,"Ġpremise":6128,"Ġarrived":6129,"Ġuncertain":6130,"Ġpresentation":6131,"Ġsituations":6132,"ĠCommission":6133,"Ġslower":6134,"Ġnavigation":6135,"ĠClarke":6136,"Ġreliable":6137,"ĠSaturn":6138,"Ġexplain":6139,"Ġcircle":6140,"Anyone":6141,"Ġstopping":6142,"Ġcontribution":6143,"ĠSteven":6144,"Ġrobotax":6145,"Ġprojects":6146,"Ġprinting":6147,"Ġdescribe":6148,"Ġdescription":6149,"Ġfinancing":6150,"uilding":6151,"Ġauthorities":6152,"checking":6153,"Ġexplosion":6154,"Ġrescue":6155,"Ġspacesuit":6156,"Ġsinging":6157,"Ġfirmware":6158,"Ġinertia":6159,"Ġrecharging":6160,"Thoughtful":6161,"Climate":6162,"Ġperspective":6163,"pheric":6164,"ĠHarris":6165,"ĠVoltaire":6166,"Ġconsciousness":6167,"Today":6168,"Ġsymptoms":6169,"ĠInfinite":6170,"Ġmembers":6171,"Ġcitiz":6172,"55":6173,";&":6174,"AP":6175,"Ad":6176,"Ah":6177,"Ap":6178,"California":6179,"Dr":6180,"Damn":6181,"EF":6182,"Lockheed":6183,"ME":6184,"Power":6185,"Rem":6186,"Roughly":6187,"She":6188,"TW":6189,"Two":6190,"bed":6191,"car":6192,"crack":6193,"eum":6194,"fl":6195,"gus":6196,"ipe":6197,"kg":6198,"kra":6199,"mate":6200,"ront":6201,"sight":6202,"vative":6203,"yal":6204,"zard":6205,"Ġtea":6206,"Ġtick":6207,"inction":6208,"onored":6209,"Ġsele":6210,"rele":6211,"Ġthus":6212,"Ġthick":6213,"Ġwood":6214,"Ġbreat":6215,"Ġbomb":6216,"Ġcats":6217,"Ġfacing":6218,"Ġfelt":6219,"Ġfederal":6220,"ison":6221,"enger":6222,"llow":6223,"anos":6224,"arl":6225,"arian":6226,"Ġlid":6227,"Ġhence":6228,"rox":6229,"Ġinference":6230,"almost":6231,"Ġnickel":6232,"ela":6233,"eless":6234,"asy":6235,"Ġbeach":6236,"owed":6237,"omments":6238,"amping":6239,"enty":6240,"ĠMad":6241,"ĠMerry":6242,"Ġstick":6243,"imation":6244,"imarily":6245,"opp":6246,"usually":6247,"Ġrich":6248,"ĠCongr":6249,"ersey":6250,"andon":6251,"Ġasp":6252,"Ġexting":6253,"ĠFH":6254,"ĠFrank":6255,"Ġdeorbit":6256,"ĠHad":6257,"ĠHell":6258,"ĠBen":6259,"ĠBel":6260,"Ġmaster":6261,"ĠDamn":6262,"Ġchoo":6263,"ĠEconom":6264,"Ġuns":6265,"ĠLatter":6266,"ĠGary":6267,"ĠGiving":6268,"Ġoutfit":6269,"ĠStock":6270,"Ġcancer":6271,"Ġcomet":6272,"Ġoverhe":6273,"ĠJeff":6274,"ĠJersey":6275,"Ġacting":6276,"Ġsaved":6277,"Ġshouldnt":6278,"Ġsomewhere":6279,"Ġleading":6280,"Ġdescent":6281,"Ġrights":6282,"Ġconting":6283,"Ġspot":6284,"Ġspoke":6285,"Whats":6286,"velope":6287,"Ġrecog":6288,"ĠXmas":6289,"ords":6290,"Ġbogus":6291,"ĠItal":6292,"anging":6293,"Having":6294,"Ġregen":6295,"Ġregarding":6296,"agic":6297,"Ġdefense":6298,"Ġphase":6299,"Ġadvis":6300,"Ġconsumer":6301,"Ġconsidering":6302,"ĠKim":6303,"ĠJustice":6304,"Ġdonating":6305,"obahn":6306,"Ġinsan":6307,"Ġinsight":6308,"Ġdepending":6309,"ermany":6310,"Abort":6311,"Ġsurfaces":6312,"Ġpassing":6313,"Ġpassenger":6314,"Ġzone":6315,"Ġplanes":6316,"Ġframes":6317,"Ġwhereas":6318,"Ġmanip":6319,"Ġmanage":6320,"Ġcreative":6321,"Ġwindward":6322,"Ġcompete":6323,"ĠDoD":6324,"ĠStarbase":6325,"Ġposit":6326,"Roadster":6327,"Ġfunded":6328,"Ġdetailed":6329,"covery":6330,"ĠOnion":6331,"Ġredesign":6332,"Ġcollision":6333,"Ġslowly":6334,"Ġmodern":6335,"Ġbroken":6336,"ĠSeemed":6337,"Ġchecks":6338,"ĠHighest":6339,"Ġflamethrowers":6340,"Ġachieves":6341,"Makes":6342,"Ġeconomics":6343,"Ġblocked":6344,"Ġmuseum":6345,"Ġdocks":6346,"Ġleaders":6347,"Ġattacking":6348,"Ġmanufactur":6349,"Ġcycl":6350,"Ġmemory":6351,"planet":6352,"Ġassess":6353,"ĠEngines":6354,"Ġparked":6355,"Ġgrowth":6356,"ologies":6357,"ĠImportant":6358,"Ġkilling":6359,"Ġwindows":6360,"Ġscheduled":6361,"Ġopposite":6362,"Ġirrele":6363,"Ġinflu":6364,"Ġsilver":6365,"Ġcharacters":6366,"ulah":6367,"month":6368,"Ġinspired":6369,"ĠArtists":6370,"borhood":6371,"Ġcycle":6372,"Ġhouses":6373,"umulative":6374,"arents":6375,"ĠAPJ":6376,"Ġenemies":6377,"eorge":6378,"ĠPayPal":6379,"Ġcaptured":6380,"ĠUNIC":6381,"Ġemoji":6382,"Ġbuffer":6383,"ĠRHD":6384,"Ġcompression":6385,"Ġnominal":6386,"Ġmega":6387,"Ġprinciple":6388,"Ġbizarre":6389,"Ġneighborhood":6390,"Ġpyramids":6391,"Ġpowertrain":6392,"Ġsuperalloy":6393,"ĠStanford":6394,"sustaining":6395,"Ġprotection":6396,"Ġliberty":6397,"Ġinevitable":6398,"cracker":6399,"kraine":6400,"Ġlidar":6401,"ĠEconomist":6402,"Ġrecogn":6403,"ĠUNICEF":6404,"600":6405,"Adding":6406,"Beaut":6407,"Done":6408,"Draco":6409,"Found":6410,"GI":6411,"Gen":6412,"Hyperloop":6413,"Kids":6414,"Lot":6415,"Rough":6416,"Sm":6417,"VAC":6418,"Yay":6419,"cies":6420,"get":6421,"gment":6422,"human":6423,"ius":6424,"maybe":6425,"oe":6426,"pose":6427,"rout":6428,"si":6429,"scientists":6430,"test":6431,"yuz":6432,"Ġ?":6433,"Ġie":6434,"Ġtable":6435,"Ġaware":6436,"Ġaward":6437,"only":6438,"onge":6439,"Ġsorry":6440,"Ġwa":6441,"Ġwave":6442,"esis":6443,"Ġbab":6444,"Ġclic":6445,"Ġfought":6446,"Ġpowers":6447,"Ġowed":6448,"Ġdy":6449,"Ġder":6450,"Ġlining":6451,"Ġhop":6452,"Ġhero":6453,"rock":6454,"ett":6455,"assemb":6456,"Ġgrief":6457,"lement":6458,"igger":6459,"utions":6460,"ĠTra":6461,"otic":6462,"ĠSupport":6463,"Ġbeast":6464,"Ġanten":6465,"Ġformer":6466,"verage":6467,"entions":6468,"ader":6469,"adian":6470,"ĠMarket":6471,"Ġstanding":6472,"throp":6473,"ĠAF":6474,"ĠAss":6475,"Ġwilling":6476,"ama":6477,"Ġcoinc":6478,"ĠCather":6479,"Ġproof":6480,"Ġproportion":6481,"ĠWorld":6482,"Ġmoons":6483,"Ġmoved":6484,"Ġenvelope":6485,"Ġorig":6486,"olies":6487,"rapped":6488,"Ġcongr":6489,"ĠHas":6490,"ĠHumans":6491,"ĠHVAC":6492,"ĠBBC":6493,"ĠPR":6494,"ĠPri":6495,"Ġalive":6496,"Ġchoc":6497,"Ġune":6498,"ĠLess":6499,"ĠLos":6500,"ĠRT":6501,"ĠRem":6502,"ĠGetting":6503,"Ġmeal":6504,"isting":6505,"Ġgoods":6506,"Ġarm":6507,"Ġprefer":6508,"Ġtail":6509,"Ġourselves":6510,"Ġsaves":6511,"Ġlease":6512,"Weve":6513,"Ġspan":6514,"Ġknew":6515,"well":6516,"wner":6517,"Ġafterno":6518,"Ġheld":6519,"ĠInter":6520,"Ġlifting":6521,"Ġspaceflight":6522,"Ġairport":6523,"Ġfinally":6524,"Ġsafely":6525,"necess":6526,"Ġscam":6527,"Ġtransaction":6528,"Ġconfusion":6529,"aker":6530,"lowing":6531,"vention":6532,"ĠShow":6533,"ĠLAX":6534,"Ġmetap":6535,"Ġtaxing":6536,"Ġleaving":6537,"Ġpassword":6538,"Ġrolled":6539,"Ġinvited":6540,"ĠYay":6541,"Ġcourses":6542,"Ġsale":6543,"airs":6544,"Ġheaded":6545,"Ġwarning":6546,"rug":6547,"Ġinvestor":6548,"resh":6549,"Ġnonstop":6550,"Ġsnail":6551,"Ascent":6552,"Ġinfinite":6553,"Ġpolice":6554,"justing":6555,"Ġbreaks":6556,"ĠMayans":6557,"Ġinitially":6558,"Ġprograms":6559,"Ġaffected":6560,"Original":6561,"Ġsentient":6562,"Ġgeostationary":6563,"Ġcivilizations":6564,"Ġconcrete":6565,"Ġincentive":6566,"Ġhypoc":6567,"ĠAdams":6568,"Ġjournalism":6569,"Ġpumps":6570,"Ġblackouts":6571,"Ġmoments":6572,"Ġprevented":6573,"Ġforget":6574,"Ġgrowing":6575,"should":6576,"ĠWithout":6577,"Ġtelesc":6578,"Ġhorsef":6579,"ĠBaseball":6580,"Ġlayers":6581,"ĠEnhanced":6582,"ĠSeptember":6583,"ifficult":6584,"Ġenabled":6585,"Ġexponentially":6586,"Better":6587,"ĠIMF":6588,"nesday":6589,"ĠTrans":6590,"ĠOtherwise":6591,"ĠMassie":6592,"Ġreplacement":6593,"Ġconstraint":6594,"Ġmethane":6595,"Ġcommunication":6596,"Ide":6597,"Ġconvinced":6598,"Ġcontrolled":6599,"Ġcookies":6600,"ĠWednesday":6601,"Ġminiature":6602,"iosis":6603,"Ġpedestrian":6604,"Reply":6605,"ĠBritain":6606,"Ġsuppliers":6607,"Ġambient":6608,"Announcing":6609,"ĠTrying":6610,"Ġcondition":6611,"ĠAudi":6612,"ĠAngeles":6613,"Ġpretending":6614,"Ġparachutes":6615,"Ġvolcano":6616,"ĠImprobability":6617,"Ġglitch":6618,"Ġmeltdown":6619,"Ġnorthern":6620,"Ġanalysts":6621,"Ġinaccurate":6622,"Ġcautious":6623,"Ġunreason":6624,"Beautiful":6625,"ĠCatherine":6626,"%.":6627,"2500":6628,"800":6629,"CP":6630,"DA":6631,"Global":6632,"HO":6633,"Hes":6634,"Ms":6635,"Merlin":6636,"Prom":6637,"Rad":6638,"SW":6639,"Twitter":6640,"Taking":6641,"Us":6642,"bac":6643,"burn":6644,"break":6645,"cil":6646,"host":6647,"lishing":6648,"mber":6649,"off":6650,"ogy":6651,"pad":6652,"pass":6653,"press":6654,"sour":6655,"tr":6656,"tage":6657,"ticle":6658,"vely":6659,"wthorne":6660,"Ġq":6661,"Ġtent":6662,"inking":6663,"Ġsight":6664,"Ġsample":6665,"reasing":6666,"Ġwif":6667,"Ġbunch":6668,"Ġbricks":6669,"atr":6670,"atics":6671,"inger":6672,"isdom":6673,"oust":6674,"eness":6675,"ancing":6676,"Ġmar":6677,"Ġmath":6678,"ara":6679,"Ġtobac":6680,"Ġparents":6681,"Ġoh":6682,"Ġodds":6683,"Ġdi":6684,"Ġdome":6685,"Ġdare":6686,"Ġdiver":6687,"Ġdude":6688,"Ġled":6689,"Ġlugg":6690,"Ġlaugh":6691,"Ġhats":6692,"sters":6693,"stery":6694,"rogen":6695,"als":6696,"alin":6697,"Ġnic":6698,"Ġnuts":6699,"icopter":6700,"Ġgest":6701,"uttle":6702,"ĠTakes":6703,"ĠTotal":6704,"ĠSC":6705,"ĠSan":6706,"ĠSpr":6707,"ĠSystem":6708,"ills":6709,"idden":6710,"ented":6711,"ĠIR":6712,"ĠIrid":6713,"ĠMem":6714,"ĠMade":6715,"ĠMission":6716,"Ġstone":6717,"Ġstable":6718,"upid":6719,"that":6720,"ĠAdding":6721,"oph":6722,"opia":6723,"ili":6724,"Ġneither":6725,"Ġrn":6726,"cell":6727,"Ġaren":6728,"Ġvents":6729,"Ġshape":6730,"Ġgold":6731,"ĠWow":6732,"Ġenrout":6733,"Ġasks":6734,"ĠFallout":6735,"ĠFTW":6736,"raud":6737,"Ġjam":6738,"rians":6739,"ĠHen":6740,"Ġabsolut":6741,"ĠBaby":6742,"Ġmak":6743,"ĠNav":6744,"ĠDJ":6745,"ĠPDT":6746,"ĠPalo":6747,"Ġalign":6748,"Ġlob":6749,"Ġlosing":6750,"Ġchose":6751,"Ġcherry":6752,"quence":6753,"ĠEqu":6754,"Ġund":6755,"Ġunexpected":6756,"ĠLi":6757,"ĠRen":6758,"arted":6759,"ĠGold":6760,"Ġcarried":6761,"Ġcarmakers":6762,"rys":6763,"Ġarc":6764,"Ġmystery":6765,"Ġpoor":6766,"efore":6767,"ĠUlt":6768,"Ġoverall":6769,"Ġlaunchpad":6770,"Ġacts":6771,"Ġshouldn":6772,"...\"":6773,"Ġapplies":6774,"Ġapplications":6775,"oof":6776,"Ġincome":6777,"bell":6778,"Ġsponge":6779,"Ġfees":6780,"ulture":6781,"Ġ\"\":":6782,"Ġintended":6783,"Ġrecy":6784,"ocracy":6785,"Ġautose":6786,"Ġresidual":6787,"Ġaccumul":6788,"Ġhelicopter":6789,"Ġcrane":6790,"Inst":6791,"Ġsuperhuman":6792,"Ġends":6793,"Ġended":6794,"ĠAuto":6795,"Hawthorne":6796,"Ġsafest":6797,"Ġgrade":6798,"ĠAlto":6799,"Ġdism":6800,"Ġdisp":6801,"Ġdisplay":6802,"Ġscen":6803,"Ġsufficient":6804,"ĠKnight":6805,"Ġwriter":6806,"ĠWhere":6807,"Rec":6808,"Reality":6809,"ĠShuttle":6810,"ibration":6811,"Ġreminder":6812,"ĠRoad":6813,"Ġski":6814,"Ġskit":6815,"ĠYear":6816,"Ġreviews":6817,"Ġparam":6818,"Ġvoltage":6819,"Ġheadline":6820,"Ġinstant":6821,"Ġlightning":6822,"Ġunveils":6823,"ĠSoftware":6824,"lade":6825,"Ġturning":6826,"ernel":6827,"Ġkeeping":6828,"Ġjoy":6829,"ograph":6830,"Ġequator":6831,"Ġraising":6832,"Ġnearby":6833,"Ġspecs":6834,"Ġbrother":6835,"Ġpolit":6836,"Ġtoughest":6837,"ĠExc":6838,"Ġedge":6839,"Ġsecondary":6840,"Ġlogo":6841,"Ġsensitive":6842,"Ġrelated":6843,"ĠCyber":6844,"ĠCycling":6845,"Orbit":6846,"ĠButt":6847,"Ġsheer":6848,"Ġconfigur":6849,"Ġdeadly":6850,"Ġexceptional":6851,"Ġcouncil":6852,"Ġpredic":6853,"Ġprediction":6854,"Ġjudic":6855,"Ġdamn":6856,"Ġstories":6857,"Ġpreventing":6858,"rench":6859,"shirt":6860,"Ġprofitable":6861,"Ġdegree":6862,"Ġtelemetry":6863,"ypse":6864,"Ġclarification":6865,"Ġcriticisms":6866,"ĠGeneral":6867,"Ġcurve":6868,"Ġenabling":6869,"ĠTechnically":6870,"Ġorgs":6871,"ĠBeyond":6872,"ĠEveryone":6873,"Ġthousand":6874,"Ġoccup":6875,"Ġharness":6876,"Ġinspiring":6877,"Ġestate":6878,"Ġindividuals":6879,"Exciting":6880,"Ġmaximum":6881,"Ġmaximize":6882,"Ġhydrogen":6883,"Ġconvinces":6884,"seller":6885,"Ġpedestrians":6886,"According":6887,"Ġfoolish":6888,"Ġlegislation":6889,"Article":6890,"Ġactuator":6891,"Ġdefeated":6892,"ructure":6893,"Ġtrippy":6894,"ĠOfficer":6895,"Ġgarage":6896,"Tomorrow":6897,"ĠFlint":6898,"Ġstrategy":6899,"Ġrumor":6900,"Ġinsertion":6901,"Ġuncertainty":6902,"Ġafternoon":6903,"Ġtobacco":6904,"Ġluggage":6905,"Ġgestures":6906,"ĠIridium":6907,"ĠMemor":6908,"Ġenroute":6909,"Ġautosequence":6910,"200":6911,"70":6912,"78":6913,"Call":6914,"Creating":6915,"Certainly":6916,"Ed":6917,"En":6918,"EPA":6919,"Grid":6920,"Heavy":6921,"Mer":6922,"Merry":6923,"Moving":6924,"NA":6925,"OE":6926,"Other":6927,"Pl":6928,"Sad":6929,"Slight":6930,"Sens":6931,"War":6932,"Wed":6933,"aign":6934,"aft":6935,"aution":6936,"book":6937,"cis":6938,"cur":6939,"count":6940,"de":6941,"ded":6942,"fric":6943,"gu":6944,"high":6945,"hours":6946,"hlee":6947,"hammer":6948,"kt":6949,"lenn":6950,"mo":6951,"min":6952,"och":6953,"ovie":6954,"pa":6955,"punk":6956,"rif":6957,"rich":6958,"same":6959,"too":6960,"uish":6961,"wing":6962,"Ġion":6963,"inj":6964,"Ġaverage":6965,"Ġsac":6966,"Ġsigh":6967,"Ġsouth":6968,"Ġwings":6969,"Ġwisdom":6970,"orch":6971,"orks":6972,"Ġbars":6973,"Ġcouple":6974,"Ġcabin":6975,"Ġfraud":6976,"oul":6977,"ouri":6978,"encies":6979,"Ġmix":6980,"Ġtoast":6981,"Ġpolar":6982,"Ġplast":6983,"Ġpsi":6984,"Ġdre":6985,"Ġdat":6986,"Ġdense":6987,"Ġdomain":6988,"Ġlol":6989,"Ġliter":6990,"Ġnames":6991,"eters":6992,"Ġgalactic":6993,"Ġrein":6994,"Ġreverse":6995,"ĠTarget":6996,"ĠTBC":6997,"ĠTwo":6998,"ĠSch":6999,"ĠSlack":7000,"ĠSpeed":7001,"Ġbear":7002,"Ġanomal":7003,"Ġearth":7004,"under":7005,"ches":7006,"Ġsock":7007,"Ġstri":7008,"usk":7009,"usic":7010,"ilogy":7011,"Ġrally":7012,"Ġrated":7013,"ĠCapit":7014,"Ġprod":7015,"Ġproper":7016,"Ġvict":7017,"Ġshd":7018,"Ġshift":7019,"ĠWant":7020,"Ġtrigger":7021,"Ġtrilogy":7022,"ulit":7023,"ounter":7024,"Ġexists":7025,"olving":7026,"ĠThird":7027,"ĠFit":7028,"ĠFuture":7029,"acebook":7030,"Ġjury":7031,"umes":7032,"ĠHor":7033,"Ġaborts":7034,"ĠNice":7035,"ĠNature":7036,"ĠDOE":7037,"ĠPort":7038,"Ġalar":7039,"Ġchutes":7040,"ĠEgg":7041,"ĠElon":7042,"Ġuna":7043,"ĠLanding":7044,"Ġkale":7045,"ĠGover":7046,"ĠGermany":7047,"ĠGeorge":7048,"ĠGlenn":7049,"ainment":7050,"osteer":7051,"Ġpreburn":7052,"Ġpls":7053,"Ġplot":7054,"ublic":7055,"Ġtaugh":7056,"ĠVTO":7057,"ccup":7058,"Ġleeward":7059,"Ġdesert":7060,"Ġspo":7061,"orses":7062,"ensing":7063,"Ġperman":7064,"Ġpartly":7065,"Ġpartial":7066,"wegian":7067,"Ġintention":7068,"Ġquant":7069,"ocurrency":7070,"gring":7071,"Ġreson":7072,"Ġserver":7073,"Ġinterse":7074,"ĠChanos":7075,"ressing":7076,"ressive":7077,"ometer":7078,"redit":7079,"Ġ...\"":7080,"ĠInc":7081,"licit":7082,"Storm":7083,"Strange":7084,"Strong":7085,"Ġfacts":7086,"Ġairplan":7087,"Ġregime":7088,"ago":7089,"ellow":7090,"Ġconser":7091,"ĠCanadian":7092,"Reading":7093,"Recovery":7094,"ventions":7095,"Ġmeds":7096,"Ġmedium":7097,"onda":7098,"Ġdifferences":7099,"olly":7100,"Ġcommitted":7101,"Ġdecided":7102,"Ġsalt":7103,"Ġownership":7104,"Ġregulations":7105,"Ġmovement":7106,"Ġflush":7107,"Ġbuildings":7108,"ĠUnfortunately":7109,"Ġdrift":7110,"ĠAmish":7111,"Doing":7112,"Ġredund":7113,"Ġdeeply":7114,"Ġdropping":7115,"Ġjokes":7116,"ĠDev":7117,"Ġcollapse":7118,"Ġsellers":7119,"Ġcombine":7120,"Ġreplies":7121,"Ġstored":7122,"Ġhistorical":7123,"ĠSecond":7124,"Ġpresident":7125,"Ġultimate":7126,"ĠNeeded":7127,"Ġsensor":7128,"Ġsunset":7129,"Ġrelatively":7130,"ĠNorwegian":7131,"Ġmeantime":7132,"Ġpurely":7133,"Ġfactories":7134,"Ġstronger":7135,"Ġhello":7136,"Ġcalendar":7137,"Ġoffered":7138,"Ġenvironments":7139,"ĠMostly":7140,"Ġdamaged":7141,"Ġreduced":7142,"ĠDogecoin":7143,"Ġtelep":7144,"Ġblows":7145,"ĠCouldn":7146,"Ġcounteract":7147,"Ġnavigate":7148,"Ġbusiness":7149,"Ġcows":7150,"Engines":7151,"Ġillust":7152,"Ġobjects":7153,"Ġessentially":7154,"ĠObama":7155,"Upcoming":7156,"Ġdemocratic":7157,"ĠDoesn":7158,"Ġturbopumps":7159,"Ġindependently":7160,"Ġoccur":7161,"Ġguarantee":7162,"ĠParadise":7163,"Ġcampaign":7164,"Ġwalls":7165,"ĠPCR":7166,"Deeply":7167,"Ġmeaningful":7168,"Ġfacility":7169,"Ġenemy":7170,"Ġsynch":7171,"Ġdollar":7172,"Ġlegisl":7173,"ĠPreparing":7174,"Supercharger":7175,"ĠAston":7176,"Ġresistance":7177,"Ġfuels":7178,"Thruster":7179,"ĠTalulah":7180,"ossibly":7181,"Ġenjoy":7182,"Ġinitiated":7183,"Easier":7184,"satellites":7185,"Ġsymbiosis":7186,"optim":7187,"Ġneutral":7188,"ĠBusiness":7189,"ĠCommissioner":7190,"Ahem":7191,"andoned":7192,"Ġinsanely":7193,"Ġclicks":7194,"Ġrecycling":7195,"frica":7196,"Ġplastic":7197,"ĠSlacker":7198,"Ġanomalies":7199,"ĠCapitol":7200,"Ġtaught":7201,"ĠVTOL":7202,"Ġairplanes":7203,"90":7204,"?\"\"\"":7205,"BQ":7206,"Baby":7207,"Black":7208,"Correct":7209,"DC":7210,"EA":7211,"End":7212,"FO":7213,"IS":7214,"Mr":7215,"Night":7216,"OS":7217,"Ship":7218,"Sha":7219,"TV":7220,"Tel":7221,"aic":7222,"bic":7223,"best":7224,"blowing":7225,"cap":7226,"days":7227,"ext":7228,"gan":7229,"gering":7230,"hand":7231,"iary":7232,"lines":7233,"mous":7234,"rite":7235,"rance":7236,"rding":7237,"rbur":7238,"speed":7239,"tal":7240,"yay":7241,"za":7242,"zes":7243,"zero":7244,"Ġx":7245,"Ġtied":7246,"iner":7247,"Ġaeros":7248,"Ġsudden":7249,"really":7250,"Ġthor":7251,"Ġbod":7252,"Ġbang":7253,"Ġbots":7254,"Ġcup":7255,"Ġcord":7256,"Ġcath":7257,"Ġfather":7258,"itas":7259,"anoid":7260,"ĠmT":7261,"Ġmkt":7262,"arah":7263,"Ġpun":7264,"Ġpsy":7265,"Ġops":7266,"Ġhits":7267,"Ġhidden":7268,"Ġhorses":7269,"stream":7270,"rost":7271,"Ġinver":7272,"Ġinduction":7273,"alax":7274,"icking":7275,"elds":7276,"Ġgend":7277,"ĠTw":7278,"ĠTest":7279,"oting":7280,"otely":7281,"otos":7282,"ĠSn":7283,"ĠSw":7284,"ĠSing":7285,"ĠSub":7286,"owea":7287,"Ġeyes":7288,"unds":7289,"iding":7290,"ctim":7291,"Ġyaw":7292,"Ġyrs":7293,"ĠMt":7294,"ĠMac":7295,"ĠMoon":7296,"allow":7297,"Ġstag":7298,"imated":7299,"ĠAfrica":7300,"ilan":7301,"Ġring":7302,"Ġrates":7303,"ĠCars":7304,"ĠClass":7305,"ĠCulture":7306,"Ġprove":7307,"Ġshops":7308,"ĠWaiting":7309,"Ġhaven":7310,"ulate":7311,"ĠThree":7312,"ĠFri":7313,"ĠFree":7314,"ĠFacebook":7315,"Ġdeck":7316,"Ġseas":7317,"ĠHuman":7318,"ĠHEPA":7319,"ĠBon":7320,"ĠBas":7321,"ĠBost":7322,"ĠBoth":7323,"ĠBTC":7324,"ĠNrbur":7325,"ĠDie":7326,"ĠDrag":7327,"ĠDick":7328,"ĠDifficult":7329,"ĠPun":7330,"ĠPors":7331,"Ġaltern":7332,"Ġloses":7333,"Ġlovely":7334,"Ġchea":7335,"Ġchief":7336,"quis":7337,"ĠEd":7338,"ĠEs":7339,"ĠEmp":7340,"ĠEasy":7341,"Ġunf":7342,"ĠLockheed":7343,"Ġcompar":7344,"astroph":7345,"ĠStep":7346,"Ġpocket":7347,"Ġnoon":7348,"Ġhighways":7349,"Ġplays":7350,"ĠUkraine":7351,"Ġoverse":7352,"Ġoverha":7353,"Ġoversight":7354,"ĠJim":7355,"atteries":7356,"Ġagreed":7357,"Ġamend":7358,"Ġrightly":7359,"Ġcontains":7360,"Ġknight":7361,"Ġknife":7362,"Ġfee":7363,"osal":7364,"Ġpermit":7365,"Ġpartially":7366,"Ġquotes":7367,"Ġrecover":7368,"oco":7369,"Ġboom":7370,"Ġexplicit":7371,"icked":7372,"ĠChrys":7373,"phob":7374,"Ġverb":7375,"Ġverify":7376,"Ġendurance":7377,"ĠAutobahn":7378,"ails":7379,"need":7380,"Ġ-&":7381,"erto":7382,"Ġstartups":7383,"Note":7384,"Ġsubst":7385,"reciate":7386,"Ġshowed":7387,"pector":7388,"Ġthroughput":7389,"Ġimages":7390,"Ġretire":7391,"Ġretract":7392,"Ġsupports":7393,"Ġobt":7394,"Ġobser":7395,"ĠNever":7396,"esearch":7397,"Ġsecured":7398,"Ġentrance":7399,"Ġcentury":7400,"ompeted":7401,"Ġservicing":7402,"Ġremotely":7403,"utional":7404,"Ġbrilliant":7405,"Ġpassive":7406,"Ġpassage":7407,"ĠRoyal":7408,"Ġimportantly":7409,"Ġinvas":7410,"Ġcontrols":7411,"Ġreviewing":7412,"Ġreviewed":7413,"Ġreply":7414,"Ġreporter":7415,"Ġmanual":7416,"Ġparanoid":7417,"Ġdeclin":7418,"Ġcourt":7419,"ilton":7420,"Ġvibe":7421,"Ġlocally":7422,"ouncement":7423,"ĠSoC":7424,"Ġsimpler":7425,"serve":7426,"Ġdiscounts":7427,"ĠUniv":7428,"Ġbuyer":7429,"Ġcredits":7430,"Ġstreams":7431,"Ġtrucks":7432,"Ġroofs":7433,"Ġblue":7434,"ĠDeus":7435,"Ġraises":7436,"Ġdistrib":7437,"urbo":7438,"Heard":7439,"Ġbarrel":7440,"cheduled":7441,"Ġgeneralized":7442,"Ġspeculation":7443,"Ġoptimal":7444,"Ġlargely":7445,"Ġmultiple":7446,"Ġconfirmation":7447,"Ġpurpose":7448,"Ġearn":7449,"Ġprotest":7450,"Ġfunctional":7451,"ribed":7452,"Ġbegins":7453,"Ġflows":7454,"Ġatmospheric":7455,"Ġshares":7456,"ception":7457,"Ġsources":7458,"nergy":7459,"Ġcatastroph":7460,"Ġperfectly":7461,"Ġexceptions":7462,"Ġfigured":7463,"ĠPhysics":7464,"Ġincludes":7465,"Ġcarrying":7466,"Under":7467,"ĠSpaceship":7468,"Ġpromote":7469,"proof":7470,"Ġpremi":7471,"aranteed":7472,"Ġuncompeted":7473,"Ġsquare":7474,"Ġkilled":7475,"Ġcontinuance":7476,"Ġcorporate":7477,"rsly":7478,"ĠCommittee":7479,"Ġconcerned":7480,"Ġscientific":7481,"Ġcrewed":7482,"Ġillusion":7483,"Ġexplained":7484,"Ġrails":7485,"Ġapplying":7486,"ĠRockets":7487,"Ġimpression":7488,"Ġenables":7489,"Between":7490,"Ġsplit":7491,"Ġreservation":7492,"Whoa":7493,"maker":7494,"Ġconstrained":7495,"onymous":7496,"Ġfictional":7497,"Ġhydrophob":7498,"Ġgigawatt":7499,"Ġelevators":7500,"Ġswitched":7501,"Ġshutdown":7502,"Ġheavier":7503,"Ġfacilities":7504,"ĠDidn":7505,"Ġlocked":7506,"ledgehammer":7507,"Needs":7508,"Ġsurprisingly":7509,"Ġdollars":7510,"ĠBritish":7511,"sequences":7512,"Ġabsurdly":7513,"Superchargers":7514,"Signing":7515,"Ġbuttons":7516,"Ġesthetic":7517,"Russia":7518,"Ġclosest":7519,"TSLA":7520,"Bloomberg":7521,"Ġrepeated":7522,"Ġinternally":7523,"Ġapocalypse":7524,"Ġdialog":7525,"ĠTurns":7526,"Ġstabilize":7527,"Ġpractical":7528,"Ġenergized":7529,"uisher":7530,"Ġticket":7531,"Ġextinguisher":7532,"Ġirrelevant":7533,"Ġantenna":7534,"Ġabsolute":7535,"Ġlobby":7536,"rdinger":7537,"Ġaerospace":7538,"Ġbodies":7539,"Ġcathode":7540,"alaxy":7541,"oweapon":7542,"ĠNrburgring":7543,"ĠPorsche":7544,"Ġoverhaul":7545,"ĠChrysler":7546,"Ġhydrophobic":7547,"!).":7548,"%,":7549,"):":7550,"+,":7551,"75":7552,"9000":7553,"AL":7554,"Bought":7555,"CNN":7556,"Credit":7557,"Euro":7558,"Extremely":7559,"Electric":7560,"FF":7561,"Fi":7562,"Fran":7563,"Flying":7564,"Giant":7565,"HW":7566,"LY":7567,"Later":7568,"Lots":7569,"Lov":7570,"Mis":7571,"Met":7572,"Mid":7573,"Mission":7574,"RI":7575,"Rel":7576,"Sam":7577,"Sometimes":7578,"Tunn":7579,"Times":7580,"Yep":7581,"aac":7582,"after":7583,"bet":7584,"based":7585,"dri":7586,"dies":7587,"eas":7588,"gar":7589,"hance":7590,"hock":7591,"ients":7592,"lar":7593,"lot":7594,"lol":7595,"long":7596,"lich":7597,"my":7598,"munds":7599,"rand":7600,"slo":7601,"uk":7602,"uerto":7603,"xic":7604,"yup":7605,"yard":7606,"Ġtar":7607,"Ġtile":7608,"inent":7609,"inated":7610,"inishing":7611,"Ġawe":7612,"Ġsan":7613,"Ġsats":7614,"Ġsick":7615,"Ġsonic":7616,"Ġselect":7617,"reh":7618,"Ġwine":7619,"Ġwider":7620,"esy":7621,"Ġbed":7622,"Ġbull":7623,"Ġbake":7624,"Ġbillions":7625,"Ġblast":7626,"atme":7627,"Ġcate":7628,"Ġcous":7629,"Ġcopper":7630,"Ġcards":7631,"Ġfish":7632,"isk":7633,"isin":7634,"ourage":7635,"iters":7636,"ened":7637,"anes":7638,"Ġms":7639,"Ġmad":7640,"Ġmall":7641,"Ġmand":7642,"arf":7643,"Ġpill":7644,"Ġpace":7645,"Ġoatme":7646,"Ġdust":7647,"Ġtheore":7648,"Ġlic":7649,"Ġlung":7650,"Ġhorn":7651,"stand":7652,"alty":7653,"mpting":7654,"icians":7655,"icago":7656,"ashing":7657,"Ġgather":7658,"Ġreel":7659,"uttal":7660,"ĠTil":7661,"ĠTrue":7662,"ĠTED":7663,"ott":7664,"othing":7665,"ĠSay":7666,"ĠSim":7667,"ĠSuch":7668,"ĠSounds":7669,"ĠScience":7670,"Ġbeam":7671,"Ġforced":7672,"illa":7673,"illerson":7674,"Ġeating":7675,"ĠIce":7676,"ĠMiss":7677,"Ġsole":7678,"Ġitems":7679,"Ġstowed":7680,"think":7681,"ĠAfter":7682,"ĠAmb":7683,"Ġwear":7684,"opark":7685,"Ġwhom":7686,"keys":7687,"Ġbutter":7688,"Ġcoaster":7689,"ĠCt":7690,"ĠCup":7691,"ĠCur":7692,"ĠCool":7693,"ĠCreating":7694,"ĠComments":7695,"Ġprohibit":7696,"urized":7697,"Ġvig":7698,"Ġshall":7699,"Ġshots":7700,"Ġshoes":7701,"ĠWork":7702,"abled":7703,"Ġenorm":7704,"sec":7705,"Ġdozen":7706,"Ġexamination":7707,"ĠThaic":7708,"Ġseam":7709,"ravity":7710,"raisin":7711,"Ġworried":7712,"ĠBuff":7713,"ournal":7714,"ĠNut":7715,"ĠDep":7716,"ĠDark":7717,"Ġalloy":7718,"ĠPuerto":7719,"Ġchassis":7720,"inecraft":7721,"quire":7722,"quiv":7723,"ĠEgy":7724,"ĠEnergy":7725,"ĠEFF":7726,"looking":7727,"eways":7728,"ĠLim":7729,"ĠLmk":7730,"ĠLTE":7731,"ĠRD":7732,"ĠRest":7733,"ĠRive":7734,"ĠRob":7735,"ĠRush":7736,"ĠRico":7737,"ĠkW":7738,"Ġkernel":7739,"ĠGreen":7740,"Ġcompl":7741,"astic":7742,"Ġusable":7743,"eme":7744,"Ġtears":7745,"Ġheatsh":7746,"ĠStud":7747,"Ġcancel":7748,"Ġimped":7749,"effect":7750,"ĠUs":7751,"ĠOS":7752,"ĠOh":7753,"ĠOslo":7754,"Ġlaunched":7755,"lights":7756,"argo":7757,"Ġworkers":7758,"Ġamong":7759,"Ġmonkeys":7760,"Ġcontext":7761,"Ġaccel":7762,"Ġknowing":7763,"Ġprinter":7764,"Ġartists":7765,"Ġhelo":7766,"Ġunderest":7767,"ĠChicago":7768,"Ġowned":7769,"ĠInconel":7770,"ĠInvestigating":7771,"Init":7772,"Ġfactors":7773,"Ġoffice":7774,"ĠAlready":7775,"Ġbuilds":7776,"ĠEarths":7777,"Ġdisabled":7778,"Ġscroll":7779,"Ġtransp":7780,"Ġconflic":7781,"Ġadvise":7782,"ixing":7783,"Ġclosing":7784,"Ġretains":7785,"wesom":7786,"ĠKoch":7787,"ĠWhats":7788,"Ġdonated":7789,"Ġbelts":7790,"ĠReveal":7791,"Ġbran":7792,"Ġincrement":7793,"Ġzomb":7794,"Ġrequirements":7795,"Ġposting":7796,"Ġtraject":7797,"lame":7798,"lamed":7799,"Ġreplic":7800,"ĠProb":7801,"Ġholders":7802,"Ġparaf":7803,"Ġcreator":7804,"Ġlimbic":7805,"Ġdecent":7806,"Ġdecides":7807,"prise":7808,"Short":7809,"Ġsimulations":7810,"Ġcompetitor":7811,"Forgot":7812,"Ġinstr":7813,"ĠStarman":7814,"class":7815,"Ġtemps":7816,"Ġtempting":7817,"Ġpriorities":7818,"Ġdisclo":7819,"otech":7820,"Ġstreaming":7821,"Ġhottest":7822,"egap":7823,"Ġsnake":7824,"ogs":7825,"ĠPowerpack":7826,"Asimov":7827,"Ġtargeted":7828,"Ġreaches":7829,"Ġolder":7830,"Ġinfrast":7831,"Ġsubscri":7832,"Ġmods":7833,"Ġreplied":7834,"Ġcontinent":7835,"Ġcontinues":7836,"Ġfollows":7837,"Ġflaming":7838,"Ġedited":7839,"Ġemission":7840,"Ġreceives":7841,"Ġrelent":7842,"Ġtrickery":7843,"Order":7844,"ĠIsaac":7845,"Ġpicking":7846,"Ġeconomies":7847,"Ġblocks":7848,"Ġdocked":7849,"Ġjudgment":7850,"ĠBrilliant":7851,"Ġpanel":7852,"ĠMachine":7853,"Ġlearning":7854,"Ġflare":7855,"Ġpatients":7856,"Death":7857,"Ġpromised":7858,"Ġdenying":7859,"Ġarrive":7860,"Ġassembled":7861,"Ġcontinuous":7862,"Ġtouchdown":7863,"Ġbugs":7864,"Ġhorsepower":7865,"Apparently":7866,"Ġaccounting":7867,"Ġimmediate":7868,"Ġpossibility":7869,"Ġsurprised":7870,"afe":7871,"Ġpainted":7872,"Ġcowbell":7873,"ĠDavid":7874,"Ġplants":7875,"Truth":7876,"ĠLoop":7877,"Ġtitle":7878,"strong":7879,"Ġinflatable":7880,"Ġrebuttal":7881,"Ġlawsuit":7882,"Ġhurts":7883,"Ġtuning":7884,"Ġoddly":7885,"ĠTechnology":7886,"Ġsequel":7887,"ĠEverything":7888,"Ġdrama":7889,"Biggest":7890,"Ġcasting":7891,"Ġbench":7892,"Ġencourage":7893,"ĠInspector":7894,"Ġhanging":7895,"Ġhangar":7896,"Ġterminals":7897,"ioshock":7898,"Ġstormy":7899,"Ġangels":7900,"ĠMinnesota":7901,"Ġgraphite":7902,"Ġtradem":7903,"Ġmechanical":7904,"Accurate":7905,"Similar":7906,"Ġmarkets":7907,"Ġmissile":7908,"Ġdrawing":7909,"ĠCorrell":7910,"Screen":7911,"Ġmirror":7912,"Ġpneumatics":7913,"Ġnaturally":7914,"Ġesthet":7915,"Ġsimplify":7916,"Ġemployee":7917,"Ġemployees":7918,"Ġvariants":7919,"stein":7920,"ĠIntense":7921,"ĠMerc":7922,"Ġwerent":7923,"Ġcandid":7924,"ĠSAE":7925,"Ġiteration":7926,"Walked":7927,"Ġviruses":7928,"Ġvaccines":7929,"Ġmaneuver":7930,"Ġcolony":7931,"Ġrenewable":7932,"Ġbottom":7933,"itudinal":7934,"ĠSecret":7935,"Ġexclusive":7936,"Ġcompensate":7937,"Ġuhh":7938,"ĠContin":7939,"wynne":7940,"Ġlbf":7941,"Ġentertaining":7942,"Ġremoved":7943,"Drone":7944,"Ġcoincidence":7945,"Ġunequiv":7946,"ĠRemind":7947,"Ġwifi":7948,"Ġdiap":7949,"ĠRoadsters":7950,"ographic":7951,"ĠCyberpunk":7952,"Ġillustrate":7953,"Ġdistribution":7954,"Tunnels":7955,"beta":7956,"diesel":7957,"Ġsanctim":7958,"Ġoatmeal":7959,"ĠTilburg":7960,"ĠAmbien":7961,"Ġenormous":7962,"ĠThaicom":7963,"ĠEgypt":7964,"ĠRushmore":7965,"Ġheatshield":7966,"effective":7967,"Ġtrajectory":7968,"Ġparafoil":7969,"Ġinfrastructure":7970,"Ġsubscription":7971,"150":7972,"750":7973,"7500":7974,"Be":7975,"Bit":7976,"BFR":7977,"Besides":7978,"Bioshock":7979,"CH":7980,"Close":7981,"Due":7982,"Detail":7983,"Fear":7984,"Fund":7985,"God":7986,"Gary":7987,"Hex":7988,"Hope":7989,"Ign":7990,"Lets":7991,"Look":7992,"Med":7993,"North":7994,"Nav":7995,"Out":7996,"PC":7997,"Plan":7998,"System":7999,"Top":8000,"Tap":8001,"Wanted":8002,"Yo":8003,"ao":8004,"aire":8005,"auc":8006,"big":8007,"bust":8008,"gers":8009,"hol":8010,"ij":8011,"ki":8012,"lands":8013,"map":8014,"nage":8015,"oked":8016,"ossil":8017,"po":8018,"right":8019,"rason":8020,"taken":8021,"uh":8022,"uations":8023,"vit":8024,"vet":8025,"Ġing":8026,"Ġtreat":8027,"Ġtether":8028,"Ġtune":8029,"Ġtrees":8030,"information":8031,"Ġaka":8032,"Ġsle":8033,"Ġsledgehammer":8034,"Ġwire":8035,"Ġwins":8036,"esus":8037,"Ġbac":8038,"Ġbla":8039,"Ġbol":8040,"Ġbore":8041,"Ġbub":8042,"Ġbored":8043,"Ġborder":8044,"Ġcd":8045,"Ġcam":8046,"Ġcert":8047,"Ġfinger":8048,"ouder":8049,"Ġmamm":8050,"Ġpucker":8051,"Ġpairs":8052,"Ġdim":8053,"Ġlions":8054,"Ġlouder":8055,"Ġhoney":8056,"Ġinher":8057,"ales":8058,"elming":8059,"Ġgaps":8060,"Ġgirl":8061,"Ġreveal":8062,"utal":8063,"ĠTay":8064,"ĠTree":8065,"ĠTook":8066,"ĠTruck":8067,"ĠTotally":8068,"oters":8069,"ĠSy":8070,"ĠSher":8071,"ĠSending":8072,"ĠSometimes":8073,"ĠSeeing":8074,"lymp":8075,"ayed":8076,"change":8077,"ĠMN":8078,"ĠMed":8079,"ĠMet":8080,"ĠMob":8081,"ĠMountain":8082,"ĠMovie":8083,"Ġsociety":8084,"Ġstats":8085,"Ġstole":8086,"Ġstaged":8087,"opolies":8088,"using":8089,"amine":8090,"Ġruled":8091,"Ġcov":8092,"ĠCR":8093,"ĠCam":8094,"ĠComing":8095,"ĠCPU":8096,"Ġproven":8097,"Third":8098,"ĠWind":8099,"ĠWang":8100,"Ġhazard":8101,"ureauc":8102,"Ġnotes":8103,"Ġexha":8104,"Ġexiting":8105,"olist":8106,"ĠFrom":8107,"ĠFully":8108,"ĠFran":8109,"Ġjet":8110,"Ġconne":8111,"Ġconvey":8112,"ĠHH":8113,"ĠHAL":8114,"ĠBeing":8115,"ĠBeaut":8116,"ĠNational":8117,"ĠData":8118,"ĠDepends":8119,"ĠPot":8120,"ĠPink":8121,"pposite":8122,"Ġchann":8123,"ips":8124,"ques":8125,"ĠEither":8126,"ĠEST":8127,"Ġunable":8128,"Ġunreal":8129,"Ġunique":8130,"ĠLight":8131,"ĠLEO":8132,"ĠRow":8133,"ĠRom":8134,"ĠRoof":8135,"Ġupset":8136,"arts":8137,"ĠGiven":8138,"aints":8139,"apore":8140,"endent":8141,"Ġprev":8142,"Ġcancell":8143,"Ġplenty":8144,"igned":8145,"ĠUm":8146,"Ġoverb":8147,"Ġoverload":8148,"Ġengaged":8149,"ĠJam":8150,"ĠJesus":8151,"Ġbud":8152,"ĠVast":8153,"ĠVader":8154,"eps":8155,"Ġsomeones":8156,"Ġapparently":8157,"ĠTheir":8158,"Ġdrivet":8159,"Ġknock":8160,"Ġwhose":8161,"weets":8162,"Ġautosteer":8163,"Ġsmarter":8164,"Ġboats":8165,"rows":8166,"Ġserved":8167,"Ġknowledge":8168,"Ġafterwards":8169,"ishes":8170,"Ġunderwear":8171,"ĠSuperintelligence":8172,"Ins":8173,"Starting":8174,"Ġregional":8175,"Ġhelped":8176,"ĠAlways":8177,"Ġscorch":8178,"Ġtransmission":8179,"Ġdefend":8180,"Ġsuff":8181,"ronic":8182,"plus":8183,"Ġphr":8184,"Ġconfined":8185,"Ġconsensus":8186,"Ġrequesting":8187,"Ġsupported":8188,"Ġsupportive":8189,"eroid":8190,"Reasons":8191,"Ġindirect":8192,"Ġpublications":8193,"ermal":8194,"Ġmassively":8195,"Ġentering":8196,"ĠRec":8197,"Ġupgrading":8198,"Ġbranding":8199,"Ġbrutal":8200,"Ġpaywall":8201,"Ġsteer":8202,"Ġwherever":8203,"ĠYelp":8204,"Ġtunneling":8205,"Ġrefuel":8206,"Ġrefilling":8207,"ĠProject":8208,"jected":8209,"Ġholder":8210,"Ġdetection":8211,"Ġbasis":8212,"Ġdecline":8213,"while":8214,"whelming":8215,"tempting":8216,"ĠNewton":8217,"ĠHeart":8218,"Ġfeelings":8219,"Ġregularly":8220,"ĠSociety":8221,"seriously":8222,"Ġfluct":8223,"Ġrecommendation":8224,"Ġvacation":8225,"Ġautomation":8226,"linear":8227,"Ġrestrict":8228,"Ġviewed":8229,"Ġgrain":8230,"ĠDeath":8231,"Ġequity":8232,"Ġequival":8233,"Ġfried":8234,"Precis":8235,"Ġpodcast":8236,"Theyre":8237,"Ġexistential":8238,"ĠAshlee":8239,"Ġcauseway":8240,"Ġtougher":8241,"Ġfoundry":8242,"Ġultrason":8243,"ĠExactly":8244,"Ġearnings":8245,"ĠArm":8246,"ĠArs":8247,"Ġfiled":8248,"Ġsunlight":8249,"Ġsuggested":8250,"zzy":8251,"Ġmerits":8252,"Ġargue":8253,"ĠCovid":8254,"Ġgeological":8255,"Ġmultiplanet":8256,"Ġleads":8257,"Ġpotat":8258,"Several":8259,"Impro":8260,"Impressive":8261,"Ġaffordability":8262,"Ġmessage":8263,"ĠBring":8264,"Ġlabeling":8265,"Ġreferral":8266,"ĠPhil":8267,"ĠPhotos":8268,"Ġsubsidy":8269,"Ġadjusted":8270,"Ġconnects":8271,"Ġjournalist":8272,"ĠSerb":8273,"ĠImpact":8274,"Ġvarious":8275,"ĠLotus":8276,"Ġventing":8277,"Starhopper":8278,"afety":8279,"Ġcryogen":8280,"ĠJohnson":8281,"Ġcowboy":8282,"Complet":8283,"ĠGoal":8284,"Ġretrofit":8285,"Ġastronom":8286,"Ġcircum":8287,"Ġbikes":8288,"Ġwalks":8289,"ĠMartian":8290,"Ġsilence":8291,"Ġminimizing":8292,"Beta":8293,"ĠTechnica":8294,"Ġreserved":8295,"Ġapproximation":8296,"Ġefforts":8297,"Ġunlike":8298,"Ġconstraints":8299,"odspeed":8300,"ĠSteve":8301,"ĠChristie":8302,"Ġrendering":8303,"Ġcomfortable":8304,"Doesn":8305,"Ġgigantic":8306,"Ġrotation":8307,"Feb":8308,"Ġdownloading":8309,"Ġangles":8310,"celand":8311,"Ġpulling":8312,"Ġdynamically":8313,"Ġsurrounded":8314,"ĠActually":8315,"ĠHerbert":8316,"Ġspeaker":8317,"Ġdeparted":8318,"Ġemojis":8319,"Ġsquirrels":8320,"Leasing":8321,"ricky":8322,"Ġrefinement":8323,"Ġrefinements":8324,"changed":8325,"Ġdescribing":8326,"Ġdescribed":8327,"Ġdestroyed":8328,"Ġmaligned":8329,"Ġclosely":8330,"cluding":8331,"Putting":8332,"Astronauts":8333,"Ġthermometer":8334,"Ġevolving":8335,"Basic":8336,"Ġpaper":8337,"Ġtrailers":8338,"ĠElise":8339,"Ġendorsements":8340,"Ġexperienced":8341,"called":8342,"Ġdoomed":8343,"Ġchemical":8344,"Ġepisode":8345,"Ġpuppet":8346,"Ġtaxpayer":8347,"Ġvaluable":8348,"Ġrobotaxi":8349,"Ġcitizen":8350,"Ġbreathe":8351,"Ġpositives":8352,"Ġmanufacturers":8353,"Small":8354,"assembly":8355,"Ġoriginally":8356,"Ġtelescoping":8357,"ĠReno":8358,"Ġscenar":8359,"Ġparameters":8360,"ĠExciting":8361,"Sensible":8362,"country":8363,"Ġdatab":8364,"ĠSchrdinger":8365,"ĠHoriz":8366,"ĠGovernor":8367,"ĠIncredibly":8368,"Ġteleport":8369,"Ġcomparable":8370,"ĠStephen":8371,"Ġdialogue":8372,"Lovely":8373,"rehensive":8374,"Ġbullet":8375,"Ġmandate":8376,"Ġtheoretical":8377,"Ġlicensing":8378,"Ġseamlessly":8379,"ĠBuffett":8380,"Ġinstrument":8381,"Ġborescope":8382,"Ġexhaust":8383,"ĠBeauty":8384,"ĠPinker":8385,"Ġdrivetrain":8386,"Ġfluctuations":8387,"Ġequivalent":8388,"Precisely":8389,"\"...":8390,"*,":8391,"16":8392,"39":8393,"380":8394,"550":8395,"AF":8396,"AT":8397,"Add":8398,"Bo":8399,"Bel":8400,"Base":8401,"Cal":8402,"Cause":8403,"Del":8404,"Droneship":8405,"ES":8406,"El":8407,"Ext":8408,"Fun":8409,"Fate":8410,"Future":8411,"Frank":8412,"Gas":8413,"Hang":8414,"IT":8415,"Letter":8416,"Make":8417,"Non":8418,"None":8419,"Pay":8420,"Ra":8421,"Roc":8422,"SS":8423,"Simp":8424,"Sarah":8425,"TH":8426,"Too":8427,"Told":8428,"Touch":8429,"Tube":8430,"UN":8431,"UAW":8432,"Umm":8433,"Upper":8434,"Wr":8435,"Watch":8436,"ael":8437,"bra":8438,"bound":8439,"before":8440,"cra":8441,"correct":8442,"far":8443,"fire":8444,"gas":8445,"giving":8446,"hard":8447,"hicle":8448,"ioweapon":8449,"iFi":8450,"kind":8451,"kins":8452,"list":8453,"mare":8454,"oz":8455,"oft":8456,"pri":8457,"piring":8458,"rative":8459,"sm":8460,"sid":8461,"ship":8462,"size":8463,"sives":8464,"tot":8465,"turn":8466,"tronic":8467,"vance":8468,"volut":8469,"your":8470,"zer":8471,"Ġum":8472,"Ġted":8473,"Ġtub":8474,"Ġtint":8475,"Ġtorn":8476,"incess":8477,"Ġast":8478,"onious":8479,"onav":8480,"Ġsir":8481,"Ġsites":8482,"Ġsorts":8483,"Ġsides":8484,"reaming":8485,"especially":8486,"oral":8487,"ories":8488,"orporate":8489,"Ġber":8490,"Ġble":8491,"Ġboun":8492,"Ġbare":8493,"Ġbrag":8494,"Ġbatt":8495,"Ġbureauc":8496,"atri":8497,"Ġcig":8498,"Ġcrow":8499,"Ġfant":8500,"Ġfrag":8501,"ouis":8502,"ouched":8503,"ita":8504,"Ġmas":8505,"Ġmature":8506,"Ġmouth":8507,"Ġmarks":8508,"Ġtoy":8509,"Ġpe":8510,"Ġpays":8511,"Ġpets":8512,"Ġdow":8513,"Ġdancing":8514,"edge":8515,"Ġlunch":8516,"Ġlang":8517,"Ġlake":8518,"Ġlanes":8519,"Ġhi":8520,"Ġhal":8521,"Ġhom":8522,"Ġhacked":8523,"Ġhalt":8524,"Ġhosting":8525,"star":8526,"state":8527,"stone":8528,"rol":8529,"Ġinject":8530,"aling":8531,"alue":8532,"Ġnull":8533,"etitive":8534,"Ġgall":8535,"Ġgift":8536,"Ġglove":8537,"acitors":8538,"Ġrent":8539,"Ġreward":8540,"utur":8541,"ĠTough":8542,"ĠTerm":8543,"ĠTweets":8544,"ĠSK":8545,"ĠSingle":8546,"Ġbell":8547,"Ġbegging":8548,"Ġanec":8549,"amped":8550,"ĠIll":8551,"odd":8552,"oded":8553,"Ġya":8554,"Ġyard":8555,"add":8556,"ĠMich":8557,"ĠMaster":8558,"ĠMegap":8559,"Ġitem":8560,"Ġstd":8561,"Ġstated":8562,"imary":8563,"there":8564,"ĠAv":8565,"Ġwearing":8566,"ilos":8567,"Ġneck":8568,"Ġrude":8569,"ĠCall":8570,"Ġvul":8571,"Ġshop":8572,"Ġshade":8573,"Ġshaft":8574,"ĠWings":8575,"ĠWiFi":8576,"Ġtrash":8577,"Ġtrading":8578,"Ġenhanced":8579,"ulse":8580,"ulpt":8581,"ulators":8582,"Ġrover":8583,"Ġrose":8584,"Ġexchange":8585,"ĠThought":8586,"ĠFB":8587,"ĠFar":8588,"ĠFool":8589,"ĠFear":8590,"ĠFrench":8591,"Ġseated":8592,"uments":8593,"Ġconver":8594,"ĠHP":8595,"ĠHit":8596,"ĠHitch":8597,"ĠHelp":8598,"ĠBBQ":8599,"ĠNob":8600,"ĠNana":8601,"ĠNTS":8602,"ĠDone":8603,"ĠDroneship":8604,"Ġalloys":8605,"ĠPol":8606,"ĠPost":8607,"Ġloops":8608,"ĠLast":8609,"ĠLive":8610,"ĠLouis":8611,"ĠRange":8612,"ĠRele":8613,"ĠGames":8614,"ĠGirl":8615,"ĠGarf":8616,"Ġcomplic":8617,"ssentially":8618,"aret":8619,"important":8620,"istant":8621,"connect":8622,"Ġtimel":8623,"Ġoutstanding":8624,"Ġpreorders":8625,"ĠStay":8626,"ĠStars":8627,"Ġcomic":8628,"Ġnobody":8629,"Ġhasnt":8630,"Ġplug":8631,"Ġplacing":8632,"ntown":8633,"ĠUsed":8634,"ĠUFO":8635,"Ġoverhead":8636,"Ġoverpress":8637,"Ġoverwhelming":8638,"soft":8639,"arglass":8640,"ĠVoice":8641,"Ġtherefore":8642,"udge":8643,"inding":8644,"Ġtheyd":8645,"owner":8646,"intin":8647,"ached":8648,"achell":8649,"heres":8650,"Ġspring":8651,"Ġyours":8652,"Ġfeet":8653,"Ġpercent":8654,"Except":8655,"velength":8656,"Ġspeech":8657,"Ġrecap":8658,"ĠWeve":8659,"Ġaccur":8660,"Ġboss":8661,"mostly":8662,"Ġinterventions":8663,"Ġdesigning":8664,"angers":8665,"angely":8666,"Ġcru":8667,"Ġcrater":8668,"yscra":8669,"physics":8670,"Inf":8671,"Stud":8672,"Static":8673,"Ġoffset":8674,"Ġdelight":8675,"Ġaddition":8676,"Ġadditional":8677,"Ġregimes":8678,"agon":8679,"cedes":8680,"near":8681,"Ġscene":8682,"Ġsculpt":8683,"place":8684,"plane":8685,"Ġphased":8686,"Ġsubway":8687,"Ġconsist":8688,"azon":8689,"Ġfireball":8690,"ĠKev":8691,"eroids":8692,"Ġattacks":8693,"Problem":8694,"Ġindisting":8695,"Ġgenerators":8696,"Ġcounted":8697,"Ġmetro":8698,"Ġleaked":8699,"ĠReg":8700,"Ġapproaching":8701,"Ġappropri":8702,"Ġopenly":8703,"Ġmedical":8704,"Ġzillion":8705,"Ġpaying":8706,"Ġpayment":8707,"Ġcapita":8708,"Ġskyscra":8709,"Ġprizes":8710,"onding":8711,"Ġsteady":8712,"ollower":8713,"Ġseemed":8714,"Ġlooked":8715,"cession":8716,"Ġfixes":8717,"Ġkept":8718,"Ġrefers":8719,"Ġrepaid":8720,"Ġmanually":8721,"Ġcares":8722,"Ġnightmare":8723,"primarily":8724,"Ġheadlines":8725,"ĠDoing":8726,"ĠHeaded":8727,"Ġapolog":8728,"Ġregulator":8729,"clude":8730,"Ġpriorit":8731,"ĠUnivers":8732,"Ġfinds":8733,"Ġdeployable":8734,"Ġexpecting":8735,"Ġdrink":8736,"Ġtrucking":8737,"ĠAmazon":8738,"Dojo":8739,"Ġradi":8740,"ĠQu":8741,"Ġreddit":8742,"ĠNYC":8743,"Ġsnugg":8744,"eeze":8745,"Ġblown":8746,"ĠEuropa":8747,"Ġformally":8748,"Hey":8749,"Ġbarrier":8750,"Ġslowed":8751,"Ġoptimize":8752,"icularly":8753,"Ġruns":8754,"Ġcorrecting":8755,"Ġcorrectly":8756,"ĠWouldn":8757,"Ġmagical":8758,"ĠSeveral":8759,"Ġflew":8760,"Ġunderstands":8761,"Ġprecaution":8762,"Attempting":8763,"Ġtells":8764,"Ġedit":8765,"Ġeduc":8766,"Neuralink":8767,"Ġtransporting":8768,"Highly":8769,"Ġsheep":8770,"unkel":8771,"Ġconfiguration":8772,"ĠCOPV":8773,"ĠPerhaps":8774,"Ġmanufacture":8775,"rolled":8776,"Ġlistening":8777,"Ġsongs":8778,"oker":8779,"Ġfiguring":8780,"iki":8781,"Ġreferred":8782,"Ġadjusts":8783,"Ġignite":8784,"Ġprocesses":8785,"ĠAdjusting":8786,"Ġconnector":8787,"Ġtowing":8788,"Ġtowel":8789,"Ġtowers":8790,"Ġuncover":8791,"Ġsqueeze":8792,"Ġprofound":8793,"Ġcontracts":8794,"ĠJapanese":8795,"Ġcontinued":8796,"Appreciate":8797,"Ġholes":8798,"Trans":8799,"Ġfighting":8800,"Ġexplains":8801,"Ġobjective":8802,"Ġcircuit":8803,"ĠPlum":8804,"Ġarguing":8805,"Ġbiological":8806,"Ġweapon":8807,"Ġimpressed":8808,"Ġpaths":8809,"Ġrebate":8810,"ĠBrook":8811,"iffs":8812,"Ġcorners":8813,"ĠAnything":8814,"Ġreserve":8815,"Everyone":8816,"ĠTrump":8817,"ĠHardcore":8818,"Ġcontribute":8819,"ĠShortville":8820,"Ġharm":8821,"ĠApart":8822,"abilities":8823,"Ġestab":8824,"ĠInsta":8825,"Ġdiscussions":8826,"Trying":8827,"Ġcamping":8828,"ĠTuesday":8829,"Ġquieter":8830,"Ġrecalls":8831,"Ġprinted":8832,"Ġholidays":8833,"Background":8834,"Ġrandomly":8835,"ravitas":8836,"Ġfinancial":8837,"Ġcookie":8838,"Ġconvenience":8839,"Ġresearchers":8840,"Ġcryptocurrency":8841,"ĠWestworld":8842,"effic":8843,"Ġgradually":8844,"Engineers":8845,"Simulations":8846,"subsid":8847,"Ġtrolls":8848,"Ġrevolutionary":8849,"Ġinterests":8850,"Ġexplosives":8851,"Ġskills":8852,"door":8853,"Ġcorrections":8854,"Ġcorresp":8855,"launched":8856,"Ġpneumatic":8857,"Ġnatural":8858,"ĠIrony":8859,"Ġprosper":8860,"ĠBloomberg":8861,"ĠPrincess":8862,"Ġadmired":8863,"Increasing":8864,"Ġcultural":8865,"Ġfuzzy":8866,"Ġexcessive":8867,"cludes":8868,"Ġconveniently":8869,"Ġmillise":8870,"Ġlucky":8871,"Ġattached":8872,"Ġjunkyard":8873,"Ġsorted":8874,"ĠSolarglass":8875,"Ġresponsible":8876,"Ġreflective":8877,"Ġorganization":8878,"Ġopportunity":8879,"Ġopportunities":8880,"Ġcopy":8881,"Ġpiston":8882,"Ġtrivia":8883,"ĠDefense":8884,"Obviously":8885,"Ġtastes":8886,"ĠFranklin":8887,"Ġinfluence":8888,"Ġwavelength":8889,"ĠTravel":8890,"ĠInterplanetary":8891,"Promising":8892,"password":8893,"Ġpredicting":8894,"Ġoccupant":8895,"uishable":8896,"ccupy":8897,"Ġpuny":8898,"Ġinverter":8899,"Ġstaggering":8900,"Ġamendment":8901,"Ġcatastrophic":8902,"Ġpremiere":8903,"Europe":8904,"Ġbranch":8905,"Ġemissions":8906,"Ġtrademark":8907,"Ġesthetics":8908,"Ġcandidate":8909,"Ġdiapers":8910,"ĠMedtronic":8911,"Ġchannels":8912,"linearities":8913,"ĠSerbia":8914,"Ġcryogenic":8915,"Rococo":8916,"Simple":8917,"volutions":8918,"Ġtubes":8919,"Ġbouncy":8920,"Ġdowntown":8921,"Ġlangu":8922,"Ġhalves":8923,"Ġanecd":8924,"ilosoph":8925,"Ġvulner":8926,"ĠNTSB":8927,"ĠGarfunkel":8928,"Ġoverpressure":8929,"achella":8930,"ĠKevlar":8931,"Ġindistinguishable":8932,"Ġskyscraper":8933,"Ġprecautionary":8934,"'ll":8935,")!":8936,"2000":8937,";$":8938,"Ass":8939,"Alex":8940,"BT":8941,"Bu":8942,"Building":8943,"CR":8944,"Cut":8945,"Come":8946,"Cost":8947,"CIS":8948,"Dis":8949,"Dune":8950,"ER":8951,"Ent":8952,"Early":8953,"Elon":8954,"Fro":8955,"Fri":8956,"Form":8957,"Flam":8958,"Fairing":8959,"Finishing":8960,"Gave":8961,"GBT":8962,"Her":8963,"Hmm":8964,"Honored":8965,"Kanye":8966,"LI":8967,"List":8968,"Lord":8969,"Lying":8970,"MM":8971,"MT":8972,"May":8973,"Nu":8974,"Net":8975,"Offic":8976,"Post":8977,"Pics":8978,"Possibly":8979,"RR":8980,"Ren":8981,"Rele":8982,"Sk":8983,"Spe":8984,"Spl":8985,"Science":8986,"Scientists":8987,"Test":8988,"Tues":8989,"Var":8990,"Went":8991,"Wont":8992,"Yum":8993,"aine":8994,"awesome":8995,"agram":8996,"aired":8997,"aque":8998,"backs":8999,"cou":9000,"cut":9001,"da":9002,"dem":9003,"def":9004,"definitely":9005,"design":9006,"eal":9007,"emp":9008,"ehicle":9009,"fy":9010,"gs":9011,"henge":9012,"ila":9013,"iest":9014,"iber":9015,"late":9016,"mal":9017,"mod":9018,"might":9019,"mark":9020,"max":9021,"meme":9022,"nice":9023,"nos":9024,"netic":9025,"pul":9026,"pone":9027,"rad":9028,"rated":9029,"sha":9030,"suring":9031,"tra":9032,"tower":9033,"truck":9034,"uj":9035,"uys":9036,"uzzle":9037,"vies":9038,"vanced":9039,"wr":9040,"Ġ|":9041,"Ġ!!":9042,"Ġumm":9043,"Ġumb":9044,"Ġulit":9045,"Ġti":9046,"Ġtend":9047,"Ġtaps":9048,"Ġtyp":9049,"Ġtreating":9050,"Ġawesom":9051,"era":9052,"erated":9053,"erved":9054,"erbal":9055,"ona":9056,"Ġsen":9057,"Ġsue":9058,"Ġsport":9059,"Ġsled":9060,"rely":9061,"rella":9062,"Ġwid":9063,"Ġbesides":9064,"aters":9065,"Ġcumulative":9066,"Ġfate":9067,"oured":9068,"itur":9069,"enal":9070,"anage":9071,"anna":9072,"Ġmm":9073,"Ġmouse":9074,"Ġmush":9075,"Ġtoil":9076,"Ġpix":9077,"Ġpuzzle":9078,"Ġdign":9079,"Ġdirt":9080,"Ġdusk":9081,"Ġla":9082,"Ġlatch":9083,"Ġlets":9084,"Ġluc":9085,"storm":9086,"roat":9087,"roid":9088,"roach":9089,"rooms":9090,"Ġinner":9091,"Ġinconel":9092,"icip":9093,"etts":9094,"Ġglo":9095,"Ġglor":9096,"Ġgrown":9097,"igated":9098,"uters":9099,"utive":9100,"ĠTwit":9101,"ĠTax":9102,"ĠTweet":9103,"ĠSure":9104,"ĠSimp":9105,"ĠScient":9106,"ĠSandy":9107,"lyss":9108,"ampos":9109,"ampoline":9110,"Ġeast":9111,"Ġevolution":9112,"unar":9113,"idents":9114,"ĠIl":9115,"ĠIrel":9116,"ĠIceland":9117,"Ġyoke":9118,"ado":9119,"adily":9120,"ĠMoo":9121,"ĠMult":9122,"ĠMoth":9123,"ĠMicro":9124,"ĠMoses":9125,"Ġsorely":9126,"Ġstrain":9127,"Ġstiff":9128,"Ġstupid":9129,"Ġsticking":9130,"ĠAcc":9131,"ĠAdd":9132,"ĠAGI":9133,"ĠAlyss":9134,"irical":9135,"opian":9136,"usetts":9137,"iler":9138,"ilies":9139,"ilisk":9140,"Ġrink":9141,"Ġranging":9142,"ĠCovered":9143,"ĠCampos":9144,"Ġprox":9145,"arse":9146,"Ġshr":9147,"Ġshes":9148,"Ġshill":9149,"Ġshad":9150,"Ġshifts":9151,"ĠWars":9152,"Ġtragic":9153,"Ġtrampoline":9154,"Ġmovies":9155,"Ġenforce":9156,"Ġenhance":9157,"Ġensuring":9158,"Ġdoc":9159,"Ġorph":9160,"geon":9161,"Ġroot":9162,"Ġexits":9163,"ĠFP":9164,"ĠFi":9165,"ĠFact":9166,"ĠFront":9167,"ĠFrost":9168,"Ġseater":9169,"umber":9170,"Ġlivest":9171,"Ġconcept":9172,"Ġconference":9173,"Ġconsequences":9174,"ria":9175,"ĠHo":9176,"ĠBO":9177,"ĠBank":9178,"ĠBreak":9179,"ĠBorders":9180,"ĠBuy":9181,"ĠBuilding":9182,"pears":9183,"ĠNC":9184,"ĠNO":9185,"ĠNV":9186,"ĠNight":9187,"ĠNuys":9188,"ĠDys":9189,"ĠDual":9190,"ĠDoubt":9191,"Ġalleg":9192,"ĠPat":9193,"ĠPut":9194,"ĠPong":9195,"ĠPark":9196,"ĠPrav":9197,"inem":9198,"ipl":9199,"quila":9200,"Ġunusually":9201,"loor":9202,"ĠLeg":9203,"ĠLots":9204,"ĠGA":9205,"ĠGiant":9206,"ĠGlad":9207,"ĠGTO":9208,"ĠGhost":9209,"ĠGravity":9210,"Ġcarrier":9211,"kings":9212,"impact":9213,"Ġjustify":9214,"Ġoutlet":9215,"mented":9216,"ĠStates":9217,"ĠStarted":9218,"Ġcomedy":9219,"Ġimply":9220,"Ġpool":9221,"Ġpoison":9222,"Ġadult":9223,"ĠUK":9224,"Ġproducing":9225,"ĠOper":9226,"ĠOff":9227,"ĠOpen":9228,"ĠOdds":9229,"ĠOpposite":9230,"ĠOCIS":9231,"Ġoverla":9232,"Ġovercome":9233,"Ġovercoming":9234,"ĠJack":9235,"ĠVlad":9236,"Ġappoint":9237,"ricane":9238,"achusetts":9239,"Ġcontempt":9240,"Ġsolves":9241,"Ġlongitudinal":9242,"ounting":9243,"Ġspeaking":9244,"Ġintact":9245,"Ġmonthly":9246,"Ġrecess":9247,"Ġbacked":9248,"ĠWeird":9249,"Ġsmash":9250,"Ġmined":9251,"Ġbooms":9252,"Ġprone":9253,"ished":9254,"Ġexpense":9255,"Ġunderp":9256,"Ġcrack":9257,"ĠChris":9258,"ĠSuperDraco":9259,"redict":9260,"Ġ...(":9261,"Ġlifts":9262,"Ġsuperintelligence":9263,"Ġending":9264,"ĠAutom":9265,"Ġpublishing":9266,"Ġdelicious":9267,"Ġcostly":9268,"Ġadds":9269,"aging":9270,"agers":9271,"Ġgrace":9272,"Ġgrind":9273,"ĠAltitude":9274,"Ġdisruption":9275,"Ġdefault":9276,"Ġshortage":9277,"Ġconfused":9278,"Ġconsistent":9279,"azz":9280,"Ġshowers":9281,"Ġbecame":9282,"ĠKanye":9283,"ĠKCR":9284,"Ġattest":9285,"Ġattend":9286,"obv":9287,"Real":9288,"Ġindex":9289,"Ġguest":9290,"Ġguardians":9291,"ĠShe":9292,"ĠShop":9293,"Ġappreciative":9294,"Ġdepressing":9295,"Ġcontrovers":9296,"Ġcooled":9297,"opez":9298,"ĠReality":9299,"Ġhourly":9300,"Ġremoving":9301,"Ġpasses":9302,"Ġtalents":9303,"asonic":9304,"Ġannounced":9305,"Ġcapabilities":9306,"Ġrequirement":9307,"Ġpostpone":9308,"Ġinvite":9309,"earning":9310,"iteracy":9311,"Ġsteadily":9312,"Ġdifferently":9313,"Ġcritique":9314,"Ġoperations":9315,"Ġcommands":9316,"ĠProduct":9317,"ĠPropul":9318,"Ġbadly":9319,"Ġcarefully":9320,"links":9321,"Ġrisky":9322,"iums":9323,"Ġheads":9324,"Ġinstructions":9325,"Ġdealing":9326,"ĠDoctors":9327,"ĠDojo":9328,"Ġplayer":9329,"Ġclearance":9330,"ĠSoon":9331,"Ġmovements":9332,"ĠStarhopper":9333,"Ġinvestigated":9334,"valu":9335,"Ġhalfway":9336,"ĠUnited":9337,"entionally":9338,"Ġannouncements":9339,"Ġrestore":9340,"nesses":9341,"Ġhotel":9342,"Ġproposed":9343,"egal":9344,"etheless":9345,"Ġequally":9346,"Aspirationally":9347,"Ġforms":9348,"Ġspaceships":9349,"Ġpolite":9350,"Ġpresents":9351,"Ġdebris":9352,"Ġstocks":9353,"Ġconfirming":9354,"holders":9355,"Ġaffecting":9356,"Ġmentioning":9357,"Ġbegun":9358,"Ġtraveling":9359,"Ancient":9360,"ĠSung":9361,"ĠCoachella":9362,"Activ":9363,"ĠMonth":9364,"Ġsuspect":9365,"Ġdestruction":9366,"Ġsheet":9367,"Ġinstallers":9368,"ĠOrbit":9369,"Ġimmune":9370,"Ġcyber":9371,"ĠAircraft":9372,"Ġmetals":9373,"ĠRussians":9374,"Canada":9375,"Ġpopulated":9376,"Ġassets":9377,"Ġhonest":9378,"Ġpublished":9379,"Ġjudging":9380,"Ġopaque":9381,"Ġadjusting":9382,"ĠCarlo":9383,"ĠAdela":9384,"Unless":9385,"ĠSpain":9386,"Ġturbine":9387,"Ġprominent":9388,"prob":9389,"Ġpremature":9390,"Ġpremiums":9391,"Ġstationary":9392,"ĠIdeas":9393,"Ġprofit":9394,"Ġcatching":9395,"ĠApprox":9396,"ĠService":9397,"Ġthrott":9398,"ĠRepl":9399,"Ġcontinuing":9400,"Ġcorruption":9401,"Ġsubjects":9402,"Ġsurprise":9403,"Ġfamilies":9404,"ĠEnough":9405,"Ġadvertise":9406,"Ġessay":9407,"ĠObviously":9408,"ĠSmoking":9409,"ĠMeant":9410,"Ġexpended":9411,"Ġinflation":9412,"Individual":9413,"Ġwalking":9414,"Ġrebuilt":9415,"Ġsurvive":9416,"Ġhurricane":9417,"Ġintegrity":9418,"aughty":9419,"ĠAnyone":9420,"Ġsequitur":9421,"Ġmodels":9422,"ĠMassachusetts":9423,"ularity":9424,"Ġmethods":9425,"Ġsmoothly":9426,"Ġcastle":9427,"Ġfiat":9428,"ĠMonte":9429,"borg":9430,"Ġencounter":9431,"Doesnt":9432,"Ġcommunications":9433,"ammers":9434,"Ġrotate":9435,"Ġexecs":9436,"Ġexecutive":9437,"Ġlosses":9438,"Ġresolved":9439,"Ġclaimed":9440,"Feels":9441,"Ġcontrolling":9442,"Ġpurchases":9443,"++,":9444,"sellers":9445,"Ġpolls":9446,"ĠEastern":9447,"Ġsimultaneous":9448,"ĠConc":9449,"Engineering":9450,"Ġmechanics":9451,"Ġdivision":9452,"Ġtransitioning":9453,"Ġsurrounding":9454,"Sunday":9455,"checked":9456,"Ġmissives":9457,"Ġsignals":9458,"Ġbrightness":9459,"Ġskillz":9460,"Ġexternality":9461,"ĠVancou":9462,"Ġemergency":9463,"Ġinvented":9464,"ĠJonah":9465,"Russian":9466,"Thrusters":9467,"ĠPanasonic":9468,"Ġdemonstrate":9469,"Ġfrequency":9470,"Ġweren":9471,"ĠBlackrock":9472,"ĠGuaranteed":9473,"Currently":9474,"consumer":9475,"Ġapocaly":9476,"Ġmaneuvers":9477,"Ġstatus":9478,"Ġsignatures":9479,"Ġtemporary":9480,"Ġconstitu":9481,"Ġrenewables":9482,"Basically":9483,"ĠICB":9484,"Ġcomplaining":9485,"Ġresponsibility":9486,"Ironically":9487,"Quil":9488,"Ġpistons":9489,"ĠSXSW":9490,"ĠSurface":9491,"Ġtransmitting":9492,"Upgrades":9493,"Reddit":9494,"swers":9495,"Ġgained":9496,"ĠCountdown":9497,"ĠDetails":9498,"rypton":9499,"ĠStonecut":9500,"ĠStonehenge":9501,"Ġadvocates":9502,"Ġselections":9503,"ĠCongratulations":9504,"Ġchoosing":9505,"Ġcyclists":9506,"Ġassessment":9507,"Ġproportionately":9508,"ĠPrize":9509,"Ġmetaphor":9510,"Ideally":9511,"Ġunreasonably":9512,"Radar":9513,"ĠSpring":9514,"Ġmaker":9515,"ĠNavigate":9516,"Ġsufficiently":9517,"Ġconfigurator":9518,"Ġcouncils":9519,"Ġjudicial":9520,"curve":9521,"Ġreinforce":9522,"Ġvictory":9523,"Ġtriggered":9524,"ĠEggs":9525,"Ġpreburner":9526,"Ġpermanent":9527,"Ġquantum":9528,"Strongest":9529,"Ġredundant":9530,"Telemetry":9531,"Ġpsych":9532,"Ġgender":9533,"ĠTwain":9534,"Ġcheaper":9535,"ĠEmpire":9536,"Ġpockets":9537,"driven":9538,"Ġpillar":9539,"ĠMissouri":9540,"ĠNutcracker":9541,"Ġcomplac":9542,"Ġzombie":9543,"ĠIsaacson":9544,"Ġmaneuvering":9545,"ĠContinued":9546,"Ġsanctimonious":9547,"Ignition":9548,"Ġbubble":9549,"Ġinherently":9550,"Ġscenario":9551,"Booster":9552,"Raul":9553,"totypes":9554,"Ġcrowd":9555,"Ġfantastic":9556,"ĠTerminal":9557,"ĠMichael":9558,"ĠHitchens":9559,"Ġcomplicated":9560,"Ġappropriate":9561,"Ġlanguage":9562,"Alexander":9563,"Frodo":9564,"Listening":9565,"Special":9566,"Ġumbrella":9567,"Ġulitmate":9568,"Ġawesomeness":9569,"Ġmushroom":9570,"Ġdignity":9571,"Ġlucrative":9572,"Ġglorious":9573,"ĠTwitmeme":9574,"ĠIreland":9575,"ĠMicrosoft":9576,"ĠAlyssa":9577,"Ġorphanage":9578,"ĠDyson":9579,"ĠOpenAI":9580,"ĠOCISLY":9581,"ĠKCRW":9582,"Ġcontroversial":9583,"ĠPropulsion":9584,"ĠAdelaide":9585,"ĠVancouver":9586,"ĠStonecutters":9587,"$$":9588,"27":9589,"33":9590,"42":9591,"47":9592,"?\"\"":9593,"April":9594,"Ariane":9595,"Been":9596,"CA":9597,"Cle":9598,"Cow":9599,"Cover":9600,"Comes":9601,"CSat":9602,"Des":9603,"Dock":9604,"Dawn":9605,"EC":9606,"Ear":9607,"Either":9608,"EST":9609,"Fil":9610,"Front":9611,"Fossil":9612,"GS":9613,"Glass":9614,"Gonna":9615,"Grad":9616,"HD":9617,"HM":9618,"Hacked":9619,"Humans":9620,"Hyd":9621,"Iran":9622,"Judge":9623,"Liam":9624,"Laren":9625,"Made":9626,"Millions":9627,"Mountain":9628,"Nope":9629,"Owner":9630,"Olymp":9631,"Pic":9632,"Pull":9633,"Pass":9634,"Pushing":9635,"PAC":9636,"Present":9637,"Ramp":9638,"Sew":9639,"Since":9640,"Sentry":9641,"Snow":9642,"Uran":9643,"WB":9644,"Wore":9645,"Wish":9646,"Watched":9647,"YED":9648,"aj":9649,"aited":9650,"biz":9651,"batteries":9652,"current":9653,"dir":9654,"dark":9655,"dead":9656,"eper":9657,"evi":9658,"fe":9659,"firm":9660,"fired":9661,"gic":9662,"gel":9663,"hes":9664,"hop":9665,"ias":9666,"ky":9667,"kill":9668,"kist":9669,"kWh":9670,"may":9671,"many":9672,"much":9673,"mult":9674,"market":9675,"namb":9676,"oin":9677,"oor":9678,"oem":9679,"oci":9680,"ooming":9681,"rator":9682,"rising":9683,"rification":9684,"som":9685,"sup":9686,"spect":9687,"track":9688,"topia":9689,"ui":9690,"vo":9691,"win":9692,"won":9693,"yaw":9694,"zbe":9695,"zens":9696,"Ġich":9697,"Ġought":9698,"Ġouch":9699,"Ġtin":9700,"Ġtides":9701,"Ġtouched":9702,"inle":9703,"inery":9704,"Ġapt":9705,"Ġawards":9706,"eron":9707,"onest":9708,"Ġsig":9709,"Ġsam":9710,"Ġswe":9711,"reg":9712,"reet":9713,"reeway":9714,"Ġwed":9715,"Ġwound":9716,"Ġwipe":9717,"eson":9718,"Ġbon":9719,"Ġbays":9720,"Ġbatch":9721,"aturally":9722,"Ġcg":9723,"Ġcable":9724,"Ġcape":9725,"Ġcurrency":9726,"Ġfed":9727,"Ġfro":9728,"Ġfab":9729,"issing":9730,"oupl":9731,"itation":9732,"itary":9733,"itang":9734,"itute":9735,"itrogen":9736,"anic":9737,"anze":9738,"Ġmel":9739,"Ġmur":9740,"Ġmere":9741,"Ġmort":9742,"Ġmimes":9743,"aria":9744,"Ġtoss":9745,"Ġtoxic":9746,"Ġpeop":9747,"Ġpuff":9748,"Ġplaid":9749,"Ġpoured":9750,"Ġore":9751,"Ġdain":9752,"Ġdice":9753,"Ġdoth":9754,"Ġdash":9755,"Ġdrain":9756,"Ġdrug":9757,"Ġdipl":9758,"edia":9759,"Ġlady":9760,"Ġlair":9761,"Ġlaid":9762,"Ġlined":9763,"Ġludicrous":9764,"Ġlapse":9765,"Ġhire":9766,"Ġhoping":9767,"Ġholy":9768,"struction":9769,"ropped":9770,"Ġincons":9771,"alop":9772,"also":9773,"mpath":9774,"Ġnitrogen":9775,"Ġisland":9776,"elis":9777,"elvin":9778,"etric":9779,"ionally":9780,"aser":9781,"Ġgent":9782,"Ġgang":9783,"Ġgaming":9784,"Ġgodd":9785,"ley":9786,"Ġreele":9787,"igital":9788,"ĠTom":9789,"ĠTurbo":9790,"ĠSS":9791,"ĠSade":9792,"ĠSentry":9793,"ĠSug":9794,"ĠSchool":9795,"ĠSales":9796,"Ġforth":9797,"Ġforcing":9798,"illed":9799,"Ġonboard":9800,"omats":9801,"amples":9802,"Ġein":9803,"Ġevalu":9804,"iden":9805,"ctic":9806,"ĠID":9807,"ĠIvo":9808,"laut":9809,"Ġyield":9810,"aday":9811,"adoes":9812,"ĠMW":9813,"ĠMour":9814,"ĠMull":9815,"ĠMia":9816,"ĠMSF":9817,"ĠMinecraft":9818,"alli":9819,"tered":9820,"teria":9821,"Ġstro":9822,"imizing":9823,"thur":9824,"those":9825,"thermal":9826,"ĠAyn":9827,"ĠAgency":9828,"ĠAeron":9829,"Ġnearly":9830,"Ġrac":9831,"Ġrural":9832,"Ġrides":9833,"Ġcoat":9834,"Ġcoking":9835,"Ġcoord":9836,"Ġcobal":9837,"ĠCreat":9838,"ĠCapt":9839,"ĠColl":9840,"ĠCustom":9841,"ĠCivil":9842,"ĠCandy":9843,"ĠComb":9844,"ĠCertainly":9845,"ĠCargo":9846,"Ġproving":9847,"urai":9848,"uratively":9849,"Ġvon":9850,"Ġvir":9851,"Ġshred":9852,"Ġsharks":9853,"ersized":9854,"ĠWing":9855,"ĠWent":9856,"ĠWik":9857,"ĠWME":9858,"Ġtrial":9859,"Ġmood":9860,"Ġhail":9861,"about":9862,"ulistic":9863,"seat":9864,"Ġdozens":9865,"Ġexempt":9866,"olera":9867,"ĠTheres":9868,"ĠFew":9869,"ĠFish":9870,"ĠFiring":9871,"ĠFinal":9872,"ĠFair":9873,"ĠFund":9874,"ĠField":9875,"ĠFocus":9876,"ĠFoster":9877,"ĠFederal":9878,"ĠFault":9879,"ĠFixed":9880,"ĠFreeway":9881,"ante":9882,"Ġdear":9883,"Ġdeeper":9884,"Ġsees":9885,"rait":9886,"Ġjazz":9887,"ĠHat":9888,"ĠHoo":9889,"ĠHuz":9890,"ĠHonored":9891,"ĠBow":9892,"ĠBur":9893,"ĠBold":9894,"ĠBoy":9895,"ĠBarry":9896,"Ġmail":9897,"Ġmaps":9898,"ĠDr":9899,"ĠDad":9900,"ĠDue":9901,"ĠDarth":9902,"ĠDict":9903,"ĠDams":9904,"ĠDenal":9905,"ĠDEST":9906,"ĠDWB":9907,"Ġallevi":9908,"ĠPU":9909,"ĠPending":9910,"ĠPeter":9911,"ĠPana":9912,"ĠPledge":9913,"ĠPaint":9914,"ĠPenn":9915,"ĠPucker":9916,"ĠPredict":9917,"ĠPitang":9918,"actively":9919,"Ġchef":9920,"iples":9921,"ipedia":9922,"quoted":9923,"ĠExt":9924,"ĠEph":9925,"ĠEPA":9926,"ĠEDT":9927,"ĠEAP":9928,"Ġunivers":9929,"Ġuncont":9930,"Ġunseat":9931,"losed":9932,"ewart":9933,"ĠLars":9934,"ĠLea":9935,"ĠLiv":9936,"ĠLiterally":9937,"ĠLee":9938,"ĠLands":9939,"ĠLogs":9940,"ĠRG":9941,"ĠRises":9942,"ĠResearch":9943,"Ġuprising":9944,"Ġkit":9945,"Ġkitten":9946,"ĠGG":9947,"ĠGes":9948,"ĠGive":9949,"ĠGoll":9950,"ĠGlobal":9951,"ĠGreg":9952,"aining":9953,"ainting":9954,"Ġcompell":9955,"Ġcomposite":9956,"Ġcompares":9957,"ssue":9958,"Ġcarmaker":9959,"impanze":9960,"istocracy":9961,"istrator":9962,"apor":9963,"apacitors":9964,"emarket":9965,"Yesterday":9966,"Ġyellow":9967,"conser":9968,"ects":9969,"ectic":9970,"Ġarcing":9971,"Ġaristocracy":9972,"Ġheh":9973,"Ġprecious":9974,"ĠStri":9975,"ĠStarting":9976,"ĠStainless":9977,"ĠStalin":9978,"ĠStewart":9979,"Ġimpulse":9980,"Ġwouldve":9981,"ores":9982,"Ġpose":9983,"Ġnois":9984,"dera":9985,"Ġadapt":9986,"ĠUzbe":9987,"ĠOwner":9988,"ĠOccupy":9989,"ĠSpaceflight":9990,"ĠJong":9991,"ĠJord":9992,"ĠJolly":9993,"Ġbets":9994,"venience":9995,"ansive":9996,"ĠVinge":9997,"ĠVTV":9998,"Ġactivity":9999}