{"<|endoftext|>":0,"!":1,"\"":2,"#":3,"$":4,"%":5,"&":6,"'":7,"(":8,")":9,"*":10,"+":11,",":12,"-":13,".":14,"/":15,"0":16,"1":17,"2":18,"3":19,"4":20,"5":21,"6":22,"7":23,"8":24,"9":25,":":26,";":27,"<":28,"=":29,">":30,"?":31,"@":32,"A":33,"B":34,"C":35,"D":36,"E":37,"F":38,"G":39,"H":40,"I":41,"J":42,"K":43,"L":44,"M":45,"N":46,"O":47,"P":48,"Q":49,"R":50,"S":51,"T":52,"U":53,"V":54,"W":55,"X":56,"Y":57,"Z":58,"[":59,"\\":60,"]":61,"^":62,"_":63,"`":64,"a":65,"b":66,"c":67,"d":68,"e":69,"f":70,"g":71,"h":72,"i":73,"j":74,"k":75,"l":76,"m":77,"n":78,"o":79,"p":80,"q":81,"r":82,"s":83,"t":84,"u":85,"v":86,"w":87,"x":88,"y":89,"z":90,"{":91,"|":92,"}":93,"~":94,"¡":95,"¢":96,"£":97,"¤":98,"¥":99,"¦":100,"§":101,"¨":102,"©":103,"ª":104,"«":105,"¬":106,"®":107,"¯":108,"°":109,"±":110,"²":111,"³":112,"´":113,"µ":114,"¶":115,"·":116,"¸":117,"¹":118,"º":119,"»":120,"¼":121,"½":122,"¾":123,"¿":124,"À":125,"Á":126,"Â":127,"Ã":128,"Ä":129,"Å":130,"Æ":131,"Ç":132,"È":133,"É":134,"Ê":135,"Ë":136,"Ì":137,"Í":138,"Î":139,"Ï":140,"Ð":141,"Ñ":142,"Ò":143,"Ó":144,"Ô":145,"Õ":146,"Ö":147,"×":148,"Ø":149,"Ù":150,"Ú":151,"Û":152,"Ü":153,"Ý":154,"Þ":155,"ß":156,"à":157,"á":158,"â":159,"ã":160,"ä":161,"å":162,"æ":163,"ç":164,"è":165,"é":166,"ê":167,"ë":168,"ì":169,"í":170,"î":171,"ï":172,"ð":173,"ñ":174,"ò":175,"ó":176,"ô":177,"õ":178,"ö":179,"÷":180,"ø":181,"ù":182,"ú":183,"û":184,"ü":185,"ý":186,"þ":187,"ÿ":188,"Ā":189,"ā":190,"Ă":191,"ă":192,"Ą":193,"ą":194,"Ć":195,"ć":196,"Ĉ":197,"ĉ":198,"Ċ":199,"ċ":200,"Č":201,"č":202,"Ď":203,"ď":204,"Đ":205,"đ":206,"Ē":207,"ē":208,"Ĕ":209,"ĕ":210,"Ė":211,"ė":212,"Ę":213,"ę":214,"Ě":215,"ě":216,"Ĝ":217,"ĝ":218,"Ğ":219,"ğ":220,"Ġ":221,"ġ":222,"Ģ":223,"ģ":224,"Ĥ":225,"ĥ":226,"Ħ":227,"ħ":228,"Ĩ":229,"ĩ":230,"Ī":231,"ī":232,"Ĭ":233,"ĭ":234,"Į":235,"į":236,"İ":237,"ı":238,"Ĳ":239,"ĳ":240,"Ĵ":241,"ĵ":242,"Ķ":243,"ķ":244,"ĸ":245,"Ĺ":246,"ĺ":247,"Ļ":248,"ļ":249,"Ľ":250,"ľ":251,"Ŀ":252,"ŀ":253,"Ł":254,"ł":255,"Ń":256,"Ġt":257,"in":258,"Ġa":259,"čĊ":260,"er":261,"on":262,"Ġs":263,"re":264,"Ġth":265,"Ġw":266,"es":267,"or":268,"Ġb":269,"at":270,"Ġc":271,"ing":272,"Ġf":273,"is":274,"ou":275,"it":276,"en":277,"ll":278,"an":279,"Ġm":280,"ar":281,"Ġto":282,"Ġp":283,"Ġo":284,"Ġd":285,"Ġthe":286,"ed":287,"Ġl":288,"Ġh":289,"st":290,"ro":291,"Ġin":292,"al":293,"mp":294,"Ġof":295,"Ġn":296,"Ġis":297,"ic":298,"el":299,"et":300,"ion":301,"as":302,"Ġg":303,"ac":304,"le":305,"Ġre":306,"ig":307,"ut":308,"ĠT":309,"ve":310,"ot":311,"ĠS":312,"Ġbe":313,"Ġan":314,"Ġfor":315,"ill":316,"Ġon":317,"ow":318,"om":319,"ly":320,"ay":321,"amp":322,"Ġe":323,"Ġ&":324,"ver":325,"un":326,"id":327,"ent":328,"ct":329,"ĠI":330,"la":331,"ld":332,"od":333,"ch":334,"Ġy":335,"ad":336,"ĠM":337,"igh":338,"all":339,"ter":340,"Ġso":341,"Ġit":342,"Ġst":343,"im":344,"esla":345,"ust":346,"up":347,"Ġthat":348,"th":349,"ĠA":350,"ir":351,"Ġwe":352,"ith":353,"op":354,"us":355,"il":356,"Ġwh":357,"Ġne":358,"est":359,"Ġwill":360,"am":361,"Ġr":362,"out":363,"ke":364,"Ġbut":365,"Ġco":366,"ĠC":367,"Ġwith":368,"Ġpro":369,"ce":370,"Th":371,"ur":372,"ĠTesla":373,"ould":374,"Ġyou":375,"ight":376,"if":377,"Ġand":378,"Ġat":379,"ck":380,"Ġare":381,"ally":382,"ere":383,"Ġv":384,"ars":385,"ation":386,"Ġsh":387,"Ġgo":388,"ers":389,"ĠW":390,"Ġtr":391,"Ġmo":392,"Ġha":393,"ate":394,"ab":395,"Ġen":396,"ul":397,"se":398,"ure":399,"Ġdo":400,"Ġor":401,"ge":402,"Ġro":403,"and":404,"oun":405,"Ġnot":406,"Ġas":407,"Ġex":408,"ol":409,"Ġby":410,"ĠTh":411,"ĠF":412,"Ġthis":413,"ant":414,"Ġde":415,"Ġse":416,"ity":417,"ra":418,"ace":419,"Ġj":420,"ks":421,"um":422,"Ġli":423,"ome":424,"Ġcon":425,"ri":426,"ĠH":427,"ort":428,"Ġwor":429,"Ġab":430,"ĠB":431,"pe":432,"our":433,"Ġ(":434,"Ġma":435,"ĠN":436,"ĠD":437,"Ġall":438,"ĠP":439,"act":440,"Ġal":441,"pp":442,"ea":443,"rom":444,"odel":445,"Ġfrom":446,"Ġlo":447,"Ġwas":448,"Ġch":449,"gh":450,"Ġhave":451,"ine":452,"ip":453,"ard":454,"qu":455,"ĠE":456,"ack":457,"Ġun":458,"one":459,"..":460,"reat":461,"pace":462,"ess":463,"lo":464,"ew":465,"ough":466,"ĠL":467,"ĠR":468,"Ġup":469,"art":470,"Ġk":471,"ue":472,"ĠG":473,"ain":474,"Ġme":475,"\"\"":476,"Ġcomp":477,"ss":478,"ost":479,"ong":480,"Ġabout":481,"Ġcar":482,"ast":483,"ely":484,"ction":485,"king":486,"Ġthan":487,"are":488,"ire":489,"imp":490,"cket":491,"ĠModel":492,"Ġlike":493,"ive":494,"Ġjust":495,"ist":496,"Ġus":497,"ap":498,"em":499,"ide":500,"Ġte":501,"Yes":502,"ound":503,"Ġye":504,"con":505,"ies":506,"Ġtim":507,"ry":508,"Ġneed":509,"ect":510,"Ġout":511,"'s":512,"Ġgood":513,"Ġar":514,"du":515,"Ġhe":516,"end":517,"Ġpre":518,"ment":519,"Ġrocket":520,"Ġmore":521,"ĠSt":522,"unch":523,"very":524,"Ġcan":525,"Ġmy":526,"Ġcom":527,"'t":528,"xt":529,"Ġimp":530,"Ġwould":531,"ci":532,"ore":533,"Ġpo":534,"Ġno":535,"Ġhigh":536,"ase":537,"aunch":538,"ts":539,"ull":540,"Ġhas":541,"any":542,"uch":543,"ia":544,"Ġpl":545,"iv":546,"ign":547,"nt":548,"ble":549,"der":550,"iz":551,"ass":552,"Ġad":553,"able":554,"Ġtime":555,"Ġany":556,"per":557,"uper":558,"sion":559,"ef":560,"ice":561,"ub":562,"ĠU":563,"Ġprodu":564,"ous":565,"ower":566,"ĠO":567,"eop":568,"Ġover":569,"Ġeng":570,"ie":571,"Ġta":572,"The":573,"eople":574,"ont":575,"Ġgreat":576,"ĠSpace":577,"ays":578,"ving":579,"ĠJ":580,"Ġbu":581,"Ġbet":582,"ame":583,"Ġif":584,"Ġlaunch":585,"light":586,"Ġour":587,"Ġget":588,"so":589,"Ġtoo":590,"ven":591,"ans":592,"arg":593,"Ġland":594,"ĠV":595,"ff":596,"Tesla":597,"Ġthr":598,"Ġmuch":599,"Ġpeople":600,"Ġact":601,"Ġsa":602,"hip":603,"Ġshould":604,"irst":605,"ite":606,"Ġcars":607,"age":608,"Ġwee":609,"Ġthere":610,"Ġnext":611,"ually":612,"ep":613,"ud":614,"Ġsome":615,"...":616,"Ġone":617,"Ġapp":618,"ink":619,"ind":620,"alcon":621,"cc":622,"Ġ.":623,"Ġtest":624,"ĠThe":625,"atter":626,"ory":627,"oo":628,"hing":629,"ft":630,"Ġsoon":631,"Ġle":632,"Ġwork":633,"Ġmake":634,"bab":635,"Ġthey":636,"ich":637,"own":638,"Ġ~":639,"eah":640,"int":641,"Ġag":642,"Ġdes":643,"anks":644,"port":645,"ood":646,"We":647,"Ġnow":648,"day":649,"Ġinc":650,"ence":651,"ric":652,"Ġyear":653,"Ġmost":654,"ated":655,"ach":656,"be":657,"pt":658,"her":659,"bit":660,"Ġnew":661,"ĠWill":662,"Ġfa":663,"ware":664,"Ġam":665,"ance":666,"ange":667,"Ġright":668,"Ġoth":669,"Ġhard":670,"Ġmon":671,"Ġcont":672,"ree":673,"Ġsp":674,"rag":675,"Ġengine":676,"ats":677,"Ġonly":678,"Ġits":679,"Yeah":680,"ber":681,"Ġdri":682,"vi":683,"Ġyour":684,"Ġsol":685,"Ġlong":686,"Ġkn":687,"ors":688,"Ġwho":689,"Ġway":690,"Ġ%":691,"Ġwhat":692,"Wh":693,"gy":694,"Ġbetter":695,"ens":696,"Ġfe":697,"urn":698,"ĠSpaceX":699,"ult":700,"bably":701,"ater":702,"os":703,"ade":704,"actly":705,"Ġper":706,"Ġpart":707,"Ex":708,"we":709,"You":710,"Ġ\"\"":711,"vel":712,"ount":713,"Ġspe":714,"Ġint":715,"Ġmonth":716,"Ġteam":717,"Ġfirst":718,"Ġqu":719,"aybe":720,"Ġrec":721,"Ġweek":722,"Ġback":723,"00":724,"oc":725,"Ġproduction":726,"ha":727,"ary":728,"gr":729,"ragon":730,"ĠWe":731,"kes":732,"Ġwhich":733,"ĠFalcon":734,"Ġaut":735,"Ġwhen":736,"ating":737,"icle":738,"wn":739,"Ġfun":740,"ĠX":741,"Ġres":742,"fter":743,"ical":744,"ully":745,"Ġlanding":746,"Ġel":747,"nd":748,"Ġfew":749,"Ġreal":750,"fer":751,"Ġmany":752,"ting":753,"Ġacc":754,"Ġsm":755,"Ġmin":756,"Ġimpro":757,"orm":758,"ĠMars":759,"Ġactually":760,"Ġflight":761,"ild":762,"ord":763,"Ġyears":764,"Ġbo":765,"Ġlot":766,"ial":767,"row":768,"Ġsy":769,"Ġser":770,"ose":771,"Ġeven":772,"This":773,"Ġsup":774,"Ġwere":775,"orn":776,"Ġknow":777,"ility":778,"Ġother":779,"ons":780,"Ġpr":781,"Ġdid":782,"lease":783,"Ġdoes":784,"Ġafter":785,"Ġorbit":786,"Ġpower":787,"way":788,"ish":789,"Ġtheir":790,"Ġloo":791,"Ġart":792,"Ġthen":793,"most":794,"Ġreally":795,"Thanks":796,"Ġmis":797,"Ġinter":798,"Ġthink":799,"ĠIt":800,"It":801,"Ġexp":802,"ions":803,"Ġhel":804,"ick":805,"Ġunder":806,"ile":807,"aus":808,"Ġdesign":809,"Ġthem":810,"Exactly":811,"ang":812,"ible":813,"Ġevery":814,"Ġthing":815,"Ġbig":816,"Ġsoft":817,"Ġcr":818,"Ġ$":819,"ilot":820,"ĠCh":821,"ys":822,"Ġcoming":823,"Ġtrue":824,"Good":825,"ĠSuper":826,"Ġwant":827,"Just":828,"uck":829,"ph":830,"ress":831,"omet":832,"ĠThis":833,"Ġsee":834,"Ġthrust":835,"Ġown":836,"Ġhapp":837,"Ġcould":838,"old":839,"red":840,"No":841,"stem":842,"arship":843,"ations":844,"ves":845,"arth":846,"Ġ...":847,"ise":848,"ically":849,"ĠIn":850,"itt":851,"lic":852,"elf":853,"Ġworld":854,"Ġsoftware":855,"ady":856,"Ġpoint":857,"In":858,"ark":859,"uture":860,"opilot":861,"St":862,"Ġalso":863,"Ġvery":864,"ual":865,"oth":866,"Ġdown":867,"ty":868,"Ġbeing":869,"Ġlif":870,"Ġsuper":871,"Ġfact":872,"Ġspace":873,"unn":874,"ĠDragon":875,"Ġext":876,"Ġver":877,"Ġend":878,"Ġsystem":879,"Ġfuture":880,"ved":881,"ĠAut":882,").":883,"Ġdif":884,"Will":885,"ering":886,"Ġoff":887,"Ġair":888,"That":889,"Ġgoing":890,"ĠUS":891,"Ġelect":892,"Ġpub":893,"Ha":894,"Ġgen":895,"Ġdel":896,"les":897,"Ġsay":898,"Ġfin":899,"Ġcost":900,"Ġuse":901,"ize":902,"Ġsure":903,"Ġsaf":904,"Ġthough":905,"veral":906,"Ġadd":907,"Ġbest":908,"Ġreg":909,"ag":910,"ail":911,"Ġhum":912,"Ġhelp":913,"ced":914,"Ġgr":915,"ĠAl":916,"Ġbuild":917,"Ġbeen":918,"ĠEarth":919,"Ġstill":920,"ne":921,"ense":922,"Ġdis":923,"Ġ-":924,"ines":925,"Ġsc":926,"erson":927,"Ġtoday":928,"charg":929,"ex":930,"mer":931,"Ġhow":932,"Ġneeded":933,"view":934,"ell":935,"ying":936,"els":937,"Ġ:":938,"Ġve":939,"Ġelectric":940,"vy":941,"Ġday":942,"Ġimprove":943,"ics":944,"Ġfast":945,"Ġtrans":946,"Ġdef":947,"ause":948,"Ġ*":949,"ert":950,"Ġsu":951,"ron":952,"Ġ,":953,"Ġbatter":954,"Ġwell":955,"eavy":956,"Ġshort":957,"Ġcall":958,"omething":959,"ward":960,"Ġtw":961,"Ġsame":962,"ank":963,"ments":964,"Ġsolar":965,"Ġinto":966,"pen":967,"Ġlove":968,"pl":969,"Ġener":970,"fore":971,"Ġmade":972,"If":973,"Model":974,"Ġph":975,"Ġconf":976,"ature":977,"Ġstart":978,"ove":979,"Ġopt":980,"Ġadv":981,"Not":982,"ool":983,"Ġsub":984,"Ġdone":985,"Ġdont":986,"Ġtech":987,"ways":988,"reci":989,"arly":990,"Ġhad":991,"Ġpress":992,"Ġagain":993,"ak":994,"ĠAutopilot":995,"ful":996,"form":997,"Ġprobably":998,"Ġcons":999,"ix":1000,"iver":1001,"low":1002,"Ġvide":1003,"ĠStarship":1004,"az":1005,"Ġshow":1006,"pect":1007,"Ġbefore":1008,"Ġcl":1009,"Ġalmost":1010,"Ġthrough":1011,"Ġmonths":1012,"Ġim":1013,"Ġfar":1014,"Ġenergy":1015,"Ġrequ":1016,"rem":1017,"Ġclo":1018,"Ġfire":1019,"Ġgas":1020,"Ġret":1021,"thing":1022,"Ġdrive":1023,"let":1024,"oring":1025,"Ġbec":1026,"opef":1027,"ortant":1028,"ition":1029,"blem":1030,"wes":1031,"ĠK":1032,"Ġchange":1033,"Ġthose":1034,"Ġlast":1035,"Ġever":1036,"iles":1037,"atch":1038,"ane":1039,"Ġsupport":1040,"Ġwr":1041,"Ġtake":1042,"Ġveh":1043,"Ġdays":1044,"opefully":1045,"esting":1046,"ĠCan":1047,"ĠJust":1048,"Ġsmall":1049,"Ġtunn":1050,"ero":1051,"Ġatt":1052,"ĠWh":1053,"init":1054,"Ġdon":1055,"!!":1056,"Pro":1057,"Ġob":1058,"initely":1059,"ob":1060,"Ġcle":1061,"ety":1062,"Ġvideo":1063,"Re":1064,"Ġarticle":1065,"Ġhuman":1066,"vent":1067,"Ġaround":1068,"Ġspeed":1069,"Ġind":1070,"Ġgu":1071,"ĠSupercharg":1072,"wesome":1073,"rue":1074,"Ġlow":1075,"Ġins":1076,"ĠSh":1077,"Ġproblem":1078,"ific":1079,"Ġappreci":1080,"Ġpublic":1081,"ape":1082,"Ġfull":1083,"ready":1084,"iring":1085,"ĠLA":1086,"Ġmission":1087,"Ġboost":1088,"ĠNe":1089,"eship":1090,"Ġdoing":1091,"Ġdep":1092,"ode":1093,"Ġworking":1094,"apt":1095,"aw":1096,"over":1097,"erm":1098,"Ġgener":1099,"iting":1100,"Al":1101,"Ġcount":1102,"Ġless":1103,"Ġcontro":1104,"ittle":1105,"Great":1106,"Ġmet":1107,"Ġstr":1108,"ath":1109,"Ġleg":1110,"Ġversion":1111,"azing":1112,"Ġmass":1113,"Ġupd":1114,"olo":1115,"Ġbel":1116,"Ġalways":1117,"li":1118,"Ġcool":1119,"gg":1120,"ese":1121,"Ġwhy":1122,"ssible":1123,"Ġtax":1124,"ious":1125,"Ġenough":1126,"Ġsec":1127,"Ġsomething":1128,"Ġread":1129,"ope":1130,"ĠNo":1131,"cy":1132,"Ġlittle":1133,"Ġval":1134,"Ġcomplet":1135,"orre":1136,"Ġlea":1137,"Ġlife":1138,"oming":1139,"ĠAI":1140,"Ġship":1141,"Ab":1142,"tty":1143,"Ġent":1144,"Ġcent":1145,"ets":1146,"omp":1147,"ĠThat":1148,"ib":1149,"Ġsur":1150,"Ġsign":1151,"ĠRe":1152,"ude":1153,"Ġappro":1154,"Ġbattery":1155,"Am":1156,"Ġallow":1157,"Ġserv":1158,"Ġid":1159,"Ġsafety":1160,"urre":1161,"ather":1162,"Ġhour":1163,"Ġrem":1164,"ids":1165,"oney":1166,"yes":1167,"Ġopen":1168,"ution":1169,"Ġmed":1170,"Ġupgr":1171,"Ġdue":1172,"omm":1173,"Ġexce":1174,"Ġperson":1175,"he":1176,"Ġ/":1177,"Ġbr":1178,"Ġmiles":1179,"Ġav":1180,"ery":1181,"Ġpass":1182,"ĠIf":1183,"ĠHeavy":1184,"ĠRo":1185,"cial":1186,"Ġtechn":1187,"Its":1188,"ĠYou":1189,"Ġtal":1190,"Ġroll":1191,"jor":1192,"ason":1193,"ounds":1194,"Ġproduct":1195,"Ġincre":1196,"Ġstage":1197,"Ġcompany":1198,"Ġthings":1199,"orrow":1200,"Ġimportant":1201,"Ġz":1202,"ffic":1203,"Ġsaid":1204,"Ġmakes":1205,"Haha":1206,"come":1207,"Ġpay":1208,"Ġlater":1209,"alif":1210,"ash":1211,"Ġann":1212,"Ġcap":1213,"kely":1214,"ina":1215,"Ġsk":1216,"Ġhappen":1217,"Ġrequire":1218,"'m":1219,"less":1220,"Ġawesome":1221,"Ġmatter":1222,"Ġpost":1223,"Ġinv":1224,"Ġweeks":1225,"of":1226,"orry":1227,"ĠIts":1228,"aliforn":1229,"ear":1230,"fact":1231,"iter":1232,"Ġcontrol":1233,"Space":1234,"ock":1235,"Ġalready":1236,"Ġplan":1237,"alifornia":1238,"),":1239,"ces":1240,"Ġpri":1241,"Ġrange":1242,"Ġvs":1243,"Ġpressure":1244,"ond":1245,"True":1246,"ates":1247,"olar":1248,"ĠNot":1249,"Ġste":1250,"Ġtra":1251,"load":1252,"ieve":1253,"Ġamazing":1254,"Ġdiffer":1255,"ian":1256,"ied":1257,"Ġfr":1258,"alf":1259,"Ġwhere":1260,"ited":1261,"morrow":1262,"ump":1263,"Ġtomorrow":1264,"Ġdire":1265,"imate":1266,"atell":1267,"Ġorder":1268,"Ġlevel":1269,"oll":1270,"tw":1271,"Ġmoney":1272,"Ġseem":1273,"Ġlook":1274,"ĠAlso":1275,"ĠY":1276,"orth":1277,"lam":1278,"Ġpack":1279,"Ġmax":1280,"ffect":1281,"Ġtunnel":1282,"urrent":1283,"cess":1284,"Ġrelease":1285,"Ġreview":1286,"Ġdem":1287,"Ġcrit":1288,"Ġtwo":1289,"Ġagainst":1290,"Falcon":1291,"gen":1292,"ng":1293,"Ġseveral":1294,"Ġfix":1295,"its":1296,"Ġhis":1297,"iga":1298,"Ġris":1299,"Ġengines":1300,"Ġcalled":1301,"Ġke":1302,"Ġfree":1303,"Ġref":1304,"There":1305,"Ġengineering":1306,"Ġvehicle":1307,"ning":1308,"Ġoper":1309,"Ġpossible":1310,"ĠThey":1311,"Ġfactory":1312,"Ġservice":1313,"ĠCalifornia":1314,"Ġextrem":1315,"ict":1316,"Ġrep":1317,"illion":1318,"ody":1319,"not":1320,"arge":1321,"formance":1322,"So":1323,"ily":1324,"Ġes":1325,"Ġman":1326,"Ġcomm":1327,"ĠPro":1328,"Maybe":1329,"ject":1330,"Ġbad":1331,"ustom":1332,"\"\"\"":1333,"aut":1334,"Ġvia":1335,"ĠStation":1336,"Ok":1337,"Ġcare":1338,"Ġhold":1339,"Ġnight":1340,"ds":1341,"lin":1342,"Ġboth":1343,"Ġpar":1344,"ĠCape":1345,"Ġunt":1346,"Ġquest":1347,"Ġdet":1348,"ime":1349,"Ġfav":1350,"Ġbooster":1351,"Ġupdate":1352,"inal":1353,"Ġwater":1354,"Ġbas":1355,"Ġcreat":1356,"Ġiss":1357,"Ġnever":1358,"Ġidea":1359,"On":1360,"iron":1361,"Ġvis":1362,"Ġgoes":1363,"Ġearly":1364,"Ġset":1365,"Ġmaybe":1366,"Ġlim":1367,"Ġwithout":1368,"Ġdec":1369,"ctions":1370,"Ġincl":1371,"Ġwind":1372,"ĠTex":1373,"Ġstop":1374,"Ġlive":1375,"Ġcomput":1376,"What":1377,"ĠChina":1378,"ertain":1379,"And":1380,"Ġsatell":1381,"ists":1382,"Ġanything":1383,"ology":1384,"ked":1385,"pr":1386,"Ġside":1387,"Ġself":1388,"Ġcour":1389,"veil":1390,"ĠTexas":1391,"anced":1392,"ilt":1393,"loy":1394,"Sh":1395,"Ġ+":1396,"Ġsal":1397,"Ġsim":1398,"ster":1399,"Ġreus":1400,"ĠIm":1401,"Ġvi":1402,"Ġcompet":1403,"Ġhigher":1404,"Ġrisk":1405,".\"":1406,"air":1407,"ec":1408,"vid":1409,"ative":1410,"Ġtimes":1411,"ĠSupercharger":1412,"Ġmedia":1413,"Ġlikely":1414,"orrect":1415,"For":1416,"SD":1417,"ium":1418,"Ġrear":1419,"Ġvol":1420,"Ġloc":1421,"aptor":1422,"Ġcustom":1423,"Ġmot":1424,"Ġkids":1425,"Ġhead":1426,"Ġago":1427,"wh":1428,"Ġinst":1429,"Ġyet":1430,"uring":1431,"Ġexper":1432,"Ġdeal":1433,"ongr":1434,"ized":1435,"SpaceX":1436,"te":1437,"Ġused":1438,"Ġowners":1439,"iant":1440,"wit":1441,"ator":1442,"Ġhand":1443,"ational":1444,"ĠNew":1445,"ĠDo":1446,"ĠGiga":1447,"Ġplay":1448,"ooks":1449,"Ġwhile":1450,"ĠHe":1451,"Ġclear":1452,"Ġfly":1453,"Ġneeds":1454,"Ġap":1455,"Ġlight":1456,"eld":1457,"Ġeas":1458,"ents":1459,"Ġroad":1460,"Ġunveil":1461,"Ġusing":1462,"Ġfeel":1463,"Ġach":1464,"ata":1465,"Ġregul":1466,"ever":1467,"no":1468,"Ġmay":1469,"ounce":1470,"riving":1471,"ending":1472,"100":1473,"Sure":1474,"io":1475,"nal":1476,"itive":1477,"Ġnum":1478,"ĠSo":1479,"efinitely":1480,"Ġlooks":1481,"Ġhours":1482,"anies":1483,"elcome":1484,"Ġtry":1485,"Ġmoon":1486,"Ġcompanies":1487,"Ġmins":1488,"ommend":1489,"10":1490,"ave":1491,"Ġwar":1492,"Ġpie":1493,"ought":1494,"Ġauto":1495,"Cool":1496,"lan":1497,"Ġsense":1498,"ately":1499,"Ġuntil":1500,"eck":1501,"ny":1502,"raz":1503,"Ġdirect":1504,"ues":1505,"Ġsimp":1506,"Ġbra":1507,"Ġlet":1508,"other":1509,"ĠFor":1510,"raft":1511,"ru":1512,"ser":1513,"ĠAll":1514,"Ġcover":1515,"Ġmove":1516,"Ġmaking":1517,"Ġdeliver":1518,"Ġton":1519,"Ġcre":1520,"Ġfl":1521,"amer":1522,"ability":1523,"ĠStar":1524,"Ġothers":1525,"velop":1526,"Ġbecause":1527,"Ġinvest":1528,"mb":1529,"Ġblo":1530,"Ġfully":1531,"icles":1532,"lad":1533,"anding":1534,"vious":1535,"Ġrecommend":1536,"Ġreturn":1537,"Probably":1538,"Congr":1539,"My":1540,"cl":1541,"res":1542,"Ġhy":1543,"opper":1544,"ural":1545,"Ġtemp":1546,"Ġtwe":1547,"Ġdevelop":1548,"Ġchang":1549,"meric":1550,"Ġprior":1551,"val":1552,"Ġmight":1553,"Ġmph":1554,"Ġhalf":1555,"Ġgot":1556,"Ġyes":1557,"Ġthought":1558,"Ġdisc":1559,"Ġleast":1560,"oud":1561,"Ġlower":1562,"ality":1563,"Ġnet":1564,"ĠFSD":1565,"ume":1566,"Ġmajor":1567,"Ġdiff":1568,"First":1569,"mpt":1570,"und":1571,"iming":1572,"ĠAmeric":1573,"Ġconst":1574,"Ġfeature":1575,"Wow":1576,"ake":1577,"imes":1578,"Ġvac":1579,"Ġbuilding":1580,"To":1581,"Ġtechnology":1582,"Ġfavor":1583,"craft":1584,"Ġturn":1585,"ider":1586,"ustain":1587,"Ġrate":1588,"Ġtrack":1589,"ook":1590,"ger":1591,"Ġcase":1592,"ames":1593,"ĠUn":1594,"Ġautom":1595,"Ġorbital":1596,"Ġcourse":1597,"wer":1598,"atic":1599,"Ġcurrent":1600,"Ġfind":1601,"ouse":1602,"Ġpretty":1603,"Ġnews":1604,"Ġspac":1605,"Ġcenter":1606,"ient":1607,"ins":1608,"Ġmust":1609,"ale":1610,"eler":1611,"lex":1612,"cially":1613,"Ġdriving":1614,"Ġwrong":1615,"Ġdeploy":1616,"uro":1617,"Ġac":1618,"Ġsize":1619,"ention":1620,"Ġpos":1621,"ingle":1622,"Ġbuy":1623,"Ġdoesnt":1624,"Ġzero":1625,"Ġannounce":1626,"line":1627,"Ġaway":1628,"Ġrest":1629,"Ġthats":1630,"ĠComp":1631,"cond":1632,"Ġoption":1633,"Dragon":1634,"Ro":1635,"irm":1636,"Ġprice":1637,"ax":1638,"ness":1639,"ities":1640,"Ġclose":1641,"Ġhumanity":1642,"ern":1643,"reen":1644,"Ġcred":1645,"Ġdata":1646,"Ġname":1647,"ases":1648,"ĠMaybe":1649,"Ġexpect":1650,"ĠThere":1651,"Ġmeans":1652,"arget":1653,"Ġview":1654,"razy":1655,"ien":1656,"erlin":1657,"Ġcome":1658,"Ġcamer":1659,"ising":1660,"Ġdr":1661,"Ġhere":1662,"ote":1663,"Ġforward":1664,"ident":1665,"Ġstre":1666,"Ġworth":1667,"Ġhardware":1668,"About":1669,"bal":1670,"Ġfal":1671,"ites":1672,"Ġyoure":1673,"Ġtruck":1674,"Ġadvanced":1675,"eed":1676,"ield":1677,"Ġtop":1678,"Ġnon":1679,"ĠAm":1680,"Ġfund":1681,"Ġvalue":1682,"Do":1683,"Ġbody":1684,"Ġput":1685,"Ġhot":1686,"Ġprop":1687,"Ġtrying":1688,"Inter":1689,"arket":1690,"All":1691,"Sorry":1692,"down":1693,"Ġterm":1694,"Ġslight":1695,"Ġcrazy":1696,"arch":1697,"Ġok":1698,"ulation":1699,"Ġmean":1700,"ives":1701,"iterally":1702,"ai":1703,"Ġthese":1704,"Ġrock":1705,"Ġroof":1706,"Ġjour":1707,"Ġclimate":1708,"Ġappreciated":1709,"Ġdetail":1710,"Ġsales":1711,"co":1712,"Ġ!":1713,"Ġhome":1714,"adster":1715,"Ġrad":1716,"Ġable":1717,"ĠRaptor":1718,"Ġanyone":1719,"Also":1720,"'re":1721,"Yup":1722,"averal":1723,"ork":1724,"ĠOn":1725,"Ġbuilt":1726,"Ġgetting":1727,"ĠCanaveral":1728,"yper":1729,"ĠQ":1730,"Ġred":1731,"Thats":1732,"ĠNY":1733,"Ġacceler":1734,"Ġbelieve":1735,"gt":1736,"led":1737,"ince":1738,"ither":1739,"Ġdeep":1740,"Ġjob":1741,"ively":1742,"ween":1743,"Ġkeep":1744,"Ġquestion":1745,"Ġpiece":1746,"Launch":1747,"eg":1748,"ps":1749,"vt":1750,"Ġsn":1751,"Ġwelcome":1752,"Ġdro":1753,"ential":1754,"Ġwhe":1755,"olut":1756,"umm":1757,"ĠBoring":1758,"pecially":1759,"Ġkind":1760,"Ġobvious":1761,"'ve":1762,"Ġstud":1763,"uss":1764,"Ġjo":1765,"loop":1766,"Ġkm":1767,"ccess":1768,"roneship":1769,"og":1770,"itude":1771,"Ġmult":1772,"Ġox":1773,"Ġreason":1774,"Ġrockets":1775,"Ġagree":1776,"Ġimo":1777,"yperloop":1778,"ee":1779,"ially":1780,"tle":1781,"Ġtons":1782,"Ġthree":1783,"Ġbl":1784,"Ġgra":1785,"Ġprob":1786,"Ġexc":1787,"Ġplace":1788,"Should":1789,"Ġfalse":1790,"uel":1791,"Ġsound":1792,"icult":1793,"eth":1794,"Ġevent":1795,"ulations":1796,"ĠDe":1797,"av":1798,"ush":1799,"Ġhaha":1800,"ĠNow":1801,"ĠPower":1802,"ĠEuro":1803,"Ġground":1804,"lass":1805,"Ġsustain":1806,"ether":1807,"Ġanother":1808,"tern":1809,"Coming":1810,"ract":1811,"Ġwon":1812,"ism":1813,"Ġdeath":1814,"Ġthanks":1815,"Ġsomeone":1816,"Ġparts":1817,"Ġextremely":1818,"empt":1819,"Ġcant":1820,"Ġequ":1821,"Ġra":1822,"Ġgovt":1823,"bert":1824,"Ġvolume":1825,"As":1826,"Ġsci":1827,"Ġbit":1828,"Ġfine":1829,"Ġdist":1830,"ading":1831,"Ġnear":1832,"Ġcoll":1833,"Ġlonger":1834,"Ġperformance":1835,"Ġsuccess":1836,"Ġupgrade":1837,"30":1838,"solut":1839,"Ġtarget":1840,"Ġfri":1841,"llent":1842,"Ġreach":1843,"Ġform":1844,"aded":1845,"urb":1846,"Definitely":1847,"He":1848,"Pre":1849,"reed":1850,"Ġbar":1851,"Ġpod":1852,"Ġold":1853,"Ġinf":1854,"Ġheat":1855,"iven":1856,"They":1857,"ollow":1858,"Ġcritical":1859,"Rocket":1860,"gress":1861,"ience":1862,"link":1863,"Ġsw":1864,"Ġcertain":1865,"Ġhope":1866,"entry":1867,"ters":1868,"Ġsell":1869,"Ġworks":1870,"Ġchance":1871,"gram":1872,"Ġfront":1873,"witter":1874,"Ġspaceship":1875,"50":1876,"ral":1877,"ygen":1878,"ital":1879,"ross":1880,"ots":1881,"Ġcomb":1882,"Ġbetween":1883,"Ġtesting":1884,"Ġsaying":1885,"Ġsubs":1886,"Ġconsider":1887,"ĠRoadster":1888,"Ġespecially":1889,"cent":1890,"driving":1891,"ug":1892,"Ġslow":1893,"Ġsingle":1894,"Ġmod":1895,"etary":1896,"asing":1897,"ched":1898,"ĠAt":1899,"Ġfairing":1900,"Ġgeneral":1901,"Ġbring":1902,"Ġoxygen":1903,"rac":1904,"Ġmach":1905,"Ġlat":1906,"Ġrepl":1907,"ppy":1908,"Ġspec":1909,"Ġdefinitely":1910,"Ġoptim":1911,"where":1912,"Ġslightly":1913,"But":1914,"rass":1915,"Ġburn":1916,"Ġupper":1917,"Ġcomplex":1918,"Ġfeed":1919,"ysics":1920,"bon":1921,"Ġu":1922,"icul":1923,"eloc":1924,"Ġstand":1925,"Ġstore":1926,"ired":1927,"Ġeasy":1928,"Some":1929,"bs":1930,"Ġiron":1931,"Ġbro":1932,"atically":1933,"Ġlarg":1934,"Ġgive":1935,"Ġrun":1936,"ĠHyperloop":1937,"bability":1938,"Ġfair":1939,"Ġrecord":1940,"Interesting":1941,"City":1942,"Most":1943,"ute":1944,"ther":1945,"Ġnothing":1946,"ization":1947,"eft":1948,"Ġcontin":1949,"Ġsugg":1950,"ibly":1951,"Ġregulat":1952,"ĠEurope":1953,"dd":1954,"uly":1955,"Ġlaw":1956,"Ġleft":1957,"Ġhopefully":1958,"Ġexist":1959,"Ġabove":1960,"apid":1961,"Youre":1962,"Ġprim":1963,"Ġimprovements":1964,"Ġdifficult":1965,"Ġannouncement":1966,"elocity":1967,"Were":1968,"ait":1969,"hopper":1970,"ken":1971,"sed":1972,"Ġcorrect":1973,"Ġdroneship":1974,"term":1975,"Ġstory":1976,"ĠWould":1977,"pell":1978,"ĠGood":1979,"ends":1980,"cing":1981,"eng":1982,"Ġhaving":1983,"ooking":1984,"ĠCompany":1985,"Love":1986,"aid":1987,"ier":1988,"lor":1989,"ĠZ":1990,"ined":1991,"itch":1992,"Ġpol":1993,"ĠAs":1994,"Ġdidnt":1995,"Ġcomplete":1996,"New":1997,"ech":1998,"rid":1999,"sure":2000,"yond":2001,"Ġcaus":2002,"Ġhist":2003,"eting":2004,"ades":2005,"Ġstate":2006,"Ġprogress":2007,"Ġgoal":2008,"Ġmag":2009,"Ġremain":2010,"Ġtalk":2011,"Ġpayload":2012,"Ġtough":2013,"Ġfound":2014,"Ġline":2015,"Ġfail":2016,"Ġwhole":2017,"Ġattempt":2018,"factory":2019,"olarCity":2020,"Ġmotor":2021,"Ġnumber":2022,"solutely":2023,"sing":2024,"uge":2025,"uum":2026,"ints":2027,"Ġwont":2028,"Ġfollow":2029,"Ġmarket":2030,"Ġpad":2031,"Ġreport":2032,"ĠSe":2033,"ada":2034,"Ġvelocity":2035,"Ġcharge":2036,"Ġcheck":2037,"que":2038,"conom":2039,"Ġpres":2040,"Ġweekend":2041,"Ġlegs":2042,"iam":2043,"just":2044,"pon":2045,"Ġthin":2046,"Ġfle":2047,"ision":2048,"Ġliterally":2049,"ĠTwitter":2050,"Ġdeb":2051,"ems":2052,"Ġfaster":2053,"Ġincrease":2054,"Ġcomputer":2055,"pellant":2056,"Very":2057,"oid":2058,"ruck":2059,"eres":2060,"Ġbre":2061,"Ġfuel":2062,"ission":2063,"Ġstock":2064,"Ġtrip":2065,"ably":2066,"ĠHigh":2067,"Ġtook":2068,"wards":2069,"Ġmatters":2070,"Ġdifference":2071,"Ġsustainable":2072,"lish":2073,"wall":2074,"Ġult":2075,"Ġflam":2076,"ĠMay":2077,"Ġweather":2078,"Ġrapid":2079,"ĠEx":2080,"Ġunderst":2081,"ificant":2082,"Ġmultip":2083,"Btw":2084,"fect":2085,"las":2086,"oy":2087,"Ġcity":2088,"aring":2089,"Ġdate":2090,"Ġgiant":2091,"ĠSN":2092,"quid":2093,"duction":2094,"Ġitself":2095,"Ġconfirm":2096,"ĠNeed":2097,"back":2098,"vie":2099,"Ġcell":2100,"Ġinit":2101,"Ġready":2102,"ĠThanks":2103,"Ġheard":2104,"Ġbeta":2105,"Ġsupp":2106,"Ġdidn":2107,"Ġeveryone":2108,"Ġsystems":2109,"Ġreusable":2110,"Of":2111,"Would":2112,"fort":2113,"mos":2114,"swer":2115,"Ġpur":2116,"Ġear":2117,"Ġprot":2118,"Ġprogram":2119,"ify":2120,"Ġmain":2121,"Ġprec":2122,"Ġactual":2123,"Ġdoesn":2124,"Ġthrusters":2125,"ĠIntern":2126,"Ġentire":2127,"At":2128,"Im":2129,"Ġpm":2130,"ults":2131,"ĠHow":2132,"Ġcarbon":2133,"Ġtell":2134,"Ġfunction":2135,"Ġdesigned":2136,"ĠGigafactory":2137,"Ġachie":2138,"Ġtonight":2139,"hold":2140,"ten":2141,"Ġed":2142,"atulations":2143,"Ġcause":2144,"Ġmile":2145,"Ġhor":2146,"ĠSome":2147,"Ġem":2148,"Ġtakes":2149,"Ġsolution":2150,"Ġ--":2151,"Ġapproval":2152,"Ġtraffic":2153,"Ġvacuum":2154,"ethrow":2155,"ev":2156,"put":2157,"Ġaction":2158,"Ġaffect":2159,"Ġcry":2160,"Ġmid":2161,"Ġmention":2162,"Ġtot":2163,"eter":2164,"Ġrece":2165,"ĠAr":2166,"ird":2167,"Ġsecond":2168,"rib":2169,"Ġlog":2170,"SA":2171,"ming":2172,"iny":2173,"Ġsens":2174,"Ġfil":2175,"Ġbeg":2176,"iful":2177,"aps":2178,"ored":2179,"Ġaddress":2180,"Ġissues":2181,"Ġwheel":2182,"AW":2183,"How":2184,"Ne":2185,"to":2186,"ton":2187,"Ġsun":2188,"Ġft":2189,"Ġduring":2190,"Ġgame":2191,"Ġrel":2192,"Ġeach":2193,"upt":2194,"irc":2195,"oping":2196,"Ġroom":2197,"Ġimpact":2198,"Ġplus":2199,"Ġproud":2200,"Starship":2201,"Ġtransport":2202,"ĠWhat":2203,"Ġsatellite":2204,"Ġsuggest":2205,"Looks":2206,"side":2207,"zz":2208,"Ġwin":2209,"Ġboring":2210,"Ġmer":2211,"ĠMy":2212,"Ġrob":2213,"aster":2214,"ĠOur":2215,"Ġtaking":2216,"When":2217,"ocus":2218,"Ġcosts":2219,"Ġlimited":2220,"ĠStarlink":2221,"Ġhistory":2222,"Ġfleet":2223,"face":2224,"oice":2225,"ta":2226,"wise":2227,"Ġsince":2228,"Ġwish":2229,"Ġflow":2230,"ased":2231,"Ġreentry":2232,"ĠMore":2233,"ĠCy":2234,"ĠNor":2235,"Ġarg":2236,"Ġfinish":2237,"ersonic":2238,"Ġsignificant":2239,"Ġsteel":2240,"Ġtravel":2241,"Ġsatellites":2242,"Ġcustomers":2243,"An":2244,"High":2245,"Ġwatch":2246,"Ġpric":2247,"Ġplease":2248,"Ġinj":2249,"ĠSun":2250,"amber":2251,"ĠCo":2252,"Ġpropellant":2253,"orts":2254,"pping":2255,"ivil":2256,"Ġphone":2257,"Ġissue":2258,"ĠOnly":2259,"Act":2260,"Please":2261,"lt":2262,"ling":2263,"oing":2264,"Ġsuch":2265,"ouble":2266,"vert":2267,"Ġatmos":2268,"Ġcountry":2269,"Ġexciting":2270,"rasshopper":2271,"'d":2272,"Ma":2273,"Sounds":2274,"tical":2275,"Ġlate":2276,"Ġemp":2277,"Ġeffect":2278,"Ġeither":2279,"ĠMon":2280,"Ġneg":2281,"Ġramp":2282,"Ġtrick":2283,"ands":2284,"Ġmeant":2285,"Ġaccess":2286,"Ġvehicles":2287,"Ġfixed":2288,"Ġcredit":2289,"Or":2290,"ufact":2291,"yn":2292,"Ġsent":2293,"ouch":2294,"Ġmind":2295,"Ġpure":2296,"Ġpain":2297,"Ġisn":2298,"Ġge":2299,"Ġgames":2300,"acing":2301,"Ġbeaut":2302,"Ġanswer":2303,"ĠIs":2304,"though":2305,"ĠHopefully":2306,"ĠBut":2307,"ires":2308,"Ġgets":2309,"Ġincred":2310,"Ġhappy":2311,"ĠShould":2312,"Ġseems":2313,"Ġlocal":2314,"Ġchanges":2315,"Pretty":2316,"gle":2317,"uff":2318,"Ġsus":2319,"Ġride":2320,"Ġwithin":2321,"urate":2322,"Ġshare":2323,"ĠBo":2324,"Ġload":2325,"Ġsmo":2326,"Ġsafe":2327,"Ġbatteries":2328,"Congratulations":2329,"Ġinjur":2330,"ders":2331,"uct":2332,"onom":2333,"Ġwent":2334,"Ġmorn":2335,"Ġpic":2336,"Ġdig":2337,"Ġdest":2338,"alth":2339,"Ġbeyond":2340,"vers":2341,"ĠAust":2342,"cept":2343,"Ġshe":2344,"Ġmovie":2345,"Ġliquid":2346,"lobal":2347,"ĠGreat":2348,"Ġlaunches":2349,"Ġ~$":2350,"Ġfactor":2351,"Ġstrong":2352,"Ġinstall":2353,"Ġmultiplan":2354,"Ġmorning":2355,"!?":2356,"Now":2357,"Ġtank":2358,"orking":2359,"arily":2360,"Ġhim":2361,"Ġanal":2362,"Ġeconom":2363,"unk":2364,"ently":2365,"Ġprobability":2366,"ries":2367,"Ġchamber":2368,"Ġfins":2369,"Ġconfig":2370,"Ġrequired":2371,"Ġblock":2372,"Ġdetails":2373,"Ġsour":2374,"Ġbook":2375,"ings":2376,"Ġmus":2377,"Ġheavy":2378,"the":2379,"Ġcore":2380,"ĠCO":2381,"Ġdock":2382,"Ġask":2383,"ĠPer":2384,"oughly":2385,"ĠOr":2386,"Ġlead":2387,"Ġspecial":2388,"Ġinteresting":2389,"Ġowner":2390,"Ġimm":2391,"Ġpriority":2392,"aila":2393,"Ġradar":2394,"Ġmachine":2395,"Me":2396,"dit":2397,"ivery":2398,"ner":2399,"oh":2400,"rupt":2401,"Ġpast":2402,"Ġpick":2403,"Ġdual":2404,"ides":2405,"Ġlost":2406,"ĠGrasshopper":2407,"ĠStill":2408,"Ġattack":2409,"Ġmanufact":2410,"Ġpositive":2411,"bertruck":2412,"60":2413,"Aut":2414,"One":2415,"Worth":2416,"ler":2417,"Ġcy":2418,"Ġcat":2419,"Ġcode":2420,"rote":2421,"ested":2422,"urs":2423,"Ġarea":2424,"Ġexactly":2425,"istic":2426,"Ġusef":2427,"Ġtunnels":2428,"Ġindust":2429,"Ġappreciate":2430,"Ġexceed":2431,"Ġuseful":2432,"500":2433,"nect":2434,"ype":2435,"esign":2436,"Ġcivil":2437,"Ġfiring":2438,"Ġlarge":2439,"Ġonline":2440,"aby":2441,"ĠHW":2442,"ĠBet":2443,"eak":2444,"ĠEven":2445,"izing":2446,"ĠUAW":2447,"Ġparty":2448,"Ġquite":2449,"iously":2450,"ĠAmerica":2451,"ummon":2452,"Super":2453,"oon":2454,"self":2455,"work":2456,"Ġtiny":2457,"ination":2458,"Ġfo":2459,"Ġfour":2460,"Ġdens":2461,"roll":2462,"une":2463,"ĠMa":2464,"ĠMot":2465,"ĠAir":2466,"amed":2467,"cean":2468,"Ġorders":2469,"Ġconc":2470,"ĠPlease":2471,"Ġcharg":2472,"Ġmem":2473,"Ġmostly":2474,"Ġperfect":2475,"Ġreality":2476,"Ġlooking":2477,"Ġimprovement":2478,"plan":2479,"Ġreading":2480,"Ġtweet":2481,"Ġswap":2482,"Ġstandard":2483,"ov":2484,"outh":2485,"Ġmillion":2486,"Ġlist":2487,"Ġren":2488,"oline":2489,"Ġhell":2490,"ube":2491,"fford":2492,"Ġincent":2493,"Ġbigger":2494,"Ġmetal":2495,"head":2496,"ailable":2497,"ah":2498,"vity":2499,"Ġwrote":2500,"Ġmode":2501,"Ġpot":2502,"Ġdiam":2503,"utes":2504,"Ġshield":2505,"ĠThats":2506,"Ġdead":2507,"umb":2508,"Ġunless":2509,"Ġscale":2510,"Absolutely":2511,"Ġexcept":2512,"pril":2513,"Ġcreate":2514,"Ġfavorite":2515,"Ġindustry":2516,"Se":2517,"Was":2518,"gest":2519,"Ġsong":2520,"Ġsite":2521,"Ġcoun":2522,"Ġfocus":2523,"Ġher":2524,"acks":2525,"igate":2526,"Ġstatic":2527,"ament":2528,"Ġcold":2529,"ĠLove":2530,"ĠRuss":2531,"Ġpoints":2532,"Ġhappens":2533,"Ġdelivery":2534,"Ġexcellent":2535,"Ġsky":2536,"ĠPowerwall":2537,"Ġregulatory":2538,"Ġbeautiful":2539,"Ch":2540,"Can":2541,"Imp":2542,"ead":2543,"titude":2544,"Ġice":2545,"Ġpop":2546,"Ġocean":2547,"Ġrele":2548,"Ġwhite":2549,"Ġmoving":2550,"ules":2551,"Ġass":2552,"Ġtests":2553,"Ġclean":2554,"Ġmissions":2555,"Ġcompleted":2556,"Ġhyd":2557,"Ġirony":2558,"echn":2559,"ey":2560,"ok":2561,"ris":2562,"Ġafford":2563,"Ġwide":2564,"Ġcal":2565,"Ġfig":2566,"Ġtowards":2567,"Ġhon":2568,"Ġhover":2569,"rot":2570,"Ġgiven":2571,"Ġenable":2572,"ured":2573,"Ġseats":2574,"Ġusually":2575,"Ġpred":2576,"Ġamount":2577,"Ġparticul":2578,"Ġpublish":2579,"Ġavoid":2580,"ĠProbably":2581,"Only":2582,"Ġautomatically":2583,"Ġcamera":2584,"Ġfeedback":2585,"Ġmultiplanetary":2586,"viron":2587,"Ġut":2588,"Ġsounds":2589,"ised":2590,"Ġmess":2591,"Ġoffer":2592,"Ġisnt":2593,"Ġglass":2594,"iginal":2595,"ĠAnd":2596,"Ġrid":2597,"Ġshot":2598,"Ġensure":2599,"semb":2600,"Ġjud":2601,"Ġalthough":2602,"Ġchall":2603,"Well":2604,"Ġautonom":2605,"Ġvertical":2606,"Ġfinal":2607,"Almost":2608,"Ġcountries":2609,"Ġavailable":2610,"Ġoperating":2611,"Ġcreated":2612,"Congrats":2613,"Ġexpected":2614,"Ġfriend":2615,"Nice":2616,"man":2617,"vol":2618,"ret":2619,"rend":2620,"Ġwd":2621,"arter":2622,"Ġop":2623,"stron":2624,"Ġbeh":2625,"ĠMerlin":2626,"Ġprov":2627,"ife":2628,"Ġasked":2629,"umer":2630,"ĠBr":2631,"pped":2632,"ĠEng":2633,"phere":2634,"ellig":2635,"Ġcritic":2636,"Ġbasically":2637,"Ġachieve":2638,"Ġhyp":2639,"Ġnetwork":2640,"Ġtracking":2641,"Ġsuccessful":2642,"Ġbreak":2643,"Ġdiameter":2644,"20":2645,"Ph":2646,"Ġpan":2647,"Ġhouse":2648,"idual":2649,"ĠMach":2650,"Ġprovid":2651,"Ġenviron":2652,"Ġchar":2653,"ĠEV":2654,"Ġcomes":2655,"Ġtaken":2656,"Ġlear":2657,"Ġseries":2658,"Ġcrash":2659,"Ġbased":2660,"Ġexperience":2661,"More":2662,"ik":2663,"Ġsit":2664,"Ġwait":2665,"orld":2666,"Ġflo":2667,"Ġlab":2668,"Ġrefer":2669,"ĠTo":2670,"Ġforce":2671,"Ġeffic":2672,"ĠMost":2673,"Ġnote":2674,"ĠPh":2675,"cient":2676,"Ġarticles":2677,"ometimes":2678,"Ġgrid":2679,"Ġshows":2680,"Ġbecome":2681,"ibility":2682,"Ġhappened":2683,"Ġdifferent":2684,"icture":2685,"Ġrepair":2686,"Ġinclud":2687,"Ġinclude":2688,"Ġsubsid":2689,"ethrower":2690,"cast":2691,"coming":2692,"greed":2693,"Ġtor":2694,"rel":2695,"Ġfla":2696,"Ġpat":2697,"Ġpark":2698,"Ġoften":2699,"Ġant":2700,"ĠApril":2701,"ams":2702,"Ġvote":2703,"Ġseen":2704,"ared":2705,"Ġadjust":2706,"Ġanyway":2707,"Ġactive":2708,"berg":2709,"Ġspacecraft":2710,"Ġrolling":2711,"Ġdealers":2712,"Ġcombust":2713,"Ġprimary":2714,"Ġtotal":2715,"Oh":2716,"ned":2717,"uc":2718,"Ġign":2719,"illions":2720,"Ġonce":2721,"ĠIve":2722,"ĠCar":2723,"Ġprocess":2724,"Ġthank":2725,"iving":2726,"ground":2727,"Ġcustomer":2728,"Ġappe":2729,"ĠAmerican":2730,"Ġfeatures":2731,"Ġcameras":2732,"Ġfundament":2733,"Ġatmosphere":2734,"ĠPerformance":2735,"Ġprovide":2736,"Agreed":2737,"Glad":2738,"Hopefully":2739,"com":2740,"eing":2741,"ior":2742,"ians":2743,"ule":2744,"Ġ'":2745,"Ġbase":2746,"ators":2747,"Ġpicture":2748,"ĠAd":2749,"ilar":2750,"Ġtrain":2751,"Ġconnect":2752,"Ġword":2753,"Ġabort":2754,"Ġcarry":2755,"ived":2756,"Ġflights":2757,"anger":2758,"mercial":2759,"Ġrequest":2760,"Ġcloser":2761,"ĠNext":2762,"Ġopening":2763,"Ġdelivered":2764,"Ġacross":2765,"De":2766,"Our":2767,"Un":2768,"With":2769,"na":2770,"Ġpaid":2771,"Ġdam":2772,"ĠSp":2773,"entially":2774,"Ġnecess":2775,"ĠNA":2776,"Ġaltitude":2777,"Ġworked":2778,"Ġscreen":2779,"iverse":2780,"overed":2781,"Ġcreating":2782,"Ġpropul":2783,"Ġjournal":2784,"Ġsnow":2785,"Ġscience":2786,"elligence":2787,"WD":2788,"ox":2789,"ye":2790,"Ġer":2791,"Ġturb":2792,"Ġfall":2793,"ency":2794,"Ġmist":2795,"Ġpump":2796,"Ġhuge":2797,"aced":2798,"uth":2799,"Ġstor":2800,"Ġprom":2801,"Ġalone":2802,"Ġeverything":2803,"Ġdemand":2804,"Ġflying":2805,"Ġblack":2806,"Ġcertainly":2807,"ĠInternet":2808,"Next":2809,"Actually":2810,"Ġdensity":2811,"bers":2812,"haps":2813,"ole":2814,"pro":2815,"inc":2816,"Ġactions":2817,"Ġsend":2818,"Ġtheres":2819,"Ġbillion":2820,"Ġmom":2821,"Ġtow":2822,"Ġden":2823,"ĠAre":2824,"ops":2825,"usion":2826,"Ġrain":2827,"Ġcoast":2828,"Thank":2829,"ures":2830,"Ġprem":2831,"Ġprevent":2832,"orne":2833,"Ġelectricity":2834,"Ġphysics":2835,"Ġguess":2836,"Ġsimple":2837,"Ġraise":2838,"Ġlatest":2839,"ĠSunday":2840,"Ġsource":2841,"ining":2842,"arant":2843,"Ġhat":2844,"Ġnamed":2845,"elves":2846,"aces":2847,"lect":2848,"Ġforg":2849,"ĠInd":2850,"Ġstation":2851,"ĠAn":2852,"Ġabs":2853,"ember":2854,"Ġarri":2855,"Ġgreater":2856,"Ġdesc":2857,"Ġresults":2858,"itten":2859,"unning":2860,"Ġpassed":2861,"Ġinitial":2862,"ĠNASA":2863,"selves":2864,"ren":2865,"Ġbtw":2866,"Ġdark":2867,"Ġgrow":2868,"acity":2869,"Ġrd":2870,"ĠWas":2871,"ounts":2872,"ĠPar":2873,"Ġunc":2874,"\"\".":2875,"Why":2876,"Ġseeing":2877,"ĠSuperchargers":2878,"olog":2879,"Ġextreme":2880,"Ġcompetition":2881,"Ġnumbers":2882,"Ġdeaths":2883,"Ġrapidly":2884,"Ġearli":2885,"Ġtorque":2886,"Ġcombustion":2887,"Turn":2888,"can":2889,"gether":2890,"par":2891,"sh":2892,"ugh":2893,"Ġsqu":2894,"Ġsays":2895,"Ġbought":2896,"Ġmount":2897,"Ġtogether":2898,"Ġhate":2899,"Ġredu":2900,"ĠSorry":2901,"ĠId":2902,"ushing":2903,"Ġprof":2904,"ĠWith":2905,"Ġdeg":2906,"action":2907,"Ġoutside":2908,"Ġhear":2909,"Ġtheyre":2910,"Ġgasoline":2911,"Ġobv":2912,"Ġbelow":2913,"1000":2914,"Ġgravity":2915,"Ġpresent":2916,"Long":2917,"ike":2918,"pm":2919,"Ġtube":2920,"iness":2921,"Ġbank":2922,"Ġcatch":2923,"Ġnorm":2924,"asons":2925,"unately":2926,"ĠApp":2927,"irth":2928,"Ġweb":2929,"andy":2930,"Ġnose":2931,"Ġcontract":2932,"Ġelse":2933,"Ġstruct":2934,"Ġquestions":2935,"Ġinvestors":2936,"Ġblog":2937,"Ġdeployed":2938,"Ġprices":2939,"ran":2940,"vin":2941,"ĠYes":2942,"rew":2943,"read":2944,"Ġdut":2945,"ĠSer":2946,"ĠImp":2947,"terday":2948,"Ġtried":2949,"ĠHope":2950,"ĠNorth":2951,"Ġkill":2952,"Ġmeeting":2953,"emi":2954,"Ġcommercial":2955,"aterial":2956,"Ġlandings":2957,"Ġotherwise":2958,"Ġinterview":2959,"ages":2960,"Ġshorts":2961,"pension":2962,"Ġmassive":2963,"Ġincreasing":2964,"Ġcommun":2965,"Ġwindow":2966,"ĠDoge":2967,"ruction":2968,"Ġcurrently":2969,"coin":2970,"ĠNorway":2971,"Ġsuspension":2972,"Ġsitu":2973,"Best":2974,"LA":2975,"by":2976,"iens":2977,"oke":2978,"uit":2979,"Ġter":2980,"Ġtel":2981,"Ġsuck":2982,"Ġthrot":2983,"Ġoil":2984,"Ġlatter":2985,"Ġglobal":2986,"vern":2987,"Ġweight":2988,"Ġvar":2989,"Ġvid":2990,"Ġgovern":2991,"Ġrole":2992,"rain":2993,"ĠRep":2994,"apan":2995,"Ġheight":2996,"ĠJapan":2997,"Ġlanded":2998,"ĠVery":2999,"Ġaccurate":3000,"Ġunderway":3001,"Ġadding":3002,"ney":3003,"ĠCanada":3004,"Ġversions":3005,"Ġsurface":3006,"iction":3007,"Ġvisit":3008,"ecause":3009,"ĠForce":3010,"undred":3011,"ponse":3012,"Ġthinking":3013,"fortunately":3014,"Ġearlier":3015,"Looking":3016,"SolarCity":3017,"core":3018,"mm":3019,"yp":3020,"Ġten":3021,"Ġmaterial":3022,"ĠSep":3023,"ĠMode":3024,"thorne":3025,"ĠWere":3026,"Ġassemb":3027,"ĠThurs":3028,"Ġcomments":3029,"Ġanywhere":3030,"bital":3031,"ensive":3032,"000":3033,"Ġlift":3034,"Ġpersonally":3035,"Ġcontinu":3036,"Ġenvironment":3037,"cape":3038,"time":3039,"Ġtouch":3040,"Ġsched":3041,"Ġcor":3042,"itical":3043,"Ġtold":3044,"Ġopp":3045,"ĠToo":3046,"aming":3047,"Ġvast":3048,"Ġoriginal":3049,"antic":3050,"Ġaliens":3051,"Ġbug":3052,"Ġquality":3053,"Ġrealize":3054,"Ġsmart":3055,"Ġminor":3056,"Ġimproved":3057,"ysis":3058,"Ġguys":3059,"Ġcapacity":3060,"Ġsteering":3061,"Ġsimply":3062,"iency":3063,"Ġprotot":3064,"Ġhorse":3065,"Ġreceived":3066,"Ġbegin":3067,"ĠCybertruck":3068,"Ġcivilization":3069,"App":3070,"lon":3071,"lack":3072,"mr":3073,"ple":3074,"Ġtight":3075,"Ġtmr":3076,"Ġaero":3077,"Ġtho":3078,"atively":3079,"Ġcut":3080,"Ġfan":3081,"Ġdouble":3082,"edi":3083,"Ġlink":3084,"Ġhit":3085,"ĠTX":3086,"ĠAiming":3087,"Ġneural":3088,"Ġrunning":3089,"ĠFound":3090,"Ġsepar":3091,"ĠHave":3092,"ĠLot":3093,"Ġkid":3094,"Ġhealth":3095,"ĠOne":3096,"Ġspend":3097,"oca":3098,"Ġaccount":3099,"Ġpowered":3100,"Ġbiggest":3101,"Ġwanted":3102,"Happy":3103,"Ġguy":3104,"Ġtalent":3105,"Ġrequires":3106,"ondon":3107,"Ġdemo":3108,"auts":3109,"Ġvision":3110,"Ġkinda":3111,"Ġdistance":3112,"zzle":3113,"Ġanalysis":3114,"Ġimmedi":3115,"Ġtmrw":3116,"ossible":3117,"pite":3118,"rs":3119,"wide":3120,"Ġblow":3121,"Ġbirth":3122,"etting":3123,"ĠCH":3124,"ĠCould":3125,"ĠComm":3126,"Ġvent":3127,"Ġdoor":3128,"ĠBase":3129,"ĠBoca":3130,"ĠEaster":3131,"Ġarr":3132,"Ġposs":3133,"ivity":3134,"ously":3135,"Ġthru":3136,"Ġharder":3137,"weet":3138,"Ġresponse":3139,"Star":3140,"Ġsubject":3141,"Ġclar":3142,"Ġentry":3143,"Ġsurpr":3144,"Ġproducts":3145,"Ġturned":3146,"Ġconcern":3147,"Ġcounter":3148,"Ġcriticism":3149,"Ġnormal":3150,"Aiming":3151,"Boring":3152,"af":3153,"ms":3154,"mas":3155,"Ġi":3156,"erry":3157,"Ġsl":3158,"iss":3159,"Ġlay":3160,"Ġhundred":3161,"Ġnav":3162,"ĠSolar":3163,"oms":3164,"omes":3165,"Ġroughly":3166,"Ġrules":3167,"key":3168,"ĠCl":3169,"ift":3170,"ĠFe":3171,"raph":3172,"ĠLooking":3173,"Ġsolve":3174,"Ġextend":3175,"aged":3176,"Ġsmaller":3177,"Ġbraking":3178,"Ġscient":3179,"Ġpods":3180,"Ġcryo":3181,"Ġpaint":3182,"Ġchalleng":3183,"Don":3184,"Dont":3185,"ek":3186,"hi":3187,"mit":3188,"Ġet":3189,"Ġide":3190,"Ġbus":3191,"Ġcases":3192,"Ġfam":3193,"Ġlas":3194,"Ġnd":3195,"ĠTe":3196,"ĠSemi":3197,"Ġegg":3198,"Ġstar":3199,"Ġcolor":3200,"ĠLondon":3201,"Ġmeas":3202,"Ġcannot":3203,"Ġhighest":3204,"ĠJuly":3205,"ĠJoh":3206,"ports":3207,"Ġengineers":3208,"Ġfeels":3209,"Ġrespect":3210,"Ġinside":3211,"Ġsimulation":3212,"Ġinstead":3213,"Ġstores":3214,"Ġnegative":3215,"Ġmusic":3216,"Ġmanufacturing":3217,"Ġanti":3218,"ĠJohn":3219,"for":3220,"pir":3221,"ze":3222,"eslas":3223,"att":3224,"Ġcow":3225,"Ġcame":3226,"oub":3227,"itors":3228,"Ġdanger":3229,"Ġhol":3230,"ica":3231,"Ġreli":3232,"ĠSat":3233,"laid":3234,"ĠMust":3235,"Ġrating":3236,"Ġbutton":3237,"ĠFrid":3238,"ĠDa":3239,"ĠEn":3240,"ĠGen":3241,"Ġoutput":3242,"Ġplant":3243,"Ġadvert":3244,"Ġquarter":3245,"Ġinternal":3246,"Ġoptions":3247,"Ġavg":3248,"Ġkey":3249,"Ġparking":3250,"Ġdirectly":3251,"Ġcrew":3252,"Ġyesterday":3253,"Ġconsidered":3254,"Ġlarger":3255,"Ġmagn":3256,"Ġunderstand":3257,"Ġconfirmed":3258,"Ġinjuries":3259,"Ġpotential":3260,"Ġaffordable":3261,"Ġefficiency":3262,"Comp":3263,"Eng":3264,"Tr":3265,"Working":3266,"hor":3267,"rist":3268,"ux":3269,"Ġill":3270,"onic":3271,"Ġbs":3272,"Ġbot":3273,"Ġcash":3274,"Ġfight":3275,"Ġfore":3276,"elt":3277,"ĠSolarCity":3278,"ĠSouth":3279,"ctor":3280,"Ġsocial":3281,"ceed":3282,"uled":3283,"Ġdoors":3284,"ĠThose":3285,"ĠBerlin":3286,"ĠLo":3287,"ĠLaunch":3288,"ĠGo":3289,"ividual":3290,"Ġsaw":3291,"epend":3292,"oogle":3293,"Ġdeser":3294,"ording":3295,"Ġlots":3296,"Ġinterior":3297,"Ġexpla":3298,"Still":3299,"Ġshortly":3300,"Ġretro":3301,"Ġobject":3302,"ification":3303,"Ġupgraded":3304,"Ġsetting":3305,"Ġtweets":3306,"Ġdrone":3307,"Ġacceleration":3308,"egas":3309,"racy":3310,"Ġlargest":3311,"Ġsupply":3312,"ĠHowever":3313,"Ġstorage":3314,"Ġbankrupt":3315,"ĠSept":3316,"ging":3317,"oint":3318,"ror":3319,"Ġess":3320,"Ġtit":3321,"Ġastron":3322,"Ġsum":3323,"Ġways":3324,"Ġbaby":3325,"Ġcla":3326,"Ġcur":3327,"Ġcirc":3328,"ishing":3329,"Ġpage":3330,"Ġpush":3331,"Ġdie":3332,"str":3333,"Ġreasons":3334,"opter":3335,"Ġrat":3336,"Ġrare":3337,"Ġrail":3338,"ĠCons":3339,"anden":3340,"Ġjack":3341,"ĠHouse":3342,"ĠPl":3343,"Ġloop":3344,"ains":3345,"istics":3346,"Ġheating":3347,"ĠOb":3348,"Ġbuying":3349,"Ġapply":3350,"Ġdespite":3351,"Ġupgrades":3352,"ĠRocket":3353,"Ġhandle":3354,"ĠNYT":3355,"Ġmoder":3356,"Ġprecision":3357,"Ġargu":3358,"ĠIsp":3359,"ĠBoeing":3360,"Ġincluding":3361,"ĠIndia":3362,"Ġthrottle":3363,"ĠFriday":3364,"night":3365,"Ġir":3366,"eral":3367,"Ġwom":3368,"Ġbi":3369,"Ġfit":3370,"ene":3371,"Ġglad":3372,"ĠSm":3373,"ĠSummon":3374,"ample":3375,"ĠMe":3376,"Ġstep":3377,"Ġweap":3378,"Ġrout":3379,"lock":3380,"\"\",":3381,"arent":3382,"Ġmyself":3383,"xtrem":3384,"Ġimpress":3385,"ival":3386,"Ġmisle":3387,"Ġexpend":3388,"Ġdelay":3389,"elling":3390,"ivers":3391,"Ġclosed":3392,"ĠReally":3393,"Ġapproach":3394,"Ġoperation":3395,"Ġinfl":3396,"Ġultra":3397,"Ġincredible":3398,"volution":3399,"Ġhypersonic":3400,"Ġmoment":3401,"Ġwebcast":3402,"Ġgovernment":3403,"FR":3404,"Ind":3405,"Mars":3406,"Over":3407,"UD":3408,"akes":3409,"aiting":3410,"sigh":3411,"Ġahead":3412,"Ġwal":3413,"orter":3414,"Ġpath":3415,"ico":3416,"ele":3417,"Ġreb":3418,"ĠTeslas":3419,"Ġep":3420,"chool":3421,"ĠMart":3422,"Ġsold":3423,"ithium":3424,"ĠFirst":3425,"ĠBro":3426,"Ġwasn":3427,"ĠGoogle":3428,"Ġoutcome":3429,"Ġimpossible":3430,"Ġplans":3431,"ĠVegas":3432,"Ġdriver":3433,"Ġknown":3434,"Ġextra":3435,"Ġoffic":3436,"Ġtransfer":3437,"Ġstarts":3438,"Ġwritten":3439,"Ġappreciation":3440,"Ġsurv":3441,"Ġletter":3442,"Ġposition":3443,"Ġrocks":3444,"raco":3445,"Ġlaws":3446,"Ġtricky":3447,"Ġprototype":3448,"Any":3449,"BC":3450,"Hi":3451,"egr":3452,"go":3453,"ugg":3454,"Ġsil":3455,"rees":3456,"Ġbay":3457,"Ġhur":3458,"ices":3459,"aching":3460,"ĠTrend":3461,"idth":3462,"ĠMany":3463,"iment":3464,"thanks":3465,"opump":3466,"cellent":3467,"iff":3468,"Ġenab":3469,"andom":3470,"ĠHaw":3471,"Ġworse":3472,"ĠBig":3473,"ources":3474,"Ġproduced":3475,"Ġsooner":3476,"Ġ%.":3477,"Ġintegr":3478,"Ġminim":3479,"Ġexpon":3480,"Ġthemselves":3481,"Have":3482,"Ġphys":3483,"remont":3484,"Ġsupporting":3485,"ĠWhy":3486,"Ġstrange":3487,"Ġhappening":3488,"vidence":3489,"Ġfilter":3490,"Ġsharehold":3491,"Ġutility":3492,"Ġcharac":3493,"Ġfundamental":3494,"Ġchallenges":3495,"hibit":3496,"Ġetc":3497,"Ġratio":3498,"Bet":3499,"UV":3500,"Up":3501,"augh":3502,"ball":3503,"ford":3504,"oes":3505,"ring":3506,"sc":3507,"set":3508,"tion":3509,"Ġtun":3510,"Ġsometimes":3511,"ream":3512,"Ġcorn":3513,"arks":3514,"Ġpet":3515,"Ġodd":3516,"ĠTechn":3517,"ĠIM":3518,"upport":3519,"ĠAny":3520,"ury":3521,"urity":3522,"Ġsequ":3523,"Ġ(~":3524,"Ġchild":3525,"ĠRed":3526,"Ġfake":3527,"Ġspl":3528,"Ġteams":3529,"Ġreser":3530,"Ġimproves":3531,"Ġhumans":3532,"Ġdisag":3533,"formation":3534,"Really":3535,"Ġinsane":3536,"Ġproblems":3537,"Ġtaxes":3538,"Ġvalid":3539,"Ġapprox":3540,"Ġdemoc":3541,"ngth":3542,"Ġlimit":3543,"Ġwinds":3544,"Ġstopp":3545,"Ġsimilar":3546,"ĠDoes":3547,"Ġinvestigate":3548,"Ġreturned":3549,"Ġdevelopment":3550,"Ġfinished":3551,"Ġfoot":3552,"Ġparticularly":3553,"Ġautonomous":3554,"Ġprovided":3555,"Ġnecessary":3556,"Ġassembly":3557,"Every":3558,"nes":3559,"rust":3560,"ula":3561,"Ġcross":3562,"Ġped":3563,"Ġnational":3564,"icy":3565,"ĠTr":3566,"ĠSUV":3567,"Ġones":3568,"omb":3569,"ighter":3570,"Ġorg":3571,"ĠFull":3572,"Ġseat":3573,"ĠHard":3574,"ĠHear":3575,"ĠBe":3576,"peed":3577,"ĠPart":3578,"ĠPres":3579,"Ġchoice":3580,"ĠEvery":3581,"arting":3582,"conds":3583,"Ġimport":3584,"ĠOther":3585,"attery":3586,"Ġcontrib":3587,"Ġminus":3588,"Ġserious":3589,"Ġpowerful":3590,"Ġworldwide":3591,"ĠShort":3592,"Ġlevels":3593,"Ġescape":3594,"Ġreusability":3595,"Ġdram":3596,"Ġstrength":3597,"Ġobviously":3598,"Ġcolle":3599,"Ġsuggestions":3600,"ĠAustral":3601,"ĠMotor":3602,"Ġcharging":3603,"Ġturbopump":3604,"Ġmisleading":3605,"Ġdisagree":3606,"Even":3607,"Fair":3608,"Hoping":3609,"Testing":3610,"ding":3611,"eace":3612,"gor":3613,"mon":3614,"oly":3615,"pha":3616,"Ġtall":3617,"Ġtap":3618,"Ġtiles":3619,"Ġthous":3620,"Ġthread":3621,"Ġbill":3622,"Ġmodel":3623,"Ġmarg":3624,"Ġmillions":3625,"arry":3626,"Ġtower":3627,"icense":3628,"igation":3629,"Ġeff":3630,"ĠIP":3631,"Ġyeah":3632,"ĠMass":3633,"ĠAug":3634,"Ġrather":3635,"ified":3636,"ĠThen":3637,"raul":3638,"ument":3639,"ĠDont":3640,"arding":3641,"Ġunli":3642,"Ġupload":3643,"ainless":3644,"Ġmech":3645,"ssil":3646,"ption":3647,"Who":3648,"Ġresources":3649,"Ġserve":3650,"Ġinterested":3651,"Ġaircraft":3652,"Ġphot":3653,"Ġindepend":3654,"Ġplaying":3655,"Ġwarming":3656,"Ġflu":3657,"Ġstudy":3658,"Ġreplace":3659,"ĠMonday":3660,"ĠAustin":3661,"Ġpanels":3662,"Ġimmediately":3663,"EO":3664,"Full":3665,"Going":3666,"MA":3667,"Something":3668,"Solar":3669,"US":3670,"mak":3671,"rant":3672,"round":3673,"vation":3674,"yr":3675,"Ġur":3676,"Ġtanks":3677,"Ġsports":3678,"Ġbooks":3679,"enge":3680,"ansion":3681,"Ġpushing":3682,"Ġocc":3683,"Ġgone":3684,"ĠTop":3685,"Ġbeha":3686,"Ġevidence":3687,"enter":3688,"alley":3689,"urance":3690,"ĠFremont":3691,"Ġsea":3692,"raw":3693,"umin":3694,"uming":3695,"rian":3696,"ĠHa":3697,"acked":3698,"ĠLooks":3699,"ĠGM":3700,"Ġnozzle":3701,"Ġintelligence":3702,"Ġaccident":3703,"Ġimproving":3704,"Ġknows":3705,"Ġthruster":3706,"Ġgenerator":3707,"Ġsecurity":3708,"Amazing":3709,"Ġallowed":3710,"Ġremember":3711,"Ġannual":3712,"Ġposted":3713,"Ġlights":3714,"Ġconstant":3715,"Ġconstra":3716,"Ġjobs":3717,"Ġexisting":3718,"Ġflamethrower":3719,"Ġcells":3720,"Ġachieved":3721,"Ġfigure":3722,"Ġmessed":3723,"Ġpatents":3724,"ĠReports":3725,"Ġmagnitude":3726,"Ġsummer":3727,"ĠHawthorne":3728,"Both":3729,"Raptor":3730,"Same":3731,"bo":3732,"bur":3733,"km":3734,"vest":3735,"inder":3736,"inite":3737,"real":3738,"Ġpitch":3739,"Ġdying":3740,"Ġlbs":3741,"Ġhar":3742,"ional":3743,"Ġgim":3744,"Ġgreen":3745,"acy":3746,"ĠSF":3747,"Ġbeer":3748,"ods":3749,"ĠMom":3750,"imov":3751,"ĠAp":3752,"ĠAWD":3753,"irt":3754,"Ġwebs":3755,"Ġarent":3756,"Ġtruth":3757,"Ġmob":3758,"abil":3759,"ular":3760,"rief":3761,"Ġwords":3762,"Ġmaint":3763,"Ġlose":3764,"Ġhex":3765,"Ġheart":3766,"ĠSte":3767,"Ġtested":3768,"Ġhardcore":3769,"Ġspent":3770,"osite":3771,"ĠWell":3772,"Ġautopilot":3773,"Ġexplan":3774,"Ġstarted":3775,"Ġwrite":3776,"Ġinsp":3777,"Ġmeth":3778,"Ġcompletely":3779,"Ġallowing":3780,"Ġrollout":3781,"Ġcapability":3782,"Ġlocations":3783,"Ġmagic":3784,"ĠSeems":3785,"Ġrobot":3786,"Ġincredibly":3787,"Ġsmooth":3788,"Important":3789,"Ġsituation":3790,"ĠFoundation":3791,"ĠTeam":3792,"piration":3793,"andenberg":3794,"xtremely":3795,"AA":3796,"Big":3797,"aking":3798,"ipping":3799,"lantic":3800,"ners":3801,"yth":3802,"year":3803,"Ġest":3804,"Ġtip":3805,"ony":3806,"Ġcast":3807,"Ġfi":3808,"Ġfiction":3809,"ences":3810,"Ġport":3811,"etic":3812,"Ġgave":3813,"Ġgives":3814,"ĠMont":3815,"ussion":3816,"Ġcoating":3817,"atever":3818,"Ġdev":3819,"uman":3820,"ĠBest":3821,"ĠBtw":3822,"ĠDec":3823,"Ġalien":3824,"Ġunion":3825,"oster":3826,"Ġhighway":3827,"ĠValley":3828,"Ġperi":3829,"ocal":3830,"ĠChrist":3831,"ĠInst":3832,"Ġadded":3833,"Ġregions":3834,"Ġconfident":3835,"Nothing":3836,"Ġindividual":3837,"Ġguarant":3838,"aptors":3839,"Ġmetric":3840,"Ġbelie":3841,"Ġvalve":3842,"Ġallows":3843,"ĠProduction":3844,"Ġdiscussion":3845,"Ġjourney":3846,"Ġaccelerate":3847,"ĠAtlantic":3848,"Ġoptimistic":3849,"ength":3850,"ĠArt":3851,"Meant":3852,"Ġrender":3853,"ĠParad":3854,"Ġhundreds":3855,"Ġcollege":3856,"ython":3857,"85":3858,"Because":3859,"TA":3860,"Try":3861,"app":3862,"bor":3863,"lay":3864,"rame":3865,"Ġage":3866,"Ġaiming":3867,"Ġsumm":3868,"Ġben":3869,"Ġcamp":3870,"ana":3871,"Ġmil":3872,"Ġpeak":3873,"Ġdry":3874,"Ġdumb":3875,"Ġnice":3876,"vey":3877,"ille":3878,"ida":3879,"ternal":3880,"Ġstates":3881,"These":3882,"Ġvoice":3883,"ĠWish":3884,"Ġtruly":3885,"Ġenc":3886,"Ġseconds":3887,"Ġability":3888,"ĠDon":3889,"ĠPac":3890,"Ġalumin":3891,"pper":3892,"Ġcomfort":3893,"Ġplane":3894,"ĠVandenberg":3895,"Ġfaith":3896,"Exc":3897,"Ġintense":3898,"Ġexpensive":3899,"Ġhelium":3900,"ĠIns":3901,"Ġhelpful":3902,"Ġadvent":3903,"Ġclass":3904,"Ġimag":3905,"Ġplanet":3906,"ĠYork":3907,"Ġmaxim":3908,"Ġrefund":3909,"Ġoperational":3910,"Ġcareful":3911,"Ġbrain":3912,"cling":3913,"uralink":3914,"Ġdeveloping":3915,"Ġchanging":3916,"Ġconstruction":3917,"Does":3918,"Ġdrops":3919,"lorida":3920,"Ġaddressed":3921,"Major":3922,"Ġcyc":3923,"Ġexceeds":3924,"ĠBeta":3925,"ĠBetter":3926,"Ġincentives":3927,"Seems":3928,"Ġhydro":3929,"Ġsubsidies":3930,"Ġreduce":3931,"Ġcommunic":3932,"Ġideas":3933,"Ġarguably":3934,"12":3935,"Id":3936,"Max":3937,"Per":3938,"TO":3939,"den":3940,"mission":3941,"rous":3942,"ses":3943,"vate":3944,"will":3945,"Ġtb":3946,"Ġtour":3947,"Ġtires":3948,"ones":3949,"Ġwall":3950,"atest":3951,"Ġhea":3952,"Ġhous":3953,"Ġhang":3954,"icro":3955,"Ġgig":3956,"ĠTues":3957,"Ġangle":3958,"Ġeve":3959,"ĠAC":3960,"Ġweve":3961,"Ġwhats":3962,"Ġwhether":3963,"amm":3964,"Ġproject":3965,"Ġdog":3966,"Ġrot":3967,"Ġexec":3968,"Ġsection":3969,"umers":3970,"Ġconvin":3971,"ried":3972,"ĠBit":3973,"ĠDri":3974,"ĠPC":3975,"Ġloss":3976,"Ġhighly":3977,"epends":3978,"Ġincorrect":3979,"Ġ%,":3980,"week":3981,"Ġqui":3982,"Ġrecall":3983,"Ġfunny":3984,"Ġresol":3985,"Ġresale":3986,"Ġminutes":3987,"Ġprint":3988,"exactly":3989,"Ġvector":3990,"Ġstarting":3991,"Ġfired":3992,"Ġcapital":3993,"Ġdirection":3994,"Ġpackage":3995,"Ġholding":3996,"Ġmotors":3997,"Ġcredibility":3998,"Ġterminal":3999,"Ġcomplexity":4000,"Ġdebate":4001,"ĠHighly":4002,"Ġfunctionality":4003,"ĠCoast":4004,"ĠRussian":4005,"Ġhydraul":4006,"Ġhonor":4007,"Ġpredict":4008,"Ġjournalists":4009,"lectric":4010,"Ġdescri":4011,"Ġmounted":4012,"Ġholid":4013,"Ġclaim":4014,"Ġweapons":4015,"Ġwebsite":4016,"Back":4017,"Fe":4018,"IP":4019,"Res":4020,"Sigh":4021,"Time":4022,"father":4023,"iew":4024,"now":4025,"ration":4026,"rough":4027,"range":4028,"ville":4029,"eros":4030,"onna":4031,"Ġsat":4032,"Ġsad":4033,"Ġban":4034,"itor":4035,"Ġhos":4036,"Ġnor":4037,"otive":4038,"ĠMk":4039,"ĠMight":4040,"Ġsty":4041,"Ġstuff":4042,"upiter":4043,"through":4044,"amn":4045,"Ġround":4046,"Ġrandom":4047,"urther":4048,"rav":4049,"umul":4050,"riane":4051,"Ġworry":4052,"Ġmap":4053,"ĠDel":4054,"ĠDefinitely":4055,"ĠPeople":4056,"ĠPlaid":4057,"Ġalong":4058,"Ġunits":4059,"reating":4060,"ĠRaptors":4061,"Ġoverr":4062,"venue":4063,"Ġdriven":4064,"Ġrecent":4065,"Ġelev":4066,"Ġfewer":4067,"Ġminute":4068,"Ġsupersonic":4069,"Ġfinan":4070,"Ġtransit":4071,"Ġtwice":4072,"Ġimage":4073,"Review":4074,"ĠSupercharging":4075,"Ġcontroll":4076,"Ġsecret":4077,"Ġincreases":4078,"Ġprivate":4079,"Ġautomotive":4080,"Ġprobable":4081,"Ġwonder":4082,"Ġregulators":4083,"Ġlogistics":4084,"Ġinjury":4085,"Autopilot":4086,"planetary":4087,"Ġpopulation":4088,"Ġbehind":4089,"Ġbehalf":4090,"Ġlearn":4091,"Deep":4092,"Ġstructure":4093,"Ġbirthday":4094,"Ġpossibly":4095,"Ġclarify":4096,"ĠConsumer":4097,"Ġexpendable":4098,"ĠAustralia":4099,"Ġmargin":4100,"Ġmobile":4101,"Ġhydraulic":4102,"AC":4103,"Live":4104,"PU":4105,"fully":4106,"ka":4107,"mi":4108,"mk":4109,"uild":4110,"inks":4111,"Ġswit":4112,"Ġfurther":4113,"itter":4114,"itable":4115,"etry":4116,"level":4117,"Ġrese":4118,"ĠMT":4119,"ĠMuch":4120,"ĠMax":4121,"Ġstay":4122,"Ġstack":4123,"imately":4124,"ĠAb":4125,"Ġcook":4126,"uration":4127,"Ġshut":4128,"ĠWed":4129,"Ġexact":4130,"ĠFlorida":4131,"Ġconven":4132,"Ġuniverse":4133,"Ġcompelling":4134,"Ġwouldn":4135,"cious":4136,"Ġplaces":4137,"ĠJune":4138,"Ġmonop":4139,"Ġsolid":4140,"While":4141,"Ġquick":4142,"ference":4143,"Ġmini":4144,"Ġboard":4145,"Ġscore":4146,"Ġconsumers":4147,"itional":4148,"ĠWhen":4149,"Ġlegal":4150,"Ġcooling":4151,"Ġcapable":4152,"ĠNothing":4153,"umption":4154,"Ġcommon":4155,"ĠNews":4156,"Ġfeeling":4157,"Ġwarm":4158,"resent":4159,"Ġdrop":4160,"Ġfriends":4161,"Ġpurch":4162,"Ġflaps":4163,"Ġmeasure":4164,"oubt":4165,"Ġastronauts":4166,"ĠPresident":4167,"Ġheavi":4168,"Ġresearch":4169,"++":4170,"AI":4171,"Hard":4172,"Huge":4173,"Nor":4174,"body":4175,"cool":4176,"frame":4177,"ios":4178,"me":4179,"oving":4180,"por":4181,"ritical":4182,"son":4183,"Ġ)":4184,"Ġsweet":4185,"Ġcandy":4186,"itect":4187,"ension":4188,"rop":4189,"icrous":4190,"Ġreact":4191,"Ġreaching":4192,"Ġeat":4193,"chitect":4194,"ĠMarch":4195,"Ġstorm":4196,"Ġstations":4197,"usted":4198,"use":4199,"Ġrace":4200,"sell":4201,"ĠFAA":4202,"Ġlives":4203,"ĠBFR":4204,"ĠNN":4205,"ĠDM":4206,"aren":4207,"Ġarchitect":4208,"Ġpoll":4209,"udicrous":4210,"Ġdrives":4211,"Ġboat":4212,"ĠSuperd":4213,"Ġdownload":4214,"Ġfires":4215,"Ġindeed":4216,"Ġupdated":4217,"Ġcentral":4218,"ĠRequ":4219,"ashdown":4220,"Ġpropag":4221,"Ġmeaning":4222,"Ġaccelerating":4223,"Ġstudent":4224,"Ġeventually":4225,"Ġpolicy":4226,"ĠInternational":4227,"Ġhoriz":4228,"Ġaffects":4229,"Ġcrypt":4230,"ĠMajor":4231,"years":4232,"Ġduty":4233,"Ġventil":4234,"Ġfamily":4235,"Ġofficial":4236,"Ġexplanation":4237,"Ġsummary":4238,"Ġaluminum":4239,"19":4240,"Battery":4241,"Landing":4242,"View":4243,"fit":4244,"pital":4245,"world":4246,"Ġfac":4247,"ano":4248,"angh":4249,"Ġdrag":4250,"edic":4251,"Ġlines":4252,"Ġlithium":4253,"Ġnone":4254,"icon":4255,"etch":4256,"acopter":4257,"lear":4258,"otally":4259,"ĠSomething":4260,"Ġang":4261,"ĠMin":4262,"ĠMex":4263,"Ġracing":4264,"Ġyoud":4265,"ĠWest":4266,"anda":4267,"Ġconvers":4268,"Ġcondit":4269,"ĠDid":4270,"Ġalloc":4271,"ĠPython":4272,"Ġlock":4273,"ĠEast":4274,"ĠLZ":4275,"ĠLong":4276,"ĠLarry":4277,"ĠkWh":4278,"Ġcomment":4279,"eff":4280,"ĠUI":4281,"ĠJupiter":4282,"Ġactiv":4283,"Ġsave":4284,"Ġhardest":4285,"ultane":4286,"Ġrecirc":4287,"Ġexpansion":4288,"Stop":4289,"Ġextending":4290,"Ġgrad":4291,"Ġgrand":4292,"ĠAlmost":4293,"Ġshowing":4294,"Reg":4295,"Ġgenerated":4296,"Ġupdates":4297,"Ġtalking":4298,"ĠNote":4299,"Ġcomputing":4300,"Ġsimultane":4301,"Ġeasily":4302,"Ġflies":4303,"Ġchanged":4304,"ledge":4305,"Ġwheels":4306,"Ġgraph":4307,"ĠDeep":4308,"Ġequal":4309,"Ġthinks":4310,"However":4311,"Making":4312,"Ġdocking":4313,"Ġleader":4314,"Ġpropuls":4315,"Ġpropulsion":4316,"Ġmistake":4317,"Turns":4318,"Ġbeginning":4319,"Indeed":4320,"Ġgimbal":4321,"ĠPacific":4322,"Ġpropaganda":4323,"anghai":4324,"ĠMexico":4325,"Ġconditions":4326,"15":4327,"Cy":4328,"Need":4329,"People":4330,"TC":4331,"Your":4332,"cel":4333,"dds":4334,"lation":4335,"oj":4336,"power":4337,"rack":4338,"wo":4339,"word":4340,"yeah":4341,"onstr":4342,"Ġslam":4343,"Ġschool":4344,"rey":4345,"orters":4346,"Ġcave":4347,"Ġfre":4348,"Ġfusion":4349,"oug":4350,"Ġpull":4351,"Ġdedic":4352,"Ġinput":4353,"Ġinhibit":4354,"Ġrev":4355,"uts":4356,"ĠMar":4357,"ĠAP":4358,"ĠCon":4359,"ĠCant":4360,"Then":4361,"Those":4362,"Ġtrad":4363,"Ġenem":4364,"Ġexample":4365,"Ġsever":4366,"Ġsemi":4367,"ĠHoping":4368,"ĠBy":4369,"Ġche":4370,"ĠRes":4371,"ĠGod":4372,"ended":4373,"Ġlaunching":4374,"inda":4375,"Ġcontact":4376,"Ġbackup":4377,"Ġsyn":4378,"Ġseriously":4379,"Ġthoughts":4380,"Ġhelping":4381,"Ġwriting":4382,"ĠWho":4383,"Ġtechnical":4384,"Ġlimits":4385,"Ġapart":4386,"Ġrecommended":4387,"Ġturns":4388,"Mostly":4389,"dding":4390,"Ġreports":4391,"Ġemail":4392,"toff":4393,"ynam":4394,"Ġdestination":4395,"Auto":4396,"Ġtraining":4397,"Ġdamage":4398,"Ġsurprising":4399,"Ġscientists":4400,"Engine":4401,"Ġmoderate":4402,"Ġpedest":4403,"Ġmechan":4404,"ĠHappy":4405,"Ġmaintain":4406,"Ġperiod":4407,".\"\"\"":4408,"Acc":4409,"Flight":4410,"Might":4411,"Rep":4412,"Sim":4413,"Techn":4414,"eor":4415,"has":4416,"rors":4417,"uz":4418,"Ġtype":4419,"erature":4420,"Ġwild":4421,"Ġbio":4422,"ances":4423,"Ġmark":4424,"Ġpen":4425,"Ġdiv":4426,"Ġdynam":4427,"stop":4428,"etail":4429,"Ġgear":4430,"ĠSil":4431,"illy":4432,"Ġemb":4433,"Ġstra":4434,"upp":4435,"irus":4436,"irrel":4437,"Ġweigh":4438,"ĠCol":4439,"urd":4440,"ersion":4441,"ĠWW":4442,"ĠWorking":4443,"Ġtrunk":4444,"Ġdoll":4445,"antage":4446,"Ġworst":4447,"ĠDoug":4448,"ĠPay":4449,"Ġloan":4450,"Ġmeet":4451,"Ġhearing":4452,"Ġproduce":4453,"Ġours":4454,"Ġspin":4455,"Ġyourself":4456,"Ġauthor":4457,"Ġairframe":4458,"Ġdelta":4459,"Ġtransition":4460,"aka":4461,"Ġconsumption":4462,"Ġbecoming":4463,"like":4464,"Ġships":4465,"Ġsurround":4466,"Ġapproved":4467,"heed":4468,"Ġlateral":4469,"ockheed":4470,"Ġframe":4471,"Ġexperts":4472,"Ġpieces":4473,"Ġbrake":4474,"Ġcollect":4475,"Ġinfo":4476,"Ġcontinue":4477,"Ġcausing":4478,"Ġfailure":4479,"Ġprecise":4480,"Ġachieving":4481,"Ġsmoking":4482,"Ġdestro":4483,"Ġeconomy":4484,"Ġfossil":4485,"Ġmeme":4486,"Ġjudge":4487,"ĠBrit":4488,"ĠArea":4489,"Ġschedule":4490,"Ġforever":4491,"arently":4492,"Ġfootage":4493,"ĠHearing":4494,"Ġeffort":4495,"Ġunlikely":4496,"Ġfluid":4497,"Norway":4498,"Cant":4499,"Did":4500,"Earth":4501,"HT":4502,"Is":4503,"Much":4504,"SN":4505,"Sp":4506,"Sun":4507,"Vac":4508,"base":4509,"dle":4510,"flight":4511,"ged":4512,"oying":4513,"sub":4514,"ued":4515,"ystem":4516,"Ġtroll":4517,"Ġcapt":4518,"Ġfill":4519,"Ġfool":4520,"Ġdin":4521,"Ġhole":4522,"Ġrevolution":4523,"ĠTri":4524,"ota":4525,"Ġbeat":4526,"check":4527,"ĠMr":4528,"ĠAct":4529,"ĠAMA":4530,"Ġweird":4531,"Ġwhatever":4532,"Ġareas":4533,"sequ":4534,"Ġrow":4535,"ants":4536,"Ġsections":4537,"ĠHer":4538,"ĠDC":4539,"ĠDay":4540,"Ġalert":4541,"ards":4542,"ĠGoing":4543,"ĠUN":4544,"Ġlands":4545,"Ġspir":4546,"Ġ\"\"\"":4547,"Ġspeak":4548,"Ġfunds":4549,"Ġmiss":4550,"Ġinterest":4551,"Ġexplo":4552,"Prob":4553,"ificial":4554,"Ġlegis":4555,"lied":4556,"Ġsignal":4557,"urren":4558,"Ġbright":4559,"Ġskill":4560,"ollo":4561,"Once":4562,"Ġwarrant":4563,"Ġdelivering":4564,"clus":4565,"Ġaccept":4566,"Ġjoke":4567,"reedom":4568,"Ġreplaced":4569,"ĠAsia":4570,"Ġcaused":4571,"Ġmerch":4572,"Ġgeo":4573,"Ġpickup":4574,"Ġopin":4575,"Ġfloor":4576,"uclear":4577,"Ġappears":4578,"ĠThursday":4579,"Ġroute":4580,"Ġsurvival":4581,"Ġcorner":4582,"Ġdramatically":4583,"Ġconstantly":4584,"Ġhospital":4585,"Ġarchitecture":4586,"Ġwarranty":4587,"11":4588,"25":4589,"35":4590,"Ar":4591,"Car":4592,"Could":4593,"Design":4594,"Giga":4595,"Hold":4596,"Must":4597,"Pr":4598,"Saw":4599,"Welcome":4600,"awn":4601,"do":4602,"een":4603,"gin":4604,"how":4605,"hanced":4606,"ief":4607,"ique":4608,"oal":4609,"ola":4610,"true":4611,"inter":4612,"inally":4613,"Ġball":4614,"Ġband":4615,"Ġcorre":4616,"outer":4617,"anium":4618,"Ġdraw":4619,"Ġlane":4620,"aler":4621,"igating":4622,"ĠSc":4623,"ĠSame":4624,"ĠAwesome":4625,"amb":4626,"Ġcoal":4627,"ĠCorre":4628,"ĠCrew":4629,"Ġyoull":4630,"Ġtrust":4631,"Ġmoves":4632,"Ġexternal":4633,"ĠFlam":4634,"Ġabsolutely":4635,"ĠPlan":4636,"Ġchick":4637,"iple":4638,"Ġcompared":4639,"Ġuses":4640,"ideo":4641,"duct":4642,"izes":4643,"ĠOTA":4644,"ĠVan":4645,"Ġactu":4646,"Ġsaving":4647,"Ġrecently":4648,"Ġsuppl":4649,"ĠChica":4650,"Ġwants":4651,"neum":4652,"Ġsuit":4653,"Ġvideos":4654,"Ġcloud":4655,"Ġdepart":4656,"erman":4657,"Ġtechnically":4658,"Ġordered":4659,"Ġexperiment":4660,"Ġunveiling":4661,"Ġbrakes":4662,"Ġletting":4663,"ructions":4664,"Ġdeliveries":4665,"Ġdiscovered":4666,"Ġkeeps":4667,"Ġevents":4668,"Ġbroad":4669,"Ġprimarily":4670,"Ġprotect":4671,"Ġemoj":4672,"Ġsensible":4673,"Ġrobots":4674,"Ġwishes":4675,"Ġdigging":4676,"Ġautonomy":4677,"Ġlabor":4678,"Ġaborted":4679,"Ġabsurd":4680,"raphy":4681,"Ġadvertising":4682,"Ġtitanium":4683,"ĠMartin":4684,"Ġintegrated":4685,"Ġexponential":4686,"Ġvalidation":4687,"ĠDrive":4688,"Ġpropulsive":4689,"Ġdedicated":4690,"Ġchicken":4691,"Given":4692,"IC":4693,"Latest":4694,"NY":4695,"Sc":4696,"gn":4697,"hood":4698,"land":4699,"paring":4700,"rank":4701,"sy":4702,"Ġsed":4703,"Ġwise":4704,"attle":4705,"Ġface":4706,"Ġmatch":4707,"Ġmicro":4708,"Ġpyr":4709,"Ġdied":4710,"ederal":4711,"Ġinformation":4712,"Ġnar":4713,"Ġnature":4714,"ĠTimes":4715,"ĠSen":4716,"Ġemer":4717,"last":4718,"ĠMc":4719,"Ġstainless":4720,"ĠAriane":4721,"ĠWorth":4722,"Ġhavent":4723,"ĠBar":4724,"ĠBanks":4725,"ĠPre":4726,"Ġalgor":4727,"eaut":4728,"Ġchart":4729,"ĠRUD":4730,"ĠRIP":4731,"ĠGot":4732,"aint":4733,"Ġcargo":4734,"Ġuser":4735,"Ġtiming":4736,"ĠOx":4737,"ĠOver":4738,"ĠOct":4739,"Ġgreatest":4740,"Ġbuff":4741,"Ġamb":4742,"osed":4743,"Ġresc":4744,"Ġaccording":4745,"Ġexpos":4746,"itted":4747,"ĠUSA":4748,"Ġregion":4749,"Ġadvantage":4750,"ĠKore":4751,"Ġattention":4752,"Ġinspe":4753,"ĠNeuralink":4754,"Ġsecs":4755,"Ġservices":4756,"Ġident":4757,"Ġpacket":4758,"Ġreflight":4759,"Ġcompetitors":4760,"Ġmotion":4761,"Ġtemperature":4762,"Ġspaces":4763,"Ġlatency":4764,"Ġoptimized":4765,"ĠAsimov":4766,"Ġremains":4767,"Ġfoundation":4768,"Ġentirely":4769,"Ġsignificantly":4770,"Ann":4771,"Ġloads":4772,"Ġinstalled":4773,"Supercharg":4774,"ĠRussia":4775,"Ġcalc":4776,"Ġbreakthrough":4777,"Physics":4778,"Ġforgot":4779,"Ġsquirrel":4780,"ĠApple":4781,"Ġenvironmental":4782,"Ġarray":4783,"Ġlayer":4784,"Ġjacket":4785,"Ġwomen":4786,"Ġcharacter":4787,"Ġtuned":4788,"ĠAugust":4789,"Ġindependent":4790,"makers":4791,"ĠChristmas":4792,"Ġsatis":4793,"ĠRequires":4794,"Ġalgorith":4795,"80":4796,"Are":4797,"After":4798,"Busted":4799,"Gu":4800,"Le":4801,"Part":4802,"Sign":4803,"Um":4804,"Using":4805,"aks":4806,"kn":4807,"lies":4808,"mins":4809,"vil":4810,"vada":4811,"you":4812,"Ġtrend":4813,"inux":4814,"Ġsing":4815,"orbital":4816,"Ġbur":4817,"Ġfirm":4818,"ises":4819,"Ġpilot":4820,"Ġinert":4821,"alt":4822,"ĠTry":4823,"ided":4824,"launch":4825,"ĠMan":4826,"ĠAst":4827,"irl":4828,"ulated":4829,"gee":4830,"Ġexit":4831,"ĠFate":4832,"Ġsearch":4833,"ourse":4834,"Ġchip":4835,"ipment":4836,"ĠExtremely":4837,"lose":4838,"ĠRH":4839,"Ġupcoming":4840,"Ġcompress":4841,"Ġusers":4842,"ement":4843,"Ġwouldnt":4844,"cience":4845,"ontal":4846,"Ġbump":4847,"Ġapplied":4848,"rick":4849,"Ġamounts":4850,"Ġengineer":4851,"Ġsolved":4852,"Ġperhaps":4853,"wear":4854,"Ġbackground":4855,"Ġresult":4856,"Ġboys":4857,"ickel":4858,"ĠCheck":4859,"Ġhappiness":4860,"Ġcouldnt":4861,"oths":4862,"Ġliftoff":4863,"Ġhelps":4864,"Ġhowever":4865,"pected":4866,"ĠNevada":4867,"awatt":4868,"Ġleak":4869,"Ġsketch":4870,"Ġordering":4871,"Ġrefine":4872,"Ġcommand":4873,"Ġdecades":4874,"ertainly":4875,"Ġreuse":4876,"Ġlocation":4877,"Ġdealer":4878,"Ġplayed":4879,"Ġthoughtful":4880,"Ġdeployment":4881,"Ġrestored":4882,"Ġjoin":4883,"Ġequipment":4884,"Ġspecies":4885,"poned":4886,"Ġsupporters":4887,"Ġpurple":4888,"ethrowers":4889,"Ġtotally":4890,"Ġreleases":4891,"Ġreleased":4892,"Ġopens":4893,"ĠPhD":4894,"Ġabsor":4895,"Ġarrives":4896,"Ġlaser":4897,"Ġdangerous":4898,"Ġreliability":4899,"ĠReddit":4900,"Ġthousands":4901,"Ġhexacopter":4902,"Perhaps":4903,"ĠBitcoin":4904,"Ġquiet":4905,"Ġholiday":4906,"Ġstyle":4907,"ĠSuperdraco":4908,"Ġconversation":4909,"Cybertruck":4910,"Ġstraight":4911,"HTSA":4912,"Ġopinion":4913,"Driving":4914,"Depends":4915,"Mass":4916,"Moon":4917,"PA":4918,"SJ":4919,"TE":4920,"Video":4921,"ault":4922,"cone":4923,"here":4924,"iot":4925,"oking":4926,"ogee":4927,"pay":4928,"pons":4929,"uilt":4930,"vable":4931,"Ġouter":4932,"Ġsix":4933,"Ġsilly":4934,"orbit":4935,"Ġbday":4936,"Ġborn":4937,"ancy":4938,"Ġmir":4939,"Ġpending":4940,"Ġpneum":4941,"Ġdoubt":4942,"Ġhes":4943,"Ġinvent":4944,"alact":4945,"Ġnat":4946,"Ġnom":4947,"Ġgonna":4948,"acc":4949,"Ġrecharg":4950,"uter":4951,"veal":4952,"otes":4953,"illiant":4954,"ĠIV":4955,"ĠIron":4956,"chang":4957,"allel":4958,"ups":4959,"irgin":4960,"outs":4961,"Ġbutt":4962,"ĠCA":4963,"ĠCurrent":4964,"Ġpros":4965,"Three":4966,"Thought":4967,"ĠWar":4968,"ables":4969,"ĠFord":4970,"Ġjump":4971,"umans":4972,"Ġcond":4973,"Ġconvert":4974,"ĠHis":4975,"ĠHait":4976,"ĠBlo":4977,"ĠPr":4978,"Ġloved":4979,"ĠLike":4980,"Ġmeg":4981,"\"\".\"":4982,"Ġadm":4983,"ĠJon":4984,"ĠVersion":4985,"ĠVirgin":4986,"Ġsafer":4987,"ooh":4988,"ftware":4989,"Ġpermission":4990,"Excellent":4991,"Ġresist":4992,"Ġprinc":4993,"Ġmissed":4994,"Ġinterplanetary":4995,"Ġtheme":4996,"Ġeverywhere":4997,"Ġcrush":4998,"Inc":4999,"Ġgrou":5000,"Ġdefe":5001,"Ġtwea":5002,"Ġadvice":5003,"Ġadvance":5004,"reciated":5005,"ixed":5006,"Ġclearly":5007,"Read":5008,"ĠShanghai":5009,"Ġboosters":5010,"ermi":5011,"Ġleave":5012,"Ġsurvey":5013,"Ġpostponed":5014,"Ġplanning":5015,"Ġoperate":5016,"nother":5017,"Ġesth":5018,"Ġapogee":5019,"Ġroads":5020,"Ġsimpl":5021,"ruct":5022,"viously":5023,"Ġstream":5024,"Ġstudio":5025,"Headed":5026,"Ġsubsonic":5027,"Ġmentioned":5028,"Ġfilters":5029,"Ġemploy":5030,"Ġfocused":5031,"ĠEngine":5032,"ĠEVs":5033,"cientists":5034,"Ġerrors":5035,"Ġfalling":5036,"Ġdescrib":5037,"Ġvariant":5038,"Ġopport":5039,"Ġseparation":5040,"Ġseparate":5041,"Starlink":5042,"ĠiPh":5043,"force":5044,"Ġshareholders":5045,"Ġsplashdown":5046,"Ġdemocracy":5047,"Ġstopped":5048,"ĠIPO":5049,"ĠApollo":5050,"Ġtbh":5051,"Ġreactor":5052,"Ġventilators":5053,"Ġdestroy":5054,"Ġsavings":5055,"ĠOxford":5056,"Ġexposure":5057,"ĠHaiti":5058,"!\"":5059,"400":5060,"Cl":5061,"Cont":5062,"Int":5063,"Life":5064,"PV":5065,"Russ":5066,"ST":5067,"Ser":5068,"Support":5069,"ges":5070,"hopefully":5071,"iation":5072,"iers":5073,"point":5074,"rate":5075,"sp":5076,"Ġtire":5077,"Ġamp":5078,"Ġson":5079,"reak":5080,"Ġthres":5081,"Ġwing":5082,"Ġbiz":5083,"Ġcult":5084,"Ġfu":5085,"enn":5086,"ening":5087,"Ġmal":5088,"Ġmine":5089,"arrass":5090,"Ġooh":5091,"Ġlength":5092,"Ġlinks":5093,"ste":5094,"ete":5095,"igs":5096,"Ġancient":5097,"lying":5098,"ĠInt":5099,"odes":5100,"che":5101,"ĠMer":5102,"ĠAud":5103,"ĠAng":5104,"ilities":5105,"Ġneigh":5106,"Ġrise":5107,"Ġcores":5108,"Thrust":5109,"ĠWon":5110,"Ġtri":5111,"Ġexcess":5112,"ĠThail":5113,"ĠFermi":5114,"Ġlikes":5115,"rible":5116,"ĠBill":5117,"ours":5118,"ĠDesign":5119,"ĠPan":5120,"Ġchain":5121,"ĠEnd":5122,"ĠElectric":5123,"acking":5124,"love":5125,"emetry":5126,"Ġpret":5127,"Ġplaced":5128,"intelligence":5129,"ricks":5130,"Ġfault":5131,"Ġsolving":5132,"Ġparties":5133,"wns":5134,"Ġartificial":5135,"Ġexpl":5136,"Ġunderground":5137,"lications":5138,"next":5139,"Ġfastest":5140,"Ġtwitter":5141,"Ġclos":5142,"Ġbecomes":5143,"Ġindic":5144,"Ġpublicly":5145,"Ġcountdown":5146,"Ġmeter":5147,"Ġcompleting":5148,"ĠRead":5149,"ĠYour":5150,"Ġdemonstr":5151,"Ġparach":5152,"Ġparallel":5153,"Ġvisible":5154,"Ġstops":5155,"Ġcompetitive":5156,"Ġvolcan":5157,"Ġhands":5158,"Ġhandling":5159,"Ġeasier":5160,"Ġcovered":5161,"Ġcoverage":5162,"clud":5163,"Ġmajority":5164,"Launching":5165,"Ġexcited":5166,"Ġraised":5167,"Ġselling":5168,"Ġspecific":5169,"Ġremaining":5170,"Ġfollowing":5171,"Ġfollowed":5172,"Ġdebt":5173,"Ġapprovals":5174,"Ġlogs":5175,"Ġwatching":5176,"Ġemphas":5177,"Ġridicul":5178,"Ġappear":5179,"Ġduties":5180,"ĠImpro":5181,"Ġterrible":5182,"Ġlasers":5183,"Ġeggs":5184,"Ġdeserves":5185,"Ġbankruptcy":5186,"Ġwalk":5187,"Ġchildren":5188,"ĠMonty":5189,"ĠParadox":5190,"Ġbenef":5191,"Ġimagine":5192,"Ġconvenient":5193,"ĠDMV":5194,"Ġhorizontal":5195,"Ġfrequ":5196,"Ġembarrass":5197,"Ġpyram":5198,"ĠSenate":5199,"ĠKorea":5200,"Ġinspection":5201,"Ġthreshold":5202,"ĠThailand":5203,"!)":5204,"250":5205,"40":5206,"Another":5207,"Che":5208,"DT":5209,"Many":5210,"Mach":5211,"Put":5212,"Right":5213,"SF":5214,"TS":5215,"bot":5216,"comp":5217,"hr":5218,"lors":5219,"oil":5220,"pack":5221,"rong":5222,"sounds":5223,"Ġtree":5224,"Ġsummon":5225,"Ġwer":5226,"Ġbrief":5227,"atable":5228,"Ġcand":5229,"Ġfive":5230,"Ġfood":5231,"Ġfield":5232,"Ġfreedom":5233,"enu":5234,"Ġmill":5235,"Ġtool":5236,"Ġpers":5237,"edy":5238,"Ġluck":5239,"Ġhrs":5240,"standing":5241,"Ġinno":5242,"alo":5243,"eted":5244,"etime":5245,"Ġgrey":5246,"Ġrevenue":5247,"ĠTal":5248,"oted":5249,"ĠSA":5250,"ĠShip":5251,"ĠSelf":5252,"ĠSince":5253,"omberg":5254,"Ġeg":5255,"verse":5256,"idence":5257,"idering":5258,"Ġiter":5259,"Ġcoff":5260,"Ġcolors":5261,"ĠCourse":5262,"Ġproceed":5263,"ifically":5264,"Ġvary":5265,"Ġshown":5266,"Ġtraction":5267,"Ġnotice":5268,"ĠHopper":5269,"ĠBl":5270,"ĠBlack":5271,"ĠLet":5272,"ĠLinux":5273,"ĠRight":5274,"Ġupon":5275,"ĠGu":5276,"ĠGet":5277,"Ġadults":5278,"ĠOffic":5279,"Ġgreatly":5280,"Which":5281,"orders":5282,"rowser":5283,"Ġexpress":5284,"Ġworlds":5285,"Ġlifetime":5286,"Ġhumor":5287,"Ġcalling":5288,"Ġattach":5289,"Ġcenters":5290,"Ġplanned":5291,"Ġsteam":5292,"Ġamazingly":5293,"gency":5294,"Ġrepresent":5295,"Ġdetect":5296,"Ġbasic":5297,"Ġvisiting":5298,"Ġcomputers":5299,"Ġviol":5300,"Ġexpert":5301,"Ġfunding":5302,"Ġradio":5303,"Ġdistract":5304,"ĠAtlas":5305,"Ġspecifically":5306,"ĠZip":5307,"Ġfailed":5308,"Ġreceive":5309,"ĠMoreover":5310,"Ġargument":5311,"Ġpricing":5312,"Ġinstallation":5313,"ĠMakes":5314,"Second":5315,"Ġmistakes":5316,"ological":5317,"Ġsucks":5318,"Ġconcerns":5319,"Ġessential":5320,"Ġimpressive":5321,"Ġhurt":5322,"board":5323,"ĠDelta":5324,"porate":5325,"Ġcrypto":5326,"Technically":5327,"ĠDouglas":5328,"urrency":5329,"Ġnarrow":5330,"alactic":5331,"Ġemphasize":5332,"Check":5333,"Blo":5334,"Current":5335,"ED":5336,"Side":5337,"Wal":5338,"boy":5339,"cer":5340,"fast":5341,"pher":5342,"vant":5343,"wed":5344,"width":5345,"zen":5346,"ĠYeah":5347,"Ġurb":5348,"inary":5349,"Ġbattle":5350,"Ġcm":5351,"isis":5352,"aning":5353,"Ġpics":5354,"Ġtheory":5355,"Ġlmk":5356,"mph":5357,"Ġnons":5358,"Ġnuclear":5359,"elp":5360,"elect":5361,"Ġgar":5362,"Ġgun":5363,"Ġgiving":5364,"Ġrepe":5365,"ĠTV":5366,"ĠTime":5367,"ĠSign":5368,"Ġbeats":5369,"omal":5370,"unt":5371,"Ġstuck":5372,"Ġweak":5373,"used":5374,"ĠCenter":5375,"ĠCritical":5376,"Ġvirus":5377,"Ġshipping":5378,"ĠWSJ":5379,"ĠThank":5380,"Ġseal":5381,"Ġjunk":5382,"ĠHar":5383,"ĠBS":5384,"ĠBay":5385,"ĠDan":5386,"ĠPic":5387,"Ġloaded":5388,"Ġunkn":5389,"eway":5390,"ĠGPU":5391,"apse":5392,"Ġtext":5393,"cons":5394,"ciety":5395,"ĠUpper":5396,"ĠVol":5397,"Ġsomehow":5398,"Ġpowert":5399,"Ġintern":5400,"Ġcrisis":5401,"Ġsuperall":5402,"ĠAlpha":5403,"aken":5404,"Ġconscious":5405,"aneu":5406,"ĠWhite":5407,"Production":5408,"Always":5409,"Already":5410,"Ġsigned":5411,"ĠYoure":5412,"Ġrolls":5413,"lessly":5414,"Ġfixing":5415,"ĠTheyre":5416,"Soon":5417,"Ġdecade":5418,"Ġheader":5419,"Ġapocal":5420,"Ġvacc":5421,"Ġoptional":5422,"ĠQA":5423,"Ġdrove":5424,"eeing":5425,"Ġreporting":5426,"ĠNeeds":5427,"Ġwinter":5428,"Ġwatched":5429,"Ġcharger":5430,"Ġmemes":5431,"ahem":5432,"Ġshielding":5433,"Ġpopular":5434,"Ġriding":5435,"Ġlearned":5436,"ikola":5437,"Ġfundamentally":5438,"Ġdegrees":5439,"Ġtalented":5440,"ĠFeb":5441,"ĠNYTimes":5442,"ĠSmart":5443,"Ġphysical":5444,"burg":5445,"Ġguaranteed":5446,"appreciated":5447,"Ġresolution":5448,"Ġpurchase":5449,"Ġallocation":5450,"Regarding":5451,"Ġsevere":5452,"ĠGodot":5453,"ĠFlamethrower":5454,"oohoo":5455,"Ġgroup":5456,"ĠiPhone":5457,"wnsville":5458,"Ġembarrassing":5459,"Ġurban":5460,"Ġunknown":5461,"300":5462,"45":5463,"Air":5464,"Astron":5465,"By":5466,"From":5467,"Final":5468,"Goal":5469,"German":5470,"His":5471,"July":5472,"Kinda":5473,"Like":5474,"Min":5475,"RO":5476,"Tom":5477,"Tod":5478,"Totally":5479,"Uh":5480,"Woohoo":5481,"eer":5482,"fall":5483,"faces":5484,"graphy":5485,"ma":5486,"oss":5487,"war":5488,"was":5489,"Ġaud":5490,"Ġsort":5491,"rest":5492,"rete":5493,"Ġtherm":5494,"Ġwast":5495,"Ġwidth":5496,"Ġbal":5497,"Ġmaneu":5498,"Ġdive":5499,"Ġdial":5500,"Ġdivers":5501,"Ġlicense":5502,"Ġhops":5503,"already":5504,"Ġnu":5505,"Ġnets":5506,"icious":5507,"Ġgl":5508,"aceship":5509,"ĠTurn":5510,"ĠSol":5511,"owers":5512,"omain":5513,"Ġevol":5514,"Ġstat":5515,"Ġwealth":5516,"Ġrig":5517,"Ġrule":5518,"Ġcolon":5519,"ĠCash":5520,"ĠCEO":5521,"ifies":5522,"ationary":5523,"Ġshorter":5524,"Ġtrouble":5525,"ouncing":5526,"ĠThese":5527,"ĠForm":5528,"rier":5529,"ĠNHTSA":5530,"ĠNikola":5531,"ĠDis":5532,"actually":5533,"ĠEU":5534,"Ġunit":5535,"Ġunfortunately":5536,"ĠLife":5537,"osting":5538,"apit":5539,"conel":5540,"Ġarms":5541,"Ġplat":5542,"ĠULA":5543,"Ġproduces":5544,"Ġmonkey":5545,"Ġsympt":5546,"Ġmissing":5547,"Ġexpanding":5548,"ĠInf":5549,"Ġfacto":5550,"Ġextension":5551,"Ġscal":5552,"play":5553,"Ġsubtle":5554,"formed":5555,"ĠStarships":5556,"pective":5557,"atched":5558,"Ġdonate":5559,"Ġgeneration":5560,"Ġsignature":5561,"Ġidiot":5562,"Ġannoying":5563,"Ġholds":5564,"Ġuntrue":5565,"Ġcompute":5566,"Ġcompeting":5567,"Ġcreation":5568,"Ġtempor":5569,"Ġtweeting":5570,"Ġconstit":5571,"ĠUniverse":5572,"Ġacid":5573,"Ġbuyers":5574,"Ġstreets":5575,"ĠDealer":5576,"Ġmachines":5577,"Ġbroke":5578,"Ġpolitical":5579,"Ġsuggests":5580,"Ġeffective":5581,"ĠBooster":5582,"ĠOrder":5583,"ĠOrbital":5584,"ruption":5585,"ĠMotors":5586,"Ġrenew":5587,"Ġreference":5588,"Ġrepairs":5589,"Ġprocessing":5590,"Unfortunately":5591,"Ġerror":5592,"Ġstructural":5593,"ypes":5594,"ĠFeels":5595,"ĠJohnny":5596,"Ġbott":5597,"Ġsettings":5598,"ĠBrownsville":5599,"Ġpetition":5600,"ĠDoesnt":5601,"Ġphoto":5602,"Ġfiber":5603,"Ġmilest":5604,"erosene":5605,"Ġoverride":5606,"Ġelevator":5607,"Ġswitch":5608,"ĠAbout":5609,"Ġcheese":5610,"Ġbiography":5611,"Ġspirit":5612,"Ġbumper":5613,"Seriously":5614,"Bas":5615,"Con":5616,"Got":5617,"Last":5618,"MW":5619,"NN":5620,"Open":5621,"Pal":5622,"Rest":5623,"Sat":5624,"World":5625,"aur":5626,"but":5627,"box":5628,"cceed":5629,"ection":5630,"first":5631,"overy":5632,"space":5633,"vice":5634,"wd":5635,"with":5636,"yd":5637,"Ġaw":5638,"Ġaim":5639,"Ġthreat":5640,"Ġthird":5641,"esides":5642,"orse":5643,"order":5644,"orical":5645,"Ġbrowser":5646,"Ġcities":5647,"Ġfat":5648,"Ġfwd":5649,"ouple":5650,"itud":5651,"Ġmelt":5652,"Ġpap":5653,"Ġpounds":5654,"Ġpacks":5655,"Ġpeace":5656,"Ġdies":5657,"Ġloud":5658,"Ġlighter":5659,"rown":5660,"roph":5661,"Ġnorth":5662,"etter":5663,"lee":5664,"ĠSec":5665,"illing":5666,"Ġeye":5667,"ctors":5668,"ĠIC":5669,"ĠMun":5670,"allout":5671,"tering":5672,"Ġstars":5673,"Ġstabil":5674,"usable":5675,"ammer":5676,"Ġcovid":5677,"urally":5678,"ĠWater":5679,"ĠWatch":5680,"Ġtrail":5681,"Ġtrillion":5682,"Ġenj":5683,"ulating":5684,"Ġnoting":5685,"Ġascent":5686,"Ġexclus":5687,"ĠFl":5688,"Ġsex":5689,"Ġlie":5690,"Ġabt":5691,"ĠBob":5692,"ĠBlock":5693,"ĠBMW":5694,"Ġloves":5695,"ĠEl":5696,"ĠEffect":5697,"eward":5698,"ĠLaw":5699,"ĠLicense":5700,"ĠLudicrous":5701,"ĠGWh":5702,"ĠGear":5703,"Ġmemb":5704,"Ġcompla":5705,"Ġcompens":5706,"irect":5707,"istent":5708,"cont":5709,"Ġarriving":5710,"endar":5711,"ĠStan":5712,"Ġnoise":5713,"Ġhighlight":5714,"Ġplate":5715,"ĠUp":5716,"ĠOf":5717,"ĠOk":5718,"vior":5719,"Where":5720,"Ġintro":5721,"Ġquote":5722,"Ġrecovered":5723,"Ġrecovery":5724,"Ġwhenever":5725,"Ġrespons":5726,"Ġunderappreciated":5727,"ittee":5728,"Ġspaceport":5729,"Ġendorse":5730,"Ġsucceed":5731,"Ġcalls":5732,"Ġsuborbital":5733,"Ġguide":5734,"Ġdepends":5735,"Ġgenerate":5736,"Ġstrate":5737,"gging":5738,"Ġpersonal":5739,"faction":5740,"Ġplanets":5741,"Ġreflect":5742,"nings":5743,"Ġexperien":5744,"Doge":5745,"Ġputting":5746,"Ġreached":5747,"Ġuh":5748,"ĠZero":5749,"Ġultimately":5750,"Ġunderstanding":5751,"Ġiniti":5752,"Ġeditor":5753,"Ġmiddle":5754,"Ġnegatively":5755,"Ġanswered":5756,"Ġanaly":5757,"Ġeconomic":5758,"Ġattacked":5759,"ahn":5760,"Ġassuming":5761,"Ġhonored":5762,"Ġchallenge":5763,"Ġignore":5764,"Ġignition":5765,"Ġconnected":5766,"Ġnecessarily":5767,"Ġpromising":5768,"ĠParis":5769,"Ġnosecone":5770,"Ġhealthy":5771,"Ġarrays":5772,"Ġpushed":5773,"Ġphysically":5774,"Ġorgan":5775,"Ġbehavior":5776,"vestigating":5777,"Excited":5778,"Ġadventure":5779,"Ġcycles":5780,"Ġmonopoly":5781,"Ġquickly":5782,"Ġactivate":5783,"Ġsimultaneously":5784,"ĠSilicon":5785,"Ġweighs":5786,"Ġsedan":5787,"Ġsatisfaction":5788,"Ġopportun":5789,"Ġampl":5790,"Ġexplode":5791,"Ġridiculous":5792,"Ġcoffee":5793,"Ġbalance":5794,"Ġmilestone":5795,".\"\"":5796,"Cons":5797,"Def":5798,"Eas":5799,"FSD":5800,"Here":5801,"Hell":5802,"Ive":5803,"Iron":5804,"Li":5805,"Literally":5806,"Never":5807,"PS":5808,"Play":5809,"Qu":5810,"Single":5811,"airing":5812,"aily":5813,"bow":5814,"call":5815,"dy":5816,"dom":5817,"ees":5818,"got":5819,"good":5820,"gian":5821,"hen":5822,"jo":5823,"med":5824,"more":5825,"nor":5826,"pre":5827,"satell":5828,"sustain":5829,"whe":5830,"Ġweld":5831,"esc":5832,"Ġbother":5833,"Ġcit":5834,"Ġcop":5835,"Ġcute":5836,"Ġfold":5837,"lla":5838,"arre":5839,"Ġpist":5840,"Ġdream":5841,"Ġlame":5842,"Ġhide":5843,"room":5844,"Ġinacc":5845,"Ġnested":5846,"icing":5847,"eles":5848,"eling":5849,"ionics":5850,"otor":5851,"ĠSX":5852,"ĠSam":5853,"ĠSur":5854,"ung":5855,"ĠMain":5856,"imler":5857,"Ġran":5858,"Ġrum":5859,"ĠCity":5860,"ĠCont":5861,"Ġprote":5862,"ifts":5863,"ifying":5864,"Ġtriv":5865,"abin":5866,"Ġdoom":5867,"Ġasking":5868,"anted":5869,"Ġseason":5870,"rast":5871,"Ġliber":5872,"Ġliked":5873,"ĠHQ":5874,"ĠBraz":5875,"ĠBecause":5876,"ĠDef":5877,"Ġalpha":5878,"Ġwasnt":5879,"Ġchem":5880,"ĠEvil":5881,"Ġkick":5882,"ostationary":5883,"Ġjustice":5884,"emed":5885,"Ġgoodness":5886,"izations":5887,"ĠJan":5888,"eping":5889,"udden":5890,"attern":5891,"portion":5892,"rict":5893,"Ġsphere":5894,"atsh":5895,"Ġfear":5896,"Exp":5897,"weight":5898,"ountain":5899,"Ġaccounts":5900,"Ġbox":5901,"Ġsymb":5902,"Ġpract":5903,"Ġorbits":5904,"Ġexpand":5905,"ucker":5906,"Stay":5907,"expected":5908,"Ġtransl":5909,"Ġtransmit":5910,"Ġtwist":5911,"Ġenerg":5912,"Ġphones":5913,"Ġfarm":5914,"Ġretired":5915,"Reason":5916,"ĠNov":5917,"Ġsigns":5918,"Ġbrought":5919,"Ġtalked":5920,"Ġincreased":5921,"Ġdecide":5922,"which":5923,"Ġdeveloped":5924,"Ġdiscount":5925,"Ġrestart":5926,"Ġcombined":5927,"Ġbringing":5928,"Ġstatement":5929,"Ġflame":5930,"ĠExcellent":5931,"Ġunderstood":5932,"Ġtelling":5933,"Ġsensors":5934,"Ġrelative":5935,"Ġimpacts":5936,"Ġwinning":5937,"Ġmerger":5938,"Ġempty":5939,"Ġdigital":5940,"China":5941,"Ġparticular":5942,"Ġoffering":5943,"ĠEnglish":5944,"Ġproviding":5945,"Ġefficient":5946,"ĠSeries":5947,"Ġincreasingly":5948,"Ġvastly":5949,"Ġkidding":5950,"ĠDaimler":5951,"ĠLoved":5952,"Ġdeserve":5953,"Ġcurious":5954,"Ġirl":5955,"Ġwoman":5956,"Ġepis":5957,"Ġepic":5958,"Ġminimize":5959,"Ġshareholder":5960,"Upgr":5961,"aught":5962,"scope":5963,"Ġsequence":5964,"Everything":5965,"nesota":5966,"pirationally":5967,"ĠInstructions":5968,"Ġbelieving":5969,"Ġhousing":5970,"Ġheavily":5971,"Ġgrandfather":5972,"Ġtraditional":5973,"Ġdynamic":5974,"Ġcollective":5975,"Ġdinner":5976,"Ġbandwidth":5977,"Ġalgorithm":5978,"ĠVirginia":5979,"Ġtweaks":5980,"Ġbenefit":5981,"Ġinnovation":5982,"Ġviolence":5983,"Ġnonsense":5984,"ĠFormula":5985,"Ġplatform":5986,"ĠUpd":5987,"wheel":5988,"ĠBrazil":5989,"14":5990,"Awesome":5991,"Getting":5992,"Had":5993,"Motor":5994,"Ob":5995,"Red":5996,"cri":5997,"going":5998,"house":5999,"lim":6000,"oys":6001,"ratic":6002,"sw":6003,"uy":6004,"uis":6005,"uitive":6006,"wyn":6007,"Ġ=":6008,"Ġ[":6009,"Ġtast":6010,"eroth":6011,"Ġwaiting":6012,"atory":6013,"Ġcaut":6014,"Ġcaught":6015,"inge":6016,"Ġfog":6017,"ann":6018,"Ġmenu":6019,"arke":6020,"Ġpupp":6021,"Ġpattern":6022,"Ġduration":6023,"Ġdaily":6024,"Ġlb":6025,"Ġhull":6026,"sts":6027,"roved":6028,"Ġinev":6029,"Ġgain":6030,"Ġreduction":6031,"otal":6032,"Ġforum":6033,"union":6034,"Ġstress":6035,"ĠAnt":6036,"opt":6037,"Ġneut":6038,"amination":6039,"ĠCent":6040,"ĠCost":6041,"ĠCount":6042,"Theres":6043,"ifting":6044,"Ġshear":6045,"Ġtrim":6046,"Ġdoo":6047,"ander":6048,"ounced":6049,"rap":6050,"rage":6051,"Ġliving":6052,"ĠHam":6053,"ĠHere":6054,"ĠBus":6055,"ĠBrian":6056,"ĠDetail":6057,"ĠPeace":6058,"ardians":6059,"Ġunre":6060,"ĠLe":6061,"ĠLook":6062,"ĠRad":6063,"ĠRand":6064,"ĠRWD":6065,"Ġkerosene":6066,"ares":6067,"Ġusage":6068,"ements":6069,"rypt":6070,"Ġprep":6071,"ĠStone":6072,"anye":6073,"assis":6074,"ĠVac":6075,"intuitive":6076,"Ġcontent":6077,"Ġdrivers":6078,"ensus":6079,"oses":6080,"Ġpartners":6081,"Ġelements":6082,"Ġinterface":6083,"redibly":6084,"Ġregard":6085,"Ġadvoc":6086,"Ġthroughout":6087,"Ġinsert":6088,"Ġinsurance":6089,"Ġdepth":6090,"Ġtaxpay":6091,"Ġreaders":6092,"Ġvalu":6093,"Ġenter":6094,"Ġentertain":6095,"Ġremo":6096,"Ġavionics":6097,"Ġroller":6098,"fficient":6099,"Ġdecision":6100,"Ġunveiled":6101,"Ġflat":6102,"Ġdiscuss":6103,"ĠUnder":6104,"Ġviews":6105,"Interview":6106,"Ġterms":6107,"Ġjourno":6108,"Ġdropped":6109,"Ġjoined":6110,"Ġmulti":6111,"Ġreasonable":6112,"Ġoptimization":6113,"Ġfairly":6114,"Ġsuggesting":6115,"Ġcauses":6116,"Ġmidnight":6117,"Ġrobust":6118,"taire":6119,"Ġramping":6120,"Ġstrongly":6121,"Ġpicked":6122,"Chris":6123,"Ġbreakfast":6124,"Ġfloating":6125,"Ġtrains":6126,"probably":6127,"Ġdeny":6128,"Ġpremise":6129,"Ġarrived":6130,"Ġuncertain":6131,"Ġpresentation":6132,"Ġsituations":6133,"ĠCommission":6134,"Ġslower":6135,"Ġnavigation":6136,"ĠClarke":6137,"Ġreliable":6138,"ĠSaturn":6139,"Ġexplain":6140,"Ġcircle":6141,"Anyone":6142,"Ġstopping":6143,"Ġcontribution":6144,"ĠSteven":6145,"Ġrobotax":6146,"Ġprojects":6147,"Ġprinting":6148,"Ġdescribe":6149,"Ġdescription":6150,"Ġfinancing":6151,"uilding":6152,"Ġauthorities":6153,"checking":6154,"Ġexplosion":6155,"Ġrescue":6156,"Ġspacesuit":6157,"Ġsinging":6158,"Ġfirmware":6159,"Ġinertia":6160,"Ġrecharging":6161,"Thoughtful":6162,"Climate":6163,"Ġperspective":6164,"pheric":6165,"ĠHarris":6166,"ĠVoltaire":6167,"Ġconsciousness":6168,"Today":6169,"Ġsymptoms":6170,"ĠInfinite":6171,"Ġmembers":6172,"Ġcitiz":6173,"55":6174,";&":6175,"AP":6176,"Ad":6177,"Ah":6178,"Ap":6179,"California":6180,"Dr":6181,"Damn":6182,"EF":6183,"Lockheed":6184,"ME":6185,"Power":6186,"Rem":6187,"Roughly":6188,"She":6189,"TW":6190,"Two":6191,"bed":6192,"car":6193,"crack":6194,"eum":6195,"fl":6196,"gus":6197,"ipe":6198,"kg":6199,"kra":6200,"mate":6201,"ront":6202,"sight":6203,"vative":6204,"yal":6205,"zard":6206,"Ġtea":6207,"Ġtick":6208,"inction":6209,"onored":6210,"Ġsele":6211,"rele":6212,"Ġthus":6213,"Ġthick":6214,"Ġwood":6215,"Ġbreat":6216,"Ġbomb":6217,"Ġcats":6218,"Ġfacing":6219,"Ġfelt":6220,"Ġfederal":6221,"ison":6222,"enger":6223,"llow":6224,"anos":6225,"arl":6226,"arian":6227,"Ġlid":6228,"Ġhence":6229,"rox":6230,"Ġinference":6231,"almost":6232,"Ġnickel":6233,"ela":6234,"eless":6235,"asy":6236,"Ġbeach":6237,"owed":6238,"omments":6239,"amping":6240,"enty":6241,"ĠMad":6242,"ĠMerry":6243,"Ġstick":6244,"imation":6245,"imarily":6246,"opp":6247,"usually":6248,"Ġrich":6249,"ĠCongr":6250,"ersey":6251,"andon":6252,"Ġasp":6253,"Ġexting":6254,"ĠFH":6255,"ĠFrank":6256,"Ġdeorbit":6257,"ĠHad":6258,"ĠHell":6259,"ĠBen":6260,"ĠBel":6261,"Ġmaster":6262,"ĠDamn":6263,"Ġchoo":6264,"ĠEconom":6265,"Ġuns":6266,"ĠLatter":6267,"ĠGary":6268,"ĠGiving":6269,"Ġoutfit":6270,"ĠStock":6271,"Ġcancer":6272,"Ġcomet":6273,"Ġoverhe":6274,"ĠJeff":6275,"ĠJersey":6276,"Ġacting":6277,"Ġsaved":6278,"Ġshouldnt":6279,"Ġsomewhere":6280,"Ġleading":6281,"Ġdescent":6282,"Ġrights":6283,"Ġconting":6284,"Ġspot":6285,"Ġspoke":6286,"Whats":6287,"velope":6288,"Ġrecog":6289,"ĠXmas":6290,"ords":6291,"Ġbogus":6292,"ĠItal":6293,"anging":6294,"Having":6295,"Ġregen":6296,"Ġregarding":6297,"agic":6298,"Ġdefense":6299,"Ġphase":6300,"Ġadvis":6301,"Ġconsumer":6302,"Ġconsidering":6303,"ĠKim":6304,"ĠJustice":6305,"Ġdonating":6306,"obahn":6307,"Ġinsan":6308,"Ġinsight":6309,"Ġdepending":6310,"ermany":6311,"Abort":6312,"Ġsurfaces":6313,"Ġpassing":6314,"Ġpassenger":6315,"Ġzone":6316,"Ġplanes":6317,"Ġframes":6318,"Ġwhereas":6319,"Ġmanip":6320,"Ġmanage":6321,"Ġcreative":6322,"Ġwindward":6323,"Ġcompete":6324,"ĠDoD":6325,"ĠStarbase":6326,"Ġposit":6327,"Roadster":6328,"Ġfunded":6329,"Ġdetailed":6330,"covery":6331,"ĠOnion":6332,"Ġredesign":6333,"Ġcollision":6334,"Ġslowly":6335,"Ġmodern":6336,"Ġbroken":6337,"ĠSeemed":6338,"Ġchecks":6339,"ĠHighest":6340,"Ġflamethrowers":6341,"Ġachieves":6342,"Makes":6343,"Ġeconomics":6344,"Ġblocked":6345,"Ġmuseum":6346,"Ġdocks":6347,"Ġleaders":6348,"Ġattacking":6349,"Ġmanufactur":6350,"Ġcycl":6351,"Ġmemory":6352,"planet":6353,"Ġassess":6354,"ĠEngines":6355,"Ġparked":6356,"Ġgrowth":6357,"ologies":6358,"ĠImportant":6359,"Ġkilling":6360,"Ġwindows":6361,"Ġscheduled":6362,"Ġopposite":6363,"Ġirrele":6364,"Ġinflu":6365,"Ġsilver":6366,"Ġcharacters":6367,"ulah":6368,"month":6369,"Ġinspired":6370,"ĠArtists":6371,"borhood":6372,"Ġcycle":6373,"Ġhouses":6374,"umulative":6375,"arents":6376,"ĠAPJ":6377,"Ġenemies":6378,"eorge":6379,"ĠPayPal":6380,"Ġcaptured":6381,"ĠUNIC":6382,"Ġemoji":6383,"Ġbuffer":6384,"ĠRHD":6385,"Ġcompression":6386,"Ġnominal":6387,"Ġmega":6388,"Ġprinciple":6389,"Ġbizarre":6390,"Ġneighborhood":6391,"Ġpyramids":6392,"Ġpowertrain":6393,"Ġsuperalloy":6394,"ĠStanford":6395,"sustaining":6396,"Ġprotection":6397,"Ġliberty":6398,"Ġinevitable":6399,"cracker":6400,"kraine":6401,"Ġlidar":6402,"ĠEconomist":6403,"Ġrecogn":6404,"ĠUNICEF":6405,"600":6406,"Adding":6407,"Beaut":6408,"Done":6409,"Draco":6410,"Found":6411,"GI":6412,"Gen":6413,"Hyperloop":6414,"Kids":6415,"Lot":6416,"Rough":6417,"Sm":6418,"VAC":6419,"Yay":6420,"cies":6421,"get":6422,"gment":6423,"human":6424,"ius":6425,"maybe":6426,"oe":6427,"pose":6428,"rout":6429,"si":6430,"scientists":6431,"test":6432,"yuz":6433,"Ġ?":6434,"Ġie":6435,"Ġtable":6436,"Ġaware":6437,"Ġaward":6438,"only":6439,"onge":6440,"Ġsorry":6441,"Ġwa":6442,"Ġwave":6443,"esis":6444,"Ġbab":6445,"Ġclic":6446,"Ġfought":6447,"Ġpowers":6448,"Ġowed":6449,"Ġdy":6450,"Ġder":6451,"Ġlining":6452,"Ġhop":6453,"Ġhero":6454,"rock":6455,"ett":6456,"assemb":6457,"Ġgrief":6458,"lement":6459,"igger":6460,"utions":6461,"ĠTra":6462,"otic":6463,"ĠSupport":6464,"Ġbeast":6465,"Ġanten":6466,"Ġformer":6467,"verage":6468,"entions":6469,"ader":6470,"adian":6471,"ĠMarket":6472,"Ġstanding":6473,"throp":6474,"ĠAF":6475,"ĠAss":6476,"Ġwilling":6477,"ama":6478,"Ġcoinc":6479,"ĠCather":6480,"Ġproof":6481,"Ġproportion":6482,"ĠWorld":6483,"Ġmoons":6484,"Ġmoved":6485,"Ġenvelope":6486,"Ġorig":6487,"olies":6488,"rapped":6489,"Ġcongr":6490,"ĠHas":6491,"ĠHumans":6492,"ĠHVAC":6493,"ĠBBC":6494,"ĠPR":6495,"ĠPri":6496,"Ġalive":6497,"Ġchoc":6498,"Ġune":6499,"ĠLess":6500,"ĠLos":6501,"ĠRT":6502,"ĠRem":6503,"ĠGetting":6504,"Ġmeal":6505,"isting":6506,"Ġgoods":6507,"Ġarm":6508,"Ġprefer":6509,"Ġtail":6510,"Ġourselves":6511,"Ġsaves":6512,"Ġlease":6513,"Weve":6514,"Ġspan":6515,"Ġknew":6516,"well":6517,"wner":6518,"Ġafterno":6519,"Ġheld":6520,"ĠInter":6521,"Ġlifting":6522,"Ġspaceflight":6523,"Ġairport":6524,"Ġfinally":6525,"Ġsafely":6526,"necess":6527,"Ġscam":6528,"Ġtransaction":6529,"Ġconfusion":6530,"aker":6531,"lowing":6532,"vention":6533,"ĠShow":6534,"ĠLAX":6535,"Ġmetap":6536,"Ġtaxing":6537,"Ġleaving":6538,"Ġpassword":6539,"Ġrolled":6540,"Ġinvited":6541,"ĠYay":6542,"Ġcourses":6543,"Ġsale":6544,"airs":6545,"Ġheaded":6546,"Ġwarning":6547,"rug":6548,"Ġinvestor":6549,"resh":6550,"Ġnonstop":6551,"Ġsnail":6552,"Ascent":6553,"Ġinfinite":6554,"Ġpolice":6555,"justing":6556,"Ġbreaks":6557,"ĠMayans":6558,"Ġinitially":6559,"Ġprograms":6560,"Ġaffected":6561,"Original":6562,"Ġsentient":6563,"Ġgeostationary":6564,"Ġcivilizations":6565,"Ġconcrete":6566,"Ġincentive":6567,"Ġhypoc":6568,"ĠAdams":6569,"Ġjournalism":6570,"Ġpumps":6571,"Ġblackouts":6572,"Ġmoments":6573,"Ġprevented":6574,"Ġforget":6575,"Ġgrowing":6576,"should":6577,"ĠWithout":6578,"Ġtelesc":6579,"Ġhorsef":6580,"ĠBaseball":6581,"Ġlayers":6582,"ĠEnhanced":6583,"ĠSeptember":6584,"ifficult":6585,"Ġenabled":6586,"Ġexponentially":6587,"Better":6588,"ĠIMF":6589,"nesday":6590,"ĠTrans":6591,"ĠOtherwise":6592,"ĠMassie":6593,"Ġreplacement":6594,"Ġconstraint":6595,"Ġmethane":6596,"Ġcommunication":6597,"Ide":6598,"Ġconvinced":6599,"Ġcontrolled":6600,"Ġcookies":6601,"ĠWednesday":6602,"Ġminiature":6603,"iosis":6604,"Ġpedestrian":6605,"Reply":6606,"ĠBritain":6607,"Ġsuppliers":6608,"Ġambient":6609,"Announcing":6610,"ĠTrying":6611,"Ġcondition":6612,"ĠAudi":6613,"ĠAngeles":6614,"Ġpretending":6615,"Ġparachutes":6616,"Ġvolcano":6617,"ĠImprobability":6618,"Ġglitch":6619,"Ġmeltdown":6620,"Ġnorthern":6621,"Ġanalysts":6622,"Ġinaccurate":6623,"Ġcautious":6624,"Ġunreason":6625,"Beautiful":6626,"ĠCatherine":6627,"%.":6628,"2500":6629,"800":6630,"CP":6631,"DA":6632,"Global":6633,"HO":6634,"Hes":6635,"Ms":6636,"Merlin":6637,"Prom":6638,"Rad":6639,"SW":6640,"Twitter":6641,"Taking":6642,"Us":6643,"bac":6644,"burn":6645,"break":6646,"cil":6647,"host":6648,"lishing":6649,"mber":6650,"off":6651,"ogy":6652,"pad":6653,"pass":6654,"press":6655,"sour":6656,"tr":6657,"tage":6658,"ticle":6659,"vely":6660,"wthorne":6661,"Ġq":6662,"Ġtent":6663,"inking":6664,"Ġsight":6665,"Ġsample":6666,"reasing":6667,"Ġwif":6668,"Ġbunch":6669,"Ġbricks":6670,"atr":6671,"atics":6672,"inger":6673,"isdom":6674,"oust":6675,"eness":6676,"ancing":6677,"Ġmar":6678,"Ġmath":6679,"ara":6680,"Ġtobac":6681,"Ġparents":6682,"Ġoh":6683,"Ġodds":6684,"Ġdi":6685,"Ġdome":6686,"Ġdare":6687,"Ġdiver":6688,"Ġdude":6689,"Ġled":6690,"Ġlugg":6691,"Ġlaugh":6692,"Ġhats":6693,"sters":6694,"stery":6695,"rogen":6696,"als":6697,"alin":6698,"Ġnic":6699,"Ġnuts":6700,"icopter":6701,"Ġgest":6702,"uttle":6703,"ĠTakes":6704,"ĠTotal":6705,"ĠSC":6706,"ĠSan":6707,"ĠSpr":6708,"ĠSystem":6709,"ills":6710,"idden":6711,"ented":6712,"ĠIR":6713,"ĠIrid":6714,"ĠMem":6715,"ĠMade":6716,"ĠMission":6717,"Ġstone":6718,"Ġstable":6719,"upid":6720,"that":6721,"ĠAdding":6722,"oph":6723,"opia":6724,"ili":6725,"Ġneither":6726,"Ġrn":6727,"cell":6728,"Ġaren":6729,"Ġvents":6730,"Ġshape":6731,"Ġgold":6732,"ĠWow":6733,"Ġenrout":6734,"Ġasks":6735,"ĠFallout":6736,"ĠFTW":6737,"raud":6738,"Ġjam":6739,"rians":6740,"ĠHen":6741,"Ġabsolut":6742,"ĠBaby":6743,"Ġmak":6744,"ĠNav":6745,"ĠDJ":6746,"ĠPDT":6747,"ĠPalo":6748,"Ġalign":6749,"Ġlob":6750,"Ġlosing":6751,"Ġchose":6752,"Ġcherry":6753,"quence":6754,"ĠEqu":6755,"Ġund":6756,"Ġunexpected":6757,"ĠLi":6758,"ĠRen":6759,"arted":6760,"ĠGold":6761,"Ġcarried":6762,"Ġcarmakers":6763,"rys":6764,"Ġarc":6765,"Ġmystery":6766,"Ġpoor":6767,"efore":6768,"ĠUlt":6769,"Ġoverall":6770,"Ġlaunchpad":6771,"Ġacts":6772,"Ġshouldn":6773,"...\"":6774,"Ġapplies":6775,"Ġapplications":6776,"oof":6777,"Ġincome":6778,"bell":6779,"Ġsponge":6780,"Ġfees":6781,"ulture":6782,"Ġ\"\":":6783,"Ġintended":6784,"Ġrecy":6785,"ocracy":6786,"Ġautose":6787,"Ġresidual":6788,"Ġaccumul":6789,"Ġhelicopter":6790,"Ġcrane":6791,"Inst":6792,"Ġsuperhuman":6793,"Ġends":6794,"Ġended":6795,"ĠAuto":6796,"Hawthorne":6797,"Ġsafest":6798,"Ġgrade":6799,"ĠAlto":6800,"Ġdism":6801,"Ġdisp":6802,"Ġdisplay":6803,"Ġscen":6804,"Ġsufficient":6805,"ĠKnight":6806,"Ġwriter":6807,"ĠWhere":6808,"Rec":6809,"Reality":6810,"ĠShuttle":6811,"ibration":6812,"Ġreminder":6813,"ĠRoad":6814,"Ġski":6815,"Ġskit":6816,"ĠYear":6817,"Ġreviews":6818,"Ġparam":6819,"Ġvoltage":6820,"Ġheadline":6821,"Ġinstant":6822,"Ġlightning":6823,"Ġunveils":6824,"ĠSoftware":6825,"lade":6826,"Ġturning":6827,"ernel":6828,"Ġkeeping":6829,"Ġjoy":6830,"ograph":6831,"Ġequator":6832,"Ġraising":6833,"Ġnearby":6834,"Ġspecs":6835,"Ġbrother":6836,"Ġpolit":6837,"Ġtoughest":6838,"ĠExc":6839,"Ġedge":6840,"Ġsecondary":6841,"Ġlogo":6842,"Ġsensitive":6843,"Ġrelated":6844,"ĠCyber":6845,"ĠCycling":6846,"Orbit":6847,"ĠButt":6848,"Ġsheer":6849,"Ġconfigur":6850,"Ġdeadly":6851,"Ġexceptional":6852,"Ġcouncil":6853,"Ġpredic":6854,"Ġprediction":6855,"Ġjudic":6856,"Ġdamn":6857,"Ġstories":6858,"Ġpreventing":6859,"rench":6860,"shirt":6861,"Ġprofitable":6862,"Ġdegree":6863,"Ġtelemetry":6864,"ypse":6865,"Ġclarification":6866,"Ġcriticisms":6867,"ĠGeneral":6868,"Ġcurve":6869,"Ġenabling":6870,"ĠTechnically":6871,"Ġorgs":6872,"ĠBeyond":6873,"ĠEveryone":6874,"Ġthousand":6875,"Ġoccup":6876,"Ġharness":6877,"Ġinspiring":6878,"Ġestate":6879,"Ġindividuals":6880,"Exciting":6881,"Ġmaximum":6882,"Ġmaximize":6883,"Ġhydrogen":6884,"Ġconvinces":6885,"seller":6886,"Ġpedestrians":6887,"According":6888,"Ġfoolish":6889,"Ġlegislation":6890,"Article":6891,"Ġactuator":6892,"Ġdefeated":6893,"ructure":6894,"Ġtrippy":6895,"ĠOfficer":6896,"Ġgarage":6897,"Tomorrow":6898,"ĠFlint":6899,"Ġstrategy":6900,"Ġrumor":6901,"Ġinsertion":6902,"Ġuncertainty":6903,"Ġafternoon":6904,"Ġtobacco":6905,"Ġluggage":6906,"Ġgestures":6907,"ĠIridium":6908,"ĠMemor":6909,"Ġenroute":6910,"Ġautosequence":6911,"200":6912,"70":6913,"78":6914,"Call":6915,"Creating":6916,"Certainly":6917,"Ed":6918,"En":6919,"EPA":6920,"Grid":6921,"Heavy":6922,"Mer":6923,"Merry":6924,"Moving":6925,"NA":6926,"OE":6927,"Other":6928,"Pl":6929,"Sad":6930,"Slight":6931,"Sens":6932,"War":6933,"Wed":6934,"aign":6935,"aft":6936,"aution":6937,"book":6938,"cis":6939,"cur":6940,"count":6941,"de":6942,"ded":6943,"fric":6944,"gu":6945,"high":6946,"hours":6947,"hlee":6948,"hammer":6949,"kt":6950,"lenn":6951,"mo":6952,"min":6953,"och":6954,"ovie":6955,"pa":6956,"punk":6957,"rif":6958,"rich":6959,"same":6960,"too":6961,"uish":6962,"wing":6963,"Ġion":6964,"inj":6965,"Ġaverage":6966,"Ġsac":6967,"Ġsigh":6968,"Ġsouth":6969,"Ġwings":6970,"Ġwisdom":6971,"orch":6972,"orks":6973,"Ġbars":6974,"Ġcouple":6975,"Ġcabin":6976,"Ġfraud":6977,"oul":6978,"ouri":6979,"encies":6980,"Ġmix":6981,"Ġtoast":6982,"Ġpolar":6983,"Ġplast":6984,"Ġpsi":6985,"Ġdre":6986,"Ġdat":6987,"Ġdense":6988,"Ġdomain":6989,"Ġlol":6990,"Ġliter":6991,"Ġnames":6992,"eters":6993,"Ġgalactic":6994,"Ġrein":6995,"Ġreverse":6996,"ĠTarget":6997,"ĠTBC":6998,"ĠTwo":6999,"ĠSch":7000,"ĠSlack":7001,"ĠSpeed":7002,"Ġbear":7003,"Ġanomal":7004,"Ġearth":7005,"under":7006,"ches":7007,"Ġsock":7008,"Ġstri":7009,"usk":7010,"usic":7011,"ilogy":7012,"Ġrally":7013,"Ġrated":7014,"ĠCapit":7015,"Ġprod":7016,"Ġproper":7017,"Ġvict":7018,"Ġshd":7019,"Ġshift":7020,"ĠWant":7021,"Ġtrigger":7022,"Ġtrilogy":7023,"ulit":7024,"ounter":7025,"Ġexists":7026,"olving":7027,"ĠThird":7028,"ĠFit":7029,"ĠFuture":7030,"acebook":7031,"Ġjury":7032,"umes":7033,"ĠHor":7034,"Ġaborts":7035,"ĠNice":7036,"ĠNature":7037,"ĠDOE":7038,"ĠPort":7039,"Ġalar":7040,"Ġchutes":7041,"ĠEgg":7042,"ĠElon":7043,"Ġuna":7044,"ĠLanding":7045,"Ġkale":7046,"ĠGover":7047,"ĠGermany":7048,"ĠGeorge":7049,"ĠGlenn":7050,"ainment":7051,"osteer":7052,"Ġpreburn":7053,"Ġpls":7054,"Ġplot":7055,"ublic":7056,"Ġtaugh":7057,"ĠVTO":7058,"ccup":7059,"Ġleeward":7060,"Ġdesert":7061,"Ġspo":7062,"orses":7063,"ensing":7064,"Ġperman":7065,"Ġpartly":7066,"Ġpartial":7067,"wegian":7068,"Ġintention":7069,"Ġquant":7070,"ocurrency":7071,"gring":7072,"Ġreson":7073,"Ġserver":7074,"Ġinterse":7075,"ĠChanos":7076,"ressing":7077,"ressive":7078,"ometer":7079,"redit":7080,"Ġ...\"":7081,"ĠInc":7082,"licit":7083,"Storm":7084,"Strange":7085,"Strong":7086,"Ġfacts":7087,"Ġairplan":7088,"Ġregime":7089,"ago":7090,"ellow":7091,"Ġconser":7092,"ĠCanadian":7093,"Reading":7094,"Recovery":7095,"ventions":7096,"Ġmeds":7097,"Ġmedium":7098,"onda":7099,"Ġdifferences":7100,"olly":7101,"Ġcommitted":7102,"Ġdecided":7103,"Ġsalt":7104,"Ġownership":7105,"Ġregulations":7106,"Ġmovement":7107,"Ġflush":7108,"Ġbuildings":7109,"ĠUnfortunately":7110,"Ġdrift":7111,"ĠAmish":7112,"Doing":7113,"Ġredund":7114,"Ġdeeply":7115,"Ġdropping":7116,"Ġjokes":7117,"ĠDev":7118,"Ġcollapse":7119,"Ġsellers":7120,"Ġcombine":7121,"Ġreplies":7122,"Ġstored":7123,"Ġhistorical":7124,"ĠSecond":7125,"Ġpresident":7126,"Ġultimate":7127,"ĠNeeded":7128,"Ġsensor":7129,"Ġsunset":7130,"Ġrelatively":7131,"ĠNorwegian":7132,"Ġmeantime":7133,"Ġpurely":7134,"Ġfactories":7135,"Ġstronger":7136,"Ġhello":7137,"Ġcalendar":7138,"Ġoffered":7139,"Ġenvironments":7140,"ĠMostly":7141,"Ġdamaged":7142,"Ġreduced":7143,"ĠDogecoin":7144,"Ġtelep":7145,"Ġblows":7146,"ĠCouldn":7147,"Ġcounteract":7148,"Ġnavigate":7149,"Ġbusiness":7150,"Ġcows":7151,"Engines":7152,"Ġillust":7153,"Ġobjects":7154,"Ġessentially":7155,"ĠObama":7156,"Upcoming":7157,"Ġdemocratic":7158,"ĠDoesn":7159,"Ġturbopumps":7160,"Ġindependently":7161,"Ġoccur":7162,"Ġguarantee":7163,"ĠParadise":7164,"Ġcampaign":7165,"Ġwalls":7166,"ĠPCR":7167,"Deeply":7168,"Ġmeaningful":7169,"Ġfacility":7170,"Ġenemy":7171,"Ġsynch":7172,"Ġdollar":7173,"Ġlegisl":7174,"ĠPreparing":7175,"Supercharger":7176,"ĠAston":7177,"Ġresistance":7178,"Ġfuels":7179,"Thruster":7180,"ĠTalulah":7181,"ossibly":7182,"Ġenjoy":7183,"Ġinitiated":7184,"Easier":7185,"satellites":7186,"Ġsymbiosis":7187,"optim":7188,"Ġneutral":7189,"ĠBusiness":7190,"ĠCommissioner":7191,"Ahem":7192,"andoned":7193,"Ġinsanely":7194,"Ġclicks":7195,"Ġrecycling":7196,"frica":7197,"Ġplastic":7198,"ĠSlacker":7199,"Ġanomalies":7200,"ĠCapitol":7201,"Ġtaught":7202,"ĠVTOL":7203,"Ġairplanes":7204,"90":7205,"?\"\"\"":7206,"BQ":7207,"Baby":7208,"Black":7209,"Correct":7210,"DC":7211,"EA":7212,"End":7213,"FO":7214,"IS":7215,"Mr":7216,"Night":7217,"OS":7218,"Ship":7219,"Sha":7220,"TV":7221,"Tel":7222,"aic":7223,"bic":7224,"best":7225,"blowing":7226,"cap":7227,"days":7228,"ext":7229,"gan":7230,"gering":7231,"hand":7232,"iary":7233,"lines":7234,"mous":7235,"rite":7236,"rance":7237,"rding":7238,"rbur":7239,"speed":7240,"tal":7241,"yay":7242,"za":7243,"zes":7244,"zero":7245,"Ġx":7246,"Ġtied":7247,"iner":7248,"Ġaeros":7249,"Ġsudden":7250,"really":7251,"Ġthor":7252,"Ġbod":7253,"Ġbang":7254,"Ġbots":7255,"Ġcup":7256,"Ġcord":7257,"Ġcath":7258,"Ġfather":7259,"itas":7260,"anoid":7261,"ĠmT":7262,"Ġmkt":7263,"arah":7264,"Ġpun":7265,"Ġpsy":7266,"Ġops":7267,"Ġhits":7268,"Ġhidden":7269,"Ġhorses":7270,"stream":7271,"rost":7272,"Ġinver":7273,"Ġinduction":7274,"alax":7275,"icking":7276,"elds":7277,"Ġgend":7278,"ĠTw":7279,"ĠTest":7280,"oting":7281,"otely":7282,"otos":7283,"ĠSn":7284,"ĠSw":7285,"ĠSing":7286,"ĠSub":7287,"owea":7288,"Ġeyes":7289,"unds":7290,"iding":7291,"ctim":7292,"Ġyaw":7293,"Ġyrs":7294,"ĠMt":7295,"ĠMac":7296,"ĠMoon":7297,"allow":7298,"Ġstag":7299,"imated":7300,"ĠAfrica":7301,"ilan":7302,"Ġring":7303,"Ġrates":7304,"ĠCars":7305,"ĠClass":7306,"ĠCulture":7307,"Ġprove":7308,"Ġshops":7309,"ĠWaiting":7310,"Ġhaven":7311,"ulate":7312,"ĠThree":7313,"ĠFri":7314,"ĠFree":7315,"ĠFacebook":7316,"Ġdeck":7317,"Ġseas":7318,"ĠHuman":7319,"ĠHEPA":7320,"ĠBon":7321,"ĠBas":7322,"ĠBost":7323,"ĠBoth":7324,"ĠBTC":7325,"ĠNrbur":7326,"ĠDie":7327,"ĠDrag":7328,"ĠDick":7329,"ĠDifficult":7330,"ĠPun":7331,"ĠPors":7332,"Ġaltern":7333,"Ġloses":7334,"Ġlovely":7335,"Ġchea":7336,"Ġchief":7337,"quis":7338,"ĠEd":7339,"ĠEs":7340,"ĠEmp":7341,"ĠEasy":7342,"Ġunf":7343,"ĠLockheed":7344,"Ġcompar":7345,"astroph":7346,"ĠStep":7347,"Ġpocket":7348,"Ġnoon":7349,"Ġhighways":7350,"Ġplays":7351,"ĠUkraine":7352,"Ġoverse":7353,"Ġoverha":7354,"Ġoversight":7355,"ĠJim":7356,"atteries":7357,"Ġagreed":7358,"Ġamend":7359,"Ġrightly":7360,"Ġcontains":7361,"Ġknight":7362,"Ġknife":7363,"Ġfee":7364,"osal":7365,"Ġpermit":7366,"Ġpartially":7367,"Ġquotes":7368,"Ġrecover":7369,"oco":7370,"Ġboom":7371,"Ġexplicit":7372,"icked":7373,"ĠChrys":7374,"phob":7375,"Ġverb":7376,"Ġverify":7377,"Ġendurance":7378,"ĠAutobahn":7379,"ails":7380,"need":7381,"Ġ-&":7382,"erto":7383,"Ġstartups":7384,"Note":7385,"Ġsubst":7386,"reciate":7387,"Ġshowed":7388,"pector":7389,"Ġthroughput":7390,"Ġimages":7391,"Ġretire":7392,"Ġretract":7393,"Ġsupports":7394,"Ġobt":7395,"Ġobser":7396,"ĠNever":7397,"esearch":7398,"Ġsecured":7399,"Ġentrance":7400,"Ġcentury":7401,"ompeted":7402,"Ġservicing":7403,"Ġremotely":7404,"utional":7405,"Ġbrilliant":7406,"Ġpassive":7407,"Ġpassage":7408,"ĠRoyal":7409,"Ġimportantly":7410,"Ġinvas":7411,"Ġcontrols":7412,"Ġreviewing":7413,"Ġreviewed":7414,"Ġreply":7415,"Ġreporter":7416,"Ġmanual":7417,"Ġparanoid":7418,"Ġdeclin":7419,"Ġcourt":7420,"ilton":7421,"Ġvibe":7422,"Ġlocally":7423,"ouncement":7424,"ĠSoC":7425,"Ġsimpler":7426,"serve":7427,"Ġdiscounts":7428,"ĠUniv":7429,"Ġbuyer":7430,"Ġcredits":7431,"Ġstreams":7432,"Ġtrucks":7433,"Ġroofs":7434,"Ġblue":7435,"ĠDeus":7436,"Ġraises":7437,"Ġdistrib":7438,"urbo":7439,"Heard":7440,"Ġbarrel":7441,"cheduled":7442,"Ġgeneralized":7443,"Ġspeculation":7444,"Ġoptimal":7445,"Ġlargely":7446,"Ġmultiple":7447,"Ġconfirmation":7448,"Ġpurpose":7449,"Ġearn":7450,"Ġprotest":7451,"Ġfunctional":7452,"ribed":7453,"Ġbegins":7454,"Ġflows":7455,"Ġatmospheric":7456,"Ġshares":7457,"ception":7458,"Ġsources":7459,"nergy":7460,"Ġcatastroph":7461,"Ġperfectly":7462,"Ġexceptions":7463,"Ġfigured":7464,"ĠPhysics":7465,"Ġincludes":7466,"Ġcarrying":7467,"Under":7468,"ĠSpaceship":7469,"Ġpromote":7470,"proof":7471,"Ġpremi":7472,"aranteed":7473,"Ġuncompeted":7474,"Ġsquare":7475,"Ġkilled":7476,"Ġcontinuance":7477,"Ġcorporate":7478,"rsly":7479,"ĠCommittee":7480,"Ġconcerned":7481,"Ġscientific":7482,"Ġcrewed":7483,"Ġillusion":7484,"Ġexplained":7485,"Ġrails":7486,"Ġapplying":7487,"ĠRockets":7488,"Ġimpression":7489,"Ġenables":7490,"Between":7491,"Ġsplit":7492,"Ġreservation":7493,"Whoa":7494,"maker":7495,"Ġconstrained":7496,"onymous":7497,"Ġfictional":7498,"Ġhydrophob":7499,"Ġgigawatt":7500,"Ġelevators":7501,"Ġswitched":7502,"Ġshutdown":7503,"Ġheavier":7504,"Ġfacilities":7505,"ĠDidn":7506,"Ġlocked":7507,"ledgehammer":7508,"Needs":7509,"Ġsurprisingly":7510,"Ġdollars":7511,"ĠBritish":7512,"sequences":7513,"Ġabsurdly":7514,"Superchargers":7515,"Signing":7516,"Ġbuttons":7517,"Ġesthetic":7518,"Russia":7519,"Ġclosest":7520,"TSLA":7521,"Bloomberg":7522,"Ġrepeated":7523,"Ġinternally":7524,"Ġapocalypse":7525,"Ġdialog":7526,"ĠTurns":7527,"Ġstabilize":7528,"Ġpractical":7529,"Ġenergized":7530,"uisher":7531,"Ġticket":7532,"Ġextinguisher":7533,"Ġirrelevant":7534,"Ġantenna":7535,"Ġabsolute":7536,"Ġlobby":7537,"rdinger":7538,"Ġaerospace":7539,"Ġbodies":7540,"Ġcathode":7541,"alaxy":7542,"oweapon":7543,"ĠNrburgring":7544,"ĠPorsche":7545,"Ġoverhaul":7546,"ĠChrysler":7547,"Ġhydrophobic":7548,"!).":7549,"%,":7550,"):":7551,"+,":7552,"75":7553,"9000":7554,"AL":7555,"Bought":7556,"CNN":7557,"Credit":7558,"Euro":7559,"Extremely":7560,"Electric":7561,"FF":7562,"Fi":7563,"Fran":7564,"Flying":7565,"Giant":7566,"HW":7567,"LY":7568,"Later":7569,"Lots":7570,"Lov":7571,"Mis":7572,"Met":7573,"Mid":7574,"Mission":7575,"RI":7576,"Rel":7577,"Sam":7578,"Sometimes":7579,"Tunn":7580,"Times":7581,"Yep":7582,"aac":7583,"after":7584,"bet":7585,"based":7586,"dri":7587,"dies":7588,"eas":7589,"gar":7590,"hance":7591,"hock":7592,"ients":7593,"lar":7594,"lot":7595,"lol":7596,"long":7597,"lich":7598,"my":7599,"munds":7600,"rand":7601,"slo":7602,"uk":7603,"uerto":7604,"xic":7605,"yup":7606,"yard":7607,"Ġtar":7608,"Ġtile":7609,"inent":7610,"inated":7611,"inishing":7612,"Ġawe":7613,"Ġsan":7614,"Ġsats":7615,"Ġsick":7616,"Ġsonic":7617,"Ġselect":7618,"reh":7619,"Ġwine":7620,"Ġwider":7621,"esy":7622,"Ġbed":7623,"Ġbull":7624,"Ġbake":7625,"Ġbillions":7626,"Ġblast":7627,"atme":7628,"Ġcate":7629,"Ġcous":7630,"Ġcopper":7631,"Ġcards":7632,"Ġfish":7633,"isk":7634,"isin":7635,"ourage":7636,"iters":7637,"ened":7638,"anes":7639,"Ġms":7640,"Ġmad":7641,"Ġmall":7642,"Ġmand":7643,"arf":7644,"Ġpill":7645,"Ġpace":7646,"Ġoatme":7647,"Ġdust":7648,"Ġtheore":7649,"Ġlic":7650,"Ġlung":7651,"Ġhorn":7652,"stand":7653,"alty":7654,"mpting":7655,"icians":7656,"icago":7657,"ashing":7658,"Ġgather":7659,"Ġreel":7660,"uttal":7661,"ĠTil":7662,"ĠTrue":7663,"ĠTED":7664,"ott":7665,"othing":7666,"ĠSay":7667,"ĠSim":7668,"ĠSuch":7669,"ĠSounds":7670,"ĠScience":7671,"Ġbeam":7672,"Ġforced":7673,"illa":7674,"illerson":7675,"Ġeating":7676,"ĠIce":7677,"ĠMiss":7678,"Ġsole":7679,"Ġitems":7680,"Ġstowed":7681,"think":7682,"ĠAfter":7683,"ĠAmb":7684,"Ġwear":7685,"opark":7686,"Ġwhom":7687,"keys":7688,"Ġbutter":7689,"Ġcoaster":7690,"ĠCt":7691,"ĠCup":7692,"ĠCur":7693,"ĠCool":7694,"ĠCreating":7695,"ĠComments":7696,"Ġprohibit":7697,"urized":7698,"Ġvig":7699,"Ġshall":7700,"Ġshots":7701,"Ġshoes":7702,"ĠWork":7703,"abled":7704,"Ġenorm":7705,"sec":7706,"Ġdozen":7707,"Ġexamination":7708,"ĠThaic":7709,"Ġseam":7710,"ravity":7711,"raisin":7712,"Ġworried":7713,"ĠBuff":7714,"ournal":7715,"ĠNut":7716,"ĠDep":7717,"ĠDark":7718,"Ġalloy":7719,"ĠPuerto":7720,"Ġchassis":7721,"inecraft":7722,"quire":7723,"quiv":7724,"ĠEgy":7725,"ĠEnergy":7726,"ĠEFF":7727,"looking":7728,"eways":7729,"ĠLim":7730,"ĠLmk":7731,"ĠLTE":7732,"ĠRD":7733,"ĠRest":7734,"ĠRive":7735,"ĠRob":7736,"ĠRush":7737,"ĠRico":7738,"ĠkW":7739,"Ġkernel":7740,"ĠGreen":7741,"Ġcompl":7742,"astic":7743,"Ġusable":7744,"eme":7745,"Ġtears":7746,"Ġheatsh":7747,"ĠStud":7748,"Ġcancel":7749,"Ġimped":7750,"effect":7751,"ĠUs":7752,"ĠOS":7753,"ĠOh":7754,"ĠOslo":7755,"Ġlaunched":7756,"lights":7757,"argo":7758,"Ġworkers":7759,"Ġamong":7760,"Ġmonkeys":7761,"Ġcontext":7762,"Ġaccel":7763,"Ġknowing":7764,"Ġprinter":7765,"Ġartists":7766,"Ġhelo":7767,"Ġunderest":7768,"ĠChicago":7769,"Ġowned":7770,"ĠInconel":7771,"ĠInvestigating":7772,"Init":7773,"Ġfactors":7774,"Ġoffice":7775,"ĠAlready":7776,"Ġbuilds":7777,"ĠEarths":7778,"Ġdisabled":7779,"Ġscroll":7780,"Ġtransp":7781,"Ġconflic":7782,"Ġadvise":7783,"ixing":7784,"Ġclosing":7785,"Ġretains":7786,"wesom":7787,"ĠKoch":7788,"ĠWhats":7789,"Ġdonated":7790,"Ġbelts":7791,"ĠReveal":7792,"Ġbran":7793,"Ġincrement":7794,"Ġzomb":7795,"Ġrequirements":7796,"Ġposting":7797,"Ġtraject":7798,"lame":7799,"lamed":7800,"Ġreplic":7801,"ĠProb":7802,"Ġholders":7803,"Ġparaf":7804,"Ġcreator":7805,"Ġlimbic":7806,"Ġdecent":7807,"Ġdecides":7808,"prise":7809,"Short":7810,"Ġsimulations":7811,"Ġcompetitor":7812,"Forgot":7813,"Ġinstr":7814,"ĠStarman":7815,"class":7816,"Ġtemps":7817,"Ġtempting":7818,"Ġpriorities":7819,"Ġdisclo":7820,"otech":7821,"Ġstreaming":7822,"Ġhottest":7823,"egap":7824,"Ġsnake":7825,"ogs":7826,"ĠPowerpack":7827,"Asimov":7828,"Ġtargeted":7829,"Ġreaches":7830,"Ġolder":7831,"Ġinfrast":7832,"Ġsubscri":7833,"Ġmods":7834,"Ġreplied":7835,"Ġcontinent":7836,"Ġcontinues":7837,"Ġfollows":7838,"Ġflaming":7839,"Ġedited":7840,"Ġemission":7841,"Ġreceives":7842,"Ġrelent":7843,"Ġtrickery":7844,"Order":7845,"ĠIsaac":7846,"Ġpicking":7847,"Ġeconomies":7848,"Ġblocks":7849,"Ġdocked":7850,"Ġjudgment":7851,"ĠBrilliant":7852,"Ġpanel":7853,"ĠMachine":7854,"Ġlearning":7855,"Ġflare":7856,"Ġpatients":7857,"Death":7858,"Ġpromised":7859,"Ġdenying":7860,"Ġarrive":7861,"Ġassembled":7862,"Ġcontinuous":7863,"Ġtouchdown":7864,"Ġbugs":7865,"Ġhorsepower":7866,"Apparently":7867,"Ġaccounting":7868,"Ġimmediate":7869,"Ġpossibility":7870,"Ġsurprised":7871,"afe":7872,"Ġpainted":7873,"Ġcowbell":7874,"ĠDavid":7875,"Ġplants":7876,"Truth":7877,"ĠLoop":7878,"Ġtitle":7879,"strong":7880,"Ġinflatable":7881,"Ġrebuttal":7882,"Ġlawsuit":7883,"Ġhurts":7884,"Ġtuning":7885,"Ġoddly":7886,"ĠTechnology":7887,"Ġsequel":7888,"ĠEverything":7889,"Ġdrama":7890,"Biggest":7891,"Ġcasting":7892,"Ġbench":7893,"Ġencourage":7894,"ĠInspector":7895,"Ġhanging":7896,"Ġhangar":7897,"Ġterminals":7898,"ioshock":7899,"Ġstormy":7900,"Ġangels":7901,"ĠMinnesota":7902,"Ġgraphite":7903,"Ġtradem":7904,"Ġmechanical":7905,"Accurate":7906,"Similar":7907,"Ġmarkets":7908,"Ġmissile":7909,"Ġdrawing":7910,"ĠCorrell":7911,"Screen":7912,"Ġmirror":7913,"Ġpneumatics":7914,"Ġnaturally":7915,"Ġesthet":7916,"Ġsimplify":7917,"Ġemployee":7918,"Ġemployees":7919,"Ġvariants":7920,"stein":7921,"ĠIntense":7922,"ĠMerc":7923,"Ġwerent":7924,"Ġcandid":7925,"ĠSAE":7926,"Ġiteration":7927,"Walked":7928,"Ġviruses":7929,"Ġvaccines":7930,"Ġmaneuver":7931,"Ġcolony":7932,"Ġrenewable":7933,"Ġbottom":7934,"itudinal":7935,"ĠSecret":7936,"Ġexclusive":7937,"Ġcompensate":7938,"Ġuhh":7939,"ĠContin":7940,"wynne":7941,"Ġlbf":7942,"Ġentertaining":7943,"Ġremoved":7944,"Drone":7945,"Ġcoincidence":7946,"Ġunequiv":7947,"ĠRemind":7948,"Ġwifi":7949,"Ġdiap":7950,"ĠRoadsters":7951,"ographic":7952,"ĠCyberpunk":7953,"Ġillustrate":7954,"Ġdistribution":7955,"Tunnels":7956,"beta":7957,"diesel":7958,"Ġsanctim":7959,"Ġoatmeal":7960,"ĠTilburg":7961,"ĠAmbien":7962,"Ġenormous":7963,"ĠThaicom":7964,"ĠEgypt":7965,"ĠRushmore":7966,"Ġheatshield":7967,"effective":7968,"Ġtrajectory":7969,"Ġparafoil":7970,"Ġinfrastructure":7971,"Ġsubscription":7972,"150":7973,"750":7974,"7500":7975,"Be":7976,"Bit":7977,"BFR":7978,"Besides":7979,"Bioshock":7980,"CH":7981,"Close":7982,"Due":7983,"Detail":7984,"Fear":7985,"Fund":7986,"God":7987,"Gary":7988,"Hex":7989,"Hope":7990,"Ign":7991,"Lets":7992,"Look":7993,"Med":7994,"North":7995,"Nav":7996,"Out":7997,"PC":7998,"Plan":7999,"System":8000,"Top":8001,"Tap":8002,"Wanted":8003,"Yo":8004,"ao":8005,"aire":8006,"auc":8007,"big":8008,"bust":8009,"gers":8010,"hol":8011,"ij":8012,"ki":8013,"lands":8014,"map":8015,"nage":8016,"oked":8017,"ossil":8018,"po":8019,"right":8020,"rason":8021,"taken":8022,"uh":8023,"uations":8024,"vit":8025,"vet":8026,"Ġing":8027,"Ġtreat":8028,"Ġtether":8029,"Ġtune":8030,"Ġtrees":8031,"information":8032,"Ġaka":8033,"Ġsle":8034,"Ġsledgehammer":8035,"Ġwire":8036,"Ġwins":8037,"esus":8038,"Ġbac":8039,"Ġbla":8040,"Ġbol":8041,"Ġbore":8042,"Ġbub":8043,"Ġbored":8044,"Ġborder":8045,"Ġcd":8046,"Ġcam":8047,"Ġcert":8048,"Ġfinger":8049,"ouder":8050,"Ġmamm":8051,"Ġpucker":8052,"Ġpairs":8053,"Ġdim":8054,"Ġlions":8055,"Ġlouder":8056,"Ġhoney":8057,"Ġinher":8058,"ales":8059,"elming":8060,"Ġgaps":8061,"Ġgirl":8062,"Ġreveal":8063,"utal":8064,"ĠTay":8065,"ĠTree":8066,"ĠTook":8067,"ĠTruck":8068,"ĠTotally":8069,"oters":8070,"ĠSy":8071,"ĠSher":8072,"ĠSending":8073,"ĠSometimes":8074,"ĠSeeing":8075,"lymp":8076,"ayed":8077,"change":8078,"ĠMN":8079,"ĠMed":8080,"ĠMet":8081,"ĠMob":8082,"ĠMountain":8083,"ĠMovie":8084,"Ġsociety":8085,"Ġstats":8086,"Ġstole":8087,"Ġstaged":8088,"opolies":8089,"using":8090,"amine":8091,"Ġruled":8092,"Ġcov":8093,"ĠCR":8094,"ĠCam":8095,"ĠComing":8096,"ĠCPU":8097,"Ġproven":8098,"Third":8099,"ĠWind":8100,"ĠWang":8101,"Ġhazard":8102,"ureauc":8103,"Ġnotes":8104,"Ġexha":8105,"Ġexiting":8106,"olist":8107,"ĠFrom":8108,"ĠFully":8109,"ĠFran":8110,"Ġjet":8111,"Ġconne":8112,"Ġconvey":8113,"ĠHH":8114,"ĠHAL":8115,"ĠBeing":8116,"ĠBeaut":8117,"ĠNational":8118,"ĠData":8119,"ĠDepends":8120,"ĠPot":8121,"ĠPink":8122,"pposite":8123,"Ġchann":8124,"ips":8125,"ques":8126,"ĠEither":8127,"ĠEST":8128,"Ġunable":8129,"Ġunreal":8130,"Ġunique":8131,"ĠLight":8132,"ĠLEO":8133,"ĠRow":8134,"ĠRom":8135,"ĠRoof":8136,"Ġupset":8137,"arts":8138,"ĠGiven":8139,"aints":8140,"apore":8141,"endent":8142,"Ġprev":8143,"Ġcancell":8144,"Ġplenty":8145,"igned":8146,"ĠUm":8147,"Ġoverb":8148,"Ġoverload":8149,"Ġengaged":8150,"ĠJam":8151,"ĠJesus":8152,"Ġbud":8153,"ĠVast":8154,"ĠVader":8155,"eps":8156,"Ġsomeones":8157,"Ġapparently":8158,"ĠTheir":8159,"Ġdrivet":8160,"Ġknock":8161,"Ġwhose":8162,"weets":8163,"Ġautosteer":8164,"Ġsmarter":8165,"Ġboats":8166,"rows":8167,"Ġserved":8168,"Ġknowledge":8169,"Ġafterwards":8170,"ishes":8171,"Ġunderwear":8172,"ĠSuperintelligence":8173,"Ins":8174,"Starting":8175,"Ġregional":8176,"Ġhelped":8177,"ĠAlways":8178,"Ġscorch":8179,"Ġtransmission":8180,"Ġdefend":8181,"Ġsuff":8182,"ronic":8183,"plus":8184,"Ġphr":8185,"Ġconfined":8186,"Ġconsensus":8187,"Ġrequesting":8188,"Ġsupported":8189,"Ġsupportive":8190,"eroid":8191,"Reasons":8192,"Ġindirect":8193,"Ġpublications":8194,"ermal":8195,"Ġmassively":8196,"Ġentering":8197,"ĠRec":8198,"Ġupgrading":8199,"Ġbranding":8200,"Ġbrutal":8201,"Ġpaywall":8202,"Ġsteer":8203,"Ġwherever":8204,"ĠYelp":8205,"Ġtunneling":8206,"Ġrefuel":8207,"Ġrefilling":8208,"ĠProject":8209,"jected":8210,"Ġholder":8211,"Ġdetection":8212,"Ġbasis":8213,"Ġdecline":8214,"while":8215,"whelming":8216,"tempting":8217,"ĠNewton":8218,"ĠHeart":8219,"Ġfeelings":8220,"Ġregularly":8221,"ĠSociety":8222,"seriously":8223,"Ġfluct":8224,"Ġrecommendation":8225,"Ġvacation":8226,"Ġautomation":8227,"linear":8228,"Ġrestrict":8229,"Ġviewed":8230,"Ġgrain":8231,"ĠDeath":8232,"Ġequity":8233,"Ġequival":8234,"Ġfried":8235,"Precis":8236,"Ġpodcast":8237,"Theyre":8238,"Ġexistential":8239,"ĠAshlee":8240,"Ġcauseway":8241,"Ġtougher":8242,"Ġfoundry":8243,"Ġultrason":8244,"ĠExactly":8245,"Ġearnings":8246,"ĠArm":8247,"ĠArs":8248,"Ġfiled":8249,"Ġsunlight":8250,"Ġsuggested":8251,"zzy":8252,"Ġmerits":8253,"Ġargue":8254,"ĠCovid":8255,"Ġgeological":8256,"Ġmultiplanet":8257,"Ġleads":8258,"Ġpotat":8259,"Several":8260,"Impro":8261,"Impressive":8262,"Ġaffordability":8263,"Ġmessage":8264,"ĠBring":8265,"Ġlabeling":8266,"Ġreferral":8267,"ĠPhil":8268,"ĠPhotos":8269,"Ġsubsidy":8270,"Ġadjusted":8271,"Ġconnects":8272,"Ġjournalist":8273,"ĠSerb":8274,"ĠImpact":8275,"Ġvarious":8276,"ĠLotus":8277,"Ġventing":8278,"Starhopper":8279,"afety":8280,"Ġcryogen":8281,"ĠJohnson":8282,"Ġcowboy":8283,"Complet":8284,"ĠGoal":8285,"Ġretrofit":8286,"Ġastronom":8287,"Ġcircum":8288,"Ġbikes":8289,"Ġwalks":8290,"ĠMartian":8291,"Ġsilence":8292,"Ġminimizing":8293,"Beta":8294,"ĠTechnica":8295,"Ġreserved":8296,"Ġapproximation":8297,"Ġefforts":8298,"Ġunlike":8299,"Ġconstraints":8300,"odspeed":8301,"ĠSteve":8302,"ĠChristie":8303,"Ġrendering":8304,"Ġcomfortable":8305,"Doesn":8306,"Ġgigantic":8307,"Ġrotation":8308,"Feb":8309,"Ġdownloading":8310,"Ġangles":8311,"celand":8312,"Ġpulling":8313,"Ġdynamically":8314,"Ġsurrounded":8315,"ĠActually":8316,"ĠHerbert":8317,"Ġspeaker":8318,"Ġdeparted":8319,"Ġemojis":8320,"Ġsquirrels":8321,"Leasing":8322,"ricky":8323,"Ġrefinement":8324,"Ġrefinements":8325,"changed":8326,"Ġdescribing":8327,"Ġdescribed":8328,"Ġdestroyed":8329,"Ġmaligned":8330,"Ġclosely":8331,"cluding":8332,"Putting":8333,"Astronauts":8334,"Ġthermometer":8335,"Ġevolving":8336,"Basic":8337,"Ġpaper":8338,"Ġtrailers":8339,"ĠElise":8340,"Ġendorsements":8341,"Ġexperienced":8342,"called":8343,"Ġdoomed":8344,"Ġchemical":8345,"Ġepisode":8346,"Ġpuppet":8347,"Ġtaxpayer":8348,"Ġvaluable":8349,"Ġrobotaxi":8350,"Ġcitizen":8351,"Ġbreathe":8352,"Ġpositives":8353,"Ġmanufacturers":8354,"Small":8355,"assembly":8356,"Ġoriginally":8357,"Ġtelescoping":8358,"ĠReno":8359,"Ġscenar":8360,"Ġparameters":8361,"ĠExciting":8362,"Sensible":8363,"country":8364,"Ġdatab":8365,"ĠSchrdinger":8366,"ĠHoriz":8367,"ĠGovernor":8368,"ĠIncredibly":8369,"Ġteleport":8370,"Ġcomparable":8371,"ĠStephen":8372,"Ġdialogue":8373,"Lovely":8374,"rehensive":8375,"Ġbullet":8376,"Ġmandate":8377,"Ġtheoretical":8378,"Ġlicensing":8379,"Ġseamlessly":8380,"ĠBuffett":8381,"Ġinstrument":8382,"Ġborescope":8383,"Ġexhaust":8384,"ĠBeauty":8385,"ĠPinker":8386,"Ġdrivetrain":8387,"Ġfluctuations":8388,"Ġequivalent":8389,"Precisely":8390,"\"...":8391,"*,":8392,"16":8393,"39":8394,"380":8395,"550":8396,"AF":8397,"AT":8398,"Add":8399,"Bo":8400,"Bel":8401,"Base":8402,"Cal":8403,"Cause":8404,"Del":8405,"Droneship":8406,"ES":8407,"El":8408,"Ext":8409,"Fun":8410,"Fate":8411,"Future":8412,"Frank":8413,"Gas":8414,"Hang":8415,"IT":8416,"Letter":8417,"Make":8418,"Non":8419,"None":8420,"Pay":8421,"Ra":8422,"Roc":8423,"SS":8424,"Simp":8425,"Sarah":8426,"TH":8427,"Too":8428,"Told":8429,"Touch":8430,"Tube":8431,"UN":8432,"UAW":8433,"Umm":8434,"Upper":8435,"Wr":8436,"Watch":8437,"ael":8438,"bra":8439,"bound":8440,"before":8441,"cra":8442,"correct":8443,"far":8444,"fire":8445,"gas":8446,"giving":8447,"hard":8448,"hicle":8449,"ioweapon":8450,"iFi":8451,"kind":8452,"kins":8453,"list":8454,"mare":8455,"oz":8456,"oft":8457,"pri":8458,"piring":8459,"rative":8460,"sm":8461,"sid":8462,"ship":8463,"size":8464,"sives":8465,"tot":8466,"turn":8467,"tronic":8468,"vance":8469,"volut":8470,"your":8471,"zer":8472,"Ġum":8473,"Ġted":8474,"Ġtub":8475,"Ġtint":8476,"Ġtorn":8477,"incess":8478,"Ġast":8479,"onious":8480,"onav":8481,"Ġsir":8482,"Ġsites":8483,"Ġsorts":8484,"Ġsides":8485,"reaming":8486,"especially":8487,"oral":8488,"ories":8489,"orporate":8490,"Ġber":8491,"Ġble":8492,"Ġboun":8493,"Ġbare":8494,"Ġbrag":8495,"Ġbatt":8496,"Ġbureauc":8497,"atri":8498,"Ġcig":8499,"Ġcrow":8500,"Ġfant":8501,"Ġfrag":8502,"ouis":8503,"ouched":8504,"ita":8505,"Ġmas":8506,"Ġmature":8507,"Ġmouth":8508,"Ġmarks":8509,"Ġtoy":8510,"Ġpe":8511,"Ġpays":8512,"Ġpets":8513,"Ġdow":8514,"Ġdancing":8515,"edge":8516,"Ġlunch":8517,"Ġlang":8518,"Ġlake":8519,"Ġlanes":8520,"Ġhi":8521,"Ġhal":8522,"Ġhom":8523,"Ġhacked":8524,"Ġhalt":8525,"Ġhosting":8526,"star":8527,"state":8528,"stone":8529,"rol":8530,"Ġinject":8531,"aling":8532,"alue":8533,"Ġnull":8534,"etitive":8535,"Ġgall":8536,"Ġgift":8537,"Ġglove":8538,"acitors":8539,"Ġrent":8540,"Ġreward":8541,"utur":8542,"ĠTough":8543,"ĠTerm":8544,"ĠTweets":8545,"ĠSK":8546,"ĠSingle":8547,"Ġbell":8548,"Ġbegging":8549,"Ġanec":8550,"amped":8551,"ĠIll":8552,"odd":8553,"oded":8554,"Ġya":8555,"Ġyard":8556,"add":8557,"ĠMich":8558,"ĠMaster":8559,"ĠMegap":8560,"Ġitem":8561,"Ġstd":8562,"Ġstated":8563,"imary":8564,"there":8565,"ĠAv":8566,"Ġwearing":8567,"ilos":8568,"Ġneck":8569,"Ġrude":8570,"ĠCall":8571,"Ġvul":8572,"Ġshop":8573,"Ġshade":8574,"Ġshaft":8575,"ĠWings":8576,"ĠWiFi":8577,"Ġtrash":8578,"Ġtrading":8579,"Ġenhanced":8580,"ulse":8581,"ulpt":8582,"ulators":8583,"Ġrover":8584,"Ġrose":8585,"Ġexchange":8586,"ĠThought":8587,"ĠFB":8588,"ĠFar":8589,"ĠFool":8590,"ĠFear":8591,"ĠFrench":8592,"Ġseated":8593,"uments":8594,"Ġconver":8595,"ĠHP":8596,"ĠHit":8597,"ĠHitch":8598,"ĠHelp":8599,"ĠBBQ":8600,"ĠNob":8601,"ĠNana":8602,"ĠNTS":8603,"ĠDone":8604,"ĠDroneship":8605,"Ġalloys":8606,"ĠPol":8607,"ĠPost":8608,"Ġloops":8609,"ĠLast":8610,"ĠLive":8611,"ĠLouis":8612,"ĠRange":8613,"ĠRele":8614,"ĠGames":8615,"ĠGirl":8616,"ĠGarf":8617,"Ġcomplic":8618,"ssentially":8619,"aret":8620,"important":8621,"istant":8622,"connect":8623,"Ġtimel":8624,"Ġoutstanding":8625,"Ġpreorders":8626,"ĠStay":8627,"ĠStars":8628,"Ġcomic":8629,"Ġnobody":8630,"Ġhasnt":8631,"Ġplug":8632,"Ġplacing":8633,"ntown":8634,"ĠUsed":8635,"ĠUFO":8636,"Ġoverhead":8637,"Ġoverpress":8638,"Ġoverwhelming":8639,"soft":8640,"arglass":8641,"ĠVoice":8642,"Ġtherefore":8643,"udge":8644,"inding":8645,"Ġtheyd":8646,"owner":8647,"intin":8648,"ached":8649,"achell":8650,"heres":8651,"Ġspring":8652,"Ġyours":8653,"Ġfeet":8654,"Ġpercent":8655,"Except":8656,"velength":8657,"Ġspeech":8658,"Ġrecap":8659,"ĠWeve":8660,"Ġaccur":8661,"Ġboss":8662,"mostly":8663,"Ġinterventions":8664,"Ġdesigning":8665,"angers":8666,"angely":8667,"Ġcru":8668,"Ġcrater":8669,"yscra":8670,"physics":8671,"Inf":8672,"Stud":8673,"Static":8674,"Ġoffset":8675,"Ġdelight":8676,"Ġaddition":8677,"Ġadditional":8678,"Ġregimes":8679,"agon":8680,"cedes":8681,"near":8682,"Ġscene":8683,"Ġsculpt":8684,"place":8685,"plane":8686,"Ġphased":8687,"Ġsubway":8688,"Ġconsist":8689,"azon":8690,"Ġfireball":8691,"ĠKev":8692,"eroids":8693,"Ġattacks":8694,"Problem":8695,"Ġindisting":8696,"Ġgenerators":8697,"Ġcounted":8698,"Ġmetro":8699,"Ġleaked":8700,"ĠReg":8701,"Ġapproaching":8702,"Ġappropri":8703,"Ġopenly":8704,"Ġmedical":8705,"Ġzillion":8706,"Ġpaying":8707,"Ġpayment":8708,"Ġcapita":8709,"Ġskyscra":8710,"Ġprizes":8711,"onding":8712,"Ġsteady":8713,"ollower":8714,"Ġseemed":8715,"Ġlooked":8716,"cession":8717,"Ġfixes":8718,"Ġkept":8719,"Ġrefers":8720,"Ġrepaid":8721,"Ġmanually":8722,"Ġcares":8723,"Ġnightmare":8724,"primarily":8725,"Ġheadlines":8726,"ĠDoing":8727,"ĠHeaded":8728,"Ġapolog":8729,"Ġregulator":8730,"clude":8731,"Ġpriorit":8732,"ĠUnivers":8733,"Ġfinds":8734,"Ġdeployable":8735,"Ġexpecting":8736,"Ġdrink":8737,"Ġtrucking":8738,"ĠAmazon":8739,"Dojo":8740,"Ġradi":8741,"ĠQu":8742,"Ġreddit":8743,"ĠNYC":8744,"Ġsnugg":8745,"eeze":8746,"Ġblown":8747,"ĠEuropa":8748,"Ġformally":8749,"Hey":8750,"Ġbarrier":8751,"Ġslowed":8752,"Ġoptimize":8753,"icularly":8754,"Ġruns":8755,"Ġcorrecting":8756,"Ġcorrectly":8757,"ĠWouldn":8758,"Ġmagical":8759,"ĠSeveral":8760,"Ġflew":8761,"Ġunderstands":8762,"Ġprecaution":8763,"Attempting":8764,"Ġtells":8765,"Ġedit":8766,"Ġeduc":8767,"Neuralink":8768,"Ġtransporting":8769,"Highly":8770,"Ġsheep":8771,"unkel":8772,"Ġconfiguration":8773,"ĠCOPV":8774,"ĠPerhaps":8775,"Ġmanufacture":8776,"rolled":8777,"Ġlistening":8778,"Ġsongs":8779,"oker":8780,"Ġfiguring":8781,"iki":8782,"Ġreferred":8783,"Ġadjusts":8784,"Ġignite":8785,"Ġprocesses":8786,"ĠAdjusting":8787,"Ġconnector":8788,"Ġtowing":8789,"Ġtowel":8790,"Ġtowers":8791,"Ġuncover":8792,"Ġsqueeze":8793,"Ġprofound":8794,"Ġcontracts":8795,"ĠJapanese":8796,"Ġcontinued":8797,"Appreciate":8798,"Ġholes":8799,"Trans":8800,"Ġfighting":8801,"Ġexplains":8802,"Ġobjective":8803,"Ġcircuit":8804,"ĠPlum":8805,"Ġarguing":8806,"Ġbiological":8807,"Ġweapon":8808,"Ġimpressed":8809,"Ġpaths":8810,"Ġrebate":8811,"ĠBrook":8812,"iffs":8813,"Ġcorners":8814,"ĠAnything":8815,"Ġreserve":8816,"Everyone":8817,"ĠTrump":8818,"ĠHardcore":8819,"Ġcontribute":8820,"ĠShortville":8821,"Ġharm":8822,"ĠApart":8823,"abilities":8824,"Ġestab":8825,"ĠInsta":8826,"Ġdiscussions":8827,"Trying":8828,"Ġcamping":8829,"ĠTuesday":8830,"Ġquieter":8831,"Ġrecalls":8832,"Ġprinted":8833,"Ġholidays":8834,"Background":8835,"Ġrandomly":8836,"ravitas":8837,"Ġfinancial":8838,"Ġcookie":8839,"Ġconvenience":8840,"Ġresearchers":8841,"Ġcryptocurrency":8842,"ĠWestworld":8843,"effic":8844,"Ġgradually":8845,"Engineers":8846,"Simulations":8847,"subsid":8848,"Ġtrolls":8849,"Ġrevolutionary":8850,"Ġinterests":8851,"Ġexplosives":8852,"Ġskills":8853,"door":8854,"Ġcorrections":8855,"Ġcorresp":8856,"launched":8857,"Ġpneumatic":8858,"Ġnatural":8859,"ĠIrony":8860,"Ġprosper":8861,"ĠBloomberg":8862,"ĠPrincess":8863,"Ġadmired":8864,"Increasing":8865,"Ġcultural":8866,"Ġfuzzy":8867,"Ġexcessive":8868,"cludes":8869,"Ġconveniently":8870,"Ġmillise":8871,"Ġlucky":8872,"Ġattached":8873,"Ġjunkyard":8874,"Ġsorted":8875,"ĠSolarglass":8876,"Ġresponsible":8877,"Ġreflective":8878,"Ġorganization":8879,"Ġopportunity":8880,"Ġopportunities":8881,"Ġcopy":8882,"Ġpiston":8883,"Ġtrivia":8884,"ĠDefense":8885,"Obviously":8886,"Ġtastes":8887,"ĠFranklin":8888,"Ġinfluence":8889,"Ġwavelength":8890,"ĠTravel":8891,"ĠInterplanetary":8892,"Promising":8893,"password":8894,"Ġpredicting":8895,"Ġoccupant":8896,"uishable":8897,"ccupy":8898,"Ġpuny":8899,"Ġinverter":8900,"Ġstaggering":8901,"Ġamendment":8902,"Ġcatastrophic":8903,"Ġpremiere":8904,"Europe":8905,"Ġbranch":8906,"Ġemissions":8907,"Ġtrademark":8908,"Ġesthetics":8909,"Ġcandidate":8910,"Ġdiapers":8911,"ĠMedtronic":8912,"Ġchannels":8913,"linearities":8914,"ĠSerbia":8915,"Ġcryogenic":8916,"Rococo":8917,"Simple":8918,"volutions":8919,"Ġtubes":8920,"Ġbouncy":8921,"Ġdowntown":8922,"Ġlangu":8923,"Ġhalves":8924,"Ġanecd":8925,"ilosoph":8926,"Ġvulner":8927,"ĠNTSB":8928,"ĠGarfunkel":8929,"Ġoverpressure":8930,"achella":8931,"ĠKevlar":8932,"Ġindistinguishable":8933,"Ġskyscraper":8934,"Ġprecautionary":8935,"'ll":8936,")!":8937,"2000":8938,";$":8939,"Ass":8940,"Alex":8941,"BT":8942,"Bu":8943,"Building":8944,"CR":8945,"Cut":8946,"Come":8947,"Cost":8948,"CIS":8949,"Dis":8950,"Dune":8951,"ER":8952,"Ent":8953,"Early":8954,"Elon":8955,"Fro":8956,"Fri":8957,"Form":8958,"Flam":8959,"Fairing":8960,"Finishing":8961,"Gave":8962,"GBT":8963,"Her":8964,"Hmm":8965,"Honored":8966,"Kanye":8967,"LI":8968,"List":8969,"Lord":8970,"Lying":8971,"MM":8972,"MT":8973,"May":8974,"Nu":8975,"Net":8976,"Offic":8977,"Post":8978,"Pics":8979,"Possibly":8980,"RR":8981,"Ren":8982,"Rele":8983,"Sk":8984,"Spe":8985,"Spl":8986,"Science":8987,"Scientists":8988,"Test":8989,"Tues":8990,"Var":8991,"Went":8992,"Wont":8993,"Yum":8994,"aine":8995,"awesome":8996,"agram":8997,"aired":8998,"aque":8999,"backs":9000,"cou":9001,"cut":9002,"da":9003,"dem":9004,"def":9005,"definitely":9006,"design":9007,"eal":9008,"emp":9009,"ehicle":9010,"fy":9011,"gs":9012,"henge":9013,"ila":9014,"iest":9015,"iber":9016,"late":9017,"mal":9018,"mod":9019,"might":9020,"mark":9021,"max":9022,"meme":9023,"nice":9024,"nos":9025,"netic":9026,"pul":9027,"pone":9028,"rad":9029,"rated":9030,"sha":9031,"suring":9032,"tra":9033,"tower":9034,"truck":9035,"uj":9036,"uys":9037,"uzzle":9038,"vies":9039,"vanced":9040,"wr":9041,"Ġ|":9042,"Ġ!!":9043,"Ġumm":9044,"Ġumb":9045,"Ġulit":9046,"Ġti":9047,"Ġtend":9048,"Ġtaps":9049,"Ġtyp":9050,"Ġtreating":9051,"Ġawesom":9052,"era":9053,"erated":9054,"erved":9055,"erbal":9056,"ona":9057,"Ġsen":9058,"Ġsue":9059,"Ġsport":9060,"Ġsled":9061,"rely":9062,"rella":9063,"Ġwid":9064,"Ġbesides":9065,"aters":9066,"Ġcumulative":9067,"Ġfate":9068,"oured":9069,"itur":9070,"enal":9071,"anage":9072,"anna":9073,"Ġmm":9074,"Ġmouse":9075,"Ġmush":9076,"Ġtoil":9077,"Ġpix":9078,"Ġpuzzle":9079,"Ġdign":9080,"Ġdirt":9081,"Ġdusk":9082,"Ġla":9083,"Ġlatch":9084,"Ġlets":9085,"Ġluc":9086,"storm":9087,"roat":9088,"roid":9089,"roach":9090,"rooms":9091,"Ġinner":9092,"Ġinconel":9093,"icip":9094,"etts":9095,"Ġglo":9096,"Ġglor":9097,"Ġgrown":9098,"igated":9099,"uters":9100,"utive":9101,"ĠTwit":9102,"ĠTax":9103,"ĠTweet":9104,"ĠSure":9105,"ĠSimp":9106,"ĠScient":9107,"ĠSandy":9108,"lyss":9109,"ampos":9110,"ampoline":9111,"Ġeast":9112,"Ġevolution":9113,"unar":9114,"idents":9115,"ĠIl":9116,"ĠIrel":9117,"ĠIceland":9118,"Ġyoke":9119,"ado":9120,"adily":9121,"ĠMoo":9122,"ĠMult":9123,"ĠMoth":9124,"ĠMicro":9125,"ĠMoses":9126,"Ġsorely":9127,"Ġstrain":9128,"Ġstiff":9129,"Ġstupid":9130,"Ġsticking":9131,"ĠAcc":9132,"ĠAdd":9133,"ĠAGI":9134,"ĠAlyss":9135,"irical":9136,"opian":9137,"usetts":9138,"iler":9139,"ilies":9140,"ilisk":9141,"Ġrink":9142,"Ġranging":9143,"ĠCovered":9144,"ĠCampos":9145,"Ġprox":9146,"arse":9147,"Ġshr":9148,"Ġshes":9149,"Ġshill":9150,"Ġshad":9151,"Ġshifts":9152,"ĠWars":9153,"Ġtragic":9154,"Ġtrampoline":9155,"Ġmovies":9156,"Ġenforce":9157,"Ġenhance":9158,"Ġensuring":9159,"Ġdoc":9160,"Ġorph":9161,"geon":9162,"Ġroot":9163,"Ġexits":9164,"ĠFP":9165,"ĠFi":9166,"ĠFact":9167,"ĠFront":9168,"ĠFrost":9169,"Ġseater":9170,"umber":9171,"Ġlivest":9172,"Ġconcept":9173,"Ġconference":9174,"Ġconsequences":9175,"ria":9176,"ĠHo":9177,"ĠBO":9178,"ĠBank":9179,"ĠBreak":9180,"ĠBorders":9181,"ĠBuy":9182,"ĠBuilding":9183,"pears":9184,"ĠNC":9185,"ĠNO":9186,"ĠNV":9187,"ĠNight":9188,"ĠNuys":9189,"ĠDys":9190,"ĠDual":9191,"ĠDoubt":9192,"Ġalleg":9193,"ĠPat":9194,"ĠPut":9195,"ĠPong":9196,"ĠPark":9197,"ĠPrav":9198,"inem":9199,"ipl":9200,"quila":9201,"Ġunusually":9202,"loor":9203,"ĠLeg":9204,"ĠLots":9205,"ĠGA":9206,"ĠGiant":9207,"ĠGlad":9208,"ĠGTO":9209,"ĠGhost":9210,"ĠGravity":9211,"Ġcarrier":9212,"kings":9213,"impact":9214,"Ġjustify":9215,"Ġoutlet":9216,"mented":9217,"ĠStates":9218,"ĠStarted":9219,"Ġcomedy":9220,"Ġimply":9221,"Ġpool":9222,"Ġpoison":9223,"Ġadult":9224,"ĠUK":9225,"Ġproducing":9226,"ĠOper":9227,"ĠOff":9228,"ĠOpen":9229,"ĠOdds":9230,"ĠOpposite":9231,"ĠOCIS":9232,"Ġoverla":9233,"Ġovercome":9234,"Ġovercoming":9235,"ĠJack":9236,"ĠVlad":9237,"Ġappoint":9238,"ricane":9239,"achusetts":9240,"Ġcontempt":9241,"Ġsolves":9242,"Ġlongitudinal":9243,"ounting":9244,"Ġspeaking":9245,"Ġintact":9246,"Ġmonthly":9247,"Ġrecess":9248,"Ġbacked":9249,"ĠWeird":9250,"Ġsmash":9251,"Ġmined":9252,"Ġbooms":9253,"Ġprone":9254,"ished":9255,"Ġexpense":9256,"Ġunderp":9257,"Ġcrack":9258,"ĠChris":9259,"ĠSuperDraco":9260,"redict":9261,"Ġ...(":9262,"Ġlifts":9263,"Ġsuperintelligence":9264,"Ġending":9265,"ĠAutom":9266,"Ġpublishing":9267,"Ġdelicious":9268,"Ġcostly":9269,"Ġadds":9270,"aging":9271,"agers":9272,"Ġgrace":9273,"Ġgrind":9274,"ĠAltitude":9275,"Ġdisruption":9276,"Ġdefault":9277,"Ġshortage":9278,"Ġconfused":9279,"Ġconsistent":9280,"azz":9281,"Ġshowers":9282,"Ġbecame":9283,"ĠKanye":9284,"ĠKCR":9285,"Ġattest":9286,"Ġattend":9287,"obv":9288,"Real":9289,"Ġindex":9290,"Ġguest":9291,"Ġguardians":9292,"ĠShe":9293,"ĠShop":9294,"Ġappreciative":9295,"Ġdepressing":9296,"Ġcontrovers":9297,"Ġcooled":9298,"opez":9299,"ĠReality":9300,"Ġhourly":9301,"Ġremoving":9302,"Ġpasses":9303,"Ġtalents":9304,"asonic":9305,"Ġannounced":9306,"Ġcapabilities":9307,"Ġrequirement":9308,"Ġpostpone":9309,"Ġinvite":9310,"earning":9311,"iteracy":9312,"Ġsteadily":9313,"Ġdifferently":9314,"Ġcritique":9315,"Ġoperations":9316,"Ġcommands":9317,"ĠProduct":9318,"ĠPropul":9319,"Ġbadly":9320,"Ġcarefully":9321,"links":9322,"Ġrisky":9323,"iums":9324,"Ġheads":9325,"Ġinstructions":9326,"Ġdealing":9327,"ĠDoctors":9328,"ĠDojo":9329,"Ġplayer":9330,"Ġclearance":9331,"ĠSoon":9332,"Ġmovements":9333,"ĠStarhopper":9334,"Ġinvestigated":9335,"valu":9336,"Ġhalfway":9337,"ĠUnited":9338,"entionally":9339,"Ġannouncements":9340,"Ġrestore":9341,"nesses":9342,"Ġhotel":9343,"Ġproposed":9344,"egal":9345,"etheless":9346,"Ġequally":9347,"Aspirationally":9348,"Ġforms":9349,"Ġspaceships":9350,"Ġpolite":9351,"Ġpresents":9352,"Ġdebris":9353,"Ġstocks":9354,"Ġconfirming":9355,"holders":9356,"Ġaffecting":9357,"Ġmentioning":9358,"Ġbegun":9359,"Ġtraveling":9360,"Ancient":9361,"ĠSung":9362,"ĠCoachella":9363,"Activ":9364,"ĠMonth":9365,"Ġsuspect":9366,"Ġdestruction":9367,"Ġsheet":9368,"Ġinstallers":9369,"ĠOrbit":9370,"Ġimmune":9371,"Ġcyber":9372,"ĠAircraft":9373,"Ġmetals":9374,"ĠRussians":9375,"Canada":9376,"Ġpopulated":9377,"Ġassets":9378,"Ġhonest":9379,"Ġpublished":9380,"Ġjudging":9381,"Ġopaque":9382,"Ġadjusting":9383,"ĠCarlo":9384,"ĠAdela":9385,"Unless":9386,"ĠSpain":9387,"Ġturbine":9388,"Ġprominent":9389,"prob":9390,"Ġpremature":9391,"Ġpremiums":9392,"Ġstationary":9393,"ĠIdeas":9394,"Ġprofit":9395,"Ġcatching":9396,"ĠApprox":9397,"ĠService":9398,"Ġthrott":9399,"ĠRepl":9400,"Ġcontinuing":9401,"Ġcorruption":9402,"Ġsubjects":9403,"Ġsurprise":9404,"Ġfamilies":9405,"ĠEnough":9406,"Ġadvertise":9407,"Ġessay":9408,"ĠObviously":9409,"ĠSmoking":9410,"ĠMeant":9411,"Ġexpended":9412,"Ġinflation":9413,"Individual":9414,"Ġwalking":9415,"Ġrebuilt":9416,"Ġsurvive":9417,"Ġhurricane":9418,"Ġintegrity":9419,"aughty":9420,"ĠAnyone":9421,"Ġsequitur":9422,"Ġmodels":9423,"ĠMassachusetts":9424,"ularity":9425,"Ġmethods":9426,"Ġsmoothly":9427,"Ġcastle":9428,"Ġfiat":9429,"ĠMonte":9430,"borg":9431,"Ġencounter":9432,"Doesnt":9433,"Ġcommunications":9434,"ammers":9435,"Ġrotate":9436,"Ġexecs":9437,"Ġexecutive":9438,"Ġlosses":9439,"Ġresolved":9440,"Ġclaimed":9441,"Feels":9442,"Ġcontrolling":9443,"Ġpurchases":9444,"++,":9445,"sellers":9446,"Ġpolls":9447,"ĠEastern":9448,"Ġsimultaneous":9449,"ĠConc":9450,"Engineering":9451,"Ġmechanics":9452,"Ġdivision":9453,"Ġtransitioning":9454,"Ġsurrounding":9455,"Sunday":9456,"checked":9457,"Ġmissives":9458,"Ġsignals":9459,"Ġbrightness":9460,"Ġskillz":9461,"Ġexternality":9462,"ĠVancou":9463,"Ġemergency":9464,"Ġinvented":9465,"ĠJonah":9466,"Russian":9467,"Thrusters":9468,"ĠPanasonic":9469,"Ġdemonstrate":9470,"Ġfrequency":9471,"Ġweren":9472,"ĠBlackrock":9473,"ĠGuaranteed":9474,"Currently":9475,"consumer":9476,"Ġapocaly":9477,"Ġmaneuvers":9478,"Ġstatus":9479,"Ġsignatures":9480,"Ġtemporary":9481,"Ġconstitu":9482,"Ġrenewables":9483,"Basically":9484,"ĠICB":9485,"Ġcomplaining":9486,"Ġresponsibility":9487,"Ironically":9488,"Quil":9489,"Ġpistons":9490,"ĠSXSW":9491,"ĠSurface":9492,"Ġtransmitting":9493,"Upgrades":9494,"Reddit":9495,"swers":9496,"Ġgained":9497,"ĠCountdown":9498,"ĠDetails":9499,"rypton":9500,"ĠStonecut":9501,"ĠStonehenge":9502,"Ġadvocates":9503,"Ġselections":9504,"ĠCongratulations":9505,"Ġchoosing":9506,"Ġcyclists":9507,"Ġassessment":9508,"Ġproportionately":9509,"ĠPrize":9510,"Ġmetaphor":9511,"Ideally":9512,"Ġunreasonably":9513,"Radar":9514,"ĠSpring":9515,"Ġmaker":9516,"ĠNavigate":9517,"Ġsufficiently":9518,"Ġconfigurator":9519,"Ġcouncils":9520,"Ġjudicial":9521,"curve":9522,"Ġreinforce":9523,"Ġvictory":9524,"Ġtriggered":9525,"ĠEggs":9526,"Ġpreburner":9527,"Ġpermanent":9528,"Ġquantum":9529,"Strongest":9530,"Ġredundant":9531,"Telemetry":9532,"Ġpsych":9533,"Ġgender":9534,"ĠTwain":9535,"Ġcheaper":9536,"ĠEmpire":9537,"Ġpockets":9538,"driven":9539,"Ġpillar":9540,"ĠMissouri":9541,"ĠNutcracker":9542,"Ġcomplac":9543,"Ġzombie":9544,"ĠIsaacson":9545,"Ġmaneuvering":9546,"ĠContinued":9547,"Ġsanctimonious":9548,"Ignition":9549,"Ġbubble":9550,"Ġinherently":9551,"Ġscenario":9552,"Booster":9553,"Raul":9554,"totypes":9555,"Ġcrowd":9556,"Ġfantastic":9557,"ĠTerminal":9558,"ĠMichael":9559,"ĠHitchens":9560,"Ġcomplicated":9561,"Ġappropriate":9562,"Ġlanguage":9563,"Alexander":9564,"Frodo":9565,"Listening":9566,"Special":9567,"Ġumbrella":9568,"Ġulitmate":9569,"Ġawesomeness":9570,"Ġmushroom":9571,"Ġdignity":9572,"Ġlucrative":9573,"Ġglorious":9574,"ĠTwitmeme":9575,"ĠIreland":9576,"ĠMicrosoft":9577,"ĠAlyssa":9578,"Ġorphanage":9579,"ĠDyson":9580,"ĠOpenAI":9581,"ĠOCISLY":9582,"ĠKCRW":9583,"Ġcontroversial":9584,"ĠPropulsion":9585,"ĠAdelaide":9586,"ĠVancouver":9587,"ĠStonecutters":9588,"$$":9589,"27":9590,"33":9591,"42":9592,"47":9593,"?\"\"":9594,"April":9595,"Ariane":9596,"Been":9597,"CA":9598,"Cle":9599,"Cow":9600,"Cover":9601,"Comes":9602,"CSat":9603,"Des":9604,"Dock":9605,"Dawn":9606,"EC":9607,"Ear":9608,"Either":9609,"EST":9610,"Fil":9611,"Front":9612,"Fossil":9613,"GS":9614,"Glass":9615,"Gonna":9616,"Grad":9617,"HD":9618,"HM":9619,"Hacked":9620,"Humans":9621,"Hyd":9622,"Iran":9623,"Judge":9624,"Liam":9625,"Laren":9626,"Made":9627,"Millions":9628,"Mountain":9629,"Nope":9630,"Owner":9631,"Olymp":9632,"Pic":9633,"Pull":9634,"Pass":9635,"Pushing":9636,"PAC":9637,"Present":9638,"Ramp":9639,"Sew":9640,"Since":9641,"Sentry":9642,"Snow":9643,"Uran":9644,"WB":9645,"Wore":9646,"Wish":9647,"Watched":9648,"YED":9649,"aj":9650,"aited":9651,"biz":9652,"batteries":9653,"current":9654,"dir":9655,"dark":9656,"dead":9657,"eper":9658,"evi":9659,"fe":9660,"firm":9661,"fired":9662,"gic":9663,"gel":9664,"hes":9665,"hop":9666,"ias":9667,"ky":9668,"kill":9669,"kist":9670,"kWh":9671,"may":9672,"many":9673,"much":9674,"mult":9675,"market":9676,"namb":9677,"oin":9678,"oor":9679,"oem":9680,"oci":9681,"ooming":9682,"rator":9683,"rising":9684,"rification":9685,"som":9686,"sup":9687,"spect":9688,"track":9689,"topia":9690,"ui":9691,"vo":9692,"win":9693,"won":9694,"yaw":9695,"zbe":9696,"zens":9697,"Ġich":9698,"Ġought":9699,"Ġouch":9700,"Ġtin":9701,"Ġtides":9702,"Ġtouched":9703,"inle":9704,"inery":9705,"Ġapt":9706,"Ġawards":9707,"eron":9708,"onest":9709,"Ġsig":9710,"Ġsam":9711,"Ġswe":9712,"reg":9713,"reet":9714,"reeway":9715,"Ġwed":9716,"Ġwound":9717,"Ġwipe":9718,"eson":9719,"Ġbon":9720,"Ġbays":9721,"Ġbatch":9722,"aturally":9723,"Ġcg":9724,"Ġcable":9725,"Ġcape":9726,"Ġcurrency":9727,"Ġfed":9728,"Ġfro":9729,"Ġfab":9730,"issing":9731,"oupl":9732,"itation":9733,"itary":9734,"itang":9735,"itute":9736,"itrogen":9737,"anic":9738,"anze":9739,"Ġmel":9740,"Ġmur":9741,"Ġmere":9742,"Ġmort":9743,"Ġmimes":9744,"aria":9745,"Ġtoss":9746,"Ġtoxic":9747,"Ġpeop":9748,"Ġpuff":9749,"Ġplaid":9750,"Ġpoured":9751,"Ġore":9752,"Ġdain":9753,"Ġdice":9754,"Ġdoth":9755,"Ġdash":9756,"Ġdrain":9757,"Ġdrug":9758,"Ġdipl":9759,"edia":9760,"Ġlady":9761,"Ġlair":9762,"Ġlaid":9763,"Ġlined":9764,"Ġludicrous":9765,"Ġlapse":9766,"Ġhire":9767,"Ġhoping":9768,"Ġholy":9769,"struction":9770,"ropped":9771,"Ġincons":9772,"alop":9773,"also":9774,"mpath":9775,"Ġnitrogen":9776,"Ġisland":9777,"elis":9778,"elvin":9779,"etric":9780,"ionally":9781,"aser":9782,"Ġgent":9783,"Ġgang":9784,"Ġgaming":9785,"Ġgodd":9786,"ley":9787,"Ġreele":9788,"igital":9789,"ĠTom":9790,"ĠTurbo":9791,"ĠSS":9792,"ĠSade":9793,"ĠSentry":9794,"ĠSug":9795,"ĠSchool":9796,"ĠSales":9797,"Ġforth":9798,"Ġforcing":9799,"illed":9800,"Ġonboard":9801,"omats":9802,"amples":9803,"Ġein":9804,"Ġevalu":9805,"iden":9806,"ctic":9807,"ĠID":9808,"ĠIvo":9809,"laut":9810,"Ġyield":9811,"aday":9812,"adoes":9813,"ĠMW":9814,"ĠMour":9815,"ĠMull":9816,"ĠMia":9817,"ĠMSF":9818,"ĠMinecraft":9819,"alli":9820,"tered":9821,"teria":9822,"Ġstro":9823,"imizing":9824,"thur":9825,"those":9826,"thermal":9827,"ĠAyn":9828,"ĠAgency":9829,"ĠAeron":9830,"Ġnearly":9831,"Ġrac":9832,"Ġrural":9833,"Ġrides":9834,"Ġcoat":9835,"Ġcoking":9836,"Ġcoord":9837,"Ġcobal":9838,"ĠCreat":9839,"ĠCapt":9840,"ĠColl":9841,"ĠCustom":9842,"ĠCivil":9843,"ĠCandy":9844,"ĠComb":9845,"ĠCertainly":9846,"ĠCargo":9847,"Ġproving":9848,"urai":9849,"uratively":9850,"Ġvon":9851,"Ġvir":9852,"Ġshred":9853,"Ġsharks":9854,"ersized":9855,"ĠWing":9856,"ĠWent":9857,"ĠWik":9858,"ĠWME":9859,"Ġtrial":9860,"Ġmood":9861,"Ġhail":9862,"about":9863,"ulistic":9864,"seat":9865,"Ġdozens":9866,"Ġexempt":9867,"olera":9868,"ĠTheres":9869,"ĠFew":9870,"ĠFish":9871,"ĠFiring":9872,"ĠFinal":9873,"ĠFair":9874,"ĠFund":9875,"ĠField":9876,"ĠFocus":9877,"ĠFoster":9878,"ĠFederal":9879,"ĠFault":9880,"ĠFixed":9881,"ĠFreeway":9882,"ante":9883,"Ġdear":9884,"Ġdeeper":9885,"Ġsees":9886,"rait":9887,"Ġjazz":9888,"ĠHat":9889,"ĠHoo":9890,"ĠHuz":9891,"ĠHonored":9892,"ĠBow":9893,"ĠBur":9894,"ĠBold":9895,"ĠBoy":9896,"ĠBarry":9897,"Ġmail":9898,"Ġmaps":9899,"ĠDr":9900,"ĠDad":9901,"ĠDue":9902,"ĠDarth":9903,"ĠDict":9904,"ĠDams":9905,"ĠDenal":9906,"ĠDEST":9907,"ĠDWB":9908,"Ġallevi":9909,"ĠPU":9910,"ĠPending":9911,"ĠPeter":9912,"ĠPana":9913,"ĠPledge":9914,"ĠPaint":9915,"ĠPenn":9916,"ĠPucker":9917,"ĠPredict":9918,"ĠPitang":9919,"actively":9920,"Ġchef":9921,"iples":9922,"ipedia":9923,"quoted":9924,"ĠExt":9925,"ĠEph":9926,"ĠEPA":9927,"ĠEDT":9928,"ĠEAP":9929,"Ġunivers":9930,"Ġuncont":9931,"Ġunseat":9932,"losed":9933,"ewart":9934,"ĠLars":9935,"ĠLea":9936,"ĠLiv":9937,"ĠLiterally":9938,"ĠLee":9939,"ĠLands":9940,"ĠLogs":9941,"ĠRG":9942,"ĠRises":9943,"ĠResearch":9944,"Ġuprising":9945,"Ġkit":9946,"Ġkitten":9947,"ĠGG":9948,"ĠGes":9949,"ĠGive":9950,"ĠGoll":9951,"ĠGlobal":9952,"ĠGreg":9953,"aining":9954,"ainting":9955,"Ġcompell":9956,"Ġcomposite":9957,"Ġcompares":9958,"ssue":9959,"Ġcarmaker":9960,"impanze":9961,"istocracy":9962,"istrator":9963,"apor":9964,"apacitors":9965,"emarket":9966,"Yesterday":9967,"Ġyellow":9968,"conser":9969,"ects":9970,"ectic":9971,"Ġarcing":9972,"Ġaristocracy":9973,"Ġheh":9974,"Ġprecious":9975,"ĠStri":9976,"ĠStarting":9977,"ĠStainless":9978,"ĠStalin":9979,"ĠStewart":9980,"Ġimpulse":9981,"Ġwouldve":9982,"ores":9983,"Ġpose":9984,"Ġnois":9985,"dera":9986,"Ġadapt":9987,"ĠUzbe":9988,"ĠOwner":9989,"ĠOccupy":9990,"ĠSpaceflight":9991,"ĠJong":9992,"ĠJord":9993,"ĠJolly":9994,"Ġbets":9995,"venience":9996,"ansive":9997,"ĠVinge":9998,"ĠVTV":9999}