{"token_frequency": [{".</w>": 11980}, {",</w>": 7950}, {"to</w>": 5375}, {"the</w>": 4349}, {"is</w>": 4154}, {"a</w>": 3922}, {"of</w>": 3580}, {"&</w>": 2817}, {";</w>": 2807}, {"in</w>": 2754}, {"amp</w>": 2707}, {"for</w>": 2312}, {"!</w>": 2304}, {"be</w>": 1863}, {"on</w>": 1693}, {"will</w>": 1558}, {"Tesla</w>": 1480}, {"but</w>": 1420}, {"I</w>": 1404}, {"that</w>": 1388}, {"it</w>": 1379}, {"with</w>": 1277}, {"-</w>": 1179}, {"are</w>": 1174}, {"at</w>": 981}, {"this</w>": 976}, {"as</w>": 891}, {"so</w>": 884}, {"not</w>": 872}, {"you</w>": 842}, {"by</w>": 811}, {"have</w>": 794}, {"(</w>": 793}, {")</w>": 792}, {"we</w>": 783}, {"/</w>": 757}, {"and</w>": 743}, {"was</w>": 682}, {"from</w>": 672}, {"or</w>": 647}, {"Yes</w>": 636}, {"all</w>": 621}, {"'</w>": 613}, {"an</w>": 584}, {"?</w>": 570}, {"The</w>": 568}, {"about</w>": 551}, {"than</w>": 542}, {"like</w>": 536}, {"do</w>": 527}, {"more</w>": 526}, {"just</w>": 505}, {"We</w>": 487}, {"This</w>": 481}, {"would</w>": 481}, {"has</w>": 464}, {"Model</w>": 461}, {"can</w>": 459}, {"~</w>": 436}, {"much</w>": 434}, {"car</w>": 425}, {"no</w>": 425}, {"time</w>": 424}, {"good</w>": 423}, {"Will</w>": 415}, {"my</w>": 406}, {"%</w>": 393}, {"great</w>": 388}, {"should</w>": 386}, {"out</w>": 380}, {"if</w>": 370}, {"one</w>": 366}, {"It</w>": 365}, {"high</w>": 364}, {"too</w>": 361}, {"our</w>": 351}, {"*</w>": 350}, {"make</w>": 347}, {"year</w>": 344}, {"there</w>": 343}, {"next</w>": 341}, {"people</w>": 335}, {"cars</w>": 328}, {"s</w>": 325}, {"Yeah</w>": 322}, {"up</w>": 319}, {"SpaceX</w>": 319}, {"work</w>": 316}, {"soon</w>": 313}, {"its</w>": 313}, {"Starship</w>": 313}, {"Its</w>": 309}, {"which</w>": 307}, {"only</w>": 305}, {"No</w>": 292}, {"get</w>": 291}, {"production</w>": 287}, {"S</w>": 285}, {"need</w>": 284}, {"t</w>": 281}, {"If</w>": 281}, {"some</w>": 280}, {"they</w>": 279}, {"$</w>": 275}, {"me</w>": 274}, {"That</w>": 273}, {"now</w>": 272}, {"your</w>": 269}, {":</w>": 269}, {"way</w>": 268}, {"many</w>": 268}, {"most</w>": 267}, {"right</w>": 266}, {"rocket</w>": 265}, {"years</w>": 265}, {"what</w>": 262}, {"Mars</w>": 260}, {"better</w>": 259}, {"Exactly</w>": 250}, {"over</w>": 250}, {"Just</w>": 248}, {"team</w>": 246}, {"Good</w>": 232}, {"even</w>": 232}, {"launch</w>": 231}, {"few</w>": 229}, {"Thanks</w>": 228}, {"very</w>": 227}, {"were</w>": 226}, {"Falcon</w>": 226}, {"actually</w>": 225}, {"when</w>": 224}, {"first</w>": 222}, {"A</w>": 221}, {"true</w>": 219}, {"then</w>": 217}, {"long</w>": 216}, {"other</w>": 214}, {"new</w>": 214}, {"lot</w>": 214}, {"hard</w>": 210}, {"week</w>": 209}, {"coming</w>": 208}, {"X</w>": 208}, {"\"</w>": 206}, {"software</w>": 205}, {"any</w>": 201}, {"Not</w>": 201}, {"sure</w>": 201}, {"engine</w>": 200}, {"think</w>": 199}, {"who</w>": 195}, {"go</w>": 194}, {"probably</w>": 194}, {"their</w>": 194}, {"point</w>": 193}, {"use</w>": 193}, {"Earth</w>": 192}, {"needed</w>": 186}, {"dont</w>": 184}, {"test</w>": 184}, {"still</w>": 183}, {"real</w>": 183}, {"could</w>": 181}, {"Great</w>": 179}, {"There</w>": 179}, {"Also</w>": 179}, {"been</w>": 178}, {"also</w>": 175}, {"back</w>": 175}, {"best</w>": 172}, {"well</w>": 170}, {"future</w>": 169}, {"into</w>": 169}, {"know</w>": 169}, {"Im</w>": 169}, {"+</w>": 169}, {"Haha</w>": 168}, {"being</w>": 166}, {"how</w>": 166}, {"Maybe</w>": 165}, {"power</w>": 164}, {"You</w>": 164}, {"flight</w>": 163}, {"orbit</w>": 162}, {"almost</w>": 161}, {"FSD</w>": 161}, {"really</w>": 161}, {"design</w>": 159}, {"months</w>": 159}, {"True</w>": 158}, {"day</w>": 157}, {"US</w>": 156}, {"going</w>": 156}, {"Autopilot</w>": 156}, {"landing</w>": 156}, {"world</w>": 155}, {"them</w>": 155}, {"see</w>": 153}, {"after</w>": 152}, {"energy</w>": 151}, {"made</w>": 148}, {"Dragon</w>": 148}, {"working</w>": 147}, {"done</w>": 147}, {"far</w>": 147}, {"same</w>": 147}, {"big</w>": 147}, {"want</w>": 145}, {"those</w>": 144}, {"days</w>": 143}, {"Raptor</w>": 143}, {"down</w>": 142}, {"cost</w>": 142}, {"had</w>": 141}, {"before</w>": 139}, {"less</w>": 138}, {"driving</w>": 138}, {"Thats</w>": 138}, {"low</w>": 137}, {"engines</w>": 137}, {"solar</w>": 137}, {"Probably</w>": 136}, {"AI</w>": 134}, {"They</w>": 134}, {"love</w>": 132}, {"For</w>": 131}, {"life</w>": 131}, {"system</w>": 131}, {"ever</w>": 130}, {"electric</w>": 129}, {"last</w>": 129}, {"full</w>": 129}, {"Ok</w>": 128}, {"Were</w>": 128}, {"enough</w>": 128}, {"What</w>": 127}, {"around</w>": 127}, {"Sure</w>": 126}, {"take</w>": 126}, {"end</w>": 125}, {"problem</w>": 125}, {"super</w>": 125}, {"In</w>": 124}, {"And</w>": 124}, {"speed</w>": 123}, {"m</w>": 123}, {"space</w>": 123}, {"So</w>": 123}, {"today</w>": 122}, {"thrust</w>": 121}, {"mass</w>": 121}, {"All</w>": 121}, {"little</w>": 120}, {"things</w>": 119}, {"through</w>": 118}, {"drive</w>": 117}, {"off</w>": 117}, {"important</w>": 116}, {"times</w>": 116}, {"us</w>": 116}, {"money</w>": 115}, {"haha</w>": 115}, {"every</w>": 115}, {"release</w>": 114}, {"he</w>": 113}, {"ship</w>": 113}, {"small</w>": 112}, {"video</w>": 112}, {"Heavy</w>": 112}, {"already</w>": 110}, {"weeks</w>": 110}, {"why</w>": 110}, {"several</w>": 110}, {"yes</w>": 110}, {"month</w>": 109}, {"pressure</w>": 109}, {"change</w>": 109}, {"always</w>": 108}, {"doing</w>": 108}, {"engineering</w>": 108}, {"per</w>": 108}, {"later</w>": 108}, {"safety</w>": 108}, {"early</w>": 107}, {"did</w>": 107}, {"level</w>": 107}, {"fun</w>": 107}, {"support</w>": 106}, {"fast</w>": 106}, {"Starlink</w>": 105}, {"build</w>": 105}, {"cool</w>": 105}, {"range</w>": 104}, {"thats</w>": 104}, {"said</w>": 104}, {"say</w>": 103}, {"two</w>": 103}, {"maybe</w>": 101}, {"does</w>": 101}, {"possible</w>": 101}, {"makes</w>": 101}, {"air</w>": 101}, {"due</w>": 100}, {"version</w>": 99}, {"thing</w>": 99}, {"But</w>": 98}, {"My</w>": 97}, {"vs</w>": 97}, {"both</w>": 97}, {"control</w>": 97}, {"To</w>": 96}, {"battery</w>": 96}, {"self</w>": 96}, {"doesnt</w>": 96}, {"New</w>": 96}, {"service</w>": 95}, {"factory</w>": 95}, {"lower</w>": 95}, {"booster</w>": 95}, {"able</w>": 94}, {"public</w>": 94}, {"never</w>": 94}, {"where</w>": 94}, {"w</w>": 94}, {"higher</w>": 94}, {"company</w>": 93}, {"awesome</w>": 93}, {"part</w>": 93}, {"needs</w>": 92}, {"China</w>": 92}, {"pretty</w>": 92}, {"ago</w>": 92}, {"Should</w>": 92}, {"am</w>": 91}, {"rate</w>": 91}, {"Sorry</w>": 91}, {"may</w>": 90}, {"amazing</w>": 90}, {"something</w>": 90}, {"orbital</w>": 89}, {"likely</w>": 89}, {"goes</w>": 89}, {"Very</w>": 88}, {"side</w>": 88}, {"used</w>": 87}, {"least</w>": 87}, {"gas</w>": 87}, {"might</w>": 86}, {"sense</w>": 86}, {"term</w>": 86}, {"max</w>": 85}, {"help</w>": 85}, {"fire</w>": 85}, {"vehicle</w>": 85}, {"tons</w>": 85}, {"without</w>": 85}, {"while</w>": 84}, {"Wow</w>": 84}, {"using</w>": 84}, {"look</w>": 84}, {"anything</w>": 83}, {"re": 83}, {"update</w>": 83}, {"Yup</w>": 83}, {"Hopefully</w>": 83}, {"these</w>": 83}, {"fully</w>": 83}, {"moon</w>": 83}, {"companies</w>": 83}, {"free</w>": 83}, {"tomorrow</w>": 82}, {"making</w>": 82}, {"product</w>": 82}, {"Texas</w>": 82}, {"start</w>": 81}, {"idea</w>": 81}, {"hardware</w>": 81}, {"called</w>": 81}, {"yet</w>": 81}, {"close</w>": 81}, {"half</w>": 81}, {"Some</w>": 80}, {"his</w>": 80}, {"until</w>": 80}, {"k</w>": 80}, {"under</w>": 80}, {"Super</w>": 80}, {"owners</w>": 79}, {"Cybertruck</w>": 79}, {"tunnel</w>": 79}, {"because</w>": 79}, {"article</w>": 79}, {"though</w>": 78}, {"away</w>": 78}, {"1</w>": 78}, {"improve</w>": 78}, {"imo</w>": 77}, {"youre</w>": 77}, {"gt</w>": 77}, {"hopefully</w>": 77}, {"order</w>": 77}, {"He</w>": 76}, {"One</w>": 76}, {"especially</w>": 76}, {"bad</w>": 76}, {"Boring</w>": 76}, {"clear</w>": 76}, {"th</w>": 76}, {"case</w>": 76}, {"volume</w>": 76}, {"S": 75}, {"California</w>": 75}, {"First</w>": 75}, {"Only</w>": 75}, {"beta</w>": 74}, {"stage</w>": 74}, {"Giga</w>": 74}, {"cant</w>": 74}, {"Would</w>": 74}, {"miles</w>": 74}, {"Pretty</w>": 73}, {"Space</w>": 73}, {"center</w>": 73}, {"extremely</w>": 73}, {"mins</w>": 73}, {"major</w>": 73}, {"LA</w>": 73}, {"parts</w>": 72}, {"rear</w>": 72}, {"propellant</w>": 72}, {"via</w>": 72}, {"Coming</w>": 71}, {"own</w>": 71}, {"come</w>": 71}, {"body</w>": 71}, {"water</w>": 71}, {"hours</w>": 71}, {"un": 71}, {"zero</w>": 70}, {"km</w>": 70}, {"Please</w>": 70}, {"try</w>": 70}, {"0</w>": 70}, {"course</w>": 70}, {"home</w>": 70}, {"wrong</w>": 69}, {"technology</w>": 69}, {"human</w>": 69}, {"road</w>": 69}, {"Most</w>": 69}, {"Absolutely</w>": 68}, {"value</w>": 68}, {"Our</w>": 68}, {"land</w>": 68}, {"wont</w>": 68}, {"against</w>": 68}, {"between</w>": 67}, {"Definitely</w>": 67}, {"data</w>": 67}, {"move</w>": 67}, {"building</w>": 67}, {"Now</w>": 66}, {"mission</w>": 66}, {"progress</w>": 66}, {"means</w>": 66}, {"steel</w>": 66}, {"easy</w>": 66}, {"Am</w>": 66}, {"price</w>": 66}, {"T</w>": 66}, {"payload</w>": 65}, {"Nice</w>": 65}, {"looks</w>": 65}, {"night</w>": 65}, {"improvements</w>": 65}, {"Well</w>": 65}, {"More</w>": 65}, {"question</w>": 65}, {"forward</w>": 65}, {"must</w>": 65}, {"Cape</w>": 65}, {"media</w>": 65}, {"tax</w>": 65}, {"appreciated</w>": 64}, {"heat</w>": 64}, {"getting</w>": 64}, {"risk</w>": 64}, {"rockets</w>": 64}, {"st</w>": 64}, {"place</w>": 64}, {"reusable</w>": 64}, {"short</w>": 63}, {"option</w>": 63}, {"single</w>": 62}, {"As</w>": 62}, {"got</w>": 62}, {"add</w>": 62}, {"matter</w>": 62}, {"false</w>": 62}, {"open</w>": 62}, {"Youre</w>": 62}, {"increase</w>": 62}, {"quite</w>": 61}, {"seem</w>": 61}, {"computer</w>": 61}, {"didnt</w>": 61}, {"above</w>": 61}, {"difficult</w>": 61}, {"name</w>": 61}, {"size</w>": 61}, {"old</w>": 60}, {"feel</w>": 60}, {"welcome</w>": 60}, {"live</w>": 60}, {"mph</w>": 60}, {"Supercharger</w>": 60}, {"slightly</w>": 59}, {"Even</w>": 59}, {"Cool</w>": 59}, {"worth</w>": 59}, {"light</w>": 59}, {"advanced</w>": 58}, {"person</w>": 58}, {"designed</w>": 58}, {"changes</w>": 58}, {"number</w>": 58}, {"show</w>": 58}, {"built</w>": 58}, {"auto</w>": 58}, {"roof</w>": 58}, {"traffic</w>": 57}, {"general</w>": 57}, {"although</w>": 57}, {"hope</w>": 57}, {"Still</w>": 57}, {"mostly</w>": 57}, {"stop</w>": 57}, {"believe</w>": 57}, {"set</w>": 57}, {"limited</w>": 57}, {"bar</w>": 57}, {"anyone</w>": 57}, {"Twitter</w>": 57}, {"trying</w>": 57}, {"def</w>": 57}, {"flights</w>": 56}, {"works</w>": 56}, {"Love</w>": 56}, {"fuel</w>": 56}, {"game</w>": 55}, {"definitely</w>": 55}, {"oxygen</w>": 55}, {"here</w>": 55}, {"bit</w>": 55}, {"fine</w>": 55}, {"At</w>": 55}, {"deep</w>": 55}, {"Ive</w>": 55}, {"High</w>": 55}, {"When</w>": 55}, {"each</w>": 55}, {"satellites</w>": 55}, {"literally</w>": 55}, {"fairing</w>": 55}, {"sustainable</w>": 55}, {"Solar</w>": 55}, {"u</w>": 54}, {"Sounds</w>": 54}, {"Agreed</w>": 54}, {"faster</w>": 54}, {"Congratulations</w>": 54}, {"difference</w>": 54}, {"Aiming</w>": 54}, {"testing</w>": 54}, {"Dont</w>": 54}, {"exactly</w>": 54}, {"How</w>": 54}, {"review</w>": 54}, {"vehicles</w>": 54}, {"critical</w>": 53}, {"ok</w>": 53}, {"Doge</w>": 53}, {"put</w>": 53}, {"city</w>": 53}, {"ton</w>": 53}, {"H": 53}, {"C": 53}, {"wide</w>": 53}, {"top</w>": 53}, {"longer</w>": 53}, {"Roadster</w>": 52}, {"goal</w>": 52}, {"sound</w>": 52}, {"crazy</w>": 52}, {"fly</w>": 52}, {"Next</w>": 52}, {"another</w>": 52}, {"About</w>": 52}, {"regulatory</w>": 52}, {"issues</w>": 52}, {"Looks</w>": 52}, {"area</w>": 52}, {"sounds</w>": 51}, {"main</w>": 51}, {"thanks</w>": 51}, {"3</w>": 51}, {"whole</w>": 51}, {"others</w>": 51}, {"R": 51}, {"ground</w>": 51}, {"isnt</w>": 51}, {"M</w>": 51}, {"find</w>": 51}, {"such</w>": 50}, {"B": 50}, {"thought</w>": 50}, {"nothing</w>": 50}, {"es</w>": 50}, {"give</w>": 50}, {"P": 50}, {"buy</w>": 50}, {"C</w>": 50}, {"agree</w>": 50}, {"Y</w>": 50}, {"access</w>": 50}, {"2</w>": 49}, {"actual</w>": 49}, {"mind</w>": 49}, {"based</w>": 49}, {"legs</w>": 49}, {"Almost</w>": 49}, {"non</w>": 49}, {"matters</w>": 49}, {"kids</w>": 49}, {"required</w>": 49}, {"care</w>": 49}, {"er</w>": 49}, {"left</w>": 49}, {"performance</w>": 49}, {"near</w>": 49}, {"1000</w>": 49}, {"plus</w>": 49}, {"ing</w>": 48}, {"three</w>": 48}, {"front</w>": 48}, {"run</w>": 48}, {"stock</w>": 48}, {"someone</w>": 48}, {"fleet</w>": 48}, {"positive</w>": 48}, {"reach</w>": 48}, {"With</w>": 48}, {"Powerwall</w>": 48}, {"everyone</w>": 47}, {"safe</w>": 47}, {"second</w>": 47}, {"million</w>": 47}, {"fixed</w>": 47}, {"different</w>": 47}, {"again</w>": 47}, {"Was</w>": 47}, {"hot</w>": 47}, {"wheel</w>": 47}, {"humanity</w>": 47}, {"Boca</w>": 47}, {"improvement</w>": 47}, {"tunnels</w>": 47}, {"giant</w>": 47}, {"seems</w>": 46}, {"Interesting</w>": 46}, {"news</w>": 46}, {"multiplanetary</w>": 46}, {"Of</w>": 46}, {"costs</w>": 46}, {"CH4</w>": 46}, {"read</w>": 46}, {"itself</w>": 46}, {"upgrade</w>": 46}, {"sec</w>": 46}, {"happen</w>": 46}, {"don</w>": 46}, {"since</w>": 45}, {"large</w>": 45}, {"issue</w>": 45}, {"moving</w>": 45}, {"p": 45}, {"5</w>": 45}, {"ed</w>": 45}, {"looking</w>": 45}, {"either</w>": 45}, {"motor</w>": 45}, {"reason</w>": 45}, {"ready</w>": 45}, {"rapidly</w>": 45}, {"flow</w>": 45}, {"truck</w>": 45}, {"post</w>": 45}, {"Looking</w>": 45}, {"pack</w>": 44}, {"tank</w>": 44}, {"in": 44}, {"chance</w>": 44}, {"automatically</w>": 44}, {"d</w>": 44}, {"s": 44}, {"M": 44}, {"correct</w>": 44}, {"house</w>": 44}, {"vacuum</w>": 44}, {"Company</w>": 44}, {"saying</w>": 44}, {"red</w>": 44}, {"batteries</w>": 44}, {"online</w>": 43}, {"mean</w>": 43}, {"current</w>": 43}, {"reality</w>": 43}, {"weekend</w>": 43}, {"during</w>": 43}, {"vision</w>": 43}, {"machine</w>": 43}, {"standard</w>": 43}, {"please</w>": 43}, {"approval</w>": 43}, {"Europe</w>": 43}, {"probability</w>": 43}, {"Why</w>": 43}, {"d": 43}, {"history</w>": 43}, {"room</w>": 43}, {"v</w>": 43}, {"Beta</w>": 42}, {"Congrats</w>": 42}, {"Station</w>": 42}, {"D": 42}, {"A": 42}, {"cold</w>": 42}, {"complete</w>": 42}, {"Actually</w>": 42}, {"call</w>": 42}, {"b": 42}, {"combustion</w>": 42}, {"amount</w>": 42}, {"past</w>": 42}, {"e": 42}, {"temp</w>": 42}, {"Those</w>": 42}, {"D</w>": 42}, {"o</w>": 42}, {"piece</w>": 42}, {"countries</w>": 42}, {"let</w>": 42}, {"allow</w>": 42}, {"net</w>": 42}, {"E": 42}, {"Full</w>": 42}, {"govt</w>": 42}, {"Btw</w>": 42}, {"return</w>": 42}, {"bigger</w>": 41}, {"view</w>": 41}, {"Thank</w>": 41}, {"significant</w>": 41}, {"h": 41}, {"talk</w>": 41}, {"late</w>": 41}, {"pay</w>": 41}, {"pm</w>": 41}, {"games</w>": 41}, {"beyond</w>": 41}, {"play</w>": 41}, {"app</w>": 41}, {"phone</w>": 41}, {"Rocket</w>": 41}, {"worked</w>": 40}, {"burn</w>": 40}, {"Happy</w>": 40}, {"useful</w>": 40}, {"create</w>": 40}, {"theyre</w>": 40}, {"chamber</w>": 40}, {"tests</w>": 40}, {"takes</w>": 40}, {"re</w>": 40}, {"ve</w>": 40}, {"given</w>": 40}, {"tiny</w>": 40}, {"analysis</w>": 40}, {"action</w>": 40}, {"America</w>": 40}, {"date</w>": 40}, {"sigh</w>": 39}, {"slow</w>": 39}, {"Berlin</w>": 39}, {"travel</w>": 39}, {"accurate</w>": 39}, {"gets</w>": 39}, {"scale</w>": 39}, {"him</w>": 39}, {"complex</w>": 39}, {"solution</w>": 39}, {"within</w>": 39}, {"unless</w>": 39}, {"Can</w>": 39}, {"line</w>": 39}, {"density</w>": 39}, {"party</w>": 39}, {"fins</w>": 39}, {"launches</w>": 38}, {"once</w>": 38}, {"fair</w>": 38}, {"having</w>": 38}, {"word</w>": 38}, {"liquid</w>": 38}, {"below</w>": 38}, {"seen</w>": 38}, {"Much</w>": 38}, {"roughly</w>": 38}, {"However</w>": 38}, {"Same</w>": 38}, {"obvious</w>": 38}, {"took</w>": 38}, {"rock</w>": 38}, {"Launch</w>": 38}, {"T": 38}, {"happened</w>": 38}, {"feature</w>": 38}, {"sales</w>": 38}, {"mile</w>": 38}, {"Plaid</w>": 38}, {"Summon</w>": 38}, {"load</w>": 37}, {"delivery</w>": 37}, {"10</w>": 37}, {"upper</w>": 37}, {"harder</w>": 37}, {"pad</w>": 37}, {"cell</w>": 37}, {"currently</w>": 37}, {"civilization</w>": 37}, {"m": 37}, {"local</w>": 37}, {"Worth</w>": 37}, {"enable</w>": 37}, {"basically</w>": 37}, {"theres</w>": 37}, {"double</w>": 37}, {"efficiency</w>": 37}, {"Working</w>": 37}, {"available</w>": 37}, {"K": 37}, {"tough</w>": 37}, {"Internet</w>": 37}, {"carbon</w>": 37}, {"n": 37}, {"V</w>": 37}, {"cause</w>": 37}, {"core</w>": 37}, {"everything</w>": 36}, {"story</w>": 36}, {"meant</w>": 36}, {"Oh</w>": 36}, {"Raptors</w>": 36}, {"f": 36}, {"require</w>": 36}, {"heavy</w>": 36}, {"W": 36}, {"flaps</w>": 36}, {"Might</w>": 36}, {"radar</w>": 36}, {"comes</w>": 36}, {"hold</w>": 36}, {"Merlin</w>": 36}, {"consider</w>": 36}, {"May</w>": 36}, {"sun</w>": 36}, {"tonight</w>": 36}, {"favorite</w>": 36}, {"en": 36}, {"record</w>": 36}, {"a": 36}, {"On</w>": 36}, {"paid</w>": 36}, {"Best</w>": 36}, {"bought</w>": 36}, {"mode</w>": 36}, {"rolling</w>": 36}, {"UAW</w>": 36}, {"simply</w>": 35}, {"taking</w>": 35}, {"entire</w>": 35}, {"base</w>": 35}, {"sell</w>": 35}, {"ts</w>": 35}, {"become</w>": 35}, {"These</w>": 35}, {"fix</w>": 35}, {"art</w>": 35}, {"note</w>": 35}, {"weather</w>": 35}, {"priority</w>": 35}, {"v": 35}, {"pure</w>": 35}, {"recommend</w>": 35}, {"products</w>": 34}, {"total</w>": 34}, {"negative</w>": 34}, {"Canada</w>": 34}, {"fundamental</w>": 34}, {"factor</w>": 34}, {"site</w>": 34}, {"tanks</w>": 34}, {"engineers</w>": 34}, {"active</w>": 34}, {"internal</w>": 34}, {"c": 34}, {"obv</w>": 34}, {"orders</w>": 34}, {"went</w>": 34}, {"achieve</w>": 34}, {"Glad</w>": 34}, {"proud</w>": 34}, {"L": 34}, {"market</w>": 34}, {"Cant</w>": 34}, {"Isp</w>": 34}, {"force</w>": 34}, {"government</w>": 34}, {"thrusters</w>": 34}, {"Long</w>": 34}, {"rules</w>": 33}, {"otherwise</w>": 33}, {"velocity</w>": 33}, {"Many</w>": 33}, {"Lot</w>": 33}, {"credit</w>": 33}, {"primary</w>": 33}, {"F</w>": 33}, {"ur</w>": 33}, {"results</w>": 33}, {"heard</w>": 33}, {"Norway</w>": 33}, {"neural</w>": 33}, {"B</w>": 33}, {"y": 33}, {"4</w>": 33}, {"t": 33}, {"diameter</w>": 33}, {"deal</w>": 33}, {"Gigafactory</w>": 33}, {"improved</w>": 33}, {"tech</w>": 33}, {"Have</w>": 33}, {"press</w>": 33}, {"arent</w>": 33}, {"insane</w>": 33}, {"closer</w>": 33}, {"else</w>": 33}, {"boring</w>": 33}, {"cover</w>": 33}, {"simple</w>": 33}, {"Fair</w>": 33}, {"keep</w>": 33}, {"often</w>": 33}, {"satellite</w>": 33}, {"job</w>": 33}, {"Id</w>": 33}, {"Hoping</w>": 33}, {"prob</w>": 33}, {"prices</w>": 33}, {"V": 32}, {"bs</w>": 32}, {"wish</w>": 32}, {"manufacturing</w>": 32}, {"tiles</w>": 32}, {"static</w>": 32}, {"y</w>": 32}, {"ft</w>": 32}, {"irony</w>": 32}, {"ask</w>": 32}, {"certainly</w>": 32}, {"Nothing</w>": 32}, {"Both</w>": 32}, {"form</w>": 32}, {"industry</w>": 32}, {"Something</w>": 32}, {"sky</w>": 32}, {"state</w>": 32}, {"movie</w>": 32}, {"operating</w>": 32}, {"dual</w>": 32}, {"July</w>": 32}, {"unveil</w>": 32}, {"l": 32}, {"white</w>": 32}, {"check</w>": 31}, {"final</w>": 31}, {"kind</w>": 31}, {"age</w>": 31}, {"Bitcoin</w>": 31}, {"surface</w>": 31}, {"Seems</w>": 31}, {"ice</w>": 31}, {"Neuralink</w>": 31}, {"pic</w>": 31}, {"biggest</w>": 31}, {"details</w>": 31}, {"wait</w>": 31}, {"realize</w>": 31}, {"country</w>": 31}, {"gravity</w>": 31}, {"excellent</w>": 31}, {"R</w>": 31}, {"nozzle</w>": 31}, {"cameras</w>": 31}, {"ating</w>": 31}, {"global</w>": 31}, {"missions</w>": 31}, {"Over</w>": 31}, {"across</w>": 31}, {"usually</w>": 31}, {"k": 31}, {"attempt</w>": 31}, {"plan</w>": 31}, {"transport</w>": 31}, {"clean</w>": 31}, {"climate</w>": 31}, {"Really</w>": 31}, {"seats</w>": 31}, {"Hyperloop</w>": 31}, {"happy</w>": 30}, {"i</w>": 30}, {"incredible</w>": 30}, {"metal</w>": 30}, {"science</w>": 30}, {"upgrades</w>": 30}, {"droneship</w>": 30}, {"code</w>": 30}, {"lt</w>": 30}, {"cases</w>": 30}, {"count</w>": 30}, {"potential</w>": 30}, {"respect</w>": 30}, {"requires</w>": 30}, {"experience</w>": 30}, {"rest</w>": 30}, {"e</w>": 30}, {"crash</w>": 30}, {"demand</w>": 30}, {"serve</w>": 30}, {"book</w>": 30}, {"p</w>": 30}, {"peak</w>": 30}, {"Your</w>": 30}, {"ability</w>": 30}, {"direct</w>": 30}, {"heating</w>": 30}, {"massive</w>": 30}, {"screen</w>": 30}, {"systems</w>": 30}, {"Canaveral</w>": 30}, {"simulation</w>": 29}, {"Indeed</w>": 29}, {"key</w>": 29}, {"Superchargers</w>": 29}, {"g": 29}, {"ate</w>": 29}, {"training</w>": 29}, {"original</w>": 29}, {"normal</w>": 29}, {"ated</w>": 29}, {"glass</w>": 29}, {"extreme</w>": 29}, {"Important</w>": 29}, {"Production</w>": 29}, {"an": 29}, {"feedback</w>": 29}, {"entry</w>": 29}, {"Teslas</w>": 29}, {"appreciate</w>": 29}, {"mid</w>": 29}, {"h</w>": 29}, {"solve</w>": 29}, {"Booster</w>": 29}, {"panels</w>": 29}, {"charge</w>": 29}, {"greater</w>": 29}, {"ways</w>": 29}, {"exciting</w>": 29}, {"physics</w>": 29}, {"versions</w>": 29}, {"source</w>": 29}, {"list</w>": 29}, {"aircraft</w>": 29}, {"won</w>": 29}, {"impossible</w>": 28}, {"program</w>": 28}, {"i": 28}, {"problems</w>": 28}, {"height</w>": 28}, {"special</w>": 28}, {"bay</w>": 28}, {"sp": 28}, {"shot</w>": 28}, {"brain</w>": 28}, {"O2</w>": 28}, {"ratio</w>": 28}, {"adding</w>": 28}, {"Big</w>": 28}, {"directly</w>": 28}, {"Hard</w>": 28}, {"answer</w>": 28}, {"over": 28}, {"Is</w>": 28}, {"inside</w>": 28}, {"expected</w>": 28}, {"larger</w>": 28}, {"track</w>": 28}, {"points</w>": 28}, {"button</w>": 28}, {"effect</w>": 28}, {"r": 28}, {"sent</w>": 28}, {"ti": 28}, {"vertical</w>": 28}, {"supply</w>": 28}, {"Going</w>": 28}, {"Mode</w>": 28}, {"April</w>": 28}, {"NY</w>": 28}, {"steering</w>": 28}, {"beautiful</w>": 28}, {"successful</w>": 27}, {"direction</w>": 27}, {"hell</w>": 27}, {"en</w>": 27}, {"similar</w>": 27}, {"named</w>": 27}, {"American</w>": 27}, {"thread</w>": 27}, {"spacecraft</w>": 27}, {"head</w>": 27}, {"win</w>": 27}, {"F": 27}, {"hear</w>": 27}, {"numbers</w>": 27}, {"lost</w>": 27}, {"development</w>": 27}, {"magnitude</w>": 27}, {"latter</w>": 27}, {"In": 27}, {"st": 27}, {"cash</w>": 27}, {"towards</w>": 27}, {"de</w>": 27}, {"impact</w>": 27}, {"interesting</w>": 27}, {"utility</w>": 27}, {"include</w>": 27}, {"features</w>": 27}, {"grid</w>": 27}, {"reentry</w>": 27}, {"kinda</w>": 26}, {"except</w>": 26}, {"latest</w>": 26}, {"possibly</w>": 26}, {"anyway</w>": 26}, {"yeah</w>": 26}, {"flying</w>": 26}, {"20</w>": 26}, {"humans</w>": 26}, {"Major</w>": 26}, {"etc</w>": 26}, {"including</w>": 26}, {"N": 26}, {"Note</w>": 26}, {"happening</w>": 26}, {"wrote</w>": 26}, {"tracking</w>": 26}, {"reusability</w>": 26}, {"raise</w>": 26}, {"provide</w>": 26}, {"roll</w>": 26}, {"ships</w>": 26}, {"avoid</w>": 26}, {"ent</w>": 26}, {"lithium</w>": 26}, {"nd</w>": 26}, {"function</w>": 26}, {"outside</w>": 26}, {"die</w>": 26}, {"optimized</w>": 26}, {"lights</w>": 26}, {"An</w>": 26}, {"smaller</w>": 26}, {"Mach</w>": 26}, {"reduce</w>": 26}, {"Could</w>": 26}, {"asked</w>": 26}, {"Then</w>": 26}, {"articles</w>": 26}, {"al</w>": 26}, {"7</w>": 26}, {"color</w>": 26}, {"send</w>": 26}, {"customers</w>": 26}, {"w": 26}, {"tweet</w>": 26}, {"electricity</w>": 26}, {"capacity</w>": 26}, {"tower</w>": 26}, {"owner</w>": 26}, {"Shanghai</w>": 25}, {"cells</w>": 25}, {"altitude</w>": 25}, {"shield</w>": 25}, {"th": 25}, {"ers</w>": 25}, {"suspension</w>": 25}, {"worldwide</w>": 25}, {"billion</w>": 25}, {"hover</w>": 25}, {"minor</w>": 25}, {"reading</w>": 25}, {"operational</w>": 25}, {"ensure</w>": 25}, {"expect</w>": 25}, {"tried</w>": 25}, {"hour</w>": 25}, {"told</w>": 25}, {"camera</w>": 25}, {"morning</w>": 25}, {"Vegas</w>": 25}, {"Or</w>": 25}, {"turn</w>": 25}, {"understand</w>": 25}, {"storage</w>": 25}, {"target</w>": 25}, {"V1</w>": 25}, {"obviously</w>": 25}, {"guess</w>": 25}, {"W</w>": 25}, {"weight</w>": 25}, {"People</w>": 25}, {"btw</w>": 25}, {"atmosphere</w>": 25}, {"F9</w>": 25}, {"Need</w>": 25}, {"oil</w>": 25}, {"quality</w>": 25}, {"bring</w>": 25}, {"anywhere</w>": 25}, {"North</w>": 25}, {"competition</w>": 25}, {"ventilators</w>": 25}, {"perfect</w>": 25}, {"Area</w>": 25}, {"shows</w>": 25}, {"V10</w>": 25}, {"quarter</w>": 24}, {"seeing</w>": 24}, {"Are</w>": 24}, {"gone</w>": 24}, {"output</w>": 24}, {"pre": 24}, {"ted</w>": 24}, {"Better</w>": 24}, {"Because</w>": 24}, {"de": 24}, {"sometimes</w>": 24}, {"tbh</w>": 24}, {"received</w>": 24}, {"rocks</w>": 24}, {"rapid</w>": 24}, {"expendable</w>": 24}, {"latency</w>": 24}, {"Stop</w>": 24}, {"death</w>": 24}, {"ation</w>": 24}, {"wind</w>": 24}, {"aero</w>": 24}, {"repair</w>": 24}, {"Like</w>": 24}, {"pump</w>": 24}, {"helpful</w>": 24}, {"Team</w>": 24}, {"improves</w>": 24}, {"trip</w>": 24}, {"focus</w>": 24}, {"worse</w>": 24}, {"strength</w>": 24}, {"highly</w>": 24}, {"visit</w>": 24}, {"structure</w>": 24}, {"100</w>": 24}, {"sooner</w>": 24}, {"lots</w>": 24}, {"starts</w>": 24}, {"el": 24}, {"By</w>": 24}, {"Physics</w>": 24}, {"law</w>": 24}, {"powered</w>": 24}, {"despite</w>": 24}, {"leg</w>": 24}, {"commercial</w>": 24}, {"Hope</w>": 24}, {"Who</w>": 24}, {"stack</w>": 24}, {"meme</w>": 24}, {"event</w>": 24}, {"request</w>": 24}, {"am": 24}, {"summer</w>": 24}, {"parking</w>": 24}, {"Performance</w>": 24}, {"HW2</w>": 24}, {"network</w>": 24}, {"playing</w>": 23}, {"truly</w>": 23}, {"earlier</w>": 23}, {"step</w>": 23}, {"music</w>": 23}, {"uses</w>": 23}, {"limit</w>": 23}, {"throttle</w>": 23}, {"serious</w>": 23}, {"cooling</w>": 23}, {"South</w>": 23}, {"ch": 23}, {"creating</w>": 23}, {"destination</w>": 23}, {"four</w>": 23}, {"tell</w>": 23}, {"braking</w>": 23}, {"angle</w>": 23}, {"ocean</w>": 23}, {"ramp</w>": 23}, {"logistics</w>": 23}, {"investors</w>": 23}, {"rather</w>": 23}, {"J": 23}, {"on": 23}, {"deaths</w>": 23}, {"Sunday</w>": 23}, {"regulators</w>": 23}, {"catch</w>": 23}, {"initial</w>": 23}, {"fit</w>": 23}, {"whats</w>": 23}, {"or": 23}, {"o": 23}, {"friend</w>": 23}, {"ideas</w>": 23}, {"Friday</w>": 23}, {"CO2</w>": 23}, {"immediately</w>": 23}, {"happens</w>": 23}, {"helping</w>": 23}, {"C19</w>": 23}, {"Order</w>": 23}, {"Top</w>": 23}, {"delivered</w>": 23}, {"Air</w>": 23}, {"Do</w>": 23}, {"links</w>": 23}, {"address</w>": 23}, {"Car</w>": 23}, {"hat</w>": 23}, {"themselves</w>": 22}, {"started</w>": 22}, {"Turns</w>": 22}, {"shorts</w>": 22}, {"underway</w>": 22}, {"pass</w>": 22}, {"header</w>": 22}, {"distance</w>": 22}, {"feels</w>": 22}, {"it": 22}, {"ahead</w>": 22}, {"strange</w>": 22}, {"known</w>": 22}, {"g</w>": 22}, {"words</w>": 22}, {"strong</w>": 22}, {"choice</w>": 22}, {"starting</w>": 22}, {"capability</w>": 22}, {"covid</w>": 22}, {"prototype</w>": 22}, {"Sigh</w>": 22}, {"After</w>": 22}, {"changing</w>": 22}, {"running</w>": 22}, {"security</w>": 22}, {"resources</w>": 22}, {"along</w>": 22}, {"Chica</w>": 22}, {"ter</w>": 22}, {"door</w>": 22}, {"Starships</w>": 22}, {"extra</w>": 22}, {"Semi</w>": 22}, {"planet</w>": 22}, {"gimbal</w>": 22}, {"smart</w>": 22}, {"Needs</w>": 22}, {"write</w>": 22}, {"ride</w>": 22}, {"taken</w>": 22}, {"song</w>": 22}, {"completely</w>": 22}, {"created</w>": 22}, {"di": 22}, {"Self</w>": 22}, {"cat</w>": 22}, {"laser</w>": 22}, {"opening</w>": 22}, {"tight</w>": 22}, {"ro": 22}, {"dead</w>": 22}, {"NASA</w>": 22}, {"rain</w>": 22}, {"tho</w>": 22}, {"outcome</w>": 22}, {"Smart</w>": 22}, {"FAA</w>": 22}, {"spaceship</w>": 22}, {"autonomous</w>": 21}, {"ting</w>": 21}, {"options</w>": 21}, {"turns</w>": 21}, {"together</w>": 21}, {"Theres</w>": 21}, {"hit</w>": 21}, {"improving</w>": 21}, {"precise</w>": 21}, {"mobile</w>": 21}, {"hardest</w>": 21}, {"round</w>": 21}, {"Depends</w>": 21}, {"Where</w>": 21}, {"youd</w>": 21}, {"Theyre</w>": 21}, {"precision</w>": 21}, {"G": 21}, {"con": 21}, {"population</w>": 21}, {"Must</w>": 21}, {"gen</w>": 21}, {"c</w>": 21}, {"guy</w>": 21}, {"users</w>": 21}, {"loop</w>": 21}, {"talking</w>": 21}, {"f</w>": 21}, {"Max</w>": 21}, {"er": 21}, {"sold</w>": 21}, {"mention</w>": 21}, {"found</w>": 21}, {"sea</w>": 21}, {"stations</w>": 21}, {"b</w>": 21}, {"rare</w>": 21}, {"ding</w>": 21}, {"user</w>": 21}, {"cryo</w>": 21}, {"provided</w>": 21}, {"im": 21}, {"died</w>": 21}, {"Fremont</w>": 21}, {"al": 21}, {"huge</w>": 21}, {"fan</w>": 21}, {"Mostly</w>": 21}, {"nice</w>": 21}, {"existing</w>": 21}, {"automotive</w>": 21}, {"upgraded</w>": 21}, {"behind</w>": 21}, {"metric</w>": 21}, {"figure</w>": 21}, {"I": 21}, {"u": 21}, {"alone</w>": 21}, {"continue</w>": 21}, {"chain</w>": 21}, {"August</w>": 21}, {"aliens</w>": 21}, {"personally</w>": 21}, {"teams</w>": 21}, {"lift</w>": 21}, {"taxes</w>": 21}, {"hundreds</w>": 21}, {"messed</w>": 21}, {"reasons</w>": 21}, {"Driving</w>": 21}, {"ms</w>": 21}, {"customer</w>": 21}, {"turned</w>": 21}, {"tube</w>": 21}, {"filter</w>": 21}, {"highest</w>": 21}, {"actions</w>": 21}, {"gasoline</w>": 21}, {"layer</w>": 21}, {"didn</w>": 21}, {"SolarCity</w>": 21}, {"Starbase</w>": 21}, {"instead</w>": 20}, {"Unfortunately</w>": 20}, {"hate</w>": 20}, {"heart</w>": 20}, {"comments</w>": 20}, {"increasing</w>": 20}, {"paint</w>": 20}, {"Other</w>": 20}, {"Too</w>": 20}, {"tion</w>": 20}, {"areas</w>": 20}, {"whether</w>": 20}, {"G</w>": 20}, {"integrated</w>": 20}, {"prior</w>": 20}, {"considered</w>": 20}, {"swap</w>": 20}, {"EU</w>": 20}, {"nets</w>": 20}, {"levels</w>": 20}, {"Given</w>": 20}, {"updates</w>": 20}, {"Current</w>": 20}, {"schedule</w>": 20}, {"exact</w>": 20}, {"ked</w>": 20}, {"weird</w>": 20}, {"advantage</w>": 20}, {"rd</w>": 20}, {"regions</w>": 20}, {"weve</w>": 20}, {"Day</w>": 20}, {"tip</w>": 20}, {"her</w>": 20}, {"Re": 20}, {"series</w>": 20}, {"em": 20}, {"Austin</w>": 20}, {"easily</w>": 20}, {"60</w>": 20}, {"2": 20}, {"path</w>": 20}, {"finish</w>": 20}, {"baby</w>": 20}, {"sign</w>": 20}, {"EVs</w>": 20}, {"changed</w>": 20}, {"allowed</w>": 20}, {"30</w>": 20}, {"section</w>": 20}, {"dying</w>": 20}, {"dark</w>": 20}, {"Makes</w>": 20}, {"page</w>": 20}, {"crypto</w>": 20}, {"delay</w>": 20}, {"Me</w>": 20}, {"announcement</w>": 20}, {"fires</w>": 20}, {"config</w>": 20}, {"highway</w>": 20}, {"India</w>": 20}, {"vote</w>": 20}, {"union</w>": 20}, {"doesn</w>": 20}, {"meeting</w>": 19}, {"Try</w>": 19}, {"vast</w>": 19}, {"min</w>": 19}, {"essential</w>": 19}, {"at": 19}, {"compared</w>": 19}, {"eg</w>": 19}, {"Dojo</w>": 19}, {"came</w>": 19}, {"NN</w>": 19}, {"units</w>": 19}, {"L</w>": 19}, {"allows</w>": 19}, {"O": 19}, {"expansion</w>": 19}, {"tested</w>": 19}, {"Two</w>": 19}, {"appears</w>": 19}, {"attack</w>": 19}, {"shortly</w>": 19}, {"rise</w>": 19}, {"certain</w>": 19}, {"GM</w>": 19}, {"challenge</w>": 19}, {"significantly</w>": 19}, {"ly</w>": 19}, {"son</w>": 19}, {"winds</w>": 19}, {"no": 19}, {"written</w>": 19}, {"tires</w>": 19}, {"ex": 19}, {"Baby</w>": 19}, {"carry</w>": 19}, {"role</w>": 19}, {"says</w>": 19}, {"sing</w>": 19}, {"Once</w>": 19}, {"lo": 19}, {"motors</w>": 19}, {"extend</w>": 19}, {"ie</w>": 19}, {"class</w>": 19}, {"common</w>": 19}, {"example</w>": 19}, {"Con": 19}, {"E</w>": 19}, {"intense</w>": 19}, {"wheels</w>": 19}, {"corner</w>": 19}, {"buying</w>": 19}, {"firing</w>": 19}, {"favor</w>": 19}, {"questions</w>": 19}, {"fake</w>": 19}, {"increases</w>": 19}, {"sub": 19}, {"Time</w>": 19}, {"knows</w>": 19}, {"Hawthorne</w>": 19}, {"cannot</w>": 19}, {"star</w>": 19}, {"Dogecoin</w>": 19}, {"interior</w>": 19}, {"window</w>": 19}, {"acceleration</w>": 19}, {"Hopper</w>": 19}, {"driver</w>": 19}, {"supporting</w>": 19}, {"ones</w>": 19}, {"spend</w>": 19}, {"QA</w>": 19}, {"thinking</w>": 19}, {"isn</w>": 19}, {"dumb</w>": 18}, {"capable</w>": 18}, {"offer</w>": 18}, {"j": 18}, {"ac": 18}, {"iron</w>": 18}, {"l</w>": 18}, {"memes</w>": 18}, {"launching</w>": 18}, {"impressive</w>": 18}, {"follow</w>": 18}, {"architecture</w>": 18}, {"ks</w>": 18}, {"king</w>": 18}, {"black</w>": 18}, {"sad</w>": 18}, {"cargo</w>": 18}, {"ates</w>": 18}, {"joke</w>": 18}, {"est</w>": 18}, {"park</w>": 18}, {"spent</w>": 18}, {"nor</w>": 18}, {"gave</w>": 18}, {"Doesnt</w>": 18}, {"sh": 18}, {"symptoms</w>": 18}, {"minutes</w>": 18}, {"abort</w>": 18}, {"Whats</w>": 18}, {"closed</w>": 18}, {"Soon</w>": 18}, {"material</w>": 18}, {"completed</w>": 18}, {"fewer</w>": 18}, {"led</w>": 18}, {"ic</w>": 18}, {"Monday</w>": 18}, {"aiming</w>": 18}, {"added</w>": 18}, {"intelligence</w>": 18}, {"odd</w>": 18}, {"board</w>": 18}, {"nose</w>": 18}, {"render</w>": 18}, {"stand</w>": 18}, {"moment</w>": 18}, {"competitive</w>": 18}, {"aka</w>": 18}, {"Gary</w>": 18}, {"complexity</w>": 18}, {"r</w>": 18}, {"conditions</w>": 18}, {"confirmed</w>": 18}, {"summary</w>": 18}, {"V2</w>": 18}, {"candy</w>": 18}, {"package</w>": 18}, {"Seriously</w>": 18}, {"um</w>": 18}, {"feeling</w>": 18}, {"[</w>": 18}, {"minute</w>": 18}, {"EV</w>": 18}, {"location</w>": 18}, {"stainless</w>": 18}, {"passed</w>": 18}, {"national</w>": 18}, {"Amazing</w>": 18}, {"installed</w>": 18}, {"Python</w>": 18}, {"ri": 18}, {"Getting</w>": 18}, {"^</w>": 18}, {"ds</w>": 18}, {"pod</w>": 18}, {"Bay</w>": 18}, {"torque</w>": 18}, {"Force</w>": 18}, {"drops</w>": 18}, {"Any</w>": 18}, {"airframe</w>": 18}, {"incl</w>": 18}, {"technically</w>": 18}, {"import</w>": 18}, {"V9</w>": 18}, {"Don</w>": 18}, {"services</w>": 17}, {"theory</w>": 17}, {"couldnt</w>": 17}, {"writing</w>": 17}, {"Apple</w>": 17}, {"incorrect</w>": 17}, {"Perhaps</w>": 17}, {"Life</w>": 17}, {"Everything</w>": 17}, {"inference</w>": 17}, {"reuse</w>": 17}, {"Fate</w>": 17}, {"selling</w>": 17}, {"li": 17}, {"Russian</w>": 17}, {"mo": 17}, {"Center</w>": 17}, {"Technically</w>": 17}, {"twice</w>": 17}, {"Crew</w>": 17}, {"honor</w>": 17}, {"transfer</w>": 17}, {"school</w>": 17}, {"approved</w>": 17}, {"approvals</w>": 17}, {"primarily</w>": 17}, {"challenges</w>": 17}, {"robots</w>": 17}, {"tr": 17}, {"op": 17}, {"Making</w>": 17}, {"success</w>": 17}, {"accelerate</w>": 17}, {"Meant</w>": 17}, {"allowing</w>": 17}, {"Mom</w>": 17}, {"unlikely</w>": 17}, {"50</w>": 17}, {"essentially</w>": 17}, {"accelerating</w>": 17}, {"station</w>": 17}, {"ons</w>": 17}, {"capital</w>": 17}, {"error</w>": 17}, {"guys</w>": 17}, {"dramatically</w>": 17}, {"ion</w>": 17}, {"demo</w>": 17}, {"Starhopper</w>": 17}, {"Adding</w>": 17}, {"plant</w>": 17}, {"wise</w>": 17}, {"worst</w>": 17}, {"havent</w>": 17}, {"aluminum</w>": 17}, {"gonna</w>": 17}, {"recommended</w>": 17}, {"touch</w>": 17}, {"drag</w>": 17}, {"interested</w>": 17}, {"el</w>": 17}, {"universe</w>": 17}, {"books</w>": 17}, {"Read</w>": 17}, {"Never</w>": 17}, {"cross</w>": 17}, {"saw</w>": 17}, {"consciousness</w>": 17}, {"journey</w>": 17}, {"rating</w>": 17}, {"tweets</w>": 17}, {"powerful</w>": 17}, {"man</w>": 17}, {"lose</w>": 17}, {"solving</w>": 17}, {"hardcore</w>": 17}, {"affect</w>": 17}, {"P</w>": 17}, {"refund</w>": 17}, {"thank</w>": 17}, {"USA</w>": 17}, {"accident</w>": 17}, {"]</w>": 17}, {"seat</w>": 17}, {"store</w>": 17}, {"account</w>": 17}, {"largest</w>": 17}, {"stuff</w>": 16}, {"seriously</w>": 16}, {"college</w>": 16}, {"ence</w>": 16}, {"curve</w>": 16}, {"Universe</w>": 16}, {"ies</w>": 16}, {"behalf</w>": 16}, {"mounted</w>": 16}, {"nosecone</w>": 16}, {"margin</w>": 16}, {"exist</w>": 16}, {"functionality</w>": 16}, {"wanted</w>": 16}, {"ded</w>": 16}, {"fact</w>": 16}, {"loss</w>": 16}, {"hypersonic</w>": 16}, {"frame</w>": 16}, {"solved</w>": 16}, {"ten</w>": 16}, {"fail</w>": 16}, {"Extremely</w>": 16}, {"bankrupt</w>": 16}, {"friends</w>": 16}, {"March</w>": 16}, {"legal</w>": 16}, {"perhaps</w>": 16}, {"ty</w>": 16}, {"duty</w>": 16}, {"Testing</w>": 16}, {"supersonic</w>": 16}, {"locations</w>": 16}, {"Ford</w>": 16}, {"000</w>": 16}, {"sections</w>": 16}, {"deployed</w>": 16}, {"lines</w>": 16}, {"letter</w>": 16}, {"talent</w>": 16}, {"operation</w>": 16}, {"es": 16}, {"individual</w>": 16}, {"po": 16}, {"subsidies</w>": 16}, {"Florida</w>": 16}, {"des</w>": 16}, {"Australia</w>": 16}, {"hydrogen</w>": 16}, {"myself</w>": 16}, {"watch</w>": 16}, {"join</w>": 16}, {"block</w>": 16}, {"summon</w>": 16}, {"AWD</w>": 16}, {"landed</w>": 16}, {"effective</w>": 16}, {"anti</w>": 16}, {"coverage</w>": 16}, {"exceed</w>": 16}, {"effort</w>": 16}, {"further</w>": 16}, {"=</w>": 16}, {"dome</w>": 16}, {"V3</w>": 16}, {"suggestions</w>": 16}, {"Mr</w>": 16}, {"misleading</w>": 16}, {"places</w>": 16}, {"tap</w>": 16}, {"videos</w>": 16}, {"debt</w>": 16}, {"flamethrower</w>": 16}, {"score</w>": 16}, {"blackouts</w>": 16}, {"Dec</w>": 16}, {"birthday</w>": 16}, {"link</w>": 16}, {"response</w>": 16}, {"stores</w>": 16}, {"z": 16}, {"wd</w>": 16}, {"doo</w>": 16}, {"external</w>": 15}, {"majority</w>": 15}, {"Anyone</w>": 15}, {"setting</w>": 15}, {"allocation</w>": 15}, {"Last</w>": 15}, {"indeed</w>": 15}, {"shirt</w>": 15}, {"plate</w>": 15}, {"Ship</w>": 15}, {"reaching</w>": 15}, {"putting</w>": 15}, {"greatly</w>": 15}, {"leader</w>": 15}, {"Landing</w>": 15}, {"ver": 15}, {"combined</w>": 15}, {"London</w>": 15}, {"secs</w>": 15}, {"thousands</w>": 15}, {"Damn</w>": 15}, {"co": 15}, {"Feels</w>": 15}, {"Thursday</w>": 15}, {"clarify</w>": 15}, {"Right</w>": 15}, {"driven</w>": 15}, {"Version</w>": 15}, {"input</w>": 15}, {"appear</w>": 15}, {"position</w>": 15}, {"Weve</w>": 15}, {"sub</w>": 15}, {"silly</w>": 15}, {"n</w>": 15}, {"Got</w>": 15}, {"rollout</w>": 15}, {"fusion</w>": 15}, {"hes</w>": 15}, {"meet</w>": 15}, {"CEO</w>": 15}, {"information</w>": 15}, {"mistake</w>": 15}, {"proof</w>": 15}, {"drives</w>": 15}, {"ag": 15}, {"oo": 15}, {"irl</w>": 15}, {"affects</w>": 15}, {"ultra</w>": 15}, {"si": 15}, {"exceeds</w>": 15}, {"guaranteed</w>": 15}, {"filters</w>": 15}, {"K</w>": 15}, {"caught</w>": 15}, {"le</w>": 15}, {"bandwidth</w>": 15}, {"produced</w>": 15}, {"temperature</w>": 15}, {"unit</w>": 15}, {"becoming</w>": 15}, {"out": 15}, {"Three</w>": 15}, {"SUV</w>": 15}, {"happiness</w>": 15}, {"advertising</w>": 15}, {"Already</w>": 15}, {"injuries</w>": 15}, {"per": 15}, {"necessary</w>": 15}, {"social</w>": 15}, {"usage</w>": 15}, {"gives</w>": 15}, {"1": 15}, {"Literally</w>": 15}, {"ab": 15}, {"Does</w>": 15}, {"forever</w>": 15}, {"lol</w>": 15}, {"plane</w>": 15}, {"Electric</w>": 15}, {"delta</w>": 15}, {"Software</w>": 15}, {"His</w>": 15}, {"avg</w>": 15}, {"situation</w>": 15}, {"yesterday</w>": 15}, {"Easter</w>": 15}, {"achieving</w>": 15}, {"jobs</w>": 15}, {"helps</w>": 15}, {"x</w>": 15}, {"activate</w>": 15}, {"Base</w>": 15}, {"Nov</w>": 15}, {"Always</w>": 15}, {"incentives</w>": 15}, {"plans</w>": 15}, {"millions</w>": 15}, {"June</w>": 15}, {"criticism</w>": 15}, {"fight</w>": 15}, {"affordable</w>": 15}, {"BFR</w>": 15}, {"landings</w>": 15}, {"publish</w>": 15}, {"fees</w>": 15}, {"holiday</w>": 14}, {"stay</w>": 14}, {"confident</w>": 14}, {"epic</w>": 14}, {"Co</w>": 14}, {"Exciting</w>": 14}, {"insanely</w>": 14}, {"talented</w>": 14}, {"cov2</w>": 14}, {"cut</w>": 14}, {"maximum</w>": 14}, {"PCR</w>": 14}, {"cycle</w>": 14}, {"blow</w>": 14}, {"il": 14}, {"ine</w>": 14}, {"From</w>": 14}, {"explanation</w>": 14}, {"Moreover</w>": 14}, {"generate</w>": 14}, {"slight</w>": 14}, {"car": 14}, {"Another</w>": 14}, {"authorities</w>": 14}, {"interview</w>": 14}, {"der</w>": 14}, {"Every</w>": 14}, {"releases</w>": 14}, {"increasingly</w>": 14}, {"Oct</w>": 14}, {"easier</w>": 14}, {"autonomy</w>": 14}, {"Critical</w>": 14}, {"website</w>": 14}, {"mT</w>": 14}, {"exit</w>": 14}, {"Had</w>": 14}, {"however</w>": 14}, {"Um</w>": 14}, {"drivers</w>": 14}, {"evidence</w>": 14}, {"engineer</w>": 14}, {"failure</w>": 14}, {"valve</w>": 14}, {"sensible</w>": 14}, {"drop</w>": 14}, {"finished</w>": 14}, {"leak</w>": 14}, {"receive</w>": 14}, {"reflight</w>": 14}, {"Goal</w>": 14}, {"minimize</w>": 14}, {"Brownsville</w>": 14}, {"centers</w>": 14}, {"ball</w>": 14}, {"nickel</w>": 14}, {"species</w>": 14}, {"opposite</w>": 14}, {"efficient</w>": 14}, {"Zip2</w>": 14}, {"funny</w>": 14}, {"dry</w>": 14}, {"tricky</w>": 14}, {"youll</w>": 14}, {"ar": 14}, {"health</w>": 14}, {"developing</w>": 14}, {"webcast</w>": 14}, {"facto</w>": 14}, {"Orbital</w>": 14}, {"Ms</w>": 14}, {"compute</w>": 14}, {"process</w>": 14}, {"amounts</w>": 14}, {"Boeing</w>": 14}, {"construction</w>": 14}, {"3": 14}, {"thruster</w>": 14}, {"incredibly</w>": 14}, {"arms</w>": 14}, {"transit</w>": 14}, {"facing</w>": 14}, {"truth</w>": 14}, {"family</w>": 14}, {"propaganda</w>": 14}, {"report</w>": 14}, {"inter": 14}, {"ited</w>": 14}, {"falling</w>": 14}, {"box</w>": 14}, {"dog</w>": 14}, {"dedicated</w>": 14}, {"applied</w>": 14}, {"journalists</w>": 14}, {"ous</w>": 14}, {"Valley</w>": 14}, {"wing</w>": 14}, {"Apollo</w>": 14}, {"understanding</w>": 14}, {"Q</w>": 14}, {"Design</w>": 14}, {"image</w>": 14}, {"dangerous</w>": 14}, {"snow</w>": 14}, {"4": 14}, {"Since</w>": 14}, {"wouldnt</w>": 14}, {"enabled</w>": 14}, {"diff</w>": 14}, {"carmakers</w>": 14}, {"Deep</w>": 14}, {"boys</w>": 14}, {"supporters</w>": 14}, {"insurance</w>": 14}, {"Motor</w>": 14}, {"Japan</w>": 14}, {"Ukraine</w>": 14}, {"appreciation</w>": 14}, {"SF</w>": 14}, {"picture</w>": 14}, {"credibility</w>": 14}, {"Back</w>": 13}, {"les</w>": 13}, {"ended</w>": 13}, {"math</w>": 13}, {"multiple</w>": 13}, {"vi": 13}, {"subtle</w>": 13}, {"save</w>": 13}, {"generator</w>": 13}, {"horn</w>": 13}, {"private</w>": 13}, {"controlled</w>": 13}, {"ically</w>": 13}, {"Hi</w>": 13}, {"magic</w>": 13}, {"worlds</w>": 13}, {"timing</w>": 13}, {"predict</w>": 13}, {"leeward</w>": 13}, {"memory</w>": 13}, {"Car": 13}, {"trillion</w>": 13}, {"subject</w>": 13}, {"SN</w>": 13}, {"developed</w>": 13}, {"comment</w>": 13}, {"pain</w>": 13}, {"official</w>": 13}, {"moderate</w>": 13}, {"type</w>": 13}, {"degrees</w>": 13}, {"tive</w>": 13}, {"somewhere</w>": 13}, {"separate</w>": 13}, {"se</w>": 13}, {"reliability</w>": 13}, {"beat</w>": 13}, {"GPU</w>": 13}, {"waiting</w>": 13}, {"ering</w>": 13}, {"technical</w>": 13}, {"middle</w>": 13}, {"as": 13}, {"House</w>": 13}, {"pitch</w>": 13}, {"St": 13}, {"feed</w>": 13}, {"average</w>": 13}, {"addressed</w>": 13}, {"fixing</w>": 13}, {"Truth</w>": 13}, {"bot</w>": 13}, {"array</w>": 13}, {"antenna</w>": 13}, {"license</w>": 13}, {"settings</w>": 13}, {"released</w>": 13}, {"variant</w>": 13}, {"freedom</w>": 13}, {"assembly</w>": 13}, {"careful</w>": 13}, {"computers</w>": 13}, {"Q4</w>": 13}, {"posted</w>": 13}, {"ad": 13}, {"approach</w>": 13}, {"replaced</w>": 13}, {"competitors</w>": 13}, {"Battery</w>": 13}, {"Foundation</w>": 13}, {"om": 13}, {"roofs</w>": 13}, {"confirm</w>": 13}, {"understood</w>": 13}, {"suppliers</w>": 13}, {"green</w>": 13}, {"ir": 13}, {"par": 13}, {"York</w>": 13}, {"phones</w>": 13}, {"orbits</w>": 13}, {"ur": 13}, {"eventually</w>": 13}, {"SN5</w>": 13}, {"outer</w>": 13}, {"basic</w>": 13}, {"initially</w>": 13}, {"cap</w>": 13}, {"length</w>": 13}, {"damage</w>": 13}, {"Live</w>": 13}, {"noise</w>": 13}, {"Short</w>": 13}, {"push</w>": 13}, {"recent</w>": 13}, {"chip</w>": 13}, {"shown</w>": 13}, {"signal</w>": 13}, {"aware</w>": 13}, {"seconds</w>": 13}, {"Lo": 13}, {"model</w>": 13}, {"letting</w>": 13}, {"Whoa</w>": 13}, {"Night</w>": 13}, {"boost</w>": 13}, {"fav</w>": 13}, {"Wed</w>": 13}, {"charging</w>": 13}, {"war</w>": 13}, {"mine</w>": 13}, {"trend</w>": 13}, {"field</w>": 13}, {"UK</w>": 13}, {"tour</w>": 13}, {"PC</w>": 13}, {"Moving</w>": 13}, {"cathode</w>": 13}, {"fossil</w>": 13}, {"former</w>": 13}, {"cute</w>": 13}, {"trouble</w>": 13}, {"sustaining</w>": 13}, {"annoying</w>": 13}, {"whereas</w>": 13}, {"glad</w>": 13}, {"optimistic</w>": 13}, {"Which</w>": 13}, {"greatest</w>": 13}, {"ses</w>": 13}, {"arguably</w>": 13}, {"Russia</w>": 13}, {"astronauts</w>": 13}, {"shipping</w>": 13}, {"followed</w>": 13}, {"weld</w>": 13}, {"route</w>": 13}, {"ramping</w>": 13}, {"holding</w>": 13}, {"diesel</w>": 13}, {"met</w>": 13}, {"expensive</w>": 13}, {"environment</w>": 13}, {"depending</w>": 13}, {"wants</w>": 13}, {"student</w>": 13}, {"navigate</w>": 13}, {"Hes</w>": 13}, {"guide</w>": 13}, {"economics</w>": 13}, {"constantly</w>": 13}, {"walk</w>": 13}, {"Nrburgring</w>": 13}, {"Enhanced</w>": 13}, {"floor</w>": 13}, {"planning</w>": 13}, {"tmrw</w>": 13}, {"Everyone</w>": 13}, {"res</w>": 13}, {"race</w>": 13}, {"fiber</w>": 13}, {"apply</w>": 13}, {"alien</w>": 13}, {"investigate</w>": 13}, {"crew</w>": 13}, {"ite</w>": 13}, {"DC</w>": 13}, {"transaction</w>": 13}, {"differences</w>": 12}, {"upload</w>": 12}, {"Christmas</w>": 12}, {"growth</w>": 12}, {"duties</w>": 12}, {"Strange</w>": 12}, {"medium</w>": 12}, {"Cyberpunk</w>": 12}, {"werent</w>": 12}, {"remains</w>": 12}, {"windward</w>": 12}, {"tic</w>": 12}, {"Latter</w>": 12}, {"Science</w>": 12}, {"shielding</w>": 12}, {"debate</w>": 12}, {"overall</w>": 12}, {"labeling</w>": 12}, {"Reality</w>": 12}, {"turbopump</w>": 12}, {"bug</w>": 12}, {"ra": 12}, {"Bo": 12}, {"bro</w>": 12}, {"ul": 12}, {"kerosene</w>": 12}, {"te</w>": 12}, {"apart</w>": 12}, {"opinion</w>": 12}, {"straight</w>": 12}, {"unknown</w>": 12}, {"present</w>": 12}, {"relatively</w>": 12}, {"objects</w>": 12}, {"AC</w>": 12}, {"loan</w>": 12}, {"terminal</w>": 12}, {"states</w>": 12}, {"necessarily</w>": 12}, {"fault</w>": 12}, {"Accurate</w>": 12}, {"fiction</w>": 12}, {"equipment</w>": 12}, {"broken</w>": 12}, {"bots</w>": 12}, {"2k</w>": 12}, {"table</w>": 12}, {"dis": 12}, {"6</w>": 12}, {"failed</w>": 12}, {"deliveries</w>": 12}, {"ings</w>": 12}, {"hurt</w>": 12}, {"se": 12}, {"merch</w>": 12}, {"co</w>": 12}, {"Lots</w>": 12}, {"none</w>": 12}, {"cities</w>": 12}, {"aim</w>": 12}, {"wild</w>": 12}, {"smooth</w>": 12}, {"ta": 12}, {"consumption</w>": 12}, {"boat</w>": 12}, {"unexpected</w>": 12}, {"warming</w>": 12}, {"HEPA</w>": 12}, {"result</w>": 12}, {"develop</w>": 12}, {"loved</w>": 12}, {"bottom</w>": 12}, {"focused</w>": 12}, {"background</w>": 12}, {"Pacific</w>": 12}, {"reduction</w>": 12}, {"is": 12}, {"achieved</w>": 12}, {"ical</w>": 12}, {"nature</w>": 12}, {"compression</w>": 12}, {"autopilot</w>": 12}, {"validation</w>": 12}, {"Impressive</w>": 12}, {"backup</w>": 12}, {"dropped</w>": 12}, {"keeps</w>": 12}, {"collapse</w>": 12}, {"danger</w>": 12}, {"Real</w>": 12}, {"according</w>": 12}, {"twitter</w>": 12}, {"trust</w>": 12}, {"Awesome</w>": 12}, {"principle</w>": 12}, {"produce</w>": 12}, {"annual</w>": 12}, {"bill</w>": 12}, {"Done</w>": 12}, {"En": 12}, {"ling</w>": 12}, {"she</w>": 12}, {"Supercharging</w>": 12}, {"wed</w>": 12}, {"solid</w>": 12}, {"injury</w>": 12}, {"Zero</w>": 12}, {"region</w>": 12}, {"SN4</w>": 12}, {"voice</w>": 12}, {"12</w>": 12}, {"probable</w>": 12}, {"layers</w>": 12}, {"economy</w>": 12}, {"sats</w>": 12}, {"Anything</w>": 12}, {"surprising</w>": 12}, {"whatever</w>": 12}, {"Moon</w>": 12}, {"cave</w>": 12}, {"assuming</w>": 12}, {"Sh": 12}, {"tions</w>": 12}, {"rolls</w>": 12}, {"pro</w>": 12}, {"tire</w>": 12}, {"lighter</w>": 12}, {"ans</w>": 12}, {"5k</w>": 12}, {"100k</w>": 12}, {"calendar</w>": 12}, {"terrible</w>": 12}, {"optimization</w>": 12}, {"replacement</w>": 12}, {"Huge</w>": 12}, {"Flamethrower</w>": 12}, {"Excellent</w>": 12}, {"Excited</w>": 12}, {"midnight</w>": 12}, {"affected</w>": 12}, {"Part</w>": 12}, {"Mk1</w>": 12}, {"entirely</w>": 12}, {"FTW</w>": 12}, {"stream</w>": 12}, {"mentioned</w>": 12}, {"racing</w>": 12}, {"thoughtful</w>": 12}, {"lane</w>": 12}, {"map</w>": 12}, {"Did</w>": 12}, {"Reddit</w>": 12}, {"lives</w>": 12}, {"Prob</w>": 12}, {"hand</w>": 12}, {"kWh</w>": 12}, {"particularly</w>": 12}, {"remain</w>": 12}, {"ster</w>": 12}, {"Grasshopper</w>": 12}, {"terminals</w>": 12}, {"economic</w>": 11}, {"speaker</w>": 11}, {"revenue</w>": 11}, {"fall</w>": 11}, {"ic": 11}, {"discuss</w>": 11}, {"structural</w>": 11}, {"subscription</w>": 11}, {"detail</w>": 11}, {"RUD</w>": 11}, {"completing</w>": 11}, {"40</w>": 11}, {"Watch</w>": 11}, {"als</w>": 11}, {"transition</w>": 11}, {"shorter</w>": 11}, {"refilling</w>": 11}, {"degree</w>": 11}, {"ement</w>": 11}, {"quiet</w>": 11}, {"Vandenberg</w>": 11}, {"docking</w>": 11}, {"mechanical</w>": 11}, {"stole</w>": 11}, {"wi": 11}, {"Let</w>": 11}, {"lifetime</w>": 11}, {"publicly</w>": 11}, {"Def</w>": 11}, {"Second</w>": 11}, {"beginning</w>": 11}, {"78</w>": 11}, {"threshold</w>": 11}, {"asking</w>": 11}, {"Doing</w>": 11}, {"Hell</w>": 11}, {"Ahem</w>": 11}, {"cycles</w>": 11}, {"reference</w>": 11}, {"dr": 11}, {"Covid</w>": 11}, {"Reason</w>": 11}, {"vector</w>": 11}, {"Uh</w>": 11}, {"super": 11}, {"sim</w>": 11}, {"Small</w>": 11}, {"Future</w>": 11}, {"flat</w>": 11}, {"usable</w>": 11}, {"fwd</w>": 11}, {"pushed</w>": 11}, {"deg</w>": 11}, {"signs</w>": 11}, {"convert</w>": 11}, {"Nevada</w>": 11}, {"kid</w>": 11}, {"reactor</w>": 11}, {"der": 11}, {"weak</w>": 11}, {"wasnt</w>": 11}, {"Jan</w>": 11}, {"expert</w>": 11}, {"fairly</w>": 11}, {"ant</w>": 11}, {"face</w>": 11}, {"providing</w>": 11}, {"ho": 11}, {"Wont</w>": 11}, {"Mass</w>": 11}, {"kg</w>": 11}, {"yourself</w>": 11}, {"propulsion</w>": 11}, {"flies</w>": 11}, {"lasers</w>": 11}, {"pushing</w>": 11}, {"presentation</w>": 11}, {"mm</w>": 11}, {"separation</w>": 11}, {"ance</w>": 11}, {"bus</w>": 11}, {"roads</w>": 11}, {"br": 11}, {"depth</w>": 11}, {"upon</w>": 11}, {"Black</w>": 11}, {"pieces</w>": 11}, {"jacket</w>": 11}, {"ring</w>": 11}, {"embarrassing</w>": 11}, {"An": 11}, {"study</w>": 11}, {"quickly</w>": 11}, {"Later</w>": 11}, {"drone</w>": 11}, {"leave</w>": 11}, {"ancient</w>": 11}, {"brake</w>": 11}, {"lease</w>": 11}, {"specifically</w>": 11}, {"N2</w>": 11}, {"et</w>": 11}, {"Jupiter</w>": 11}, {"ma": 11}, {"wear</w>": 11}, {"advance</w>": 11}, {"tall</w>": 11}, {"Highly</w>": 11}, {"hearing</w>": 11}, {"battle</w>": 11}, {"Has</w>": 11}, {"secret</w>": 11}, {"hydraulic</w>": 11}, {"decade</w>": 11}, {"everywhere</w>": 11}, {"consumers</w>": 11}, {"born</w>": 11}, {"digging</w>": 11}, {"ob": 11}, {"labor</w>": 11}, {"Trying</w>": 11}, {"optimal</w>": 11}, {"us": 11}, {"terms</w>": 11}, {"accounts</w>": 11}, {"maintain</w>": 11}, {"ys</w>": 11}, {"eyes</w>": 11}, {"promising</w>": 11}, {"September</w>": 11}, {"disagree</w>": 11}, {"purchase</w>": 11}, {"planets</w>": 11}, {"IV</w>": 11}, {"incentive</w>": 11}, {"firmware</w>": 11}, {"speak</w>": 11}, {"lands</w>": 11}, {"dy</w>": 11}, {"physical</w>": 11}, {"faith</w>": 11}, {"empty</w>": 11}, {"protection</w>": 11}, {"Check</w>": 11}, {"operate</w>": 11}, {"mis": 11}, {"giving</w>": 11}, {"Atlas</w>": 11}, {"robotaxi</w>": 11}, {"causes</w>": 11}, {"alert</w>": 11}, {"OG</w>": 11}, {"delivering</w>": 11}, {"policy</w>": 11}, {"deliver</w>": 11}, {"Tues</w>": 11}, {"handle</w>": 11}, {"internally</w>": 11}, {"horizontal</w>": 11}, {"remember</w>": 11}, {"Final</w>": 11}, {"ordered</w>": 11}, {"SN1</w>": 11}, {"alive</w>": 11}, {"width</w>": 11}, {"thus</w>": 11}, {"resolution</w>": 11}, {"planned</w>": 11}, {"for": 11}, {"trans": 11}, {"underappreciated</w>": 11}, {"century</w>": 11}, {"Google</w>": 11}, {"stars</w>": 11}, {"environmental</w>": 11}, {"doors</w>": 11}, {"trunk</w>": 11}, {"blowing</w>": 11}, {"grow</w>": 11}, {"learn</w>": 11}, {"partially</w>": 11}, {"Engine</w>": 11}, {"Requires</w>": 11}, {"optional</w>": 11}, {"row</w>": 11}, {"Times</w>": 11}, {"Using</w>": 11}, {"resale</w>": 11}, {"defense</w>": 11}, {"Lets</w>": 11}, {"fin</w>": 11}, {"contract</w>": 11}, {"warm</w>": 11}, {"OTA</w>": 11}, {"Obviously</w>": 11}, {"RIP</w>": 11}, {"Trend</w>": 11}, {"motion</w>": 11}, {"Block</w>": 11}, {"experts</w>": 11}, {"recovered</w>": 11}, {"creation</w>": 11}, {"Schrdinger</w>": 11}, {"WSJ</w>": 11}, {"updated</w>": 11}, {"loads</w>": 11}, {"pods</w>": 11}, {"thru</w>": 11}, {"advice</w>": 10}, {"sports</w>": 10}, {"match</w>": 10}, {"bugs</w>": 10}, {"reached</w>": 10}, {"ed": 10}, {"ec": 10}, {"Star</w>": 10}, {"absolutely</w>": 10}, {"SN8</w>": 10}, {"causing</w>": 10}, {"25</w>": 10}, {"exists</w>": 10}, {"Flight</w>": 10}, {"wider</w>": 10}, {"attention</w>": 10}, {"colors</w>": 10}, {"loves</w>": 10}, {"titanium</w>": 10}, {"all": 10}, {"ill</w>": 10}, {"visiting</w>": 10}, {"Creating</w>": 10}, {"curious</w>": 10}, {"break</w>": 10}, {"lab</w>": 10}, {"spoke</w>": 10}, {"graph</w>": 10}, {"positives</w>": 10}, {"daily</w>": 10}, {"fear</w>": 10}, {"damn</w>": 10}, {"ator</w>": 10}, {"com</w>": 10}, {"Daimler</w>": 10}, {"funding</w>": 10}, {"Feb</w>": 10}, {"measure</w>": 10}, {"moved</w>": 10}, {"factories</w>": 10}, {"employees</w>": 10}, {"thin</w>": 10}, {"Starting</w>": 10}, {"stuck</w>": 10}, {"financing</w>": 10}, {"fired</w>": 10}, {"attached</w>": 10}, {"laws</w>": 10}, {"prevent</w>": 10}, {"specific</w>": 10}, {"Ad": 10}, {"evolving</w>": 10}, {"inertia</w>": 10}, {"breakthrough</w>": 10}, {"startups</w>": 10}, {"helium</w>": 10}, {"escape</w>": 10}, {"port</w>": 10}, {"ders</w>": 10}, {"six</w>": 10}, {"ets</w>": 10}, {"computing</w>": 10}, {"lmk</w>": 10}, {"PayPal</w>": 10}, {"Fallout</w>": 10}, {"underground</w>": 10}, {"ens</w>": 10}, {"iteration</w>": 10}, {"Ancient</w>": 10}, {"Support</w>": 10}, {"parallel</w>": 10}, {"tweeting</w>": 10}, {"Ar": 10}, {"Germany</w>": 10}, {"learned</w>": 10}, {"under": 10}, {"events</w>": 10}, {"patients</w>": 10}, {"reasonable</w>": 10}, {"footage</w>": 10}, {"jump</w>": 10}, {"Sept</w>": 10}, {"silicon</w>": 10}, {"Otherwise</w>": 10}, {"H2O</w>": 10}, {"cores</w>": 10}, {"oh</w>": 10}, {"President</w>": 10}, {"replace</w>": 10}, {"whenever</w>": 10}, {"hole</w>": 10}, {"pl": 10}, {"hands</w>": 10}, {"worry</w>": 10}, {"handling</w>": 10}, {"gold</w>": 10}, {"ULA</w>": 10}, {"Lockheed</w>": 10}, {"patents</w>": 10}, {"to": 10}, {"wonder</w>": 10}, {"act</w>": 10}, {"interest</w>": 10}, {"surfaces</w>": 10}, {"Di": 10}, {"behavior</w>": 10}, {"lame</w>": 10}, {"sucks</w>": 10}, {"maximize</w>": 10}, {"Basically</w>": 10}, {"Sometimes</w>": 10}, {"talked</w>": 10}, {"ultimately</w>": 10}, {"lie</w>": 10}, {"reduced</w>": 10}, {"ack</w>": 10}, {"moons</w>": 10}, {"goodness</w>": 10}, {"clearly</w>": 10}, {"Busted</w>": 10}, {"rail</w>": 10}, {"des": 10}, {"O</w>": 10}, {"decades</w>": 10}, {"buyers</w>": 10}, {"Cost</w>": 10}, {"Made</w>": 10}, {"shes</w>": 10}, {"exponential</w>": 10}, {"Delta</w>": 10}, {"Z": 10}, {"programs</w>": 10}, {"extending</w>": 10}, {"jokes</w>": 10}, {"Actual</w>": 10}, {"coast</w>": 10}, {"Mo": 10}, {"invasive</w>": 10}, {"radio</w>": 10}, {"Red</w>": 10}, {"Medtronic</w>": 10}, {"survival</w>": 10}, {"stops</w>": 10}, {"Without</w>": 10}, {"While</w>": 10}, {"and": 10}, {"Here</w>": 10}, {"WW</w>": 10}, {"Monty</w>": 10}, {"chart</w>": 10}, {"moves</w>": 10}, {"dropping</w>": 10}, {"tow</w>": 10}, {"qu": 10}, {"Reports</w>": 10}, {"FH</w>": 10}, {"Roof</w>": 10}, {"third</w>": 10}, {"errors</w>": 10}, {"emoji</w>": 10}, {"coating</w>": 10}, {"Earths</w>": 10}, {"Guess</w>": 10}, {"shouldnt</w>": 10}, {"connected</w>": 10}, {"pping</w>": 10}, {"la": 10}, {"World</w>": 10}, {"blog</w>": 10}, {"Headed</w>": 10}, {"rolled</w>": 10}, {"ar</w>": 10}, {"fee</w>": 10}, {"style</w>": 10}, {"negatively</w>": 10}, {"views</w>": 10}, {"buttons</w>": 10}, {"zone</w>": 10}, {"played</w>": 10}, {"Ironically</w>": 10}, {"artificial</w>": 10}, {"decision</w>": 10}, {"Alpha</w>": 10}, {"Solarglass</w>": 10}, {"Vac</w>": 10}, {"object</w>": 10}, {"offering</w>": 10}, {"sorry</w>": 10}, {"vary</w>": 10}, {"NHTSA</w>": 10}, {"passenger</w>": 10}, {"Water</w>": 10}, {"convinced</w>": 10}, {"campaign</w>": 10}, {"nonsense</w>": 10}, {"Latest</w>": 10}, {"pending</w>": 10}, {"independent</w>": 10}, {"x": 10}, {"birth</w>": 10}, {"share</w>": 10}, {"deserves</w>": 10}, {"V8</w>": 10}, {"safer</w>": 10}, {"Kinda</w>": 10}, {"Wish</w>": 10}, {"remaining</w>": 10}, {"vid</w>": 10}, {"dealers</w>": 10}, {"Roughly</w>": 9}, {"unique</w>": 9}, {"display</w>": 9}, {"pedestrian</w>": 9}, {"Merry</w>": 9}, {"Engineering</w>": 9}, {"mon": 9}, {"voltage</w>": 9}, {"kidding</w>": 9}, {"absurdly</w>": 9}, {"limits</w>": 9}, {"shut</w>": 9}, {"Deus</w>": 9}, {"soft</w>": 9}, {"spot</w>": 9}, {"ascent</w>": 9}, {"beast</w>": 9}, {"ward</w>": 9}, {"risky</w>": 9}, {"robust</w>": 9}, {"SN10</w>": 9}, {"mount</w>": 9}, {"pick</w>": 9}, {"investor</w>": 9}, {"strongly</w>": 9}, {"decide</w>": 9}, {"bl": 9}, {"sort</w>": 9}, {"bo": 9}, {"ian</w>": 9}, {"sequence</w>": 9}, {"id</w>": 9}, {"str": 9}, {"enabling</w>": 9}, {"increased</w>": 9}, {"N</w>": 9}, {"gr": 9}, {"kes</w>": 9}, {"showing</w>": 9}, {"virus</w>": 9}, {"reliable</w>": 9}, {"Their</w>": 9}, {"caused</w>": 9}, {"Sat</w>": 9}, {"Such</w>": 9}, {"processing</w>": 9}, {"Canadian</w>": 9}, {"bankruptcy</w>": 9}, {"Didnt</w>": 9}, {"ally</w>": 9}, {"thousand</w>": 9}, {"tweaks</w>": 9}, {"sk": 9}, {"closing</w>": 9}, {"fr": 9}, {"CA</w>": 9}, {"winning</w>": 9}, {"sc": 9}, {"ha": 9}, {"repairs</w>": 9}, {"missing</w>": 9}, {"pics</w>": 9}, {"tically</w>": 9}, {"gra": 9}, {"applying</w>": 9}, {"reverse</w>": 9}, {"casting</w>": 9}, {"tree</w>": 9}, {"pa": 9}, {"methane</w>": 9}, {"begin</w>": 9}, {"Prototypes</w>": 9}, {"emphasize</w>": 9}, {"proven</w>": 9}, {"boosters</w>": 9}, {"ci": 9}, {"considering</w>": 9}, {"server</w>": 9}, {"upcoming</w>": 9}, {"Total</w>": 9}, {"packs</w>": 9}, {"Totally</w>": 9}, {"living</w>": 9}, {"ke</w>": 9}, {"interface</w>": 9}, {"alloy</w>": 9}, {"9": 9}, {"Pre": 9}, {"OpenAI</w>": 9}, {"vastly</w>": 9}, {"8</w>": 9}, {"semi</w>": 9}, {"ue</w>": 9}, {"Rockets</w>": 9}, {"be": 9}, {"hospital</w>": 9}, {"grade</w>": 9}, {"copper</w>": 9}, {"ard</w>": 9}, {"Initially</w>": 9}, {"rates</w>": 9}, {"alized</w>": 9}, {"methods</w>": 9}, {"becomes</w>": 9}, {"consumer</w>": 9}, {"shape</w>": 9}, {"Silicon</w>": 9}, {"sensors</w>": 9}, {"enables</w>": 9}, {"symbiosis</w>": 9}, {"turbine</w>": 9}, {"Similar</w>": 9}, {"counter</w>": 9}, {"beats</w>": 9}, {"recovery</w>": 9}, {"Fairing</w>": 9}, {"Tree</w>": 9}, {"Humans</w>": 9}, {"Com": 9}, {"sh</w>": 9}, {"alpha</w>": 9}, {"simultaneously</w>": 9}, {"comfort</w>": 9}, {"farm</w>": 9}, {"puppet</w>": 9}, {"includes</w>": 9}, {"Progress</w>": 9}, {"spin</w>": 9}, {"crewed</w>": 9}, {"returned</w>": 9}, {"atmospheric</w>": 9}, {"propulsive</w>": 9}, {"untrue</w>": 9}, {"ire</w>": 9}, {"ia</w>": 9}, {"resistance</w>": 9}, {"trucks</w>": 9}, {"suck</w>": 9}, {"tool</w>": 9}, {"income</w>": 9}, {"foolish</w>": 9}, {"password</w>": 9}, {"launched</w>": 9}, {"traditional</w>": 9}, {"ke": 9}, {"Found</w>": 9}, {"ations</w>": 9}, {"inevitable</w>": 9}, {"AGI</w>": 9}, {"pricing</w>": 9}, {"kW</w>": 9}, {"sen": 9}, {"sentient</w>": 9}, {"statement</w>": 9}, {"Saturn</w>": 9}, {"Essentially</w>": 9}, {"warning</w>": 9}, {"Green</w>": 9}, {"RWD</w>": 9}, {"ist</w>": 9}, {"rule</w>": 9}, {"placed</w>": 9}, {"troll</w>": 9}, {"up": 9}, {"PhD</w>": 9}, {"fundamentally</w>": 9}, {"shareholder</w>": 9}, {"additional</w>": 9}, {"controls</w>": 9}, {"et": 9}, {"catching</w>": 9}, {"ox</w>": 9}, {"ang": 9}, {"political</w>": 9}, {"AMA</w>": 9}, {"Atlantic</w>": 9}, {"ats</w>": 9}, {"following</w>": 9}, {"News</w>": 9}, {"stopped</w>": 9}, {"scam</w>": 9}, {"San</w>": 9}, {"pattern</w>": 9}, {"acting</w>": 9}, {"Possibly</w>": 9}, {"pur": 9}, {"ality</w>": 9}, {"z</w>": 9}, {"wave</w>": 9}, {"ge": 9}, {"id": 9}, {"Joe</w>": 9}, {"begins</w>": 9}, {"reporting</w>": 9}, {"doubt</w>": 9}, {"15</w>": 9}, {"maker</w>": 9}, {"machines</w>": 9}, {"Th": 9}, {"Stanford</w>": 9}, {"totally</w>": 9}, {"SN2</w>": 9}, {"rn</w>": 9}, {"Consumer</w>": 9}, {"balance</w>": 9}, {"Building</w>": 9}, {"concerns</w>": 9}, {"ors</w>": 9}, {"TX</w>": 9}, {"unable</w>": 9}, {"Want</w>": 9}, {"research</w>": 9}, {"dollar</w>": 9}, {"funds</w>": 9}, {"confusion</w>": 9}, {"adjust</w>": 9}, {"pro": 9}, {"ig": 9}, {"trains</w>": 9}, {"ending</w>": 9}, {"benefit</w>": 9}, {"enter</w>": 9}, {"End</w>": 9}, {"wishes</w>": 9}, {"solves</w>": 9}, {"wins</w>": 9}, {"multiplanet</w>": 9}, {"multi</w>": 9}, {"somehow</w>": 9}, {"trees</w>": 9}, {"houses</w>": 9}, {"sources</w>": 9}, {"shaft</w>": 9}, {"Storm</w>": 9}, {"Sun</w>": 9}, {"blows</w>": 9}, {"suggests</w>": 9}, {"conversation</w>": 9}, {"Service</w>": 9}, {"ordering</w>": 9}, {"shed</w>": 9}, {"expanding</w>": 9}, {"Aspirationally</w>": 9}, {"Hey</w>": 9}, {"Sentry</w>": 9}, {"steam</w>": 9}, {"System</w>": 9}, {"geo</w>": 9}, {"pedestrians</w>": 9}, {"food</w>": 9}, {"Waiting</w>": 9}, {"Third</w>": 9}, {"interplanetary</w>": 9}, {"recycling</w>": 9}, {"traction</w>": 9}, {"regarding</w>": 9}, {"notice</w>": 9}, {"ad</w>": 9}, {"manage</w>": 9}, {"hr</w>": 9}, {"Problem</w>": 9}, {"ten": 9}, {"lbs</w>": 9}, {"winter</w>": 9}, {"BTC</w>": 9}, {"saves</w>": 9}, {"hence</w>": 9}, {"brakes</w>": 9}, {"info</w>": 9}, {"Godot</w>": 9}, {"streets</w>": 9}, {"scientists</w>": 9}, {"ahem</w>": 9}, {"5": 9}, {"fund</w>": 9}, {"holders</w>": 9}, {"Due</w>": 9}, {"Auto</w>": 9}, {"UI</w>": 9}, {"eat</w>": 9}, {"wasn</w>": 9}, {"City</w>": 9}, {"deploy</w>": 9}, {"yoke</w>": 9}, {"Polytopia</w>": 8}, {"corporate</w>": 8}, {"install</w>": 8}, {"nightmare</w>": 8}, {"ing": 8}, {"ends</w>": 8}, {"stick</w>": 8}, {"Review</w>": 8}, {"um": 8}, {"Brandenburg</w>": 8}, {"Original</w>": 8}, {"Ex</w>": 8}, {"tile</w>": 8}, {"heatshield</w>": 8}, {"served</w>": 8}, {"wouldve</w>": 8}, {"ch</w>": 8}, {"Wednesday</w>": 8}, {"Overall</w>": 8}, {"elements</w>": 8}, {"mi": 8}, {"continues</w>": 8}, {"photon</w>": 8}, {"rich</w>": 8}, {"distribution</w>": 8}, {"Safety</w>": 8}, {"De": 8}, {"flu</w>": 8}, {"mar": 8}, {"avionics</w>": 8}, {"permission</w>": 8}, {"gene</w>": 8}, {"Unless</w>": 8}, {"parachutes</w>": 8}, {"argument</w>": 8}, {"regular</w>": 8}, {"mer": 8}, {"ged</w>": 8}, {"Based</w>": 8}, {"thinks</w>": 8}, {"ou": 8}, {"bogus</w>": 8}, {"cor": 8}, {"Astronauts</w>": 8}, {"Checking</w>": 8}, {"sensor</w>": 8}, {"regulations</w>": 8}, {"frames</w>": 8}, {"understands</w>": 8}, {"dense</w>": 8}, {"Motors</w>": 8}, {"succeed</w>": 8}, {"Several</w>": 8}, {"excited</w>": 8}, {"yaw</w>": 8}, {"ter": 8}, {"phased</w>": 8}, {"ne</w>": 8}, {"modern</w>": 8}, {"ari": 8}, {"jet</w>": 8}, {"situations</w>": 8}, {"mining</w>": 8}, {"widely</w>": 8}, {"ren": 8}, {"wire</w>": 8}, {"Tuesday</w>": 8}, {"TOPS</w>": 8}, {"Q1</w>": 8}, {"Q3</w>": 8}, {"materials</w>": 8}, {"wall</w>": 8}, {"sensitive</w>": 8}, {"solutions</w>": 8}, {"innovation</w>": 8}, {"bar": 8}, {"gear</w>": 8}, {"collision</w>": 8}, {"Munro</w>": 8}, {"tor": 8}, {"depends</w>": 8}, {"Takes</w>": 8}, {"stationary</w>": 8}, {"differential</w>": 8}, {"photo</w>": 8}, {"Turn</w>": 8}, {"Y": 8}, {"tly</w>": 8}, {"valuable</w>": 8}, {"Gravitas</w>": 8}, {"eye</w>": 8}, {"constraints</w>": 8}, {"esthetics</w>": 8}, {"Having</w>": 8}, {"ves</w>": 8}, {"gun</w>": 8}, {"7": 8}, {"announce</w>": 8}, {"losing</w>": 8}, {"chips</w>": 8}, {"continuous</w>": 8}, {"covered</w>": 8}, {"exceptional</w>": 8}, {"90</w>": 8}, {"agreed</w>": 8}, {"Im": 8}, {"els</w>": 8}, {"nuclear</w>": 8}, {"Tunnels</w>": 8}, {"ative</w>": 8}, {"surround</w>": 8}, {"Took</w>": 8}, {"he": 8}, {"dozen</w>": 8}, {"joined</w>": 8}, {"powertrain</w>": 8}, {"com": 8}, {"communication</w>": 8}, {"Ch": 8}, {"SN6</w>": 8}, {"medical</w>": 8}, {"device</w>": 8}, {"pounds</w>": 8}, {"ably</w>": 8}, {"recently</w>": 8}, {"elevator</w>": 8}, {"cer": 8}, {"democracy</w>": 8}, {"SN": 8}, {"produces</w>": 8}, {"Main</w>": 8}, {"turning</w>": 8}, {"period</w>": 8}, {"Africa</w>": 8}, {"ber</w>": 8}, {"related</w>": 8}, {"edge</w>": 8}, {"ut": 8}, {"interests</w>": 8}, {"unlike</w>": 8}, {"hops</w>": 8}, {"su": 8}, {"Ac": 8}, {"movement</w>": 8}, {"storm</w>": 8}, {"Onion</w>": 8}, {"H2</w>": 8}, {"LAX</w>": 8}, {"LEO</w>": 8}, {"Welcome</w>": 8}, {"growing</w>": 8}, {"keeping</w>": 8}, {"ol": 8}, {"finally</w>": 8}, {"Asia</w>": 8}, {"intended</w>": 8}, {"stories</w>": 8}, {"H</w>": 8}, {"shareholders</w>": 8}, {"Fixing</w>": 8}, {"ness</w>": 8}, {"county</w>": 8}, {"explain</w>": 8}, {"expand</w>": 8}, {"office</w>": 8}, {"likes</w>": 8}, {"missed</w>": 8}, {"compete</w>": 8}, {"combine</w>": 8}, {"Propellant</w>": 8}, {"coal</w>": 8}, {"ants</w>": 8}, {"switch</w>": 8}, {"five</w>": 8}, {"stabilize</w>": 8}, {"superhuman</w>": 8}, {"windows</w>": 8}, {"Wheres</w>": 8}, {"federal</w>": 8}, {"Orbit</w>": 8}, {"International</w>": 8}, {"lucky</w>": 8}, {"currency</w>": 8}, {"central</w>": 8}, {"Se": 8}, {"emissions</w>": 8}, {"safest</w>": 8}, {"NYT</w>": 8}, {"ary</w>": 8}, {"pet</w>": 8}, {"fa": 8}, {"entertaining</w>": 8}, {"Minecraft</w>": 8}, {"safely</w>": 8}, {"forced</w>": 8}, {"ambient</w>": 8}, {"Sp": 8}, {"held</w>": 8}, {"Honored</w>": 8}, {"HVAC</w>": 8}, {"Side</w>": 8}, {"suggested</w>": 8}, {"fluid</w>": 8}, {"ventilator</w>": 8}, {"theyd</w>": 8}, {"relative</w>": 8}, {"spaceflight</w>": 8}, {"hospitals</w>": 8}, {"spending</w>": 8}, {"Q2</w>": 8}, {"dollars</w>": 8}, {"ee": 8}, {"Spaceballs</w>": 8}, {"postponed</w>": 8}, {"inc": 8}, {"roller</w>": 8}, {"configuration</w>": 8}, {"rev</w>": 8}, {"garage</w>": 8}, {"severe</w>": 8}, {"discussion</w>": 8}, {"ity</w>": 8}, {"members</w>": 8}, {"hasnt</w>": 8}, {"milestone</w>": 8}, {"among</w>": 8}, {"Mad</w>": 8}, {"makers</w>": 8}, {"posting</w>": 8}, {"became</w>": 8}, {"installation</w>": 8}, {"throughout</w>": 8}, {"ge</w>": 8}, {"irrelevant</w>": 8}, {"email</w>": 8}, {"clicks</w>": 8}, {"deployment</w>": 8}, {"Yay</w>": 8}, {"liftoff</w>": 8}, {"character</w>": 8}, {"Higher</w>": 8}, {"billions</w>": 8}, {"coat</w>": 8}, {"afford</w>": 8}, {"arrives</w>": 8}, {"sit</w>": 8}, {"Started</w>": 8}, {"junkyard</w>": 8}, {"cm</w>": 8}, {"Launching</w>": 8}, {"breaks</w>": 8}, {"align</w>": 8}, {"AF</w>": 8}, {"parachute</w>": 8}, {"Low</w>": 8}, {"Gear</w>": 8}, {"Turbo</w>": 8}, {"donate</w>": 8}, {"lead</w>": 8}, {"rendering</w>": 8}, {"Get</w>": 8}, {"advent</w>": 8}, {"Precisely</w>": 8}, {"Between</w>": 8}, {"Ludicrous</w>": 8}, {"Cuphead</w>": 8}, {"therefore</w>": 8}, {"EAP</w>": 8}, {"Drive</w>": 8}, {"Mk</w>": 8}, {"traveling</w>": 8}, {"cheese</w>": 8}, {"500</w>": 8}, {"Fred</w>": 8}, {"Thoughtful</w>": 8}, {"random</w>": 8}, {"sites</w>": 8}, {"bright</w>": 8}, {"egg</w>": 8}, {"watched</w>": 8}, {"UN</w>": 8}, {"TBC</w>": 8}, {"raised</w>": 8}, {"visible</w>": 8}, {"competing</w>": 8}, {"charger</w>": 8}, {"killing</w>": 8}, {"English</w>": 8}, {"ps</w>": 8}, {"Engines</w>": 8}, {"Upper</w>": 8}, {"express</w>": 8}, {"watching</w>": 8}, {"forgot</w>": 8}, {"German</w>": 8}, {"Mexico</w>": 8}, {"pickup</w>": 8}, {"eggs</w>": 8}, {"Coast</w>": 8}, {"Single</w>": 8}, {"P100D</w>": 8}, {"LZ</w>": 8}, {"30pm</w>": 8}, {"represent</w>": 8}, {"Thailand</w>": 8}, {"arrived</w>": 8}, {"Banks</w>": 8}, {"urban</w>": 8}, {"_</w>": 8}, {"Linux</w>": 8}, {"sees</w>": 8}, {"Signal</w>": 8}, {"Larry</w>": 7}, {"gaming</w>": 7}, {"retrospect</w>": 7}, {"Elise</w>": 7}, {"medicine</w>": 7}, {"sions</w>": 7}, {"custom</w>": 7}, {"operations</w>": 7}, {"Tim</w>": 7}, {"fiat</w>": 7}, {"branding</w>": 7}, {"loaded</w>": 7}, {"exponentially</w>": 7}, {"shop</w>": 7}, {"Human</w>": 7}, {"flap</w>": 7}, {"fastest</w>": 7}, {"ori": 7}, {"message</w>": 7}, {"dec": 7}, {"Ma": 7}, {"paper</w>": 7}, {"damping</w>": 7}, {"acts</w>": 7}, {"hull</w>": 7}, {"cast</w>": 7}, {"pointy</w>": 7}, {"generation</w>": 7}, {"X": 7}, {"11</w>": 7}, {"Fully</w>": 7}, {"relevant</w>": 7}, {"viral</w>": 7}, {"im</w>": 7}, {"learning</w>": 7}, {"mil": 7}, {"sending</w>": 7}, {"Special</w>": 7}, {"Irony</w>": 7}, {"CureVac</w>": 7}, {"synthetic</w>": 7}, {"vaccines</w>": 7}, {"walls</w>": 7}, {"cautious</w>": 7}, {"surprise</w>": 7}, {"ga": 7}, {"gen": 7}, {"search</w>": 7}, {"viruses</w>": 7}, {"accuracy</w>": 7}, {"knowledge</w>": 7}, {"Elon</w>": 7}, {"preburner</w>": 7}, {"Liquid</w>": 7}, {"rising</w>": 7}, {"70</w>": 7}, {"RNA</w>": 7}, {"te": 7}, {"browser</w>": 7}, {"passing</w>": 7}, {"extension</w>": 7}, {"generalized</w>": 7}, {"profound</w>": 7}, {"describe</w>": 7}, {"invented</w>": 7}, {"phase</w>": 7}, {"stress</w>": 7}, {"Chrysler</w>": 7}, {"leaving</w>": 7}, {"standing</w>": 7}, {"interventions</w>": 7}, {"ea": 7}, {"Jack</w>": 7}, {"cre": 7}, {"brought</w>": 7}, {"looked</w>": 7}, {"ters</w>": 7}, {"Video</w>": 7}, {"meaningful</w>": 7}, {"ages</w>": 7}, {"ya</w>": 7}, {"auto": 7}, {"delete</w>": 7}, {"meter</w>": 7}, {"releasing</w>": 7}, {"sync</w>": 7}, {"plays</w>": 7}, {"tor</w>": 7}, {"wiki</w>": 7}, {"protect</w>": 7}, {"seal</w>": 7}, {"comp": 7}, {"ca": 7}, {"polar</w>": 7}, {"ony</w>": 7}, {"gigantic</w>": 7}, {"shots</w>": 7}, {"economies</w>": 7}, {"liked</w>": 7}, {"Un": 7}, {"ery</w>": 7}, {"connectivity</w>": 7}, {"latitudes</w>": 7}, {"suspect</w>": 7}, {"trivial</w>": 7}, {"passes</w>": 7}, {"besides</w>": 7}, {"cgi</w>": 7}, {"difficulty</w>": 7}, {"scaling</w>": 7}, {"prototypes</w>": 7}, {"fold</w>": 7}, {"bits</w>": 7}, {"floating</w>": 7}, {"ure</w>": 7}, {"factors</w>": 7}, {"Couldnt</w>": 7}, {"Nobody</w>": 7}, {"Padre</w>": 7}, {"Releasing</w>": 7}, {"Su": 7}, {"approximation</w>": 7}, {"chassis</w>": 7}, {"nozzles</w>": 7}, {"bi": 7}, {"hop</w>": 7}, {"300</w>": 7}, {"inner</w>": 7}, {"tin": 7}, {"ap": 7}, {"IP</w>": 7}, {"measured</w>": 7}, {"astronomy</w>": 7}, {"unfortunately</w>": 7}, {"mortality</w>": 7}, {"headed</w>": 7}, {"printer</w>": 7}, {"condition</w>": 7}, {"Wouldnt</w>": 7}, {"Qu": 7}, {"parents</w>": 7}, {"Asimov</w>": 7}, {"vable</w>": 7}, {"Wh</w>": 7}, {"turbines</w>": 7}, {"fed</w>": 7}, {"nuts</w>": 7}, {"honored</w>": 7}, {"images</w>": 7}, {"Biggest</w>": 7}, {"hex</w>": 7}, {"raising</w>": 7}, {"concept</w>": 7}, {"stable</w>": 7}, {"prove</w>": 7}, {"II</w>": 7}, {"rumor</w>": 7}, {"ber": 7}, {"humor</w>": 7}, {"Hold</w>": 7}, {"beer</w>": 7}, {"blue</w>": 7}, {"fool</w>": 7}, {"Po": 7}, {"serving</w>": 7}, {"reminder</w>": 7}, {"wifi</w>": 7}, {"upgrading</w>": 7}, {"halves</w>": 7}, {"tours</w>": 7}, {"Fermi</w>": 7}, {"sur": 7}, {"robot</w>": 7}, {"Autobahn</w>": 7}, {"adjusted</w>": 7}, {"EPA</w>": 7}, {"Death</w>": 7}, {"fying</w>": 7}, {"Details</w>": 7}, {"Make</w>": 7}, {"accept</w>": 7}, {"asteroids</w>": 7}, {"purpose</w>": 7}, {"broke</w>": 7}, {"Beautiful</w>": 7}, {"ignore</w>": 7}, {"journo</w>": 7}, {"father</w>": 7}, {"journalist</w>": 7}, {"worried</w>": 7}, {"Li": 7}, {"project</w>": 7}, {"sus</w>": 7}, {"confirmation</w>": 7}, {"answered</w>": 7}, {"Impact</w>": 7}, {"gi": 7}, {"ridiculous</w>": 7}, {"claim</w>": 7}, {"renewables</w>": 7}, {"Apologies</w>": 7}, {"fi": 7}, {"bikes</w>": 7}, {"ef": 7}, {"simpler</w>": 7}, {"nitrogen</w>": 7}, {"theoretical</w>": 7}, {"shall</w>": 7}, {"ize</w>": 7}, {"expecting</w>": 7}, {"Dan</w>": 7}, {"Me": 7}, {"SpaceXs</w>": 7}, {"episode</w>": 7}, {"group</w>": 7}, {"openly</w>": 7}, {"pose</w>": 7}, {"French</w>": 7}, {"publications</w>": 7}, {"airport</w>": 7}, {"lack</w>": 7}, {"forcing</w>": 7}, {"Al": 7}, {"statistics</w>": 7}, {"County</w>": 7}, {"so": 7}, {"master</w>": 7}, {"idiot</w>": 7}, {"ties</w>": 7}, {"enormous</w>": 7}, {"personal</w>": 7}, {"ving</w>": 7}, {"500k</w>": 7}, {"den": 7}, {"Dad</w>": 7}, {"physically</w>": 7}, {"suit</w>": 7}, {"Nope</w>": 7}, {"logs</w>": 7}, {"Vacuum</w>": 7}, {"Go</w>": 7}, {"duc": 7}, {"cryogenic</w>": 7}, {"Improved</w>": 7}, {"requirement</w>": 7}, {"imagine</w>": 7}, {"il</w>": 7}, {"financial</w>": 7}, {"platform</w>": 7}, {"dock</w>": 7}, {"surprisingly</w>": 7}, {"ingly</w>": 7}, {"Dr</w>": 7}, {"sweet</w>": 7}, {"Either</w>": 7}, {"jamming</w>": 7}, {"signed</w>": 7}, {"ature</w>": 7}, {"Tr": 7}, {"Certainly</w>": 7}, {"tune</w>": 7}, {"35k</w>": 7}, {"cha": 7}, {"simplify</w>": 7}, {"someones</w>": 7}, {"Hello</w>": 7}, {"Less</w>": 7}, {"contact</w>": 7}, {"mix</w>": 7}, {"plot</w>": 7}, {"Kids</w>": 7}, {"Track</w>": 7}, {"Fear</w>": 7}, {"Tri": 7}, {"standards</w>": 7}, {"thoughts</w>": 7}, {"foundation</w>": 7}, {"achieves</w>": 7}, {"heavier</w>": 7}, {"bounce</w>": 7}, {"calling</w>": 7}, {"6": 7}, {"minus</w>": 7}, {"ized</w>": 7}, {"band</w>": 7}, {"wa": 7}, {"hydrophobic</w>": 7}, {"Putting</w>": 7}, {"applications</w>": 7}, {"reports</w>": 7}, {"basis</w>": 7}, {"Fundamental</w>": 7}, {"Instructions</w>": 7}, {"ll</w>": 7}, {"joy</w>": 7}, {"Rest</w>": 7}, {"Beyond</w>": 7}, {"focusing</w>": 7}, {"stronger</w>": 7}, {"Paradox</w>": 7}, {"trick</w>": 7}, {"toxic</w>": 7}, {"navigation</w>": 7}, {"nav</w>": 7}, {"Cars</w>": 7}, {"square</w>": 7}, {"passive</w>": 7}, {"apocalypse</w>": 7}, {"inspired</w>": 7}, {"150</w>": 7}, {"Porsche</w>": 7}, {"wings</w>": 7}, {"Fun</w>": 7}, {"trajectory</w>": 7}, {"digital</w>": 7}, {"OS</w>": 7}, {"minimizes</w>": 7}, {"spaces</w>": 7}, {"movies</w>": 7}, {"robotaxis</w>": 7}, {"dignity</w>": 7}, {"hotel</w>": 7}, {"secondary</w>": 7}, {"deserve</w>": 7}, {"Eastern</w>": 7}, {"superalloy</w>": 7}, {"srsly</w>": 7}, {"mistakes</w>": 7}, {"delays</w>": 7}, {"offered</w>": 7}, {"Currently</w>": 7}, {"explosion</w>": 7}, {"fyi</w>": 7}, {"George</w>": 7}, {"occupant</w>": 7}, {"Pics</w>": 7}, {"dare</w>": 7}, {"detailed</w>": 7}, {"YouTube</w>": 7}, {"amazingly</w>": 7}, {"Frank</w>": 7}, {"Outer</w>": 7}, {"edit</w>": 7}, {"ultimate</w>": 7}, {"Martian</w>": 7}, {"dealer</w>": 7}, {"checking</w>": 7}, {"contractors</w>": 7}, {"notes</w>": 7}, {"Range</w>": 7}, {"Been</w>": 7}, {"bizarre</w>": 7}, {"Tom</w>": 7}, {"readers</w>": 7}, {"attacking</w>": 7}, {"attacked</w>": 7}, {"biography</w>": 7}, {"Stay</w>": 7}, {"tical</w>": 7}, {"Jim</w>": 7}, {"discount</w>": 7}, {"rid</w>": 7}, {"Pro": 7}, {"ey</w>": 7}, {"scheduled</w>": 7}, {"Ro": 7}, {"250</w>": 7}, {"0": 7}, {"lateral</w>": 7}, {"police</w>": 7}, {"equal</w>": 7}, {"cam": 7}, {"menu</w>": 7}, {"impacts</w>": 7}, {"ick</w>": 7}, {"Chris</w>": 7}, {"responsible</w>": 7}, {"dive</w>": 7}, {"parties</w>": 7}, {"U": 7}, {"divers</w>": 7}, {"coincidence</w>": 7}, {"children</w>": 7}, {"kill</w>": 7}, {"slowly</w>": 7}, {"invest</w>": 7}, {"opens</w>": 7}, {"discovered</w>": 7}, {"packet</w>": 7}, {"wouldn</w>": 7}, {"eve</w>": 7}, {"cloud</w>": 7}, {"compelling</w>": 7}, {"concern</w>": 7}, {"goods</w>": 7}, {"player</w>": 6}, {"aging</w>": 6}, {"cur": 6}, {"sick</w>": 6}, {"Fr": 6}, {"possibility</w>": 6}, {"oc": 6}, {"af": 6}, {"Lord</w>": 6}, {"hoping</w>": 6}, {"item</w>": 6}, {"unequivocally</w>": 6}, {"objective</w>": 6}, {"Ascent</w>": 6}, {"ven": 6}, {"picked</w>": 6}, {"He": 6}, {"Woohoo</w>": 6}, {"apogee</w>": 6}, {"bullet</w>": 6}, {"Out</w>": 6}, {"Static</w>": 6}, {"lifting</w>": 6}, {"Thanksgiving</w>": 6}, {"algorithm</w>": 6}, {"iring</w>": 6}, {"mature</w>": 6}, {"50k</w>": 6}, {"flip</w>": 6}, {"smarter</w>": 6}, {"Course</w>": 6}, {"tempting</w>": 6}, {"FB</w>": 6}, {"arm</w>": 6}, {"investing</w>": 6}, {"turbopumps</w>": 6}, {"Wild</w>": 6}, {"sed</w>": 6}, {"domes</w>": 6}, {"formed</w>": 6}, {"ex</w>": 6}, {"activity</w>": 6}, {"method</w>": 6}, {"Ver": 6}, {"suboptimal</w>": 6}, {"notable</w>": 6}, {"literal</w>": 6}, {"concrete</w>": 6}, {"blade</w>": 6}, {"shutdown</w>": 6}, {"felt</w>": 6}, {"channels</w>": 6}, {"N1</w>": 6}, {"ach": 6}, {"steps</w>": 6}, {"scratch</w>": 6}, {"ics</w>": 6}, {"dence</w>": 6}, {"fy</w>": 6}, {"Bur": 6}, {"twist</w>": 6}, {"Wait</w>": 6}, {"U</w>": 6}, {"resume</w>": 6}, {"Faraday</w>": 6}, {"induction</w>": 6}, {"iting</w>": 6}, {"startup</w>": 6}, {"rent</w>": 6}, {"Although</w>": 6}, {"fails</w>": 6}, {"fill</w>": 6}, {"descent</w>": 6}, {"SN9</w>": 6}, {"moments</w>": 6}, {"ank": 6}, {"Sweden</w>": 6}, {"girl</w>": 6}, {"crane</w>": 6}, {"sal": 6}, {"trash</w>": 6}, {"humanitys</w>": 6}, {"command</w>": 6}, {"monthly</w>": 6}, {"lies</w>": 6}, {"salt</w>": 6}, {"achievable</w>": 6}, {"pumps</w>": 6}, {"Data</w>": 6}, {"remove</w>": 6}, {"cord</w>": 6}, {"reviews</w>": 6}, {"default</w>": 6}, {"tur": 6}, {"ne": 6}, {"upside</w>": 6}, {"har": 6}, {"NNs</w>": 6}, {"planes</w>": 6}, {"SoC</w>": 6}, {"requirements</w>": 6}, {"cam</w>": 6}, {"poor</w>": 6}, {"Advanced</w>": 6}, {"printing</w>": 6}, {"alloys</w>": 6}, {"flame</w>": 6}, {"rails</w>": 6}, {"shear</w>": 6}, {"sheets</w>": 6}, {"sheer</w>": 6}, {"sustained</w>": 6}, {"pe": 6}, {"Music</w>": 6}, {"Hollywood</w>": 6}, {"frequency</w>": 6}, {"revolution</w>": 6}, {"damaged</w>": 6}, {"community</w>": 6}, {"builds</w>": 6}, {"automatic</w>": 6}, {"IPO</w>": 6}, {"execution</w>": 6}, {"bed</w>": 6}, {"ourselves</w>": 6}, {"toughest</w>": 6}, {"drawing</w>": 6}, {"compar": 6}, {"bur": 6}, {"ignite</w>": 6}, {"Gen": 6}, {"fore": 6}, {"shortages</w>": 6}, {"partly</w>": 6}, {"offset</w>": 6}, {"foundational</w>": 6}, {"Stainless</w>": 6}, {"snail</w>": 6}, {"buildings</w>": 6}, {"outfit</w>": 6}, {"committed</w>": 6}, {"ched</w>": 6}, {"tools</w>": 6}, {"cl": 6}, {"ich</w>": 6}, {"Instead</w>": 6}, {"workers</w>": 6}, {"compensation</w>": 6}, {"la</w>": 6}, {"tional</w>": 6}, {"noting</w>": 6}, {"Vi": 6}, {"butt</w>": 6}, {"TVC</w>": 6}, {"vaccine</w>": 6}, {"ounded</w>": 6}, {"Thinking</w>": 6}, {"quantum</w>": 6}, {"mechanics</w>": 6}, {"bringing</w>": 6}, {"ay": 6}, {"war": 6}, {"Giant</w>": 6}, {"Target</w>": 6}, {"Bra": 6}, {"surprised</w>": 6}, {"Hardcore</w>": 6}, {"ein</w>": 6}, {"wherever</w>": 6}, {"payment</w>": 6}, {"residual</w>": 6}, {"underrated</w>": 6}, {"adults</w>": 6}, {"Do": 6}, {"ying</w>": 6}, {"cru": 6}, {"sting</w>": 6}, {"Wikipedia</w>": 6}, {"begging</w>": 6}, {"Bar": 6}, {"Metal</w>": 6}, {"Palo</w>": 6}, {"Alto</w>": 6}, {"acceptable</w>": 6}, {"sm": 6}, {"steer</w>": 6}, {"tweak</w>": 6}, {"odds</w>": 6}, {"Megapack</w>": 6}, {"suggest</w>": 6}, {"airplanes</w>": 6}, {"absurd</w>": 6}, {"ently</w>": 6}, {"Clearly</w>": 6}, {"ownership</w>": 6}, {"par</w>": 6}, {"bb": 6}, {"ess</w>": 6}, {"originally</w>": 6}, {"logic</w>": 6}, {"removed</w>": 6}, {"wiring</w>": 6}, {"micro": 6}, {"patient</w>": 6}, {"Str": 6}, {"trials</w>": 6}, {"dig</w>": 6}, {"crush</w>": 6}, {"Nickel</w>": 6}, {"Br": 6}, {"Facebook</w>": 6}, {"politicians</w>": 6}, {"wealth</w>": 6}, {"Insurance</w>": 6}, {"constrained</w>": 6}, {"ams</w>": 6}, {"entertainment</w>": 6}, {"earnings</w>": 6}, {"sustainability</w>": 6}, {"podcasts</w>": 6}, {"signals</w>": 6}, {"Napoleon</w>": 6}, {"blocked</w>": 6}, {"permanent</w>": 6}, {"Ashlee</w>": 6}, {"backpack</w>": 6}, {"She</w>": 6}, {"span</w>": 6}, {"trolls</w>": 6}, {"invited</w>": 6}, {"earn</w>": 6}, {"fl": 6}, {"radi": 6}, {"sa": 6}, {"Show</w>": 6}, {"McGregor</w>": 6}, {"Report</w>": 6}, {"Federal</w>": 6}, {"applies</w>": 6}, {"Reminder</w>": 6}, {"amp": 6}, {"Saints</w>": 6}, {"Row</w>": 6}, {"Bought</w>": 6}, {"heavily</w>": 6}, {"spaceport</w>": 6}, {"weapons</w>": 6}, {"leaked</w>": 6}, {"exposure</w>": 6}, {"lea": 6}, {"For": 6}, {"staged</w>": 6}, {"charged</w>": 6}, {"Bob</w>": 6}, {"slowed</w>": 6}, {"Mission</w>": 6}, {"min": 6}, {"Culture</w>": 6}, {"excess</w>": 6}, {"contribution</w>": 6}, {"alism</w>": 6}, {"deeply</w>": 6}, {"unelected</w>": 6}, {"manufacture</w>": 6}, {"Alameda</w>": 6}, {"foundry</w>": 6}, {"HQ</w>": 6}, {"avoidance</w>": 6}, {"approaching</w>": 6}, {"ran</w>": 6}, {"dependent</w>": 6}, {"Way</w>": 6}, {"boats</w>": 6}, {"distracted</w>": 6}, {"shing</w>": 6}, {"heads</w>": 6}, {"young</w>": 6}, {"silver</w>": 6}, {"corona</w>": 6}, {"ious</w>": 6}, {"Heard</w>": 6}, {"pathfinder</w>": 6}, {"infrastructure</w>": 6}, {"east</w>": 6}, {"Machine</w>": 6}, {"warranty</w>": 6}, {"tells</w>": 6}, {"Technology</w>": 6}, {"tri": 6}, {"saved</w>": 6}, {"checked</w>": 6}, {"acid</w>": 6}, {"Correct</w>": 6}, {"ust": 6}, {"downtown</w>": 6}, {"immediate</w>": 6}, {"tears</w>": 6}, {"yours</w>": 6}, {"neither</w>": 6}, {"hide</w>": 6}, {"LOX</w>": 6}, {"WiFi</w>": 6}, {"Credit</w>": 6}, {"whos</w>": 6}, {"AP</w>": 6}, {"devices</w>": 6}, {"stored</w>": 6}, {"Seeing</w>": 6}, {"routing</w>": 6}, {"Douglas</w>": 6}, {"knew</w>": 6}, {"aw": 6}, {"arrive</w>": 6}, {"According</w>": 6}, {"ftw</w>": 6}, {"Z</w>": 6}, {"National</w>": 6}, {"Close</w>": 6}, {"alize</w>": 6}, {"ws</w>": 6}, {"ph": 6}, {"dies</w>": 6}, {"barrel</w>": 6}, {"closely</w>": 6}, {"spoken</w>": 6}, {"destroyed</w>": 6}, {"envelope</w>": 6}, {"principles</w>": 6}, {"Lmk</w>": 6}, {"Rococo</w>": 6}, {"8": 6}, {"sts</w>": 6}, {"orgs</w>": 6}, {"beauty</w>": 6}, {"Whoop</w>": 6}, {"justice</w>": 6}, {"skins</w>": 6}, {"programmed</w>": 6}, {"converted</w>": 6}, {"arrays</w>": 6}, {"forms</w>": 6}, {"yer</w>": 6}, {"mark</w>": 6}, {"natural</w>": 6}, {"preference</w>": 6}, {"ping</w>": 6}, {"leading</w>": 6}, {"eg": 6}, {"ideal</w>": 6}, {"momentum</w>": 6}, {"sail</w>": 6}, {"projects</w>": 6}, {"paywall</w>": 6}, {"opportunity</w>": 6}, {"context</w>": 6}, {"Cats</w>": 6}, {"penalty</w>": 6}, {"brag</w>": 6}, {"Regarding</w>": 6}, {"constraint</w>": 6}, {"Sending</w>": 6}, {"impression</w>": 6}, {"Isnt</w>": 6}, {"telling</w>": 6}, {"Games</w>": 6}, {"circle</w>": 6}, {"inches</w>": 6}, {"holder</w>": 6}, {"refers</w>": 6}, {"wrapped</w>": 6}, {"Blade</w>": 6}, {"Gonna</w>": 6}, {"Loved</w>": 6}, {"Mk3</w>": 6}, {"Chanos</w>": 6}, {"encourage</w>": 6}, {"opportunities</w>": 6}, {"variants</w>": 6}, {"inspiring</w>": 6}, {"Taycan</w>": 6}, {"wood</w>": 6}, {"outages</w>": 6}, {"facts</w>": 6}, {"fruit</w>": 6}, {"Tile</w>": 6}, {"vac</w>": 6}, {"Test</w>": 6}, {"Yep</w>": 6}, {"Jam</w>": 6}, {"MW</w>": 6}, {"homeowner</w>": 6}, {"Energy</w>": 6}, {"steadily</w>": 6}, {"Massive</w>": 6}, {"regen</w>": 6}, {"psi</w>": 6}, {"speech</w>": 6}, {"download</w>": 6}, {"Herbert</w>": 6}, {"Finally</w>": 6}, {"Nikola</w>": 6}, {"covers</w>": 6}, {"leaders</w>": 6}, {"Place</w>": 6}, {"regional</w>": 6}, {"downward</w>": 6}, {"jam</w>": 6}, {"destroy</w>": 6}, {"Sea</w>": 6}, {"removal</w>": 6}, {"November</w>": 6}, {"thereafter</w>": 6}, {"plants</w>": 6}, {"reaches</w>": 6}, {"spacesuit</w>": 6}, {"audio</w>": 6}, {"heh</w>": 6}, {"museum</w>": 6}, {"Navigate</w>": 6}, {"drama</w>": 6}, {"rotation</w>": 6}, {"thermal</w>": 6}, {"dev</w>": 6}, {"recall</w>": 6}, {"Year</w>": 6}, {"prevented</w>": 6}, {"switched</w>": 6}, {"loose</w>": 6}, {"merkin</w>": 6}, {"Mountain</w>": 6}, {"continent</w>": 6}, {"pilot</w>": 6}, {"coffee</w>": 6}, {"grey</w>": 6}, {"explained</w>": 6}, {"arriving</w>": 6}, {"2500</w>": 6}, {"lanes</w>": 6}, {"subway</w>": 6}, {"throughput</w>": 6}, {"convenience</w>": 6}, {"markets</w>": 6}, {"Early</w>": 6}, {"ease</w>": 6}, {"Add</w>": 6}, {"Knight</w>": 6}, {"illustrate</w>": 6}, {"Easy</w>": 6}, {"debris</w>": 6}, {"cobalt</w>": 6}, {"highways</w>": 6}, {"season</w>": 6}, {"buyer</w>": 6}, {"Buffett</w>": 6}, {"ETH</w>": 6}, {"wisdom</w>": 6}, {"described</w>": 6}, {"retired</w>": 6}, {"Sad</w>": 6}, {"accounting</w>": 6}, {"hrs</w>": 6}, {"castle</w>": 6}, {"sheep</w>": 6}, {"horses</w>": 6}, {"judge</w>": 6}, {"int</w>": 6}, {"GWh</w>": 6}, {"RHD</w>": 6}, {"parked</w>": 6}, {"Col": 6}, {"Radar</w>": 6}, {"Obv</w>": 6}, {"Series</w>": 6}, {"Res": 6}, {"seller</w>": 6}, {"White</w>": 6}, {"Mar": 6}, {"futuristic</w>": 6}, {"luck</w>": 6}, {"nominal</w>": 6}, {"ain</w>": 6}, {"View</w>": 6}, {"ups</w>": 6}, {"sellers</w>": 6}, {"ied</w>": 6}, {"East</w>": 6}, {"rescue</w>": 6}, {"Steven</w>": 6}, {"Investigating</w>": 6}, {"ours</w>": 6}, {"renewable</w>": 6}, {"mini</w>": 6}, {"tim": 6}, {"ely</w>": 6}, {"Under</w>": 6}, {"ker</w>": 6}, {"dre": 6}, {"housing</w>": 6}, {"Look</w>": 6}, {"journalism</w>": 6}, {"analysts</w>": 6}, {"Martin</w>": 6}, {"bday</w>": 6}, {"calls</w>": 6}, {"ment</w>": 6}, {"Product</w>": 6}, {"Paris</w>": 6}, {"taxpayers</w>": 6}, {"monopoly</w>": 6}, {"enemy</w>": 6}, {"peoples</w>": 6}, {"kn": 6}, {"Game</w>": 6}, {"drove</w>": 6}, {"loud</w>": 6}, {"Doesn</w>": 6}, {"Didn</w>": 6}, {"tuned</w>": 6}, {"cu": 6}, {"ory</w>": 6}, {"comedy</w>": 6}, {"afternoon</w>": 6}, {"MT</w>": 6}, {"monkey</w>": 6}, {"generated</w>": 6}, {"Floki</w>": 6}, {"Pure</w>": 6}, {"Megapacks</w>": 6}, {"Starlinks</w>": 6}, {"Mechazilla</w>": 6}, {"rotor</w>": 6}, {"SNL</w>": 6}, {"Tonga</w>": 6}, {"19</w>": 6}, {"Lotus</w>": 5}, {"interviews</w>": 5}, {"Change</w>": 5}, {"holidays</w>": 5}, {"reasonably</w>": 5}, {"limitation</w>": 5}, {"Cook</w>": 5}, {"ell</w>": 5}, {"reply</w>": 5}, {"pp": 5}, {"Come</w>": 5}, {"ect</w>": 5}, {"esthetic</w>": 5}, {"blown</w>": 5}, {"castings</w>": 5}, {"Warning</w>": 5}, {"naturally</w>": 5}, {"controlling</w>": 5}, {"touchdown</w>": 5}, {"Man</w>": 5}, {"adds</w>": 5}, {"stance</w>": 5}, {"filled</w>": 5}, {"Go": 5}, {"fate</w>": 5}, {"producing</w>": 5}, {"Quite</w>": 5}, {"lidar</w>": 5}, {"pointless</w>": 5}, {"Andrej</w>": 5}, {"sexy</w>": 5}, {"den</w>": 5}, {"glasses</w>": 5}, {"fixes</w>": 5}, {"dealing</w>": 5}, {"roadmap</w>": 5}, {"seemed</w>": 5}, {"cake</w>": 5}, {"dust</w>": 5}, {"DayQuil</w>": 5}, {"Frankly</w>": 5}, {"cooled</w>": 5}, {"coin</w>": 5}, {"ands</w>": 5}, {"cures</w>": 5}, {"fatigue</w>": 5}, {"maneuvering</w>": 5}, {"brutal</w>": 5}, {"labs</w>": 5}, {"ron": 5}, {"blood</w>": 5}, {"zing</w>": 5}, {"Expect</w>": 5}, {"buff</w>": 5}, {"ther": 5}, {"Sha": 5}, {"sars</w>": 5}, {"ight</w>": 5}, {"detect</w>": 5}, {"ther</w>": 5}, {"detection</w>": 5}, {"Possible</w>": 5}, {"ins</w>": 5}, {"Ne": 5}, {"equally</w>": 5}, {"title</w>": 5}, {"burst</w>": 5}, {"superpower</w>": 5}, {"creative</w>": 5}, {"financially</w>": 5}, {"Bi": 5}, {"cookie</w>": 5}, {"main": 5}, {"clock</w>": 5}, {"era</w>": 5}, {"sol": 5}, {"Neither</w>": 5}, {"recognition</w>": 5}, {"200": 5}, {"trademark</w>": 5}, {"Rec": 5}, {"ru": 5}, {"ace</w>": 5}, {"Chad</w>": 5}, {"Steve</w>": 5}, {"50M</w>": 5}, {"considerably</w>": 5}, {"incremental</w>": 5}, {"stability</w>": 5}, {"ass</w>": 5}, {"Trans": 5}, {"Fa": 5}, {"ka</w>": 5}, {"estimate</w>": 5}, {"attacks</w>": 5}, {"cro": 5}, {"Approximately</w>": 5}, {"Little</w>": 5}, {"Toyota</w>": 5}, {"print</w>": 5}, {"intentionally</w>": 5}, {"Price</w>": 5}, {"challenging</w>": 5}, {"proving</w>": 5}, {"ta</w>": 5}, {"restrictions</w>": 5}, {"description</w>": 5}, {"varies</w>": 5}, {"immune</w>": 5}, {"seater</w>": 5}, {"tunneling</w>": 5}, {"finishing</w>": 5}, {"inst": 5}, {"orb": 5}, {"grief</w>": 5}, {"element</w>": 5}, {"manual</w>": 5}, {"configurator</w>": 5}, {"Limited</w>": 5}, {"promised</w>": 5}, {"Nvidia</w>": 5}, {"card</w>": 5}, {"ep": 5}, {"capture</w>": 5}, {"mechanically</w>": 5}, {"melting</w>": 5}, {"detected</w>": 5}, {"contest</w>": 5}, {"izing</w>": 5}, {"snake</w>": 5}, {"cou": 5}, {"complicated</w>": 5}, {"stri": 5}, {"stacking</w>": 5}, {"Sandy</w>": 5}, {"licensing</w>": 5}, {"collective</w>": 5}, {"absolute</w>": 5}, {"opened</w>": 5}, {"composite</w>": 5}, {"jammed</w>": 5}, {"outstanding</w>": 5}, {"sequel</w>": 5}, {"Shortfall</w>": 5}, {"south</w>": 5}, {"frequently</w>": 5}, {"remote</w>": 5}, {"emergency</w>": 5}, {"thickness</w>": 5}, {"smoother</w>": 5}, {"Public</w>": 5}, {"Fi": 5}, {"hea": 5}, {"00": 5}, {"practical</w>": 5}, {"inaccurate</w>": 5}, {"ludicrous</w>": 5}, {"plaid</w>": 5}, {"captured</w>": 5}, {"ATV</w>": 5}, {"partners</w>": 5}, {"FP32</w>": 5}, {"expects</w>": 5}, {"ped</w>": 5}, {"hy": 5}, {"declined</w>": 5}, {"Needed</w>": 5}, {"aerospace</w>": 5}, {"correctly</w>": 5}, {"Tap</w>": 5}, {"limiting</w>": 5}, {"craters</w>": 5}, {"Civilization</w>": 5}, {"Cumulative</w>": 5}, {"GTO</w>": 5}, {"setbacks</w>": 5}, {"simultaneous</w>": 5}, {"unveiled</w>": 5}, {"prefer</w>": 5}, {"Sch": 5}, {"Touch</w>": 5}, {"gain</w>": 5}, {"rated</w>": 5}, {"modes</w>": 5}, {"hang</w>": 5}, {"sir</w>": 5}, {"recommendation</w>": 5}, {"pre</w>": 5}, {"FDA</w>": 5}, {"skirt</w>": 5}, {"carried</w>": 5}, {"proportionate</w>": 5}, {"cal": 5}, {"spaceports</w>": 5}, {"To": 5}, {"cho": 5}, {"GPT</w>": 5}, {"Bu": 5}, {"hydrocarbons</w>": 5}, {"lowering</w>": 5}, {"secure</w>": 5}, {"Power</w>": 5}, {"Guaranteed</w>": 5}, {"flamethrowers</w>": 5}, {"locally</w>": 5}, {"dirt</w>": 5}, {"bound</w>": 5}, {"na": 5}, {"sized</w>": 5}, {"trapped</w>": 5}, {"remotely</w>": 5}, {"tic": 5}, {"joining</w>": 5}, {"restored</w>": 5}, {"Powerpack</w>": 5}, {"le": 5}, {"owned</w>": 5}, {"reads</w>": 5}, {"Zealand</w>": 5}, {"BBC</w>": 5}, {"hundred</w>": 5}, {"pyramids</w>": 5}, {"stands</w>": 5}, {"duration</w>": 5}, {"Heart</w>": 5}, {"neurons</w>": 5}, {"mus": 5}, {"boss</w>": 5}, {"Bill</w>": 5}, {"sedan</w>": 5}, {"Das</w>": 5}, {"Lithium</w>": 5}, {"sion</w>": 5}, {"restaurant</w>": 5}, {"Fire</w>": 5}, {"whistle</w>": 5}, {"ills</w>": 5}, {"payments</w>": 5}, {"actu": 5}, {"soul</w>": 5}, {"du": 5}, {"names</w>": 5}, {"mentions</w>": 5}, {"constant</w>": 5}, {"loses</w>": 5}, {"electrical</w>": 5}, {"Sum": 5}, {"bias</w>": 5}, {"hidden</w>": 5}, {"competitor</w>": 5}, {"paranoid</w>": 5}, {"Maximizing</w>": 5}, {"affordability</w>": 5}, {"Effect</w>": 5}, {"quarks</w>": 5}, {"counts</w>": 5}, {"repeated</w>": 5}, {"promote</w>": 5}, {"invite</w>": 5}, {"emerald</w>": 5}, {"Vance</w>": 5}, {"Ask</w>": 5}, {"cr": 5}, {"cards</w>": 5}, {"curated</w>": 5}, {"handful</w>": 5}, {"Someone</w>": 5}, {"paying</w>": 5}, {"tariffs</w>": 5}, {"trim</w>": 5}, {"ang</w>": 5}, {"reasoning</w>": 5}, {"Likely</w>": 5}, {"crushed</w>": 5}, {"Jay</w>": 5}, {"80</w>": 5}, {"shifting</w>": 5}, {"sets</w>": 5}, {"3k</w>": 5}, {"1k</w>": 5}, {"limbic</w>": 5}, {"exclu": 5}, {"gatherings</w>": 5}, {"Comes</w>": 5}, {"bother</w>": 5}, {"adjusting</w>": 5}, {"injector</w>": 5}, {"stiffness</w>": 5}, {"instructions</w>": 5}, {"tering</w>": 5}, {"content</w>": 5}, {"beam</w>": 5}, {"work": 5}, {"manufacturers</w>": 5}, {"ell": 5}, {"temps</w>": 5}, {"Ironic</w>": 5}, {"Bad</w>": 5}, {"sole</w>": 5}, {"sourced</w>": 5}, {"Upcoming</w>": 5}, {"ternary</w>": 5}, {"pri": 5}, {"ore</w>": 5}, {"business</w>": 5}, {"Dawn</w>": 5}, {"Franz</w>": 5}, {"Take</w>": 5}, {"president</w>": 5}, {"owns</w>": 5}, {"connect</w>": 5}, {"rac": 5}, {"ously</w>": 5}, {"tar": 5}, {"masks</w>": 5}, {"devil</w>": 5}, {"Honestly</w>": 5}, {"ink</w>": 5}, {"Governor</w>": 5}, {"Tough</w>": 5}, {"Newton</w>": 5}, {"Ab": 5}, {"lation</w>": 5}, {"por": 5}, {"carmaker</w>": 5}, {"fre": 5}, {"pla": 5}, {"smashed</w>": 5}, {"do": 5}, {"Per": 5}, {"healthy</w>": 5}, {"Weird</w>": 5}, {"iz": 5}, {"brave</w>": 5}, {"mad</w>": 5}, {"sale</w>": 5}, {"rage</w>": 5}, {"headline</w>": 5}, {"explode</w>": 5}, {"Dark</w>": 5}, {"sheet</w>": 5}, {"lab": 5}, {"Autonomy</w>": 5}, {"panel</w>": 5}, {"questionable</w>": 5}, {"brightness</w>": 5}, {"Blue</w>": 5}, {"Johnson</w>": 5}, {"mask</w>": 5}, {"informed</w>": 5}, {"Starfleet</w>": 5}, {"subsonic</w>": 5}, {"laps</w>": 5}, {"actuator</w>": 5}, {"redesign</w>": 5}, {"requests</w>": 5}, {"breathing</w>": 5}, {"comfortable</w>": 5}, {"throat</w>": 5}, {"offers</w>": 5}, {"horse</w>": 5}, {"retrofit</w>": 5}, {"coaster</w>": 5}, {"quote</w>": 5}, {"Be": 5}, {"redundant</w>": 5}, {"valves</w>": 5}, {"Nor": 5}, {"9</w>": 5}, {"entering</w>": 5}, {"treating</w>": 5}, {"peace</w>": 5}, {"panic</w>": 5}, {"Adams</w>": 5}, {"q": 5}, {"Heat</w>": 5}, {"shortage</w>": 5}, {"Mon": 5}, {"aborted</w>": 5}, {"functions</w>": 5}, {"expense</w>": 5}, {"matches</w>": 5}, {"5000</w>": 5}, {"brother</w>": 5}, {"uck</w>": 5}, {"rights</w>": 5}, {"cen": 5}, {"preparing</w>": 5}, {"Active</w>": 5}, {"payloads</w>": 5}, {"Tra": 5}, {"locked</w>": 5}, {"joints</w>": 5}, {"survive</w>": 5}, {"intact</w>": 5}, {"vit": 5}, {"tics</w>": 5}, {"SolarGlass</w>": 5}, {"breaking</w>": 5}, {"brand</w>": 5}, {"modified</w>": 5}, {"tuning</w>": 5}, {"career</w>": 5}, {"shifts</w>": 5}, {"train</w>": 5}, {"preferred</w>": 5}, {"potentially</w>": 5}, {"ational</w>": 5}, {"dra": 5}, {"plenty</w>": 5}, {"text</w>": 5}, {"Des": 5}, {"affecting</w>": 5}, {"Cha": 5}, {"ancy</w>": 5}, {"Infinite</w>": 5}, {"theater</w>": 5}, {"helped</w>": 5}, {"fication</w>": 5}, {"inhibit</w>": 5}, {"mentioning</w>": 5}, {"conservative</w>": 5}, {"emojis</w>": 5}, {"go": 5}, {"pressurized</w>": 5}, {"end": 5}, {"fish</w>": 5}, {"pool</w>": 5}, {"manually</w>": 5}, {"crushing</w>": 5}, {"os</w>": 5}, {"choosing</w>": 5}, {"Bricks</w>": 5}, {"Convention</w>": 5}, {"awful</w>": 5}, {"Build</w>": 5}, {"merely</w>": 5}, {"roaming</w>": 5}, {"lock</w>": 5}, {"toast</w>": 5}, {"infotainment</w>": 5}, {"Excession</w>": 5}, {"Surface</w>": 5}, {"Detail</w>": 5}, {"vat</w>": 5}, {"skull</w>": 5}, {"confusing</w>": 5}, {"audience</w>": 5}, {"steal</w>": 5}, {"transmission</w>": 5}, {"replacing</w>": 5}, {"Speed</w>": 5}, {"Hydrogen</w>": 5}, {"coefficient</w>": 5}, {"eng</w>": 5}, {"finest</w>": 5}, {"Bring</w>": 5}, {"Halo</w>": 5}, {"fraud</w>": 5}, {"Sustainable</w>": 5}, {"Meaning</w>": 5}, {"infinite</w>": 5}, {"fought</w>": 5}, {"experienced</w>": 5}, {"sufficient</w>": 5}, {"Lake</w>": 5}, {"Gas</w>": 5}, {"conference</w>": 5}, {"Drag</w>": 5}, {"disaster</w>": 5}, {"Homes</w>": 5}, {"destruction</w>": 5}, {"profitable</w>": 5}, {"calibration</w>": 5}, {"myth</w>": 5}, {"award</w>": 5}, {"awe</w>": 5}, {"painful</w>": 5}, {"impulse</w>": 5}, {"380</w>": 5}, {"120</w>": 5}, {"Value</w>": 5}, {"equation</w>": 5}, {"supportive</w>": 5}, {"reviewed</w>": 5}, {"beg</w>": 5}, {"SX500</w>": 5}, {"Feature</w>": 5}, {"viewing</w>": 5}, {"processes</w>": 5}, {"regime</w>": 5}, {"continued</w>": 5}, {"Talulah</w>": 5}, {"Bot</w>": 5}, {"Pay</w>": 5}, {"intent</w>": 5}, {"Wanted</w>": 5}, {"assembled</w>": 5}, {"connector</w>": 5}, {"timeline</w>": 5}, {"comet</w>": 5}, {"particular</w>": 5}, {"cancel</w>": 5}, {"immense</w>": 5}, {"language</w>": 5}, {"spirit</w>": 5}, {"taxi</w>": 5}, {"millinery</w>": 5}, {"pros</w>": 5}, {"convincing</w>": 5}, {"Unlikely</w>": 5}, {"flown</w>": 5}, {"USB</w>": 5}, {"reflective</w>": 5}, {"Post</w>": 5}, {"clearing</w>": 5}, {"Basic</w>": 5}, {"pearl</w>": 5}, {"Presentation</w>": 5}, {"streaming</w>": 5}, {"branch</w>": 5}, {"upgradable</w>": 5}, {"Listening</w>": 5}, {"cyclists</w>": 5}, {"400</w>": 5}, {"flush</w>": 5}, {"touching</w>": 5}, {"critique</w>": 5}, {"presumably</w>": 5}, {"mug</w>": 5}, {"Odds</w>": 5}, {"Planning</w>": 5}, {"maintenance</w>": 5}, {"Yet</w>": 5}, {"Wars</w>": 5}, {"Unlike</w>": 5}, {"various</w>": 5}, {"decent</w>": 5}, {"Wings</w>": 5}, {"uncertainty</w>": 5}, {"carefully</w>": 5}, {"Audi</w>": 5}, {"elevators</w>": 5}, {"Opposite</w>": 5}, {"imply</w>": 5}, {"enhanced</w>": 5}, {"Tower</w>": 5}, {"colony</w>": 5}, {"GoT</w>": 5}, {"VTOL</w>": 5}, {"porting</w>": 5}, {"trickery</w>": 5}, {"advertise</w>": 5}, {"endorsements</w>": 5}, {"touchscreen</w>": 5}, {"Secret</w>": 5}, {"Answer</w>": 5}, {"Tintin</w>": 5}, {"Tight</w>": 5}, {"dogs</w>": 5}, {"Jeff</w>": 5}, {"purple</w>": 5}, {"retains</w>": 5}, {"Superdraco</w>": 5}, {"glitch</w>": 5}, {"connection</w>": 5}, {"Warren</w>": 5}, {"Ethereum</w>": 5}, {"productive</w>": 5}, {"Xavier</w>": 5}, {"Los</w>": 5}, {"Angeles</w>": 5}, {"automakers</w>": 5}, {"Comments</w>": 5}, {"inspection</w>": 5}, {"Bloomberg</w>": 5}, {"holy</w>": 5}, {"hello</w>": 5}, {"consistent</w>": 5}, {"cryptocurrency</w>": 5}, {"ries</w>": 5}, {"een</w>": 5}, {"slam</w>": 5}, {"Work</w>": 5}, {"referral</w>": 5}, {"prize</w>": 5}, {"decided</w>": 5}, {"partial</w>": 5}, {"fla": 5}, {"RD</w>": 5}, {"specs</w>": 5}, {"Ex": 5}, {"pays</w>": 5}, {"Pr": 5}, {"oversight</w>": 5}, {"hi</w>": 5}, {"inter</w>": 5}, {"ut</w>": 5}, {"chief</w>": 5}, {"No": 5}, {"holds</w>": 5}, {"logo</w>": 5}, {"mirror</w>": 5}, {"grandfather</w>": 5}, {"blocks</w>": 5}, {"refer</w>": 5}, {"suborbital</w>": 5}, {"steady</w>": 5}, {"uni": 5}, {"simulations</w>": 5}, {"7500</w>": 5}, {"rel": 5}, {"connecting</w>": 5}, {"jo": 5}, {"gu": 5}, {"ops</w>": 5}, {"boo": 5}, {"Si": 5}, {"Grid</w>": 5}, {"Plan</w>": 5}, {"None</w>": 5}, {"brief</w>": 5}, {"Thought</w>": 5}, {"incent</w>": 5}, {"approx</w>": 5}, {"Signing</w>": 5}, {"bricks</w>": 5}, {"minimizing</w>": 5}, {"20": 5}, {"Law</w>": 5}, {"sponge</w>": 5}, {"sight</w>": 5}, {"Taking</w>": 5}, {"shops</w>": 5}, {"painted</w>": 5}, {"War": 5}, {"boom</w>": 5}, {"ents</w>": 5}, {"sel": 5}, {"taught</w>": 5}, {"ry</w>": 5}, {"iPhone</w>": 5}, {"ade</w>": 5}, {"PR</w>": 5}, {"Mc": 5}, {"ess": 5}, {"ared</w>": 5}, {"adult</w>": 5}, {"Iridium</w>": 5}, {"Flint</w>": 5}, {"ler</w>": 5}, {"savings</w>": 5}, {"donated</w>": 5}, {"dialogue</w>": 5}, {"narrow</w>": 5}, {"Godspeed</w>": 5}, {"puff</w>": 5}, {"compensate</w>": 5}, {"trading</w>": 5}, {"employee</w>": 5}, {"outlets</w>": 5}, {"aspire</w>": 5}, {"5B</w>": 5}, {"override</w>": 5}, {"believing</w>": 5}, {"Today</w>": 5}, {"Du": 5}, {"corruption</w>": 5}, {"donating</w>": 5}, {"begun</w>": 5}, {"Spaceship</w>": 5}, {"editor</w>": 5}, {"bumper</w>": 5}, {"recirc</w>": 5}, {"Ich</w>": 5}, {"items</w>": 5}, {"removing</w>": 5}, {"poll</w>": 5}, {"suggesting</w>": 5}, {"Global</w>": 5}, {"characters</w>": 5}, {"lets</w>": 5}, {"Hate</w>": 5}, {"meaning</w>": 5}, {"BS</w>": 5}, {"stopping</w>": 5}, {"voting</w>": 5}, {"squ": 5}, {"signature</w>": 5}, {"BMW</w>": 5}, {"bunch</w>": 5}, {"bon": 5}, {"Starman</w>": 5}, {"carrying</w>": 5}, {"unveiling</w>": 5}, {"Apparently</w>": 5}, {"45</w>": 5}, {"bear</w>": 5}, {"hats</w>": 5}, {"Korea</w>": 5}, {"temporary</w>": 5}, {"DoD</w>": 5}, {"Ariane</w>": 5}, {"Senate</w>": 5}, {"grows</w>": 5}, {"Droneship</w>": 5}, {"HW1</w>": 5}, {"oned</w>": 5}, {"permit</w>": 5}, {"Climate</w>": 5}, {"merger</w>": 5}, {"Ju": 5}, {"Thurs</w>": 5}, {"popular</w>": 5}, {"P85D</w>": 5}, {"Formula</w>": 5}, {"West</w>": 5}, {"splashdown</w>": 5}, {"biological</w>": 5}, {"Potentially</w>": 5}, {"studio</w>": 5}, {"mandate</w>": 5}, {"Santa</w>": 5}, {"compiler</w>": 5}, {"scores</w>": 5}, {"Hertz</w>": 5}, {"Biden</w>": 5}, {"rarely</w>": 5}, {"Optimus</w>": 5}, {"pixels</w>": 5}, {"serves</w>": 5}, {"expectancy</w>": 5}, {"hashing</w>": 5}, {"Dave</w>": 5}, {"operates</w>": 5}, {"Entertainment</w>": 4}, {"Ta": 4}, {"adap": 4}, {"acc": 4}, {"extended</w>": 4}, {"predictable</w>": 4}, {"absorb</w>": 4}, {"Cap": 4}, {"CPU</w>": 4}, {"Minor</w>": 4}, {"tion": 4}, {"refused</w>": 4}, {"Mac": 4}, {"conversations</w>": 4}, {"Kevlar</w>": 4}, {"mere</w>": 4}, {"linear</w>": 4}, {"Hea": 4}, {"briefly</w>": 4}, {"Steam</w>": 4}, {"transpiration</w>": 4}, {"coo": 4}, {"crater</w>": 4}, {"tele": 4}, {"sym": 4}, {"bacteria</w>": 4}, {"mit</w>": 4}, {"ner</w>": 4}, {"toilet</w>": 4}, {"Paint</w>": 4}, {"mem": 4}, {"16</w>": 4}, {"betting</w>": 4}, {"sl": 4}, {"SN15</w>": 4}, {"Rapid</w>": 4}, {"fps</w>": 4}, {"Tomorrow</w>": 4}, {"lightning</w>": 4}, {"wow</w>": 4}, {"Martians</w>": 4}, {"impressed</w>": 4}, {"mild</w>": 4}, {"Ct</w>": 4}, {"tail</w>": 4}, {"Mer": 4}, {"scientific</w>": 4}, {"1M</w>": 4}, {"ables</w>": 4}, {"covering</w>": 4}, {"blades</w>": 4}, {"atoms</w>": 4}, {"inspiration</w>": 4}, {"Gu": 4}, {"Witcher</w>": 4}, {"collection</w>": 4}, {"ular</w>": 4}, {"fist</w>": 4}, {"sample</w>": 4}, {"runs</w>": 4}, {"Oxford</w>": 4}, {"General</w>": 4}, {"Sound</w>": 4}, {"dicey</w>": 4}, {"spike</w>": 4}, {"ama": 4}, {"decline</w>": 4}, {"percentage</w>": 4}, {"NyQuil</w>": 4}, {"Sy": 4}, {"mp": 4}, {"Results</w>": 4}, {"pneumatics</w>": 4}, {"Enough</w>": 4}, {"supercomputer</w>": 4}, {"photos</w>": 4}, {"calculations</w>": 4}, {"dynamically</w>": 4}, {"Frame</w>": 4}, {"Ph": 4}, {"vers</w>": 4}, {"Maxwell</w>": 4}, {"Send</w>": 4}, {"ky</w>": 4}, {"stal": 4}, {"Difficult</w>": 4}, {"plug</w>": 4}, {"Lower</w>": 4}, {"latitude</w>": 4}, {"parti": 4}, {"livestream</w>": 4}, {"tends</w>": 4}, {"constellation</w>": 4}, {"fry</w>": 4}, {"converts</w>": 4}, {"stranger</w>": 4}, {"sml</w>": 4}, {"ak": 4}, {"ool</w>": 4}, {"log</w>": 4}, {"toy</w>": 4}, {"Sil": 4}, {"graphics</w>": 4}, {"scrap</w>": 4}, {"spare</w>": 4}, {"tes": 4}, {"alization</w>": 4}, {"clarification</w>": 4}, {"pace</w>": 4}, {"fart</w>": 4}, {"Applies</w>": 4}, {"rental</w>": 4}, {"Bar</w>": 4}, {"tbd</w>": 4}, {"examine</w>": 4}, {"Pushing</w>": 4}, {"mate</w>": 4}, {"Firmware</w>": 4}, {"sequ": 4}, {"ile</w>": 4}, {"tension</w>": 4}, {"welds</w>": 4}, {"Diess</w>": 4}, {"Vast</w>": 4}, {"civilian</w>": 4}, {"military</w>": 4}, {"ego</w>": 4}, {"edits</w>": 4}, {"wh": 4}, {"gl": 4}, {"Michael</w>": 4}, {"Eberhard</w>": 4}, {"homes</w>": 4}, {"Her": 4}, {"vulnerable</w>": 4}, {"tier</w>": 4}, {"crushes</w>": 4}, {"victory</w>": 4}, {"jazz</w>": 4}, {"specialized</w>": 4}, {"lifts</w>": 4}, {"balls</w>": 4}, {"gantry</w>": 4}, {"absorption</w>": 4}, {"continuously</w>": 4}, {"tu": 4}, {"smoothly</w>": 4}, {"climb</w>": 4}, {"retest</w>": 4}, {"northern</w>": 4}, {"ze</w>": 4}, {"intake</w>": 4}, {"Larger</w>": 4}, {"Powerglide</w>": 4}, {"skip</w>": 4}, {"holes</w>": 4}, {"longitudinal</w>": 4}, {"circumferential</w>": 4}, {"spo": 4}, {"referring</w>": 4}, {"Completely</w>": 4}, {"Bro": 4}, {"mixture</w>": 4}, {"writer</w>": 4}, {"bow</w>": 4}, {"appealing</w>": 4}, {"Le": 4}, {"ners</w>": 4}, {"demonstrated</w>": 4}, {"prediction</w>": 4}, {"Microsoft</w>": 4}, {"Fine</w>": 4}, {"north</w>": 4}, {"Star": 4}, {"Story</w>": 4}, {"warp</w>": 4}, {"Neuralinks</w>": 4}, {"grave</w>": 4}, {"Movie</w>": 4}, {"wearing</w>": 4}, {"excitement</w>": 4}, {"opt</w>": 4}, {"contingent</w>": 4}, {"hvac</w>": 4}, {"Bit": 4}, {"Munger</w>": 4}, {"formula</w>": 4}, {"chess</w>": 4}, {"proportionately</w>": 4}, {"electronics</w>": 4}, {"lossy</w>": 4}, {"bell</w>": 4}, {"Trust</w>": 4}, {"picking</w>": 4}, {"reson": 4}, {"James</w>": 4}, {"ism</w>": 4}, {"Penn</w>": 4}, {"Nonetheless</w>": 4}, {"ection</w>": 4}, {"fe</w>": 4}, {"treatment</w>": 4}, {"accurately</w>": 4}, {"imp": 4}, {"thy</w>": 4}, {"gap</w>": 4}, {"Web": 4}, {"folded</w>": 4}, {"stays</w>": 4}, {"ute</w>": 4}, {"densi": 4}, {"dot</w>": 4}, {"Comp": 4}, {"frequent</w>": 4}, {"sch": 4}, {"stu": 4}, {"far": 4}, {"sen</w>": 4}, {"lake</w>": 4}, {"Direct</w>": 4}, {"sible</w>": 4}, {"voted</w>": 4}, {"inherently</w>": 4}, {"bet</w>": 4}, {"regard</w>": 4}, {"Payload</w>": 4}, {"squeeze</w>": 4}, {"Works</w>": 4}, {"swiftly</w>": 4}, {"flameout</w>": 4}, {"intersect</w>": 4}, {"observed</w>": 4}, {"History</w>": 4}, {"Cy": 4}, {"sis</w>": 4}, {"consistency</w>": 4}, {"insights</w>": 4}, {"approximately</w>": 4}, {"sooo</w>": 4}, {"patch</w>": 4}, {"perfectly</w>": 4}, {"zillion</w>": 4}, {"architectural</w>": 4}, {"ization</w>": 4}, {"geo": 4}, {"relevance</w>": 4}, {"che</w>": 4}, {"meters</w>": 4}, {"waste</w>": 4}, {"taxpayer</w>": 4}, {"RP</w>": 4}, {"cousins</w>": 4}, {"Saskatchewan</w>": 4}, {"shares</w>": 4}, {"distr": 4}, {"docile</w>": 4}, {"qui": 4}, {"plasma</w>": 4}, {"SuperDraco</w>": 4}, {"Par": 4}, {"Difficulty</w>": 4}, {"lasting</w>": 4}, {"Things</w>": 4}, {"mos</w>": 4}, {"brains</w>": 4}, {"Utah</w>": 4}, {"Rob": 4}, {"buggy</w>": 4}, {"Whether</w>": 4}, {"Planet</w>": 4}, {"don": 4}, {"Turning</w>": 4}, {"shade</w>": 4}, {"whom</w>": 4}, {"hun": 4}, {"marks</w>": 4}, {"legislation</w>": 4}, {"Competition</w>": 4}, {"remarkably</w>": 4}, {"insightful</w>": 4}, {"Ti": 4}, {"seated</w>": 4}, {"slo": 4}, {"Brian</w>": 4}, {"VR</w>": 4}, {"av": 4}, {"ars</w>": 4}, {"dri": 4}, {"spine</w>": 4}, {"electr": 4}, {"biz</w>": 4}, {"negativity</w>": 4}, {"pyramid</w>": 4}, {"Considering</w>": 4}, {"sive</w>": 4}, {"database</w>": 4}, {"Population</w>": 4}, {"airplane</w>": 4}, {"paramount</w>": 4}, {"anytime</w>": 4}, {"resi": 4}, {"ev": 4}, {"ning</w>": 4}, {"em</w>": 4}, {"Words</w>": 4}, {"continuance</w>": 4}, {"Age</w>": 4}, {"edition</w>": 4}, {"fools</w>": 4}, {"engaged</w>": 4}, {"effectively</w>": 4}, {"denial</w>": 4}, {"Vanity</w>": 4}, {"RO": 4}, {"viewed</w>": 4}, {"2000</w>": 4}, {"suitcase</w>": 4}, {"ack": 4}, {"ban": 4}, {"deck</w>": 4}, {"ports</w>": 4}, {"Article</w>": 4}, {"sketch</w>": 4}, {"Front</w>": 4}, {"SEC</w>": 4}, {"Party</w>": 4}, {"revoked</w>": 4}, {"lin": 4}, {"declining</w>": 4}, {"receives</w>": 4}, {"Dogs</w>": 4}, {"copy</w>": 4}, {"shared</w>": 4}, {"met": 4}, {"highs</w>": 4}, {"trucking</w>": 4}, {"So": 4}, {"Half</w>": 4}, {"excessive</w>": 4}, {"ulate</w>": 4}, {"click</w>": 4}, {"postpone</w>": 4}, {"Opening</w>": 4}, {"med</w>": 4}, {"Tank</w>": 4}, {"supports</w>": 4}, {"enters</w>": 4}, {"mixed</w>": 4}, {"cheaper</w>": 4}, {"headlines</w>": 4}, {"insulation</w>": 4}, {"subcooled</w>": 4}, {"ount</w>": 4}, {"Reading</w>": 4}, {"angry</w>": 4}, {"itted</w>": 4}, {"broadly</w>": 4}, {"prime</w>": 4}, {"sonar</w>": 4}, {"adventure</w>": 4}, {"pan": 4}, {"Neil</w>": 4}, {"Off</w>": 4}, {"atch</w>": 4}, {"countdown</w>": 4}, {"upset</w>": 4}, {"rises</w>": 4}, {"plethora</w>": 4}, {"Marx</w>": 4}, {"Smith</w>": 4}, {"citizen</w>": 4}, {"remarkable</w>": 4}, {"New": 4}, {"Candy</w>": 4}, {"Wh": 4}, {"bodies</w>": 4}, {"ong</w>": 4}, {"Operating</w>": 4}, {"illnesses</w>": 4}, {"valid</w>": 4}, {"counted</w>": 4}, {"Said</w>": 4}, {"triple</w>": 4}, {"Jared</w>": 4}, {"policies</w>": 4}, {"uc": 4}, {"Personally</w>": 4}, {"Mothers</w>": 4}, {"thers</w>": 4}, {"ff</w>": 4}, {"Mayor</w>": 4}, {"tain</w>": 4}, {"child</w>": 4}, {"Stri": 4}, {"5M</w>": 4}, {"atory</w>": 4}, {"mirrors</w>": 4}, {"tastes</w>": 4}, {"Peak</w>": 4}, {"tragic</w>": 4}, {"Ice</w>": 4}, {"Fl": 4}, {"street</w>": 4}, {"destinations</w>": 4}, {"vibes</w>": 4}, {"stamped</w>": 4}, {"stamp</w>": 4}, {"distinguish</w>": 4}, {"deny</w>": 4}, {"accelerates</w>": 4}, {"multi": 4}, {"songs</w>": 4}, {"Freedom</w>": 4}, {"ss": 4}, {"ession</w>": 4}, {"weigh</w>": 4}, {"sti": 4}, {"Bravo</w>": 4}, {"vo": 4}, {"moral</w>": 4}, {"ately</w>": 4}, {"claims</w>": 4}, {"switching</w>": 4}, {"Romance</w>": 4}, {"pucker</w>": 4}, {"serial</w>": 4}, {"prof": 4}, {"designing</w>": 4}, {"Being</w>": 4}, {"ean</w>": 4}, {"quieter</w>": 4}, {"cleaning</w>": 4}, {"sun": 4}, {"shades</w>": 4}, {"dawn</w>": 4}, {"reported</w>": 4}, {"ulates</w>": 4}, {"see": 4}, {"returns</w>": 4}, {"simplicity</w>": 4}, {"spar": 4}, {"dynamic</w>": 4}, {"shipment</w>": 4}, {"unaware</w>": 4}, {"ming</w>": 4}, {"CNN</w>": 4}, {"advocates</w>": 4}, {"Initial</w>": 4}, {"sides</w>": 4}, {"helicopter</w>": 4}, {"intratracheal</w>": 4}, {"ved</w>": 4}, {"interstage</w>": 4}, {"Philips</w>": 4}, {"lung</w>": 4}, {"investment</w>": 4}, {"repaid</w>": 4}, {"realistic</w>": 4}, {"predictions</w>": 4}, {"As": 4}, {"wanting</w>": 4}, {"Each</w>": 4}, {"ound</w>": 4}, {"SN3</w>": 4}, {"doomed</w>": 4}, {"ir</w>": 4}, {"transitioning</w>": 4}, {"activated</w>": 4}, {"favorites</w>": 4}, {"matic</w>": 4}, {"brilliant</w>": 4}, {"vents</w>": 4}, {"zz": 4}, {"preventing</w>": 4}, {"pressing</w>": 4}, {"CDC</w>": 4}, {"estimated</w>": 4}, {"pls</w>": 4}, {"integrity</w>": 4}, {"air": 4}, {"Italy</w>": 4}, {"cent</w>": 4}, {"harm</w>": 4}, {"sophisticated</w>": 4}, {"insertion</w>": 4}, {"Sho": 4}, {"mal": 4}, {"chloroquine</w>": 4}, {"knowing</w>": 4}, {"Former</w>": 4}, {"mega</w>": 4}, {"killed</w>": 4}, {"vibe</w>": 4}, {"puck</w>": 4}, {"facilities</w>": 4}, {"hor": 4}, {"heights</w>": 4}, {"ined</w>": 4}, {"vital</w>": 4}, {"ighter</w>": 4}, {"attachment</w>": 4}, {"cones</w>": 4}, {"ny</w>": 4}, {"ach</w>": 4}, {"regulated</w>": 4}, {"gradually</w>": 4}, {"stated</w>": 4}, {"Shi": 4}, {"speeds</w>": 4}, {"beating</w>": 4}, {"tend</w>": 4}, {"thering</w>": 4}, {"ton": 4}, {"US": 4}, {"ongoing</w>": 4}, {"seamlessly</w>": 4}, {"perform</w>": 4}, {"parameters</w>": 4}, {"quotes</w>": 4}, {"anger</w>": 4}, {"handed</w>": 4}, {"hottest</w>": 4}, {"personnel</w>": 4}, {"ture</w>": 4}, {"measures</w>": 4}, {"comparable</w>": 4}, {"War</w>": 4}, {"Be</w>": 4}, {"enjoying</w>": 4}, {"IS": 4}, {"planted</w>": 4}, {"Peace</w>": 4}, {"Netflix</w>": 4}, {"couldve</w>": 4}, {"depart</w>": 4}, {"yield</w>": 4}, {"MRI</w>": 4}, {"discussions</w>": 4}, {"staggering</w>": 4}, {"10": 4}, {"ble</w>": 4}, {"King</w>": 4}, {"UFO</w>": 4}, {"follower</w>": 4}, {"ana</w>": 4}, {"nested</w>": 4}, {"module</w>": 4}, {"arc</w>": 4}, {"hi": 4}, {"Simulation</w>": 4}, {"ve": 4}, {"efforts</w>": 4}, {"mountains</w>": 4}, {"Put</w>": 4}, {"knife</w>": 4}, {"Went</w>": 4}, {"Univ</w>": 4}, {"Greg</w>": 4}, {"200k</w>": 4}, {"fringe</w>": 4}, {"SN20</w>": 4}, {"pillar</w>": 4}, {"diagonal</w>": 4}, {"swipe</w>": 4}, {"autonav</w>": 4}, {"evening</w>": 4}, {"scroll</w>": 4}, {"distances</w>": 4}, {"jack</w>": 4}, {"wanna</w>": 4}, {"finding</w>": 4}, {"resolve</w>": 4}, {"proceeds</w>": 4}, {"gift</w>": 4}, {"smiths</w>": 4}, {"moth</w>": 4}, {"indicates</w>": 4}, {"Propulsion</w>": 4}, {"Until</w>": 4}, {"Russ</w>": 4}, {"Mitchell</w>": 4}, {"Gigawatt</w>": 4}, {"calcs</w>": 4}, {"generates</w>": 4}, {"illegal</w>": 4}, {"doorstep</w>": 4}, {"sculpture</w>": 4}, {"dainty</w>": 4}, {"cracked</w>": 4}, {"sledgehammer</w>": 4}, {"Avg</w>": 4}, {"worthless</w>": 4}, {"Ur</w>": 4}, {"Mordor</w>": 4}, {"variation</w>": 4}, {"confined</w>": 4}, {"extinction</w>": 4}, {"Falcons</w>": 4}, {"Naturally</w>": 4}, {"Pitch</w>": 4}, {"occur</w>": 4}, {"Airborne</w>": 4}, {"Halloween</w>": 4}, {"Race</w>": 4}, {"Walking</w>": 4}, {"snacks</w>": 4}, {"legit</w>": 4}, {"google</w>": 4}, {"reducing</w>": 4}, {"chemical</w>": 4}, {"Zillow</w>": 4}, {"lovely</w>": 4}, {"strongest</w>": 4}, {"inert</w>": 4}, {"Gwynne</w>": 4}, {"earliest</w>": 4}, {"lifespan</w>": 4}, {"FUD</w>": 4}, {"Internal</w>": 4}, {"blackout</w>": 4}, {"asymmetry</w>": 4}, {"Common</w>": 4}, {"Couple</w>": 4}, {"guesses</w>": 4}, {"refueling</w>": 4}, {"pot</w>": 4}, {"carrier</w>": 4}, {"refill</w>": 4}, {"senior</w>": 4}, {"authority</w>": 4}, {"caraoke</w>": 4}, {"karaoke</w>": 4}, {"siq</w>": 4}, {"hinge</w>": 4}, {"loaner</w>": 4}, {"harness</w>": 4}, {"credits</w>": 4}, {"Class</w>": 4}, {"asteroid</w>": 4}, {"Ashok</w>": 4}, {"pink</w>": 4}, {"customized</w>": 4}, {"proceed</w>": 4}, {"metals</w>": 4}, {"examination</w>": 4}, {"exceptions</w>": 4}, {"redundancy</w>": 4}, {"maps</w>": 4}, {"weirdly</w>": 4}, {"supported</w>": 4}, {"skydiver</w>": 4}, {"Foundry</w>": 4}, {"exclusively</w>": 4}, {"shapes</w>": 4}, {"ACS</w>": 4}, {"Mk2</w>": 4}, {"Stability</w>": 4}, {"warned</w>": 4}, {"Je</w>": 4}, {"regrette</w>": 4}, {"Feeling</w>": 4}, {"Lucky</w>": 4}, {"starter</w>": 4}, {"buffer</w>": 4}, {"onboard</w>": 4}, {"engage</w>": 4}, {"Ireland</w>": 4}, {"bargaining</w>": 4}, {"reflect</w>": 4}, {"premise</w>": 4}, {"smoke</w>": 4}, {"Speedraptor</w>": 4}, {"mechanism</w>": 4}, {"vibration</w>": 4}, {"older</w>": 4}, {"fireball</w>": 4}, {"concepts</w>": 4}, {"angels</w>": 4}, {"Probability</w>": 4}, {"permanently</w>": 4}, {"Gasoline</w>": 4}, {"Anywhere</w>": 4}, {"Appears</w>": 4}, {"Nuke</w>": 4}, {"suns</w>": 4}, {"certification</w>": 4}, {"United</w>": 4}, {"States</w>": 4}, {"babe</w>": 4}, {"hazard</w>": 4}, {"Stacking</w>": 4}, {"aspires</w>": 4}, {"Approx</w>": 4}, {"100B</w>": 4}, {"Priority</w>": 4}, {"Spirit</w>": 4}, {"merit</w>": 4}, {"unbelted</w>": 4}, {"Queen</w>": 4}, {"Eric</w>": 4}, {"skillz</w>": 4}, {"Hat</w>": 4}, {"explaining</w>": 4}, {"cons</w>": 4}, {"funded</w>": 4}, {"sonic</w>": 4}, {"Say</w>": 4}, {"Centers</w>": 4}, {"Bluetooth</w>": 4}, {"enjoyed</w>": 4}, {"Unity</w>": 4}, {"Drone</w>": 4}, {"towers</w>": 4}, {"emissivity</w>": 4}, {"particle</w>": 4}, {"yellow</w>": 4}, {"fairings</w>": 4}, {"Dance</w>": 4}, {"Odd</w>": 4}, {"bothered</w>": 4}, {"dislike</w>": 4}, {"Starts</w>": 4}, {"bets</w>": 4}, {"activation</w>": 4}, {"Upgrading</w>": 4}, {"mall</w>": 4}, {"Cat</w>": 4}, {"returning</w>": 4}, {"Playing</w>": 4}, {"Li</w>": 4}, {"export</w>": 4}, {"poured</w>": 4}, {"regrets</w>": 4}, {"noticed</w>": 4}, {"St</w>": 4}, {"A380</w>": 4}, {"Altitude</w>": 4}, {"breathe</w>": 4}, {"drink</w>": 4}, {"Chomsky</w>": 4}, {"throttling</w>": 4}, {"limitations</w>": 4}, {"Swear</w>": 4}, {"shock</w>": 4}, {"bearings</w>": 4}, {"simplifying</w>": 4}, {"Changing</w>": 4}, {"Non</w>": 4}, {"Missed</w>": 4}, {"Ass</w>": 4}, {"unwieldy</w>": 4}, {"800</w>": 4}, {"Strong</w>": 4}, {"fog</w>": 4}, {"hire</w>": 4}, {"worthwhile</w>": 4}, {"dozens</w>": 4}, {"bee</w>": 4}, {"Scientists</w>": 4}, {"SSTO</w>": 4}, {"comp</w>": 4}, {"revert</w>": 4}, {"orientation</w>": 4}, {"Atmospheric</w>": 4}, {"ISS</w>": 4}, {"darkness</w>": 4}, {"Krypton</w>": 4}, {"Thus</w>": 4}, {"ramps</w>": 4}, {"tied</w>": 4}, {"finale</w>": 4}, {"inducer</w>": 4}, {"impellers</w>": 4}, {"horsepower</w>": 4}, {"Sam</w>": 4}, {"surrounding</w>": 4}, {"Set</w>": 4}, {"literacy</w>": 4}, {"gained</w>": 4}, {"Mon</w>": 4}, {"decreasing</w>": 4}, {"glovebox</w>": 4}, {"Finnish</w>": 4}, {"Blood</w>": 4}, {"speaking</w>": 4}, {"demonstrate</w>": 4}, {"inconvenience</w>": 4}, {"futures</w>": 4}, {"Sensors</w>": 4}, {"follows</w>": 4}, {"Dane</w>": 4}, {"Hamlet</w>": 4}, {"Marvin</w>": 4}, {"courses</w>": 4}, {"Kong</w>": 4}, {"recharging</w>": 4}, {"externally</w>": 4}, {"particulate</w>": 4}, {"ignoring</w>": 4}, {"computation</w>": 4}, {"Old</w>": 4}, {"rpm</w>": 4}, {"relentlessly</w>": 4}, {"powers</w>": 4}, {"yr</w>": 4}, {"verify</w>": 4}, {"Pana</w>": 4}, {"tyranny</w>": 4}, {"discounts</w>": 4}, {"ina</w>": 4}, {"overcome</w>": 4}, {"dig": 4}, {"ame</w>": 4}, {"automation</w>": 4}, {"600</w>": 4}, {"fits</w>": 4}, {"HW3</w>": 4}, {"ented</w>": 4}, {"pads</w>": 4}, {"nobody</w>": 4}, {"VAT</w>": 4}, {"uh</w>": 4}, {"Kelvin</w>": 4}, {"gaps</w>": 4}, {"Prices</w>": 4}, {"ple</w>": 4}, {"Assuming</w>": 4}, {"chutes</w>": 4}, {"Ga": 4}, {"Truck</w>": 4}, {"docked</w>": 4}, {"floats</w>": 4}, {"Kestrel</w>": 4}, {"feelings</w>": 4}, {"Highest</w>": 4}, {"sphere</w>": 4}, {"cap": 4}, {"wers</w>": 4}, {"me": 4}, {"John</w>": 4}, {"Limiting</w>": 4}, {"addition</w>": 4}, {"Update</w>": 4}, {"Updating</w>": 4}, {"weighs</w>": 4}, {"goodwill</w>": 4}, {"reddit</w>": 4}, {"comm": 4}, {"reaction</w>": 4}, {"Preparing</w>": 4}, {"ency</w>": 4}, {"ow": 4}, {"Minnesota</w>": 4}, {"lat": 4}, {"scenario</w>": 4}, {"unreasonable</w>": 4}, {"Body</w>": 4}, {"Plus</w>": 4}, {"models</w>": 4}, {"backwards</w>": 4}, {"Singapore</w>": 4}, {"checks</w>": 4}, {"launchpad</w>": 4}, {"10M</w>": 4}, {"skill</w>": 4}, {"Loop</w>": 4}, {"amed</w>": 4}, {"wine</w>": 4}, {"edited</w>": 4}, {"dinner</w>": 4}, {"alternative</w>": 4}, {"spring</w>": 4}, {"cabin</w>": 4}, {"artists</w>": 4}, {"scene</w>": 4}, {"Del": 4}, {"ulating</w>": 4}, {"knight</w>": 4}, {"entrance</w>": 4}, {"contracts</w>": 4}, {"Lee</w>": 4}, {"app": 4}, {"experiment</w>": 4}, {"Zeroth</w>": 4}, {"man": 4}, {"laugh</w>": 4}, {"Chicago</w>": 4}, {"Dual</w>": 4}, {"eli": 4}, {"ba": 4}, {"Sonic</w>": 4}, {"equity</w>": 4}, {"shorting</w>": 4}, {"divide</w>": 4}, {"profit</w>": 4}, {"forget</w>": 4}, {"educ": 4}, {"common": 4}, {"anging</w>": 4}, {"lied</w>": 4}, {"Ends</w>": 4}, {"ver</w>": 4}, {"Ob": 4}, {"dian</w>": 4}, {"chose</w>": 4}, {"swear</w>": 4}, {"sued</w>": 4}, {"designs</w>": 4}, {"pped</w>": 4}, {"ots</w>": 4}, {"mat": 4}, {"eating</w>": 4}, {"Reminds</w>": 4}, {"Believe</w>": 4}, {"liquidity</w>": 4}, {"advise</w>": 4}, {"refinements</w>": 4}, {"classic</w>": 4}, {"ay</w>": 4}, {"dle</w>": 4}, {"Fri": 4}, {"exchange</w>": 4}, {"willing</w>": 4}, {"gs</w>": 4}, {"quick</w>": 4}, {"Magic</w>": 4}, {"Incredibly</w>": 4}, {"Cl": 4}, {"British</w>": 4}, {"passage</w>": 4}, {"correcting</w>": 4}, {"environments</w>": 4}, {"Ca": 4}, {"inflatable</w>": 4}, {"ium</w>": 4}, {"belts</w>": 4}, {"handles</w>": 4}, {"tubes</w>": 4}, {"bouncy</w>": 4}, {"Bel": 4}, {"Laser</w>": 4}, {"concerned</w>": 4}, {"individuals</w>": 4}, {"galactic</w>": 4}, {"goals</w>": 4}, {"estate</w>": 4}, {"border</w>": 4}, {"Die</w>": 4}, {"organization</w>": 4}, {"icked</w>": 4}, {"bro": 4}, {"tively</w>": 4}, {"Iron</w>": 4}, {"ooh</w>": 4}, {"draw</w>": 4}, {"whose</w>": 4}, {"proc": 4}, {"aged</w>": 4}, {"TSLA</w>": 4}, {"fil": 4}, {"tered</w>": 4}, {"COPV</w>": 4}, {"ish</w>": 4}, {"burning</w>": 4}, {"acted</w>": 4}, {"bla": 4}, {"Puerto</w>": 4}, {"Rico</w>": 4}, {"reservation</w>": 4}, {"fuels</w>": 4}, {"shd</w>": 4}, {"liner</w>": 4}, {"perspective</w>": 4}, {"reporter</w>": 4}, {"hom": 4}, {"hypocrite</w>": 4}, {"dream</w>": 4}, {"cd</w>": 4}, {"election</w>": 4}, {"slower</w>": 4}, {"couple</w>": 4}, {"figuring</w>": 4}, {"highlight</w>": 4}, {"assess</w>": 4}, {"missile</w>": 4}, {"included</w>": 4}, {"elected</w>": 4}, {"Reveal</w>": 4}, {"recession</w>": 4}, {"Up": 4}, {"60mph</w>": 4}, {"accidents</w>": 4}, {"IMF</w>": 4}, {"fraction</w>": 4}, {"satisfaction</w>": 4}, {"show": 4}, {"parafoil</w>": 4}, {"riding</w>": 4}, {"targeted</w>": 4}, {"Economist</w>": 4}, {"Free</w>": 4}, {"sword</w>": 4}, {"pull</w>": 4}, {"meantime</w>": 4}, {"Adjusting</w>": 4}, {"reel</w>": 4}, {"Stars</w>": 4}, {"ignition</w>": 4}, {"ark</w>": 4}, {"kept</w>": 4}, {"restart</w>": 4}, {"Release</w>": 4}, {"candidate</w>": 4}, {"lim": 4}, {"river</w>": 4}, {"overhaul</w>": 4}, {"stone</w>": 4}, {"Reno</w>": 4}, {"premiums</w>": 4}, {"ick": 4}, {"existential</w>": 4}, {"haven</w>": 4}, {"clicked</w>": 4}, {"enting</w>": 4}, {"Couldn</w>": 4}, {"Intense</w>": 4}, {"tioned</w>": 4}, {"telemetry</w>": 4}, {"Flying</w>": 4}, {"eless</w>": 4}, {"kernel</w>": 4}, {"protest</w>": 4}, {"Play</w>": 4}, {"skit</w>": 4}, {"Ambien</w>": 4}, {"DMV</w>": 4}, {"cyclist</w>": 4}, {"ear</w>": 4}, {"theme</w>": 4}, {"unusually</w>": 4}, {"TED</w>": 4}, {"survey</w>": 4}, {"civilizations</w>": 4}, {"nearby</w>": 4}, {"ban</w>": 4}, {"Tillerson</w>": 4}, {"uploading</w>": 4}, {"Ser": 4}, {"speculation</w>": 4}, {"Won</w>": 4}, {"women</w>": 4}, {"V7</w>": 4}, {"noon</w>": 4}, {"long": 4}, {"Owner</w>": 4}, {"abt</w>": 4}, {"temporal</w>": 4}, {"cats</w>": 4}, {"Reasons</w>": 4}, {"Mind</w>": 4}, {"bu": 4}, {"showed</w>": 4}, {"communities</w>": 4}, {"hexacopter</w>": 4}, {"crisis</w>": 4}, {"communications</w>": 4}, {"acked</w>": 4}, {"meal</w>": 4}, {"eal</w>": 4}, {"Saw</w>": 4}, {"Disney</w>": 4}, {"smoking</w>": 4}, {"cancer</w>": 4}, {"taxing</w>": 4}, {"chicken</w>": 4}, {"Hearing</w>": 4}, {"sue</w>": 4}, {"lunch</w>": 4}, {"NYTimes</w>": 4}, {"iling</w>": 4}, {"au": 4}, {"hol": 4}, {"Lasers</w>": 4}, {"governments</w>": 4}, {"lil</w>": 4}, {"valuation</w>": 4}, {"exchanges</w>": 4}, {"threat</w>": 4}, {"Epic</w>": 4}, {"230</w>": 4}, {"whimper</w>": 4}, {"miners</w>": 4}, {"Shark</w>": 4}, {"Discord</w>": 4}, {"arenas</w>": 4}, {"hatestream</w>": 4}, {"vaccination</w>": 4}, {"births</w>": 4}, {"seek</w>": 3}, {"ste</w>": 3}, {"Multi": 3}, {"Focus</w>": 3}, {"eng": 3}, {"ines</w>": 3}, {"Cobra</w>": 3}, {"Kai</w>": 3}, {"ital</w>": 3}, {"iron": 3}, {"100": 3}, {"accessible</w>": 3}, {"transactions</w>": 3}, {"hanging</w>": 3}, {"tual</w>": 3}, {"lip": 3}, {"Standing</w>": 3}, {"Pressure</w>": 3}, {"Light</w>": 3}, {"stunning</w>": 3}, {"armor</w>": 3}, {"chest</w>": 3}, {"Dankeschn</w>": 3}, {"Seemed</w>": 3}, {"bare</w>": 3}, {"Fuel</w>": 3}, {"Successful</w>": 3}, {"rifle</w>": 3}, {"ryp": 3}, {"Kno": 3}, {"ck</w>": 3}, {"singing</w>": 3}, {"accepted</w>": 3}, {"scientist</w>": 3}, {"existed</w>": 3}, {"absorb": 3}, {"Thanos</w>": 3}, {"digits</w>": 3}, {"sealed</w>": 3}, {"queue</w>": 3}, {"Skynet</w>": 3}, {"ghost</w>": 3}, {"ths</w>": 3}, {"wavelength</w>": 3}, {"ids</w>": 3}, {"Pen": 3}, {"champion</w>": 3}, {"liqu": 3}, {"bottle</w>": 3}, {"Ter": 3}, {"forming</w>": 3}, {"spacefaring</w>": 3}, {"Wise</w>": 3}, {"Buy</w>": 3}, {"Pc</w>": 3}, {"infectious</w>": 3}, {"quarantine</w>": 3}, {"afterwards</w>": 3}, {"ments</w>": 3}, {"cy</w>": 3}, {"bite</w>": 3}, {"Necessary</w>": 3}, {"essing</w>": 3}, {"believed</w>": 3}, {"Ah</w>": 3}, {"unequivocal</w>": 3}, {"dest</w>": 3}, {"pipe</w>": 3}, {"shields</w>": 3}, {"pipes</w>": 3}, {"hard": 3}, {"ened</w>": 3}, {"cable</w>": 3}, {"Teslaquila</w>": 3}, {"Stonecutters</w>": 3}, {"trillions</w>": 3}, {"mRNA</w>": 3}, {"del": 3}, {"Thrusters</w>": 3}, {"requesting</w>": 3}, {"consensus</w>": 3}, {"utes</w>": 3}, {"wildly</w>": 3}, {"coronavirus</w>": 3}, {"NPCs</w>": 3}, {"DMT</w>": 3}, {"Laws</w>": 3}, {"ali": 3}, {"N3</w>": 3}, {"generic</w>": 3}, {"todays</w>": 3}, {"Cold</w>": 3}, {"gh": 3}, {"arious</w>": 3}, {"rough</w>": 3}, {"indicator</w>": 3}, {"prote": 3}, {"prevalence</w>": 3}, {"falsely</w>": 3}, {"approximate</w>": 3}, {"identi": 3}, {"Musk</w>": 3}, {"Tes": 3}, {"typical</w>": 3}, {"unusual</w>": 3}, {"nur": 3}, {"pop</w>": 3}, {"Luck</w>": 3}, {"choose</w>": 3}, {"privilege</w>": 3}, {"accidental</w>": 3}, {"contribute</w>": 3}, {"intersections</w>": 3}, {"wtf</w>": 3}, {"Einstein</w>": 3}, {"Clo": 3}, {"town</w>": 3}, {"Random</w>": 3}, {"Under": 3}, {"relight</w>": 3}, {"intervention</w>": 3}, {"resulting</w>": 3}, {"grand</w>": 3}, {"groups</w>": 3}, {"Bandwidth</w>": 3}, {"bly</w>": 3}, {"complacency</w>": 3}, {"eaten</w>": 3}, {"donor</w>": 3}, {"horror</w>": 3}, {"dreams</w>": 3}, {"oun": 3}, {"tone</w>": 3}, {"strident</w>": 3}, {"intentional</w>": 3}, {"Na": 3}, {"encountering</w>": 3}, {"Mobi</w>": 3}, {"neck</w>": 3}, {"surgery</w>": 3}, {"sticking</w>": 3}, {"spinal</w>": 3}, {"Yelp</w>": 3}, {"doctors</w>": 3}, {"DNA</w>": 3}, {"Beijing</w>": 3}, {"Europa</w>": 3}, {"conveniently</w>": 3}, {"December</w>": 3}, {"prop": 3}, {"420</w>": 3}, {"Significant</w>": 3}, {"Prufrock</w>": 3}, {"Churchill</w>": 3}, {"encies</w>": 3}, {"Sheer</w>": 3}, {"automated</w>": 3}, {"disc": 3}, {"twin</w>": 3}, {"assets</w>": 3}, {"2009</w>": 3}, {"Zeev</w>": 3}, {"ITAR</w>": 3}, {"Til": 3}, {"Compilers</w>": 3}, {"poin": 3}, {"leads</w>": 3}, {"enclosed</w>": 3}, {"volumes</w>": 3}, {"flag</w>": 3}, {"costly</w>": 3}, {"mess": 3}, {"Tacheles</w>": 3}, {"arg": 3}, {"Gigafactories</w>": 3}, {"avoided</w>": 3}, {"Hundreds</w>": 3}, {"absorbed</w>": 3}, {"Bringing</w>": 3}, {"hurts</w>": 3}, {"read": 3}, {"succeeded</w>": 3}, {"reflights</w>": 3}, {"turnaround</w>": 3}, {"subsidi": 3}, {"exhaust</w>": 3}, {"niche</w>": 3}, {"louder</w>": 3}, {"writers</w>": 3}, {"Call</w>": 3}, {"birds</w>": 3}, {"broad</w>": 3}, {"Lex</w>": 3}, {"presented</w>": 3}, {"legacy</w>": 3}, {"Seattle</w>": 3}, {"impe": 3}, {"rings</w>": 3}, {"buckling</w>": 3}, {"skin</w>": 3}, {"eld</w>": 3}, {"prioritizing</w>": 3}, {"consistently</w>": 3}, {"cutting</w>": 3}, {"25k</w>": 3}, {"int": 3}, {"Supp": 3}, {"Dilbert</w>": 3}, {"ullage</w>": 3}, {"Improvements</w>": 3}, {"Har": 3}, {"purchases</w>": 3}, {"Panasonic</w>": 3}, {"web</w>": 3}, {"zeroes</w>": 3}, {"Ther": 3}, {"thic</w>": 3}, {"achievement</w>": 3}, {"probabilities</w>": 3}, {"frank</w>": 3}, {"ault</w>": 3}, {"Te": 3}, {"demonstration</w>": 3}, {"hammer</w>": 3}, {"Steel</w>": 3}, {"parrot</w>": 3}, {"Usable</w>": 3}, {"tonnage</w>": 3}, {"insight</w>": 3}, {"Above</w>": 3}, {"cares</w>": 3}, {"Natrlich</w>": 3}, {"mach": 3}, {"Ru": 3}, {"finance</w>": 3}, {"exceptionally</w>": 3}, {"milled</w>": 3}, {"photons</w>": 3}, {"flew</w>": 3}, {"ann": 3}, {"her": 3}, {"rag": 3}, {"drome</w>": 3}, {"ise</w>": 3}, {"Queens</w>": 3}, {"Sen": 3}, {"mess</w>": 3}, {"prof</w>": 3}, {"Cal": 3}, {"academia</w>": 3}, {"ition</w>": 3}, {"diseases</w>": 3}, {"predicting</w>": 3}, {"shifted</w>": 3}, {"plume</w>": 3}, {"widespread</w>": 3}, {"overzealous</w>": 3}, {"obtuse</w>": 3}, {"collectors</w>": 3}, {"anode</w>": 3}, {"exp": 3}, {"syn": 3}, {"thes": 3}, {"Britain</w>": 3}, {"miniverse</w>": 3}, {"microverse</w>": 3}, {"LASIK</w>": 3}, {"tankers</w>": 3}, {"GPUs</w>": 3}, {"iler</w>": 3}, {"10X</w>": 3}, {"strikes</w>": 3}, {"techno</w>": 3}, {"mu": 3}, {"auf</w>": 3}, {"Sna": 3}, {"Sim": 3}, {"meg": 3}, {"humidity</w>": 3}, {"intuitive</w>": 3}, {"ha</w>": 3}, {"chute</w>": 3}, {"ising</w>": 3}, {"comets</w>": 3}, {"Tanks</w>": 3}, {"Bold</w>": 3}, {"Cover</w>": 3}, {"Girl</w>": 3}, {"Filters</w>": 3}, {"overload</w>": 3}, {"Asteroid</w>": 3}, {"eeding</w>": 3}, {"indistinguishable</w>": 3}, {"endorsement</w>": 3}, {"neutral</w>": 3}, {"cubic</w>": 3}, {"generally</w>": 3}, {"ink": 3}, {"bending</w>": 3}, {"Complex</w>": 3}, {"nel</w>": 3}, {"Moms</w>": 3}, {"Bern": 3}, {"Velociraptor</w>": 3}, {"Apart</w>": 3}, {"failing</w>": 3}, {"elderly</w>": 3}, {"recognize</w>": 3}, {"taller</w>": 3}, {"unimproved</w>": 3}, {"Tbh</w>": 3}, {"simplest</w>": 3}, {"satisfying</w>": 3}, {"provides</w>": 3}, {"Ramses</w>": 3}, {"granted</w>": 3}, {"ned</w>": 3}, {"stake</w>": 3}, {"Q": 3}, {"frequencies</w>": 3}, {"controllers</w>": 3}, {"restore</w>": 3}, {"Mein</w>": 3}, {"Herz</w>": 3}, {"ot</w>": 3}, {"rave</w>": 3}, {"Orig": 3}, {"powertrains</w>": 3}, {"corporation</w>": 3}, {"Bernie</w>": 3}, {"monopolies</w>": 3}, {"Cla": 3}, {"hardness</w>": 3}, {"fac": 3}, {"eted</w>": 3}, {"outdoor</w>": 3}, {"Strangers</w>": 3}, {"pled</w>": 3}, {"sells</w>": 3}, {"guillotine</w>": 3}, {"cigarette</w>": 3}, {"ear": 3}, {"stimulus</w>": 3}, {"Giving</w>": 3}, {"revolutionary</w>": 3}, {"Ret": 3}, {"ail</w>": 3}, {"Especially</w>": 3}, {"Soviet</w>": 3}, {"rover</w>": 3}, {"ff": 3}, {"zen</w>": 3}, {"marketing</w>": 3}, {"cri": 3}, {"mut": 3}, {"neuro": 3}, {"youve</w>": 3}, {"algorithms</w>": 3}, {"Ra": 3}, {"demographic</w>": 3}, {"latch</w>": 3}, {"garden</w>": 3}, {"substitute</w>": 3}, {"difficulties</w>": 3}, {"Pla": 3}, {"connectors</w>": 3}, {"Num": 3}, {"SP": 3}, {"Ear": 3}, {"aug": 3}, {"men": 3}, {"decides</w>": 3}, {"sou": 3}, {"dire</w>": 3}, {"Aug</w>": 3}, {"Dumb</w>": 3}, {"Sagan</w>": 3}, {"pair</w>": 3}, {"ailed</w>": 3}, {"Ariel</w>": 3}, {"Durant</w>": 3}, {"stern</w>": 3}, {"discourse</w>": 3}, {"followers</w>": 3}, {"Ghislaine</w>": 3}, {"insult</w>": 3}, {"pet": 3}, {"hosting</w>": 3}, {"Montreal</w>": 3}, {"clo": 3}, {"Oscar</w>": 3}, {"Gre": 3}, {"pernicious</w>": 3}, {"bomb</w>": 3}, {"Ha": 3}, {"bleed</w>": 3}, {"El": 3}, {"trade</w>": 3}, {"wor": 3}, {"denying</w>": 3}, {"secretly</w>": 3}, {"ears</w>": 3}, {"cherry</w>": 3}, {"who": 3}, {"thesis</w>": 3}, {"humanly</w>": 3}, {"weakness</w>": 3}, {"piano</w>": 3}, {"messing</w>": 3}, {"favors</w>": 3}, {"spectrum</w>": 3}, {"Money</w>": 3}, {"externality</w>": 3}, {"mid": 3}, {"verse</w>": 3}, {"uncertain</w>": 3}, {"creators</w>": 3}, {"Meeting</w>": 3}, {"atched</w>": 3}, {"rely</w>": 3}, {"izes</w>": 3}, {"quaint</w>": 3}, {"Bioweapon</w>": 3}, {"Defense</w>": 3}, {"Bioshock</w>": 3}, {"economically</w>": 3}, {"TV</w>": 3}, {"ging</w>": 3}, {"hopeful</w>": 3}, {"guessing</w>": 3}, {"fir": 3}, {"Renewable</w>": 3}, {"passengers</w>": 3}, {"populated</w>": 3}, {"tionally</w>": 3}, {"preburners</w>": 3}, {"pin": 3}, {"coaxial</w>": 3}, {"injectors</w>": 3}, {"Around</w>": 3}, {"Kathy</w>": 3}, {"drivetrain</w>": 3}, {"Char": 3}, {"tweeted</w>": 3}, {"Posting</w>": 3}, {"ort</w>": 3}, {"retweet</w>": 3}, {"mainstream</w>": 3}, {"Forward</w>": 3}, {"contracting</w>": 3}, {"directive</w>": 3}, {"suing</w>": 3}, {"dem": 3}, {"Amazon</w>": 3}, {"Monopolies</w>": 3}, {"guar": 3}, {"protecting</w>": 3}, {"officers</w>": 3}, {"relativistic</w>": 3}, {"Doug</w>": 3}, {"docks</w>": 3}, {"attempts</w>": 3}, {"coach</w>": 3}, {"convey</w>": 3}, {"Open</w>": 3}, {"un</w>": 3}, {"coins</w>": 3}, {"issu": 3}, {"banks</w>": 3}, {"Adam</w>": 3}, {"hotels</w>": 3}, {"atten": 3}, {"suppressing</w>": 3}, {"knucklehead</w>": 3}, {"threats</w>": 3}, {"tragedy</w>": 3}, {"ce</w>": 3}, {"Marx": 3}, {"emp": 3}, {"liberty</w>": 3}, {"sty": 3}, {"Colorado</w>": 3}, {"Lil</w>": 3}, {"admitted</w>": 3}, {"Unreal</w>": 3}, {"State</w>": 3}, {"Joaquin</w>": 3}, {"summarizes</w>": 3}, {"Sher": 3}, {"lifted</w>": 3}, {"q</w>": 3}, {"irrational</w>": 3}, {"liber": 3}, {"manufacturer</w>": 3}, {"rec": 3}, {"dam": 3}, {"effects</w>": 3}, {"straw</w>": 3}, {"treated</w>": 3}, {"filing</w>": 3}, {"lawsuit</w>": 3}, {"Inter": 3}, {"Officer</w>": 3}, {"contr": 3}, {"philosophically</w>": 3}, {"cows</w>": 3}, {"mystery</w>": 3}, {"maximizing</w>": 3}, {"flare</w>": 3}, {"mariachi</w>": 3}, {"puzzle</w>": 3}, {"DKE</w>": 3}, {"dum": 3}, {"rigorous</w>": 3}, {"Prize</w>": 3}, {"winner</w>": 3}, {"dent</w>": 3}, {"Online</w>": 3}, {"SL</w>": 3}, {"vir": 3}, {"Pokmon</w>": 3}, {"ario</w>": 3}, {"exc": 3}, {"ites</w>": 3}, {"anime</w>": 3}, {"Wil": 3}, {"Rage</w>": 3}, {"crashed</w>": 3}, {"appropriate</w>": 3}, {"Give</w>": 3}, {"arbiter</w>": 3}, {"FT</w>": 3}, {"Sno": 3}, {"Doc": 3}, {"Thrust</w>": 3}, {"hys": 3}, {"cylinder</w>": 3}, {"halfway</w>": 3}, {"Dick</w>": 3}, {"Bigger</w>": 3}, {"Silver</w>": 3}, {"lining</w>": 3}, {"predicted</w>": 3}, {"loans</w>": 3}, {"Pri": 3}, {"Wuhan</w>": 3}, {"transparent</w>": 3}, {"antennas</w>": 3}, {"alcohol</w>": 3}, {"Crazy</w>": 3}, {"dusk</w>": 3}, {"Aargh</w>": 3}, {"inspire</w>": 3}, {"human": 3}, {"overstated</w>": 3}, {"Media</w>": 3}, {"Youd</w>": 3}, {"Depending</w>": 3}, {"Rem": 3}, {"ounding</w>": 3}, {"stra": 3}, {"regimes</w>": 3}, {"Ba": 3}, {"Karma</w>": 3}, {"ICU</w>": 3}, {"specifications</w>": 3}, {"tioning</w>": 3}, {"intubation</w>": 3}, {"moder": 3}, {"sed": 3}, {"intu": 3}, {"NYC</w>": 3}, {"ling": 3}, {"failures</w>": 3}, {"flooded</w>": 3}, {"jumping</w>": 3}, {"Loan</w>": 3}, {"wrap</w>": 3}, {"Follow</w>": 3}, {"Functionality</w>": 3}, {"oring</w>": 3}, {"Standard</w>": 3}, {"maneuvers</w>": 3}, {"status</w>": 3}, {"Pu": 3}, {"Gen</w>": 3}, {"Shinseki</w>": 3}, {"Shes</w>": 3}, {"Pot": 3}, {"spooling</w>": 3}, {"vari": 3}, {"Mel</w>": 3}, {"Brooks</w>": 3}, {"Anarcho</w>": 3}, {"syndicalism</w>": 3}, {"Wonder</w>": 3}, {"omo</w>": 3}, {"50": 3}, {"telescope</w>": 3}, {"Inside</w>": 3}, {"Magnetic</w>": 3}, {"personality</w>": 3}, {"donations</w>": 3}, {"citizens</w>": 3}, {"ill": 3}, {"infl": 3}, {"proves</w>": 3}, {"fresh</w>": 3}, {"Au": 3}, {"customs</w>": 3}, {"wasted</w>": 3}, {"Wor": 3}, {"onerous</w>": 3}, {"types</w>": 3}, {"behave</w>": 3}, {"regardless</w>": 3}, {"arly</w>": 3}, {"accumulator</w>": 3}, {"ideally</w>": 3}, {"normally</w>": 3}, {"negligible</w>": 3}, {"pi": 3}, {"ough</w>": 3}, {"pol": 3}, {"cked</w>": 3}, {"iti": 3}, {"36</w>": 3}, {"grain</w>": 3}, {"fatal</w>": 3}, {"fal": 3}, {"Slight</w>": 3}, {"Liftoff</w>": 3}, {"preorders</w>": 3}, {"horizon</w>": 3}, {"Ceres</w>": 3}, {"quietly</w>": 3}, {"stein</w>": 3}, {"ssi": 3}, {"Coachella</w>": 3}, {"suc": 3}, {"Ben</w>": 3}, {"Jer": 3}, {"Market</w>": 3}, {"Memes</w>": 3}, {"Ships</w>": 3}, {"col": 3}, {"expanded</w>": 3}, {"Manufacturing</w>": 3}, {"minimum</w>": 3}, {"mented</w>": 3}, {"copy": 3}, {"ius</w>": 3}, {"Woody</w>": 3}, {"sticker</w>": 3}, {"iter": 3}, {"iterations</w>": 3}, {"Hardest</w>": 3}, {"insul": 3}, {"Consider</w>": 3}, {"helmet</w>": 3}, {"Header</w>": 3}, {"Pressurized</w>": 3}, {"Asimovs</w>": 3}, {"international</w>": 3}, {"albedo</w>": 3}, {"the": 3}, {"asp": 3}, {"textured</w>": 3}, {"ICE</w>": 3}, {"zil": 3}, {"Leg": 3}, {"plum": 3}, {"announced</w>": 3}, {"recruiting</w>": 3}, {"fixtures</w>": 3}, {"welding</w>": 3}, {"Late</w>": 3}, {"cul": 3}, {"sely</w>": 3}, {"Soundcloud</w>": 3}, {"vis": 3}, {"Blvd</w>": 3}, {"micro</w>": 3}, {"nonetheless</w>": 3}, {"impl": 3}, {"efficiently</w>": 3}, {"hyper": 3}, {"Join</w>": 3}, {"bureaucracy</w>": 3}, {"agenda</w>": 3}, {"ank</w>": 3}, {"Doubt</w>": 3}, {"Emo</w>": 3}, {"Records</w>": 3}, {"Tonnage</w>": 3}, {"Mat": 3}, {"ected</w>": 3}, {"Meme</w>": 3}, {"nom": 3}, {"forest</w>": 3}, {"Gold</w>": 3}, {"Improbability</w>": 3}, {"Explains</w>": 3}, {"rels</w>": 3}, {"domain</w>": 3}, {"Met": 3}, {"beach</w>": 3}, {"Exc": 3}, {"Spacecraft</w>": 3}, {"Mun": 3}, {"Hel": 3}, {"accumulating</w>": 3}, {"ading</w>": 3}, {"megatons</w>": 3}, {"primitive</w>": 3}, {"discoveries</w>": 3}, {"bulletproof</w>": 3}, {"shouldve</w>": 3}, {"gn": 3}, {"yed</w>": 3}, {"balloon</w>": 3}, {"pres": 3}, {"Master</w>": 3}, {"attitude</w>": 3}, {"tryin</w>": 3}, {"ck": 3}, {"disgu": 3}, {"Syd</w>": 3}, {"Mead</w>": 3}, {"deleting</w>": 3}, {"Blo": 3}, {"Simpler</w>": 3}, {"Rear</w>": 3}, {"Vs</w>": 3}, {"melt</w>": 3}, {"autogenous</w>": 3}, {"welded</w>": 3}, {"flux</w>": 3}, {"muffin</w>": 3}, {"schedules</w>": 3}, {"choc</w>": 3}, {"arch": 3}, {"Multi</w>": 3}, {"our": 3}, {"listened</w>": 3}, {"suddenly</w>": 3}, {"Bach</w>": 3}, {"kitchen</w>": 3}, {"junk</w>": 3}, {"Worked</w>": 3}, {"Vancouver</w>": 3}, {"8k</w>": 3}, {"angel</w>": 3}, {"antimatter</w>": 3}, {"supplemental</w>": 3}, {"overarching</w>": 3}, {"repeater</w>": 3}, {"disable</w>": 3}, {"patterns</w>": 3}, {"insanity</w>": 3}, {"squared</w>": 3}, {"Henry</w>": 3}, {"Pre</w>": 3}, {"premiere</w>": 3}, {"sneak</w>": 3}, {"preview</w>": 3}, {"Lost</w>": 3}, {"crunch</w>": 3}, {"MCU</w>": 3}, {"Telemetry</w>": 3}, {"curves</w>": 3}, {"puppy</w>": 3}, {"binary</w>": 3}, {"spawn</w>": 3}, {"NPC</w>": 3}, {"1400</w>": 3}, {"contributed</w>": 3}, {"185</w>": 3}, {"clearance</w>": 3}, {"garages</w>": 3}, {"Min</w>": 3}, {"deserted</w>": 3}, {"admiration</w>": 3}, {"argon</w>": 3}, {"dash</w>": 3}, {"edges</w>": 3}, {"tweaking</w>": 3}, {"pulls</w>": 3}, {"announcements</w>": 3}, {"Marques</w>": 3}, {"attachments</w>": 3}, {"See</w>": 3}, {"coil</w>": 3}, {"influenced</w>": 3}, {"Spy</w>": 3}, {"Tonight</w>": 3}, {"reporters</w>": 3}, {"silence</w>": 3}, {"overrated</w>": 3}, {"Surprisingly</w>": 3}, {"Innovation</w>": 3}, {"midsize</w>": 3}, {"Deleting</w>": 3}, {"gearing</w>": 3}, {"Minimizing</w>": 3}, {"strangely</w>": 3}, {"familiar</w>": 3}, {"entrepreneurs</w>": 3}, {"Electrek</w>": 3}, {"poem</w>": 3}, {"HP</w>": 3}, {"races</w>": 3}, {"Shopify</w>": 3}, {"Glass</w>": 3}, {"wildfire</w>": 3}, {"wildfires</w>": 3}, {"disasters</w>": 3}, {"Pasadena</w>": 3}, {"Jerome</w>": 3}, {"Srsly</w>": 3}, {"Transparent</w>": 3}, {"dated</w>": 3}, {"incoming</w>": 3}, {"installs</w>": 3}, {"carrot</w>": 3}, {"headlights</w>": 3}, {"Kerbal</w>": 3}, {"Oberth</w>": 3}, {"residuals</w>": 3}, {"overwhelming</w>": 3}, {"shadowed</w>": 3}, {"Autopark</w>": 3}, {"Venus</w>": 3}, {"wipers</w>": 3}, {"rumors</w>": 3}, {"Godfather</w>": 3}, {"charity</w>": 3}, {"bully</w>": 3}, {"silk</w>": 3}, {"Managing</w>": 3}, {"west</w>": 3}, {"problematic</w>": 3}, {"Netherlands</w>": 3}, {"brings</w>": 3}, {"Powerpacks</w>": 3}, {"Covers</w>": 3}, {"bases</w>": 3}, {"risks</w>": 3}, {"supplier</w>": 3}, {"Trouble</w>": 3}, {"coconuts</w>": 3}, {"Welded</w>": 3}, {"Vangelis</w>": 3}, {"heartwarming</w>": 3}, {"polished</w>": 3}, {"hazards</w>": 3}, {"superalloys</w>": 3}, {"machining</w>": 3}, {"inconel</w>": 3}, {"Anonymous</w>": 3}, {"somethings</w>": 3}, {"narrower</w>": 3}, {"temperatures</w>": 3}, {"wet</w>": 3}, {"ablative</w>": 3}, {"secrets</w>": 3}, {"Season</w>": 3}, {"Croatia</w>": 3}, {"Serbia</w>": 3}, {"origin</w>": 3}, {"Bottom</w>": 3}, {"combination</w>": 3}, {"rotate</w>": 3}, {"bounds</w>": 3}, {"Amazingly</w>": 3}, {"Lane</w>": 3}, {"Told</w>": 3}, {"Droid</w>": 3}, {"enjoyment</w>": 3}, {"miss</w>": 3}, {"lawyers</w>": 3}, {"spiral</w>": 3}, {"offerings</w>": 3}, {"thoroughly</w>": 3}, {"delightful</w>": 3}, {"mason</w>": 3}, {"jars</w>": 3}, {"rope</w>": 3}, {"departure</w>": 3}, {"Photoshop</w>": 3}, {"instant</w>": 3}, {"1500</w>": 3}, {"automobiles</w>": 3}, {"Jalopnik</w>": 3}, {"hypothesis</w>": 3}, {"Iceland</w>": 3}, {"sands</w>": 3}, {"inspected</w>": 3}, {"torch</w>": 3}, {"igniters</w>": 3}, {"naughty</w>": 3}, {"PUC</w>": 3}, {"utilities</w>": 3}, {"doable</w>": 3}, {"bills</w>": 3}, {"kilometer</w>": 3}, {"pistons</w>": 3}, {"Simulations</w>": 3}, {"codec</w>": 3}, {"Corporate</w>": 3}, {"Watching</w>": 3}, {"Ultimately</w>": 3}, {"empirical</w>": 3}, {"baseball</w>": 3}, {"falls</w>": 3}, {"proximity</w>": 3}, {"Lyft</w>": 3}, {"Uber</w>": 3}, {"suppose</w>": 3}, {"Astaire</w>": 3}, {"depot</w>": 3}, {"booms</w>": 3}, {"barrier</w>": 3}, {"Vehicle</w>": 3}, {"colder</w>": 3}, {"Wearing</w>": 3}, {"lepton</w>": 3}, {"Nuclear</w>": 3}, {"subsections</w>": 3}, {"Basilisk</w>": 3}, {"endeavor</w>": 3}, {"irrelevance</w>": 3}, {"magical</w>": 3}, {"75k</w>": 3}, {"bundled</w>": 3}, {"cofounder</w>": 3}, {"Infinity</w>": 3}, {"trace</w>": 3}, {"movements</w>": 3}, {"dangerously</w>": 3}, {"sin</w>": 3}, {"sideways</w>": 3}, {"awards</w>": 3}, {"Escobar</w>": 3}, {"traveled</w>": 3}, {"Inevitably</w>": 3}, {"Aborted</w>": 3}, {"corners</w>": 3}, {"Revolutions</w>": 3}, {"throw</w>": 3}, {"char</w>": 3}, {"Occupy</w>": 3}, {"bag</w>": 3}, {"tonights</w>": 3}, {"Typing</w>": 3}, {"Length</w>": 3}, {"unwise</w>": 3}, {"toilets</w>": 3}, {"trips</w>": 3}, {"maneuver</w>": 3}, {"rooms</w>": 3}, {"Colonizing</w>": 3}, {"droids</w>": 3}, {"surviving</w>": 3}, {"Thermal</w>": 3}, {"strain</w>": 3}, {"contrast</w>": 3}, {"curbs</w>": 3}, {"inspections</w>": 3}, {"mod</w>": 3}, {"stator</w>": 3}, {"Accelerating</w>": 3}, {"Technocracy</w>": 3}, {"meunire</w>": 3}, {"Amsterdam</w>": 3}, {"chariot</w>": 3}, {"papyrus</w>": 3}, {"shit</w>": 3}, {"Rising</w>": 3}, {"Vengeance</w>": 3}, {"clothing</w>": 3}, {"configurable</w>": 3}, {"critic</w>": 3}, {"flaw</w>": 3}, {"3750</w>": 3}, {"optimize</w>": 3}, {"residents</w>": 3}, {"awareness</w>": 3}, {"technicians</w>": 3}, {"eligible</w>": 3}, {"gentle</w>": 3}, {"grace</w>": 3}, {"Edgy</w>": 3}, {"twitch</w>": 3}, {"terrestrial</w>": 3}, {"advancements</w>": 3}, {"maximizes</w>": 3}, {"initiating</w>": 3}, {"approving</w>": 3}, {"earthquake</w>": 3}, {"Racing</w>": 3}, {"leaves</w>": 3}, {"Ocean</w>": 3}, {"spins</w>": 3}, {"spinning</w>": 3}, {"Nintendo</w>": 3}, {"pedals</w>": 3}, {"ingredient</w>": 3}, {"pollen</w>": 3}, {"spores</w>": 3}, {"imaginary</w>": 3}, {"installing</w>": 3}, {"gamed</w>": 3}, {"imagined</w>": 3}, {"rot</w>": 3}, {"Ultra</w>": 3}, {"pictures</w>": 3}, {"Rocks</w>": 3}, {"Click</w>": 3}, {"Effectively</w>": 3}, {"throttles</w>": 3}, {"dairy</w>": 3}, {"Policy</w>": 3}, {"merge</w>": 3}, {"Gatsby</w>": 3}, {"ASIC</w>": 3}, {"hog</w>": 3}, {"agencies</w>": 3}, {"differ</w>": 3}, {"advisor</w>": 3}, {"Cramer</w>": 3}, {"Francisco</w>": 3}, {"blower</w>": 3}, {"inlet</w>": 3}, {"investigated</w>": 3}, {"Anti</w>": 3}, {"pegging</w>": 3}, {"choked</w>": 3}, {"Home</w>": 3}, {"Respawn</w>": 3}, {"rural</w>": 3}, {"ls</w>": 3}, {"ane</w>": 3}, {"uncooled</w>": 3}, {"utter</w>": 3}, {"Hol": 3}, {"kins</w>": 3}, {"substantially</w>": 3}, {"Cryptocurrency</w>": 3}, {"modules</w>": 3}, {"Leasing</w>": 3}, {"doom</w>": 3}, {"paths</w>": 3}, {"Mobile</w>": 3}, {"Computer</w>": 3}, {"precautionary</w>": 3}, {"Freeway</w>": 3}, {"functional</w>": 3}, {"forgetting</w>": 3}, {"needing</w>": 3}, {"pe</w>": 3}, {"servicing</w>": 3}, {"barely</w>": 3}, {"ful</w>": 3}, {"spelled</w>": 3}, {"wipe</w>": 3}, {"ineffective</w>": 3}, {"Primary</w>": 3}, {"Us</w>": 3}, {"bra": 3}, {"bays</w>": 3}, {"refined</w>": 3}, {"remained</w>": 3}, {"ligh": 3}, {"Roadsters</w>": 3}, {"mentally</w>": 3}, {"synchron": 3}, {"inventory</w>": 3}, {"Exclude</w>": 3}, {"cumulative</w>": 3}, {"hotspots</w>": 3}, {"deeper</w>": 3}, {"Goes</w>": 3}, {"dable</w>": 3}, {"S3XY</w>": 3}, {"batch</w>": 3}, {"magnet</w>": 3}, {"inverter</w>": 3}, {"losses</w>": 3}, {"snowy</w>": 3}, {"Designed</w>": 3}, {"Rev": 3}, {"NK</w>": 3}, {"180</w>": 3}, {"admired</w>": 3}, {"maintained</w>": 3}, {"meteor</w>": 3}, {"splitting</w>": 3}, {"Net</w>": 3}, {"routes</w>": 3}, {"Reusable</w>": 3}, {"gar": 3}, {"ley</w>": 3}, {"Slightly</w>": 3}, {"rides</w>": 3}, {"shadow</w>": 3}, {"Lightning</w>": 3}, {"equivalent</w>": 3}, {"vel": 3}, {"yn</w>": 3}, {"ges</w>": 3}, {"tings</w>": 3}, {"sted</w>": 3}, {"Saturday</w>": 3}, {"bars</w>": 3}, {"streaks</w>": 3}, {"Clarke</w>": 3}, {"holdings</w>": 3}, {"Inconel</w>": 3}, {"pets</w>": 3}, {"bubble</w>": 3}, {"Korolev</w>": 3}, {"RUDs</w>": 3}, {"ticket</w>": 3}, {"lit</w>": 3}, {"Tilburg</w>": 3}, {"Oslo</w>": 3}, {"Rogan</w>": 3}, {"baffles</w>": 3}, {"kin": 3}, {"Dog</w>": 3}, {"apples</w>": 3}, {"ches</w>": 3}, {"tougher</w>": 3}, {"touched</w>": 3}, {"pat": 3}, {"ouring</w>": 3}, {"retirement</w>": 3}, {"Entropy</w>": 3}, {"skyscraper</w>": 3}, {"draft</w>": 3}, {"Super": 3}, {"documentary</w>": 3}, {"ES": 3}, {"mer</w>": 3}, {"unlock</w>": 3}, {"moo": 3}, {"Rough</w>": 3}, {"Radi": 3}, {"snap</w>": 3}, {"bil": 3}, {"trippy</w>": 3}, {"endurance</w>": 3}, {"rendered</w>": 3}, {"ration</w>": 3}, {"hopper</w>": 3}, {"zed</w>": 3}, {"dy": 3}, {"bot": 3}, {"Chinese</w>": 3}, {"Govt</w>": 3}, {"importantly</w>": 3}, {"cuts</w>": 3}, {"acquired</w>": 3}, {"spec</w>": 3}, {"scal": 3}, {"taps</w>": 3}, {"Line</w>": 3}, {"aspirationally</w>": 3}, {"walking</w>": 3}, {"Pop</w>": 3}, {"convenient</w>": 3}, {"Sub": 3}, {"disruption</w>": 3}, {"whatsoever</w>": 3}, {"hon": 3}, {"executive</w>": 3}, {"Man": 3}, {"att": 3}, {"Recovery</w>": 3}, {"Arctic</w>": 3}, {"capita</w>": 3}, {"Da": 3}, {"IR</w>": 3}, {"lit": 3}, {"Used</w>": 3}, {"aming</w>": 3}, {"intro</w>": 3}, {"Mercedes</w>": 3}, {"break": 3}, {"brick</w>": 3}, {"}</w>": 3}, {"yard</w>": 3}, {"transporting</w>": 3}, {"secured</w>": 3}, {"publishing</w>": 3}, {"slowing</w>": 3}, {"profits</w>": 3}, {"dinosaurs</w>": 3}, {"etting</w>": 3}, {"budget</w>": 3}, {"galaxy</w>": 3}, {"speci": 3}, {"broader</w>": 3}, {"purely</w>": 3}, {"ater</w>": 3}, {"Hahaha</w>": 3}, {"tre": 3}, {"titles</w>": 3}, {"Navigation</w>": 3}, {"Insta</w>": 3}, {"Sir</w>": 3}, {"Frost</w>": 3}, {"tors</w>": 3}, {"configs</w>": 3}, {"hacked</w>": 3}, {"chi": 3}, {"pass": 3}, {"Digital</w>": 3}, {"bored</w>": 3}, {"controller</w>": 3}, {"sport</w>": 3}, {"Ins": 3}, {"David</w>": 3}, {"Princess</w>": 3}, {"Name</w>": 3}, {"gates</w>": 3}, {"Stu": 3}, {"fans</w>": 3}, {"Blackrock</w>": 3}, {"Holding</w>": 3}, {"pretending</w>": 3}, {"index</w>": 3}, {"Deb": 3}, {"stocks</w>": 3}, {"mini": 3}, {"yers</w>": 3}, {"Cam": 3}, {"flows</w>": 3}, {"Nature</w>": 3}, {"alleviate</w>": 3}, {"Tricky</w>": 3}, {"Simple</w>": 3}, {"concentration</w>": 3}, {"combust</w>": 3}, {"stats</w>": 3}, {"ures</w>": 3}, {"differently</w>": 3}, {"scammers</w>": 3}, {"wer</w>": 3}, {"bea": 3}, {"apo": 3}, {"tint</w>": 3}, {"glo": 3}, {"volcano</w>": 3}, {"repa": 3}, {"Fossil</w>": 3}, {"stupid</w>": 3}, {"optimizing</w>": 3}, {"quarterly</w>": 3}, {"Lunar</w>": 3}, {"tless</w>": 3}, {"ishing</w>": 3}, {"Wa": 3}, {"pockets</w>": 3}, {"iner</w>": 3}, {"MIT</w>": 3}, {"Hardware</w>": 3}, {"Hitler</w>": 3}, {"examples</w>": 3}, {"Tragic</w>": 3}, {"Brazil</w>": 3}, {"plastic</w>": 3}, {"listening</w>": 3}, {"Jon</w>": 3}, {"ularity</w>": 3}, {"Think</w>": 3}, {"Tweet</w>": 3}, {"Phil</w>": 3}, {"relentless</w>": 3}, {"Loc": 3}, {"historical</w>": 3}, {"Wall</w>": 3}, {"uptime</w>": 3}, {"justify</w>": 3}, {"Human": 3}, {"philosophy</w>": 3}, {"vig": 3}, {"rose</w>": 3}, {"theyve</w>": 3}, {"commitment</w>": 3}, {"atch": 3}, {"massively</w>": 3}, {"deadly</w>": 3}, {"ken</w>": 3}, {"std</w>": 3}, {"Mini</w>": 3}, {"mods</w>": 3}, {"alarming</w>": 3}, {"shell</w>": 3}, {"diver</w>": 3}, {"hitch</w>": 3}, {"develop": 3}, {"Construction</w>": 3}, {"Ground</w>": 3}, {"unnecessary</w>": 3}, {"susceptible</w>": 3}, {"aft</w>": 3}, {"DM</w>": 3}, {"Powerwalls</w>": 3}, {"prominent</w>": 3}, {"Lopez</w>": 3}, {"Her</w>": 3}, {"promise</w>": 3}, {"records</w>": 3}, {"claiming</w>": 3}, {"bri": 3}, {"published</w>": 3}, {"scrapped</w>": 3}, {"prod</w>": 3}, {"pu": 3}, {"Ideas</w>": 3}, {"Noted</w>": 3}, {"closest</w>": 3}, {"Space": 3}, {"trap</w>": 3}, {"Appreciate</w>": 3}, {"cra": 3}, {"farting</w>": 3}, {"ily</w>": 3}, {"tent</w>": 3}, {"lb</w>": 3}, {"towing</w>": 3}, {"adjusts</w>": 3}, {"guardians</w>": 3}, {"standpoint</w>": 3}, {"Humanity</w>": 3}, {"invasion</w>": 3}, {"preserve</w>": 3}, {"Sinclair</w>": 3}, {"Exp": 3}, {"GA": 3}, {"Dune</w>": 3}, {"gains</w>": 3}, {"mkt</w>": 3}, {"lions</w>": 3}, {"lic": 3}, {"hal": 3}, {"hourly</w>": 3}, {"socialist</w>": 3}, {"capitalist</w>": 3}, {"earned</w>": 3}, {"contempt</w>": 3}, {"Iain</w>": 3}, {"tures</w>": 3}, {"resist</w>": 3}, {"Evil</w>": 3}, {"counterpoint</w>": 3}, {"commun": 3}, {"Pic</w>": 3}, {"streams</w>": 3}, {"Eggs</w>": 3}, {"anonymous</w>": 3}, {"100M</w>": 3}, {"org</w>": 3}, {"pressed</w>": 3}, {"suffers</w>": 3}, {"judgment</w>": 3}, {"exiting</w>": 3}, {"rightly</w>": 3}, {"Boston</w>": 3}, {"programming</w>": 3}, {"onto</w>": 3}, {"millisecond</w>": 3}, {"file</w>": 3}, {"directions</w>": 3}, {"classi": 3}, {"Paid</w>": 3}, {"10k</w>": 3}, {"extinguisher</w>": 3}, {"BBQ</w>": 3}, {"pile</w>": 3}, {"Flamethrowers</w>": 3}, {"ide</w>": 3}, {"CR</w>": 3}, {"violence</w>": 3}, {"forum</w>": 3}, {"woman</w>": 3}, {"gender</w>": 3}, {"low": 3}, {"polls</w>": 3}, {"Jo": 3}, {"buzz": 3}, {"news": 3}, {"Sadly</w>": 3}, {"Pic": 3}, {"Uhh</w>": 3}, {"reserve</w>": 3}, {"root</w>": 3}, {"bio</w>": 3}, {"rude</w>": 3}, {"Pravda</w>": 3}, {"Mis": 3}, {"sanctimonious</w>": 3}, {"insu": 3}, {"facility</w>": 3}, {"beings</w>": 3}, {"editors</w>": 3}, {"Yo</w>": 3}, {"advertised</w>": 3}, {"publication</w>": 3}, {"advertisers</w>": 3}, {"Trump</w>": 3}, {"earth</w>": 3}, {"Bond</w>": 3}, {"criticisms</w>": 3}, {"refinement</w>": 3}, {"Compl": 3}, {"inconsistent</w>": 3}, {"indicate</w>": 3}, {"ada</w>": 3}, {"sorted</w>": 3}, {"10th</w>": 3}, {"fatality</w>": 3}, {"gladly</w>": 3}, {"Ars</w>": 3}, {"subsidized</w>": 3}, {"ered</w>": 3}, {"pairs</w>": 3}, {"Amish</w>": 3}, {"Paradise</w>": 3}, {"Art</w>": 3}, {"album</w>": 3}, {"Sarah</w>": 3}, {"shor": 3}, {"retro</w>": 3}, {"Interview</w>": 3}, {"creator</w>": 3}, {"premi": 3}, {"ools</w>": 3}, {"NTSB</w>": 3}, {"wake</w>": 3}, {"helo</w>": 3}, {"Attempting</w>": 3}, {"bing</w>": 3}, {"ale</w>": 3}, {"wil": 3}, {"bor": 3}, {"conc": 3}, {"ei": 3}, {"Umm</w>": 3}, {"Lori</w>": 3}, {"ult</w>": 3}, {"provi": 3}, {"Jonah</w>": 3}, {"Westworld</w>": 3}, {"Hi": 3}, {"geostationary</w>": 3}, {"overhead</w>": 3}, {"BO</w>": 3}, {"expended</w>": 3}, {"00M</w>": 3}, {"monkeys</w>": 3}, {"Van</w>": 3}, {"initiated</w>": 3}, {"lar</w>": 3}, {"figured</w>": 3}, {"thro": 3}, {"zombie</w>": 3}, {"causeway</w>": 3}, {"Fixed</w>": 3}, {"Computers</w>": 3}, {"ra</w>": 3}, {"Vastly</w>": 3}, {"ef</w>": 3}, {"Ho</w>": 3}, {"foo": 3}, {"conf</w>": 3}, {"fictional</w>": 3}, {"sunset</w>": 3}, {"ities</w>": 3}, {"careless</w>": 3}, {"flo": 3}, {"stretch</w>": 3}, {"mes</w>": 3}, {"sled</w>": 3}, {"recalibrate</w>": 3}, {"tl": 3}, {"installers</w>": 3}, {"charges</w>": 3}, {"peaceful</w>": 3}, {"Fly</w>": 3}, {"10B</w>": 3}, {"coll": 3}, {"ecting</w>": 3}, {"Adelaide</w>": 3}, {"Interplanetary</w>": 3}, {"gunpoint</w>": 3}, {"SK</w>": 3}, {"blo": 3}, {"commands</w>": 3}, {"igg": 3}, {"accel</w>": 3}, {"Wouldn</w>": 3}, {"conscious</w>": 3}, {"judging</w>": 3}, {"reversed</w>": 3}, {"igs</w>": 3}, {"researchers</w>": 3}, {"IM": 3}, {"firm</w>": 3}, {"yrs</w>": 3}, {"independently</w>": 3}, {"complaining</w>": 3}, {"Except</w>": 3}, {"verified</w>": 3}, {"Batteries</w>": 3}, {"sec": 3}, {"Project</w>": 3}, {"dover</w>": 3}, {"bal</w>": 3}, {"formal</w>": 3}, {"mail</w>": 3}, {"oration</w>": 3}, {"subsidy</w>": 3}, {"lan": 3}, {"biting</w>": 3}, {"angles</w>": 3}, {"ast": 3}, {"alling</w>": 3}, {"Co": 3}, {"Promising</w>": 3}, {"addresses</w>": 3}, {"pen": 3}, {"finds</w>": 3}, {"DJ</w>": 3}, {"pins</w>": 3}, {"jury</w>": 3}, {"ial</w>": 3}, {"conspiracy</w>": 3}, {"dude</w>": 3}, {"councils</w>": 3}, {"lined</w>": 3}, {"expectations</w>": 3}, {"Sonata</w>": 3}, {"ambi": 3}, {"hail</w>": 3}, {"lesson</w>": 3}, {"Ultimate</w>": 3}, {"represents</w>": 3}, {"downloaded</w>": 3}, {"autosteer</w>": 3}, {"sters</w>": 3}, {"trigger</w>": 3}, {"aren</w>": 3}, {"regre": 3}, {"accidentally</w>": 3}, {"uploaded</w>": 3}, {"App</w>": 3}, {"regularly</w>": 3}, {"drug</w>": 3}, {"evalu": 3}, {"remedy</w>": 3}, {"Nu": 3}, {"judicial</w>": 3}, {"Rex</w>": 3}, {"wondering</w>": 3}, {"Ghost</w>": 3}, {"downloading</w>": 3}, {"Increasing</w>": 3}, {"soa": 3}, {"Xmas</w>": 3}, {"modify</w>": 3}, {"underestimated</w>": 3}, {"Vote</w>": 3}, {"ph</w>": 3}, {"Forgot</w>": 3}, {"PDT</w>": 3}, {"disabled</w>": 3}, {"voters</w>": 3}, {"abo": 3}, {"uhh</w>": 3}, {"Correc": 3}, {"yup</w>": 3}, {"ruled</w>": 3}, {"bang</w>": 3}, {"lately</w>": 3}, {"Finishing</w>": 3}, {"Cause</w>": 3}, {"Wr": 3}, {"bake</w>": 3}, {"cookies</w>": 3}, {"nam": 3}, {"rebuttal</w>": 3}, {"Logs</w>": 3}, {"visual</w>": 3}, {"sy": 3}, {"Use</w>": 3}, {"ication</w>": 3}, {"emo": 3}, {"hangar</w>": 3}, {"qual</w>": 3}, {"55</w>": 3}, {"Merc</w>": 3}, {"14</w>": 3}, {"enroute</w>": 3}, {"reviewing</w>": 3}, {"lbf</w>": 3}, {"capabilities</w>": 3}, {"scan</w>": 3}, {"trickier</w>": 3}, {"Scre": 3}, {"evolve</w>": 3}, {"staggeringly</w>": 3}, {"Stage</w>": 3}, {"Announcing</w>": 3}, {"tv</w>": 3}, {"evolution</w>": 3}, {"emer": 3}, {"recover</w>": 3}, {"confidence</w>": 3}, {"TE": 3}, {"Virginia</w>": 3}, {"License</w>": 3}, {"Jersey</w>": 3}, {"hedge</w>": 3}, {"connects</w>": 3}, {"stormy</w>": 3}, {"Insane</w>": 3}, {"experiencing</w>": 3}, {"react</w>": 3}, {"ights</w>": 3}, {"behaving</w>": 3}, {"sympathies</w>": 3}, {"J</w>": 3}, {"bet": 3}, {"00</w>": 3}, {"Shuttle</w>": 3}, {"uncompeted</w>": 3}, {"seas</w>": 3}, {"breakfast</w>": 3}, {"Ideally</w>": 3}, {"resolved</w>": 3}, {"cle": 3}, {"Countdown</w>": 3}, {"proposed</w>": 3}, {"gestures</w>": 3}, {"overcoming</w>": 3}, {"asks</w>": 3}, {"petition</w>": 3}, {"Smoking</w>": 3}, {"badly</w>": 3}, {"division</w>": 3}, {"shill</w>": 3}, {"ification</w>": 3}, {"backed</w>": 3}, {"skills</w>": 3}, {"ark": 3}, {"Dealer</w>": 3}, {"Room</w>": 3}, {"deorbit</w>": 3}, {"ep</w>": 3}, {"inflation</w>": 3}, {"ility</w>": 3}, {"shake</w>": 3}, {"Johnny</w>": 3}, {"Cash</w>": 3}, {"ith</w>": 3}, {"controversial</w>": 3}, {"oes</w>": 3}, {"diapers</w>": 3}, {"Haiti</w>": 3}, {"tea</w>": 3}, {"enemies</w>": 3}, {"ook</w>": 3}, {"fried</w>": 3}, {"simulate</w>": 3}, {"lobbyist</w>": 3}, {"manager</w>": 3}, {"projecting</w>": 3}, {"buyable</w>": 3}, {"podcast</w>": 3}, {"wiper</w>": 3}, {"shady</w>": 3}, {"sleep</w>": 3}, {"IRS</w>": 3}, {"cheap</w>": 3}, {"Monica</w>": 3}, {"Cameron</w>": 3}, {"Probable</w>": 3}, {"patchy</w>": 3}, {"management</w>": 3}, {"jitter</w>": 3}, {"stripped</w>": 3}, {"Godzilla</w>": 3}, {"anymore</w>": 3}, {"saving</w>": 3}, {"gross</w>": 3}, {"hash</w>": 3}, {"grail</w>": 3}, {"rocketry</w>": 3}, {"gig": 3}, {"Vision</w>": 3}, {"scales</w>": 3}, {"bind</w>": 3}, {"lobbyists</w>": 3}, {"Automation</w>": 3}, {"TWh</w>": 3}, {"lawsuits</w>": 3}, {"humanoid</w>": 3}, {"laughing</w>": 3}, {"plumbing</w>": 3}, {"unemployment</w>": 3}, {"generations</w>": 3}, {"maze</w>": 3}, {"sublime</w>": 3}, {"rigs</w>": 3}, {"550km</w>": 3}, {"20ms</w>": 3}, {"Loki</w>": 3}, {"Shiba</w>": 3}, {"Inu</w>": 3}, {"payroll</w>": 3}, {"resonate</w>": 3}, {"Becoming</w>": 3}, {"Decentralized</w>": 3}, {"disorder</w>": 3}, {"caution</w>": 3}, {"flicker</w>": 3}, {"Utility</w>": 3}, {"crashes</w>": 3}, {"diner</w>": 3}, {"SN11</w>": 3}, {"CB</w>": 3}, {"airliners</w>": 3}, {"Clubhouse</w>": 3}, {"throwing</w>": 3}, {"Ellison</w>": 2}, {"pie</w>": 2}, {"sum</w>": 2}, {"strugg": 2}, {"Liz</w>": 2}, {"During</w>": 2}, {"darkest</w>": 2}, {"quiring</w>": 2}, {"bonded</w>": 2}, {"part": 2}, {"twisted</w>": 2}, {"partying</w>": 2}, {"nails</w>": 2}, {"Edge</w>": 2}, {"grumpy</w>": 2}, {"visually</w>": 2}, {"playability</w>": 2}, {"abs": 2}, {"trans</w>": 2}, {"pron": 2}, {"ouns</w>": 2}, {"Far</w>": 2}, {"logarithmic</w>": 2}, {"und</w>": 2}, {"Grnheide</w>": 2}, {"Revolution</w>": 2}, {"Nomad</w>": 2}, {"void</w>": 2}, {"agonal</w>": 2}, {"Near</w>": 2}, {"Ali": 2}, {"tives</w>": 2}, {"knock</w>": 2}, {"gram</w>": 2}, {"rying</w>": 2}, {"colon": 2}, {"Ges": 2}, {"pr": 2}, {"Demolition</w>": 2}, {"Prometheus</w>": 2}, {"Unbound</w>": 2}, {"VIC</w>": 2}, {"discovering</w>": 2}, {"truths</w>": 2}, {"Exter": 2}, {"Wider</w>": 2}, {"Shock</w>": 2}, {"trunc": 2}, {"zero": 2}, {"fp": 2}, {"truncated</w>": 2}, {"Int8</w>": 2}, {"linked</w>": 2}, {"Promise</w>": 2}, {"wondered</w>": 2}, {"changer</w>": 2}, {"Ye": 2}, {"hypocrisy</w>": 2}, {"translucent</w>": 2}, {"erc": 2}, {"eption</w>": 2}, {"occlusion</w>": 2}, {"penetrating</w>": 2}, {"4mm</w>": 2}, {"Arguably</w>": 2}, {"App": 2}, {"Cau": 2}, {"advi": 2}, {"SPACs</w>": 2}, {"cropping</w>": 2}, {"establish</w>": 2}, {"ruins</w>": 2}, {"intention</w>": 2}, {"traded</w>": 2}, {"gle</w>": 2}, {"Eventually</w>": 2}, {"terra": 2}, {"termin": 2}, {"frag": 2}, {"sentience</w>": 2}, {"overkill</w>": 2}, {"sector</w>": 2}, {"ground": 2}, {"ba</w>": 2}, {"marginal</w>": 2}, {"divided</w>": 2}, {"figurative</w>": 2}, {"set": 2}, {"experiences</w>": 2}, {"ty": 2}, {"atter": 2}, {"severed</w>": 2}, {"gg": 2}, {"ild</w>": 2}, {"Toss</w>": 2}, {"bit": 2}, {"Moderna</w>": 2}, {"obvi": 2}, {"propulsively</w>": 2}, {"admini": 2}, {"stered</w>": 2}, {"Astronaut</w>": 2}, {"stit": 2}, {"cloudy</w>": 2}, {"ough": 2}, {"nee": 2}, {"entropy</w>": 2}, {"va</w>": 2}, {"honey</w>": 2}, {"pos</w>": 2}, {"Hen": 2}, {"Evi": 2}, {"Medic": 2}, {"subjec": 2}, {"outr": 2}, {"witchcraft</w>": 2}, {"amplification</w>": 2}, {"ase</w>": 2}, {"Lab</w>": 2}, {"sought</w>": 2}, {"assume</w>": 2}, {"eas": 2}, {"False</w>": 2}, {"ballistic</w>": 2}, {"ni": 2}, {"ffl": 2}, {"cough</w>": 2}, {"antigen</w>": 2}, {"BD</w>": 2}, {"flipping</w>": 2}, {"disk</w>": 2}, {"mel": 2}, {"manifold</w>": 2}, {"Whatever</w>": 2}, {"trigg": 2}, {"relieve</w>": 2}, {"strive</w>": 2}, {"essed</w>": 2}, {"ore": 2}, {"actor</w>": 2}, {"canceled</w>": 2}, {"Volume</w>": 2}, {"smartphone</w>": 2}, {"benchmark</w>": 2}, {"clusters</w>": 2}, {"importance</w>": 2}, {"occlu": 2}, {"Opera</w>": 2}, {"urgency</w>": 2}, {"Bann": 2}, {"commut": 2}, {"Guns</w>": 2}, {"convertible</w>": 2}, {"run": 2}, {"Fortunately</w>": 2}, {"quir": 2}, {"warts</w>": 2}, {"Eve</w>": 2}, {"borrow</w>": 2}, {"Low": 2}, {"individu": 2}, {"receiving</w>": 2}, {"invitations</w>": 2}, {"icker</w>": 2}, {"Penguin</w>": 2}, {"positioned</w>": 2}, {"ferring</w>": 2}, {"ults</w>": 2}, {"eu": 2}, {"Latency</w>": 2}, {"notic": 2}, {"champi": 2}, {"hen": 2}, {"18</w>": 2}, {"tum</w>": 2}, {"Ur": 2}, {"wl</w>": 2}, {"Box</w>": 2}, {"foot": 2}, {"combat</w>": 2}, {"cat": 2}, {"Pay": 2}, {"Hill</w>": 2}, {"clin": 2}, {"FEAR</w>": 2}, {"atively</w>": 2}, {"Dead</w>": 2}, {"unt</w>": 2}, {"bul": 2}, {"hardly</w>": 2}, {"scr": 2}, {"apocalyptic</w>": 2}, {"Bet": 2}, {"capex</w>": 2}, {"Mine</w>": 2}, {"Visu": 2}, {"beg": 2}, {"nings</w>": 2}, {"therell</w>": 2}, {"some": 2}, {"seeming</w>": 2}, {"endent</w>": 2}, {"tract</w>": 2}, {"tiki</w>": 2}, {"Boost</w>": 2}, {"Proceeding</w>": 2}, {"lock": 2}, {"downs</w>": 2}, {"disease</w>": 2}, {"mobility</w>": 2}, {"bone</w>": 2}, {"Recommend</w>": 2}, {"ectiveness</w>": 2}, {"encing</w>": 2}, {"inform</w>": 2}, {"tr</w>": 2}, {"extremoph": 2}, {"thrown</w>": 2}, {"69</w>": 2}, {"roomy</w>": 2}, {"touches</w>": 2}, {"Sweet</w>": 2}, {"strategic</w>": 2}, {"Goo": 2}, {"bumps</w>": 2}, {"HG2G</w>": 2}, {"LotR</w>": 2}, {"Illuminaughty</w>": 2}, {"outcomes</w>": 2}, {"airline</w>": 2}, {"airlines</w>": 2}, {"99</w>": 2}, {"maxim": 2}, {"ums</w>": 2}, {"ceiling</w>": 2}, {"75</w>": 2}, {"nesses</w>": 2}, {"SoCs</w>": 2}, {"symp": 2}, {"hony</w>": 2}, {"ord": 2}, {"analo": 2}, {"gy</w>": 2}, {"MobilEye</w>": 2}, {"Fu": 2}, {"dic": 2}, {"hotomy</w>": 2}, {"inven": 2}, {"sellable</w>": 2}, {"sketchy</w>": 2}, {"Eberhards</w>": 2}, {"interim</w>": 2}, {"Marks</w>": 2}, {"Drori</w>": 2}, {"metallurgy</w>": 2}, {"immunity</w>": 2}, {"tel": 2}, {"lens</w>": 2}, {"sealing</w>": 2}, {"joint</w>": 2}, {"ambigu": 2}, {"Passed</w>": 2}, {"ditive</w>": 2}, {"tooling</w>": 2}, {"Gives</w>": 2}, {"tantal": 2}, {"Waymo</w>": 2}, {"spiring</w>": 2}, {"diver": 2}, {"tasty</w>": 2}, {"denser</w>": 2}, {"free": 2}, {"kebab</w>": 2}, {"torn</w>": 2}, {"dner</w>": 2}, {"bol": 2}, {"Battlestar</w>": 2}, {"Galactica</w>": 2}, {"rig": 2}, {"uts</w>": 2}, {"perspiration</w>": 2}, {"cybernetic</w>": 2}, {"burdened</w>": 2}, {"FP</w>": 2}, {"Cryo</w>": 2}, {"shr": 2}, {"inking</w>": 2}, {"southern</w>": 2}, {"ution</w>": 2}, {"Rewatched</w>": 2}, {"Frank": 2}, {"enstein</w>": 2}, {"Ovaltine</w>": 2}, {"Exx": 2}, {"Boo": 2}, {"turb": 2}, {"structures</w>": 2}, {"esc": 2}, {"verage</w>": 2}, {"tanker</w>": 2}, {"filling</w>": 2}, {"land": 2}, {"astronom": 2}, {"telescopes</w>": 2}, {"thicker</w>": 2}, {"hoop</w>": 2}, {"showers</w>": 2}, {"mag": 2}, {"ratic</w>": 2}, {"retail</w>": 2}, {"respon": 2}, {"entials</w>": 2}, {"liers</w>": 2}, {"Australian</w>": 2}, {"gearbox</w>": 2}, {"ulics</w>": 2}, {"commod": 2}, {"quarters</w>": 2}, {"cartoon</w>": 2}, {"stood</w>": 2}, {"Nosecone</w>": 2}, {"Cen": 2}, {"Hawking</w>": 2}, {"tle</w>": 2}, {"Fel": 2}, {"algo</w>": 2}, {"tment</w>": 2}, {"etic</w>": 2}, {"Yahoo</w>": 2}, {"Fin": 2}, {"AT": 2}, {"autocorrect</w>": 2}, {"Custom</w>": 2}, {"op</w>": 2}, {"cluster</w>": 2}, {"waypoints</w>": 2}, {"FP16</w>": 2}, {"FP": 2}, {"mono": 2}, {"diam": 2}, {"ond</w>": 2}, {"aligned</w>": 2}, {"ology</w>": 2}, {"teach</w>": 2}, {"incorrectly</w>": 2}, {"utterly</w>": 2}, {"Ir": 2}, {"rational</w>": 2}, {"Spee": 2}, {"Fact": 2}, {"Shelter</w>": 2}, {"plic": 2}, {"conflation</w>": 2}, {"Radio</w>": 2}, {"shelter</w>": 2}, {"remind</w>": 2}, {"tallest</w>": 2}, {"Smartw": 2}, {"atches</w>": 2}, {"yesterdays</w>": 2}, {"Greece</w>": 2}, {"suicide</w>": 2}, {"digs</w>": 2}, {"LEGO</w>": 2}, {"corrected</w>": 2}, {"checkouts</w>": 2}, {"segments</w>": 2}, {"rewritten</w>": 2}, {"22</w>": 2}, {"Es</w>": 2}, {"wird</w>": 2}, {"Spa</w>": 2}, {"bin</w>": 2}, {"Observatory</w>": 2}, {"oles</w>": 2}, {"productivity</w>": 2}, {"caliber</w>": 2}, {"moron</w>": 2}, {"Rawlinson</w>": 2}, {"contributions</w>": 2}, {"guerre</w>": 2}, {"bom": 2}, {"direc": 2}, {"RVac</w>": 2}, {"schaft</w>": 2}, {"Dank</w>": 2}, {"Strawberry</w>": 2}, {"Fields</w>": 2}, {"Forever</w>": 2}, {"210</w>": 2}, {"actuators</w>": 2}, {"Ste": 2}, {"erti": 2}, {"LHC</w>": 2}, {"accelerator</w>": 2}, {"circ": 2}, {"inters</w>": 2}, {"Watt</w>": 2}, {"Alexander</w>": 2}, {"Hell": 2}, {"Fil": 2}, {"Studies</w>": 2}, {"classes</w>": 2}, {"ior</w>": 2}, {"mutual</w>": 2}, {"CERN</w>": 2}, {"Fer": 2}, {"Harvard</w>": 2}, {"epidemiology</w>": 2}, {"inf": 2}, {"hospit": 2}, {"blame</w>": 2}, {"encounter</w>": 2}, {"grained</w>": 2}, {"blanket</w>": 2}, {"ingement</w>": 2}, {"syntax</w>": 2}, {"esthetically</w>": 2}, {"avoids</w>": 2}, {"night": 2}, {"experimental</w>": 2}, {"sustain</w>": 2}, {"slip</w>": 2}, {"October</w>": 2}, {"discharge</w>": 2}, {"Bang</w>": 2}, {"Ol": 2}, {"analog</w>": 2}, {"izer</w>": 2}, {"frozen</w>": 2}, {"rewrite</w>": 2}, {"Occasional</w>": 2}, {"warn</w>": 2}, {"dug</w>": 2}, {"Zenit</w>": 2}, {"metaphor</w>": 2}, {"calculation</w>": 2}, {"elleicht</w>": 2}, {"speakers</w>": 2}, {"perpetu": 2}, {"panzer</w>": 2}, {"Ja": 2}, {"Garfunkel</w>": 2}, {"lyrics</w>": 2}, {"racy</w>": 2}, {"que</w>": 2}, {"awatt</w>": 2}, {"possess</w>": 2}, {"aning</w>": 2}, {"cher</w>": 2}, {"Elevator</w>": 2}, {"heck</w>": 2}, {"nut</w>": 2}, {"catches</w>": 2}, {"Up</w>": 2}, {"225</w>": 2}, {"explo": 2}, {"recor": 2}, {"pun": 2}, {"memery</w>": 2}, {"eston": 2}, {"bold</w>": 2}, {"victors</w>": 2}, {"ural</w>": 2}, {"Filter</w>": 2}, {"Cry": 2}, {"fu": 2}, {"dge</w>": 2}, {"smoo": 2}, {"convince</w>": 2}, {"hasty</w>": 2}, {"01</w>": 2}, {"uncor": 2}, {"candidates</w>": 2}, {"vtol</w>": 2}, {"embarrassingly</w>": 2}, {"auth": 2}, {"enti": 2}, {"roundabouts</w>": 2}, {"leap</w>": 2}, {"coded</w>": 2}, {"chrome</w>": 2}, {"plat": 2}, {"smartest</w>": 2}, {"sider</w>": 2}, {"Psy": 2}, {"Dome</w>": 2}, {"flatter</w>": 2}, {"substantial</w>": 2}, {"dness</w>": 2}, {"Effici": 2}, {"mounting</w>": 2}, {"chan": 2}, {"fabulous</w>": 2}, {"ham</w>": 2}, {"comb": 2}, {"barn</w>": 2}, {"dil": 2}, {"leveling</w>": 2}, {"retry</w>": 2}, {"Hop</w>": 2}, {"33</w>": 2}, {"occasionally</w>": 2}, {"pontificating</w>": 2}, {"sition</w>": 2}, {"Pyramid</w>": 2}, {"Egypt</w>": 2}, {"itch</w>": 2}, {"cli": 2}, {"ampl": 2}, {"Link</w>": 2}, {"shunt</w>": 2}, {"matrix</w>": 2}, {"Gates</w>": 2}, {"punch</w>": 2}, {"inally</w>": 2}, {"rabies</w>": 2}, {"lover</w>": 2}, {"supp": 2}, {"monopolist</w>": 2}, {"nec": 2}, {"Kapital</w>": 2}, {"nutshell</w>": 2}, {"ose</w>": 2}, {"fab": 2}, {"icated</w>": 2}, {"Ya</w>": 2}, {"objectively</w>": 2}, {"corro": 2}, {"Cyber": 2}, {"top": 2}, {"livi": 2}, {"Kara</w>": 2}, {"hurricane</w>": 2}, {"gate</w>": 2}, {"6k</w>": 2}, {"Havent</w>": 2}, {"legis": 2}, {"meets</w>": 2}, {"creates</w>": 2}, {"universal</w>": 2}, {"49</w>": 2}, {"ensures</w>": 2}, {"aries</w>": 2}, {"inquire</w>": 2}, {"facto": 2}, {"pixel</w>": 2}, {"oven</w>": 2}, {"Indivi": 2}, {"overseen</w>": 2}, {"involves</w>": 2}, {"steep</w>": 2}, {"pes</w>": 2}, {"gaslit</w>": 2}, {"Gas": 2}, {"constituents</w>": 2}, {"ben": 2}, {"til": 2}, {"28</w>": 2}, {"pants</w>": 2}, {"onic</w>": 2}, {"Solving</w>": 2}, {"valued</w>": 2}, {"wearables</w>": 2}, {"induc": 2}, {"mgmt</w>": 2}, {"Excuse</w>": 2}, {"hustle</w>": 2}, {"efully</w>": 2}, {"indoor</w>": 2}, {"unstable</w>": 2}, {"Ether": 2}, {"vesting</w>": 2}, {"meaningless</w>": 2}, {"UBI</w>": 2}, {"aller</w>": 2}, {"revolutionize</w>": 2}, {"translate</w>": 2}, {"Scal": 2}, {"avi": 2}, {"yable</w>": 2}, {"Cute</w>": 2}, {"LR</w>": 2}, {"accep": 2}, {"tably</w>": 2}, {"DA": 2}, {"tation</w>": 2}, {"IHOP</w>": 2}, {"GitHub</w>": 2}, {"leptons</w>": 2}, {"payout</w>": 2}, {"exercise</w>": 2}, {"imagination</w>": 2}, {"clicking</w>": 2}, {"Samwise</w>": 2}, {"Gam": 2}, {"Altho</w>": 2}, {"Dumber</w>": 2}, {"Uranus</w>": 2}, {"fortunate</w>": 2}, {"accomplished</w>": 2}, {"Tequila</w>": 2}, {"na</w>": 2}, {"Gets</w>": 2}, {"author</w>": 2}, {"Dang</w>": 2}, {"fire": 2}, {"harassment</w>": 2}, {"advocate</w>": 2}, {"susp": 2}, {"pseudo": 2}, {"VF</w>": 2}, {"dency</w>": 2}, {"Direc": 2}, {"emplo": 2}, {"inher": 2}, {"sa</w>": 2}, {"photobombed</w>": 2}, {"Others</w>": 2}, {"HC": 2}, {"Deaths</w>": 2}, {"promin": 2}, {"publi": 2}, {"shers</w>": 2}, {"Kli": 2}, {"dou": 2}, {"photo": 2}, {"introduced</w>": 2}, {"Shortseller</w>": 2}, {"Enrichment</w>": 2}, {"Commission</w>": 2}, {"agreement</w>": 2}, {"ames</w>": 2}, {"bud": 2}, {"gie</w>": 2}, {"smugg": 2}, {"fifty</w>": 2}, {"Somethings</w>": 2}, {"cred": 2}, {"Heres</w>": 2}, {"graphs</w>": 2}, {"cla": 2}, {"Grohmann</w>": 2}, {"fishy</w>": 2}, {"icking</w>": 2}, {"eth": 2}, {"Suggestions</w>": 2}, {"short": 2}, {"GPS</w>": 2}, {"bureaucrats</w>": 2}, {"Levitt</w>": 2}, {"izations</w>": 2}, {"automaker</w>": 2}, {"scope</w>": 2}, {"ste": 2}, {"GT": 2}, {"unpriced</w>": 2}, {"consequences</w>": 2}, {"figuratively</w>": 2}, {"dates</w>": 2}, {"Timing</w>": 2}, {"skill": 2}, {"isa</w>": 2}, {"reform</w>": 2}, {"Tentative</w>": 2}, {"Shareholder</w>": 2}, {"cial</w>": 2}, {"abil": 2}, {"intelligent</w>": 2}, {"stalls</w>": 2}, {"definition</w>": 2}, {"console</w>": 2}, {"7k</w>": 2}, {"usefulness</w>": 2}, {"correlation</w>": 2}, {"Pul": 2}, {"Petersen</w>": 2}, {"TO</w>": 2}, {"conver": 2}, {"Jun": 2}, {"enc": 2}, {"atmospheres</w>": 2}, {"ised</w>": 2}, {"hired</w>": 2}, {"Flextape</w>": 2}, {"Throttling</w>": 2}, {"flaming</w>": 2}, {"Leak</w>": 2}, {"Acc": 2}, {"Ston": 2}, {"prop</w>": 2}, {"choices</w>": 2}, {"Staggeringly</w>": 2}, {"tage</w>": 2}, {"fies</w>": 2}, {"prone</w>": 2}, {"RP1</w>": 2}, {"bump</w>": 2}, {"practice</w>": 2}, {"ooting</w>": 2}, {"deployments</w>": 2}, {"emission</w>": 2}, {"charts</w>": 2}, {"Combined</w>": 2}, {"deci": 2}, {"systemic</w>": 2}, {"newspap": 2}, {"leaning</w>": 2}, {"rocky</w>": 2}, {"Outcome</w>": 2}, {"rewards</w>": 2}, {"onia</w>": 2}, {"Pur": 2}, {"Gateway</w>": 2}, {"fied</w>": 2}, {"involved</w>": 2}, {"gerontocracy</w>": 2}, {"Selling</w>": 2}, {"weed</w>": 2}, {"prison</w>": 2}, {"iled</w>": 2}, {"tful</w>": 2}, {"banana</w>": 2}, {"Nine</w>": 2}, {"ought</w>": 2}, {"Dragon": 2}, {"dea": 2}, {"withstand</w>": 2}, {"cancellation</w>": 2}, {"Sunset</w>": 2}, {"determine</w>": 2}, {"Buzz</w>": 2}, {"shire</w>": 2}, {"skies</w>": 2}, {"Lueders</w>": 2}, {"Cancel</w>": 2}, {"Zach</w>": 2}, {"tries</w>": 2}, {"sleeps</w>": 2}, {"Matrix</w>": 2}, {"ison</w>": 2}, {"forgotten</w>": 2}, {"Maxim": 2}, {"Coll": 2}, {"ective</w>": 2}, {"sto": 2}, {"Autonomous</w>": 2}, {"dance</w>": 2}, {"Hospitals</w>": 2}, {"PyTorch</w>": 2}, {"fet": 2}, {"oligopolies</w>": 2}, {"consum": 2}, {"essay</w>": 2}, {"fam": 2}, {"repe": 2}, {"ironically</w>": 2}, {"Washington</w>": 2}, {"fatalities</w>": 2}, {"fea": 2}, {"thered</w>": 2}, {"lived</w>": 2}, {"Tol": 2}, {"ki": 2}, {"pizza</w>": 2}, {"agger": 2}, {"staff</w>": 2}, {"mislead</w>": 2}, {"YE": 2}, {"restarting</w>": 2}, {"arrested</w>": 2}, {"legally</w>": 2}, {"sing": 2}, {"geon</w>": 2}, {"gia</w>": 2}, {"medically</w>": 2}, {"constitutional</w>": 2}, {"vil</w>": 2}, {"moreover</w>": 2}, {"officials</w>": 2}, {"junior</w>": 2}, {"ached</w>": 2}, {"dep": 2}, {"ignorant</w>": 2}, {"Health</w>": 2}, {"stitutional</w>": 2}, {"oms</w>": 2}, {"ipso</w>": 2}, {"interven": 2}, {"Pain</w>": 2}, {"bulk": 2}, {"consume</w>": 2}, {"noble</w>": 2}, {"encountered</w>": 2}, {"tracing</w>": 2}, {"progressively</w>": 2}, {"equator</w>": 2}, {"SLS</w>": 2}, {"dging</w>": 2}, {"refining</w>": 2}, {"flamed</w>": 2}, {"kickass</w>": 2}, {"organ": 2}, {"El</w>": 2}, {"Seg": 2}, {"Archangel</w>": 2}, {"71</w>": 2}, {"aria</w>": 2}, {"JD</w>": 2}, {"Nobel</w>": 2}, {"separated</w>": 2}, {"Utter</w>": 2}, {"Boy</w>": 2}, {"Anyway</w>": 2}, {"Confi": 2}, {"Off": 2}, {"loading</w>": 2}, {"tary</w>": 2}, {"T3": 2}, {"izz": 2}, {"resp": 2}, {"Pac</w>": 2}, {"Spo": 2}, {"Dev": 2}, {"ply</w>": 2}, {"banner</w>": 2}, {"Gave</w>": 2}, {"FRE": 2}, {"Incentives</w>": 2}, {"Classi": 2}, {"iso": 2}, {"HHS</w>": 2}, {"reopen</w>": 2}, {"arrest</w>": 2}, {"AM": 2}, {"ICA</w>": 2}, {"Hubble</w>": 2}, {"tiktok</w>": 2}, {"Oddly</w>": 2}, {"Kind</w>": 2}, {"softball</w>": 2}, {"Pace</w>": 2}, {"ome": 2}, {"tric</w>": 2}, {"redesigned</w>": 2}, {"prov": 2}, {"doc</w>": 2}, {"unscheduled</w>": 2}, {"disassembly</w>": 2}, {"describes</w>": 2}, {"skilled</w>": 2}, {"usual</w>": 2}, {"wizard</w>": 2}, {"actuation</w>": 2}, {"Stops</w>": 2}, {"distillation</w>": 2}, {"hack</w>": 2}, {"foam</w>": 2}, {"visor</w>": 2}, {"ign": 2}, {"succ": 2}, {"noticeable</w>": 2}, {"bers</w>": 2}, {"float</w>": 2}, {"Mechan": 2}, {"studs</w>": 2}, {"uncrewed</w>": 2}, {"dimensions</w>": 2}, {"conflates</w>": 2}, {"artic": 2}, {"tance</w>": 2}, {"vir</w>": 2}, {"salespeople</w>": 2}, {"dressed</w>": 2}, {"tellers</w>": 2}, {"counterintuitive</w>": 2}, {"CF": 2}, {"Reviewing</w>": 2}, {"duced</w>": 2}, {"road": 2}, {"kick</w>": 2}, {"ja</w>": 2}, {"Partial</w>": 2}, {"recei": 2}, {"pt</w>": 2}, {"combining</w>": 2}, {"CPAP</w>": 2}, {"pessimistic</w>": 2}, {"Reverse</w>": 2}, {"ICUs</w>": 2}, {"isms</w>": 2}, {"lawn</w>": 2}, {"ornaments</w>": 2}, {"survived</w>": 2}, {"Down": 2}, {"eval</w>": 2}, {"evol": 2}, {"tally</w>": 2}, {"Swiss</w>": 2}, {"ResMed</w>": 2}, {"inding</w>": 2}, {"ush</w>": 2}, {"disburs": 2}, {"BK</w>": 2}, {"func": 2}, {"lobbying</w>": 2}, {"Regulatory</w>": 2}, {"exha": 2}, {"theirs</w>": 2}, {"Trag": 2}, {"domestic</w>": 2}, {"discord</w>": 2}, {"technologists</w>": 2}, {"Lab": 2}, {"Aim</w>": 2}, {"sin": 2}, {"uation</w>": 2}, {"Havanese</w>": 2}, {"maintaining</w>": 2}, {"commanded</w>": 2}, {"catch": 2}, {"Press</w>": 2}, {"solenoid</w>": 2}, {"metro</w>": 2}, {"circum": 2}, {"stances</w>": 2}, {"scenes</w>": 2}, {"Page</w>": 2}, {"Survival</w>": 2}, {"Gov</w>": 2}, {"Cu": 2}, {"pointed</w>": 2}, {"Resmed</w>": 2}, {"stroke</w>": 2}, {"Device</w>": 2}, {"antibody</w>": 2}, {"donors</w>": 2}, {"gro": 2}, {"warehouses</w>": 2}, {"paperwork</w>": 2}, {"onset</w>": 2}, {"grown</w>": 2}, {"ek": 2}, {"alistic</w>": 2}, {"condensation</w>": 2}, {"Customs</w>": 2}, {"ority</w>": 2}, {"shipped</w>": 2}, {"techniques</w>": 2}, {"spool</w>": 2}, {"Oc": 2}, {"Italian</w>": 2}, {"Pa": 2}, {"N95</w>": 2}, {"1200</w>": 2}, {"PPE</w>": 2}, {"phys": 2}, {"Ventilators</w>": 2}, {"Panic</w>": 2}, {"Institute</w>": 2}, {"causality</w>": 2}, {"grandparents</w>": 2}, {"vectors</w>": 2}, {"AP": 2}, {"Sig": 2}, {"mental</w>": 2}, {"containment</w>": 2}, {"reduces</w>": 2}, {"asymptote</w>": 2}, {"strict</w>": 2}, {"simil": 2}, {"moidal</w>": 2}, {"consideration</w>": 2}, {"person": 2}, {"Family</w>": 2}, {"trends</w>": 2}, {"essor</w>": 2}, {"instantly</w>": 2}, {"oft</w>": 2}, {"presump": 2}, {"trending</w>": 2}, {"investigation</w>": 2}, {"gon</w>": 2}, {"rhy": 2}, {"smal</w>": 2}, {"ere</w>": 2}, {"flatten</w>": 2}, {"xy": 2}, {"misdiagnosed</w>": 2}, {"quo": 2}, {"cy": 2}, {"Wouldve</w>": 2}, {"killer</w>": 2}, {"exceeded</w>": 2}, {"Permian</w>": 2}, {"Moral</w>": 2}, {"mor": 2}, {"manipulation</w>": 2}, {"god</w>": 2}, {"advancing</w>": 2}, {"reward</w>": 2}, {"fers</w>": 2}, {"amm": 2}, {"sor": 2}, {"Vir": 2}, {"confl": 2}, {"diagnosis</w>": 2}, {"contraction</w>": 2}, {"extrapolating</w>": 2}, {"Keep</w>": 2}, {"Recent</w>": 2}, {"catalog</w>": 2}, {"commit": 2}, {"compla": 2}, {"pressur": 2}, {"stripping</w>": 2}, {"elling</w>": 2}, {"Bowie</w>": 2}, {"35</w>": 2}, {"aspects</w>": 2}, {"disclosure</w>": 2}, {"trial</w>": 2}, {"planisher</w>": 2}, {"inte": 2}, {"Tin": 2}, {"hear": 2}, {"Battle</w>": 2}, {"Ang": 2}, {"Happ": 2}, {"ening</w>": 2}, {"cornering</w>": 2}, {"gradient</w>": 2}, {"factoring</w>": 2}, {"elevation</w>": 2}, {"tw": 2}, {"successive</w>": 2}, {"At": 2}, {"ader</w>": 2}, {"Curry</w>": 2}, {"makeup</w>": 2}, {"loc": 2}, {"Training</w>": 2}, {"Apply</w>": 2}, {"rela": 2}, {"Regu": 2}, {"Run</w>": 2}, {"lionth</w>": 2}, {"percent</w>": 2}, {"Reminded</w>": 2}, {"ater": 2}, {"NER": 2}, {"Transpiration</w>": 2}, {"elding</w>": 2}, {"whoop</w>": 2}, {"positively</w>": 2}, {"Photos</w>": 2}, {"Snow</w>": 2}, {"slide</w>": 2}, {"wal": 2}, {"iny</w>": 2}, {"wea": 2}, {"volu": 2}, {"acy</w>": 2}, {"Residual</w>": 2}, {"values</w>": 2}, {"Tran": 2}, {"installations</w>": 2}, {"Including</w>": 2}, {"hypo": 2}, {"puck": 2}, {"Suborbital</w>": 2}, {"ud": 2}, {"Nutcracker</w>": 2}, {"strawberries</w>": 2}, {"basilisk</w>": 2}, {"REALiTi</w>": 2}, {"logy</w>": 2}, {"ascribed</w>": 2}, {"han": 2}, {"Tiny</w>": 2}, {"Lin": 2}, {"spray</w>": 2}, {"aff": 2}, {"simulator</w>": 2}, {"plan": 2}, {"recru": 2}, {"designers</w>": 2}, {"Intuitively</w>": 2}, {"ight": 2}, {"complexities</w>": 2}, {"electrode</w>": 2}, {"forma": 2}, {"restoring</w>": 2}, {"medieval</w>": 2}, {"libr": 2}, {"coding</w>": 2}, {"interfaces</w>": 2}, {"graduated</w>": 2}, {"ackathon</w>": 2}, {"eable</w>": 2}, {"dataset</w>": 2}, {"icing</w>": 2}, {"ign</w>": 2}, {"desperate</w>": 2}, {"pages</w>": 2}, {"itation</w>": 2}, {"Troll</w>": 2}, {"adver": 2}, {"Vibe</w>": 2}, {"tify</w>": 2}, {"influenza</w>": 2}, {"considerable</w>": 2}, {"performed</w>": 2}, {"fluffy</w>": 2}, {"irs</w>": 2}, {"mir": 2}, {"refl": 2}, {"doubles</w>": 2}, {"repaired</w>": 2}, {"GF4</w>": 2}, {"every": 2}, {"dboard</w>": 2}, {"anticipate</w>": 2}, {"smo": 2}, {"Bla": 2}, {"dles</w>": 2}, {"lau": 2}, {"Walk</w>": 2}, {"expertise</w>": 2}, {"aton</w>": 2}, {"sli": 2}, {"Densi": 2}, {"oper": 2}, {"mind": 2}, {"outputs</w>": 2}, {"ancing</w>": 2}, {"motiv": 2}, {"railgun</w>": 2}, {"studying</w>": 2}, {"say": 2}, {"Destro": 2}, {"sures</w>": 2}, {"lins</w>": 2}, {"yrinth</w>": 2}, {"RCS</w>": 2}, {"LI</w>": 2}, {"pling</w>": 2}, {"Terminal</w>": 2}, {"Plug</w>": 2}, {"sock": 2}, {"Point</w>": 2}, {"hu": 2}, {"NS": 2}, {"Sto": 2}, {"Wik": 2}, {"club</w>": 2}, {"ew</w>": 2}, {"retire</w>": 2}, {"Cargo</w>": 2}, {"commer": 2}, {"cially</w>": 2}, {"tapping</w>": 2}, {"Michigan</w>": 2}, {"extensive</w>": 2}, {"dom": 2}, {"purcha": 2}, {"ethical</w>": 2}, {"animals</w>": 2}, {"geothermal</w>": 2}, {"veget": 2}, {"arian</w>": 2}, {"gan</w>": 2}, {"shakes</w>": 2}, {"wd": 2}, {"gued</w>": 2}, {"suggestion</w>": 2}, {"Stalin</w>": 2}, {"pulse</w>": 2}, {"sudden</w>": 2}, {"olic</w>": 2}, {"anon</w>": 2}, {"Thousands</w>": 2}, {"Bal": 2}, {"Ram": 2}, {"Loo": 2}, {"umin": 2}, {"sculptures</w>": 2}, {"theories</w>": 2}, {"Correlation</w>": 2}, {"causation</w>": 2}, {"lumber</w>": 2}, {"mill</w>": 2}, {"scholarship</w>": 2}, {"UPenn</w>": 2}, {"Wharton</w>": 2}, {"overclocked</w>": 2}, {"Kouri</w>": 2}, {"Caribbean</w>": 2}, {"conversion</w>": 2}, {"aimed</w>": 2}, {"Strip</w>": 2}, {"fumes</w>": 2}, {"Earthquake</w>": 2}, {"spamming</w>": 2}, {"bleak</w>": 2}, {"Activating</w>": 2}, {"bloatware</w>": 2}, {"implications</w>": 2}, {"Phone</w>": 2}, {"notification</w>": 2}, {"Yer</w>": 2}, {"autonavigate</w>": 2}, {"reboot</w>": 2}, {"forwarded</w>": 2}, {"Mirror</w>": 2}, {"Parasite</w>": 2}, {"superconductors</w>": 2}, {"Cavill</w>": 2}, {"rapper</w>": 2}, {"Write</w>": 2}, {"earnest</w>": 2}, {"struggle</w>": 2}, {"fictionalized</w>": 2}, {"founding</w>": 2}, {"VFX</w>": 2}, {"healing</w>": 2}, {"Looper</w>": 2}, {"calamity</w>": 2}, {"Holiday</w>": 2}, {"swift</w>": 2}, {"Stardew</w>": 2}, {"Backgammon</w>": 2}, {"Mobileye</w>": 2}, {"Cinnamon</w>": 2}, {"thorny</w>": 2}, {"mcu</w>": 2}, {"mcu1</w>": 2}, {"ap2</w>": 2}, {"Lmpe</w>": 2}, {"Moth</w>": 2}, {"Bunch</w>": 2}, {"cynics</w>": 2}, {"excuse</w>": 2}, {"deeds</w>": 2}, {"Player</w>": 2}, {"Crossing</w>": 2}, {"transitions</w>": 2}, {"Yoda</w>": 2}, {"impossibly</w>": 2}, {"Blame</w>": 2}, {"smol</w>": 2}, {"Plausible</w>": 2}, {"DLC</w>": 2}, {"paywalls</w>": 2}, {"dialog</w>": 2}, {"tutorial</w>": 2}, {"Root</w>": 2}, {"Math</w>": 2}, {"deals</w>": 2}, {"junkyards</w>": 2}, {"hotrodded</w>": 2}, {"Philly</w>": 2}, {"shirts</w>": 2}, {"73</w>": 2}, {"inch</w>": 2}, {"Arizona</w>": 2}, {"inventing</w>": 2}, {"21</w>": 2}, {"sauce</w>": 2}, {"spiced</w>": 2}, {"neon</w>": 2}, {"krypton</w>": 2}, {"odorless</w>": 2}, {"nicest</w>": 2}, {"owl</w>": 2}, {"Matters</w>": 2}, {"airflow</w>": 2}, {"invisible</w>": 2}, {"Laminar</w>": 2}, {"generational</w>": 2}, {"Hank</w>": 2}, {"Scorpio</w>": 2}, {"Warthog</w>": 2}, {"Sledgehammer</w>": 2}, {"uphill</w>": 2}, {"3mm</w>": 2}, {"kilotonnage</w>": 2}, {"Study</w>": 2}, {"bend</w>": 2}, {"planar</w>": 2}, {"stamping</w>": 2}, {"tri</w>": 2}, {"Armored</w>": 2}, {"Personnel</w>": 2}, {"Carrier</w>": 2}, {"APC</w>": 2}, {"Riding</w>": 2}, {"throws</w>": 2}, {"threw</w>": 2}, {"airtime</w>": 2}, {"gentrify</w>": 2}, {"Cephalopods</w>": 2}, {"oppose</w>": 2}, {"initiative</w>": 2}, {"Prius</w>": 2}, {"obsessed</w>": 2}, {"embarrassed</w>": 2}, {"hipsters</w>": 2}, {"neuro</w>": 2}, {"Balrog</w>": 2}, {"Gentrify</w>": 2}, {"F8</w>": 2}, {"fomo</w>": 2}, {"yolo</w>": 2}, {"GIGA</w>": 2}, {"BERLIN</w>": 2}, {"ugly</w>": 2}, {"MPGe</w>": 2}, {"retrofitted</w>": 2}, {"eventual</w>": 2}, {"Swan</w>": 2}, {"1000X</w>": 2}, {"Extremism</w>": 2}, {"APCs</w>": 2}, {"FA</w>": 2}, {"Connected</w>": 2}, {"offshore</w>": 2}, {"eons</w>": 2}, {"downhill</w>": 2}, {"Treebeard</w>": 2}, {"kindling</w>": 2}, {"earthquakes</w>": 2}, {"resilient</w>": 2}, {"asphalt</w>": 2}, {"ads</w>": 2}, {"SEO</w>": 2}, {"Imagine</w>": 2}, {"dispensing</w>": 2}, {"anyplace</w>": 2}, {"seniors</w>": 2}, {"smile</w>": 2}, {"Sandwich</w>": 2}, {"stilettos</w>": 2}, {"wight</w>": 2}, {"Surfaces</w>": 2}, {"Dragonglass</w>": 2}, {"bumpy</w>": 2}, {"48</w>": 2}, {"GAAP</w>": 2}, {"Positive</w>": 2}, {"downforce</w>": 2}, {"PG</w>": 2}, {"offline</w>": 2}, {"opposing</w>": 2}, {"robocalypse</w>": 2}, {"Conservation</w>": 2}, {"260</w>": 2}, {"deposits</w>": 2}, {"meteorites</w>": 2}, {"masses</w>": 2}, {"6400km</w>": 2}, {"6800km</w>": 2}, {"simplification</w>": 2}, {"drainage</w>": 2}, {"representive</w>": 2}, {"Rain</w>": 2}, {"trademarking</w>": 2}, {"bouncing</w>": 2}, {"armored</w>": 2}, {"Chief</w>": 2}, {"Recommended</w>": 2}, {"rewatch</w>": 2}, {"Underappreciated</w>": 2}, {"clarity</w>": 2}, {"fries</w>": 2}, {"finesse</w>": 2}, {"cease</w>": 2}, {"Allows</w>": 2}, {"supervision</w>": 2}, {"coincident</w>": 2}, {"RDW</w>": 2}, {"Unclear</w>": 2}, {"Asterix</w>": 2}, {"Obelix</w>": 2}, {"permits</w>": 2}, {"Sooo</w>": 2}, {"Disaster</w>": 2}, {"Moonbase</w>": 2}, {"Door</w>": 2}, {"orange</w>": 2}, {"Compatible</w>": 2}, {"Stuart</w>": 2}, {"Russell</w>": 2}, {"reconfigure</w>": 2}, {"reallocate</w>": 2}, {"Irvine</w>": 2}, {"Hh</w>": 2}, {"iceberg</w>": 2}, {"Customized</w>": 2}, {"hacks</w>": 2}, {"boyz</w>": 2}, {"chauffeur</w>": 2}, {"Rosetta</w>": 2}, {"beside</w>": 2}, {"ablate</w>": 2}, {"250k</w>": 2}, {"Thankfully</w>": 2}, {"FSW</w>": 2}, {"inverse</w>": 2}, {"CJ</w>": 2}, {"pardon</w>": 2}, {"Darcy</w>": 2}, {"shrill</w>": 2}, {"inhabit</w>": 2}, {"Inco</w>": 2}, {"dissimilar</w>": 2}, {"SN12</w>": 2}, {"Figure</w>": 2}, {"Meanwhile</w>": 2}, {"internationally</w>": 2}, {"selected</w>": 2}, {"swarms</w>": 2}, {"manipulate</w>": 2}, {"discretion</w>": 2}, {"composites</w>": 2}, {"Mk4</w>": 2}, {"Mk5</w>": 2}, {"Six</w>": 2}, {"Provides</w>": 2}, {"transporter</w>": 2}, {"Lifting</w>": 2}, {"client</w>": 2}, {"Java</w>": 2}, {"hockey</w>": 2}, {"VRML</w>": 2}, {"Pascal</w>": 2}, {"SQL</w>": 2}, {"localization</w>": 2}, {"cools</w>": 2}, {"Therefore</w>": 2}, {"mural</w>": 2}, {"veritable</w>": 2}, {"Priest</w>": 2}, {"Harvest</w>": 2}, {"rake</w>": 2}, {"driveway</w>": 2}, {"cashmere</w>": 2}, {"scarf</w>": 2}, {"Slovakia</w>": 2}, {"Classified</w>": 2}, {"URO</w>": 2}, {"unidentified</w>": 2}, {"stacks</w>": 2}, {"Raceway</w>": 2}, {"sectional</w>": 2}, {"Flexible</w>": 2}, {"Nose</w>": 2}, {"movable</w>": 2}, {"vessels</w>": 2}, {"Placed</w>": 2}, {"faring</w>": 2}, {"morale</w>": 2}, {"regression</w>": 2}, {"Respect</w>": 2}, {"v2</w>": 2}, {"Ambroisie</w>": 2}, {"Vosges</w>": 2}, {"Etienne</w>": 2}, {"roomier</w>": 2}, {"accommodate</w>": 2}, {"beaten</w>": 2}, {"Junkyard</w>": 2}, {"Tatooine</w>": 2}, {"tribute</w>": 2}, {"Hungry</w>": 2}, {"chargers</w>": 2}, {"hone</w>": 2}, {"customize</w>": 2}, {"negotiations</w>": 2}, {"undersupply</w>": 2}, {"tails</w>": 2}, {"overstepping</w>": 2}, {"imbalances</w>": 2}, {"Overarching</w>": 2}, {"bellows</w>": 2}, {"Thames</w>": 2}, {"River</w>": 2}, {"cigars</w>": 2}, {"prevention</w>": 2}, {"Flux</w>": 2}, {"capacitor</w>": 2}, {"Flock</w>": 2}, {"lap</w>": 2}, {"Flugplatz</w>": 2}, {"Laguna</w>": 2}, {"Seca</w>": 2}, {"overrun</w>": 2}, {"demented</w>": 2}, {"container</w>": 2}, {"sland</w>": 2}, {"acoustics</w>": 2}, {"adhesive</w>": 2}, {"Marshmellow</w>": 2}, {"Failure</w>": 2}, {"merciful</w>": 2}, {"Distance</w>": 2}, {"6g</w>": 2}, {"03m</w>": 2}, {"poorly</w>": 2}, {"paradigm</w>": 2}, {"Travels</w>": 2}, {"indicative</w>": 2}, {"350</w>": 2}, {"Callisto</w>": 2}, {"Ganymede</w>": 2}, {"Titan</w>": 2}, {"thee</w>": 2}, {"lore</w>": 2}, {"Romania</w>": 2}, {"KWM</w>": 2}, {"Hadouken</w>": 2}, {"Offer</w>": 2}, {"remainder</w>": 2}, {"waiving</w>": 2}, {"Indias</w>": 2}, {"Merging</w>": 2}, {"branches</w>": 2}, {"ultracaps</w>": 2}, {"Nerdburgering</w>": 2}, {"sweaty</w>": 2}, {"Legs</w>": 2}, {"sharpest</w>": 2}, {"unhappiness</w>": 2}, {"poisonous</w>": 2}, {"spewing</w>": 2}, {"cheat</w>": 2}, {"Slowpoke</w>": 2}, {"anniversary</w>": 2}, {"Core</w>": 2}, {"30ft</w>": 2}, {"R2D2s</w>": 2}, {"Empty</w>": 2}, {"rusty</w>": 2}, {"Arm</w>": 2}, {"Dronship</w>": 2}, {"Panama</w>": 2}, {"Canal</w>": 2}, {"Impressively</w>": 2}, {"Igniters</w>": 2}, {"finicky</w>": 2}, {"500ft</w>": 2}, {"Worlds</w>": 2}, {"commissioners</w>": 2}, {"commission</w>": 2}, {"peaker</w>": 2}, {"Nude</w>": 2}, {"Scientist</w>": 2}, {"diverting</w>": 2}, {"fallout</w>": 2}, {"explosions</w>": 2}, {"radioactive</w>": 2}, {"Trickier</w>": 2}, {"localized</w>": 2}, {"reflector</w>": 2}, {"Cookie</w>": 2}, {"decorating</w>": 2}, {"Converts</w>": 2}, {"relaunched</w>": 2}, {"abdomen</w>": 2}, {"Generates</w>": 2}, {"thermonuclear</w>": 2}, {"hashtagging</w>": 2}, {"edgy</w>": 2}, {"Hashtags</w>": 2}, {"abomination</w>": 2}, {"reinforcement</w>": 2}, {"Nuking</w>": 2}, {"fancy</w>": 2}, {"rq</w>": 2}, {"programmable</w>": 2}, {"Surrealism</w>": 2}, {"introduce</w>": 2}, {"goth</w>": 2}, {"Yang</w>": 2}, {"Opportunity</w>": 2}, {"knocks</w>": 2}, {"Passing</w>": 2}, {"fad</w>": 2}, {"immersed</w>": 2}, {"nearest</w>": 2}, {"10T</w>": 2}, {"Caraoke</w>": 2}, {"reminding</w>": 2}, {"rectify</w>": 2}, {"Tons</w>": 2}, {"lookin</w>": 2}, {"Pot</w>": 2}, {"kettle</w>": 2}, {"Georges</w>": 2}, {"NCAP</w>": 2}, {"headlight</w>": 2}, {"eastward</w>": 2}, {"windbreak</w>": 2}, {"Teletub</w>": 2}, {"Workin</w>": 2}, {"guity</w>": 2}, {"Ginger</w>": 2}, {"Rogers</w>": 2}, {"dashingly</w>": 2}, {"handsome</w>": 2}, {"entomological</w>": 2}, {"haberdashery</w>": 2}, {"Relief</w>": 2}, {"Fates</w>": 2}, {"unaffordable</w>": 2}, {"aerial</w>": 2}, {"Depot</w>": 2}, {"Mailing</w>": 2}, {"Spooling</w>": 2}, {"Jason</w>": 2}, {"piercing</w>": 2}, {"selects</w>": 2}, {"appointment</w>": 2}, {"appointments</w>": 2}, {"Roblox</w>": 2}, {"Poland</w>": 2}, {"Focused</w>": 2}, {"selecting</w>": 2}, {"beeps</w>": 2}, {"chimes</w>": 2}, {"Ability</w>": 2}, {"immersive</w>": 2}, {"cinematic</w>": 2}, {"comfy</w>": 2}, {"finessing</w>": 2}, {"Whatevers</w>": 2}, {"fairies</w>": 2}, {"Frazetta</w>": 2}, {"Encounter</w>": 2}, {"Livingstone</w>": 2}, {"presume</w>": 2}, {"Thin</w>": 2}, {"lightest</w>": 2}, {"ceramic</w>": 2}, {"conductive</w>": 2}, {"reflectivity</w>": 2}, {"photonic</w>": 2}, {"radiate</w>": 2}, {"heats</w>": 2}, {"outboard</w>": 2}, {"Goodbye</w>": 2}, {"slots</w>": 2}, {"decontent</w>": 2}, {"beggin</w>": 2}, {"iterating</w>": 2}, {"considers</w>": 2}, {"Trendline</w>": 2}, {"Addressing</w>": 2}, {"epilepsy</w>": 2}, {"Raven</w>": 2}, {"powertain</w>": 2}, {"adaptive</w>": 2}, {"Acceleration</w>": 2}, {"MSRP</w>": 2}, {"Incent</w>": 2}, {"lightsaber</w>": 2}, {"Straw</w>": 2}, {"fallacy</w>": 2}, {"commodity</w>": 2}, {"scalpers</w>": 2}, {"Streaming</w>": 2}, {"creatures</w>": 2}, {"Grahams</w>": 2}, {"Hidden</w>": 2}, {"inertial</w>": 2}, {"measurements</w>": 2}, {"multilevel</w>": 2}, {"teleported</w>": 2}, {"Parking</w>": 2}, {"chuggy</w>": 2}, {"risking</w>": 2}, {"27</w>": 2}, {"Plane</w>": 2}, {"reserves</w>": 2}, {"Cont</w>": 2}, {"20m</w>": 2}, {"refreshed</w>": 2}, {"shampoo</w>": 2}, {"freespace</w>": 2}, {"shine</w>": 2}, {"51</w>": 2}, {"probing</w>": 2}, {"Intersections</w>": 2}, {"shopping</w>": 2}, {"Developer</w>": 2}, {"scenarios</w>": 2}, {"Local</w>": 2}, {"diverge</w>": 2}, {"Wrlq</w>": 2}, {"Bakunin</w>": 2}, {"Duncan</w>": 2}, {"pillow</w>": 2}, {"hovers</w>": 2}, {"LJ</w>": 2}, {"NG</w>": 2}, {"Hz</w>": 2}, {"Sharknado</w>": 2}, {"analyze</w>": 2}, {"recurrence</w>": 2}, {"safeguard</w>": 2}, {"crashing</w>": 2}, {"recursive</w>": 2}, {"Solaris</w>": 2}, {"FWIW</w>": 2}, {"Jet</w>": 2}, {"Tweak</w>": 2}, {"Merkindise</w>": 2}, {"merkins</w>": 2}, {"haggle</w>": 2}, {"properly</w>": 2}, {"autocorrected</w>": 2}, {"hubris</w>": 2}, {"Faberg</w>": 2}, {"Hardly</w>": 2}, {"Seat</w>": 2}, {"slanted</w>": 2}, {"monopost</w>": 2}, {"Louis</w>": 2}, {"hammerhead</w>": 2}, {"restraint</w>": 2}, {"Disneys</w>": 2}, {"galley</w>": 2}, {"ICBM</w>": 2}, {"cabins</w>": 2}, {"Frangible</w>": 2}, {"actuated</w>": 2}, {"Splitting</w>": 2}, {"breached</w>": 2}, {"downrange</w>": 2}, {"imparted</w>": 2}, {"unimportant</w>": 2}, {"Goddard</w>": 2}, {"cortisol</w>": 2}, {"botanical</w>": 2}, {"gardens</w>": 2}, {"KSC</w>": 2}, {"Spent</w>": 2}, {"Iago</w>": 2}, {"socio</w>": 2}, {"Piketty</w>": 2}, {"LC</w>": 2}, {"39A</w>": 2}, {"imposes</w>": 2}, {"FFSC</w>": 2}, {"converting</w>": 2}, {"Solvable</w>": 2}, {"Turbine</w>": 2}, {"cracking</w>": 2}, {"periodic</w>": 2}, {"seals</w>": 2}, {"Coking</w>": 2}, {"Excessive</w>": 2}, {"Concrete</w>": 2}, {"seams</w>": 2}, {"glamorous</w>": 2}, {"instrumentation</w>": 2}, {"hydrostatic</w>": 2}, {"revision</w>": 2}, {"liberated</w>": 2}, {"synchronization</w>": 2}, {"belongs</w>": 2}, {"paradise</w>": 2}, {"musket</w>": 2}, {"ammo</w>": 2}, {"ln</w>": 2}, {"demographics</w>": 2}, {"stratified</w>": 2}, {"overpopulation</w>": 2}, {"Randers</w>": 2}, {"Von</w>": 2}, {"Neumann</w>": 2}, {"Yezz</w>": 2}, {"Stonk</w>": 2}, {"Beach</w>": 2}, {"Buggy</w>": 2}, {"1875</w>": 2}, {"palette</w>": 2}, {"Sole</w>": 2}, {"taxis</w>": 2}, {"mileage</w>": 2}, {"je</w>": 2}, {"Touched</w>": 2}, {"pharaoh</w>": 2}, {"BG2</w>": 2}, {"bees</w>": 2}, {"metaphorical</w>": 2}, {"footwear</w>": 2}, {"excessively</w>": 2}, {"rap</w>": 2}, {"discernible</w>": 2}, {"reproach</w>": 2}, {"Return</w>": 2}, {"Toof</w>": 2}, {"muffled</w>": 2}, {"titter</w>": 2}, {"Flag</w>": 2}, {"Warnings</w>": 2}, {"outage</w>": 2}, {"collect</w>": 2}, {"rainwater</w>": 2}, {"antifreeze</w>": 2}, {"climates</w>": 2}, {"Annual</w>": 2}, {"offramp</w>": 2}, {"Kazakhstan</w>": 2}, {"misunderstandings</w>": 2}, {"Subway</w>": 2}, {"pax</w>": 2}, {"autopods</w>": 2}, {"crucial</w>": 2}, {"catgirls</w>": 2}, {"Access</w>": 2}, {"Program</w>": 2}, {"Feedback</w>": 2}, {"Restoring</w>": 2}, {"vested</w>": 2}, {"battling</w>": 2}, {"govts</w>": 2}, {"Dramatically</w>": 2}, {"Distances</w>": 2}, {"expenses</w>": 2}, {"gamer</w>": 2}, {"reflex</w>": 2}, {"disadvantaged</w>": 2}, {"Rotate</w>": 2}, {"axis</w>": 2}, {"rods</w>": 2}, {"desaturation</w>": 2}, {"Ku</w>": 2}, {"sat</w>": 2}, {"reflection</w>": 2}, {"astronomical</w>": 2}, {"experiments</w>": 2}, {"telelscopes</w>": 2}, {"attenuation</w>": 2}, {"swirl</w>": 2}, {"mixing</w>": 2}, {"interval</w>": 2}, {"doubled</w>": 2}, {"optimum</w>": 2}, {"tron</w>": 2}, {"Consumers</w>": 2}, {"operative</w>": 2}, {"Lights</w>": 2}, {"interconnected</w>": 2}, {"popping</w>": 2}, {"Paperwork</w>": 2}, {"tripling</w>": 2}, {"folding</w>": 2}, {"8m</w>": 2}, {"Turbines</w>": 2}, {"depiction</w>": 2}, {"Horizontally</w>": 2}, {"Aero</w>": 2}, {"Partially</w>": 2}, {"combusted</w>": 2}, {"Turbopump</w>": 2}, {"collector</w>": 2}, {"Portal</w>": 2}, {"Interact</w>": 2}, {"XBox</w>": 2}, {"PS</w>": 2}, {"alloying</w>": 2}, {"knives</w>": 2}, {"forks</w>": 2}, {"toxins</w>": 2}, {"cleans</w>": 2}, {"travels</w>": 2}, {"Nickname</w>": 2}, {"grateful</w>": 2}, {"demands</w>": 2}, {"impedance</w>": 2}, {"heaviest</w>": 2}, {"terabit</w>": 2}, {"packed</w>": 2}, {"dispenser</w>": 2}, {"u3k</w>": 2}, {"Experiment</w>": 2}, {"concluded</w>": 2}, {"font</w>": 2}, {"Spiderwee</w>": 2}, {"Artstation</w>": 2}, {"dabbing</w>": 2}, {"loneliest</w>": 2}, {"teasing</w>": 2}, {"Shoulda</w>": 2}, {"bejeweled</w>": 2}, {"glove</w>": 2}, {"Cyberdyne</w>": 2}, {"Systems</w>": 2}, {"gloves</w>": 2}, {"folks</w>": 2}, {"brennt</w>": 2}, {"isboss</w>": 2}, {"Schatz</w>": 2}, {"bitte</w>": 2}, {"werde</w>": 2}, {"399</w>": 2}, {"gemtlich</w>": 2}, {"stow</w>": 2}, {"Smurf</w>": 2}, {"Gandalf</w>": 2}, {"Grey</w>": 2}, {"Eurovision</w>": 2}, {"Euro</w>": 2}, {"checkbox</w>": 2}, {"Settings</w>": 2}, {"firings</w>": 2}, {"Relatively</w>": 2}, {"Triggered</w>": 2}, {"Margaritaville</w>": 2}, {"goat</w>": 2}, {"boredom</w>": 2}, {"Ramanujan</w>": 2}, {"jk</w>": 2}, {"Deepfake</w>": 2}, {"Malcolm</w>": 2}, {"haters</w>": 2}, {"Genau</w>": 2}, {"observation</w>": 2}, {"Quantum</w>": 2}, {"NVIDIA</w>": 2}, {"Pegasus</w>": 2}, {"Pete</w>": 2}, {"teraops</w>": 2}, {"Certain</w>": 2}, {"whimsical</w>": 2}, {"untethered</w>": 2}, {"Heltsley</w>": 2}, {"Hong</w>": 2}, {"CleanTechnica</w>": 2}, {"twigs</w>": 2}, {"repurpose</w>": 2}, {"recharge</w>": 2}, {"Arent</w>": 2}, {"leafblower</w>": 2}, {"shamed</w>": 2}, {"Jeez</w>": 2}, {"contextual</w>": 2}, {"flammable</w>": 2}, {"signicant</w>": 2}, {"billboard</w>": 2}, {"thatll</w>": 2}, {"Worst</w>": 2}, {"trivially</w>": 2}, {"upgradeable</w>": 2}, {"Alchemy</w>": 2}, {"Milady</w>": 2}, {"repellant</w>": 2}, {"rectangle</w>": 2}, {"Ewere</w>": 2}, {"winsome</w>": 2}, {"eyre</w>": 2}, {"aaargh</w>": 2}, {"uWu</w>": 2}, {"ewe</w>": 2}, {"lmpe</w>": 2}, {"lamp</w>": 2}, {"Wake</w>": 2}, {"sheeple</w>": 2}, {"oxidizer</w>": 2}, {"ug</w>": 2}, {"rl</w>": 2}, {"Switched</w>": 2}, {"Museum</w>": 2}, {"ram</w>": 2}, {"replic": 2}, {"Winter</w>": 2}, {"snowfall</w>": 2}, {"Buying</w>": 2}, {"dragon</w>": 2}, {"starved</w>": 2}, {"Deal</w>": 2}, {"handy</w>": 2}, {"ld": 2}, {"sock</w>": 2}, {"pupp": 2}, {"Gundam</w>": 2}, {"rupt</w>": 2}, {"destroying</w>": 2}, {"week": 2}, {"Incorrect</w>": 2}, {"Replacing</w>": 2}, {"Investor</w>": 2}, {"Malala</w>": 2}, {"varying</w>": 2}, {"rebates</w>": 2}, {"negoti": 2}, {"LHD</w>": 2}, {"Deliveries</w>": 2}, {"steerable</w>": 2}, {"undamaged</w>": 2}, {"bli": 2}, {"ssful</w>": 2}, {"completion</w>": 2}, {"accelerators</w>": 2}, {"tasks</w>": 2}, {"mee": 2}, {"Rolling</w>": 2}, {"vigilance</w>": 2}, {"supplement</w>": 2}, {"messes</w>": 2}, {"Neural</w>": 2}, {"adjustment</w>": 2}, {"Respon": 2}, {"Weirdly</w>": 2}, {"oxide</w>": 2}, {"hair</w>": 2}, {"formation</w>": 2}, {"stan</w>": 2}, {"Duck</w>": 2}, {"let": 2}, {"existent</w>": 2}, {"defeats</w>": 2}, {"disappointed</w>": 2}, {"label</w>": 2}, {"Instagram</w>": 2}, {"heterogeneous</w>": 2}, {"databases</w>": 2}, {"securely</w>": 2}, {"Information</w>": 2}, {"Scary</w>": 2}, {"ellip": 2}, {"Ion</w>": 2}, {"prob": 2}, {"arti": 2}, {"Tax</w>": 2}, {"interpre": 2}, {"compl": 2}, {"puny</w>": 2}, {"struc": 2}, {"child": 2}, {"rens</w>": 2}, {"toys</w>": 2}, {"tightly</w>": 2}, {"Existing</w>": 2}, {"prizes</w>": 2}, {"Intent</w>": 2}, {"presence</w>": 2}, {"comprehensive</w>": 2}, {"bert</w>": 2}, {"explains</w>": 2}, {"allow": 2}, {"erosion</w>": 2}, {"refurbishment</w>": 2}, {"Hex": 2}, {"Kennedy</w>": 2}, {"integrating</w>": 2}, {"fun": 2}, {"arrival</w>": 2}, {"bide</w>": 2}, {"decou": 2}, {"punk</w>": 2}, {"Runner</w>": 2}, {"sensitivity</w>": 2}, {"finishes</w>": 2}, {"rebate</w>": 2}, {"discussed</w>": 2}, {"beforehand</w>": 2}, {"exec</w>": 2}, {"criticality</w>": 2}, {"pregn": 2}, {"lator</w>": 2}, {"warmup</w>": 2}, {"buil": 2}, {"lant</w>": 2}, {"blush</w>": 2}, {"comms</w>": 2}, {"Jamming</w>": 2}, {"frontal</w>": 2}, {"friction</w>": 2}, {"Normal</w>": 2}, {"Detailed</w>": 2}, {"Studio</w>": 2}, {"hollow</w>": 2}, {"Spoiler</w>": 2}, {"bolt</w>": 2}, {"recap</w>": 2}, {"retroactively</w>": 2}, {"Ri": 2}, {"Coun": 2}, {"profile</w>": 2}, {"autopark</w>": 2}, {"Draco</w>": 2}, {"developments</w>": 2}, {"jud": 2}, {"transcript</w>": 2}, {"Focusing</w>": 2}, {"burns</w>": 2}, {"fragged</w>": 2}, {"Fourth</w>": 2}, {"ood</w>": 2}, {"Dyson</w>": 2}, {"anti": 2}, {"Despite</w>": 2}, {"eed</w>": 2}, {"ME</w>": 2}, {"Whoever</w>": 2}, {"delayed</w>": 2}, {"ustin</w>": 2}, {"pain": 2}, {"Cabin</w>": 2}, {"Overheat</w>": 2}, {"Protec": 2}, {"babies</w>": 2}, {"CNBC</w>": 2}, {"Pulitzer</w>": 2}, {"delight</w>": 2}, {"Lu": 2}, {"exten": 2}, {"exceeding</w>": 2}, {"Zeebrugge</w>": 2}, {"biases</w>": 2}, {"fra": 2}, {"ingers</w>": 2}, {"slosh</w>": 2}, {"esis</w>": 2}, {"grind</w>": 2}, {"onds</w>": 2}, {"plugs</w>": 2}, {"eous</w>": 2}, {"spark</w>": 2}, {"Dammit</w>": 2}, {"mistakenly</w>": 2}, {"lif": 2}, {"split</w>": 2}, {"Youve</w>": 2}, {"synch</w>": 2}, {"belong</w>": 2}, {"trick": 2}, {"sty</w>": 2}, {"Deepaks</w>": 2}, {"Tegmark</w>": 2}, {"lat</w>": 2}, {"san</w>": 2}, {"Gad": 2}, {"achs</w>": 2}, {"ata</w>": 2}, {"bbery</w>": 2}, {"fronts</w>": 2}, {"industrial</w>": 2}, {"allic</w>": 2}, {"bering</w>": 2}, {"youth</w>": 2}, {"17": 2}, {"16": 2}, {"14": 2}, {"mitigate</w>": 2}, {"vaporization</w>": 2}, {"markings</w>": 2}, {"Director</w>": 2}, {"lon</w>": 2}, {"Euro": 2}, {"zo": 2}, {"forc": 2}, {"Tal": 2}, {"spread</w>": 2}, {"quali": 2}, {"miscommunication</w>": 2}, {"15M</w>": 2}, {"vie": 2}, {"pola</w>": 2}, {"wr": 2}, {"anticipated</w>": 2}, {"vessel</w>": 2}, {"Af": 2}, {"Spir": 2}, {"winding</w>": 2}, {"blend</w>": 2}, {"quanti": 2}, {"Mark</w>": 2}, {"dences</w>": 2}, {"Day": 2}, {"Turkey</w>": 2}, {"lords</w>": 2}, {"smog</w>": 2}, {"tun": 2}, {"ements</w>": 2}, {"shielded</w>": 2}, {"kin</w>": 2}, {"Maximum</w>": 2}, {"dish</w>": 2}, {"Plan": 2}, {"cks</w>": 2}, {"zooming</w>": 2}, {"outward</w>": 2}, {"equ": 2}, {"inward</w>": 2}, {"typo</w>": 2}, {"Rad": 2}, {"thick</w>": 2}, {"ani</w>": 2}, {"xiety</w>": 2}, {"Costs</w>": 2}, {"Passive</w>": 2}, {"jack": 2}, {"fing</w>": 2}, {"densely</w>": 2}, {"buses</w>": 2}, {"ety</w>": 2}, {"demonstrating</w>": 2}, {"circulating</w>": 2}, {"retractable</w>": 2}, {"guided</w>": 2}, {"stre": 2}, {"Tech</w>": 2}, {"Fun": 2}, {"stain</w>": 2}, {"tinny</w>": 2}, {"fic</w>": 2}, {"Mins</w>": 2}, {"sentence</w>": 2}, {"waitlist</w>": 2}, {"Longer</w>": 2}, {"awaiting</w>": 2}, {"Automatically</w>": 2}, {"Machete</w>": 2}, {"supposed</w>": 2}, {"11M</w>": 2}, {"trivia</w>": 2}, {"wer": 2}, {"filed</w>": 2}, {"mod": 2}, {"Tracking</w>": 2}, {"stabilized</w>": 2}, {"Pump</w>": 2}, {"string</w>": 2}, {"alled</w>": 2}, {"transmitting</w>": 2}, {"disp": 2}, {"swim</w>": 2}, {"ambulance</w>": 2}, {"Def": 2}, {"contacts</w>": 2}, {"Applying</w>": 2}, {"located</w>": 2}, {"Circ": 2}, {"Reentry</w>": 2}, {"scor": 2}, {"soo": 2}, {"Prof</w>": 2}, {"periods</w>": 2}, {"Sepulveda</w>": 2}, {"proposal</w>": 2}, {"corridor</w>": 2}, {"Engineers</w>": 2}, {"kinds</w>": 2}, {"Varies</w>": 2}, {"ination</w>": 2}, {"cents</w>": 2}, {"gall": 2}, {"ust</w>": 2}, {"heres</w>": 2}, {"Ren": 2}, {"van</w>": 2}, {"metros</w>": 2}, {"Tro": 2}, {"Ideal</w>": 2}, {"Rangers</w>": 2}, {"vans</w>": 2}, {"recirc": 2}, {"utting</w>": 2}, {"concert</w>": 2}, {"linearities</w>": 2}, {"curren": 2}, {"argue</w>": 2}, {"{</w>": 2}, {"watchtower</w>": 2}, {"yell</w>": 2}, {"accent</w>": 2}, {"Ski": 2}, {"Easi": 2}, {"hotter</w>": 2}, {"mined</w>": 2}, {"ayed</w>": 2}, {"marine</w>": 2}, {"geological</w>": 2}, {"papers</w>": 2}, {"grant</w>": 2}, {"dumbest</w>": 2}, {"alkaline</w>": 2}, {"neu": 2}, {"Robyn</w>": 2}, {"Crenshaw</w>": 2}, {"psy": 2}, {"2B</w>": 2}, {"deceler": 2}, {"Walked</w>": 2}, {"Distur": 2}, {"dimensional</w>": 2}, {"drifting</w>": 2}, {"sponges</w>": 2}, {"hum": 2}, {"ili": 2}, {"theaters</w>": 2}, {"brian</w>": 2}, {"ridiculously</w>": 2}, {"geographic</w>": 2}, {"partnership</w>": 2}, {"Horiz": 2}, {"overseas</w>": 2}, {"demon</w>": 2}, {"uncover</w>": 2}, {"Sneaky</w>": 2}, {"unfamiliar</w>": 2}, {"confuse</w>": 2}, {"corrective</w>": 2}, {"priced</w>": 2}, {"whichever</w>": 2}, {"posts</w>": 2}, {"Lacks</w>": 2}, {"lier</w>": 2}, {"fol": 2}, {"costume</w>": 2}, {"dankest</w>": 2}, {"omg</w>": 2}, {"selfie</w>": 2}, {"Flies</w>": 2}, {"arrow</w>": 2}, {"Midnight</w>": 2}, {"severely</w>": 2}, {"restricted</w>": 2}, {"peti": 2}, {"How": 2}, {"refresh</w>": 2}, {"|</w>": 2}, {"Sou": 2}, {"Bloo": 2}, {"da</w>": 2}, {"biased</w>": 2}, {"portion</w>": 2}, {"February</w>": 2}, {"Youll</w>": 2}, {"lem": 2}, {"Contin": 2}, {"offic": 2}, {"realized</w>": 2}, {"Some": 2}, {"Per</w>": 2}, {"recognizing</w>": 2}, {"Mononoke</w>": 2}, {"Tow": 2}, {"Whole</w>": 2}, {"WW3</w>": 2}, {"vacation</w>": 2}, {"catastrophic</w>": 2}, {"Pun": 2}, {"ultra": 2}, {"managers</w>": 2}, {"lending</w>": 2}, {"etched</w>": 2}, {"IO</w>": 2}, {"pocket</w>": 2}, {"maligned</w>": 2}, {"overvalued</w>": 2}, {"dict</w>": 2}, {"Elite</w>": 2}, {"Owners</w>": 2}, {"stickier</w>": 2}, {"trailers</w>": 2}, {"riers</w>": 2}, {"del</w>": 2}, {"propelled</w>": 2}, {"Helps</w>": 2}, {"crumple</w>": 2}, {"list": 2}, {"cultural</w>": 2}, {"albeit</w>": 2}, {"Sec": 2}, {"tips</w>": 2}, {"Out": 2}, {"trades</w>": 2}, {"special": 2}, {"buys</w>": 2}, {"existence</w>": 2}, {"kr": 2}, {"Intentionally</w>": 2}, {"sunlight</w>": 2}, {"Rated</w>": 2}, {"seismic</w>": 2}, {"Resolving</w>": 2}, {"logies</w>": 2}, {"ss</w>": 2}, {"lair</w>": 2}, {"hour": 2}, {"mouth</w>": 2}, {"inting</w>": 2}, {"honorable</w>": 2}, {"chants</w>": 2}, {"Electricity</w>": 2}, {"avoiding</w>": 2}, {"showstopper</w>": 2}, {"iary</w>": 2}, {"intentions</w>": 2}, {"Bonus</w>": 2}, {"Kar": 2}, {"Missile</w>": 2}, {"Command</w>": 2}, {"Lander</w>": 2}, {"spir": 2}, {"doub": 2}, {"criticizes</w>": 2}, {"drafts</w>": 2}, {"lightly</w>": 2}, {"Land</w>": 2}, {"Jensen</w>": 2}, {"Gol": 2}, {"advisors</w>": 2}, {"thigh</w>": 2}, {"socks</w>": 2}, {"ired</w>": 2}, {"sz</w>": 2}, {"appearance</w>": 2}, {"Nana</w>": 2}, {"rup": 2}, {"appreciative</w>": 2}, {"prosperity</w>": 2}, {"itys</w>": 2}, {"Funding</w>": 2}, {"prepared</w>": 2}, {"Every": 2}, {"enhancements</w>": 2}, {"maiden</w>": 2}, {"boy</w>": 2}, {"creativity</w>": 2}, {"troph": 2}, {"tb": 2}, {"trailer</w>": 2}, {"Mach": 2}, {"ped": 2}, {"magnetic</w>": 2}, {"generators</w>": 2}, {"Wag": 2}, {"6000</w>": 2}, {"itting</w>": 2}, {"Jour": 2}, {"ney</w>": 2}, {"Street</w>": 2}, {"Phew</w>": 2}, {"drain</w>": 2}, {"Figuratively</w>": 2}, {"bally</w>": 2}, {"competed</w>": 2}, {"Dunno</w>": 2}, {"apologize</w>": 2}, {"Unsworth</w>": 2}, {"sex": 2}, {"kindness</w>": 2}, {"categ": 2}, {"fighting</w>": 2}, {"itarian</w>": 2}, {"listen</w>": 2}, {"poli": 2}, {"fo": 2}, {"Saf": 2}, {"lick</w>": 2}, {"smell</w>": 2}, {"Tick": 2}, {"Fellowship</w>": 2}, {"jacked</w>": 2}, {"Hmm</w>": 2}, {"missiles</w>": 2}, {"Wang</w>": 2}, {"teleportation</w>": 2}, {"characterized</w>": 2}, {"organize</w>": 2}, {"ception</w>": 2}, {"contamination</w>": 2}, {"Stockholm</w>": 2}, {"spr": 2}, {"trampoline</w>": 2}, {"sha": 2}, {"profes": 2}, {"families</w>": 2}, {"billionaire</w>": 2}, {"devalue</w>": 2}, {"rescu": 2}, {"Thai</w>": 2}, {"govern": 2}, {"Stanton</w>": 2}, {"correspon": 2}, {"Leaving</w>": 2}, {"ica</w>": 2}, {"block": 2}, {"explan": 2}, {"psych</w>": 2}, {"tivity</w>": 2}, {"protected</w>": 2}, {"lic</w>": 2}, {"impacting</w>": 2}, {"hoses</w>": 2}, {"onest</w>": 2}, {"departed</w>": 2}, {"weights</w>": 2}, {"ience</w>": 2}, {"acity</w>": 2}, {"diving</w>": 2}, {"300km</w>": 2}, {"60km</w>": 2}, {"buoy": 2}, {"vent</w>": 2}, {"SCUBA</w>": 2}, {"mou": 2}, {"regulator</w>": 2}, {"Teflon</w>": 2}, {"feet</w>": 2}, {"contour</w>": 2}, {"fab</w>": 2}, {"prep</w>": 2}, {"ip</w>": 2}, {"zes</w>": 2}, {"inser": 2}, {"presses</w>": 2}, {"misled</w>": 2}, {"elis": 2}, {"dancing</w>": 2}, {"Chanoss</w>": 2}, {"cuff</w>": 2}, {"Tripp</w>": 2}, {"printed</w>": 2}, {"formally</w>": 2}, {"claimed</w>": 2}, {"drop": 2}, {"Camera</w>": 2}, {"ultrasonics</w>": 2}, {"corrections</w>": 2}, {"IC": 2}, {"Spice</w>": 2}, {"wand</w>": 2}, {"defeat</w>": 2}, {"anly</w>": 2}, {"Wrath</w>": 2}, {"shi</w>": 2}, {"sci</w>": 2}, {"fi</w>": 2}, {"ells</w>": 2}, {"eel</w>": 2}, {"nail</w>": 2}, {"but": 2}, {"tercup</w>": 2}, {"And": 2}, {"Pickup</w>": 2}, {"nuances</w>": 2}, {"sign": 2}, {"aling</w>": 2}, {"jer": 2}, {"LGBTQ</w>": 2}, {"equality</w>": 2}, {"welfare</w>": 2}, {"ported</w>": 2}, {"HH": 2}, {"settled</w>": 2}, {"respond</w>": 2}, {"overheating</w>": 2}, {"cruise</w>": 2}, {"Road</w>": 2}, {"anding</w>": 2}, {"footprint</w>": 2}, {"tents</w>": 2}, {"icious</w>": 2}, {"Senti": 2}, {"pulling</w>": 2}, {"miracles</w>": 2}, {"train": 2}, {"pow": 2}, {"explosives</w>": 2}, {"Built</w>": 2}, {"ert</w>": 2}, {"dom</w>": 2}, {"awa": 2}, {"cing</w>": 2}, {"allocating</w>": 2}, {"inclusive</w>": 2}, {"ow</w>": 2}, {"pos": 2}, {"thumbs</w>": 2}, {"Ben": 2}, {"ux</w>": 2}, {"wit</w>": 2}, {"Wis": 2}, {"ech": 2}, {"ich": 2}, {"Scott</w>": 2}, {"march</w>": 2}, {"sigs</w>": 2}, {"healthcare</w>": 2}, {"wages</w>": 2}, {"drinks</w>": 2}, {"Jesus</w>": 2}, {"Engels</w>": 2}, {"worthy</w>": 2}, {"unions</w>": 2}, {"big": 2}, {"NDA</w>": 2}, {"prevents</w>": 2}, {"Union</w>": 2}, {"endorse</w>": 2}, {"conflic": 2}, {"abandoned</w>": 2}, {"signatures</w>": 2}, {"sorts</w>": 2}, {"judiciary</w>": 2}, {"son": 2}, {"SX</w>": 2}, {"ox": 2}, {"io": 2}, {"utopian</w>": 2}, {"eting</w>": 2}, {"minim": 2}, {"honest</w>": 2}, {"soci": 2}, {"socialists</w>": 2}, {"screw</w>": 2}, {"lightbulb</w>": 2}, {"1B</w>": 2}, {"Soci": 2}, {"Univers": 2}, {"depressing</w>": 2}, {"ching</w>": 2}, {"Ham</w>": 2}, {"underlying</w>": 2}, {"Isa": 2}, {"complacent</w>": 2}, {"escaping</w>": 2}, {"finer</w>": 2}, {"tained</w>": 2}, {"replen": 2}, {"crown</w>": 2}, {"newsrooms</w>": 2}, {"everythings</w>": 2}, {"Globe</w>": 2}, {"web": 2}, {"fetch</w>": 2}, {"Required</w>": 2}, {"registers</w>": 2}, {"inhi": 2}, {"spired</w>": 2}, {"calc": 2}, {"apps</w>": 2}, {"Dropped</w>": 2}, {"grad</w>": 2}, {"110k</w>": 2}, {"Cre": 2}, {"Laren</w>": 2}, {"F1</w>": 2}, {"rang": 2}, {"ffs</w>": 2}, {"Talked</w>": 2}, {"Roll": 2}, {"Less": 2}, {"Running</w>": 2}, {"Ess": 2}, {"illusion</w>": 2}, {"bank</w>": 2}, {"cutlery</w>": 2}, {"Mason</w>": 2}, {"Usually</w>": 2}, {"manipulated</w>": 2}, {"vulner": 2}, {"poison</w>": 2}, {"gases</w>": 2}, {"prosp": 2}, {"tration</w>": 2}, {"switches</w>": 2}, {"ist": 2}, {"habe</w>": 2}, {"Universitt</w>": 2}, {"Semester</w>": 2}, {"Deutsch</w>": 2}, {"studiert</w>": 2}, {"pers</w>": 2}, {"39</w>": 2}, {"wind": 2}, {"believes</w>": 2}, {"cowboy</w>": 2}, {"stating</w>": 2}, {"professional</w>": 2}, {"deleted</w>": 2}, {"itali": 2}, {"sexist</w>": 2}, {"Nano</w>": 2}, {"Saying</w>": 2}, {"cuisine</w>": 2}, 
[...]
