{"token_frequency": [{"\u2581to": 5347}, {"\u2581the": 4330}, {"\u2581is": 4099}, {"\u2581a": 3892}, {"\u2581of": 3567}, {"\u2581in": 2709}, {"\u2581&amp;": 2678}, {"\u2581for": 2309}, {".": 1960}, {"\u2581be": 1844}, {"\u2581on": 1642}, {"\u2581will": 1541}, {"\u2581but": 1398}, {"\u2581Tesla": 1338}, {"\u2581I": 1336}, {"\u2581that": 1292}, {"\u2581with": 1269}, {"!": 1216}, {"\u2581are": 1165}, {"\u2581it": 1148}, {"\u2581at": 964}, {",": 903}, {"\u2581this": 903}, {"\u2581as": 877}, {"\u2581so": 818}, {"\u2581by": 807}, {"\u2581have": 792}, {"\u2581not": 790}, {"\u2581we": 775}, {"\u2581you": 773}, {"\u2581and": 699}, {"\u2581was": 679}, {"\u2581from": 663}, {"\u2581or": 613}, {"\u2581The": 564}, {"\u2581an": 563}, {"\u2581all": 555}, {"\u2581about": 549}, {"\u2581than": 541}, {"\u2581like": 528}, {"\u2581just": 502}, {"\u2581more": 496}, {"\u2581do": 495}, {"\u2581We": 491}, {"\u2581This": 479}, {"\u2581would": 479}, {"\u2581has": 464}, {"\u2581Model": 462}, {"?": 445}, {"\u2581can": 433}, {"\u2581Will": 417}, {"\u2581much": 406}, {"\u2581my": 398}, {"\u2581no": 393}, {"s": 382}, {"\u2581should": 379}, {"s.": 375}, {"\u2581Yes": 372}, {")": 370}, {"\u2581if": 364}, {"\u2581car": 355}, {"\u2581our": 351}, {"\u2581make": 348}, {"\u2581good": 335}, {"\u2581out": 332}, {"\u2581It": 331}, {"\u2581one": 326}, {"\u2581next": 324}, {"\u2581Its": 309}, {"ed": 308}, {"\u2581.": 307}, {"\u2581high": 307}, {"\u2581great": 304}, {"\u2581its": 300}, {"\u2581only": 299}, {"\u2581which": 295}, {"\u2581people": 292}, {"\u2581there": 292}, {"\u2581get": 289}, {"\u2581S": 286}, {"\u2581up": 284}, {"\u2581need": 283}, {"\u2581some": 279}, {"\u2581Starship": 279}, {"\u2581If": 279}, {"\u2581they": 272}, {"\u2581SpaceX": 272}, {"ing": 269}, {"\u2581your": 268}, {"\u2581many": 264}, {"\u2581work": 262}, {"\u2581time": 258}, {"\u2581most": 256}, {"\u2581what": 253}, {"\u2581Just": 250}, {"\u2581too": 250}, {"\u2581That": 247}, {"\u2581cars": 246}, {"\u2581production": 243}, {"\u2581%": 242}, {"\u2581rocket": 242}, {"\u2581over": 241}, {"\u2581A": 233}, {"\u2581Yeah,": 233}, {"\u2581Good": 230}, {"\u2581even": 228}, {"\u2581few": 227}, {"\u2581when": 224}, {"\u2581were": 223}, {"\u2581way": 223}, {"\u2581actually": 220}, {"\u2581me": 218}, {"\u2581other": 212}, {"\u2581very": 212}, {"\u2581Yes,": 211}, {"\u2581Falcon": 210}, {"\u2581better": 208}, {"\u2581launch": 207}, {"\u2581right": 206}, {"\u2581new": 206}, {"\u2581Not": 202}, {"\u2581coming": 201}, {"\u2581No": 201}, {"\u2581any": 200}, {"\u2581soon": 196}, {"\u2581their": 196}, {"\u2581Mars": 196}, {"\u2581year": 194}, {"\u2581who": 194}, {"\u2581lot": 194}, {"\u2581think": 193}, {"\u2581probably": 193}, {"\u2581then": 189}, {"\u2581use": 180}, {"\u2581still": 180}, {"\u2581There": 179}, {"\u2581first": 179}, {"\u2581dont": 178}, {"\u2581been": 178}, {"\u2581years": 178}, {"\u2581go": 177}, {"\u2581could": 177}, {"\u2581team": 177}, {"\u2581now": 176}, {"\u2581Great": 175}, {"s,": 174}, {"er": 172}, {"\u2581Im": 172}, {"\u2581also": 171}, {"\u2581Thanks": 171}, {"\u2581test": 170}, {"\u2581software": 168}, {"\u2581into": 167}, {"\u2581being": 167}, {"\u2581how": 166}, {"\u2581Maybe": 165}, {"\u2581hard": 165}, {"\u2581sure": 165}, {":": 163}, {"\u2581Haha": 161}, {"\u2581engine": 161}, {"\u2581long": 159}, {"\u2581really": 157}, {"\u2581almost": 156}, {"\u2581back": 155}, {"\u2581best": 154}, {"\u2581You": 153}, {"\u2581after": 152}, {"\u2581X": 150}, {"\u2581going": 149}, {"\u2581true": 148}, {"\u2581know": 146}, {"y": 146}, {"\u2581Exactly": 146}, {"\u2581working": 145}, {"\u2581,": 145}, {"\u2581needed": 143}, {"\u2581FSD": 142}, {"ed.": 142}, {"\u2581big": 142}, {"\u2581those": 141}, {"\u2581see": 141}, {"!!": 139}, {"\u2581had": 139}, {"\u2581power": 138}, {"\u2581made": 138}, {"\u2581real": 137}, {"\u2581want": 137}, {"\u2581Thats": 137}, {"\u2581design": 136}, {"\u2581landing": 135}, {"\u2581Probably": 134}, {"\u2581US": 134}, {"\u2581For": 134}, {"\u2581super": 132}, {"\u2581They": 132}, {"\u2581energy": 132}, {"\u2581Also,": 131}, {"\u2581Autopilot": 131}, {"\u2581solar": 130}, {"\u2581In": 129}, {"\u2581same": 129}, {"\u2581Dragon": 129}, {"\u2581take": 128}, {"\u2581Earth": 128}, {"\u2581Were": 128}, {"\u2581last": 127}, {"\u2581Raptor": 126}, {"\u2581What": 125}, {"\u2581point": 125}, {"\u2581love": 125}, {"\u2581it.": 125}, {"\u2581before": 124}, {"\u2581So": 123}, {"\u2581less": 123}, {"es": 123}, {"\u2581flight": 122}, {"\u2581All": 122}, {"\u2581orbit": 121}, {"\u2581full": 120}, {"\u2581future": 119}, {"\u2581electric": 118}, {"\u2581around": 118}, {"\u2581every": 117}, {"\u2581life": 116}, {"\u2581True": 116}, {"\u2581per": 116}, {"\u2581he": 115}, {"\u2581And": 115}, {"\u2581cost": 115}, {"\u2581enough": 115}, {"\u2581done": 114}, {"\u2581well": 114}, {"\u2581through": 114}, {"ers": 114}, {"\u2581down": 113}, {"ly": 113}, {"\u2581little": 111}, {"\u2581far": 111}, {"\u2581w": 111}, {"\u2581them": 111}, {"\u2581week": 111}, {"\u2581engines": 110}, {"\u2581several": 108}, {").": 107}, {"\u2581end": 106}, {"es.": 106}, {"\u2581ever": 106}, {"\u2581did": 105}, {"\u2581doing": 104}, {"\u2581To": 104}, {"\u2581already": 103}, {"\u2581mass": 103}, {"\u2581Starlink": 102}, {"\u2581low": 102}, {"\u2581days": 102}, {"\u2581thats": 102}, {"\u2581day": 102}, {"\u2581system": 102}, {"\u2581drive": 101}, {"\u2581things": 101}, {"\u2581makes": 101}, {"\"": 101}, {"\u2581Ok": 100}, {"\u2581say": 100}, {"\u2581(": 99}, {"\u2581New": 99}, {"\u2581due": 99}, {"\u2581...": 99}, {"\u2581small": 98}, {"\u2581always": 98}, {"\u2581support": 98}, {"\u2581My": 98}, {"\u2581early": 98}, {"\u2581times": 98}, {"\u2581why": 98}, {"\u2581video": 98}, {"\u2581maybe": 97}, {"ing.": 97}, {"\u2581Heavy": 97}, {"\u2581speed": 96}, {"\u2581AI": 96}, {"\u2581doesnt": 96}, {"\u2581space": 96}, {"\u2581release": 95}, {"\u2581haha": 95}, {"\u2581off": 94}, {"\u2581never": 94}, {"\u2581build": 94}, {"\u2581air": 94}, {"\u2581world": 93}, {"\u2581No,": 93}, {"\u2581Sure": 93}, {"\u2581two": 93}, {"\u2581does": 92}, {"\u2581am": 92}, {"\u2581pretty": 92}, {"\u2581Should": 92}, {"\u2581public": 91}, {"\u2581vs": 91}, {"\u2581thrust": 90}, {"\u2581both": 90}, {"\u2581money": 89}, {"\u2581may": 89}, {"\u2581part": 89}, {"a": 89}, {"\u2581something": 89}, {"\u2581us": 89}, {"\u2581Very": 88}, {"\u2581months": 88}, {"\u2581But": 88}, {"\u2581where": 88}, {"\u2581later": 88}, {"er.": 88}, {"\u2581orbital": 87}, {"\u2581battery": 87}, {"\u2581ship": 87}, {"\u2581under": 87}, {"e": 86}, {"\u2581version": 86}, {"\u2581needs": 86}, {"\u2581He": 85}, {"),": 85}, {"\u2581pressure": 85}, {"\u2581lower": 85}, {"\u2581booster": 85}, {"\u2581important": 84}, {"\u2581might": 84}, {"\u2581least": 84}, {"\u2581safety": 84}, {"\u2581look": 84}, {"\u2581year.": 83}, {"\u2581these": 83}, {"\u2581thing": 83}, {"\u2581change": 83}, {"\u2581without": 83}, {"\u2581making": 82}, {"\u2581Some": 82}, {"\u2581higher": 82}, {"\u2581engineering": 81}, {"\u2581control": 81}, {"k": 81}, {"\u2581using": 81}, {"\u2581goes": 80}, {"\u2581time.": 80}, {"\u2581until": 80}, {"\u2581free": 80}, {"\u2581max": 79}, {"\u2581used": 79}, {"\u2581his": 79}, {"\u2581because": 79}, {"\u2581fully": 78}, {"in": 78}, {"\u2581improve": 78}, {"\u2581fun": 78}, {"\u2581youre": 77}, {"\u2581factory": 77}, {"\u2581service": 76}, {"o": 76}, {"\u2581One": 76}, {"\u2581start": 76}, {"\u2581called": 76}, {"\u2581Only": 76}, {"\u2581Giga": 75}, {"\u2581Boring": 75}, {"\u2581cant": 75}, {"\u2581too.": 75}, {"\u2581Super": 75}, {"\u2581fast": 75}, {"\u2581likely": 74}, {"\u2581Space": 74}, {"\u2581help": 74}, {"\u2581fire": 74}, {"\u2581Would": 74}, {"\u2581able": 73}, {"\u2581Pretty": 73}, {"\u2581amazing": 73}, {"\u2581vehicle": 73}, {"\u2581major": 73}, {"\u2581half": 73}, {"\u2581yes": 73}, {"\u2581cool": 73}, {"\u2581+": 73}, {"\u2581\"": 73}, {"\u2581owners": 72}, {"\u2581extremely": 72}, {"\u2581First": 72}, {"\u2581Cybertruck": 72}, {"\u2581Exactly.": 72}, {"\u2581beta": 71}, {"\u2581Coming": 71}, {"\u2581while": 71}, {"\u2581come": 71}, {"\u2581weeks": 71}, {"\u2581product": 71}, {"ed,": 71}, {"\u2581order": 71}, {"\u2581via": 71}, {"\u2581soon.": 70}, {"\u2581C": 70}, {"\u2581hopefully": 70}, {"\u2581rate": 70}, {"\u2581st": 70}, {"\u2581update": 69}, {"\u2581company": 69}, {"\u2581-": 69}, {"on": 69}, {"\u2581own": 69}, {"\u2581bad": 69}, {"\u2581center": 69}, {"\u2581human": 69}, {"\u2581m": 69}, {"\u2581Am": 69}, {"\u2581tunnel": 69}, {"\u2581Most": 69}, {"\u2581Please": 69}, {"\u2581range": 68}, {"\u2581especially": 68}, {"\u2581Our": 68}, {"\u2581tons": 68}, {"*": 68}, {"\u2581M": 68}, {"\u2581against": 68}, {"\u2581between": 67}, {"\u2581idea": 67}, {"al": 67}, {"\u2581China": 67}, {"\u2581must": 67}, {"\u2581gas": 67}, {"\u2581wont": 67}, {"\u2581s": 67}, {"\u2581moon": 67}, {"s!": 66}, {"\u2581Yeah": 66}, {"\u2581side": 66}, {"\u2581Texas": 66}, {"\u2581companies": 66}, {"\u2581volume": 66}, {"\u2581article": 66}, {"\u2581sense": 65}, {"\u2581Nice": 65}, {"\u2581looks": 65}, {"\u2581add": 65}, {"\u2581anything": 65}, {"\u2581said": 65}, {"\u2581More": 65}, {"en": 65}, {"\u2581stage": 64}, {"\u2581month": 64}, {"\u2581D": 64}, {"\u2581getting": 64}, {"\u2581propellant": 64}, {"\u2581problem": 64}, {"\u2581means": 64}, {"t": 64}, {"\u2581building": 64}, {"\u2581got": 63}, {"-": 63}, {"b": 63}, {"\u2581def": 63}, {"\u2581Yup": 62}, {"\u2581week.": 62}, {"\u2581land": 62}, {"\u2581R": 62}, {"\u2581B": 62}, {"ic": 62}, {"\u2581try": 62}, {"\u2581Youre": 62}, {"\u2581increase": 62}, {"\u2581today": 61}, {"\u2581quite": 61}, {"\u2581body": 61}, {"or": 61}, {"\u2581didnt": 61}, {"an": 61}, {"\u2581above": 61}, {"i": 61}, {"\u2581hardware": 61}, {"\u2581tax": 61}, {"\u2581payload": 60}, {"\u2581possible": 60}, {"\u2581single": 60}, {"\u2581As": 60}, {"\u2581seem": 60}, {"\u2581Now": 60}, {"\u2581case": 60}, {"ation": 60}, {"\u2581short": 60}, {"\u2581V": 60}, {"\u2581time,": 59}, {"\u2581Even": 59}, {"\u2581Wow,": 59}, {"\u2581away": 59}, {"\u2581option": 59}, {"\u2581zero": 58}, {"y.": 58}, {"\u2581slightly": 58}, {"\u2581rear": 58}, {"\u2581heat": 58}, {"\u2581California": 58}, {"\u2581close": 58}, {"m": 58}, {"\u2581price": 58}, {"\u2581move": 58}, {"\u2581Sorry": 58}, {"\u2581Supercharger": 58}, {"\u2581although": 57}, {"\u2581hope": 57}, {"ated": 57}, {"\u2581now.": 57}, {"\u2581self-driving": 57}, {"\u2581At": 57}, {"\u2581designed": 57}, {"\u2581stop": 57}, {"\u2581High": 57}, {"\u2581open": 57}, {"\u2581driving": 57}, {"\u2581Cape": 57}, {"\u2581trying": 57}, {"\u2581forward": 57}, {"ar": 56}, {"\u2581Definitely": 56}, {"\u2581value": 56}, {"\u2581level": 56}, {"\u2581Love": 56}, {"\u2581worth": 56}, {"\u2581mins": 56}, {"\u2581road": 56}, {"\u2581How": 56}, {"\u2581home": 56}, {"\u2581advanced": 55}, {"\u2581T": 55}, {"\u2581feel": 55}, {"\u2581Ive": 55}, {"\u2581water": 55}, {"\u2581believe": 55}, {"\u2581each": 55}, {"\u2581awesome": 55}, {"h": 55}, {"\u2581reusable": 55}, {"\u2581auto": 55}, {"\u2581main": 54}, {"\u2581Sounds": 54}, {"\u2581Aiming": 54}, {"\u2581progress": 54}, {"\u2581Y": 54}, {"\u2581Dont": 54}, {"\u2581When": 54}, {"\u2581light": 54}, {"\u2581limited": 54}, {"\u2581show": 54}, {"ers.": 54}, {"\u2581sustainable": 54}, {"\u2581built": 54}, {"\u2581miles": 54}, {"\u2581live": 54}, {"'s": 54}, {"\u2581parts": 53}, {"\u2581definitely": 53}, {"\u2581put": 53}, {"\u2581night": 53}, {"\u2581risk": 53}, {"\u2581yet": 53}, {"\u2581th": 53}, {"\u2581set": 53}, {"\u2581LA": 53}, {"\u2581sound": 52}, {"\u2581Next": 52}, {"\u2581matter": 52}, {"\u2581About": 52}, {"\u2581give": 52}, {"\u2581difficult": 52}, {"\u2581regulatory": 52}, {"\u2581Looks": 52}, {"\u2581anyone": 52}, {"\u2581fairing": 52}, {"\u2581review": 52}, {"\u2581P": 52}, {"\u2581u": 51}, {"\u2581old": 51}, {"\u2581Congratulations": 51}, {"\u2581bit": 51}, {"\u2581/": 51}, {"\u2581whole": 51}, {"\u2581Still": 51}, {"\u2581fly": 51}, {"\u2581mostly": 51}, {"\u2581number": 51}, {"\u2581top": 51}, {"\u2581isnt": 51}, {"\u2581v": 51}, {"\u2581Solar": 51}, {"c": 50}, {"!?": 50}, {"\u2581run": 50}, {"\u2581data": 50}, {"\u2581tomorrow": 50}, {"\u2581deep": 50}, {"\u2581years.": 50}, {"\u2581exactly": 50}, {"\u2581literally": 50}, {"ly.": 50}, {"\u2581place": 50}, {"\u2581months.": 50}, {"\u2581k": 50}, {"\u2581!": 50}, {"\u2581actual": 49}, {"ate": 49}, {"ing,": 49}, {"\u2581Almost": 49}, {"\u2581person": 49}, {"\u2581city": 49}, {"\u2581read": 49}, {"\u2581Was": 49}, {"\u2581improvements": 49}, {"\u2581bar": 49}, {"\u2581wide": 49}, {"\u2581media": 49}, {"\u2581roof": 49}, {"\u2581mph": 49}, {"\u2581this.": 48}, {"\u2581wrong": 48}, {"\u2581such": 48}, {"\u2581mission": 48}, {"\u2581good.": 48}, {"\u2581H": 48}, {"\u2581million": 48}, {"\u2581someone": 48}, {"\u2581buy": 48}, {"\u2581satellites": 48}, {"it": 48}, {"\u2581Also": 48}, {"\u2581With": 48}, {"\u2581upgrade": 48}, {"\u2581Twitter": 48}, {"\u2581hours": 48}, {"\u2581find": 48}, {"\u2581goal": 47}, {"\u2581everyone": 47}, {"\u2581cars.": 47}, {"\u2581Doge": 47}, {"\u2581Hopefully": 47}, {"\u2581Tesla.": 47}, {"\u2581rockets": 47}, {"\u2581steel": 47}, {"\u2581false": 47}, {"\u2581fuel": 47}, {"\u2581reach": 47}, {"ation.": 47}, {"l": 47}, {"g": 47}, {"\u2581:": 47}, {"\u2581Absolutely": 46}, {"ating": 46}, {"\u2581sounds": 46}, {"u": 46}, {"\u2581name": 46}, {"\u2581play": 46}, {"\u2581technology": 46}, {"\u2581size": 46}, {"\u2581that.": 46}, {"\u2581car.": 46}, {"/": 45}, {"\u2581since": 45}, {"\u2581game": 45}, {"\u2581thanks": 45}, {"\u2581difference": 45}, {"\u2581thought": 45}, {"\u2581works": 45}, {"\u2581different": 45}, {"\u2581testing": 45}, {"\u2581question": 45}, {"\u2581hot": 45}, {"at": 45}, {"\u2581Yes.": 45}, {"\u2581G": 45}, {"\u2581giant": 45}, {"\u2581Looking": 45}, {"\u2581Interesting": 44}, {"\u2581current": 44}, {"\u2581pack": 44}, {"\u2581large": 44}, {"\u2581*": 44}, {"\u2581faster": 44}, {"\u2581chance": 44}, {"\u2581Tesla,": 44}, {"\u2581clear": 44}, {"\u2581automatically": 44}, {"\u2581Well": 44}, {"\u2581care": 44}, {"\u2581allow": 44}, {"\u2581longer": 44}, {"\u2581course": 44}, {"\u2581Company": 44}, {"\u2581access": 44}, {"\u2581post": 44}, {"\u2581I'm": 44}, {"\u2581seems": 43}, {"\u2581problem.": 43}, {"\u2581general": 43}, {"\u2581oxygen": 43}, {"\u2581front": 43}, {"\u2581here": 43}, {"\u2581during": 43}, {"\u2581moving": 43}, {"\u2581km": 43}, {"\u2581complete": 43}, {"\u2581another": 43}, {"\u2581wheel": 43}, {"M": 43}, {"\u2581changes": 43}, {"\u2581room": 43}, {"\u2581flow": 43}, {"\u2581saying": 43}, {"\u2581don't": 43}, {"\u2581critical": 42}, {"\u2581year,": 42}, {"\u2581F": 42}, {"\u2581Of": 42}, {"\u2581please": 42}, {"\u2581it,": 42}, {"\u2581Those": 42}, {"\u2581left": 42}, {"n": 42}, {"\u2581improvement": 42}, {"\u2581Why": 42}, {"\u2581vehicles": 42}, {"\u2581area": 42}, {"r": 42}, {"\u2581recommend": 42}, {"\u2581Full": 42}, {"\u2581feature": 42}, {"\u2581news": 42}, {"\u2581Btw,": 42}, {"\u2581Rocket": 42}, {"\u2581mean": 41}, {"\u2581true.": 41}, {"\u2581Thank": 41}, {"\u2581travel": 41}, {"p": 41}, {"\u2581flights": 41}, {"\u2581significant": 41}, {"\u2581so.": 41}, {"\u2581machine": 41}, {"\u2581past": 41}, {"es,": 41}, {"\u2581kids": 41}, {"\u2581r": 41}, {"\u2581itself": 41}, {"\u2581humanity": 41}, {"\u2581piece": 41}, {"\u2581tunnels": 41}, {"\u2581K": 41}, {"\u2581ground": 41}, {"\u2581net": 41}, {"\u2581Beta": 40}, {"\u2581crazy": 40}, {"ive": 40}, {"\u2581three": 40}, {"ies": 40}, {"f": 40}, {"\u2581create": 40}, {"\u2581theyre": 40}, {"\u2581costs": 40}, {"\u2581amount": 40}, {"\u2581talk": 40}, {"\u2581consider": 40}, {"\u2581given": 40}, {"\u2581let": 40}, {"\u2581L": 40}, {"\u2581On": 40}, {"\u2581online": 39}, {"er,": 39}, {"\u2581Roadster": 39}, {"\u2581view": 39}, {"\u2581tank": 39}, {"\u2581useful": 39}, {"\u2581nothing": 39}, {"\u2581stock": 39}, {"\u2581matters": 39}, {"\u2581either": 39}, {"\u2581required": 39}, {"\u2581motor": 39}, {"\u2581reason": 39}, {"\u2581takes": 39}, {"\u2581probability": 39}, {"le": 39}, {"\u2581Boca": 39}, {"\u2581beyond": 39}, {"\u2581within": 39}, {"\u2581happen": 39}, {"\u2581near": 39}, {"\u2581sec": 39}, {"\u2581combustion": 39}, {"is": 39}, {"\u2581return": 39}, {"\u2581team.": 39}, {"\u2581plus": 39}, {"\u2581ready": 39}, {"\u2581traffic": 38}, {"able": 38}, {"\u2581bigger": 38}, {"\u2581word": 38}, {"\u2581slow": 38}, {"\u2581Mars.": 38}, {"\u2581Station": 38}, {"\u2581Much": 38}, {"ment": 38}, {"est": 38}, {"\u2581Cool": 38}, {"\u2581roughly": 38}, {"\u2581computer": 38}, {"\u2581though.": 38}, {"\u2581Earth.": 38}, {"\u2581took": 38}, {"\u2581fixed": 38}, {"\u2581local": 38}, {"\u2581rock": 38}, {"\u2581easy": 38}, {"\u2581Launch": 38}, {"\u2581temp": 38}, {"\u2581pay": 38}, {"\u2581May": 38}, {"\u2581pm": 38}, {"\u2581t": 38}, {"\u2581right.": 38}, {"\u2581unless": 38}, {"us": 38}, {"\u2581sales": 38}, {"ist": 38}, {"\u2581phone": 38}, {"\u2581Plaid": 38}, {"...": 38}, {"\u2581having": 37}, {"\u2581below": 37}, {"\u2581seen": 37}, {"\u2581cell": 37}, {"\u2581require": 37}, {"\u2581great.": 37}, {"\u2581second": 37}, {"\u2581Happy": 37}, {"\u2581currently": 37}, {"\u2581point.": 37}, {"\u2581However,": 37}, {"\u2581sell": 37}, {"\u2581fleet": 37}, {"\u2581looking": 37}, {"ly,": 37}, {"\u2581Worth": 37}, {"\u2581positive": 37}, {"\u2581gets": 37}, {"st": 37}, {"\u2581late": 37}, {"\u2581theres": 37}, {"\u2581Working": 37}, {"\u2581available": 37}, {"\u2581better.": 37}, {"\u2581ago": 37}, {"\u2581truck": 37}, {"\u2581Powerwall": 37}, {"\u2581check": 36}, {"\u2581mind": 36}, {"\u2581delivery": 36}, {"\u2581upper": 36}, {"\u2581liquid": 36}, {"\u2581pad": 36}, {"\u2581W": 36}, {"\u2581Might": 36}, {"\u2581call": 36}, {"\u2581comes": 36}, {"\u2581base": 36}, {"\u2581Same": 36}, {"\u2581Hopefully,": 36}, {"\u2581standard": 36}, {"\u2581now,": 36}, {"el": 36}, {"\u2581today.": 36}, {"\u2581enable": 36}, {"\u2581Europe": 36}, {"ity": 36}, {"\u2581complex": 36}, {"\u2581favorite": 36}, {"\u2581press": 36}, {"\u2581record": 36}, {"\u2581not.": 36}, {"\u2581app": 36}, {"\u2581Best": 36}, {"et": 36}, {"\u2581mile": 36}, {"\u2581bought": 36}, {"\u2581there.": 36}, {"\u2581core": 36}, {"\u2581simply": 35}, {"\u2581needed.": 35}, {"\u2581worked": 35}, {"\u2581line": 35}, {"\u2581legs": 35}, {"\u2581heavy": 35}, {"\u2581Lot": 35}, {"\u2581vision": 35}, {"\u2581entire": 35}, {"\u2581though": 35}, {"1": 35}, {"\u2581become": 35}, {"\u2581basically": 35}, {"om": 35}, {"\u2581double": 35}, {"\u2581games": 35}, {"\u2581These": 35}, {"\u2581tough": 35}, {"il": 35}, {"\u2581d": 35}, {"\u2581work.": 35}, {"\u2581government": 35}, {"\u2581based": 35}, {"\u2581govt": 35}, {"\u2581paid": 35}, {"\u2581density": 35}, {"\u2581Id": 35}, {"\u2581cause": 35}, {"\u2581rolling": 35}, {"\u2581Summon": 35}, {"\u2581total": 34}, {"\u2581taking": 34}, {"\u2581issue": 34}, {"\u2581ago.": 34}, {"\u2581ask": 34}, {"\u2581active": 34}, {"\u2581internal": 34}, {"\u2581credit": 34}, {"\u2581hold": 34}, {"\u2581N": 34}, {"\u2581ton": 34}, {"\u2581count": 34}, {"\u2581burn": 34}, {"\u2581went": 34}, {"\u2581f": 34}, {"ent": 34}, {"\u2581achieve": 34}, {"\u2581tiny": 34}, {"\u2581vacuum": 34}, {"\u2581Glad": 34}, {"\u2581proud": 34}, {"\u2581hard.": 34}, {"\u2581Cant": 34}, {"\u2581E": 34}, {"\u2581b": 34}, {"\u2581carbon": 34}, {"\u2581cover": 34}, {"\u2581party": 34}, {"\u2581Fair": 34}, {"\u2581keep": 34}, {"\u2581history": 34}, {"\u2581It's": 34}, {"\u2581everything": 33}, {"\u2581meant": 33}, {"\u2581safe": 33}, {"\u2581harder": 33}, {"\u2581Many": 33}, {"\u2581imo": 33}, {"\u2581primary": 33}, {"\u2581sent": 33}, {"\u2581all.": 33}, {"\u2581obv": 33}, {"\u2581neural": 33}, {"e.": 33}, {"\u2581Have": 33}, {"\u2581pure": 33}, {"\u2581attempt": 33}, {"\u2581direct": 33}, {"\u2581often": 33}, {"\u2581Hoping": 33}, {"\u2581clean": 33}, {"\u2581UAW": 33}, {"\u2581once": 32}, {"\u2581fundamental": 32}, {"y,": 32}, {"\u2581wish": 32}, {"\u2581Oh": 32}, {"\u2581tanks": 32}, {"\u2581Car": 32}, {"\u2581said,": 32}, {"\u2581static": 32}, {"\u2581radar": 32}, {"\u2581fine": 32}, {"\u2581good,": 32}, {"\u2581Nothing": 32}, {"\u2581Both": 32}, {"\u2581industry": 32}, {"\u2581Something": 32}, {"igh": 32}, {"\u2581operating": 32}, {"\u2581fix": 32}, {"\u2581Berlin": 32}, {"\u2581arent": 32}, {"\u2581unveil": 32}, {"\u2581Thanks!": 32}, {"\u2581closer": 32}, {"\u2581effect": 32}, {"re": 32}, {"\u2581them.": 32}, {"\u2581prob": 32}, {"\u2581factor": 31}, {"\u2581story": 31}, {"\u2581final": 31}, {"\u2581p": 31}, {"\u2581Raptors": 31}, {"\u2581Seems": 31}, {"\u2581Congrats": 31}, {"\u2581biggest": 31}, {"\u2581h": 31}, {"\u2581clear,": 31}, {"\u2581certainly": 31}, {"\u2581cars,": 31}, {"\u2581results": 31}, {"able.": 31}, {"\u2581form": 31}, {"\u2581negative": 31}, {"\u2581rest": 31}, {"\u2581performance": 31}, {"\u2581art": 31}, {"\u2581weeks.": 31}, {"\u2581An": 31}, {"\u2581global": 31}, {"\u2581Over": 31}, {"\u2581across": 31}, {"\u2581simple": 31}, {"\u2581un": 31}, {"\u2581him": 31}, {"\u2581Hyperloop": 31}, {"\u2581tomorrow.": 30}, {"\u2581otherwise": 30}, {"\u2581you.": 30}, {"\u2581reality": 30}, {"\u2581height": 30}, {"\u2581original": 30}, {"\u2581normal": 30}, {"\u2581multiplanetary": 30}, {"\u2581out.": 30}, {"\u2581Actually,": 30}, {"d": 30}, {"\u2581others": 30}, {"\u2581Merlin": 30}, {"\u2581month.": 30}, {"ian": 30}, {"\u2581Is": 30}, {"\u2581requires": 30}, {"R": 30}, {"\u2581movie": 30}, {"\u2581dual": 30}, {"\u2581agree": 30}, {"ance": 30}, {"\u2581Can": 30}, {"ard": 30}, {"\u2581boring": 30}, {"\u2581Do": 30}, {"\u2581Your": 30}, {"ine": 30}, {"ip": 29}, {"\u2581launches": 29}, {"\u2581ok": 29}, {"les": 29}, {"\u2581well.": 29}, {"\u2581point,": 29}, {"\u2581pic": 29}, {"\u2581velocity": 29}, {"\u2581civilization": 29}, {"\u2581extreme": 29}, {"\u2581Important": 29}, {"\u2581Production": 29}, {"\u2581chamber": 29}, {"\u2581tests": 29}, {"\u2581realize": 29}, {"\u2581heard": 29}, {"\u2581Hard": 29}, {"ts": 29}, {"\u2581Teslas": 29}, {"\u2581orders": 29}, {"\u2581mid": 29}, {"\u2581house": 29}, {"\u2581sp": 29}, {"\u2581solution": 29}, {"\u2581note": 29}, {"\u2581Gigafactory": 29}, {"\u2581solve": 29}, {"\u2581Booster": 29}, {"\u2581market": 29}, {"\u2581insane": 29}, {"\u2581happened": 29}, {"\u2581it's": 29}, {"\u2581Ok,": 28}, {"as": 28}, {"\u2581kind": 28}, {"\u2581weekend": 28}, {"\u2581g": 28}, {"\u2581St": 28}, {"\u2581Neuralink": 28}, {"\u2581special": 28}, {"\u2581metal": 28}, {"\u2581CH4": 28}, {"\u2581imo.": 28}, {"\u2581adding": 28}, {"\u2581thread": 28}, {"\u2581win": 28}, {"\u2581Big": 28}, {"\u2581accurate": 28}, {"\u2581hear": 28}, {"ant": 28}, {"\u2581inside": 28}, {"\u2581sun": 28}, {"\u2581years,": 28}, {"\u2581efficiency": 28}, {"\u2581countries": 28}, {"a.": 28}, {"\u2581trip": 28}, {"\u2581Or": 28}, {"\u2581white": 28}, {"\u2581rapidly": 28}, {"\u2581crash": 28}, {"\u2581improved": 28}, {"\u2581flight.": 28}, {"\u2581serve": 28}, {"\u2581issues": 28}, {"\u2581Isp": 28}, {"\u2581track": 28}, {"\u2581book": 28}, {"\u2581greater": 28}, {"\u2581exciting": 28}, {"\u2581Sorry,": 28}, {"\u2581else": 28}, {"\u2581versions": 28}, {"\u2581usually": 28}, {"\u2581day.": 28}, {"\u2581batteries": 28}, {"\u2581Going": 28}, {"\u2581satellite": 28}, {"\u2581Mode": 28}, {"\u2581list": 28}, {"\u2581fins": 28}, {"\u2581plan": 28}, {"\u2581beautiful": 28}, {"\u2581transport": 28}, {"\u2581climate": 28}, {"\u2581that's": 28}, {"\u2581c": 27}, {"\u2581happy": 27}, {"\u2581iron": 27}, {"\u2581Superchargers": 27}, {"\u2581Bitcoin": 27}, {"\u2581pass": 27}, {"\u2581tiles": 27}, {"\u2581Agreed,": 27}, {"ally": 27}, {"\u2581days.": 27}, {"\u2581named": 27}, {"\u2581program": 27}, {"\u2581lost": 27}, {"\u2581me.": 27}, {"\u2581expect": 27}, {"\u2581Stop": 27}, {"\u2581appreciate": 27}, {"\u2581J": 27}, {"\u2581production.": 27}, {"\u2581color": 27}, {"\u2581cash": 27}, {"\u2581Mach": 27}, {"\u2581towards": 27}, {"\u2581action": 27}, {"\u2581appreciated.": 27}, {"ized": 27}, {"\u2581impact": 27}, {"\u2581True,": 27}, {"\u2581soon!": 27}, {"\u2581include": 27}, {"\u2581Me": 27}, {"\u2581grid": 27}, {"\u2581That's": 27}, {"\u2581future.": 26}, {"\u2581latest": 26}, {"\u2581surface": 26}, {"\u2581great!": 26}, {"\u2581Major": 26}, {"ates": 26}, {"B": 26}, {"\u2581brain": 26}, {"\u2581load": 26}, {"id": 26}, {"\u2581spacecraft": 26}, {"\u2581head": 26}, {"\u2581scale": 26}, {"\u2581approval": 26}, {"\u2581raise": 26}, {"\u2581provide": 26}, {"\u2581experience": 26}, {"\u2581Like": 26}, {"\u2581avoid": 26}, {"\u2581deal": 26}, {"\u2581turn": 26}, {"\u2581reduce": 26}, {"\u2581Could": 26}, {"ie": 26}, {"\u2581larger": 26}, {"\u2581peak": 26}, {"z": 26}, {"\u2581vertical": 26}, {"\u2581song": 26}, {"\u2581again": 26}, {"\u2581send": 26}, {"\u2581bring": 26}, {"\u2581team!": 26}, {"\u2581massive": 26}, {"\u2581North": 26}, {"\u2581date": 26}, {"\u2581job": 26}, {"\u2581hat": 26}, {"\u2581kinda": 25}, {"\u2581possibly": 25}, {"\u2581hell": 25}, {"v": 25}, {"\u2581upgrades": 25}, {"\u2581Wow": 25}, {"\u2581Better": 25}, {"\u2581do.": 25}, {"\u2581code": 25}, {"\u2581obvious": 25}, {"\u2581American": 25}, {"\u2581wait": 25}, {"\u2581ur": 25}, {"and": 25}, {"\u2581feedback": 25}, {"\u2581gen": 25}, {"\u2581ensure": 25}, {"\u2581respect": 25}, {"\u2581magnitude": 25}, {"\u2581tracking": 25}, {"\u2581aero": 25}, {"\u2581repair": 25}, {"\u2581flaps": 25}, {"\u2581pump": 25}, {"\u2581gravity": 25}, {"\u2581excellent": 25}, {"\u2581Team": 25}, {"ur": 25}, {"\u2581initial": 25}, {"\u2581focus": 25}, {"\u2581manufacturing": 25}, {"\u2581understand": 25}, {"\u2581people.": 25}, {"\u2581potential": 25}, {"\u2581Internet": 25}, {"T": 25}, {"\u2581button": 25}, {"\u2581articles": 25}, {"+": 25}, {"\u2581People": 25}, {"\u2581fair": 25}, {"ical": 25}, {"\u2581Need": 25}, {"\u2581Long": 25}, {"\u2581tweet": 25}, {"\u2581America": 25}, {"\u2581red": 25}, {"\u2581stack": 25}, {"\u2581similar": 25}, {"\u2581interesting": 25}, {"\u2581wrote": 25}, {"\u2581shows": 25}, {"\u2581Really": 25}, {"\u2581reentry": 25}, {"\u2581Canada": 24}, {"\u2581step": 24}, {"\u2581Are": 24}, {"\u2581ft": 24}, {"\u2581four": 24}, {"\u2581Because": 24}, {"ion": 24}, {"\u2581billion": 24}, {"L": 24}, {"\u2581including": 24}, {"\u2581reading": 24}, {"ous": 24}, {"\u2581happening": 24}, {"\u2581entry": 24}, {"\u2581engineers": 24}, {"\u2581ch": 24}, {"\u2581sky": 24}, {"\u2581wind": 24}, {"\u2581told": 24}, {"\u2581mention": 24}, {"\u2581found": 24}, {"\u2581nd": 24}, {"\u2581catch": 24}, {"\u2581driver": 24}, {"\u2581cameras": 24}, {"ter": 24}, {"\u2581outside": 24}, {"\u2581yes,": 24}, {"\u2581weather": 24}, {"\u2581panels": 24}, {"\u2581asked": 24}, {"\u2581analysis": 24}, {"\u2581guess": 24}, {"\u2581software.": 24}, {"\u2581By": 24}, {"ia": 24}, {"\u2581Physics": 24}, {"\u2581demand": 24}, {"\u2581despite": 24}, {"\u2581sure.": 24}, {"\u2581Hope": 24}, {"\u2581mode": 24}, {"\u2581high.": 24}, {"\u2581Air": 24}, {"\u2581Canaveral": 24}, {"\u2581parking": 24}, {"\u2581prices": 24}, {"\u2581Performance": 24}, {"\u2581playing": 23}, {"\u2581products": 23}, {"\u2581truly": 23}, {"\u2581except": 23}, {"ence": 23}, {"\u2581throttle": 23}, {"\u2581serious": 23}, {"\u2581Exactly!": 23}, {"ation,": 23}, {"ch": 23}, {"\u2581creating": 23}, {"\u2581cold": 23}, {"\u2581suspension": 23}, {"\u2581world.": 23}, {"\u2581strange": 23}, {"\u2581Yeah.": 23}, {"\u2581shot": 23}, {"\u2581first.": 23}, {"\u2581day,": 23}, {"\u2581tell": 23}, {"w": 23}, {"\u2581directly": 23}, {"\u2581Must": 23}, {"\u2581(and": 23}, {"\u2581death": 23}, {"\u2581rather": 23}, {"\u2581Norway": 23}, {"\u2581Sure,": 23}, {"\u2581sub": 23}, {"\u2581moment": 23}, {"\u2581After": 23}, {"\u2581nozzle": 23}, {"\u2581system.": 23}, {"ated.": 23}, {"\u2581function": 23}, {"\u2581highly": 23}, {"\u2581charge": 23}, {"\u2581extra": 23}, {"\u2581smaller": 23}, {"\u2581well,": 23}, {"\u2581tip": 23}, {"\u2581whats": 23}, {"\u2581Then": 23}, {"\u2581starts": 23}, {"\u2581common": 23}, {"\u2581ideas": 23}, {"\u2581(not": 23}, {"\u2581n": 23}, {"\u2581camera": 23}, {"\u2581fun!": 23}, {"\u2581thrusters": 23}, {"\u2581supply": 23}, {"\u2581commercial": 23}, {"\u2581helping": 23}, {"\u2581electricity": 23}, {"\u2581meme": 23}, {"\u2581Order": 23}, {"\u2581key": 23}, {"\u2581Top": 23}, {"\u2581missions": 23}, {"\u2581force": 23}, {"\u2581seats": 23}, {"ting": 22}, {"\u2581Turns": 22}, {"\u2581simulation": 22}, {"\u2581gone": 22}, {"ge": 22}, {"\u2581hit": 22}, {"\u2581output": 22}, {"\u2581header": 22}, {"3": 22}, {"\u2581training": 22}, {"\u2581Where": 22}, {"\u2581ahead": 22}, {"\u2581known": 22}, {"\u2581rules": 22}, {"\u2581glass": 22}, {"\u2581ratio": 22}, {"\u2581irony": 22}, {"\u2581rapid": 22}, {"\u2581operational": 22}, {"ol": 22}, {"\u2581problems": 22}, {"ay": 22}, {"\u2581tried": 22}, {"\u2581logistics": 22}, {"\u2581possible.": 22}, {"ations": 22}, {"\u2581expected": 22}, {"\u2581roll": 22}, {"ization": 22}, {"\u2581sometimes": 22}, {"\u2581along": 22}, {"\u2581strength": 22}, {"ize": 22}, {"\u2581long-term": 22}, {"ot": 22}, {"\u2581obviously": 22}, {"\u2581fit": 22}, {"\u2581nice": 22}, {"\u2581lots": 22}, {"\u2581that,": 22}, {"\u2581physics": 22}, {"its": 22}, {"ering": 22}, {"\u2581Needs": 22}, {"\u2581write": 22}, {"\u2581F9": 22}, {"ling": 22}, {"\u2581ride": 22}, {"\u2581utility": 22}, {"\u2581leg": 22}, {"\u2581customers": 22}, {"\u2581answer": 22}, {"\u2581way.": 22}, {"\u2581laser": 22}, {"\u2581screen": 22}, {"\u2581steering": 22}, {"\u2581delivered": 22}, {"\u2581systems": 22}, {"ry": 22}, {"\u2581Smart": 22}, {"\u2581HW2": 22}, {"\u2581network": 22}, {"\u2581orbit.": 21}, {"\u2581music": 21}, {"\u2581uses": 21}, {"\u2581Shanghai": 21}, {"ically": 21}, {"\u2581Theres": 21}, {"\u2581min": 21}, {"\u2581paint": 21}, {"ks": 21}, {"\u2581fast.": 21}, {"\u2581Mars,": 21}, {"\u2581distance": 21}, {"\u2581hardest": 21}, {"\u2581feels": 21}, {"2": 21}, {"\u2581Depends": 21}, {"\u2581bay": 21}, {"\u2581Well,": 21}, {"\u2581youd": 21}, {"\u2581Theyre": 21}, {"\u2581far.": 21}, {"\u2581strong": 21}, {"F": 21}, {"ative": 21}, {"\u2581starting": 21}, {"\u2581engine.": 21}, {"E": 21}, {"\u2581co": 21}, {"\u2581fact": 21}, {"\u2581population": 21}, {"\u2581numbers": 21}, {"\u2581correct": 21}, {"\u2581latency": 21}, {"ut": 21}, {"\u2581hour": 21}, {"ary": 21}, {"oo": 21}, {"ens": 21}, {"a,": 21}, {"\u2581Max": 21}, {"\u2581ice": 21}, {"ill": 21}, {"\u2581Vegas": 21}, {"\u2581(or": 21}, {"\u2581one.": 21}, {"\u2581storage": 21}, {"\u2581tech": 21}, {"\u2581huge": 21}, {"\u2581automotive": 21}, {"\u2581figure": 21}, {"ire": 21}, {"\u2581Friday": 21}, {"\u2581continue": 21}, {"am": 21}, {"\u2581oil": 21}, {"im": 21}, {"\u2581completely": 21}, {"\u2581finish": 21}, {"\u2581block": 21}, {"\u2581hundreds": 21}, {"\u2581%.": 21}, {"\u2581Who": 21}, {"\u2581messed": 21}, {"\u2581sign": 21}, {"\u2581star": 21}, {"\u2581this,": 21}, {"\u2581NY": 21}, {"\u2581highest": 21}, {"\u2581braking": 21}, {"up": 21}, {"\u2581Area": 21}, {"\u2581spaceship": 21}, {"\u2581can't": 21}, {"\u2581instead": 20}, {"\u2581Unfortunately,": 20}, {"\u2581started": 20}, {"\u2581direction": 20}, {"\u2581seeing": 20}, {"\u2581Sp": 20}, {"\u2581heart": 20}, {"\u2581incredible": 20}, {"\u2581South": 20}, {"\u2581flying": 20}, {"\u2581mobile": 20}, {"\u2581humans": 20}, {"\u2581site": 20}, {"\u2581came": 20}, {"\u2581Too": 20}, {"\u2581whether": 20}, {"\u2581integrated": 20}, {"\u2581hover": 20}, {"\u2581minor": 20}, {"\u2581prior": 20}, {"\u2581honor": 20}, {"\u2581angle": 20}, {"al.": 20}, {"\u2581expendable": 20}, {"\u2581ocean": 20}, {"\u2581ramp": 20}, {"\u2581EU": 20}, {"\u2581loop": 20}, {"\u2581talking": 20}, {"um": 20}, {"\u2581haha.": 20}, {"\u2581sold": 20}, {"\u2581then.": 20}, {"\u2581Given": 20}, {"\u2581Current": 20}, {"\u2581diameter": 20}, {"\u2581running": 20}, {"\u2581July": 20}, {"\u2581exact": 20}, {"\u2581visit": 20}, {"\u2581welcome!": 20}, {"\u2581Fremont": 20}, {"\u2581rd": 20}, {"\u2581stations": 20}, {"ers,": 20}, {"\u2581weve": 20}, {"\u2581Mostly": 20}, {"\u2581extend": 20}, {"\u2581existing": 20}, {"\u2581Sh": 20}, {"ap": 20}, {"ons": 20}, {"\u2581address": 20}, {"\u2581ways": 20}, {"\u2581limit": 20}, {"od": 20}, {"th": 20}, {"\u2581plant": 20}, {"os": 20}, {"\u2581aliens": 20}, {"\u2581S/X": 20}, {"\u2581taken": 20}, {"\u2581soon,": 20}, {"\u2581lift": 20}, {"\u2581baby": 20}, {"\u2581EV": 20}, {"\u2581taxes": 20}, {"\u2581Thanks,": 20}, {"\u2581development": 20}, {"\u2581it!": 20}, {"\u2581April": 20}, {"\u2581tight": 20}, {"\u2581turned": 20}, {"\u2581dying": 20}, {"\u2581dark": 20}, {"\u2581capacity": 20}, {"\u2581Makes": 20}, {"\u2581NASA": 20}, {"\u2581rain": 20}, {"\u2581welcome.": 20}, {"\u2581page": 20}, {"ro": 20}, {"\u2581features": 20}, {"\u2581owner": 20}, {"\u2581aircraft": 20}, {"\u2581highway": 20}, {"\u2581request": 20}, {"\u2581didn't": 20}, {"\u2581doesn't": 20}, {"\u2581Try": 19}, {"\u2581interview": 19}, {"\u2581offer": 19}, {"\u2581vast": 19}, {"\u2581turns": 19}, {"\u2581low.": 19}, {"\u2581much.": 19}, {"\u2581improving": 19}, {"ad": 19}, {"\u2581black": 19}, {"\u2581shield": 19}, {"\u2581great,": 19}, {"\u2581compared": 19}, {"\u2581round": 19}, {"\u2581SN": 19}, {"ion.": 19}, {"\u2581Other": 19}, {"ver": 19}, {"\u2581allows": 19}, {"\u2581sh": 19}, {"\u2581received": 19}, {"\u2581week,": 19}, {"\u2581expansion": 19}, {"\u2581Note,": 19}, {"e,": 19}, {"\u2581me,": 19}, {"\u2581Two": 19}, {"\u2581transfer": 19}, {"\u2581guy": 19}, {"\u2581certain": 19}, {"ir": 19}, {"\u2581challenge": 19}, {"\u2581country": 19}, {"ure": 19}, {"ier": 19}, {"\u2581tonight": 19}, {"\u2581Baby": 19}, {"\u2581carry": 19}, {"\u2581security": 19}, {"\u2581resources": 19}, {"\u2581says": 19}, {"ig": 19}, {"\u2581provided": 19}, {"\u2581Once": 19}, {"\u2581section": 19}, {"\u2581optimized": 19}, {"\u2581door": 19}, {"\u2581Semi": 19}, {"\u2581Day": 19}, {"\u2581metric": 19}, {"\u2581l": 19}, {"\u2581cool.": 19}, {"\u2581gimbal": 19}, {"\u2581friend": 19}, {"\u2581chain": 19}, {"\u2581corner": 19}, {"\u2581interest": 19}, {"\u2581user": 19}, {"\u2581buying": 19}, {"\u2581path": 19}, {"\u2581&gt;": 19}, {"\u2581feeling": 19}, {"\u2581changing": 19}, {"\u2581months,": 19}, {"\u2581improves": 19}, {"\u2581state": 19}, {"\u2581C19": 19}, {"\u2581fake": 19}, {"\u2581reasons": 19}, {"\u2581priority": 19}, {"ive.": 19}, {"\u2581points": 19}, {"\u2581Time": 19}, {"\u2581opening": 19}, {"it.": 19}, {"\u2581national": 19}, {"\u2581cannot": 19}, {"\u2581Dogecoin": 19}, {"\u2581dead": 19}, {"\u2581favor": 19}, {"\u2581interior": 19}, {"\u2581window": 19}, {"\u2581heating": 19}, {"\u2581anywhere": 19}, {"\u2581hate": 19}, {"\u2581spend": 19}, {"\u2581question.": 19}, {"\u2581gasoline": 19}, {"\u2581drops": 19}, {"\u2581Deep": 19}, {"\u2581thinking": 19}, {"\u2581car,": 19}, {"\u2581hand": 19}, {"\u2581isn't": 19}, {"\u2581won't": 19}, {"\u2581earlier": 18}, {"\u2581successful": 18}, {"\u2581holiday": 18}, {"\u2581cells": 18}, {"art": 18}, {"\u2581launching": 18}, {"\u2581altitude": 18}, {"\u2581increasing": 18}, {"\u2581ever.": 18}, {"\u2581cargo": 18}, {"\u2581destination": 18}, {"\u2581spent": 18}, {"\u2581gave": 18}, {"\u2581Doesnt": 18}, {"\u2581Whats": 18}, {"\u2581sense.": 18}, {"\u2581material": 18}, {"king": 18}, {"\u2581rise": 18}, {"\u2581GM": 18}, {"\u2581details": 18}, {"\u2581war": 18}, {"ions": 18}, {"ty": 18}, {"\u2581re": 18}, {"\u2581regulators": 18}, {"\u2581aiming": 18}, {"C": 18}, {"ings": 18}, {"\u2581success": 18}, {"\u2581die": 18}, {"ets": 18}, {"\u2581yet.": 18}, {"\u2581level.": 18}, {"\u2581planet": 18}, {"\u2581upgraded": 18}, {"\u2581ships": 18}, {"ism": 18}, {"\u2581helpful": 18}, {"\u2581smart": 18}, {"\u2581powered": 18}, {"\u2581de": 18}, {"\u2581August": 18}, {"\u2581her": 18}, {"ial": 18}, {"ness": 18}, {"P": 18}, {"\u2581age": 18}, {"led": 18}, {"\u2581suck": 18}, {"\u2581drag": 18}, {"\u2581quality": 18}, {"\u2581social": 18}, {"\u2581publish": 18}, {"\u2581competition": 18}, {"\u2581source": 18}, {"\u2581increases": 18}, {"\u2581Self-Driving": 18}, {"\u2581rare": 18}, {"\u2581problem,": 18}, {"\u2581range.": 18}, {"\u2581rating": 18}, {"\u2581stainless": 18}, {"\u2581knows": 18}, {"\u2581customer": 18}, {"S": 18}, {"\u2581too,": 18}, {"\u2581so,": 18}, {"\u2581Python": 18}, {"\u2581Getting": 18}, {"ite": 18}, {"\u2581thank": 18}, {"\u2581links": 18}, {"\u2581summer": 18}, {"\u2581supporting": 18}, {"\u2581outcome": 18}, {"\u2581announcement": 18}, {"\u2581Any": 18}, {"\u2581incl": 18}, {"\u2581FAA": 18}, {"\u2581warm": 18}, {"\u2581store": 18}, {"\u2581Don't": 18}, {"\u2581couldnt": 17}, {"\u2581impossible": 17}, {"\u2581appreciated": 17}, {"\u2581Apple": 17}, {"\u2581(sigh": 17}, {"\u2581essential": 17}, {"\u2581follow": 17}, {"\u2581you,": 17}, {"\u2581Everything": 17}, {"\u2581precise": 17}, {"\u2581SpaceX,": 17}, {"\u2581Co": 17}, {"\u2581Dojo": 17}, {"age": 17}, {"\u2581right,": 17}, {"\u2581droneship": 17}, {"ue": 17}, {"\u2581Fate": 17}, {"\u2581precision": 17}, {"ics": 17}, {"N": 17}, {"\u2581down.": 17}, {"\u2581(no": 17}, {"\u2581twice": 17}, {"se": 17}, {"\u2581appears": 17}, {"5": 17}, {"\u2581users": 17}, {"ible": 17}, {"\u2581but,": 17}, {"\u2581deaths": 17}, {"\u2581Sunday": 17}, {"\u2581render": 17}, {"\u2581Making": 17}, {"\u2581meet": 17}, {"ab": 17}, {"\u2581money.": 17}, {"4": 17}, {"\u2581accelerate": 17}, {"\u2581Meant": 17}, {"\u2581allowing": 17}, {"\u2581awesome.": 17}, {"\u2581structure": 17}, {"\u2581advantage": 17}, {"\u2581target": 17}, {"\u2581launch.": 17}, {"\u2581Starships": 17}, {"ke": 17}, {"\u2581dumb": 17}, {"\u2581accelerating": 17}, {"\u2581capital": 17}, {"\u2581dramatically": 17}, {"\u2581Re": 17}, {"\u2581T/W": 17}, {"\u2581pre": 17}, {"\u2581demo": 17}, {"\u2581Adding": 17}, {"\u2581CO2": 17}, {"\u2581individual": 17}, {"\u2581res": 17}, {"\u2581havent": 17}, {"\u2581~1000": 17}, {"\u2581gonna": 17}, {"ars": 17}, {"\u2581touch": 17}, {"\u2581know.": 17}, {"\u2581Agreed": 17}, {"\u2581easily": 17}, {"\u2581Read": 17}, {"\u2581report": 17}, {"\u2581Never": 17}, {"\u2581saw": 17}, {"\u2581~1": 17}, {"\u2581exceed": 17}, {"\u2581changed": 17}, {"\u2581created": 17}, {"\u2581allowed": 17}, {"\u2581passed": 17}, {"\u2581event": 17}, {"\u2581powerful": 17}, {"\u2581done.": 17}, {"\u2581solving": 17}, {"\u2581affect": 17}, {"\u2581refund": 17}, {"\u2581Amazing": 17}, {"\u2581perfect": 17}, {"be": 17}, {"\u2581happens": 17}, {"\u2581weight": 17}, {"\u2581Bay": 17}, {"\u2581tower": 17}, {"\u2581location": 17}, {"\u2581change.": 17}, {"\u2581crypto": 17}, {"]": 17}, {"\u2581fires": 17}, {"\u2581seat": 17}, {"\u2581import": 17}, {"\u2581QA": 17}, {"\u2581cat": 17}, {"\u2581largest": 17}, {"\u2581--": 17}, {"\u2581Starbase": 17}, {"\u2581autonomous": 16}, {"\u2581external": 16}, {"\u2581setting": 16}, {"\u2581stuff": 16}, {"\u2581more.": 16}, {"\u2581AI.": 16}, {"\u2581out,": 16}, {"\u2581bs": 16}, {"\u2581imo,": 16}, {"\u2581Perhaps": 16}, {"\u2581behalf": 16}, {"\u2581science": 16}, {"\u2581sad": 16}, {"\u2581~2": 16}, {"\u2581comment": 16}, {"\u2581functionality": 16}, {"\u2581nor": 16}, {"\u2581cut": 16}, {"\u2581choice": 16}, {"able,": 16}, {"\u2581cooling": 16}, {"\u2581abort": 16}, {"\u2581capability": 16}, {"\u2581Hell": 16}, {"\u2581Center": 16}, {"\u2581Technically,": 16}, {"\u2581Crew": 16}, {"\u2581hypersonic": 16}, {"\u2581frame": 16}, {"\u2581school": 16}, {"\u2581easy,": 16}, {"\u2581Extremely": 16}, {"s)": 16}, {"\u2581Testing": 16}, {"\u2581written": 16}, {"\u2581sea": 16}, {"un": 16}, {"\u2581pro": 16}, {"\u2581added": 16}, {"\u2581long-term.": 16}, {"\u2581smooth": 16}, {"\u2581sooner": 16}, {"\u2581people,": 16}, {"\u2581letter": 16}, {"\u2581done,": 16}, {"light": 16}, {"ves": 16}, {"\u2581motors": 16}, {"\u2581confirm": 16}, {"\u2581par": 16}, {"\u2581guys": 16}, {"\u2581welcome": 16}, {"\u2581S.": 16}, {"\u2581summary": 16}, {"\u2581worst": 16}, {"\u2581package": 16}, {"ors": 16}, {"\u2581remain": 16}, {"\u2581recent": 16}, {"\u2581weird": 16}, {"\u2581process": 16}, {"\u2581firing": 16}, {"\u2581work,": 16}, {"H": 16}, {"\u2581myself": 16}, {"\u2581fav": 16}, {"ul": 16}, {"\u2581minute": 16}, {"\u2581join": 16}, {"\u2581real-world": 16}, {"ind": 16}, {"\u2581consciousness": 16}, {"\u2581journey": 16}, {"\u2581law": 16}, {"\u2581Electric": 16}, {"\u2581His": 16}, {"\u2581account": 16}, {"\u2581is,": 16}, {"\u2581intelligence": 16}, {"\u2581non-": 16}, {"\u2581filter": 16}, {"\u2581tho": 16}, {"\u2581snow": 16}, {"\u2581y": 16}, {"ans": 16}, {"\u2581comments": 16}, {"\u2581EVs": 16}, {"\u2581Dec": 16}, {"\u2581response": 16}, {"\u2581agree.": 16}, {"\u2581tire": 16}, {"\u2581wd": 16}, {"\u2581I've": 16}, {"\u2581Back": 15}, {"\u2581Tesla!": 15}, {"\u2581Anyone": 15}, {"\u2581capable": 15}, {"\u2581options": 15}, {"\u2581shorts": 15}, {"\u2581stay": 15}, {"\u2581rocket.": 15}, {"\u2581Last": 15}, {"\u2581awesome!": 15}, {"\u2581first,": 15}, {"\u2581Ship": 15}, {"\u2581reaching": 15}, {"\u2581greatly": 15}, {"\u2581Goal": 15}, {"\u2581underway": 15}, {"\u2581Landing": 15}, {"\u2581cases": 15}, {"\u2581wanted": 15}, {"\u2581London": 15}, {"\u2581orbit,": 15}, {"\u2581close.": 15}, {"\u2581pain": 15}, {"\u2581model": 15}, {"\u2581minutes": 15}, {"\u2581Feels": 15}, {"\u2581Cool,": 15}, {"\u2581today,": 15}, {"\u2581closed": 15}, {"\u2581Right": 15}, {"\u2581tested": 15}, {"\u2581covid": 15}, {"\u2581swap": 15}, {"\u2581Version": 15}, {"\u2581input": 15}, {"\u2581appear": 15}, {"\u2581Motor": 15}, {"\u2581ten": 15}, {"\u2581completed": 15}, {"\u2581Weve": 15}, {"\u2581Every": 15}, {"\u2581fewer": 15}, {"\u2581significantly": 15}, {"\u2581True.": 15}, {"ak": 15}, {"\u2581array": 15}, {"\u2581supersonic": 15}, {"\u2581together": 15}, {"\u2581loss": 15}, {"\u2581Got": 15}, {"\u2581tbh": 15}, {"\u2581rollout": 15}, {"\u2581morning": 15}, {"D": 15}, {"\u2581Had": 15}, {"G": 15}, {"\u2581fail": 15}, {"\u2581worse": 15}, {"\u2581role": 15}, {"\u2581se": 15}, {"\u2581drop": 15}, {"\u2581stand": 15}, {"\u2581latter": 15}, {"\u2581competitive": 15}, {"\u2581reflight": 15}, {"\u2581fan": 15}, {"\u2581irl": 15}, {"\u2581affects": 15}, {"\u2581$": 15}, {"\u2581exceeds": 15}, {"\u2581schedule": 15}, {"\u2581talent": 15}, {"pe": 15}, {"\u2581Ch": 15}, {"\u2581appreciated!": 15}, {"\u2581develop": 15}, {"\u2581confirmed": 15}, {"\u2581prototype": 15}, {"\u2581Starhopper": 15}, {"\u2581lights": 15}, {"\u2581becoming": 15}, {"\u2581Austin": 15}, {"\u2581teams": 15}, {"ack": 15}, {"\u2581correct.": 15}, {"\u2581Three": 15}, {"\u2581hydrogen": 15}, {"\u2581too!": 15}, {"\u2581fine.": 15}, {"\u2581Already": 15}, {"\u2581U": 15}, {"\u2581questions": 15}, {"\u2581term": 15}, {"\u2581watch": 15}, {"\u2581universe": 15}, {"\u2581real.": 15}, {"\u2581usage": 15}, {"\u2581summon": 15}, {"ys": 15}, {"\u2581false.": 15}, {"\u2581landed": 15}, {"\u2581trend": 15}, {"\u2581gives": 15}, {"\u2581Literally": 15}, {"if": 15}, {"\u2581Does": 15}, {"\u2581forever": 15}, {"\u2581lol": 15}, {"\u2581way,": 15}, {"\u2581dome": 15}, {"\u2581Software": 15}, {"\u2581dog": 15}, {"\u2581true,": 15}, {"\u2581misleading": 15}, {"\u2581places": 15}, {"\u2581recommended": 15}, {"\u2581tube": 15}, {"\u2581Easter": 15}, {"\u2581Design": 15}, {"\u2581achieving": 15}, {"\u2581alone": 15}, {"\u2581environment": 15}, {"\u2581is.": 15}, {"\u2581actions": 15}, {"\u2581Base": 15}, {"\u2581Always": 15}, {"\u2581technically": 15}, {"\u2581layer": 15}, {"\u2581doo,": 15}, {"\u2581meeting": 14}, {"\u2581quarter": 14}, {"\u2581install": 14}, {"\u2581majority": 14}, {"/s": 14}, {"\u2581predict": 14}, {"\u2581memes": 14}, {"\u2581impressive": 14}, {"\u2581?": 14}, {"ight": 14}, {"\u2581confident": 14}, {"\u2581putting": 14}, {"\u2581Universe": 14}, {"\u2581trillion": 14}, {"\u2581engineering,": 14}, {"\u2581mounted": 14}, {"\u2581transition": 14}, {"\u2581Exciting": 14}, {"\u2581insanely": 14}, {"\u2581talented": 14}, {"\u2581NN": 14}, {"pping": 14}, {"\u2581selling": 14}, {"\u2581units": 14}, {"\u2581bro": 14}, {"ious": 14}, {"ments": 14}, {"\u2581PCR": 14}, {"\u2581blow": 14}, {"\u2581Russian": 14}, {"\u2581Thursday": 14}, {"\u2581clarify": 14}, {"\u2581From": 14}, {"\u2581Moreover,": 14}, {"\u2581be.": 14}, {"\u2581generate": 14}, {"\u2581slight": 14}, {"\u2581separate": 14}, {"ted": 14}, {"\u2581attack": 14}, {"act": 14}, {"\u2581beat": 14}, {"\u2581important.": 14}, {"\u2581Another": 14}, {"\u2581amazing.": 14}, {"\u2581later.": 14}, {"\u2581investors": 14}, {"\u2581approval.": 14}, {"ll": 14}, {"\u2581primarily": 14}, {"\u2581perhaps": 14}, {"\u2581sim": 14}, {"\u2581increasingly": 14}, {"\u2581Sc": 14}, {"\u2581trust": 14}, {"x": 14}, {"\u2581Critical": 14}, {"\u2581issues.": 14}, {"\u2581tonight.": 14}, {"\u2581fusion": 14}, {"\u2581weld": 14}, {"\u2581ago,": 14}, {"\u2581information": 14}, {"\u2581board": 14}, {"\u2581cryo": 14}, {"\u2581locations": 14}, {"\u2581approach": 14}, {"\u2581died": 14}, {"\u2581receive": 14}, {"\u2581minimize": 14}, {"\u2581wild": 14}, {"\u2581*not*": 14}, {"\u2581deployed": 14}, {"\u2581youll": 14}, {"\u2581developing": 14}, {"\u2581facto": 14}, {"\u2581Orbital": 14}, {"\u2581temperature": 14}, {"\u2581unit": 14}, {"\u2581amounts": 14}, {"\u2581met": 14}, {"qu": 14}, {"\u2581thruster": 14}, {"\u2581incredibly": 14}, {"\u2581Australia": 14}, {"\u2581boost": 14}, {"\u2581advertising": 14}, {"\u2581tour": 14}, {"\u2581necessary": 14}, {"\u2581AWD": 14}, {"\u2581%,": 14}, {"\u2581immediately": 14}, {"\u2581dedicated": 14}, {"\u2581applied": 14}, {"\u2581suggestions": 14}, {"\u2581/7": 14}, {"\u2581atmosphere": 14}, {"\u2581Which": 14}, {"\u2581series": 14}, {"\u2581ventilators": 14}, {"\u2581Apollo": 14}, {"\u2581park": 14}, {"ain": 14}, {"\u2581mission.": 14}, {"\u2581Part": 14}, {"ists": 14}, {"\u2581behind": 14}, {"\u2581ability": 14}, {"ians": 14}, {"\u2581Moon": 14}, {"\u2581videos": 14}, {"\u2581USA": 14}, {"\u2581holding": 14}, {"\u2581course,": 14}, {"\u2581Since": 14}, {"\u2581learn": 14}, {"\u2581wouldnt": 14}, {"\u2581activate": 14}, {"\u2581diff": 14}, {"\u2581flamethrower": 14}, {"\u2581carmakers": 14}, {"\u2581$1000": 14}, {"\u2581lead": 14}, {"\u2581legal": 14}, {"\u2581insurance": 14}, {"\u2581stream": 14}, {"\u2581millions": 14}, {"\u2581link": 14}, {"\u2581apply": 14}, {"\u2581drives": 14}, {"\u2581fight": 14}, {"\u2581updates": 14}, {"\u2581affordable": 14}, {"\u2581cap": 14}, {"\u2581picture": 14}, {"ra": 14}, {"\u2581pod": 14}, {"\u2581credibility": 14}, {"..": 14}, {"\u2581SolarCity": 14}, {"\u2581transaction": 14}, {"\u2581math": 13}, {"\u2581important,": 13}, {"\u2581pedestrian": 13}, {"\u2581writing": 13}, {"\u2581save": 13}, {"\u2581upload": 13}, {"\u2581j": 13}, {"\u2581(sigh).": 13}, {"\u2581Indeed": 13}, {"\u2581seriously": 13}, {"\u2581indeed": 13}, {"\u2581magic": 13}, {"\u2581off.": 13}, {"\u2581hardware.": 13}, {"\u2581memory": 13}, {"\u2581truth": 13}, {"ise": 13}, {"\u2581subject": 13}, {"\u2581nosecone": 13}, {"\u2581margin": 13}, {"\u2581developed": 13}, {"\u2581ball": 13}, {"\u2581bug": 13}, {"\u2581Def": 13}, {"\u2581ex": 13}, {"\u2581cycle": 13}, {"\u2581thousands": 13}, {"\u2581engines.": 13}, {"\u2581official": 13}, {"\u2581back.": 13}, {"\u2581type": 13}, {"iv": 13}, {"\u2581degrees": 13}, {"ase": 13}, {"\u2581Soon": 13}, {"\u2581somewhere": 13}, {"\u2581straight": 13}, {"\u2581hours.": 13}, {"k.": 13}, {"\u2581driven": 13}, {"\u2581accident": 13}, {"ud": 13}, {"ator": 13}, {"\u2581convert": 13}, {"\u2581possible,": 13}, {"\u2581technical": 13}, {"\u2581middle": 13}, {"\u2581House": 13}, {"\u2581position": 13}, {"\u2581feed": 13}, {"\u2581average": 13}, {"\u2581silly": 13}, {"\u2581e": 13}, {"\u2581nets": 13}, {"ably": 13}, {"ong": 13}, {"ment.": 13}, {"\u2581Truth": 13}, {"\u2581robots": 13}, {"ies.": 13}, {"\u2581license": 13}, {"\u2581lithium": 13}, {"\u2581station": 13}, {"\u2581hes": 13}, {"\u2581expert": 13}, {"\u2581CEO": 13}, {"\u2581Chica": 13}, {"\u2581failure": 13}, {"\u2581yeah,": 13}, {"\u2581nose": 13}, {"\u2581none": 13}, {"\u2581Battery": 13}, {"\u2581Ford": 13}, {"\u2581(s": 13}, {"\u2581reusability": 13}, {"\u2581weekend.": 13}, {"ach": 13}, {"\u2581regions": 13}, {"end": 13}, {"\u2581ultra": 13}, {"\u2581considered": 13}, {"\u2581~": 13}, {"\u2581funny": 13}, {"io": 13}, {"\u2581York": 13}, {"ce": 13}, {"\u2581result": 13}, {"\u2581class": 13}, {"\u2581basic": 13}, {"\u2581health": 13}, {"out": 13}, {"\u2581caught": 13}, {"\u2581future,": 13}, {"\u2581background": 13}, {"\u2581Live": 13}, {"\u2581webcast": 13}, {"\u2581candy": 13}, {"\u2581bandwidth": 13}, {"\u2581produced": 13}, {"\u2581push": 13}, {"\u2581away.": 13}, {"\u2581shortly": 13}, {"\u2581SN4": 13}, {"\u2581landing.": 13}, {"\u2581wrong.": 13}, {"\u2581aluminum": 13}, {"\u2581shown": 13}, {"\u2581construction": 13}, {"\u2581signal": 13}, {"\u2581aware": 13}, {"ag": 13}, {"\u2581letting": 13}, {"\u2581odd": 13}, {"ose": 13}, {"\u2581Night": 13}, {"ron": 13}, {"\u2581best.": 13}, {"\u2581SpaceX.": 13}, {"\u2581according": 13}, {"\u2581mine": 13}, {"\u2581field": 13}, {"\u2581annual": 13}, {"\u2581Moving": 13}, {"\u2581fossil": 13}, {"\u2581computer.": 13}, {"\u2581cute": 13}, {"em": 13}, {"\u2581trouble": 13}, {"\u2581V3": 13}, {"\u2581night.": 13}, {"\u2581worldwide": 13}, {"ats": 13}, {"\u2581California,": 13}, {"red": 13}, {"\u2581dev": 13}, {"\u2581annoying": 13}, {"\u2581whereas": 13}, {"\u2581glad": 13}, {"\u2581optimistic": 13}, {"\u2581lose": 13}, {"\u2581coast": 13}, {"\u2581hardcore": 13}, {"\u2581greatest": 13}, {"\u2581btw.": 13}, {"\u2581arguably": 13}, {"\u2581rapidly.": 13}, {"\u2581o": 13}, {"\u2581times.": 13}, {"\u2581tap": 13}, {"\u2581deliver": 13}, {"\u2581image": 13}, {"ving": 13}, {"\u2581ramping": 13}, {"\u2581service.": 13}, {"\u2581Earth,": 13}, {"\u2581Hopper": 13}, {"\u2581depending": 13}, {"\u2581wants": 13}, {"\u2581helps": 13}, {"\u2581safety.": 13}, {"\u2581anyway.": 13}, {"\u2581student": 13}, {"\u2581cost.": 13}, {"\u2581navigate": 13}, {"\u2581Engine": 13}, {"\u2581Hes": 13}, {"\u2581guide": 13}, {"\u2581score": 13}, {"\u2581far,": 13}, {"\u2581Nov": 13}, {"\u2581walk": 13}, {"\u2581V10.0": 13}, {"\u2581Enhanced": 13}, {"\u2581airframe": 13}, {"\u2581India": 13}, {"\u2581Everyone": 13}, {"\u2581race": 13}, {"\u2581personally": 13}, {"\u2581alien": 13}, {"\u2581investigate": 13}, {"\u2581again.": 13}, {"\u2581BFR": 13}, {"\u2581vote": 13}, {"\u2581world's": 13}, {"\u2581themselves": 12}, {"ne": 12}, {"\u2581custom": 12}, {"\u2581horn": 12}, {"\u2581Christmas": 12}, {"\u2581growth": 12}, {"\u2581Yup,": 12}, {"\u2581discuss": 12}, {"\u2581Hi": 12}, {"\u2581Star": 12}, {"\u2581detail": 12}, {"he": 12}, {"\u2581epic": 12}, {"\u2581/3": 12}, {"\u2581object": 12}, {"\u2581Latter": 12}, {"\u2581Science": 12}, {"8": 12}, {"\u2581sl": 12}, {"\u2581etc.": 12}, {"\u2581mount": 12}, {"\u2581company,": 12}, {"\u2581Reality": 12}, {"\u2581turbopump": 12}, {"\u2581US.": 12}, {"ins": 12}, {"\u2581words": 12}, {"\u2581Life": 12}, {"\u2581O": 12}, {"\u2581secs": 12}, {"\u2581others.": 12}, {"\u2581symptoms": 12}, {"\u2581explanation": 12}, {"\u2581pressure,": 12}, {"\u2581maintain": 12}, {"\u2581vector": 12}, {"\u2581solved": 12}, {"\u2581AC": 12}, {"\u2581invest": 12}, {"\u2581But,": 12}, {"\u2581friends": 12}, {"\u2581terminal": 12}, {"\u2581mins.": 12}, {"ere": 12}, {"\u2581Oct": 12}, {"\u2581easier": 12}, {"\u2581Accurate": 12}, {"\u2581sm": 12}, {"\u2581duty": 12}, {"bs": 12}, {"\u2581broken": 12}, {"\u2581value.": 12}, {"\u2581autonomy": 12}, {"ime": 12}, {"\u2581kid": 12}, {"ile": 12}, {"\u2581Tues": 12}, {"day": 12}, {"\u2581analysis.": 12}, {"\u2581evidence": 12}, {"\u2581architecture": 12}, {"\u2581parts.": 12}, {"\u2581finished": 12}, {"\u2581Actually": 12}, {"\u2581Lots": 12}, {"\u2581cities": 12}, {"\u2581aim": 12}, {"\u2581waiting": 12}, {"\u2581Mom": 12}, {"\u2581(aka": 12}, {"\u2581Se": 12}, {"\u2581hydraulic": 12}, {"7": 12}, {"\u2581speed,": 12}, {"\u2581error": 12}, {"\u2581Gary": 12}, {"O": 12}, {"\u2581boat": 12}, {"\u2581unexpected": 12}, {"\u2581hospital": 12}, {"\u2581operation": 12}, {"\u2581loved": 12}, {"\u2581companies.": 12}, {"\u2581design.": 12}, {"ve": 12}, {"\u2581O2": 12}, {"\u2581noise": 12}, {"\u2581wise": 12}, {"\u2581engine,": 12}, {"\u2581one,": 12}, {"\u2581compute": 12}, {"\u2581ship.": 12}, {"\u2581Impressive": 12}, {"\u2581power.": 12}, {"\u2581sections": 12}, {"\u2581advance": 12}, {"\u2581tall": 12}, {"\u2581Florida": 12}, {"\u2581backup": 12}, {"\u2581secret": 12}, {"\u2581dropped": 12}, {"\u2581fool": 12}, {"\u2581happiness": 12}, {"\u2581keeps": 12}, {"\u2581Found": 12}, {"\u2581injuries": 12}, {"\u2581labor": 12}, {"\u2581collapse": 12}, {"\u2581danger": 12}, {"\u2581SUV": 12}, {"ac": 12}, {"\u2581family": 12}, {"\u2581twitter": 12}, {"\u2581produce": 12}, {"ice": 12}, {"o.": 12}, {"\u2581sc": 12}, {"\u2581box": 12}, {"\u2581she": 12}, {"\u2581des": 12}, {"\u2581up.": 12}, {"\u2581End": 12}, {"\u2581self-sustaining": 12}, {"\u2581solid": 12}, {"\u2581journalists": 12}, {"\u2581trans": 12}, {"\u2581injury": 12}, {"ities": 12}, {"\u2581rocks!": 12}, {"\u2581voice": 12}, {"\u2581physical": 12}, {"\u2581probable": 12}, {"\u2581sats": 12}, {"\u2581Anything": 12}, {"\u2581Red": 12}, {"\u2581Check": 12}, {"\u2581che": 12}, {"\u2581not,": 12}, {"\u2581low,": 12}, {"\u2581whatever": 12}, {"\u2581policy": 12}, {"\u2581followed": 12}, {"\u2581mT": 12}, {"\u2581remember": 12}, {"\u2581understanding": 12}, {"ures": 12}, {"\u2581merch": 12}, {"\u2581Damn": 12}, {"\u2581Huge": 12}, {"\u2581Excellent": 12}, {"\u2581Excited": 12}, {"\u2581Force": 12}, {"\u2581/4": 12}, {"\u2581midnight": 12}, {"\u2581affected": 12}, {"\u2581constantly": 12}, {"\u2581Internet.": 12}, {"\u2581Starship,": 12}, {"\u2581ones": 12}, {"\u2581Mk1": 12}, {"\u2581fin": 12}, {"\u2581entirely": 12}, {"\u2581planning": 12}, {"\u2581supporters": 12}, {"\u2581contract": 12}, {"\u2581FTW": 12}, {"\u2581plans": 12}, {"\u2581mentioned": 12}, {"\u2581racing": 12}, {"\u2581thoughtful": 12}, {"\u2581centers": 12}, {"\u2581further": 12}, {"\u2581torque": 12}, {"\u2581Did": 12}, {"\u2581lines": 12}, {"\u2581crew": 12}, {"\u2581company.": 12}, {"\u2581appreciation": 12}, {"\u2581Prob": 12}, {"ord": 12}, {"ster": 12}, {"\u2581union": 12}, {"\u2581Grasshopper": 12}, {"\u2581terminals": 12}, {"\u2581services": 11}, {"\u2581ended": 11}, {"\u2581sports": 11}, {"\u2581multiple": 11}, {"\u2581match": 11}, {"\u2581generator": 11}, {"\u2581allocation": 11}, {"\u2581duties": 11}, {"\u2581private": 11}, {"\u2581controlled": 11}, {"\u2581structural": 11}, {"ual": 11}, {"\u2581Absolutely.": 11}, {"\u2581subscription": 11}, {"\u2581Cyberpunk": 11}, {"\u2581werent": 11}, {"ide": 11}, {"\u2581timing": 11}, {"ven": 11}, {"\u2581yeah": 11}, {"\u2581completing": 11}, {"\u2581eg": 11}, {"\u2581Flight": 11}, {"\u2581leader": 11}, {"\u2581improvements,": 11}, {"\u2581shorter": 11}, {"\u2581Vandenberg": 11}, {"\u2581stole": 11}, {"\u2581areas": 11}, {"\u2581Let": 11}, {"\u2581days,": 11}, {"\u2581maximum": 11}, {"\u2581~3": 11}, {".5": 11}, {"\u2581engines,": 11}, {"\u2581ok,": 11}, {"\u2581asking": 11}, {"\u2581Doing": 11}, {"\u2581break": 11}, {"\u2581cycles": 11}, {"\u2581Strange": 11}, {"\u2581rate,": 11}, {"\u2581ok.": 11}, {"\u2581Reason": 11}, {"\u2581relatively": 11}, {"\u2581easy.": 11}, {"\u2581GPU": 11}, {"\u2581Uh": 11}, {"\u2581loan": 11}, {"\u2581cost,": 11}, {"\u2581approved": 11}, {"\u2581thousand": 11}, {"ks.": 11}, {"co": 11}, {"\u2581necessarily": 11}, {"\u2581end,": 11}, {"\u2581pitch": 11}, {"\u2581fault": 11}, {"\u2581Small": 11}, {"\u2581challenges": 11}, {"\u2581Future": 11}, {"\u2581bot": 11}, {"\u2581see.": 11}, {"\u2581pushed": 11}, {"\u2581exit": 11}, {"\u2581reactor": 11}, {"\u2581month,": 11}, {"ified": 11}, {"\u2581hurt": 11}, {"\u2581wasnt": 11}, {"\u2581providing": 11}, {"\u2581next-level": 11}, {"\u2581comp": 11}, {"\u2581dis": 11}, {"\u2581alloy": 11}, {"\u2581Add": 11}, {"\u2581sensible": 11}, {"\u2581release.": 11}, {"\u2581Wont": 11}, {"\u2581solution.": 11}, {"\u2581yourself": 11}, {"\u2581lasers": 11}, {"\u2581Brownsville": 11}, {"\u2581pushing": 11}, {"\u2581exponential": 11}, {"\u2581species": 11}, {"\u2581opposite": 11}, {"\u2581production,": 11}, {"\u2581efficient": 11}, {"\u2581green": 11}, {"\u2581levels": 11}, {"\u2581guaranteed": 11}, {"\u2581Support": 11}, {"\u2581upon": 11}, {"\u2581Black": 11}, {"\u2581version.": 11}, {"\u2581outer": 11}, {"\u2581)": 11}, {"rom": 11}, {"\u2581to.": 11}, {"\u2581Later": 11}, {"\u2581drone": 11}, {"age.": 11}, {"\u2581jump": 11}, {"\u2581sk": 11}, {"\u2581ancient": 11}, {"\u2581brake": 11}, {"\u2581focused": 11}, {"\u2581Pacific": 11}, {"\u2581~30": 11}, {"\u2581achieved": 11}, {"ss": 11}, {"an,": 11}, {"\u2581man": 11}, {"\u2581Tree": 11}, {"\u2581rocks": 11}, {"\u2581comfort": 11}, {"oc": 11}, {"\u2581wear": 11}, {"\u2581wonder": 11}, {"\u2581Highly": 11}, {"\u2581hearing": 11}, {"\u2581battle": 11}, {"\u2581Has": 11}, {"\u2581range,": 11}, {"A": 11}, {"\u2581born": 11}, {"\u2581Wed": 11}, {"ost": 11}, {"\u2581countries.": 11}, {"\u2581Trying": 11}, {"\u2581optimal": 11}, {"\u2581compression": 11}, {"\u2581falling": 11}, {"\u2581claim": 11}, {"\u2581UK": 11}, {"\u2581IV": 11}, {"\u2581incentive": 11}, {"\u2581chip": 11}, {"\u2581cathode": 11}, {"\u2581tweets": 11}, {"\u2581son": 11}, {"\u2581rockets.": 11}, {"\u2581Zero": 11}, {"\u2581region": 11}, {"\u2581Wish": 11}, {"\u2581Go": 11}, {"\u2581Hawthorne": 11}, {"\u2581faith": 11}, {"\u2581empty": 11}, {"\u2581protection": 11}, {"\u2581layers": 11}, {"\u2581HEPA": 11}, {"\u2581alert": 11}, {"\u2581OG": 11}, {"\u2581Be": 11}, {"\u2581rev": 11}, {"\u2581installed": 11}, {"\u2581delivering": 11}, {"\u2581PC": 11}, {"\u2581bottom": 11}, {"\u2581Z": 11}, {"\u2581China.": 11}, {"\u2581handle": 11}, {"\u2581cave": 11}, {"ied": 11}, {"\u2581winds": 11}, {"\u2581Final": 11}, {"\u2581width": 11}, {"\u2581thus": 11}, {"\u2581Roof": 11}, {"\u2581resolution": 11}, {"\u2581Water": 11}, {"\u2581expensive": 11}, {"\u2581underappreci": 11}, {"\u2581blog": 11}, {"\u2581environmental": 11}, {"\u2581And,": 11}, {"\u2581control,": 11}, {"\u2581grow": 11}, {"\u2581Requires": 11}, {"\u2581details.": 11}, {"\u2581decision": 11}, {"\u2581Using": 11}, {"ow": 11}, {"\u2581interested": 11}, {"\u2581resale": 11}, {"\u2581defense": 11}, {"\u2581Lets": 11}, {"\u2581dry": 11}, {"\u2581OTA": 11}, {"k,": 11}, {"\u2581System": 11}, {"\u2581km/h": 11}, {"\u2581you're": 11}, {"\u2581Trend": 11}, {"\u2581birthday": 11}, {"\u2581Block": 11}, {"is.": 11}, {"\u2581map": 11}, {"\u2581video.": 11}, {"\u2581manage": 11}, {"Y": 11}, {"\u2581idea.": 11}, {"\u2581droneship.": 11}, {"iz": 11}, {"\u2581lives": 11}, {"\u2581rolls": 11}, {"\u2581landings": 11}, {"\u2581particularly": 11}, {"\u2581Japan": 11}, {"\u2581V9.0": 11}, {"\u2581config": 11}, {"\u2581thru": 11}, {"\u2581antenna": 11}, {"\u2581anything.": 10}, {"\u2581differences": 10}, {"\u2581load.": 10}, {"less": 10}, {"\u2581reached": 10}, {"\u2581medium": 10}, {"\u2581there,": 10}, {"\u2581incorrect": 10}, {"\u2581plate": 10}, {"\u2581absolutely": 10}, {"\u2581shut": 10}, {"\u2581technology,": 10}, {"\u2581spot": 10}, {"\u2581leeward": 10}, {"\u2581windward": 10}, {"\u2581SN8": 10}, {"\u2581causing": 10}, {"\u2581switch": 10}, {"\u2581flap": 10}, {"\u2581~10": 10}, {"\u2581Al": 10}, {"\u2581Watch": 10}, {"ward": 10}, {"\u2581Congrats!": 10}, {"\u2581mass.": 10}, {"\u2581z": 10}, {"\u2581wider": 10}, {"\u2581inference": 10}, {"\u2581attention": 10}, {"\u2581debate": 10}, {"\u2581better,": 10}, {"\u2581rocket,": 10}, {"\u2581quiet": 10}, {"ris": 10}, {"\u2581pick": 10}, {"\u2581docking": 10}, {"\u2581publicly": 10}, {"\u2581cov2": 10}, {"\u2581Second": 10}, {"cy": 10}, {"\u2581sort": 10}, {"te": 10}, {"ened": 10}, {"I": 10}, {"\u2581Creating": 10}, {"\u2581apart": 10}, {"\u2581propulsive": 10}, {"kes": 10}, {"\u2581spoke": 10}, {"\u2581bs.": 10}, {"\u2581unknown": 10}, {"ore": 10}, {"\u2581damn": 10}, {"\u2581reliability": 10}, {"-s": 10}, {"\u2581funding": 10}, {"\u2581up,": 10}, {"\u2581ass": 10}, {"ick": 10}, {"\u2581measure": 10}, {"\u2581issues,": 10}, {"\u2581led": 10}, {"\u2581notice": 10}, {"\u2581CA": 10}, {"\u2581equipment": 10}, {"\u2581settings": 10}, {"ification": 10}, {"\u2581begin": 10}, {"\u2581Bar": 10}, {"\u2581tires": 10}, {"\u2581variant": 10}, {"\u2581Starting": 10}, {"\u2581deliveries": 10}, {"ph": 10}, {"\u2581weak": 10}, {"\u2581Um": 10}, {"9": 10}, {"\u2581stuck": 10}, {"\u2581careful": 10}, {"\u2581fairly": 10}, {"\u2581build.": 10}, {"\u2581wall": 10}, {"\u2581posted": 10}, {"\u2581specific": 10}, {"\u2581proof": 10}, {"\u2581FSD.": 10}, {"\u2581tree": 10}, {"\u2581Mass": 10}, {"\u2581evolving": 10}, {"\u2581breakthrough": 10}, {"\u2581leak": 10}, {"all": 10}, {"\u2581helium": 10}, {"\u2581Foundation": 10}, {"\u2581flies": 10}, {"/year": 10}, {"\u2581six": 10}, {"\u2581presentation": 10}, {"\u2581pressure.": 10}, {"\u2581Pre": 10}, {"\u2581align": 10}, {"\u2581lmk": 10}, {"\u2581underground": 10}, {"\u2581Ancient": 10}, {"\u2581incredible.": 10}, {"\u2581Problem": 10}, {"\u2581tweeting": 10}, {"\u2581em": 10}, {"K": 10}, {"\u2581Germany": 10}, {"\u2581example,": 10}, {"\u2581unlikely": 10}, {"\u2581Con": 10}, {"\u2581study": 10}, {"\u2581intense": 10}, {"\u2581Sept": 10}, {"\u2581nothing.": 10}, {"\u2581(f": 10}, {"\u2581oh": 10}, {"o,": 10}, {"\u2581nature": 10}, {"\u2581specifically": 10}, {"\u2581whenever": 10}, {"ort": 10}, {"ying": 10}, {"op": 10}, {"\u2581yes.": 10}, {"\u2581ULA": 10}, {"\u2581rail": 10}, {"\u2581Progress": 10}, {"\u2581spin": 10}, {"\u2581Lo": 10}, {"\u2581batteries.": 10}, {"\u2581energy,": 10}, {"\u2581competitors": 10}, {"\u2581all,": 10}, {"\u2581maximize": 10}, {"\u2581bl": 10}, {"\u2581talked": 10}, {"\u2581SN2": 10}, {"\u2581digging": 10}, {"\u2581ultimately": 10}, {"li": 10}, {"\u2581propaganda": 10}, {"\u2581terms": 10}, {"\u2581books": 10}, {"\u2581high,": 10}, {"\u2581Real": 10}, {"\u2581pet": 10}, {"ited": 10}, {"\u2581ban": 10}, {"\u2581Bust": 10}, {"\u2581Awesome": 10}, {"\u2581coverage": 10}, {"\u2581bill": 10}, {"\u2581subsidies": 10}, {"\u2581effort": 10}, {"ction": 10}, {"int": 10}, {"30": 10}, {"\u2581Sure.": 10}, {"ful": 10}, {"\u2581Cost": 10}, {"\u2581Made": 10}, {"\u2581true!": 10}, {"\u2581speak": 10}, {"\u2581eat": 10}, {"\u2581-&gt;": 10}, {"\u2581News": 10}, {"\u2581avg": 10}, {"\u2581Delta": 10}, {"\u2581you!": 10}, {"\u2581ad": 10}, {"\u2581San": 10}, {"\u2581pattern": 10}, {"\u2581reality.": 10}, {"\u2581extending": 10}, {"\u2581power,": 10}, {"\u2581jokes": 10}, {"uck": 10}, {"\u2581Actual": 10}, {"W": 10}, {"\u2581Valley": 10}, {"ive,": 10}, {"\u2581Medtronic": 10}, {"\u2581giving": 10}, {"\u2581Russia": 10}, {"\u2581Without": 10}, {"\u2581While": 10}, {"t.": 10}, {"\u2581sw": 10}, {"\u2581Here": 10}, {"\u2581shipping": 10}, {"\u2581WW": 10}, {"\u2581Monty": 10}, {"\u2581chart": 10}, {"\u2581tow": 10}, {"\u2581internally": 10}, {"\u2581good!": 10}, {"\u2581ordered": 10}, {"\u2581water,": 10}, {"\u2581March": 10}, {"\u2581assuming": 10}, {"\u2581Reports": 10}, {"\u2581astronauts": 10}, {"\u2581update.": 10}, {"\u2581third": 10}, {"\u2581emoji": 10}, {"\u2581coating": 10}, {"\u2581Earths": 10}, {"\u2581Guess": 10}, {"\u2581safety,": 10}, {"\u2581shouldnt": 10}, {"\u2581research": 10}, {"\u2581doors": 10}, {"\u2581jobs": 10}, {"\u2581~10%": 10}, {"\u2581Headed": 10}, {"\u2581style": 10}, {"\u2581negatively": 10}, {"\u2581safe,": 10}, {"\u2581buttons": 10}, {"\u2581delay": 10}, {"\u2581zone": 10}, {"\u2581optimization": 10}, {"\u2581Ironically,": 10}, {"\u2581artificial": 10}, {"\u2581name.": 10}, {"\u2581dangerous": 10}, {"\u2581etc": 10}, {"\u2581delay.": 10}, {"\u2581Nrburgring": 10}, {"\u2581won": 10}, {"\u2581ie": 10}, {"\u2581boys": 10}, {"\u2581however,": 10}, {"\u2581tmrw": 10}, {"\u2581trick": 10}, {"\u2581vary": 10}, {"\u2581passenger": 10}, {"\u2581fiber": 10}, {"\u2581convinced": 10}, {"\u2581RIP": 10}, {"\u2581floor": 10}, {"\u2581June": 10}, {"\u2581criticism.": 10}, {"\u2581campaign": 10}, {"\u2581Latest": 10}, {"\u2581driving.": 10}, {"\u2581Schrdinger": 10}, {"\u2581Reddit": 10}, {"\u2581X,": 10}, {"\u2581lane": 10}, {"\u2581stores": 10}, {"\u2581express": 10}, {"\u2581updated": 10}, {"\u2581en": 10}, {"\u2581deserves": 10}, {"\u2581SF": 10}, {"\u2581assembly": 10}, {"\u2581kWh": 10}, {"\u2581acceleration": 10}, {"an.": 10}, {"\u2581safer": 10}, {"\u2581fund": 10}, {"\u2581remaining": 10}, {"\u2581DC": 10}, {"\u2581You're": 10}, {"\u2581I'd": 10}, {"\u2581Can't": 10}, {"\u2581vid": 10}, {"\u2581dealers": 10}, {"\u2581fees": 10}, {"ice.": 9}, {"\u2581economic": 9}, {"\u2581Roughly": 9}, {"\u2581Vac": 9}, {"\u2581theory": 9}, {"\u2581display": 9}, {"\u2581/2": 9}, {"\u2581Merry": 9}, {"\u2581revenue": 9}, {"\u2581Engineering": 9}, {"\u2581fall": 9}, {"\u2581bugs": 9}, {"iring": 9}, {"\u2581factory.": 9}, {"\u2581~100": 9}, {"X": 9}, {"\u2581successful.": 9}, {"\u2581br": 9}, {"anding": 9}, {"\u2581Review": 9}, {"\u2581Deus": 9}, {"\u2581Ex": 9}, {"ea": 9}, {"\u2581soft": 9}, {"ien": 9}, {"\u2581Un": 9}, {"\u2581exist": 9}, {"ony": 9}, {"\u2581colors": 9}, {"\u2581overall": 9}, {"\u2581robust": 9}, {"\u2581SN10": 9}, {"\u2581loves": 9}, {"\u2581joke": 9}, {"\u2581shielding": 9}, {"\u2581arm": 9}, {"\u2581mis": 9}, {"per": 9}, {"\u2581decide": 9}, {"\u2581De": 9}, {"\u2581gr": 9}, {"\u2581design,": 9}, {"\u2581changes.": 9}, {"\u2581Raptor.": 9}, {"\u2581increased": 9}, {"\u2581lab": 9}, {"\u2581positive.": 9}, {"\u2581regular": 9}, {"\u2581moderate": 9}, {"\u2581showing": 9}, {"\u2581virus": 9}, {"\u2581graph": 9}, {"\u2581Their": 9}, {"\u2581daily": 9}, {"\u2581fe": 9}, {"\u2581caused": 9}, {"\u2581Such": 9}, {"\u2581world,": 9}, {"0": 9}, {"\u2581labeling": 9}, {"\u2581photo": 9}, {"\u2581reusability.": 9}, {"\u2581Canadian": 9}, {"ru": 9}, {"\u2581Didnt": 9}, {"\u2581states": 9}, {"\u2581Jan": 9}, {"al,": 9}, {"\u2581closing": 9}, {"\u2581Under": 9}, {"\u2581addressed": 9}, {"\u2581fixing": 9}, {"\u2581releases": 9}, {"ank": 9}, {"\u2581second.": 9}, {"\u2581fiction": 9}, {"\u2581creat": 9}, {"\u2581ha": 9}, {"\u2581usable": 9}, {"\u2581areas.": 9}, {"\u2581moved": 9}, {"\u2581Yup.": 9}, {"\u2581fwd": 9}, {"\u2581situation": 9}, {"\u2581Agreed.": 9}, {"\u2581freedom": 9}, {"\u2581space.": 9}, {"\u2581wire": 9}, {"\u2581face": 9}, {"\u2581factory,": 9}, {"\u2581financing": 9}, {"\u2581reverse": 9}, {"\u2581valve": 9}, {"\u2581laws": 9}, {"\u2581prevent": 9}, {"\u2581po": 9}, {"\u2581Munro": 9}, {"\u2581part.": 9}, {"\u2581Prototypes": 9}, {"\u2581emphasize": 9}, {"\u2581ret": 9}, {"\u2581Turn": 9}, {"\u2581Frank": 9}, {"\u2581considering": 9}, {"\u2581escape": 9}, {"\u2581eye": 9}, {"\u2581server": 9}, {"\u2581port": 9}, {"\u2581upcoming": 9}, {"\u2581priority.": 9}, {"\u2581Total": 9}, {"\u2581nickel": 9}, {"\u2581packs": 9}, {"\u2581Totally": 9}, {"\u2581living": 9}, {"\u2581interface": 9}, {"\u2581OpenAI": 9}, {"\u2581vastly": 9}, {"\u2581suppliers": 9}, {"ous.": 9}, {"els": 9}, {"ace": 9}, {"\u2581phones": 9}, {"ched": 9}, {"\u2581cl": 9}, {"\u2581filters": 9}, {"ub": 9}, {"\u2581pieces": 9}, {"ade": 9}, {"\u2581copper": 9}, {"\u2581complexity": 9}, {"\u2581eventually": 9}, {"\u2581hop": 9}, {"\u2581hang": 9}, {"\u2581ring": 9}, {"\u2581law,": 9}, {"\u2581embarrassing": 9}, {"\u2581learned": 9}, {"\u2581rates": 9}, {"\u2581btw": 9}, {"\u2581becomes": 9}, {"\u2581length": 9}, {"\u2581shape": 9}, {"\u2581Silicon": 9}, {"\u2581leave": 9}, {"ute": 9}, {"\u2581atmosphere.": 9}, {"\u2581them,": 9}, {"\u2581ab": 9}, {"\u2581enables": 9}, {"\u2581Short": 9}, {"\u2581lease": 9}, {"ess": 9}, {"\u2581replace": 9}, {"\u2581turbine": 9}, {"\u2581Similar": 9}, {"\u2581difficult.": 9}, {"lo": 9}, {"\u2581Fairing": 9}, {"sh": 9}, {"\u2581cases.": 9}, {"\u2581alpha": 9}, {"\u2581data.": 9}, {"\u2581here.": 9}, {"\u2581absurd": 9}, {"\u2581patents": 9}, {"\u2581farm": 9}, {"\u2581yet,": 9}, {"\u2581SN5": 9}, {"\u2581share": 9}, {"\u2581puppet": 9}, {"\u2581includes": 9}, {"\u2581crewed": 9}, {"\u2581atmospheric": 9}, {"\u2581*and*": 9}, {"\u2581th.": 9}, {"\u2581arms": 9}, {"\u2581untrue": 9}, {"\u2581dig": 9}, {"\u2581speed.": 9}, {"\u2581tool": 9}, {"\u2581income": 9}, {"\u2581foolish": 9}, {"\u2581traditional": 9}, {"ft": 9}, {"\u2581article.": 9}, {"ome": 9}, {"\u2581Exactly,": 9}, {"\u2581example": 9}, {"\u2581sky.": 9}, {"\u2581space,": 9}, {"\u2581reduced": 9}, {"\u2581heating.": 9}, {"\u2581general,": 9}, {"\u2581Jupiter": 9}, {"\u2581Saturn": 9}, {"\u2581goodness": 9}, {"\u2581website": 9}, {"\u2581Asia": 9}, {"\u2581accounts": 9}, {"\u2581clearly": 9}, {"ine.": 9}, {"\u2581Green": 9}, {"\u2581RWD": 9}, {"\u2581She": 9}, {"\u2581tricky": 9}, {"\u2581effective": 9}, {"\u2581rule": 9}, {"\u2581cur": 9}, {"\u2581PhD": 9}, {"\u2581fundamentally": 9}, {"\u2581controls": 9}, {"atively": 9}, {"\u2581September": 9}, {"\u2581planets": 9}, {"\u2581signs": 9}, {"\u2581hence": 9}, {"\u2581correct,": 9}, {"\u2581reuse": 9}, {"ang": 9}, {"\u2581=": 9}, {"50": 9}, {"\u2581political": 9}, {"\u2581thing.": 9}, {"\u2581Chica,": 9}, {"\u2581(which": 9}, {"\u2581buyers": 9}, {"\u2581Atlantic": 9}, {"\u2581central": 9}, {"\u2581following": 9}, {"\u2581cool!": 9}, {"\u2581stopped": 9}, {"\u2581li": 9}, {"\u2581scam": 9}, {"\u2581programs": 9}, {"\u2581personal": 9}, {"\u2581Joe": 9}, {"\u2581begins": 9}, {"\u2581radio": 9}, {"\u2581dock": 9}, {"\u2581moon,": 9}, {"\u2581stops": 9}, {"\u2581Atlas": 9}, {"\u2581worlds": 9}, {"\u2581causes": 9}, {"\u2581operate": 9}, {"\u2581sure,": 9}, {"\u2581energy.": 9}, {"\u2581Less": 9}, {"\u2581advice": 9}, {"\u2581contact": 9}, {"\u2581discussion": 9}, {"\u2581dropping": 9}, {"\u2581~1.5": 9}, {"\u2581Stanford": 9}, {"\u2581totally": 9}, {"\u2581Mad": 9}, {"\u2581Consumer": 9}, {"\u2581steel,": 9}, {"\u2581con": 9}, {"\u2581": 9}, {"ety": 9}, {"\u2581TX": 9}, {"\u2581unable": 9}, {"\u2581Google": 9}, {"\u2581doubt": 9}, {"\u2581reflect": 9}, {"\u2581ne": 9}, {"\u2581Want": 9}, {"\u2581dollar": 9}, {"\u2581character": 9}, {"\u2581T-shirt": 9}, {"\u2581Zip2": 9}, {"ts.": 9}, {"\u2581gu": 9}, {"\u2581afford": 9}, {"\u2581approvals.": 9}, {"\u2581Done": 9}, {"\u2581enter": 9}, {"\u2581delta": 9}, {"\u2581played": 9}, {"\u2581partially": 9}, {"\u2581replacement": 9}, {"\u2581solves": 9}, {"\u2581likely.": 9}, {"\u2581multiplanet": 9}, {"e!": 9}, {"\u2581~20": 9}, {"\u2581row": 9}, {"\u2581Low": 9}, {"\u2581Times": 9}, {"\u2581future!": 9}, {"\u2581shaft": 9}, {"\u2581advent": 9}, {"\u2581blows": 9}, {"way": 9}, {"\u2581Dragon,": 9}, {"\u2581Service": 9}, {"\u2581errors": 9}, {"\u2581change,": 9}, {"\u2581ordering": 9}, {"\u2581expanding": 9}, {"\u2581Sentry": 9}, {"\u2581steam": 9}, {"\u2581NHTSA": 9}, {"\u2581hands": 9}, {"\u2581place.": 9}, {"\u2581technology.": 9}, {"\u2581July.": 9}, {"\u2581orbits": 9}, {"\u2581motion": 9}, {"\u2581Waiting": 9}, {"en.": 9}, {"\u2581Third": 9}, {"\u2581interplanetary": 9}, {"\u2581difference.": 9}, {"\u2581experts": 9}, {"\u2581mph.": 9}, {"\u2581offering": 9}, {"\u2581miles,": 9}, {"\u2581regarding": 9}, {"\u2581lot,": 9}, {"\u2581will.": 9}, {"\u2581WSJ": 9}, {"\u2581$5k": 9}, {"\u2581independent": 9}, {"\u2581lbs": 9}, {"\u2581winter": 9}, {"ish": 9}, {"\u2581incentives": 9}, {"\u2581perfect,": 9}, {"\u2581spec": 9}, {"\u2581BTC": 9}, {"\u2581saves": 9}, {"\u2581act": 9}, {"ler": 9}, {"\u2581media.": 9}, {"\u2581Kinda": 9}, {"\u2581computing": 9}, {"\u2581Due": 9}, {"\u2581pods": 9}, {"\u2581represent": 9}, {"\u2581Indeed,": 9}, {"\u2581Auto": 9}, {"\u2581UI": 9}, {"\u2581Sometimes": 9}, {"\u2581'": 9}, {"\u2581wasn't": 9}, {"\u2581City": 9}, {"\u2581birth": 9}, {"\u2581deploy": 9}, {"\u2581yoke": 9}, {"\u2581Polytopia": 8}, {"\u2581corporate": 8}, {"\u2581unique": 8}, {"\u2581nightmare": 8}, {"\u2581needed,": 8}, {"\u2581twist": 8}, {"\u2581i": 8}, {"\u2581tank.": 8}, {"\u2581absurdly": 8}, {"\u2581Br": 8}, {"\u2581item": 8}, {"\u2581limits": 8}, {"\u2581War": 8}, {"\u2581Original": 8}, {"\u2581Human": 8}, {"\u2581remains": 8}, {"\u2581hex": 8}, {"\u2581wouldve": 8}, {"over": 8}, {"\u2581Out": 8}, {"ner": 8}, {"\u2581Man": 8}, {"ound": 8}, {"ist,": 8}, {"\u2581news.": 8}, {"\u2581Overall": 8}, {"\u2581refilling": 8}, {"\u2581hypoc": 8}, {"\u2581titanium": 8}, {"\u2581AF": 8}, {"cent": 8}, {"cept": 8}, {"\u2581photon": 8}, {"\u2581mechanical": 8}, {"\u2581strongly": 8}, {"ised": 8}, {"\u2581distribution": 8}, {"\u2581worldwide.": 8}, {"\u2581Safety": 8}, {"\u2581multiplanetary,": 8}, {"\u2581method": 8}, {"ius": 8}, {"\u2581visiting": 8}, {"\u2581&lt;": 8}, {"\u2581up!": 8}, {"\u2581bo": 8}, {"\u2581mind.": 8}, {"\u2581permission": 8}, {"\u2581Irony": 8}, {"\u2581sequence": 8}, {"\u2581Unless": 8}, {"\u2581enabling": 8}, {"\u2581argument": 8}, {"\u2581buff": 8}, {"\u2581Ahem": 8}, {"\u2581ent": 8}, {"\u2581reference": 8}, {"\u2581thinks": 8}, {"\u2581search": 8}, {"ify": 8}, {"\u2581bogus": 8}, {"\u2581Astronauts": 8}, {"\u2581~7": 8}, {"\u2581Checking": 8}, {"hip": 8}, {"\u2581sensor": 8}, {"\u2581computer,": 8}, {"\u2581latter.": 8}, {"\u2581understands": 8}, {"\u2581profound": 8}, {"\u2581dense": 8}, {"\u2581(c": 8}, {"\u2581authorities": 8}, {"iting": 8}, {"\u2581succeed": 8}, {"\u2581Daimler": 8}, {"\u2581approvals": 8}, {"\u2581Feb": 8}, {"/M": 8}, {"\u2581Several": 8}, {"\u2581winning": 8}, {"-t": 8}, {"\u2581fire.": 8}, {"(": 8}, {"\u2581phased": 8}, {"\u2581Pay": 8}, {"\u2581modern": 8}, {"ged": 8}, {"\u2581employees": 8}, {"oy": 8}, {"\u2581work!": 8}, {"\u2581print": 8}, {"\u2581deg": 8}, {"ame": 8}, {"\u2581release,": 8}, {"\u2581(t": 8}, {"\u2581anything,": 8}, {"\u2581flights.": 8}, {"\u2581civilization.": 8}, {"%": 8}, {"\u2581computers": 8}, {"\u2581TOPS": 8}, {"ia,": 8}, {"\u2581applying": 8}, {"\u2581engineer": 8}, {"\u2581(as": 8}, {"\u2581protect": 8}, {"\u2581mistake": 8}, {"\u2581sensitive": 8}, {"\u2581attached": 8}, {"\u2581gear": 8}, {"\u2581progress.": 8}, {"\u2581replaced": 8}, {"\u2581collision": 8}, {"\u2581competitor": 8}, {"\u2581polar": 8}, {"\u2581bankrupt": 8}, {"\u2581ag": 8}, {"\u2581three.": 8}, {"\u2581ins": 8}, {",000": 8}, {"\u2581depends": 8}, {"\u2581Takes": 8}, {"\u2581proven": 8}, {"\u2581differential": 8}, {"\u2581Canada.": 8}, {"\u2581boosters": 8}, {"\u2581poll": 8}, {"\u2581traffic,": 8}, {"ake": 8}, {"\u2581financial": 8}, {"\u2581present": 8}, {"\u2581valuable": 8}, {"\u2581Gravitas": 8}, {"\u2581roofs": 8}, {"\u2581zero.": 8}, {"\u2581Having": 8}, {"\u2581gun": 8}, {"\u2581enough.": 8}, {"\u2581Gen": 8}, {"\u2581separation": 8}, {"\u2581essentially": 8}, {"\u2581announce": 8}, {"\u2581Starship.": 8}, {"\u2581bus": 8}, {"\u2581exceptional": 8}, {"\u2581*is*": 8}, {"\u2581multiplanetary.": 8}, {"\u2581points.": 8}, {"\u2581Fallout": 8}, {"\u2581nuclear": 8}, {"\u2581weeks,": 8}, {"\u2581surround": 8}, {"\u2581Took": 8}, {"\u2581Rockets": 8}, {"\u2581understood": 8}, {"\u2581proportionate": 8}, {"\u2581joined": 8}, {"\u2581contribution": 8}, {"\u2581jacket": 8}, {"\u2581la": 8}, {"\u2581SN6": 8}, {"\u2581Que": 8}, {"\u2581Fermi": 8}, {"\u2581system,": 8}, {"\u2581medical": 8}, {"\u2581device": 8}, {"\u2581imp": 8}, {"are": 8}, {"\u2581tons.": 8}, {"\u2581thrust.": 8}, {"\u2581reasonable": 8}, {"ands": 8}, {"\u2581ship,": 8}, {"\u2581oxygen,": 8}, {"\u2581H2O": 8}, {"\u2581cores": 8}, {"\u2581Heavy,": 8}, {"iss": 8}, {"\u2581symbiosis": 8}, {"\u2581President": 8}, {"\u2581rep": 8}, {"\u2581lo": 8}, {"\u2581wheels": 8}, {"\u2581jet": 8}, {"\u2581beats": 8}, {"izing": 8}, {"\u2581autopilot": 8}, {"ising": 8}, {"\u2581Humans": 8}, {"\u2581produces": 8}, {"\u2581Main": 8}, {"\u2581turning": 8}, {"\u2581period": 8}, {"\u2581history.": 8}, {"\u2581Seriously": 8}, {"\u2581Yes!": 8}, {"\u2581edge": 8}, {"\u2581simultaneously": 8}, {"\u2581gold": 8}, {"\u2581reusable,": 8}, {"\u2581toast": 8}, {"ink": 8}, {"\u2581unlike": 8}, {"ured": 8}, {"\u2581movement": 8}, {"\u2581seconds": 8}, {"\u2581issue.": 8}, {"\u2581lame": 8}, {"\u2581Whoa": 8}, {"av": 8}, {"ail": 8}, {"\u2581H2": 8}, {"\u2581degree": 8}, {"\u2581LAX": 8}, {"ond": 8}, {"ated,": 8}, {".com": 8}, {"\u2581pyramid": 8}, {"\u2581facing": 8}, {"\u2581(eg": 8}, {"\u2581growing": 8}, {"\u2581kW": 8}, {"\u2581accept": 8}, {"\u2581statement": 8}, {"on,": 8}, {"\u2581east": 8}, {"our": 8}, {"man": 8}, {"\u2581rules.": 8}, {"\u2581intended": 8}, {"ies,": 8}, {"\u2581additional": 8}, {"\u2581Fixing": 8}, {"\u2581explain": 8}, {"\u2581expand": 8}, {"\u2581action.": 8}, {"\u2581purchase": 8}, {"\u2581likes": 8}, {"\u2581missed": 8}, {"\u2581Supercharging": 8}, {"\u2581inter": 8}, {"\u2581combine": 8}, {"\u2581shareholder": 8}, {"\u2581subtle.": 8}, {"\u2581catching": 8}, {"\u2581Propellant": 8}, {"\u2581small,": 8}, {"ib": 8}, {"\u2581five": 8}, {"\u2581superhuman": 8}, {"ved": 8}, {"\u2581Dan": 8}, {"\u2581years!": 8}, {"\u2581Off": 8}, {"\u2581Wheres": 8}, {"\u2581federal": 8}, {"\u2581Orbit": 8}, {"\u2581International": 8}, {"\u2581currency": 8}, {"\u2581emissions": 8}, {"\u2581safest": 8}, {"le.": 8}, {"\u2581around.": 8}, {"\u2581principle": 8}, {"\u2581drivers": 8}, {"\u2581case,": 8}, {"\u2581organ": 8}, {"\u2581Q": 8}, {"\u2581science.": 8}, {"\u2581lands": 8}, {"\u2581entertaining": 8}, {"\u2581Minecraft": 8}, {"\u2581wave": 8}, {"\u2581forced": 8}, {"\u2581ambient": 8}, {"\u2581things,": 8}, {"\u2581held": 8}, {"\u2581Honored": 8}, {"\u2581Cont": 8}, {"\u2581HVAC": 8}, {"\u2581Side": 8}, {"\u2581Pr": 8}, {"\u2581fluid": 8}, {"\u2581surprising": 8}, {"\u2581yesterday": 8}, {"\u2581refill": 8}, {"\u2581theyd": 8}, {"\u2581relative": 8}, {"ingly": 8}, {"\u2581spaceflight": 8}, {"\u2581survival": 8}, {"\u2581spending": 8}, {"\u2581dollars": 8}, {"ature": 8}, {"\u2581Spaceball": 8}, {"\u2581Q&amp;A": 8}, {"\u2581wing": 8}, {"\u2581postponed": 8}, {"\u2581Res": 8}, {"\u2581date.": 8}, {"\u2581damage": 8}, {"mo": 8}, {"\u2581China,": 8}, {"\u2581machines": 8}, {"\u2581moves": 8}, {"\u2581home.": 8}, {"\u2581hasnt": 8}, {"\u2581instant": 8}, {"port": 8}, {"\u2581milestone": 8}, {"\u2581among": 8}, {"\u2581m,": 8}, {"\u2581horizontal": 8}, {"\u2581destroy": 8}, {"\u2581alive": 8}, {"\u2581route": 8}, {"\u2581became": 8}, {"\u2581Building": 8}, {"\u2581concerns": 8}, {"\u2581performance,": 8}, {"\u2581throughout": 8}, {"\u2581side,": 8}, {"ked": 8}, {"\u2581gas/diesel": 8}, {"\u2581Tr": 8}, {"\u2581band": 8}, {"gy": 8}, {"ational": 8}, {"\u2581draw": 8}, {"\u2581World": 8}, {"\u2581deployment": 8}, {"\u2581Sad": 8}, {"\u2581liftoff": 8}, {"\u2581stick": 8}, {"\u2581Rest": 8}, {"-m": 8}, {"\u2581rolled": 8}, {"\u2581billions": 8}, {"\u2581trains": 8}, {"ued": 8}, {"\u2581mill": 8}, {"\u2581curve": 8}, {"\u2581context": 8}, {"\u2581sit": 8}, {"\u2581move.": 8}, {"\u2581Started": 8}, {"\u2581wishes": 8}, {"\u2581cm": 8}, {"\u2581square": 8}, {"\u2581Launching": 8}, {"\u2581Gear": 8}, {"\u2581Solarglass": 8}, {"\u2581Turbo": 8}, {"\u2581somehow": 8}, {"\u2581donate": 8}, {"\u2581trees": 8}, {"\u2581blackouts": 8}, {"\u2581blackout": 8}, {"\u2581Ms.": 8}, {"\u2581Get": 8}, {"\u2581Alpha": 8}, {"key": 8}, {"\u2581Between": 8}, {"\u2581reason,": 8}, {"\u2581conversation": 8}, {"\u2581Ludicrous": 8}, {"\u2581Cuphead": 8}, {"\u2581therefore": 8}, {"\u2581thrust,": 8}, {"\u2581V10": 8}, {"\u2581Drive": 8}, {"\u2581college.": 8}, {"\u2581Mk": 8}, {"\u2581Monday.": 8}, {"\u2581warming": 8}, {"\u2581Hey": 8}, {"\u2581Thoughtful": 8}, {"\u2581geo": 8}, {"\u2581Mr": 8}, {"\u2581random": 8}, {"\u2581bright": 8}, {"\u2581consumers": 8}, {"\u2581egg": 8}, {"\u2581watched": 8}, {"\u2581Techn": 8}, {"\u2581UN": 8}, {"\u2581traction": 8}, {"\u2581TBC": 8}, {"\u2581raised": 8}, {"\u2581visible": 8}, {"\u2581competing": 8}, {"\u2581creation": 8}, {"\u2581us.": 8}, {"ower": 8}, {"\u2581miles.": 8}, {"\u2581sheep": 8}, {"\u2581English": 8}, {"\u2581Engines": 8}, {"\u2581pending": 8}, {"\u2581X.": 8}, {"Wh": 8}, {"\u2581Upper": 8}, {"\u2581Free": 8}, {"ust": 8}, {"\u2581released": 8}, {"\u2581watching": 8}, {"\u2581footage": 8}, {"\u2581America,": 8}, {"\u2581luck": 8}, {"\u2581forgot": 8}, {"\u2581info": 8}, {"\u2581Definitely.": 8}, {"\u2581returned": 8}, {"\u2581lifetime": 8}, {"ps": 8}, {"\u2581same.": 8}, {"\u2581pickup": 8}, {"\u2581know,": 8}, {"\u2581eggs": 8}, {"\u2581Coast": 8}, {"\u2581Single": 8}, {"\u2581P100D": 8}, {"\u2581long.": 8}, {"\u2581:30pm": 8}, {"\u2581ma": 8}, {"\u2581performance.": 8}, {"\u2581email": 8}, {"\u2581morning.": 8}, {"\u2581adjust": 8}, {"\u2581/100": 8}, {"\u2581urban": 8}, {"\u2581firmware": 8}, {"\u2581kill": 8}, {"ory": 8}, {"\u2581Linux": 8}, {"\u2581non": 8}, {"\u2581concern": 8}, {"\u2581Signal": 8}, {"\u2581Larry": 7}, {"-c": 7}, {"\u2581gaming": 7}, {"\u2581Focus": 7}, {"\u2581eng": 7}, {"\u2581(d": 7}, {"\u2581Elise": 7}, {"\u2581speaker": 7}, {"ines": 7}, {"\u2581medicine": 7}, {"\u2581sick": 7}, {"\u2581Cook": 7}, {"\u2581voltage": 7}, {"air": 7}, {"ell": 7}, {"\u2581Now,": 7}, {"\u2581fiat": 7}, {"\u2581Ed": 7}, {"\u2581underway.": 7}, {"\u2581tr": 7}, {"\u2581esthetic": 7}, {"/f": 7}, {"ar,": 7}, {"ic.": 7}, {"\u2581und": 7}, {"erved": 7}, {"\u2581burn,": 7}, {"\u2581Ne": 7}, {"\u2581fastest": 7}, {"\u2581message": 7}, {"\u2581mit": 7}, {"\u2581paper": 7}, {"\u2581beast": 7}, {"\u2581moon.": 7}, {"\u2581SpaceX!": 7}, {"\u2581legs.": 7}, {"\u2581launch,": 7}, {"\u2581hull": 7}, {"\u2581pointy": 7}, {"ark": 7}, {"ably,": 7}, {"\u2581Wild": 7}, {"\u2581Fully": 7}, {"\u2581relevant": 7}, {"\u2581Bo": 7}, {"\u2581viral": 7}, {"on-": 7}, {"\u2581test.": 7}, {"\u2581tail": 7}, {"\u2581sending": 7}, {"\u2581Special": 7}, {"\u2581CureVac": 7}, {"\u2581gene": 7}, {"\u2581str": 7}, {"\u2581synthetic": 7}, {"\u2581over.": 7}, {"\u2581surprise": 7}, {"\u2581sal": 7}, {"\u2581detect": 7}, {"atic": 7}, {"\u2581season": 7}, {"\u2581ident": 7}, {"\u2581preburner": 7}, {"\u2581Liquid": 7}, {"\u2581rel": 7}, {"\u2581use.": 7}, {"ium": 7}, {"ume": 7}, {"\u2581passing": 7}, {"\u2581extension": 7}, {"\u2581generalized": 7}, {"\u2581frames": 7}, {"\u2581traffic.": 7}, {"\u2581describe": 7}, {"\u2581site.": 7}, {"\u2581stress": 7}, {"\u2581startup": 7}, {"\u2581Chrysler": 7}, {"\u2581leaving": 7}, {"\u2581excited": 7}, {"\u2581wrong,": 7}, {"\u2581RUD": 7}, {"ring": 7}, {"ka": 7}, {"\u2581fr": 7}, {"\u2581Ur": 7}, {"\u2581levels.": 7}, {"\u2581dream": 7}, {"\u2581missing": 7}, {"\u2581brought": 7}, {"\u2581trash": 7}, {"\u2581Video": 7}, {"\u2581meaningful": 7}, {"\u2581command": 7}, {"\u2581case.": 7}, {"\u2581~$2k": 7}, {"\u2581Monday": 7}, {"\u2581mining": 7}, {"\u2581ya": 7}, {"\u2581area.": 7}, {"\u2581failed": 7}, {"\u2581Effect": 7}, {"\u2581accurate.": 7}, {"\u2581~4": 7}, {"\u2581meter": 7}, {"\u2581lot.": 7}, {"\u2581element": 7}, {"\u2581releasing": 7}, {"\u2581will,": 7}, {"\u2581sy": 7}, {"\u2581wiki": 7}, {"\u2581odd.": 7}, {"\u2581Q3": 7}, {"\u2581fired": 7}, {"\u2581casting": 7}, {"itive": 7}, {"\u2581dr": 7}, {"\u2581factories": 7}, {"\u2581gigantic": 7}, {"\u2581cyber": 7}, {"\u2581stationary": 7}, {"\u2581risk.": 7}, {"\u2581economies": 7}, {"\u2581liked": 7}, {"!)": 7}, {"\u2581constraints": 7}, {"\u2581person.": 7}, {"\u2581coal": 7}, {"\u2581connectivity": 7}, {"\u2581latitudes": 7}, {"\u2581suspect": 7}, {"\u2581trivial": 7}, {"\u2581tweaks": 7}, {"age,": 7}, {"00": 7}, {"\u2581besides": 7}, {"\u2581cgi": 7}, {"\u2581scaling": 7}, {"\u2581Custom": 7}, {"\u2581losing": 7}, {"\u2581floating": 7}, {"\u2581required.": 7}, {"\u2581agreed": 7}, {"\u2581missions.": 7}, {"\u2581Speed": 7}, {"\u2581Tunnels": 7}, {"\u2581want.": 7}, {"\u2581depth": 7}, {"\u2581Couldnt": 7}, {"\u2581Nobody": 7}, {"\u2581Padre": 7}, {"\u2581Releasing": 7}, {"\u2581dozen": 7}, {"\u2581Touch": 7}, {"\u2581communication": 7}, {"\u2581lithium-ion": 7}, {"ns": 7}, {"\u2581~300": 7}, {"\u2581reson": 7}, {"\u2581to,": 7}, {"\u2581printer": 7}, {"\u2581measured": 7}, {"\u2581prof": 7}, {"ition": 7}, {"\u2581conditions": 7}, {"\u2581mortality": 7}, {"\u2581condition": 7}, {"\u2581Wouldnt": 7}, {"\u2581consumer": 7}, {"6": 7}, {"\u2581road.": 7}, {"\u2581silicon": 7}, {"\u2581(y": 7}, {"\u2581Otherwise,": 7}, {"\u2581immediately.": 7}, {"\u2581Comp": 7}, {"ily": 7}, {"\u2581Starship/Super": 7}, {"\u2581reduction": 7}, {"\u2581elevator": 7}, {"\u2581self-": 7}, {"unk": 7}, {"acy": 7}, {"af": 7}, {"\u2581bet": 7}, {"val": 7}, {"\u2581Power": 7}, {"\u2581N2": 7}, {"\u2581recovery": 7}, {"\u2581flights,": 7}, {"\u2581fun.": 7}, {"ha": 7}, {"\u2581complexity.": 7}, {"\u2581honored": 7}, {"\u2581images": 7}, {"\u2581excellent.": 7}, {"\u2581bad,": 7}, {"\u2581worry": 7}, {"\u2581Biggest": 7}, {"\u2581Note": 7}, {"\u2581$5": 7}, {"V": 7}, {"\u2581hops": 7}, {"\u2581conf": 7}, {"\u2581Ac": 7}, {"\u2581II": 7}, {"\u2581rumor": 7}, {"/S": 7}, {"\u2581crush": 7}, {"\u2581storm": 7}, {"\u2581humor": 7}, {"\u2581Hold": 7}, {"ric": 7}, {"\u2581decade": 7}, {"\u2581Ind": 7}, {"\u2581Texas!": 7}, {"anc": 7}, {"ored": 7}, {"\u2581Basically,": 7}, {"\u2581wifi": 7}, {"\u2581password": 7}, {"-1": 7}, {"\u2581launched": 7}, {"\u2581transit": 7}, {"\u2581halves": 7}, {"\u2581go.": 7}, {"\u2581cr": 7}, {"\u2581Le": 7}, {"ations.": 7}, {"t,": 7}, {"\u2581Welcome": 7}, {"\u2581pricing": 7}, {"\u2581keeping": 7}, {"\u2581EPA": 7}, {"\u2581Death": 7}, {"ifying": 7}, {"\u2581Details": 7}, {"\u2581Make": 7}, {"\u2581Sam": 7}, {"\u2581asteroid": 7}, {"\u2581Essentially": 7}, {"\u2581purpose": 7}, {"\u2581broke": 7}, {"\u2581Beautiful": 7}, {"\u2581ignore": 7}, {"\u2581advoc": 7}, {"\u2581repeated": 7}, {"\u2581books.": 7}, {"\u2581stories": 7}, {"\u2581mistake.": 7}, {"\u2581worried": 7}, {"\u2581fish": 7}, {"\u2581answered": 7}, {"\u2581Impact": 7}, {"\u2581county": 7}, {"\u2581tests.": 7}, {"ast": 7}, {"\u2581generation": 7}, {"\u2581Absolutely!": 7}, {"\u2581road,": 7}, {"\u2581Ent": 7}, {"\u2581excess": 7}, {"\u2581product,": 7}, {"ging": 7}, {"\u2581ox": 7}, {"\u2581gam": 7}, {"\u2581down,": 7}, {"\u2581nitrogen": 7}, {"\u2581theoretical": 7}, {"ined": 7}, {"\u2581(C": 7}, {"\u2581shall": 7}, {"\u2581stabilize": 7}, {"\u2581expecting": 7}, {"\u2581AMA": 7}, {"\u2581ago!": 7}, {"ana": 7}, {"\u2581Drag": 7}, {"\u2581SpaceXs": 7}, {"\u2581size.": 7}, {"amp": 7}, {"\u2581episode": 7}, {"\u2581Mission": 7}, {"\u2581group": 7}, {"\u2581openly": 7}, {"\u2581sleep": 7}, {"\u2581Marx": 7}, {"\u2581airport": 7}, {"\u2581Seriously,": 7}, {"\u2581forcing": 7}, {"\u2581threat": 7}, {"ously": 7}, {"\u2581America.": 7}, {"\u2581statistics": 7}, {"\u2581widely": 7}, {"\u2581NYT": 7}, {"\u2581restart": 7}, {"\u2581idiot": 7}, {"ult": 7}, {"\u2581Offic": 7}, {"ically,": 7}, {"head": 7}, {"\u2581volume,": 7}, {"\u2581$1": 7}, {"\u2581happened.": 7}, {"\u2581physically": 7}, {"\u2581Possibly": 7}, {"\u2581Nope": 7}, {"\u2581Weird": 7}, {"\u2581Mr.": 7}, {"\u2581Su": 7}, {"\u2581Vacuum": 7}, {"\u2581safely": 7}, {"ots": 7}, {"\u2581Class": 7}, {"\u2581Odd": 7}, {"\u2581higher.": 7}, {"\u2581cryogenic": 7}, {"\u2581redesign": 7}, {"\u2581Improved": 7}, {"\u2581MT": 7}, {"\u2581suggested": 7}, {"\u2581~6": 7}, {"\u2581invasive": 7}, {"\u2581ventilators.": 7}, {"\u2581team,": 7}, {"\u2581platform": 7}, {"\u2581reporting": 7}, {"\u2581surprisingly": 7}, {"\u2581hospitals": 7}, {"\u2581go,": 7}, {"\u2581sweet": 7}, {"\u2581Either": 7}, {"\u2581LEO": 7}, {"ally,": 7}, {"\u2581close,": 7}, {"\u2581signed": 7}, {"\u2581Q2": 7}, {"ct": 7}, {"\u2581retrofit": 7}, {"\u2581robotaxi": 7}, {"\u2581Correct": 7}, {"\u2581impossible.": 7}, {"ress": 7}, {"\u2581Certainly": 7}, {"\u2581roller": 7}, {"\u2581Cool!": 7}, {"\u2581doom": 7}, {"\u2581tune": 7}, {"\u2581$35k": 7}, {"\u2581simplify": 7}, {"\u2581vari": 7}, {"\u2581Long-term,": 7}, {"\u2581someones": 7}, {"\u2581severe": 7}, {"\u2581critical.": 7}, {"ators": 7}, {"\u2581cert": 7}, {"\u2581Close": 7}, {"\u2581mix": 7}, {"\u2581plot": 7}, {"\u2581Kids": 7}, {"\u2581Based": 7}, {"\u2581Track": 7}, {"\u2581systems.": 7}, {"\u2581Mon": 7}, {"\u2581Jam": 7}, {"\u2581barrel": 7}, {"cl": 7}, {"ri": 7}, {"\u2581manip": 7}, {"\u2581fine,": 7}, {"\u2581Ke": 7}, {"\u2581hard,": 7}, {"\u2581posting": 7}, {"ighter": 7}, {"\u2581SN1": 7}, {"\u2581tunnel.": 7}, {"\u2581achieves": 7}, {"\u2581acceleration,": 7}, {"ug": 7}, {"\u2581deal.": 7}, {"\u2581installation": 7}, {"\u2581bounce": 7}, {"\u2581calling": 7}, {"\u2581pur": 7}, {"\u2581incorrect.": 7}, {"\u2581planned": 7}, {"\u2581roof.": 7}, {"\u2581perform": 7}, {"\u2581mm": 7}, {"\u2581hydrophobic": 7}, {"\u2581cult": 7}, {"\u2581Putting": 7}, {"\u2581Build": 7}, {"\u2581train": 7}, {"\u2581connected": 7}, {"\u2581(b": 7}, {"\u2581stars": 7}, {"les,": 7}, {"i,": 7}, {"ading": 7}, {"\u2581depart": 7}, {"\u2581Fundamental": 7}, {"\u2581sun.": 7}, {"\u2581inhibit": 7}, {"\u2581Instructions": 7}, {"\u2581Beyond": 7}, {"\u2581Simp": 7}, {"\u2581collect": 7}, {"\u2581comm": 7}, {"\u2581focusing": 7}, {"\u2581Higher": 7}, {"\u2581landing,": 7}, {"\u2581Paradox": 7}, {"cing": 7}, {"lation": 7}, {"\u2581debt,": 7}, {"\u2581sail": 7}, {"\u2581benefit": 7}, {"\u2581arrives": 7}, {"\u2581navigation": 7}, {"\u2581enabled,": 7}, {"\u2581views": 7}, {"\u2581nav": 7}, {"\u2581terrible": 7}, {"\u2581Cars": 7}, {"\u2581objects": 7}, {"\u2581joke.": 7}, {"\u2581Motors": 7}, {"\u2581passive": 7}, {"\u2581apocalypse": 7}, {"\u2581trucks": 7}, {"\u2581inspired": 7}, {"\u2581Arm": 7}, {"\u2581Porsche": 7}, {"\u2581wings": 7}, {"\u2581Loved": 7}, {"\u2581sil": 7}, {"ods": 7}, {"\u2581trajectory": 7}, {"\u2581vehicles,": 7}, {"\u2581digital": 7}, {"\u2581Heavy.": 7}, {"\u2581flight,": 7}, {"\u2581(hopefully": 7}, {"\u2581decades": 7}, {"\u2581mode,": 7}, {"\u2581minimizes": 7}, {"\u2581disp": 7}, {"\u2581houses": 7}, {"\u2581lower.": 7}, {"\u2581table": 7}, {"\u2581sources": 7}, {"\u2581config.": 7}, {"\u2581rendering": 7}, {"\u2581robotaxis": 7}, {"\u2581permit": 7}, {"\u2581Storm": 7}, {"\u2581dignity": 7}, {"\u2581hotel": 7}, {"\u2581secondary": 7}, {"\u2581steel.": 7}, {"\u2581beg": 7}, {"000": 7}, {"\u2581deserve": 7}, {"\u2581Eastern": 7}, {"\u2581fins,": 7}, {"\u2581srsly": 7}, {"ges": 7}, {"\u2581Currently": 7}, {"\u2581aircraft.": 7}, {"\u2581fee": 7}, {"-in": 7}, {"\u2581wed": 7}, {"\u2581sorry": 7}, {"\u2581fix.": 7}, {"\u2581traveling": 7}, {"\u2581long-term,": 7}, {"ese": 7}, {"\u2581continuous": 7}, {"\u2581obviou": 7}, {"\u2581George": 7}, {"\u2581occupant": 7}, {"\u2581Pics": 7}, {"\u2581finally": 7}, {"\u2581detailed": 7}, {"\u2581appoint": 7}, {"\u2581Say": 7}, {"\u2581YouTube": 7}, {"\u2581amazingly": 7}, {"\u2581Outer": 7}, {"\u2581data,": 7}, {"\u2581edit": 7}, {"\u2581scal": 7}, {"\u2581-60": 7}, {"\u2581continent": 7}, {"\u2581pilot": 7}, {"\u2581food": 7}, {"\u2581cabin": 7}, {"\u2581stage.": 7}, {"\u2581ultimate": 7}, {"\u2581instrument": 7}, {"\u2581Martian": 7}, {"\u2581recycling": 7}, {"\u2581Ass": 7}, {"\u2581Strong": 7}, {"\u2581fog": 7}, {"ze": 7}, {"ane": 7}, {"\u2581contractors": 7}, {"\u2581decent": 7}, {"\u2581recovered": 7}, {"\u2581chamber.": 7}, {"\u2581conditions.": 7}, {"\u2581grade": 7}, {"\u2581Jeff": 7}, {"\u2581Range": 7}, {"\u2581Been": 7}, {"\u2581course.": 7}, {"\u2581bizarre": 7}, {"\u2581Buffet": 7}, {"\u2581Tom": 7}, {"\u2581propulsion": 7}, {"\u2581attacking": 7}, {"\u2581killing": 7}, {"\u2581attacked": 7}, {"\u2581&gt;&gt;": 7}, {"\u2581biography": 7}, {"\u2581Stay": 7}, {"\u2581su": 7}, {"ired": 7}, {"\u2581defe": 7}, {";": 7}, {"\u2581FH": 7}, {"\u2581things.": 7}, {"\u2581and/or": 7}, {"\u2581Jim": 7}, {"ivity": 7}, {"\u2581Ukraine": 7}, {"\u2581scheduled": 7}, {"\u2581mo": 7}, {"ration": 7}, {"\u2581charging": 7}, {"\u2581V1": 7}, {"\u2581lateral": 7}, {"\u2581Roadster.": 7}, {"\u2581equal": 7}, {"\u2581recirc": 7}, {"-d": 7}, {"\u2581ver": 7}, {"\u2581threshold": 7}, {"\u2581me?": 7}, {"ared": 7}, {"\u2581Chris": 7}, {"\u2581dive": 7}, {"\u2581target.": 7}, {"bot": 7}, {"\u2581coincidence": 7}, {"\u2581tent": 7}, {"\u2581children": 7}, {"\u2581Product": 7}, {"\u2581economy": 7}, {"\u2581arrived": 7}, {"\u2581warning": 7}, {"\u2581cloud": 7}, {"\u2581signature": 7}, {"\u2581democracy": 7}, {"B.": 7}, {"\u2581opens": 7}, {"\u2581Obviously,": 7}, {"land": 7}, {"\u2581packet": 7}, {"\u2581wouldn't": 7}, {"\u2581matters.": 7}, {"\u2581\"T": 7}, {"\u2581compelling": 7}, {"\u2581afterno": 7}, {"\u2581fair,": 7}, {"\u2581sees": 7}, {"les.": 6}, {"\u2581product.": 6}, {"\u2581absorb": 6}, {"\u2581Tim": 6}, {"\u2581possibility": 6}, {"\u2581(for": 6}, {"\u2581mon": 6}, {"\u2581togeth": 6}, {"\u2581hoping": 6}, {"\u2581China!": 6}, {"mp": 6}, {"\u2581limit.": 6}, {"\u2581unequivocally": 6}, {"\u2581shop": 6}, {"\u2581Ascent": 6}, {"\u2581tile": 6}, {"\u2581bare": 6}, {"\u2581support!": 6}, {"\u2581bullet": 6}, {"\u2581dec": 6}, {"\u2581engineers.": 6}, {"\u2581exists": 6}, {"\u2581problems.": 6}, {"\u2581Static": 6}, {"\u2581risky": 6}, {"\u2581(so": 6}, {"\u2581lifting": 6}, {"\u2581Thanksgiving": 6}, {"\u2581damping": 6}, {"\u2581algorithm": 6}, {"\u2581Roadster,": 6}, {"\u2581mature": 6}, {"\u2581seal": 6}, {"\u2581flip": 6}, {"\u2581propellant,": 6}, {"\u2581smarter": 6}, {"\u2581elements": 6}, {"\u2581Course": 6}, {"\u2581tempting": 6}, {"\u2581cast": 6}, {"\u2581gener": 6}, {"h,": 6}, {"\u2581hard!": 6}, {"\u2581exist.": 6}, {"\u2581Autopilot/AI": 6}, {"\u2581champ": 6}, {"\u2581cold.": 6}, {"20": 6}, {"\u2581beginning": 6}, {"ience": 6}, {"\u2581activity": 6}, {"\u2581Falcon.": 6}, {"\u2581kerosene": 6}, {"\u2581~78%": 6}, {"\u2581notable": 6}, {"\u2581literal": 6}, {"ces": 6}, {"\u2581concrete": 6}, {"\u2581blade": 6}, {"\u2581shutdown": 6}, {"\u2581tbh.": 6}, {"\u2581said.": 6}, {"rain": 6}, {"\u2581felt": 6}, {"\u2581walls": 6}, {"/c": 6}, {"old": 6}, {"\u2581testing.": 6}, {"\u2581curious": 6}, {"\u2581blood": 6}, {"\u2581test,": 6}, {"\u2581Expect": 6}, {"\u2581scratch": 6}, {"\u2581obvious,": 6}, {"\u2581answer.": 6}, {"oms": 6}, {"\u2581burst": 6}, {"\u2581Sat": 6}, {"\u2581RNA": 6}, {"\u2581vaccines": 6}, {"\u2581browser": 6}, {"\u2581shortly.": 6}, {"\u2581processing": 6}, {"\u2581resume": 6}, {"\u2581invented": 6}, {"\u2581motor,": 6}, {"\u2581induction": 6}, {"\u2581words,": 6}, {"\u2581trademark": 6}, {"\u2581Rec": 6}, {"\u2581rent": 6}, {"\u2581plug": 6}, {"\u2581fill": 6}, {"\u2581yaw": 6}, {"\u2581descent": 6}, {"\u2581SN9": 6}, {"\u2581ready.": 6}, {"imate": 6}, {"\u2581state.": 6}, {"for": 6}, {"\u2581Sweden": 6}, {"\u2581winds.": 6}, {"\u2581Jack": 6}, {"ool": 6}, {"\u2581log": 6}, {"\u2581flat": 6}, {"\u2581crane": 6}, {"\u2581no,": 6}, {"ively": 6}, {"ota": 6}, {"\u2581life.": 6}, {"\u2581looked": 6}, {"\u2581humanitys": 6}, {"\u2581monthly": 6}, {"ract": 6}, {"\u2581Data": 6}, {"\u2581disc": 6}, {"\u2581remove": 6}, {"nd": 6}, {"tle": 6}, {"\u2581upside": 6}, {"\u2581harness": 6}, {"\u2581sync": 6}, {"\u2581NNs": 6}, {"\u2581SoC": 6}, {"\u2581pics": 6}, {"\u2581cam": 6}, {"\u2581plays": 6}, {"\u2581poor": 6}, {"\u2581sketch": 6}, {"\u2581Eberhard": 6}, {"\u2581Mar": 6}, {"\u2581him.": 6}, {"\u2581SpaceX/Tesla": 6}, {"\u2581materials": 6}, {"\u2581Her": 6}, {"inter": 6}, {"amb": 6}, {"\u2581Pass": 6}, {"\u2581mess": 6}, {"\u2581once.": 6}, {"ou": 6}, {"\u2581booster.": 6}, {"\u2581flame": 6}, {"\u2581diver": 6}, {"\u2581shear": 6}, {"\u2581sheet": 6}, {"\u2581sheer": 6}, {"\u2581rate.": 6}, {"\u2581shots": 6}, {"\u2581scale.": 6}, {"\u2581Music": 6}, {"\u2581Hollywood": 6}, {"\u2581Call": 6}, {"inery": 6}, {"\u2581V1.0": 6}, {"\u2581frequency": 6}, {"\u2581cent": 6}, {"\u2581revolution": 6}, {"\u2581remote": 6}, {"\u2581community": 6}, {"\u2581thickness": 6}, {"\u2581space!": 6}, {"\u2581automatic": 6}, {"\u2581IPO": 6}, {"\u2581execution": 6}, {"\u2581passes": 6}, {"\u2581toughest": 6}, {"rit": 6}, {"mm": 6}, {"go": 6}, {"\u2581ignite": 6}, {"\u2581inaccurate": 6}, {"\u2581nozzle.": 6}, {"\u2581difficulty": 6}, {"\u2581partners": 6}, {"\u2581likely,": 6}, {"\u2581fold": 6}, {"\u2581bits": 6}, {"\u2581while,": 6}, {"\u2581continu": 6}, {"\u2581roads": 6}, {"ly)": 6}, {"\u2581partly": 6}, {"\u2581offset": 6}, {"\u2581consumption": 6}, {"\u2581foundational": 6}, {"\u2581Doub": 6}, {"\u2581Stainless": 6}, {"\u2581snail": 6}, {"\u2581gain": 6}, {"\u2581iter": 6}, {"\u2581outfit": 6}, {"\u2581committed": 6}, {"\u2581prefer": 6}, {"\u2581approximation": 6}, {"\u2581filters.": 6}, {"\u2581compensation": 6}, {"on.": 6}, {"\u2581battery,": 6}, {"\u2581noting": 6}, {"\u2581Initially": 6}, {"\u2581butt": 6}, {"\u2581TVC": 6}, {"att": 6}, {"\u2581Thinking": 6}, {"\u2581Stud": 6}, {"\u2581(but": 6}, {"\u2581quantum": 6}, {"\u2581bringing": 6}, {"\u2581alone.": 6}, {"\u2581headed": 6}, {"ife": 6}, {"ment,": 6}, {"\u2581initially": 6}, {"-g": 6}, {"\u2581events": 6}, {"\u2581(to": 6}, {"\u2581Giant": 6}, {"\u2581patients": 6}, {"\u2581pounds": 6}, {"\u2581Target": 6}, {"\u2581(1": 6}, {"\u2581surprised": 6}, {"\u2581Qu": 6}, {"\u2581exp": 6}, {"\u2581Old": 6}, {"day.": 6}, {"km": 6}, {"\u2581warn": 6}, {"\u2581Wh/kg": 6}, {"\u2581calc": 6}, {"ulation": 6}, {"\u2581sensors": 6}, {"\u2581Hardcore": 6}, {"\u2581wherever": 6}, {"acy.": 6}, {"\u2581residual": 6}, {"\u2581Sunday.": 6}, {"\u2581underr": 6}, {"\u2581adults": 6}, {"\u2581(very": 6}, {"-L": 6}, {"\u2581hole": 6}, {"\u2581Africa": 6}, {"\u2581begging": 6}, {"\u2581Metal": 6}, {"\u2581capability.": 6}, {"\u2581V1.0.": 6}, {"\u2581unc": 6}, {"\u2581Palo": 6}, {"\u2581Alto": 6}, {"\u2581acceptable": 6}, {"\u2581comet": 6}, {"oth": 6}, {"\u2581tweak": 6}, {"\u2581handling": 6}, {"\u2581ge": 6}, {"\u2581mad": 6}, {"\u2581suggest": 6}, {"\u2581made.": 6}, {"\u2581ownership": 6}, {"\u2581~20%": 6}, {"\u2581Bern": 6}, {"\u2581longer.": 6}, {"\u2581V2.0": 6}, {"\u2581high-": 6}, {"\u2581prove": 6}, {"\u2581Par": 6}, {"\u2581originally": 6}, {"\u2581logic": 6}, {"\u2581grant": 6}, {"\u2581real-time": 6}, {"\u2581Ad": 6}, {"\u2581Los": 6}, {"\u2581boss": 6}, {"ion,": 6}, {"la": 6}, {"\u2581Nickel": 6}, {"ability": 6}, {"\u2581restaurant": 6}, {"low": 6}, {"\u2581Facebook": 6}, {"\u2581politicians": 6}, {"\u2581wealth": 6}, {"\u2581Insurance": 6}, {"\u2581soul": 6}, {"\u2581VR": 6}, {"\u2581drive.": 6}, {"\u2581constant": 6}, {"\u2581robot": 6}, {"izes": 6}, {"\u2581inevitable": 6}, {"\u2581bias": 6}, {"fully": 6}, {"\u2581uns": 6}, {"\u2581Cons": 6}, {"\u2581Autobahn": 6}, {"Q": 6}, {"\u2581(if": 6}, {"ance.": 6}, {"ific": 6}, {"\u2581emerald": 6}, {"\u2581Ashlee": 6}, {"\u2581backpack": 6}, {"\u2581father": 6}, {"\u2581choice.": 6}, {"\u2581cases,": 6}, {"\u2581troll": 6}, {"ced": 6}, {"\u2581invited": 6}, {"\u2581earn": 6}, {"\u2581eyes": 6}, {"ed!": 6}, {"\u2581trim": 6}, {"\u2581Show": 6}, {"ata": 6}, {"um.": 6}, {"\u2581Gro": 6}, {"\u2581micro": 6}, {"\u2581software,": 6}, {"\u2581McGregor": 6}, {"\u2581Report": 6}, {"\u2581promising": 6}, {"\u2581shareholders": 6}, {"\u2581bureaucr": 6}, {"\u2581numbers.": 6}, {"\u2581Federal": 6}, {"\u2581applies": 6}, {"\u2581copy": 6}, {"\u2581office": 6}, {"als": 6}, {"\u2581disagree": 6}, {"\u2581Reminder": 6}, {"\u2581Saints": 6}, {"\u2581Row": 6}, {"\u2581$7": 6}, {"\u2581Bought": 6}, {"\u2581date,": 6}, {"\u2581heavily": 6}, {"\u2581spaceport": 6}, {"\u2581weapons": 6}, {"\u2581leaked": 6}, {"\u2581bar.": 6}, {"\u2581goal.": 6}, {"\u2581ms": 6}, {"\u2581Onion": 6}, {"\u2581exposure": 6}, {"ifies": 6}, {"\u2581aka": 6}, {"\u2581efficiency,": 6}, {"\u2581sole": 6}, {"ocracy": 6}, {"\u2581staged": 6}, {"\u2581Falcon/Dragon": 6}, {"\u2581placed": 6}, {"\u2581Bob": 6}, {"\u2581slowed": 6}, {"\u2581so!": 6}, {"\u2581small.": 6}, {"ination": 6}, {"\u2581Culture": 6}, {"\u2581French": 6}, {"ar.": 6}, {"\u2581lack": 6}, {"\u2581Wh": 6}, {"\u2581deeply": 6}, {"\u2581fatal": 6}, {"\u2581manufacture": 6}, {"\u2581master": 6}, {"\u2581moth": 6}, {"\u2581behavior": 6}, {"\u2581do!": 6}, {"\u2581foundry": 6}, {"\u2581HQ": 6}, {"\u2581dep": 6}, {"\u2581fil": 6}, {"\u2581philosoph": 6}, {"\u2581approaching": 6}, {"\u2581child": 6}, {"atory": 6}, {"\u2581Way": 6}, {"\u2581O2.": 6}, {"\u2581kick": 6}, {"\u2581why.": 6}, {"\u2581Dad": 6}, {"-st": 6}, {"\u2581stamp": 6}, {"\u2581young": 6}, {"\u2581silver": 6}, {"ually": 6}, {"\u2581Dev": 6}, {"\u2581house.": 6}, {"ble": 6}, {"\u2581iteration": 6}, {"\u2581Heard": 6}, {"\u2581event,": 6}, {"\u2581infrastructure": 6}, {"\u2581Texas,": 6}, {"\u2581imagine": 6}, {"\u2581everywhere": 6}, {"\u2581while.": 6}, {"\u2581stud": 6}, {"\u2581tells": 6}, {"\u2581(~": 6}, {"\u2581Technology": 6}, {"\u2581situations.": 6}, {"ck": 6}, {"\u2581Dr": 6}, {"\u2581ventilator": 6}, {"\u2581help.": 6}, {"ton": 6}, {"ars.": 6}, {"\u2581vehicle.": 6}, {"\u2581saved": 6}, {"\u2581Tax": 6}, {"\u2581acid": 6}, {"\u2581powertrain": 6}, {"\u2581downtown": 6}, {"\u2581immediate": 6}, {"\u2581error.": 6}, {"one": 6}, {"\u2581Put": 6}, {"uation": 6}, {"\u2581tears": 6}, {"\u2581yours": 6}, {"\u2581neither": 6}, {"\u2581Pot": 6}, {"\u2581hide": 6}, {"\u2581anyway,": 6}, {"\u2581maker": 6}, {"\u2581configuration": 6}, {"\u2581app.": 6}, {"\u2581garage": 6}, {"ina": 6}, {"med": 6}, {"\u2581legs,": 6}, {"\u2581stored": 6}, {"\u2581phase": 6}, {"\u2581Seeing": 6}, {"\u2581Douglas": 6}, {"\u2581knew": 6}, {"\u2581According": 6}, {"\u2581ftw": 6}, {"\u2581National": 6}, {"\u2581accumul": 6}, {"\u2581April.": 6}, {"\u2581Fear": 6}, {"ia.": 6}, {"\u2581closely": 6}, {"\u2581spoken": 6}, {"\u2581vi": 6}, {"\u2581puck": 6}, {"xt": 6}, {"ep": 6}, {"\u2581envelope": 6}, {"\u2581Lmk": 6}, {"yr": 6}, {"ny": 6}, {"\u2581Rococo": 6}, {"ulated": 6}, {"\u2581beauty": 6}, {"\u2581Whoop": 6}, {"\u2581/Y": 6}, {"\u2581products.": 6}, {"\u2581tend": 6}, {"\u2581delete": 6}, {"\u2581rockets,": 6}, {"\u2581skins": 6}, {"\u2581diameter.": 6}, {"\u2581applications": 6}, {"\u2581fast,": 6}, {"\u2581converted": 6}, {"\u2581reports": 6}, {"\u2581century": 6}, {"\u2581later,": 6}, {"\u2581mark": 6}, {"\u2581[": 6}, {"\u2581natural": 6}, {"\u2581preference": 6}, {"\u2581Yay": 6}, {"\u2581trunk": 6}, {"\u2581yield": 6}, {"\u2581Dest": 6}, {"10": 6}, {"\u2581King": 6}, {"\u2581UFO": 6}, {"\u2581sock": 6}, {"\u2581torqu": 6}, {"\u2581C++": 6}, {"il.": 6}, {"\u2581parallel": 6}, {"\u2581lighter": 6}, {"ant.": 6}, {"aw": 6}, {"\u2581Corre": 6}, {"\u2581ending": 6}, {"\u2581projects": 6}, {"\u2581toxic": 6}, {"\u2581paywall": 6}, {"\u2581opportunity": 6}, {"\u2581calendar,": 6}, {"\u2581autonav": 6}, {"\u2581enabled": 6}, {"\u2581jack": 6}, {"\u2581penalty": 6}, {"\u2581brag": 6}, {"\u2581Regarding": 6}, {"\u2581constraint": 6}, {"$": 6}, {"\u2581Sending": 6}, {"\u2581Isnt": 6}, {"\u2581telling": 6}, {"\u2581Games": 6}, {"\u2581circle": 6}, {"\u2581crazy,": 6}, {"\u2581inches": 6}, {"\u2581dash": 6}, {"\u2581us!": 6}, {"\u2581wheels,": 6}, {"\u2581Autopilot.": 6}, {"\u2581refers": 6}, {"\u2581um": 6}, {"\u2581Blade": 6}, {"\u2581breaks": 6}, {"\u2581tri": 6}, {"\u2581Gonna": 6}, {"\u2581Mk3": 6}, {"\u2581encourage": 6}, {"\u2581Boeing": 6}, {"\u2581opportunities": 6}, {"\u2581variants": 6}, {"\u2581economics": 6}, {"\u2581occur": 6}, {"\u2581Race": 6}, {"\u2581Taycan": 6}, {"\u2581wood": 6}, {"\u2581more,": 6}, {"\u2581fruit": 6}, {"\u2581Tile": 6}, {"\u2581vac": 6}, {"\u2581inertia": 6}, {"\u2581Test": 6}, {"\u2581wip": 6}, {"\u2581movies": 6}, {"\u2581(R": 6}, {"\u2581homeowner": 6}, {"\u2581Energy": 6}, {"\u2581Gary,": 6}, {"\u2581parachute": 6}, {"\u2581quickly": 6}, {"\u2581steadily": 6}, {"\u2581works,": 6}, {"\u2581rear.": 6}, {"\u2581Precise": 6}, {"\u2581others,": 6}, {"\u2581Massive": 6}, {"\u2581regen": 6}, {"\u2581speech": 6}, {"\u2581download": 6}, {"\u2581Feature": 6}, {"\u2581Herbert": 6}, {"\u2581electric.": 6}, {"\u2581Nikola": 6}, {"\u2581covers": 6}, {"\u2581suggests": 6}, {"\u2581thrusters,": 6}, {"\u2581leaders": 6}, {"\u2581Place": 6}, {"\u2581seats.": 6}, {"\u2581before.": 6}, {"\u2581miss": 6}, {"\u2581regional": 6}, {"\u2581quarter,": 6}, {"\u2581offered": 6}, {"\u2581downward": 6}, {"\u2581jam": 6}, {"\u2581Dist": 6}, {"\u2581Sea": 6}, {"\u2581removal": 6}, {".1": 6}, {"\u2581EAP": 6}, {"\u2581November": 6}, {"\u2581address.": 6}, {"\u2581timel": 6}, {"\u2581(the": 6}, {"\u2581reaches": 6}, {"\u2581intense.": 6}, {"\u2581audio": 6}, {"\u2581heh": 6}, {"\u2581museum": 6}, {"\u2581$100k": 6}, {"\u2581$10": 6}, {"\u2581merit": 6}, {"\u2581supp": 6}, {"\u2581hab": 6}, {"\u2581dare": 6}, {"\u2581always-on": 6}, {"\u2581Post": 6}, {"\u2581kids.": 6}, {"\u2581Year": 6}, {"\u2581prevented": 6}, {"\u2581branch": 6}, {"\u2581scenario": 6}, {"\u2581switched": 6}, {"\u2581validation.": 6}, {"\u2581Shark": 6}, {"\u2581loose": 6}, {"\u2581over-the-air": 6}, {"\u2581merkin": 6}, {"\u2581proper": 6}, {"\u2581Mountain": 6}, {"\u2581Still,": 6}, {"\u2581live.": 6}, {"\u2581dealer": 6}, {"\u2581arriving": 6}, {"\u2581concept": 6}, {"\u2581throughput": 6}, {"\u2581convenience": 6}, {"\u2581Early": 6}, {"\u2581astronomy.": 6}, {"\u2581superalloy": 6}, {"\u2581thrust/weight": 6}, {"\u2581nonsense": 6}, {"\u2581optional": 6}, {"\u2581another.": 6}, {"\u2581Knight": 6}, {"\u2581illustrate": 6}, {"\u2581Aspirationally": 6}, {"\u2581Easy": 6}, {"\u2581debris": 6}, {"\u2581Art": 6}, {"\u2581rot": 6}, {"\u2581die.": 6}, {"\u2581Blood": 6}, {"\u2581sooner.": 6}, {"\u2581ETH": 6}, {"\u2581wisd": 6}, {"\u2581irrelevant.": 6}, {"\u2581charger": 6}, {"\u2581Swit": 6}, {"ants": 6}, {"\u2581reb": 6}, {"\u2581fleet.": 6}, {"\u2581judge": 6}, {"\u2581RHD": 6}, {"\u2581AP": 6}, {"\u2581Radar": 6}, {"\u2581Roll": 6}, {"ber": 6}, {"\u2581car!": 6}, {"\u2581Obv": 6}, {"\u2581Series": 6}, {"ases": 6}, {"\u2581try.": 6}, {"\u2581slam": 6}, {"\u2581uh": 6}, {"\u2581White": 6}, {"\u2581rid": 6}, {"\u2581futuristic": 6}, {"\u2581Pro": 6}, {"\u2581~5%": 6}, {"\u2581Indeed.": 6}, {"arks": 6}, {"ood": 6}, {"\u2581anti-": 6}, {"\u2581drive,": 6}, {"\u2581two.": 6}, {"\u2581though,": 6}, {"\u2581nominal": 6}, {"\u2581lit": 6}, {"\u2581US,": 6}, {"\u2581unreason": 6}, {"\u2581View": 6}, {"back": 6}, {"\u2581situation.": 6}, {"\u2581loads.": 6}, {"\u2581$4": 6}, {"\u2581East": 6}, {"\u2581Autom": 6}, {"\u2581rescue": 6}, {"\u2581transmit": 6}, {"\u2581water.": 6}, {"\u2581Steven": 6}, {"\u2581police": 6}, {"\u2581incent": 6}, {"\u2581Investig": 6}, {"down": 6}, {"\u2581scientists": 6}, {"\u2581renewable": 6}, {"\u2581experiment": 6}, {"\u2581lay": 6}, {"yn": 6}, {"\u2581laugh": 6}, {"\u2581menu": 6}, {"\u2581LZ-1": 6}, {"\u2581profit": 6}, {"\u2581trail": 6}, {"\u2581minus": 6}, {"\u2581housing": 6}, {"\u2581PR": 6}, {"\u2581project": 6}, {"\u2581Kore": 6}, {"\u2581camp": 6}, {"\u2581on,": 6}, {"\u2581parties": 6}, {"\u2581brakes": 6}, {"\u2581divers": 6}, {"\u2581journalism": 6}, {"\u2581analysts": 6}, {"\u2581Martin": 6}, {"ass.": 6}, {"der": 6}, {"\u2581Today": 6}, {"\u2581stock.": 6}, {"\u2581(ie": 6}, {"rite": 6}, {"\u2581most.": 6}, {"\u2581enemy": 6}, {"ist.": 6}, {"\u2581peoples": 6}, {"\u2581Univers": 6}, {"_": 6}, {"\u2581journo": 6}, {"\u2581Canaveral.": 6}, {"\u2581Game": 6}, {"\u2581assess": 6}, {"\u2581drove": 6}, {"\u2581combined": 6}, {"imes": 6}, {"\u2581what's": 6}, {"'d": 6}, {"\u2581loud": 6}, {"\u2581responsible": 6}, {"\u2581AI,": 6}, {"\u2581monkey": 6}, {"\u2581deb": 6}, {"\u2581Doesn't": 6}, {"\u2581they're": 6}, {"\u2581Mexico": 6}, {"\u2581Didn't": 6}, {"'": 6}, {"\u2581tuned": 6}, {"ery": 6}, {"\u2581risk,": 6}, {"\u2581Tesla/SolarCity": 6}, {"\u2581&": 6}, {"\u2581Floki": 6}, {"\u2581Pure": 6}, {"\u2581lobby": 6}, {"\u2581Megapacks": 6}, {"\u2581Starlinks": 6}, {"\u2581Mechazilla": 6}, {"\u2581rotor": 6}, {"\u2581SNL": 6}, {"\u2581Tonga": 6}, {"\u2581Covid-19": 6}, {"\u2581game.": 5}, {"umb": 5}, {"\u2581Lotus": 5}, {"\u2581start.": 5}, {"\u2581reasonably": 5}, {"\u2581limitation": 5}, {"\u2581CPU": 5}, {"\u2581reply": 5}, {"\u2581Mac": 5}, {"\u2581ends": 5}, {"pl": 5}, {"\u2581int": 5}, {"ect": 5}, {"\u2581Come": 5}, {"stick": 5}, {"\u2581Lord": 5}, {"\u2581anyway": 5}, {"\u2581pr": 5}, {"\u2581blown": 5}, {"\u2581S-curve.": 5}, {"\u2581Brandenburg": 5}, {"\u2581naturally": 5}, {"\u2581objective": 5}, {"\u2581picked": 5}, {"\u2581theory,": 5}, {"agon": 5}, {"\u2581apogee": 5}, {"\u2581controlling": 5}, {"\u2581touchdown": 5}, {"\u2581ascent,": 5}, {"\u2581Earth!": 5}, {"\u2581~25": 5}, {"ives": 5}, {"\u2581knock": 5}, {"\u2581adds": 5}, {"\u2581Int": 5}, {"\u2581FSD,": 5}, {"\u2581goes.": 5}, {"\u2581Rapid": 5}, {"\u2581reuse,": 5}, {"\u2581in,": 5}, {"\u2581label": 5}, {"\u2581fate": 5}, {"\u2581producing": 5}, {"\u2581Quite": 5}, {"\u2581*th": 5}, {"\u2581lidar": 5}, {"\u2581pointless": 5}, {"\u2581Andrej": 5}, {"\u2581App": 5}, {"\u2581sexy": 5}, {"\u2581$11": 5}, {"\u2581dealing": 5}, {"\u2581intention": 5}, {"\u2581roadmap": 5}, {"\u2581dont.": 5}, {"\u2581mild": 5}, {"\u2581seemed": 5}, {"\u2581Ct": 5}, {"\u2581ill": 5}, {"\u2581frag": 5}, {"ious.": 5}, {"\u2581cake": 5}, {"\u2581learning": 5}, {"ull": 5}, {"\u2581threshold.": 5}, {"\u2581dust": 5}, {"\u2581DayQuil": 5}, {"\u2581Frankly,": 5}, {"\u2581bay.": 5}, {"\u2581*s": 5}, {"/t": 5}, {"\u2581general.": 5}, {"\u2581Gu": 5}, {"\u2581Witch": 5}, {"\u2581(mostly)": 5}, {"\u2581fatigue": 5}, {"\u2581changes,": 5}, {"\u2581parachutes": 5}, {"\u2581flu": 5}, {"not": 5}, {"\u2581cold,": 5}, {"\u2581regard": 5}, {"\u2581steps": 5}, {"\u2581forward,": 5}, {"\u2581covid.": 5}, {"ropy": 5}, {"\u2581General": 5}, {"\u2581Sound": 5}, {"\u2581accurate,": 5}, {"\u2581detection": 5}, {"\u2581reliable": 5}, {"\u2581reli": 5}, {"do": 5}, {"\u2581Possible": 5}, {"2,": 5}, {"\u2581positives": 5}, {"\u2581symptoms,": 5}, {"\u2581Elon": 5}, {"\u2581equally": 5}, {"\u2581on.": 5}, {"\u2581Dragon.": 5}, {"\u2581superpower": 5}, {"\u2581creative": 5}, {"\u2581potential.": 5}, {"\u2581financially": 5}, {"\u2581development.": 5}, {"\u2581cancel": 5}, {"\u2581cookie": 5}, {"\u2581Wait": 5}, {"\u2581Vol": 5}, {"vers": 5}, {"\u2581Neither": 5}, {"-f": 5}, {"\u2581Maxwell": 5}, {"\u2581recognition": 5}, {"\u2581Faraday,": 5}, {"\u2581Chad": 5}, {"\u2581support,": 5}, {"\u2581Steve": 5}, {"\u2581money,": 5}, {"ider": 5}, {"\u2581qu": 5}, {"\u2581bankrupt.": 5}, {"\u2581Lower": 5}, {"arch": 5}, {"\u2581incremental": 5}, {"\u2581engineering.": 5}, {"\u2581progress!": 5}, {"\u2581livestream": 5}, {"standing": 5}, {"\u2581interventions": 5}, {"\u2581attacks": 5}, {"\u2581shot!": 5}, {"\u2581ter": 5}, {"\u2581foot": 5}, {"\u2581Approx": 5}, {"\u2581Little": 5}, {"\u2581all!": 5}, {"\u2581scrap": 5}, {"\u2581clar": 5}, {"\u2581website.": 5}, {"\u2581Price": 5}, {"\u2581released.": 5}, {"\u2581improves.": 5}, {"ve.": 5}, {"ages": 5}, {"\u2581lies": 5}, {"\u2581proving": 5}, {"\u2581salt": 5}, {"\u2581near-term": 5}, {"\u2581should.": 5}, {"\u2581restrict": 5}, {"\u2581little.": 5}, {"\u2581cord": 5}, {"\u2581reviews": 5}, {"\u2581varies": 5}, {"/R": 5}, {"\u2581attack.": 5}, {"\u2581extrem": 5}, {"\u2581aut": 5}, {"\u2581seater": 5}, {"\u2581Significant": 5}, {"\u2581tunneling": 5}, {"\u2581finishing": 5}, {"\u2581Ill": 5}, {"\u2581grief": 5}, {"\u2581~9": 5}, {"\u2581autom": 5}, {"\u2581&lt;10%": 5}, {"\u2581manual": 5}, {"\u2581configurator": 5}, {"\u2581Limited": 5}, {"mon": 5}, {"\u2581nets,": 5}, {"\u2581&gt;1000%": 5}, {"\u2581new.": 5}, {"pp": 5}, {"\u2581immun": 5}, {"\u2581capture": 5}, {"\u2581mechanically": 5}, {"\u2581melting": 5}, {"\u2581Advanced": 5}, {"\u2581much,": 5}, {"\u2581snake": 5}, {"ives.": 5}, {"\u2581stacking": 5}, {"\u2581licensing": 5}, {"arg": 5}, {"sion": 5}, {"\u2581sustained": 5}, {"\u2581startups": 5}, {"\u2581collective": 5}, {"\u2581climb": 5}, {"\u2581absolute": 5}, {"\u2581composite": 5}, {"\u2581replaced.": 5}, {"\u2581demand.": 5}, {"\u2581jammed": 5}, {"\u2581exhaust": 5}, {"\u2581market.": 5}, {"\u2581rem": 5}, {"\u2581Shortfall": 5}, {"\u2581broad": 5}, {"\u2581south": 5}, {"\u2581launches.": 5}, {"\u2581emergency": 5}, {"\u2581damaged": 5}, {"opes": 5}, {"\u2581imped": 5}, {"\u2581Ins": 5}, {"\u2581smoother": 5}, {"\u2581esthetics": 5}, {"\u2581Public": 5}, {"\u2581investors.": 5}, {"\u2581bed": 5}, {"\u2581Bro": 5}, {"\u2581vehicles.": 5}, {"\u2581al": 5}, {"\u2581practical": 5}, {"\u2581prediction": 5}, {"\u2581ludicrous": 5}, {"\u2581plaid": 5}, {"\u2581captured": 5}, {"\u2581ATV": 5}, {"\u2581faster.": 5}, {"\u2581shortages": 5}, {"\u2581oursel": 5}, {"ves.": 5}, {"\u2581force.": 5}, {"\u2581chips": 5}, {"\u2581covered.": 5}, {"ith": 5}, {"no": 5}, {"\u2581Needed": 5}, {"\u2581utter": 5}, {"zero": 5}, {"\u2581aerospace": 5}, {"\u2581mass,": 5}, {"\u2581Tap": 5}, {"\u2581Rad": 5}, {"\u2581LA.": 5}, {"\u2581factors.": 5}, {"\u2581crat": 5}, {"\u2581grave": 5}, {"\u2581Civilization": 5}, {"\u2581Cumulative": 5}, {"\u2581GTO": 5}, {"\u2581opt": 5}, {"\u2581setbacks": 5}, {"\u2581simultaneous": 5}, {"\u2581unveiled": 5}, {"ich": 5}, {"\u2581Bit": 5}, {"\u2581ar": 5}, {"\u2581Es": 5}, {"\u2581Sub": 5}, {"ces.": 5}, {"\u2581workers": 5}, {"\u2581nozzles": 5}, {"\u2581bomb": 5}, {"\u2581(especially": 5}, {"\u2581bell": 5}, {"2.": 5}, {"\u2581rated": 5}, {"\u2581Ar": 5}, {"\u2581inner": 5}, {"\u2581modes": 5}, {"\u2581sir": 5}, {"ert": 5}, {"\u2581tech.": 5}, {"ior": 5}, {"\u2581Cal": 5}, {"ER": 5}, {"\u2581high-speed": 5}, {"\u2581Ant": 5}, {"\u2581home,": 5}, {"\u2581~50%": 5}, {"\u2581quickly.": 5}, {"\u2581FDA": 5}, {"\u2581gap": 5}, {"\u2581skirt": 5}, {"/bot": 5}, {"\u2581cal": 5}, {"\u2581V2.": 5}, {"\u2581frequent": 5}, {"\u2581*with*": 5}, {"it,": 5}, {"\u2581spaceports": 5}, {"\u2581metaphor": 5}, {"ten": 5}, {"\u2581recently": 5}, {"ik": 5}, {"\u2581der": 5}, {"\u2581Direct": 5}, {"\u2581GPT": 5}, {"-3": 5}, {"\u2581lowering": 5}, {"\u2581secure": 5}, {"ier,": 5}, {"\u2581turbines": 5}, {"\u2581Guaranteed": 5}, {"\u2581flamethrowers": 5}, {"\u2581dirt": 5}, {"\u2581investor": 5}, {"\u2581intersect": 5}, {"\u2581Cover": 5}, {"\u2581regulator": 5}, {"1%": 5}, {"\u2581trapped": 5}, {"\u2581patch": 5}, {"\u2581steer": 5}, {"\u2581personally.": 5}, {"\u2581joining": 5}, {"\u2581restored": 5}, {"\u2581Boeing/Lockheed": 5}, {"\u2581Clearly": 5}, {"\u2581~60%": 5}, {"\u2581distract": 5}, {"illion": 5}, {"\u2581Haha,": 5}, {"\u2581surfaces": 5}, {"\u2581stable": 5}, {"\u2581Zealand": 5}, {"\u2581BBC": 5}, {"\u2581hundred": 5}, {"\u2581duration": 5}, {"\u2581Heart": 5}, {"\u2581ampl": 5}, {"ved.": 5}, {"\u2581Str": 5}, {"nt": 5}, {"\u2581Bill": 5}, {"ine,": 5}, {"\u2581Das": 5}, {"\u2581Lithium": 5}, {"\u2581everywhere.": 5}, {"\u2581Fire": 5}, {"\u2581whistle": 5}, {"urs": 5}, {"\u2581legis": 5}, {"\u2581ear": 5}, {"\u2581payments": 5}, {"\u2581consum": 5}, {"\u2581actu": 5}, {"\u2581prototypes": 5}, {"\u2581overse": 5}, {"\u2581upgrading": 5}, {"ff": 5}, {"\u2581earnings": 5}, {"\u2581call.": 5}, {"\u2581loses": 5}, {"\u2581neuro": 5}, {"\u2581electrical": 5}, {"\u2581hidden": 5}, {"\u2581gard": 5}, {"\u2581Maximizing": 5}, {"\u2581resist": 5}, {"\u2581quarks": 5}, {"\u2581lept": 5}, {"\u2581sentient": 5}, {"\u2581moons": 5}, {"\u2581then,": 5}, {"\u2581pair": 5}, {"\u2581John": 5}, {"\u2581sus": 5}, {"ance,": 5}, {"\u2581promote": 5}, {"\u2581invite": 5}, {"\u2581wh": 5}, {"\u2581emp": 5}, {"\u2581Vance": 5}, {"\u2581Ask": 5}, {"\u2581host": 5}, {"\u2581handful": 5}, {"\u2581Someone": 5}, {"\u2581paying": 5}, {"\u2581ac": 5}, {"m,": 5}, {"\u2581El": 5}, {"\u2581sat": 5}, {"\u2581country.": 5}, {"\u2581reasoning": 5}, {"\u2581cred": 5}, {"\u2581eth": 5}, {"\u2581Li": 5}, {"\u2581confirmation": 5}, {"\u2581loc": 5}, {"\u2581visit.": 5}, {"\u2581Likely": 5}, {"\u2581crushed": 5}, {"\u2581(in": 5}, {"\u2581/20": 5}, {"\u2581Jay": 5}, {"\u2581priority,": 5}, {"\u2581unp": 5}, {"\u2581shifting": 5}, {"\u2581$1k": 5}, {"\u2581En": 5}, {"\u2581limbic": 5}, {"og": 5}, {"ulate": 5}, {"action": 5}, {"\u2581bikes": 5}, {"\u2581Cybertruck.": 5}, {"\u2581Jun": 5}, {"\u2581Comes": 5}, {"\u2581bother": 5}, {"\u2581adjusting": 5}, {"\u2581injector": 5}, {"\u2581content": 5}, {"\u2581beam": 5}, {"\u2581manufacturers": 5}, {"\u2581RP": 5}, {"ef": 5}, {"\u2581Ironic": 5}, {"\u2581Bad": 5}, {"\u2581surfac": 5}, {"\u2581is:": 5}, {"\u2581Upcoming": 5}, {"\u2581ternary": 5}, {"\u2581business": 5}, {"\u2581T-": 5}, {"\u2581Dawn": 5}, {"ma": 5}, {"\u2581Franz": 5}, {"\u2581friend.": 5}, {"\u2581lucky": 5}, {"\u2581Take": 5}, {"\u2581Napoleon": 5}, {"\u2581Adam": 5}, {"\u2581source.": 5}, {"\u2581president": 5}, {"\u2581itself,": 5}, {"\u2581illness": 5}, {"\u2581masks": 5}, {"\u2581Governor": 5}, {"\u2581Tough": 5}, {"\u2581Newton": 5}, {"\u2581public.": 5}, {"\u2581Alameda": 5}, {"\u2581illeg": 5}, {"\u2581sing": 5}, {"\u2581Mothers": 5}, {"\u2581appreciated,": 5}, {"\u2581rec": 5}, {"\u2581straw": 5}, {"\u2581carmaker": 5}, {"\u2581acting": 5}, {"so": 5}, {"bit": 5}, {"\u2581enormous": 5}, {"\u2581off,": 5}, {"\u2581patient": 5}, {"\u2581~$500": 5}, {"\u2581cow": 5}, {"\u2581ran": 5}, {"\u2581dependent": 5}, {"\u2581equ": 5}, {"\u2581SL": 5}, {"\u2581smashed": 5}, {"\u2581distracted": 5}, {"\u2581Per": 5}, {"\u2581street": 5}, {"ass": 5}, {"rew": 5}, {"\u2581logs": 5}, {"load": 5}, {"ST": 5}, {"\u2581side.": 5}, {"\u2581sale": 5}, {"\u2581serving": 5}, {"\u2581Soon,": 5}, {"to": 5}, {"\u2581headline": 5}, {"\u2581engineering!": 5}, {"\u2581Dark": 5}, {"ility": 5}, {"\u2581temp.": 5}, {"\u2581former.": 5}, {"cheduled": 5}, {"\u2581Autonomy": 5}, {"\u2581Machine": 5}, {"\u2581self-driving,": 5}, {"\u2581vis": 5}, {"\u2581panel": 5}, {"\u2581park.": 5}, {"\u2581brightness": 5}, {"\u2581kidding": 5}, {"\u2581Blue": 5}, {"\u2581Johnson": 5}, {"\u2581Starfleet": 5}, {"\u2581nose.": 5}, {"\u2581Rem": 5}, {"\u2581subsonic": 5}, {"\u2581reg": 5}, {"\u2581flying.": 5}, {"\u2581requests": 5}, {"\u2581ICU": 5}, {"\u2581breathing": 5}, {"\u2581throat": 5}, {"\u2581wise.": 5}, {"\u2581mechanism": 5}, {"\u2581opinion": 5}, {"\u2581died.": 5}, {"\u2581doub": 5}, {"\u2581Trag": 5}, {"\u2581different.": 5}, {"\u2581redundant": 5}, {"\u2581LOX": 5}, {"!).": 5}, {"\u2581promis": 5}, {"\u2581whos": 5}, {"pre": 5}, {"\u2581free.": 5}, {"\u2581treating": 5}, {"\u2581peace": 5}, {"\u2581panic": 5}, {"/r": 5}, {"\u2581yesterday.": 5}, {"\u2581inf": 5}, {"\u2581already.": 5}, {"ek": 5}, {"istic": 5}, {"\u2581ground.": 5}, {"\u2581Heat": 5}, {"\u2581arrive": 5}, {"\u2581contain": 5}, {"\u2581aborted": 5}, {"ows": 5}, {"\u2581rh": 5}, {"we": 5}, {"\u2581mal": 5}, {"\u2581expense": 5}, {"\u2581matches": 5}, {"^": 5}, {"\u2581~5000": 5}, {"\u2581hor": 5}, {"\u2581brother": 5}, {"\u2581USA.": 5}, {"amm": 5}, {"\u2581Ben": 5}, {"\u2581Market": 5}, {"\u2581(with": 5}, {"\u2581dia": 5}, {"\u2581thoughts": 5}, {"\u2581improvement.": 5}, {"\u2581rights": 5}, {"\u2581plane": 5}, {"\u2581preparing": 5}, {"\u2581attachment": 5}, {"\u2581Active": 5}, {"/m": 5}, {"\u2581big.": 5}, {"\u2581heavier": 5}, {"\u2581orgs": 5}, {"\u2581joints": 5}, {"\u2581intact": 5}, {"\u2581SolarGlass": 5}, {"\u2581option.": 5}, {"\u2581programmed": 5}, {"\u2581bas": 5}, {"ilis": 5}, {"\u2581potentially": 5}, {"\u2581Sorry!": 5}, {"\u2581plenty": 5}, {"\u2581controll": 5}, {"\u2581affecting": 5}, {"ipping": 5}, {"\u2581forms": 5}, {"\u2581fuel.": 5}, {"pt": 5}, {"ancy": 5}, {"\u2581Infinite": 5}, {"\u2581Pe": 5}, {"\u2581Tesla?": 5}, {"\u2581theater": 5}, {"ks,": 5}, {"\u2581helped": 5}, {"\u2581altitude,": 5}, {"\u2581Met": 5}, {"\u2581leading": 5}, {"\u2581x": 5}, {"lin": 5}, {"imp": 5}, {"\u2581joy": 5}, {"\u2581members": 5}, {"\u2581Syd": 5}, {"\u2581requirements": 5}, {"\u2581melt": 5}, {"\u2581pool": 5}, {"\u2581manually": 5}, {"\u2581stronger": 5}, {"\u2581crushing": 5}, {"ules": 5}, {"\u2581anim": 5}, {"get": 5}, {"\u2581choosing": 5}, {"\u2581di": 5}, {"\u2581ideal": 5}, {"\u2581Bricks": 5}, {"\u2581Convention": 5}, {"\u2581worse.": 5}, {"\u2581sculpture": 5}, {"\u2581awful": 5}, {"\u2581~$100k": 5}, {"\u2581momentum": 5}, {"\u2581merely": 5}, {"\u2581roaming": 5}, {"\u2581lock": 5}, {"\u2581possible!": 5}, {"igate": 5}, {"\u2581scroll": 5}, {"\u2581fictional": 5}, {"\u2581Mobile": 5}, {"\u2581improvements.": 5}, {"\u2581Surface": 5}, {"\u2581Detail": 5}, {"\u2581observ": 5}, {"\u2581audience": 5}, {"\u2581steal": 5}, {"\u2581transmission": 5}, {"\u2581truck.": 5}, {"\u2581destination.": 5}, {"\u2581Min": 5}, {"\u2581(2": 5}, {"\u2581Hydrogen": 5}, {"\u2581holder": 5}, {"\u2581coefficient": 5}, {"\u2581feel.": 5}, {"\u2581deep.": 5}, {"\u2581finest": 5}, {"\u2581Flamethrower": 5}, {"\u2581optional.": 5}, {"\u2581Bring": 5}, {"\u2581Halo": 5}, {"\u2581times,": 5}, {"\u2581fraud": 5}, {"\u2581initi": 5}, {"\u2581Sustainable": 5}, {"\u2581fought": 5}, {"\u2581experienced": 5}, {"\u2581inspiring": 5}, {"\u2581Lake": 5}, {"\u2581conference": 5}, {"\u2581OS": 5}, {"\u2581rac": 5}, {"\u2581reminder": 5}, {"\u2581earthqu": 5}, {"\u2581Homes": 5}, {"\u2581old,": 5}, {"\u2581Whoa,": 5}, {"\u2581myth": 5}, {"\u2581wins": 5}, {"\u2581award": 5}, {"\u2581awe": 5}, {"\u2581painful": 5}, {"\u2581impulse": 5}, {"\u2581sec,": 5}, {"\u2581Value": 5}, {"\u2581equation.": 5}, {"\u2581overwhelming": 5}, {"\u2581meteor": 5}, {"\u2581precise,": 5}, {"\u2581Yep,": 5}, {"\u2581MW": 5}, {"uss": 5}, {"ix": 5}, {"\u2581solutions": 5}, {"\u2581reviewed": 5}, {"\u2581course)": 5}, {"\u2581boy": 5}, {"\u2581SX500": 5}, {"\u2581printing": 5}, {"\u2581Fig": 5}, {"\u2581media,": 5}, {"\u2581spaces": 5}, {"\u2581(we": 5}, {"\u2581non-Tesla": 5}, {"\u2581heat.": 5}, {"ous,": 5}, {"\u2581continued": 5}, {"\u2581don": 5}, {"\u2581Finally,": 5}, {"\u2581thrusters.": 5}, {"\u2581driving,": 5}, {"\u2581Talulah": 5}, {"\u2581owner.": 5}, {"\u2581initially,": 5}, {"\u2581Bot": 5}, {"\u2581heads": 5}, {"\u2581mistakes": 5}, {"\u2581prices,": 5}, {"\u2581bargain": 5}, {"\u2581delays": 5}, {"\u2581blowing": 5}, {"\u2581Wanted": 5}, {"\u2581shed": 5}, {"\u2581mins,": 5}, {"\u2581m/": 5}, {"\u2581Emp": 5}, {"\u2581commission": 5}, {"\u2581Megapack": 5}, {"\u2581adjusted": 5}, {"\u2581sun,": 5}, {"\u2581particular": 5}, {"cel": 5}, {"\u2581costs.": 5}, {"\u2581pist": 5}, {"\u2581*lot*": 5}, {"\u2581explosion": 5}, {"\u2581spacesuit": 5}, {"\u2581updates.": 5}, {"\u2581Thanks.": 5}, {"\u2581(almost": 5}, {"ury": 5}, {"\u2581Navigate": 5}, {"\u2581drama": 5}, {"\u2581rotation": 5}, {"\u2581skillz": 5}, {"\u2581Rog": 5}, {"\u2581Hat": 5}, {"\u2581cons": 5}, {"\u2581convincing": 5}, {"\u2581Unlikely": 5}, {"\u2581Rel": 5}, {"ief": 5}, {"\u2581flown": 5}, {"\u2581k.": 5}, {"\u2581diameter,": 5}, {"\u2581thermal": 5}, {"\u2581hover.": 5}, {"\u2581respect.": 5}, {"\u2581non-Autopilot": 5}, {"\u2581benef": 5}, {"\u2581fleet,": 5}, {"\u2581clearing": 5}, {"\u2581plann": 5}, {"\u2581Basic": 5}, {"\u2581Presentation": 5}, {"\u2581streaming": 5}, {"\u2581teleport": 5}, {"\u2581Q4,": 5}, {"\u2581upgradable": 5}, {"\u2581Listening": 5}, {"\u2581char": 5}, {"\u2581Cat": 5}, {"\u2581fixed.": 5}, {"\u2581pedestrians": 5}, {"\u2581cyclists": 5}, {"\u2581~400": 5}, {"\u2581phone.": 5}, {"kins": 5}, {"\u2581flush": 5}, {"\u2581touching": 5}, {"ts,": 5}, {"\u2581mug": 5}, {"\u2581coffee": 5}, {"\u2581Odds": 5}, {"\u2581Planning": 5}, {"\u2581mod": 5}, {"\u2581mainten": 5}, {"\u2581Yet": 5}, {"\u2581Wars": 5}, {"\u2581pap": 5}, {"\u2581Unlike": 5}, {"\u2581kind.": 5}, {"\u2581critic": 5}, {"\u2581various": 5}, {"\u2581$2500": 5}, {"\u2581checking": 5}, {"\u2581routing": 5}, {"\u2581markets": 5}, {"\u2581trunk.": 5}, {"\u2581Wings": 5}, {"\u2581uncertainty": 5}, {"\u2581confusion.": 5}, {"\u2581carefully": 5}, {"\u2581terrible.": 5}, {"\u2581same,": 5}, {"\u2581Audi": 5}, {"\u2581Opposite": 5}, {"\u2581imply": 5}, {"\u2581fair.": 5}, {"\u2581enhanced": 5}, {"\u2581Tower": 5}, {"\u2581Hor": 5}, {"\u2581Isp,": 5}, {"\u2581GoT": 5}, {"\u2581wheel,": 5}, {"\u2581VTOL": 5}, {"\u2581trickery": 5}, {"\u2581advertise": 5}, {"\u2581touchscreen": 5}, {"\u2581Secret": 5}, {"\u2581effective.": 5}, {"\u2581Answer": 5}, {"\u2581both.": 5}, {"\u2581builds": 5}, {"\u2581Mom!": 5}, {"\u2581moderate.": 5}, {"\u2581Tintin": 5}, {"\u2581Tight": 5}, {"\u2581dogs": 5}, {"\u2581imag": 5}, {"\u2581glo": 5}, {"\u2581buyer": 5}, {"\u2581retains": 5}, {"\u2581Superdraco": 5}, {"\u2581glitch": 5}, {"\u2581connection": 5}, {"\u2581Warren": 5}, {"\u2581Ethereum": 5}, {"\u2581bored": 5}, {"\u2581Mal": 5}, {"\u2581NV": 5}, {"\u2581Xav": 5}, {"\u2581described": 5}, {"\u2581advisor": 5}, {"\u2581simulation.": 5}, {"\u2581before,": 5}, {"\u2581Angeles": 5}, {"\u2581recharg": 5}, {"let": 5}, {"\u2581investig": 5}, {"\u2581readers": 5}, {"\u2581Comments": 5}, {"++": 5}, {"\u2581inspection": 5}, {"\u2581Bloomberg": 5}, {"\u2581justice": 5}, {"\u2581GWh": 5}, {"\u2581cells.": 5}, {"500": 5}, {"ci": 5}, {"aged": 5}, {"i.": 5}, {"\u2581vehicle,": 5}, {"ox": 5}, {"\u2581cryptocurrency": 5}, {"istent": 5}, {"\u2581Work": 5}, {"\u2581referral": 5}, {"\u2581prize": 5}, {"\u2581short-sell": 5}, {"\u2581decided": 5}, {"\u2581partial": 5}, {"\u2581discount": 5}, {"\u2581retrospect,": 5}, {"80": 5}, {"\u2581control.": 5}, {"\u2581pays": 5}, {"\u2581inc": 5}, {"\u2581oversight": 5}, {"\u2581hardware,": 5}, {"\u2581destroyed": 5}, {"\u2581acc": 5}, {"\u2581simpler": 5}, {"\u2581holds": 5}, {"\u2581mirror": 5}, {"\u2581blocks": 5}, {"\u2581refer": 5}, {"US": 5}, {"\u2581suborbital": 5}, {"\u2581steady": 5}, {"\u2581simulations": 5}, {"\u2581Ev": 5}, {"\u2581rising": 5}, {"\u2581stores.": 5}, {"vity": 5}, {"\u2581skill": 5}, {"ips": 5}, {"ways": 5}, {"\u2581Grid": 5}, {"\u2581Plan": 5}, {"\u2581None": 5}, {"\u2581brief": 5}, {"\u2581Thought": 5}, {"\u2581(h": 5}, {"\u2581land.": 5}, {"\u2581approx": 5}, {"\u2581Signing": 5}, {"line": 5}, {"ulating": 5}, {"\u2581knight": 5}, {"\u2581bricks": 5}, {"\u2581Um,": 5}, {"\u2581minimizing": 5}, {"\u2581Law": 5}, {"ux": 5}, {"\u2581spon": 5}, {"\u2581vision,": 5}, {"\u2581happen.": 5}, {"\u2581Taking": 5}, {"\u2581shops": 5}, {"\u2581girl": 5}, {"\u2581weather.": 5}, {"\u2581V8.1": 5}, {"\u2581think.": 5}, {"\u2581boom": 5}, {"\u2581suff": 5}, {"\u2581manag": 5}, {"\u2581funds": 5}, {"\u2581holders": 5}, {"\u2581basis": 5}, {"\u2581taught": 5}, {"ict": 5}, {"\u2581iPhone": 5}, {"\u2581show.": 5}, {"\u2581apolog": 5}, {"\u2581price.": 5}, {"\u2581no.": 5}, {"otic": 5}, {"\u2581vote.": 5}, {"\u2581(like": 5}, {"\u2581adult": 5}, {"\u2581prep": 5}, {"\u2581S,": 5}, {"\u2581Iridium": 5}, {"\u2581Flint": 5}, {"\u2581quarter.": 5}, {"\u2581Fri": 5}, {"\u2581sex": 5}, {"\u2581donated": 5}, {"\u2581dialogue": 5}, {"\u2581willing": 5}, {"\u2581quick": 5}, {"ending": 5}, {"\u2581Thailand": 5}, {"\u2581narrow": 5}, {"ctions": 5}, {"\u2581verb": 5}, {"\u2581compensate": 5}, {"\u2581employee": 5}, {"\u2581outlets": 5}, {"\u2581all-wheel": 5}, {"\u2581aspire": 5}, {"\u2581calls": 5}, {"-b": 5}, {"\u2581override": 5}, {"\u2581believing": 5}, {"\u2581tax.": 5}, {"\u2581unreal": 5}, {"-F": 5}, {"\u2581border": 5}, {"\u2581Die": 5}, {"\u2581Paris": 5}, {"\u2581either.": 5}, {"\u2581compete": 5}, {"\u2581Banks": 5}, {"\u2581removed": 5}, {"\u2581Pic": 5}, {"\u2581donating": 5}, {"\u2581begun": 5}, {"\u2581Spaceship": 5}, {"\u2581editor": 5}, {"ency": 5}, {"\u2581themselves.": 5}, {"\u2581mode.": 5}, {"\u2581Ich": 5}, {"\u2581kn": 5}, {"\u2581ref": 5}, {"\u2581India.": 5}, {"\u2581gend": 5}, {"\u2581cup": 5}, {"\u2581removing": 5}, {"\u2581suggesting": 5}, {"25": 5}, {"\u2581highlight": 5}, {"\u2581bankruptcy": 5}, {"\u2581lets": 5}, {"\u2581Hate": 5}, {"\u2581stopping": 5}, {"\u2581voting": 5}, {"\u2581BMW": 5}, {"\u2581care.": 5}, {"\u2581horses": 5}, {"\u2581bunch": 5}, {"\u2581end.": 5}, {"\u2581discovered": 5}, {"\u2581recall": 5}, {"\u2581Starman": 5}, {"\u2581sho": 5}, {"\u2581carrying": 5}, {"\u2581unveiling": 5}, {"\u2581screen.": 5}, {"M,": 5}, {"45": 5}, {"ends": 5}, {"\u2581bear": 5}, {"\u2581so-called": 5}, {"allow": 5}, {"\u2581coll": 5}, {"\u2581aud": 5}, {"\u2581today's": 5}, {"\u2581temporary": 5}, {"\u2581there's": 5}, {"de": 5}, {"\u2581Trans": 5}, {"\u2581raising": 5}, {"\u2581DoD": 5}, {"\u2581faster,": 5}, {"\u2581Senate": 5}, {"n't": 5}, {"\u2581grows": 5}, {"\u2581Droneship": 5}, {"\u2581HW1": 5}, {"\u2581we've": 5}, {"\u2581comedy": 5}, {"\u2581council": 5}, {"\u2581survey": 5}, {"\u2581streets,": 5}, {"\u2581debt": 5}, {"\u2581:30": 5}, {"\u2581Sun": 5}, {"\u2581visual": 5}, {"\u2581sufficient": 5}, {"\u2581Use": 5}, {"\u2581goods": 5}, {"\u2581me)": 5}, {"\u2581P85D": 5}, {"\u2581evolution": 5}, {"\u2581Formula": 5}, {"\u2581West": 5}, {"\u2581splashdown": 5}, {"uz": 5}, {"\u2581biological": 5}, {"\u2581-R": 5}, {"\u2581studio": 5}, {"\u2581mandate": 5}, {"\u2581Santa": 5}, {"\u2581combined.": 5}, {"\u2581compiler": 5}, {"\u2581Hertz": 5}, {"\u2581Biden": 5}, {"\u2581Doge,": 5}, {"\u2581rarely": 5}, {"\u2581Optimus": 5}, {"\u2581hash": 5}, {"\u2581pixels": 5}, {"\u2581serves": 5}, {"\u2581expectancy": 5}, {"\u2581Dave": 5}, {"\u2581operates": 5}, {"\u2581Entertainment": 4}, {"\u2581adv": 4}, {"lay": 4}, {"\u2581pie": 4}, {"\u2581strugg": 4}, {"\u2581extended": 4}, {"\u2581Change": 4}, {"\u2581operations": 4}, {"\u2581Minor": 4}, {"\u2581refused": 4}, {"\u2581meeting.": 4}, {"\u2581impossible,": 4}, {"\u2581bond": 4}, {"\u2581college": 4}, {"\u2581conversations": 4}, {"\u2581age.": 4}, {"\u2581nail": 4}, {"\u2581inspect": 4}, {"\u2581AI/": 4}, {"\u2581t-shirt": 4}, {"\u2581Kevlar": 4}, {"-based": 4}, {"\u2581mere": 4}, {"\u2581exponentially,": 4}, {"\u2581Gr": 4}, {"\u2581castings": 4}, {"ning": 4}, {"\u2581Steam": 4}, {"\u2581transpiration": 4}, {"\u2581heatshield,": 4}, {"\u2581Woohoo": 4}, {"\u2581crater": 4}, {"\u2581long,": 4}, {"ock": 4}, {"gram": 4}, {"\u2581toilet": 4}, {"\u2581Dem": 4}, {"\u2581Prom": 4}, {"\u2581Paint": 4}, {"mor": 4}, {"\u2581stance": 4}, {"\u2581Wednesday.": 4}, {"\u2581trunc": 4}, {"\u2581fp": 4}, {"\u2581betting": 4}, {"\u2581acts": 4}, {"\u2581SN15": 4}, {"\u2581~50": 4}, {"\u2581inference.": 4}, {"\u2581Tomorrow": 4}, {"\u2581investor.": 4}, {"\u2581investing": 4}, {"\u2581wavelength": 4}, {"\u2581continues": 4}, {"\u2581occl": 4}, {"\u2581parts,": 4}, {"\u2581SPAC": 4}, {"\u2581lightning": 4}, {"\u2581glasses": 4}, {"\u2581special.": 4}, {"\u2581wow": 4}, {"\u2581Martians": 4}, {"\u2581establish": 4}, {"\u2581services.": 4}, {"\u2581themselves,": 4}, {"\u2581domes": 4}, {"ually,": 4}, {"\u2581life,": 4}, {"\u2581(n": 4}, {"kill": 4}, {"\u2581combined,": 4}, {"well": 4}, {"\u2581scientific": 4}, {"\u2581$1M": 4}, {"H4": 4}, {"\u2581figur": 4}, {"ables": 4}, {"\u2581mart": 4}, {"atter": 4}, {"\u2581avionics": 4}, {"\u2581atoms": 4}, {"/U": 4}, {"\u2581cures": 4}, {"\u2581channels": 4}, {"\u2581maneuver": 4}, {"\u2581brutal": 4}, {"\u2581N1": 4}, {"\u2581collection": 4}, {"ular": 4}, {"-h": 4}, {"\u2581constit": 4}, {"\u2581opinion,": 4}, {"\u2581cautious.": 4}, {"\u2581coronavirus": 4}, {"\u2581DMT": 4}, {"\u2581Sha": 4}, {"\u2581fist": 4}, {"\u2581sample": 4}, {"\u2581honey": 4}, {"\u2581Cold": 4}, {"\u2581runs": 4}, {"\u2581Med": 4}, {"\u2581Oxford": 4}, {"right": 4}, {"craft": 4}, {"\u2581rough": 4}, {"\u2581dice": 4}, {"es)": 4}, {"\u2581spike": 4}, {"\u2581max.": 4}, {"\u2581decline": 4}, {"\u2581considered,": 4}, {"ins,": 4}, {"iff": 4}, {"\u2581NyQuil": 4}, {"\u2581again,": 4}, {"\u2581Mus": 4}, {"\u2581coin": 4}, {"\u2581Sy": 4}, {"mpt": 4}, {"\u2581Results": 4}, {"\u2581Bur": 4}, {"\u2581loss.": 4}, {"\u2581pneumatic": 4}, {"\u2581pop": 4}, {"\u2581Cape.": 4}, {"\u2581fear": 4}, {"\u2581Enough": 4}, {"\u2581supercomput": 4}, {"\u2581bench": 4}, {"mark": 4}, {"\u2581clust": 4}, {"\u2581Frame": 4}, {"\u2581Ph": 4}, {"\u2581Send": 4}, {"\u2581Ein": 4}, {"stein": 4}, {"\u2581$50": 4}, {"\u2581fail.": 4}, {"\u2581bankruptcy.": 4}, {"\u2581Difficult": 4}, {"-wide": 4}, {"\u2581exists.": 4}, {"\u2581(th": 4}, {"\u2581latitude": 4}, {"\u2581position,": 4}, {"\u2581considerably": 4}, {"\u2581video,": 4}, {"ability,": 4}, {"\u2581scale,": 4}, {"\u2581tends": 4}, {"\u2581fails": 4}, {"\u2581relight": 4}, {"\u2581intervention": 4}, {"\u2581grand": 4}, {"-l": 4}, {"ry.": 4}, {"\u2581converts": 4}, {"\u2581stranger": 4}, {"\u2581comb": 4}, {"\u2581toy": 4}, {"\u2581graphics": 4}, {"unt": 4}, {"\u2581knowledge,": 4}, {"\u2581upgrad": 4}, {"\u2581Toy": 4}, {"\u2581bots": 4}, {"\u2581spare": 4}, {"\u2581left.": 4}, {"\u2581cape": 4}, {"\u2581helpful.": 4}, {"\u2581intentionally": 4}, {"\u2581pace": 4}, {"\u2581fart": 4}, {"\u2581Applies": 4}, {"\u2581clock": 4}, {"\u2581rental": 4}, {"\u2581standing": 4}, {"amine": 4}, {"\u2581appro": 4}, {"endent": 4}, {"\u2581ext": 4}, {"\u2581mean,": 4}, {"\u2581bar,": 4}, {"\u2581Pushing": 4}, {"\u2581achievable": 4}, {"\u2581Firmware": 4}, {"\u2581description": 4}, {"-C": 4}, {"\u2581however": 4}, {"\u2581Recommend": 4}, {"\u2581sequ": 4}, {"\u2581inform": 4}, {"tr": 4}, {"\u2581tension": 4}, {"\u2581sounds.": 4}, {"\u2581Diess": 4}, {"\u2581(also": 4}, {"\u2581Vast": 4}, {"\u2581civilian": 4}, {"\u2581military": 4}, {"\u2581ce": 4}, {"\u2581exchang": 4}, {"\u2581planes": 4}, {"ments.": 4}, {"\u2581/1": 4}, {"\u2581invent": 4}, {"\u2581rich": 4}, {"ash": 4}, {"\u2581role.": 4}, {"\u2581Michael": 4}, {"\u2581~Q": 4}, {"\u2581Q1": 4}, {"\u2581homes": 4}, {"\u2581detected": 4}, {"\u2581crushes": 4}, {"\u2581flag": 4}, {"\u2581victory": 4}, {"\u2581jazz": 4}, {"\u2581specialized": 4}, {"\u2581render.": 4}, {"\u2581complicated": 4}, {"piring": 4}, {"\u2581balls": 4}, {"\u2581cooled": 4}, {"\u2581gantry": 4}, {"\u2581absorption": 4}, {"\u2581rails": 4}, {"\u2581bol": 4}, {"\u2581Sandy": 4}, {"\u2581continuously": 4}, {"\u2581inertia.": 4}, {"uts": 4}, {"\u2581Marg": 4}, {"inal": 4}, {"\u2581*far*": 4}, {"\u2581opened": 4}, {"\u2581northern": 4}, {"ution": 4}, {"\u2581intake": 4}, {"\u2581Larger": 4}, {"\u2581Powerglide": 4}, {"\u2581writ": 4}, {"\u2581outstanding": 4}, {"\u2581sequel": 4}, {"\u2581skip": 4}, {"\u2581avionics,": 4}, {"\u2581frequently": 4}, {"\u2581satellites,": 4}, {"\u2581telesc": 4}, {"\u2581longitudinal": 4}, {"\u2581circumferential": 4}, {"\u2581Weld": 4}, {"\u2581er": 4}, {"\u2581unlikely.": 4}, {"\u2581referring": 4}, {"\u2581duty,": 4}, {"\u2581Completely": 4}, {"\u2581cartoon": 4}, {"\u2581mixture": 4}, {"\u2581drawing": 4}, {"\u2581Nose": 4}, {"\u2581appealing": 4}, {"\u2581ratio,": 4}, {"\u2581demonstrated": 4}, {"\u2581Microsoft": 4}, {"\u2581(most": 4}, {"\u2581understood.": 4}, {"\u2581fore": 4}, {"\u2581stability": 4}, {"\u2581analysis,": 4}, {"\u2581autocorrect": 4}, {"\u2581web": 4}, {"\u2581FP32": 4}, {"\u2581semi": 4}, {"\u2581building.": 4}, {"\u2581north": 4}, {"\u2581PayPal": 4}, {"\u2581Fact": 4}, {"elter": 4}, {"ault": 4}, {"\u2581Story": 4}, {"\u2581today?": 4}, {"\u2581limiting": 4}, {"\u2581behind.": 4}, {"\u2581Neuralinks": 4}, {"\u2581Movie": 4}, {"\u2581wearing": 4}, {"\u2581excitement": 4}, {"\u2581fire,": 4}, {"rick": 4}, {"\u2581tools": 4}, {"\u2581contingent": 4}, {"\u2581hvac": 4}, {"lich": 4}, {"\u2581mach": 4}, {"\u2581formula": 4}, {"\u2581startups,": 4}, {"\u2581parallel.": 4}, {"\u2581chess": 4}, {"\u2581R&amp": 4}, {"\u2581body/chassis": 4}, {"\u2581electronics": 4}, {"me": 4}, {"\u2581(A": 4}, {"\u2581computers.": 4}, {"\u2581lossy": 4}, {"\u2581vacuum.": 4}, {"\u2581fle": 4}, {"\u2581SN5,": 4}, {"\u2581Vi": 4}, {"erv": 4}, {"rag": 4}, {"\u2581Trust": 4}, {"\u2581picking": 4}, {"\u2581Straw": 4}, {"\u2581Field": 4}, {"ob": 4}, {"\u2581vaccine": 4}, {"\u2581James": 4}, {"\u2581Penn": 4}, {"\u2581mechanics": 4}, {"\u2581mut": 4}, {"\u2581unfortunately": 4}, {"\u2581Nonetheless,": 4}, {"\u2581encounter": 4}, {"rained": 4}, {"\u2581sustain": 4}, {"\u2581Bra": 4}, {"\u2581carried": 4}, {"\u2581parent": 4}, {"\u2581very,": 4}, {"izer": 4}, {"\u2581stays": 4}, {"\u2581Length": 4}, {"zen": 4}, {"\u2581dens": 4}, {"\u2581dot": 4}, {"\u2581help,": 4}, {"\u2581techn": 4}, {"\u2581ein": 4}, {"\u2581lake": 4}, {"\u2581voted": 4}, {"az": 4}, {"\u2581inherently": 4}, {"\u2581hydrocarbons": 4}, {"\u2581payment": 4}, {"rop": 4}, {"\u2581counter-intuitive": 4}, {"\u2581(high": 4}, {"\u2581Payload": 4}, {"\u2581nuts": 4}, {"\u2581squeeze": 4}, {"\u2581compress": 4}, {"\u2581nut": 4}, {"\u2581locally": 4}, {"\u2581(S": 4}, {"\u2581cru": 4}, {"\u2581swiftly": 4}, {"\u2581flameout": 4}, {"omet": 4}, {"\u2581Bold": 4}, {"\u2581History": 4}, {"\u2581Wikipedia": 4}, {"\u2581pl": 4}, {"ural": 4}, {"\u2581consistency": 4}, {"\u2581~0.0": 4}, {"\u2581insights": 4}, {"\u2581approximately": 4}, {"\u2581Absolutely,": 4}, {"\u2581remotely": 4}, {"\u2581sooo": 4}, {"\u2581Asteroid": 4}, {"\u2581validation": 4}, {"\u2581bump": 4}, {"\u2581zillion": 4}, {"\u2581architectural": 4}, {"\u2581damp": 4}, {"\u2581odds": 4}, {"\u2581impressive.": 4}, {"\u2581continues,": 4}, {"\u2581endorse": 4}, {"\u2581neutral": 4}, {"\u2581received.": 4}, {"\u2581airplanes": 4}, {"\u2581Complex": 4}, {"\u2581fab": 4}, {"\u2581cousins": 4}, {"\u2581dil": 4}, {"\u2581interests": 4}, {"\u2581docile": 4}, {"\u2581Merlin.": 4}, {"con": 4}, {"\u2581SuperDraco": 4}, {"\u2581Difficulty": 4}, {"\u2581Egypt": 4}, {"\u2581stands": 4}, {"\u2581Things": 4}, {"\u2581stake": 4}, {"\u2581neurons": 4}, {"\u2581Link": 4}, {"cle": 4}, {"\u2581Utah": 4}, {"\u2581fir": 4}, {"ren": 4}, {"\u2581sedan": 4}, {"\u2581buggy": 4}, {"\u2581trial": 4}, {"\u2581behavior.": 4}, {"\u2581Whether": 4}, {"\u2581beer": 4}, {"\u2581pref": 4}, {"\u2581Planet": 4}, {"\u2581blue": 4}, {"\u2581fac": 4}, {"\u2581Turning": 4}, {"\u2581outdo": 4}, {"\u2581!!": 4}, {"\u2581whom": 4}, {"late": 4}, {"\u2581univers": 4}, {"\u2581$1.": 4}, {"\u2581Competition": 4}, {"ire,": 4}, {"\u2581remarkably": 4}, {"\u2581insightful": 4}, {"\u2581stage,": 4}, {"\u2581constrain": 4}, {"\u2581seated": 4}, {"\u2581invol": 4}, {"\u2581Gas": 4}, {"\u2581Brian": 4}, {"ents": 4}, {"\u2581methods,": 4}, {"\u2581names": 4}, {"ann": 4}, {"\u2581ke": 4}, {"\u2581av": 4}, {"son": 4}, {"/e": 4}, {"\u2581(ch": 4}, {"chan": 4}, {"\u2581valu": 4}, {"\u2581negativity": 4}, {"\u2581retire": 4}, {"\u2581database": 4}, {"\u2581allocation.": 4}, {"\u2581happens,": 4}, {"\u2581Population": 4}, {"en,": 4}, {"ale": 4}, {"\u2581Play": 4}, {"\u2581launches,": 4}, {"\u2581airplane": 4}, {"\u2581paramount": 4}, {"\u2581anytime": 4}, {"\u2581Korolev": 4}, {"\u2581sens": 4}, {"ons.": 4}, {"\u2581Aug": 4}, {"\u2581interviews,": 4}, {"wise": 4}, {"\u2581Words": 4}, {"ate,": 4}, {"\u2581Age": 4}, {"\u2581edition": 4}, {"-P": 4}, {"\u2581denial": 4}, {"ount": 4}, {"ended": 4}, {"\u2581why?": 4}, {"j": 4}, {"\u2581Vanity": 4}, {"\u2581VF": 4}, {"ining": 4}, {"\u2581card": 4}, {"\u2581number.": 4}, {"\u2581efficient,": 4}, {"\u2581suitcase": 4}, {"\u2581party.": 4}, {"\u2581cards": 4}, {"\u2581deck": 4}, {"\u2581trials": 4}, {"\u2581Article": 4}, {"ently": 4}, {"ouch": 4}, {"\u2581trolls": 4}, {"\u2581introdu": 4}, {"\u2581Front": 4}, {"\u2581SEC": 4}, {"\u2581Commission": 4}, {"\u2581trade": 4}, {"\u2581cherry": 4}, {"\u2581thes": 4}, {"\u2581principle,": 4}, {"\u2581accur": 4}, {"\u2581owners.": 4}, {"ness,": 4}, {"ield": 4}, {"*,": 4}, {"\u2581tests,": 4}, {"\u2581receives": 4}, {"\u2581Dogs": 4}, {"\u2581shared": 4}, {"\u2581memes,": 4}, {"\u2581renewables": 4}, {"\u2581trucking": 4}, {"\u2581Apologies": 4}, {"\u2581Europe,": 4}, {"\u2581experience,": 4}, {"\u2581creator": 4}, {"abil": 4}, {"\u2581innovation": 4}, {"\u2581PC,": 4}, {"\u2581Half": 4}, {"\u2581structure.": 4}, {"\u2581postpone": 4}, {"\u2581Opening": 4}, {"ape": 4}, {"\u2581flaming": 4}, {"\u2581Tank": 4}, {"\u2581supports": 4}, {"\u2581Raptor,": 4}, {"\u2581ms.": 4}, {"\u2581order.": 4}, {"\u2581Kath": 4}, {"arter": 4}, {"\u2581plane.": 4}, {"\u2581cheaper": 4}, {"\u2581retweet": 4}, {"ont": 4}, {"\u2581goes,": 4}, {"\u2581insulation": 4}, {"place": 4}, {"\u2581subcooled": 4}, {"\u2581CH4/O2": 4}, {"oting": 4}, {"iding": 4}, {"\u2581Reading": 4}, {"itted": 4}, {"\u2581heatshield": 4}, {"\u2581former": 4}, {"\u2581broadly": 4}, {"\u2581prime": 4}, {"\u2581crash.": 4}, {"\u2581adventure": 4}, {"\u2581Neil": 4}, {"\u2581windows,": 4}, {"\u2581charged": 4}, {"\u2581countdown": 4}, {"\u2581cancell": 4}, {"\u2581disad": 4}, {"\u2581convey": 4}, {"\u2581upset": 4}, {"-level": 4}, {"\u2581plethora": 4}, {"\u2581Smith": 4}, {"\u2581citizen": 4}, {"\u2581remarkable": 4}, {"\u2581owns": 4}, {"\u2581connect": 4}, {"\u2581Candy": 4}, {"\u2581bodies": 4}, {"\u2581fam": 4}, {"\u2581Florida.": 4}, {"\u2581Operating": 4}, {"\u2581valid": 4}, {"\u2581unelected": 4}, {"\u2581Said": 4}, {"\u2581Jared": 4}, {"\u2581policies": 4}, {"\u2581Personally,": 4}, {"\u2581margin.": 4}, {"\u2581County": 4}, {"\u2581else.": 4}, {"\u2581arrest": 4}, {"\u2581Mayor": 4}, {"orter": 4}, {"\u2581Count": 4}, {"\u2581Nevada.": 4}, {"ada": 4}, {"\u2581lawsuit": 4}, {"\u2581Pain": 4}, {"\u2581(78%": 4}, {"/ton": 4}, {"\u2581~$10": 4}, {"\u2581mirrors": 4}, {"\u2581tastes": 4}, {"\u2581Peak": 4}, {"ded": 4}, {"\u2581tragic": 4}, {"\u2581Ice": 4}, {"illing": 4}, {"\u2581methane": 4}, {"\u2581engineers,": 4}, {"\u2581technology!": 4}, {"\u2581them!": 4}, {"\u2581vib": 4}, {"1,": 4}, {"\u2581rigor": 4}, {"\u2581distinguish": 4}, {"\u2581deny": 4}, {"\u2581accelerates": 4}, {"ites": 4}, {"\u2581all-time": 4}, {"d,": 4}, {"\u2581Freedom": 4}, {"\u2581brave": 4}, {"ession": 4}, {"\u2581weigh": 4}, {"\u2581rage": 4}, {"\u2581cheap": 4}, {"\u2581Incent": 4}, {"\u2581corona": 4}, {"\u2581Brav": 4}, {"\u2581Bon": 4}, {"\u2581appropriate": 4}, {"\u2581Kind": 4}, {"\u2581switching": 4}, {"\u2581plate.": 4}, {"\u2581manufacturing.": 4}, {"\u2581Romance": 4}, {"\u2581describ": 4}, {"\u2581serial": 4}, {"\u2581designing": 4}, {"\u2581Being": 4}, {"\u2581standard.": 4}, {"\u2581requirement": 4}, {"\u2581Mean": 4}, {"\u2581Dick": 4}, {"pro": 4}, {"cess": 4}, {"\u2581economy.": 4}, {"\u2581deorbit": 4}, {"ades": 4}, {"\u2581warranty": 4}, {"stand": 4}, {"\u2581overst": 4}, {"\u2581mask": 4}, {"\u2581returns": 4}, {"\u2581simplicity": 4}, {"aring": 4}, {"\u2581dynamic": 4}, {"\u2581shipment": 4}, {"\u2581unaware": 4}, {"ems": 4}, {"\u2581misunder": 4}, {"\u2581CNN": 4}, {"\u2581intub": 4}, {"\u2581offers": 4}, {"aut": 4}, {"\u2581capacity.": 4}, {"\u2581Initial": 4}, {"\u2581cool,": 4}, {"ides": 4}, {"\u2581helicopter": 4}, {"\u2581flood": 4}, {"\u2581interstage": 4}, {"\u2581Philips": 4}, {"\u2581lung": 4}, {"inding": 4}, {"ush": 4}, {"\u2581repaid": 4}, {"\u2581less.": 4}, {"\u2581astronaut": 4}, {"edy": 4}, {"na": 4}, {"\u2581technolog": 4}, {"\u2581af": 4}, {"\u2581wanting": 4}, {"ki": 4}, {"\u2581Each": 4}, {"\u2581ft,": 4}, {"\u2581section.": 4}, {"\u2581safe.": 4}, {"\u2581SN3": 4}, {"\u2581metro": 4}, {"\u2581request.": 4}, {"\u2581transitioning": 4}, {"\u2581Mel": 4}, {"\u2581brilliant": 4}, {"\u2581Credit": 4}, {"\u2581devices": 4}, {"\u2581stro": 4}, {"\u2581~150": 4}, {"\u2581entering": 4}, {"\u2581ventilators,": 4}, {"\u2581gro": 4}, {"\u2581preventing": 4}, {"/p": 4}, {"\u2581pressing": 4}, {"\u2581CDC": 4}, {"\u2581pls": 4}, {"\u2581aw": 4}, {"q": 4}, {"\u2581integr": 4}, {"ity,": 4}, {"ipped": 4}, {"\u2581installed,": 4}, {"\u2581arr": 4}, {"\u2581Italy": 4}, {"200": 4}, {"\u2581Pan": 4}, {"\u2581ve": 4}, {"\u2581shortage": 4}, {"\u2581harm": 4}, {"\u2581sophisticated": 4}, {"\u2581difficult,": 4}, {"\u2581Th": 4}, {"ough": 4}, {"\u2581functions": 4}, {"\u2581length.": 4}, {"\u2581So,": 4}, {"\u2581alloys": 4}, {"izon": 4}, {"ality": 4}, {"\u2581weapon": 4}, {"\u2581knowing": 4}, {"\u2581reward": 4}, {"\u2581Former": 4}, {"\u2581Gigafactory.": 4}, {"\u2581mega": 4}, {"\u2581killed": 4}, {"\u2581Starship/Raptor": 4}, {"\u2581facilities": 4}, {"\u2581kit": 4}, {"\u2581(at": 4}, {"\u2581Ra": 4}, {"\u2581standards": 4}, {"\u2581complain": 4}, {"\u2581V2": 4}, {"\u2581vital": 4}, {"\u2581cryo.": 4}, {"\u2581foundation": 4}, {"\u2581centur": 4}, {"\u2581cones": 4}, {"\u2581(v": 4}, {"\u2581~8": 4}, {"\u2581payloads": 4}, {"\u2581balance": 4}, {"\u2581Consider": 4}, {"\u2581thin": 4}, {"\u2581quality.": 4}, {"ader": 4}, {"\u2581hammer": 4}, {"\u2581signals": 4}, {"\u2581Reg": 4}, {"\u2581gradually": 4}, {"iously": 4}, {"\u2581stated": 4}, {"\u2581unlock": 4}, {"\u2581speeds": 4}, {"\u2581beating": 4}, {"\u2581survive": 4}, {"\u2581brand": 4}, {"\u2581Mid": 4}, {"\u2581Leg": 4}, {"U": 4}, {"\u2581Term": 4}, {"\u2581seamlessly": 4}, {"\u2581hypothes": 4}, {"\u2581tuning": 4}, {"\u2581precision,": 4}, {"\u2581tower,": 4}, {"\u2581glass.": 4}, {"\u2581quotes": 4}, {"\u2581hottest": 4}, {"\u2581career": 4}, {"\u2581Conc": 4}, {"\u2581shifts": 4}, {"\u2581personnel": 4}, {"worth": 4}, {"iness": 4}, {"\u2581(B": 4}, {"\u2581use,": 4}, {"\u2581(p": 4}, {"ital": 4}, {"br": 4}, {"/h": 4}, {"\u2581(obv": 4}, {"\u2581arrays": 4}, {"\u2581NN,": 4}, {"ign": 4}, {"\u2581Des": 4}, {"\u2581clicks": 4}, {"\u2581seem.": 4}, {"\u2581comparable": 4}, {"\u2581enjoying": 4}, {"\u2581IS": 4}, {"board": 4}, {"\u2581adapt": 4}, {"\u2581anticip": 4}, {"\u2581Gold": 4}, {"\u2581Netflix": 4}, {"\u2581couldve": 4}, {"\u2581domain": 4}, {"\u2581&gt;100": 4}, {"lowing": 4}, {"\u2581surface,": 4}, {"\u2581motiv": 4}, {"\u2581MRI": 4}, {"\u2581conservative": 4}, {"\u2581*st": 4}, {"\u2581staggering": 4}, {"\u2581emojis": 4}, {"\u2581confusion": 4}, {"\u2581turbopumps": 4}, {"rel": 4}, {"\u2581conditions,": 4}, {"eak": 4}, {"\u2581Master": 4}, {"LI": 4}, {"\u2581thin,": 4}, {"orn": 4}, {"\u2581rapidly,": 4}, {"\u2581COPV": 4}, {"\u2581arc": 4}, {"\u2581reduction.": 4}, {"\u2581Simulation": 4}, {"arian": 4}, {"\u2581little,": 4}, {"\u2581choc": 4}, {"\u2581coming,": 4}, {"\u2581efforts": 4}, {"\u2581suggestion": 4}, {"\u2581Bach": 4}, {"\u2581caus": 4}, {"\u2581Went": 4}, {"\u2581Univ": 4}, {"\u2581tweet.": 4}, {"uilt": 4}, {"\u2581Greg": 4}, {"\u2581college,": 4}, {"\u2581debt.": 4}, {"\u2581Zip2,": 4}, {"\u2581from?": 4}, {"\u2581physics.": 4}, {"\u2581stars,": 4}, {"\u2581(from": 4}, {"\u2581fringe": 4}, {"\u2581pillar": 4}, {"\u2581(diagonal": 4}, {"\u2581swipe": 4}, {"\u2581calend": 4}, {"ot.": 4}, {"\u2581wanna": 4}, {"pper": 4}, {"\u2581update,": 4}, {"\u2581Q1.": 4}, {"\u2581finding": 4}, {"\u2581resolve": 4}, {"\u2581proceeds": 4}, {"\u2581insane!": 4}, {"\u2581$$$": 4}, {"\u2581Hol": 4}, {"\u2581gift": 4}, {"\u2581smith": 4}, {"\u2581access,": 4}, {"\u2581Valley,": 4}, {"\u2581mcu": 4}, {"\u2581(better": 4}, {"\u2581indicates": 4}, {"\u2581Propulsion": 4}, {"\u2581skull": 4}, {"\u2581Until": 4}, {"\u2581function,": 4}, {"\u2581junkyard.": 4}, {"\u2581junkyard": 4}, {"\u2581repairs,": 4}, {"\u2581replacing": 4}, {"\u2581Mitchell": 4}, {"\u2581Gigawatt": 4}, {"\u2581desert": 4}, {"\u2581anywhere)": 4}, {"\u2581calcs": 4}, {"\u2581generates": 4}, {"\u2581doorstep": 4}, {"\u2581ow": 4}, {"\u2581dainty": 4}, {"\u2581cracked": 4}, {"\u2581sledgehammer": 4}, {"\u2581door.": 4}, {"\u2581F-150": 4}, {"\u2581Really?": 4}, {"\u2581less,": 4}, {"\u2581Marqu": 4}, {"\u2581self-power": 4}, {"\u2581Avg": 4}, {"\u2581Shanghai.": 4}, {"\u2581Fun": 4}, {"\u2581pathfinder,": 4}, {"\u2581Chanos": 4}, {"\u2581worthless": 4}, {"\u2581overr": 4}, {"\u2581Mord": 4}, {"\u2581Pri": 4}, {"\u2581Meaning": 4}, {"\u2581AGI.": 4}, {"olo": 4}, {"\u2581batteries,": 4}, {"\u2581thrust/year": 4}, {"\u2581confined": 4}, {"\u2581extinction": 4}, {"\u2581mind-b": 4}, {"\u2581famili": 4}, {"\u2581Nat": 4}, {"urally": 4}, {"\u2581Pitch": 4}, {"\u2581Force.": 4}, {"\u2581poem": 4}, {"\u2581Airborn": 4}, {"\u2581Walking": 4}, {"\u2581snacks": 4}, {"\u2581disaster": 4}, {"ient": 4}, {"alt": 4}, {"\u2581roofs.": 4}, {"\u2581google": 4}, {"\u2581wildfire": 4}, {"owerwall": 4}, {"\u2581worldwide!": 4}, {"\u2581chemical": 4}, {"\u2581Zill": 4}, {"ow.": 4}, {"\u2581disast": 4}, {"\u2581lovely": 4}, {"\u2581strongest": 4}, {"\u2581inert": 4}, {"\u2581Gwynne": 4}, {"\u2581earliest": 4}, {"\u2581lifespan": 4}, {"\u2581FUD": 4}, {"\u2581V1,": 4}, {"\u2581profitable": 4}, {"\u2581Internal": 4}, {"\u2581asymmetry": 4}, {"\u2581Common": 4}, {"\u2581Couple": 4}, {"60": 4}, {"\u2581t-F": 4}, {"\u2581~380": 4}, {"\u2581&lt;1": 4}, {"\u2581guesses": 4}, {"\u2581refueling": 4}, {"ites.": 4}, {"\u2581spac": 4}, {"\u2581drain": 4}, {"\u2581rain,": 4}, {"\u2581pot": 4}, {"\u2581carrier": 4}, {"\u2581senior": 4}, {"\u2581robotaxi,": 4}, {"\u2581RD": 4}, {"W,": 4}, {"\u2581authority": 4}, {"\u2581blackouts.": 4}, {"\u2581outages": 4}, {"\u2581caraoke": 4}, {"\u2581karaoke": 4}, {"\u2581siq": 4}, {"\u2581hinge": 4}, {"\u2581worth,": 4}, {"etta": 4}, {"\u2581two,": 4}, {"\u2581prototype,": 4}, {"\u2581pink": 4}, {"\u2581customized": 4}, {"\u2581psi": 4}, {"\u2581Boca!": 4}, {"\u2581feedback.": 4}, {"\u2581authorities.": 4}, {"\u2581exactly.": 4}, {"\u2581Provid": 4}, {"\u2581redundancy": 4}, {"\u2581transp": 4}, {"\u2581viewing": 4}, {"\u2581maps": 4}, {"\u2581T^4": 4}, {"\u2581skydiver": 4}, {"\u2581Foundry": 4}, {"\u2581exclusively": 4}, {"/sh": 4}, {"\u2581Approximately": 4}, {"\u2581ACS": 4}, {"\u2581rear,": 4}, {"\u2581Stability": 4}, {"\u2581leg.": 4}, {"\u2581vessel": 4}, {"ned": 4}, {"\u2581e^": 4}, {"\u2581Je": 4}, {"\u2581regrette": 4}, {"\u2581lap": 4}, {"ov": 4}, {"\u2581Feeling": 4}, {"\u2581Lucky": 4}, {"\u2581(G": 4}, {"\u2581engage": 4}, {"\u2581negoti": 4}, {"\u2581Ireland": 4}, {"\u2581products,": 4}, {"\u2581incentives,": 4}, {"\u2581premise": 4}, {"\u2581smoke": 4}, {"\u2581Speedrapt": 4}, {"\u2581vibration": 4}, {"\u2581acoustic": 4}, {"\u2581fireball": 4}, {"\u2581concepts": 4}, {"\u2581Travel": 4}, {"\u2581angels": 4}, {"\u2581Probability": 4}, {"\u2581permanently": 4}, {"\u2581poison": 4}, {"\u2581Gasoline": 4}, {"\u2581Anywhere": 4}, {"\u2581avg.": 4}, {"\u2581Slow": 4}, {"\u2581th,": 4}, {"\u2581assembled": 4}, {"\u2581Appears": 4}, {"\u2581wiring": 4}, {"\u2581Ign": 4}, {"\u2581Hopper.": 4}, {"\u2581Nuke": 4}, {"\u2581Raptors,": 4}, {"view": 4}, {"\u2581relaunch": 4}, {"\u2581United": 4}, {"\u2581States": 4}, {"\u2581immense": 4}, {"\u2581reinforce": 4}, {"\u2581hazard": 4}, {"\u2581Stacking": 4}, {"\u2581Obviously": 4}, {"\u2581FAA,": 4}, {"\u2581aspires": 4}, {"\u2581immers": 4}, {"\u2581$100B": 4}, {"\u2581Priority": 4}, {"\u2581rect": 4}, {"\u2581Spirit": 4}, {"\u2581language": 4}, {"\u2581accident.": 4}, {"\u2581factor.": 4}, {"ates.": 4}, {"\u2581candy.": 4}, {"\u2581Eric": 4}, {"\u2581explaining": 4}, {"\u2581pros": 4}, {"\u2581funded": 4}, {"/week": 4}, {"\u2581sonic": 4}, {"\u2581preferred": 4}, {"\u2581Rob": 4}, {"\u2581Centers": 4}, {"\u2581half.": 4}, {"\u2581Bluetooth": 4}, {"\u2581enjoyed": 4}, {"\u2581Unity": 4}, {"\u2581storage.": 4}, {"\u2581Drone": 4}, {"\u2581*can*": 4}, {"\u2581emissivity": 4}, {"\u2581yellow": 4}, {"\u2581config,": 4}, {"\u2581fairings": 4}, {"\u2581transit,": 4}, {"\u2581Dance": 4}, {"\u2581tower.": 4}, {"\u2581avoidance": 4}, {"\u2581bothered": 4}, {"\u2581robots,": 4}, {"\u2581outcome,": 4}, {"\u2581path.": 4}, {"\u2581dislike": 4}, {"5k": 4}, {"\u2581hours/week": 4}, {"\u2581~60": 4}, {"\u2581pearl": 4}, {"\u2581Starts": 4}, {"\u2581Gra": 4}, {"\u2581bets": 4}, {"\u2581plane,": 4}, {"\u2581in-depth": 4}, {"\u2581Tu": 4}, {"\u2581agree,": 4}, {"\u2581refresh": 4}, {"pace": 4}, {"\u2581surpris": 4}, {"\u2581payload,": 4}, {"\u2581Upgrading": 4}, {"\u2581mall": 4}, {"\u2581challenges.": 4}, {"\u2581~500k": 4}, {"can": 4}, {"\u2581D&amp": 4}, {"\u2581sheets": 4}, {"\u2581returning": 4}, {"\u2581Playing": 4}, {"\u2581~5": 4}, {"\u2581poured": 4}, {"erg": 4}, {"\u2581noticed,": 4}, {"\u2581monop": 4}, {"\u2581coaster.": 4}, {"\u2581architecture.": 4}, {"\u2581(essentially)": 4}, {"\u2581Altitude": 4}, {"\u2581breathe": 4}, {"\u2581drink": 4}, {"\u2581Chomsky": 4}, {"\u2581soci": 4}, {"\u2581thrott": 4}, {"\u2581limitations": 4}, {"\u2581stiffness": 4}, {"\u2581Swear": 4}, {"\u2581velocity.": 4}, {"\u2581shock": 4}, {"\u2581reusability,": 4}, {"\u2581bearings": 4}, {"\u2581gre": 4}, {"\u2581simplifying": 4}, {"\u2581~$1": 4}, {"\u2581~70%": 4}, {"\u2581st,": 4}, {"\u2581synchron": 4}, {"\u2581belong": 4}, {"\u2581overp": 4}, {"\u2581Rand": 4}, {"\u2581estimate": 4}, {"\u2581Changing": 4}, {"\u2581pal": 4}, {"\u2581service,": 4}, {"\u2581(same": 4}, {"\u2581Missed": 4}, {"\u2581chariot": 4}, {"\u2581worse,": 4}, {"\u2581unwield": 4}, {"\u2581$500": 4}, {"\u2581hire": 4}, {"\u2581Norway!": 4}, {"\u2581worthwhile": 4}, {"\u2581tunnels,": 4}, {"/l": 4}, {"\u2581dozens": 4}, {"\u2581subway": 4}, {"\u2581Scientists": 4}, {"\u2581filter.": 4}, {"\u2581ease": 4}, {"ances": 4}, {"\u2581SSTO.": 4}, {"\u2581fear,": 4}, {"\u2581revert": 4}, {"\u2581links,": 4}, {"\u2581~0%": 4}, {"\u2581Atmospheric": 4}, {"\u2581steering.": 4}, {"\u2581ISS": 4}, {"\u2581darkness": 4}, {"\u2581Krypton": 4}, {"\u2581Thus": 4}, {"\u2581elevators": 4}, {"\u2581publications": 4}, {"\u2581tied": 4}, {"\u2581lanes": 4}, {"\u2581direction.": 4}, {"\u2581ion": 4}, {"\u2581online,": 4}, {"\u2581tours": 4}, {"\u2581fan-looking": 4}, {"\u2581inducer": 4}, {"\u2581impell": 4}, {"\u2581horsepower": 4}, {"\u2581porting": 4}, {"\u2581eventually,": 4}, {"\u2581pedal": 4}, {"\u2581Port": 4}, {"\u2581shield,": 4}, {"\u2581surrounding": 4}, {"\u2581Set": 4}, {"\u2581resistance": 4}, {"\u2581gained": 4}, {"\u2581sites": 4}, {"\u2581Wednesday": 4}, {"\u2581coverage,": 4}, {"\u2581loaded": 4}, {"\u2581decreasing": 4}, {"\u2581purple": 4}, {"\u2581glovebox": 4}, {"\u2581hr": 4}, {"\u2581ich": 4}, {"\u2581lower,": 4}, {"\u2581Finnish": 4}, {"\u2581Rock": 4}, {"alf": 4}, {"\u2581speaking": 4}, {"\u2581demonstrate": 4}, {"\u2581inconvenience": 4}, {"\u2581WiFi": 4}, {"\u2581Sensors": 4}, {"\u2581follows": 4}, {"\u2581Dane": 4}, {"\u2581Marvin": 4}, {"\u2581courses": 4}, {"ier.": 4}, {"\u2581Nvidia": 4}, {"K.": 4}, {"\u2581effort.": 4}, {"\u2581Kong": 4}, {"ica": 4}, {"\u2581sentient,": 4}, {"\u2581rech": 4}, {"arge": 4}, {"\u2581externally": 4}, {"\u2581ignoring": 4}, {"\u2581article,": 4}, {"\u2581deaths,": 4}, {"\u2581standard?": 4}, {"\u2581automakers": 4}, {"\u2581hours,": 4}, {"\u2581accounting": 4}, {"\u2581hardcore.": 4}, {"\u2581pegg": 4}, {"\u2581computation": 4}, {"\u2581hrs": 4}, {"\u2581rpm": 4}, {"of": 4}, {"\u2581horse": 4}, {"\u2581tho.": 4}, {"\u2581relentlessly": 4}, {"\u2581*all*": 4}, {"urn": 4}, {"acing": 4}, {"\u2581hello": 4}, {"\u2581consistent": 4}, {"\u2581recovered.": 4}, {"\u2581explained": 4}, {"\u2581overcome": 4}, {"\u2581Del": 4}, {"ath": 4}, {"\u2581HW3": 4}, {"\u2581ability.": 4}, {"\u2581pun": 4}, {"\u2581nobody": 4}, {"\u2581VAT": 4}, {"\u2581prices.": 4}, {"ensive": 4}, {"bert": 4}, {"\u2581Kelvin": 4}, {"ables.": 4}, {"\u2581S3X": 4}, {"\u2581Prices": 4}, {"\u2581batch": 4}, {"\u2581permanent": 4}, {"\u2581inverter": 4}, {"\u2581Assuming": 4}, {"\u2581exec": 4}, {"\u2581chutes": 4}, {"gn": 4}, {"ator,": 4}, {"\u2581rout": 4}, {"\u2581Supercharg": 4}, {"\u2581Truck": 4}, {"\u2581specs": 4}, {"\u2581docked": 4}, {"\u2581$3": 4}, {"\u2581Exp": 4}, {"\u2581Kestrel": 4}, {"\u2581Highest": 4}, {"\u2581sphere": 4}, {"\u2581massive,": 4}, {"ME": 4}, {"\u2581Limiting": 4}, {"\u2581chief": 4}, {"\u2581addition": 4}, {"\u2581Update": 4}, {"\u2581Updating": 4}, {"BC": 4}, {"\u2581weighs": 4}, {"\u2581goodwill": 4}, {"ge,": 4}, {"\u2581radi": 4}, {"ches": 4}, {"form": 4}, {"\u2581engine!": 4}, {"\u2581reaction": 4}, {"\u2581Preparing": 4}, {"\u2581logo": 4}, {"\u2581grandfather": 4}, {"\u2581Minnes": 4}, {"\u2581moo": 4}, {"\u2581qual": 4}, {"\u2581opening.": 4}, {"\u2581Body": 4}, {"\u2581(w": 4}, {"\u2581Plus": 4}, {"\u2581California.": 4}, {"\u2581bott": 4}, {"\u2581Singapore": 4}, {"\u2581Lee": 4}, {"\u2581dish": 4}, {"\u2581gas.": 4}, {"\u2581pumps": 4}, {"\u2581suppli": 4}, {"\u2581fl": 4}, {"\u2581launchpad": 4}, {"ized.": 4}, {"\u2581connecting": 4}, {"\u2581(L": 4}, {"\u2581aspiration": 4}, {"\u2581(us": 4}, {"\u2581bank": 4}, {"\u2581roads,": 4}, {"\u2581Loop": 4}, {"15": 4}, {"\u2581retract": 4}, {"\u2581Cl": 4}, {"\u2581edited": 4}, {"\u2581wait.": 4}, {"\u2581dinner": 4}, {"\u2581be,": 4}, {"\u2581alternative": 4}, {"\u2581spring": 4}, {"\u2581Us": 4}, {"\u2581S/3/X": 4}, {"\u2581artists": 4}, {"aming": 4}, {"\u2581intro": 4}, {"\u2581Spr": 4}, {"\u2581scene": 4}, {"\u2581entrance": 4}, {"\u2581contracts": 4}, {"used": 4}, {"ixed": 4}, {"\u2581Zeroth": 4}, {"\u2581nu": 4}, {"\u2581budget": 4}, {"\u2581geograph": 4}, {"\u2581Nevada": 4}, {"ater": 4}, {"\u2581sight": 4}, {"\u2581uncover": 4}, {"\u2581Sir": 4}, {"\u2581im": 4}, {"\u2581pu": 4}, {"\u2581Dual": 4}, {"\u2581Contin": 4}, {"where": 4}, {"\u2581(of": 4}, {"aker": 4}, {"\u2581subs": 4}, {"\u2581Sonic": 4}, {"\u2581equity": 4}, {"\u2581shorting": 4}, {"\u2581investors,": 4}, {"\u2581divide": 4}, {"ishing": 4}, {"ld": 4}, {"\u2581forget": 4}, {"\u2581impacts": 4}, {"\u2581hell,": 4}, {"\u2581firm": 4}, {"\u2581Ends": 4}, {"\u2581volcano": 4}, {"lass": 4}, {"\u2581parents": 4}, {"\u2581sued": 4}, {"\u2581Comm": 4}, {"\u2581Land": 4}, {"pped": 4}, {"\u2581thought.": 4}, {"\u2581Excess": 4}, {"\u2581pose": 4}, {"ource": 4}, {"bo": 4}, {"\u2581Reminds": 4}, {"\u2581Believe": 4}, {"\u2581liquidity": 4}, {"\u2581prosper": 4}, {"\u2581advise": 4}, {"\u2581(ne": 4}, {"aid": 4}, {"\u2581classic": 4}, {"\u2581back,": 4}, {"\u2581economics.": 4}, {"\u2581Think": 4}, {"\u2581Twitter.": 4}, {"ney": 4}, {"\u2581savings": 4}, {"reet": 4}, {"\u2581ord": 4}, {"\u2581exchange": 4}, {"\u2581Uns": 4}, {"\u2581Incredibly": 4}, {"\u2581British": 4}, {"pm": 4}, {"\u2581Stock": 4}, {"aken": 4}, {"\u2581correcting": 4}, {"\u2581and,": 4}, {"\u2581den": 4}, {"\u2581present,": 4}, {"\u2581maneuvering": 4}, {"\u2581belts": 4}, {"\u2581~40": 4}, {"\u2581LA,": 4}, {"km/h": 4}, {"\u2581vent": 4}, {"ayer": 4}, {"\u2581Inf": 4}, {"\u2581tub": 4}, {"\u2581DM": 4}, {"\u2581bouncy": 4}, {"\u2581puff": 4}, {"\u2581Chano": 4}, {"\u2581IP": 4}, {"\u2581opin": 4}, {"\u2581trading": 4}, {"Tesla": 4}, {"\u2581/week": 4}, {"\u2581A.": 4}, {"\u2581Laser": 4}, {"\u2581thing,": 4}, {"\u2581bday": 4}, {"\u2581Godot.": 4}, {"\u2581overhe": 4}, {"\u2581concerned": 4}, {"\u2581Humanity": 4}, {"\u2581level,": 4}, {"bor": 4}, {"\u2581GA": 4}, {"\u2581(m": 4}, {"\u2581text": 4}, {"\u2581job.": 4}, {"\u2581estate": 4}, {"\u2581Bel": 4}, {"\u2581German": 4}, {"\u2581k/week": 4}, {"\u2581freedom.": 4}, {"\u2581op": 4}, {"\u2581Iron": 4}, {"\u2581conflic": 4}, {"\u2581ut": 4}, {"\u2581commun": 4}, {"\u2581competition.": 4}, {"\u2581whose": 4}, {"opia": 4}, {"\u2581disagree.": 4}, {"\u2581humanity.": 4}, {"\u2581Egg": 4}, {"onymous": 4}, {"\u2581options,": 4}, {"\u2581cobalt": 4}, {"\u2581unf": 4}, {"\u2581podcast": 4}, {"\u2581tim": 4}, {"\u2581millisecond": 4}, {"RO": 4}, {"\u2581extinguish": 4}, {"\u2581Puerto": 4}, {"\u2581Ric": 4}, {"\u2581fuels": 4}, {"\u2581bumper": 4}, {"\u2581shd": 4}, {"\u2581perspect": 4}, {"\u2581reporter": 4}, {"\u2581(all": 4}, {"room": 4}, {"word": 4}, {"otech": 4}, {"\u2581Global": 4}, {"\u2581slowly": 4}, {"\u2581slower": 4}, {"\u2581couple": 4}, {"\u2581figuring": 4}, {"\u2581included": 4}, {"\u2581elected": 4}, {"\u2581Ob": 4}, {"rid": 4}, {"\u2581refine": 4}, {"\u2581summer.": 4}, {"\u2581Upgr": 4}, {"\u2581-60mph": 4}, {"\u2581balance,": 4}, {"acking": 4}, {"\u2581ridiculous.": 4}, {"\u2581IMF": 4}, {"\u2581route.": 4}, {"\u2581fraction": 4}, {"\u2581alb": 4}, {"\u2581expected.": 4}, {"\u2581satisfaction": 4}, {"\u2581Fr": 4}, {"\u2581parafoil": 4}, {"\u2581riding": 4}, {"\u2581targeted": 4}, {"\u2581retro": 4}, {"\u2581ones.": 4}, {"B,": 4}, {"\u2581regul": 4}, {"\u2581Month": 4}, {"\u2581pull": 4}, {"the": 4}, {"\u2581Adjusting": 4}, {"\u2581reel": 4}, {"ulation.": 4}, {"\u2581apparent": 4}, {"\u2581booster,": 4}, {"\u2581ignition": 4}, {"ams": 4}, {"\u2581kept": 4}, {"\u2581Apparently,": 4}, {"\u2581holy": 4}, {"\u2581Release": 4}, {"\u2581candidate": 4}, {"\u2581droneship,": 4}, {"\u2581Wo": 4}, {"under": 4}, {"\u2581river": 4}, {"\u2581Ho": 4}, {"\u2581hats": 4}, {"\u2581overhaul": 4}, {"\u2581ascent": 4}, {"\u2581drug": 4}, {"\u2581concent": 4}, {"\u2581\"I": 4}, {"\u2581underest": 4}, {"\u2581Fly": 4}, {"\u2581enough,": 4}, {"\u2581existential": 4}, {"\u2581(just": 4}, {"ees": 4}, {"\u2581haven't": 4}, {"Sat": 4}, {"rest": 4}, {"\u2581nonsense.": 4}, {"\u2581clicked": 4}, {"\u2581Couldn't": 4}, {"\u2581we're": 4}, {"\u2581Tesla's": 4}, {"\u2581Ariane": 4}, {"\u2581crazy.": 4}, {"\u2581lapt": 4}, {"\u2581Intense": 4}, {"\u2581telemetry": 4}, {"\u2581Flying": 4}, {"\u2581valve.": 4}, {"\u2581kernel": 4}, {"\u2581protest": 4}, {"\u2581Ambien": 4}, {"aren": 4}, {"\u2581f*": 4}, {"\u2581DMV": 4}, {"\u2581Climate": 4}, {"\u2581squirrel": 4}, {"str": 4}, {"\u2581Son": 4}, {"in's": 4}, {"\u2581theme": 4}, {"\u2581Sn": 4}, {"\u2581unusually": 4}, {"\u2581TED": 4}, {"\u2581Bes": 4}, {"\u2581nearby": 4}, {"\u2581retired": 4}, {"\u2581Jud": 4}, {"\u2581Tillerson": 4}, {"\u2581uploading": 4}, {"ffic": 4}, {"log": 4}, {"\u2581merger": 4}, {"ear": 4}, {"\u2581Won't": 4}, {"\u2581women": 4}, {"\u2581Wind": 4}, {"\u2581charge.": 4}, {"\u2581V7": 4}, {"\u2581bang": 4}, {"\u2581Owner": 4}, {"\u2581abt": 4}, {"\u2581temporal": 4}, {"eta": 4}, {"\u2581explicit": 4}, {"\u2581BS": 4}, {"\u2581Merc": 4}, {"\u2581prem": 4}, {"\u2581region.": 4}, {"Of": 4}, {"\u2581Reasons": 4}, {"\u2581SA": 4}, {"\u2581showed": 4}, {"\u2581communities": 4}, {"\u2581recover": 4}, {"\u2581hexacopter": 4}, {"\u2581Station.": 4}, {"\u2581Virgin": 4}, {"oths": 4}, {"\u2581Asimov's": 4}, {"\u2581generated": 4}, {"\u2581react": 4}, {"\u2581IM": 4}, {"\u2581communications": 4}, {"\u2581Announce": 4}, {"\u2581congrat": 4}, {"\u2581Potentially": 4}, {"\u2581monopoly": 4}, {"\u2581Saw": 4}, {"\u2581Disney": 4}, {"\u2581w/": 4}, {"\u2581Smo": 4}, {"\u2581smoking": 4}, {"\u2581subtle": 4}, {"\u2581saving": 4}, {"\u2581taxing": 4}, {"op,": 4}, {"\u2581Hearing": 4}, {"\u2581lunch": 4}, {"\u2581Room": 4}, {"\u2581Nor": 4}, {"\u2581gig": 4}, {"\u2581[ahem": 4}, {"\u2581Lasers": 4}, {"\u2581lil": 4}, {"\u2581Bitcoin,": 4}, {"\u2581airlin": 4}, {"\u2581export": 4}, {"\u2581inter-satellite": 4}, {"\u2581Epic": 4}, {"\u2581hashing": 4}, {"\u2581cameras.": 4}, {"\u2581Starbase,": 4}, {"\u2581Discord": 4}, {"\u2581jamming.": 4}, {"\u2581arenas": 4}, {"\u2581hatestream": 4}, {"\u2581births": 4}, {"\u2581seek": 3}, {"\u2581Mult": 3}, {"\u2581love,": 3}, {"\u2581bigg": 3}, {"\u2581electric,": 3}, {"uring": 3}, {"\u2581revision": 3}, {"\u2581Cobra": 3}, {"\u2581Kai": 3}, {"ounds": 3}, {"\u2581acqu": 3}, {"\u2581/10": 3}, {"\u2581accessible": 3}, {"\u2581hanging": 3}, {"\u2581pseudo": 3}, {"\u2581comments,": 3}, {"\u2581lip": 3}, {"\u2581kidding,": 3}, {"\u2581Standing": 3}, {"\u2581Pressure": 3}, {"Autopilot": 3}, {"\u2581Light": 3}, {"\u2581stunning": 3}, {"\u2581armor": 3}, {"\u2581chest": 3}, {"\u2581loaded,": 3}, {"\u2581manufacturing,": 3}, {"\u2581logarithm": 3}, {"\u2581Dankeschn": 3}, {"\u2581Berlin-Brandenburg": 3}, {"\u2581Seemed": 3}, {"ooling": 3}, {"\u2581metal,": 3}, {"\u2581pres": 3}, {"\u2581Fuel": 3}, {"\u2581RUD,": 3}, {"\u2581Successful": 3}, {"\u2581rifle": 3}, {"ifice": 3}, {"rypt": 3}, {"\u2581singing": 3}, {"\u2581tele": 3}, {"\u2581symb": 3}, {"\u2581bacteria": 3}, {"\u2581colon": 3}, {"\u2581Math": 3}, {"\u2581accepted": 3}, {"\u2581Shock": 3}, {"\u2581site,": 3}, {"\u2581Thanos": 3}, {"\u2581digits": 3}, {"\u2581filled": 3}, {"\u2581similar.": 3}, {"\u2581flaps,": 3}, {"\u2581degree,": 3}, {"\u2581que": 3}, {"\u2581Skynet": 3}, {"is*": 3}, {"\u2581ghost": 3}, {"\u2581penetr": 3}, {"\u2581oxygen-ric": 3}, {"\u2581XP": 3}, {"\u2581liqu": 3}, {"\u2581fixes": 3}, {"\u2581lifetime.": 3}, {"\u2581spacefaring": 3}, {"\u2581ru": 3}, {"\u2581impressed": 3}, {"\u2581Wise": 3}, {"\u2581Buy": 3}, {"\u2581Pc": 3}, {"\u2581&gt;10": 3}, {"\u2581Sim": 3}, {"fect": 3}, {"\u2581quarantine": 3}, {"\u2581determ": 3}, {"\u2581infect": 3}, {"\u2581Mer": 3}, {"\u2581bite": 3}, {"\u2581Necessary": 3}, {"\u2581Ver": 3}, {"\u2581suboptimal": 3}, {"\u2581kerosene,": 3}, {"\u2581unequivocal": 3}, {"20.": 3}, {"\u2581cold/flu": 3}, {"\u2581Av": 3}, {"\u2581shields": 3}, {"\u2581pipes": 3}, {"esting": 3}, {"\u2581inspiration": 3}, {"\u2581Teslaquila": 3}, {"\u2581Stonecutter": 3}, {"ild": 3}, {"\u2581Damn,": 3}, {"coin": 3}, {"\u2581Modern": 3}, {"\u2581mRNA": 3}, {"iates": 3}, {"\u2581Thrusters": 3}, {"\u2581adm": 3}, {"\u2581requesting": 3}, {"\u2581number,": 3}, {"\u2581consensus": 3}, {"utes": 3}, {"\u2581cough": 3}, {"\u2581question,": 3}, {"\u2581wildly": 3}, {"\u2581NPCs": 3}, {"\u2581Laws": 3}, {"\u2581therm": 3}, {"ody": 3}, {"\u2581Interest": 3}, {"\u2581(un": 3}, {"\u2581N3": 3}, {"gen": 3}, {"eric": 3}, {"\u2581sars": 3}, {"\u2581todays": 3}, {"gh": 3}, {"-B": 3}, {"ased": 3}, {"\u2581witch": 3}, {"\u2581indicator": 3}, {"\u2581prote": 3}, {"\u2581accuracy": 3}, {"\u2581prevalence": 3}, {"\u2581falsely": 3}, {"\u2581percentage": 3}, {"\u2581approximate": 3}, {"\u2581knowledge": 3}, {"\u2581sn": 3}, {"\u2581Tes": 3}, {"\u2581Covid": 3}, {"\u2581BD": 3}, {"\u2581typical": 3}, {"\u2581unusual": 3}, {"\u2581worked,": 3}, {"\u2581manif": 3}, {"\u2581pneum": 3}, {"\u2581present.": 3}, {"\u2581trigg": 3}, {"ieve": 3}, {"\u2581Luck": 3}, {"\u2581choose": 3}, {"\u2581privilege": 3}, {"/bra": 3}, {"\u2581cure": 3}, {"\u2581ted": 3}, {"\u2581prototype.": 3}, {"\u2581regulations": 3}, {"\u2581overclock": 3}, {"\u2581output,": 3}, {"\u2581contribute": 3}, {"/T": 3}, {"\u2581calculations": 3}, {"\u2581era": 3}, {"\u2581dynamically": 3}, {"\u2581intersections": 3}, {"\u2581Oper": 3}, {"\u2581Inc": 3}, {"\u2581Berlin!": 3}, {"\u2581stal": 3}, {"\u2581Eve": 3}, {"\u2581ind": 3}, {"leg": 3}, {"\u2581Random": 3}, {"\u2581Although,": 3}, {"\u2581land,": 3}, {"ults": 3}, {"\u2581probability.": 3}, {"\u2581resulting": 3}, {"\u2581groups": 3}, {"\u2581Bandwidth": 3}, {"hips,": 3}, {"\u2581complacency": 3}, {"\u2581Steph": 3}, {"\u2581constellation": 3}, {"rot": 3}, {"\u2581eaten": 3}, {"\u2581Box": 3}, {"\u2581catgirl": 3}, {"\u2581Sil": 3}, {"\u2581donor": 3}, {"\u2581scar": 3}, {"\u2581horror": 3}, {"\u2581repairs": 3}, {"\u2581noth": 3}, {"\u2581tbh,": 3}, {"\u2581Vis": 3}, {"\u2581tone": 3}, {"\u2581strident": 3}, {"\u2581pics!": 3}, {"ious,": 3}, {"\u2581challenging": 3}, {"ta": 3}, {"\u2581encountering": 3}, {"\u2581Mobi-": 3}, {"\u2581neck": 3}, {"\u2581surgery": 3}, {"\u2581bone": 3}, {"\u2581sticking": 3}, {"\u2581spinal": 3}, {"\u2581Yelp": 3}, {"iveness": 3}, {"\u2581DNA": 3}, {"\u2581immune": 3}, {"\u2581Beij": 3}, {"\u2581Europa": 3}, {"\u2581conveniently": 3}, {"ode": 3}, {"\u2581default": 3}, {"\u2581December": 3}, {"\u2581$69": 3}, {"ston": 3}, {"\u2581Church": 3}, {"\u2581strateg": 3}, {"\u2581outc": 3}, {"\u2581direction,": 3}, {"\u2581constitu": 3}, {"\u2581Sheer": 3}, {"5%": 3}, {"\u2581assemb": 3}, {"/sec": 3}, {"mph": 3}, {"\u2581discord": 3}, {"\u2581twin": 3}, {"\u2581ego/": 3}, {"\u2581companies,": 3}, {"\u2581schedule,": 3}, {"\u2581photos": 3}, {"\u2581rare.": 3}, {"\u2581card,": 3}, {"\u2581/2009": 3}, {"lor": 3}, {"\u2581Zeev": 3}, {"\u2581vulnerable": 3}, {"phot": 3}, {"\u2581ITAR": 3}, {"\u2581joint": 3}, {"\u2581shred": 3}, {"\u2581Compilers": 3}, {"\u2581contest.": 3}, {"\u2581enclosed": 3}, {"\u2581costly": 3}, {"\u2581innovation.": 3}, {"\u2581lifts": 3}, {"\u2581ca": 3}, {"ries": 3}, {"\u2581methane,": 3}, {"\u2581torn": 3}, {"\u2581(except": 3}, {"\u2581Galactic": 3}, {"\u2581Gigafactories": 3}, {"\u2581elim": 3}, {"\u2581rig": 3}, {"\u2581avoided": 3}, {"\u2581Hundreds": 3}, {"\u2581absorbed": 3}, {"\u2581pe": 3}, {"\u2581Bringing": 3}, {"\u2581hur": 3}, {"\u2581$100": 3}, {"\u2581spread": 3}, {"est.": 3}, {"\u2581Cry": 3}, {"\u2581shr": 3}, {"\u2581turnaround": 3}, {"\u2581fairing.": 3}, {"\u2581subsid": 3}, {"\u2581nich": 3}, {"\u2581louder": 3}, {"\u2581Rew": 3}, {"atched": 3}, {"\u2581gravity,": 3}, {"\u2581holes": 3}, {"\u2581turb": 3}, {"\u2581Lex": 3}, {"ced.": 3}, {"\u2581presented": 3}, {"\u2581astronom": 3}, {"\u2581rings": 3}, {"\u2581welds": 3}, {"\u2581Starlink,": 3}, {"\u2581loo": 3}, {"\u2581help!": 3}, {"\u2581prioritizing": 3}, {"\u2581respond": 3}, {"\u2581consistently": 3}, {"\u2581M+": 3}, {"\u2581cutting": 3}, {"\u2581$25k": 3}, {"\u2581Supp": 3}, {"\u2581owners,": 3}, {"\u2581accommod": 3}, {"\u2581Dilbert": 3}, {"\u2581ull": 3}, {"\u2581Improvements": 3}, {"cone": 3}, {"\u2581Cent": 3}, {"aur": 3}, {"\u2581idea,": 3}, {"/F": 3}, {"brug": 3}, {"ners": 3}, {"etic": 3}, {"\u2581Cybertruck,": 3}, {"\u2581prototyp": 3}, {"\u2581purchases": 3}, {"\u2581Panason": 3}, {"ic,": 3}, {"po": 3}, {"\u2581high-volume": 3}, {"\u2581expects": 3}, {"\u2581training,": 3}, {"\u2581(essentially,": 3}, {"\u2581works.": 3}, {"\u2581inference,": 3}, {"\u2581achievement": 3}, {"\u2581required,": 3}, {"\u2581declined": 3}, {"\u2581probabilities": 3}, {"\u2581frank,": 3}, {"\u2581&gt;90%": 3}, {"\u2581(correct": 3}, {"\u2581Ir": 3}, {"\u2581station.": 3}, {"\u2581obs": 3}, {"\u2581Steel": 3}, {"\u2581parrot": 3}, {"\u2581remind": 3}, {"\u2581warp": 3}, {"\u2581Usable": 3}, {"\u2581te": 3}, {"ens.": 3}, {"\u2581tonnage": 3}, {"\u2581another,": 3}, {"\u2581insight": 3}, {"\u2581overla": 3}, {"\u2581training.": 3}, {"\u2581Above": 3}, {"\u2581cares": 3}, {"\u2581Natr": 3}, {"\u2581Obs": 3}, {"\u2581Munger": 3}, {"-S": 3}, {"\u2581finance": 3}, {"\u2581series,": 3}, {"\u2581Instead": 3}, {"\u2581exceptionally": 3}, {"-gr": 3}, {"\u2581health.": 3}, {"\u2581stock,": 3}, {"\u2581mor": 3}, {"\u2581Raw": 3}, {"\u2581tough,": 3}, {"\u2581milled": 3}, {"ctional": 3}, {"\u2581~37": 3}, {"\u2581Dank": 3}, {"\u2581actuator": 3}, {"\u2581measure,": 3}, {"\u2581tunnel,": 3}, {"\u2581buy,": 3}, {"\u2581tech,": 3}, {"\u2581Alex": 3}, {"\u2581Sen": 3}, {"tech": 3}, {"\u2581academ": 3}, {"\u2581underweight": 3}, {"\u2581diseases": 3}, {"\u2581short.": 3}, {"\u2581treat": 3}, {"\u2581methods": 3}, {"\u2581predicting": 3}, {"\u2581pass,": 3}, {"\u2581shifted": 3}, {"\u2581plume": 3}, {"inge": 3}, {"\u2581C,": 3}, {"\u2581esthet": 3}, {"uth": 3}, {"\u2581widespread": 3}, {"\u2581overzealous": 3}, {"\u2581obtuse": 3}, {"ically.": 3}, {"\u2581folded": 3}, {"-over": 3}, {"\u2581anode": 3}, {"\u2581Asimov": 3}, {"\u2581analog": 3}, {"\u2581Britain": 3}, {"\u2581miniverse": 3}, {"\u2581microverse": 3}, {"\u2581LASIK": 3}, {"force": 3}, {"eel": 3}, {"\u2581GPUs": 3}, {"\u2581Occ": 3}, {"\u2581Zen": 3}, {"\u2581fundamental.": 3}, {"\u2581again!": 3}, {"iell": 3}, {"\u2581auf": 3}, {"nes": 3}, {"pet": 3}, {"uating": 3}, {"\u2581compreh": 3}, {"\u2581meg": 3}, {"aning": 3}, {"\u2581humidity": 3}, {"\u2581intense!": 3}, {"\u2581chips.": 3}, {"-fed": 3}, {"\u2581stabil": 3}, {"0%": 3}, {"\u2581refurb": 3}, {"\u2581Works": 3}, {"\u2581title": 3}, {"\u2581chute": 3}, {"\u2581Ms": 3}, {"\u2581Up": 3}, {"\u2581tons,": 3}, {"\u2581reference,": 3}, {"\u2581(half": 3}, {"\u2581explod": 3}, {"\u2581km.": 3}, {"\u2581ey": 3}, {"wor": 3}, {"\u2581punch": 3}, {"\u2581Tanks": 3}, {"ones": 3}, {"\u2581bold": 3}, {"\u2581vict": 3}, {"irl": 3}, {"\u2581Filters": 3}, {"\u2581Filter": 3}, {"-like": 3}, {"orre": 3}, {"\u2581overload": 3}, {"\u2581late.": 3}, {"\u2581auth": 3}, {"\u2581perfectly": 3}, {"\u2581bleed": 3}, {"\u2581relevance": 3}, {"\u2581N2,": 3}, {"\u2581nickel,": 3}, {"\u2581indistinguishable": 3}, {"\u2581humans.": 3}, {"\u2581outs": 3}, {"eg": 3}, {"\u2581cubic": 3}, {"pay": 3}, {"\u2581generally": 3}, {"\u2581waste": 3}, {"\u2581taxpayer": 3}, {"\u2581tiles,": 3}, {"\u2581bend": 3}, {"\u2581channel": 3}, {"\u2581Tw": 3}, {"\u2581Moms": 3}, {"\u2581Saskatchewan": 3}, {"\u2581barn": 3}, {"\u2581owned": 3}, {"\u2581reads": 3}, {"\u2581subsidies.": 3}, {"\u2581Sand": 3}, {"\u2581Velociraptor": 3}, {"\u2581Apart": 3}, {"\u2581failing": 3}, {"\u2581elderly": 3}, {"\u2581recognize": 3}, {"\u2581Falcon,": 3}, {"\u2581unimproved": 3}, {"\u2581auto-level": 3}, {"bb": 3}, {"\u2581Hop": 3}, {"\u2581Tbh,": 3}, {"\u2581occasion": 3}, {"\u2581plasma": 3}, {"\u2581parach": 3}, {"\u2581simplest": 3}, {"\u2581satis": 3}, {"\u2581provides": 3}, {"\u2581Ramses": 3}, {"ram": 3}, {"\u2581frequencies": 3}, {"\u2581cort": 3}, {"ex": 3}, {"\u2581mus": 3}, {"\u2581restore": 3}, {"\u2581Mein": 3}, {"\u2581Herz": 3}, {"\u2581rave": 3}, {"\u2581Dis": 3}, {"\u2581Orig": 3}, {"inally": 3}, {"\u2581Sum": 3}, {"\u2581powertrains": 3}, {"\u2581corpor": 3}, {"ern": 3}, {"\u2581Connect": 3}, {"\u2581monopolies": 3}, {"\u2581resistance.": 3}, {"\u2581Austin.": 3}, {"\u2581shade": 3}, {"\u2581Bol": 3}, {"\u2581Strangers": 3}, {"ara": 3}, {"\u2581$6": 3}, {"\u2581guillotine": 3}, {"\u2581cigarette": 3}, {"ills": 3}, {"\u2581stimulus": 3}, {"\u2581Giving": 3}, {"\u2581needs,": 3}, {"\u2581legisl": 3}, {"\u2581interests.": 3}, {"\u2581*f": 3}, {"\u2581revolutionary": 3}, {"aries": 3}, {"\u2581inqu": 3}, {"\u2581Ret": 3}, {"\u2581Especially": 3}, {"\u2581volumetric": 3}, {"\u2581Soviet": 3}, {"\u2581rover": 3}, {"iam": 3}, {"unication": 3}, {"cience": 3}, {"\u2581youve": 3}, {"\u2581charging,": 3}, {"\u2581biz": 3}, {"\u2581algorithms": 3}, {"\u2581hust": 3}, {"\u2581Neuralink.": 3}, {"\u2581demographic": 3}, {"\u2581latch": 3}, {"\u2581ob": 3}, {"\u2581AGI": 3}, {"\u2581roof,": 3}, {"\u2581substitute": 3}, {"\u2581lie.": 3}, {"&gt;": 3}, {"\u2581paranoid.": 3}, {"\u2581sustainability": 3}, {"\u2581connectors": 3}, {"\u2581exponentially": 3}, {"umber": 3}, {"\u2581podcasts": 3}, {"\u2581decides": 3}, {"oup": 3}, {"\u2581exer": 3}, {"\u2581Dumb": 3}, {"\u2581Sag": 3}, {"\u2581Long-term": 3}, {"\u2581accomplish": 3}, {"\u2581Ariel": 3}, {"\u2581Dur": 3}, {"\u2581behind,": 3}, {"\u2581engaged": 3}, {"\u2581harass": 3}, {"\u2581discourse": 3}, {"\u2581Acc": 3}, {"\u2581followers": 3}, {"\u2581spam": 3}, {"\u2581Ghisla": 3}, {"\u2581unb": 3}, {"lock": 3}, {"\u2581insult": 3}, {"\u2581ho": 3}, {"\u2581otherwise.": 3}, {"\u2581Montreal": 3}, {"\u2581photobomb": 3}, {"\u2581Osc": 3}, {"\u2581Gre": 3}, {"\u2581crack": 3}, {"fold": 3}, {"\u2581positives.": 3}, {"\u2581anyone.": 3}, {"\u2581Ha": 3}, {"\u2581cross-country": 3}, {"\u2581ble": 3}, {"\u2581tariffs": 3}, {"\u2581fla": 3}, {"\u2581denying": 3}, {"\u2581secretly": 3}, {"\u2581rad": 3}, {"\u2581Ang": 3}, {"-p": 3}, {"icked": 3}, {"\u2581fif": 3}, {"\u2581science,": 3}, {"\u2581everything,": 3}, {"ential": 3}, {"/d": 3}, {"ories": 3}, {"\u2581sharehold": 3}, {"\u2581humanly": 3}, {"\u2581Party": 3}, {"\u2581pian": 3}, {"\u2581Levit": 3}, {"\u2581messing": 3}, {"\u2581EVs,": 3}, {"\u2581favors": 3}, {"\u2581transport,": 3}, {"/w": 3}, {"ope": 3}, {"\u2581spectrum": 3}, {"\u2581ste": 3}, {"\u2581signal.": 3}, {"\u2581externality": 3}, {"iverse": 3}, {"\u2581uncertain": 3}, {"ities,": 3}, {"\u2581skills": 3}, {"\u2581sense,": 3}, {"\u2581$3k": 3}, {"\u2581Sharehold": 3}, {"\u2581Meeting": 3}, {"\u2581Done.": 3}, {"\u2581$2k": 3}, {"\u2581in-app": 3}, {"\u2581(F": 3}, {"SD": 3}, {"\u2581Q4": 3}, {"\u2581Bioweapon": 3}, {"\u2581Defense": 3}, {"\u2581stall": 3}, {"ould": 3}, {"\u2581exclus": 3}, {"\u2581Bioshock": 3}, {"\u2581economically": 3}, {"\u2581(e": 3}, {"\u2581TV": 3}, {"\u2581game,": 3}, {"\u2581review.": 3}, {"\u2581software/firmware": 3}, {"\u2581hopeful": 3}, {"\u2581gatherings": 3}, {"\u2581guessing": 3}, {"-off": 3}, {"\u2581Conf": 3}, {"irmed": 3}, {"\u2581Renewable": 3}, {"\u2581passengers": 3}, {"\u2581Dire": 3}, {"\u2581preburn": 3}, {"\u2581further.": 3}, {"\u2581Merlin,": 3}, {"\u2581coaxial": 3}, {"\u2581injectors,": 3}, {"\u2581enters": 3}, {"\u2581mixed.": 3}, {"\u2581Around": 3}, {"\u2581latency.": 3}, {"\u2581instructions": 3}, {"\u2581drivetrain": 3}, {"\u2581cho": 3}, {"-silicon": 3}, {"\u2581pers": 3}, {"\u2581(plus": 3}, {"\u2581CH4,": 3}, {"\u2581lasting": 3}, {"\u2581*much*": 3}, {"\u2581Posting": 3}, {"\u2581Comb": 3}, {"\u2581subc": 3}, {"\u2581CH4.": 3}, {"\u2581secs.": 3}, {"\u2581mainstream": 3}, {"\u2581Forward": 3}, {"\u2581contracting": 3}, {"ourced": 3}, {"\u2581wast": 3}, {"\u2581directive": 3}, {"eth": 3}, {"\u2581propellant.": 3}, {"\u2581Monopolies": 3}, {"\u2581decades.": 3}, {"\u2581safegu": 3}, {"\u2581protecting": 3}, {"\u2581officers": 3}, {"\u2581relativistic": 3}, {"\u2581aging": 3}, {"\u2581Doug": 3}, {"kes,": 3}, {"\u2581going,": 3}, {"\u2581attempts": 3}, {"\u2581Buzz": 3}, {"\u2581coach": 3}, {"\u2581smaller,": 3}, {"\u2581Open": 3}, {"\u2581eyes,": 3}, {"\u2581*re": 3}, {"\u2581rises": 3}, {"\u2581~$1000": 3}, {"\u2581Great.": 3}, {"\u2581pill": 3}, {"\u2581issu": 3}, {"\u2581banks": 3}, {"\u2581in-": 3}, {"\u2581question:": 3}, {"\u2581Fam": 3}, {"\u2581attend": 3}, {"\u2581Hospital": 3}, {"\u2581suppressing": 3}, {"\u2581knucklehead": 3}, {"\u2581ess": 3}, {"\u2581traged": 3}, {"\u2581Wash": 3}, {"\u2581counted": 3}, {"\u2581liberty": 3}, {"\u2581sty": 3}, {"\u2581Colorado": 3}, {"\u2581FB": 3}, {"\u2581Honestly,": 3}, {"\u2581Lil": 3}, {"\u2581*ex": 3}, {"\u2581admitted": 3}, {"\u2581staff": 3}, {"\u2581Unreal": 3}, {"\u2581mislead": 3}, {"\u2581State": 3}, {"\u2581Joaquin": 3}, {"rode": 3}, {"\u2581summarizes": 3}, {"\u2581weakness": 3}, {"\u2581q": 3}, {"\u2581irrational": 3}, {"\u2581jun": 3}, {"\u2581treated": 3}, {"\u2581Inter": 3}, {"-n": 3}, {"\u2581bulk": 3}, {"\u2581(3": 3}, {"BA": 3}, {"\u2581lie": 3}, {"\u2581fa": 3}, {"\u2581mystery": 3}, {"/re": 3}, {"\u2581maximizing": 3}, {"ensing": 3}, {"\u2581flare": 3}, {"\u2581destinations": 3}, {"\u2581mariachi": 3}, {"und": 3}, {"\u2581entom": 3}, {"ology": 3}, {"\u2581Happ": 3}, {"\u2581healthy": 3}, {"\u2581JD": 3}, {"\u2581puzzle": 3}, {"\u2581truth.": 3}, {"\u2581matters,": 3}, {"ident": 3}, {"\u2581Com": 3}, {"\u2581troub": 3}, {"izz": 3}, {"\u2581Online": 3}, {"\u2581Pokmon": 3}, {"\u2581exc": 3}, {"\u2581Poss": 3}, {"\u2581Rage,": 3}, {"\u2581Oh,": 3}, {"\u2581gla": 3}, {"ED": 3}, {"\u2581poss": 3}, {"\u2581HHS": 3}, {"\u2581reopen": 3}, {"\u2581Give": 3}, {"\u2581moral": 3}, {"\u2581arbiter": 3}, {"\u2581Hub": 3}, {"mer": 3}, {"\u2581desperate": 3}, {"\u2581FT": 3}, {"\u2581Snow": 3}, {"\u2581Success": 3}, {"\u2581Thrust": 3}, {"\u2581cylinder": 3}, {"\u2581strict": 3}, {"fire": 3}, {"\u2581halfway": 3}, {"\u2581cold-roll": 3}, {"\u2581Bigger": 3}, {"\u2581Silver": 3}, {"\u2581lining": 3}, {"\u2581predicted": 3}, {"\u2581distill": 3}, {"\u2581quieter": 3}, {"ivate": 3}, {"\u2581hack": 3}, {"\u2581Wuh": 3}, {"\u2581fo": 3}, {"\u2581transparent": 3}, {"\u2581antennas": 3}, {"\u2581alcohol": 3}, {"\u2581Craz": 3}, {"\u2581dawn": 3}, {"\u2581dus": 3}, {"\u2581more!": 3}, {"\u2581Aargh": 3}, {"\u2581ber": 3}, {"\u2581inspire": 3}, {"\u2581did.": 3}, {"\u2581hum": 3}, {"\u2581reported": 3}, {"\u2581Media": 3}, {"\u2581former,": 3}, {"\u2581dimension": 3}, {"\u2581Youd": 3}, {"\u2581informed": 3}, {"\u2581Depending": 3}, {"vert": 3}, {"\u2581dress": 3}, {"ics,": 3}, {"\u2581~3%": 3}, {"\u2581Karm": 3}, {"ards,": 3}, {"\u2581specifications": 3}, {"now": 3}, {"\u2581Dr.": 3}, {"\u2581comfortable": 3}, {"\u2581Cap": 3}, {"\u2581sed": 3}, {"\u2581fed": 3}, {"\u2581NYC": 3}, {"\u2581were,": 3}, {"\u2581suboptimal,": 3}, {"\u2581Down": 3}, {"\u2581intratracheal": 3}, {"\u2581jamming": 3}, {"\u2581evol": 3}, {"\u2581Sw": 3}, {"\u2581jumping": 3}, {"\u2581damage.": 3}, {"\u2581investment": 3}, {"\u2581govt.": 3}, {"\u2581Loan": 3}, {"-approved": 3}, {"\u2581increas": 3}, {"\u2581wrap": 3}, {"ah": 3}, {"\u2581front,": 3}, {"\u2581Follow": 3}, {"\u2581Functionality": 3}, {"\u2581Regul": 3}, {"alism": 3}, {"oring": 3}, {"\u2581Standard": 3}, {"\u2581Person": 3}, {"\u2581~15": 3}, {"/acc": 3}, {"\u2581maneuvers": 3}, {"\u2581cameras,": 3}, {"\u2581radar,": 3}, {"\u2581status": 3}, {"\u2581Shinse": 3}, {"\u2581quote": 3}, {"vable": 3}, {"\u2581Shes": 3}, {"\u2581R2D2": 3}, {"\u2581vacuum,": 3}, {"\u2581spooling": 3}, {"\u2581valves": 3}, {"\u2581Broo": 3}, {"\u2581favorites": 3}, {"\u2581sensible.": 3}, {"\u2581Anarcho-syndicalism": 3}, {"\u2581Page": 3}, {"\u2581troll/bot": 3}, {"\u2581Wonder": 3}, {"/B": 3}, {"\u2581Gov": 3}, {"omo": 3}, {"\u2581vents": 3}, {"\u2581patients,": 3}, {"\u2581ware": 3}, {"house": 3}, {"\u2581telescope": 3}, {"\u2581Inside": 3}, {"\u2581Log": 3}, {"\u2581Magnetic": 3}, {"\u2581personality": 3}, {"\u2581donations": 3}, {"\u2581Adams": 3}, {"\u2581citizens": 3}, {"\u2581estimated": 3}, {"lection": 3}, {"\u2581proves": 3}, {"\u2581fresh": 3}, {"\u2581wasted": 3}, {"anger": 3}, {"\u2581Ital": 3}, {"\u2581find.": 3}, {"\u2581onerous": 3}, {"\u2581types": 3}, {"-e": 3}, {"AP": 3}, {"\u2581Sig": 3}, {"\u2581ment": 3}, {"\u2581behave": 3}, {"\u2581regardless": 3}, {"\u2581sig": 3}, {"\u2581short-term": 3}, {"\u2581fid": 3}, {"\u2581presum": 3}, {"\u2581ideally": 3}, {"\u2581cross-flow": 3}, {"\u2581members,": 3}, {"\u2581vulner": 3}, {"\u2581negligible": 3}, {"\u2581related": 3}, {"\u2581engines!": 3}, {"igation": 3}, {"\u2581Ab": 3}, {"\u2581med": 3}, {"\u2581dom": 3}, {"\u2581emb": 3}, {"ening": 3}, {"is,": 3}, {"\u2581~36": 3}, {"\u2581grain": 3}, {"\u2581chloroqu": 3}, {"\u2581Slight": 3}, {"\u2581Lifto": 3}, {"\u2581preord": 3}, {"\u2581Perm": 3}, {"\u2581cond": 3}, {"\u2581Ceres,": 3}, {"\u2581quietly": 3}, {"\u2581Coachella": 3}, {"\u2581next-level.": 3}, {"\u2581Memes": 3}, {"\u2581Ships": 3}, {"lating": 3}, {"\u2581expanded": 3}, {"\u2581Recent": 3}, {"\u2581new,": 3}, {"\u2581makers": 3}, {"\u2581Manufacturing": 3}, {"\u2581minimum": 3}, {"\u2581Bow": 3}, {"\u2581(on": 3}, {"\u2581Definitely!": 3}, {"\u2581disclosure": 3}, {"\u2581strong,": 3}, {"\u2581Wood": 3}, {"\u2581sticker": 3}, {"\u2581F9/FH": 3}, {"\u2581Driving": 3}, {"\u2581entry.": 3}, {"\u2581~2%": 3}, {"bl": 3}, {"\u2581Tra": 3}, {"\u2581dangerous.": 3}, {"\u2581helmet": 3}, {"\u2581Header": 3}, {"\u2581Pressurized": 3}, {"\u2581Asimovs": 3}, {"\u2581stamping": 3}, {"\u2581Cur": 3}, {"\u2581Initially,": 3}, {"\u2581customers.": 3}, {"\u2581international": 3}, {"ays": 3}, {"\u2581albedo": 3}, {"off": 3}, {"\u2581prev": 3}, {"\u2581Run": 3}, {"\u2581percent": 3}, {"ady": 3}, {"\u2581leeward.": 3}, {"\u2581neighborhood": 3}, {"face": 3}, {"\u2581breaking": 3}, {"iny": 3}, {"\u2581textured": 3}, {"\u2581ICE": 3}, {"met": 3}, {"\u2581announced": 3}, {"\u2581ongoing": 3}, {"\u2581event.": 3}, {"\u2581Starships.": 3}, {"mod": 3}, {"\u2581parameters": 3}, {"\u2581*less*": 3}, {"\u2581welding": 3}, {"bital": 3}, {"\u2581Late": 3}, {"\u2581Nut": 3}, {"crack": 3}, {"arse": 3}, {"In": 3}, {"\u2581Soundcloud": 3}, {"\u2581Blv": 3}, {"\u2581First,": 3}, {"\u2581implant": 3}, {"\u2581recru": 3}, {"\u2581insertion": 3}, {"\u2581transform": 3}, {"\u2581tort": 3}, {"\u2581nonetheless": 3}, {"\u2581(important": 3}, {"du": 3}, {"vit": 3}, {"par": 3}, {"\u2581ultra-h": 3}, {"\u2581Join": 3}, {"\u2581crit": 3}, {"\u2581meas": 3}, {"\u2581Troll": 3}, {"\u2581agend": 3}, {"\u2581*d": 3}, {"\u2581buildings": 3}, {"iest": 3}, {"ocal": 3}, {"\u2581Emo": 3}, {"ane)": 3}, {"\u2581Short-term,": 3}, {"\u2581yer": 3}, {"\u2581Tonnage": 3}, {"\u2581triple": 3}, {"\u2581Matter": 3}, {"\u2581Cha": 3}, {"\u2581mir": 3}, {"ested": 3}, {"\u2581Meme": 3}, {"\u2581forest": 3}, {"\u2581planted": 3}, {"4.": 3}, {"\u2581Improbability": 3}, {"\u2581Bla": 3}, {"\u2581Explains": 3}, {"\u2581mission,": 3}, {"\u2581beach": 3}, {"\u2581Spacecraft": 3}, {"\u2581Hel": 3}, {"\u2581accumulating": 3}, {"\u2581megatons": 3}, {"\u2581Earth-Mars": 3}, {"\u2581non-linear": 3}, {"\u2581temp,": 3}, {"\u2581SN1,": 3}, {"\u2581primitive": 3}, {"\u2581discussions": 3}, {"\u2581discoveries": 3}, {"\u2581bulletproof": 3}, {"\u2581mentioning": 3}, {"\u2581shouldve": 3}, {"\u2581goth": 3}, {"\u2581balloon": 3}, {"eping": 3}, {"ses": 3}, {"\u2581attitude": 3}, {"\u2581flat,": 3}, {"\u2581Point": 3}, {"\u2581tryin": 3}, {"\u2581follower": 3}, {"\u2581moments": 3}, {"los": 3}, {"\u2581~90%": 3}, {"\u2581nested": 3}, {"\u2581deleting": 3}, {"\u2581line.": 3}, {"atware": 3}, {"\u2581toler": 3}, {"\u2581Rear": 3}, {"\u2581module": 3}, {"\u2581autogenous": 3}, {"IP": 3}, {"\u2581welded": 3}, {"\u2581flux": 3}, {"\u2581jacket.": 3}, {"uff": 3}, {"\u2581Feb,": 3}, {"asing": 3}, {"\u2581treatment": 3}, {"\u2581climate,": 3}, {"\u2581Dam": 3}, {"\u2581Multi-level": 3}, {"\u2581pla": 3}, {"olic": 3}, {"\u2581Thous": 3}, {"roll": 3}, {"\u2581suddenly": 3}, {"\u2581Bal": 3}, {"\u2581gent": 3}, {"\u2581Ram": 3}, {"\u2581coat": 3}, {"arded": 3}, {"\u2581kitch": 3}, {"\u2581knife": 3}, {"\u2581Loo": 3}, {"\u2581junk": 3}, {"\u2581heard.": 3}, {"\u2581Worked": 3}, {"\u2581Vancouver": 3}, {"\u2581scholarship": 3}, {"\u2581blocked": 3}, {"\u2581angel": 3}, {"\u2581supplemental": 3}, {"\u2581Earthqu": 3}, {"\u2581SN20": 3}, {"\u2581spamm": 3}, {"\u2581Activ": 3}, {"\u2581overarching": 3}, {"\u2581implic": 3}, {"\u2581bill.": 3}, {"\u2581repeater": 3}, {"\u2581disable": 3}, {"\u2581correctly": 3}, {"\u2581evening.": 3}, {"\u2581insanity": 3}, {"ror": 3}, {"\u2581squared": 3}, {"\u2581distances": 3}, {"\u2581Henry": 3}, {"\u2581ra": 3}, {"\u2581X/PayP": 3}, {"\u2581bankrupt,": 3}, {"\u2581premiere": 3}, {"iday": 3}, {"\u2581sneak": 3}, {"\u2581preview": 3}, {"ew": 3}, {"\u2581Lost": 3}, {"unch": 3}, {"\u2581swap.": 3}, {"\u2581MCU": 3}, {"\u2581entertainment": 3}, {"\u2581Telemetry": 3}, {"\u2581vat": 3}, {"\u2581binary": 3}, {"\u2581NPC": 3}, {"\u2581confusing": 3}, {"\u2581radio,": 3}, {"\u2581$20.": 3}, {"\u2581$1400": 3}, {"\u2581Russ": 3}, {"\u2581contributed": 3}, {"\u2581~185": 3}, {"\u2581full-size": 3}, {"\u2581SUV,": 3}, {"\u2581clearance": 3}, {"\u2581garag": 3}, {"\u2581admiration": 3}, {"\u2581CO2,": 3}, {"\u2581krypton": 3}, {"\u2581nic": 3}, {"\u2581edges": 3}, {"\u2581effort,": 3}, {"\u2581tweaking": 3}, {"en*": 3}, {"\u2581pulls": 3}, {"\u2581announcements": 3}, {"\u2581cold-": 3}, {"\u2581wrapped": 3}, {"\u2581endorsement": 3}, {"\u2581attach": 3}, {"\u2581See": 3}, {"\u2581influenced": 3}, {"\u2581Spy": 3}, {"\u2581Ton": 3}, {"\u2581reporters": 3}, {"\u2581Foundation,": 3}, {"\u2581clicks.": 3}, {"us.": 3}, {"\u2581Ford,": 3}, {"\u2581Surprisingly": 3}, {"\u2581Semi-": 3}, {"inite": 3}, {"\u2581hip": 3}, {"\u2581midsize": 3}, {"\u2581MP": 3}, {"\u2581Deleting": 3}, {"\u2581variant.": 3}, {"\u2581gearing": 3}, {"\u2581self-su": 3}, {"\u2581Minimizing": 3}, {"\u2581entrepreneurs": 3}, {"\u2581Elect": 3}, {"rek": 3}, {"\u2581~80%": 3}, {"\u2581boats": 3}, {"\u2581Halloween": 3}, {"\u2581Shopify": 3}, {"acy,": 3}, {"\u2581Glass": 3}, {"\u2581resil": 3}, {"\u2581asph": 3}, {"\u2581ads": 3}, {"ires": 3}, {"\u2581powered.": 3}, {"\u2581sen": 3}, {"\u2581Pasad": 3}, {"ena.": 3}, {"\u2581Jerome": 3}, {"\u2581destruction": 3}, {"\u2581Srs": 3}, {"\u2581Transparent": 3}, {"\u2581*very*": 3}, {"\u2581incoming": 3}, {"\u2581installs": 3}, {"\u2581calibration.": 3}, {"\u2581(meant": 3}, {"\u2581carrot": 3}, {"\u2581Powerwall,": 3}, {"\u2581oppos": 3}, {"\u2581headlights": 3}, {"\u2581through,": 3}, {"\u2581Kerbal": 3}, {"\u2581separation,": 3}, {"\u2581&gt;2": 3}, {"\u2581Oberth": 3}, {"\u2581residuals": 3}, {"\u2581depos": 3}, {"\u2581(sh": 3}, {"\u2581Autopark": 3}, {"\u2581objects.": 3}, {"\u2581Venus": 3}, {"\u2581rumors": 3}, {"\u2581Godfather": 3}, {"\u2581.,": 3}, {"\u2581bully": 3}, {"\u2581Managing": 3}, {"\u2581west": 3}, {"\u2581minor.": 3}, {"\u2581problematic": 3}, {"\u2581brings": 3}, {"\u2581Powerpacks": 3}, {"\u2581Covers": 3}, {"\u2581loaner": 3}, {"\u2581Stu": 3}, {"\u2581(hes": 3}, {"\u2581risks": 3}, {"\u2581Trouble": 3}, {"\u2581(cocon": 3}, {"\u2581cha": 3}, {"\u2581Ros": 3}, {"\u2581Vangel": 3}, {"\u2581job!": 3}, {"\u2581sensors.": 3}, {"\u2581&lt;$2": 3}, {"50k": 3}, {"\u2581heartwarming": 3}, {"\u2581polished": 3}, {"\u2581inverse": 3}, {"\u2581Ashok,": 3}, {"\u2581hazards,": 3}, {"\u2581casting,": 3}, {"\u2581machining": 3}, {"zzle": 3}, {"\u2581metals": 3}, {"\u2581(now": 3}, {"\u2581inconel": 3}, {"\u2581build,": 3}, {"\u2581Anonymous": 3}, {"\u2581somethings": 3}, {"\u2581tight,": 3}, {"\u2581narrower": 3}, {"\u2581exceptions,": 3}, {"\u2581wet": 3}, {"\u2581C++,": 3}, {"\u2581time)": 3}, {"++,": 3}, {"\u2581processes": 3}, {"\u2581ablative": 3}, {"/ex": 3}, {"\u2581peak,": 3}, {"\u2581regime,": 3}, {"\u2581secrets": 3}, {"\u2581Season": 3}, {"\u2581Slo": 3}, {"\u2581Croat": 3}, {"\u2581Serbia": 3}, {"\u2581orig": 3}, {"\u2581Bottom": 3}, {"\u2581combination": 3}, {"\u2581rotate": 3}, {"\u2581Flex": 3}, {"\u2581bounds": 3}, {"\u2581lighter,": 3}, {"\u2581ground,": 3}, {"\u2581beginning.": 3}, {"\u2581regression": 3}, {"\u2581Respect": 3}, {"\u2581Amazingly,": 3}, {"\u2581Et": 3}, {"\u2581Lane": 3}, {"\u2581Told": 3}, {"\u2581gathering": 3}, {"\u2581Droid": 3}, {"oogle": 3}, {"\u2581enjoyment": 3}, {"\u2581plus,": 3}, {"\u2581buffer": 3}, {"\u2581onboard.": 3}, {"\u2581lawyers": 3}, {"upp": 3}, {"\u2581lose,": 3}, {"\u2581regions,": 3}, {"\u2581(part": 3}, {"\u2581cig": 3}, {"\u2581examine": 3}, {"\u2581spir": 3}, {"\u2581S,X": 3}, {"\u2581Y.": 3}, {"\u2581thoroughly": 3}, {"\u2581Nrburgring,": 3}, {"atz": 3}, {"\u2581delightful": 3}, {"\u2581mason": 3}, {"\u2581rope": 3}, {"\u2581older": 3}, {"\u2581departure": 3}, {"\u2581Photoshop": 3}, {"\u2581vacuum-optimized": 3}, {"\u2581Tit": 3}, {"\u2581guaranteed,": 3}, {"\u2581$300": 3}, {"\u2581requirement.": 3}, {"\u2581(ult": 3}, {"\u2581sweat": 3}, {"\u2581automobil": 3}, {"\u2581Jalopnik": 3}, {"\u2581sharp": 3}, {"\u2581regulations.": 3}, {"\u2581unha": 3}, {"\u2581Iceland": 3}, {"\u2581thereafter.": 3}, {"\u2581sands": 3}, {"\u2581torch": 3}, {"\u2581igniters.": 3}, {"\u2581naughty": 3}, {"\u2581PUC": 3}, {"\u2581utilities": 3}, {"\u2581Scient": 3}, {"\u2581away,": 3}, {"\u2581real-time.": 3}, {"\u2581based,": 3}, {"\u2581ate": 3}, {"\u2581bills": 3}, {"\u2581(can": 3}, {"\u2581kilometer": 3}, {"\u2581Gener": 3}, {"\u2581Aspirationally,": 3}, {"\u2581ed": 3}, {"\u2581Simulations": 3}, {"\u2581programm": 3}, {"\u2581codec": 3}, {"\u2581Corporate": 3}, {"\u2581Watching": 3}, {"\u2581ket": 3}, {"\u2581spirit.": 3}, {"\u2581Ultimately,": 3}, {"\u2581empirical": 3}, {"\u2581miles/km": 3}, {"\u2581NC": 3}, {"\u2581baseball": 3}, {"\u2581falls": 3}, {"\u2581teams,": 3}, {"\u2581proxim": 3}, {"\u2581plans,": 3}, {"\u2581Fred": 3}, {"\u2581Astaire": 3}, {"\u2581countries,": 3}, {"\u2581(up": 3}, {"fford": 3}, {"\u2581pier": 3}, {"\u2581barrier": 3}, {"\u2581Vehicle": 3}, {"\u2581Pol": 3}, {"\u2581default,": 3}, {"\u2581features,": 3}, {"\u2581Autopilot,": 3}, {"\u2581August,": 3}, {"\u2581towers": 3}, {"stone": 3}, {"amber": 3}, {"\u2581pressure)": 3}, {"\u2581Wearing": 3}, {"ite,": 3}, {"\u2581old.": 3}, {"\u2581Nuclear": 3}, {"sections": 3}, {"\u2581leak,": 3}, {"\u2581MS": 3}, {"\u2581Bas": 3}, {"\u2581endeavor": 3}, {"\u2581irrelevance": 3}, {"\u2581magical": 3}, {"\u2581~$7": 3}, {"\u2581bundled": 3}, {"\u2581$200": 3}, {"\u2581cofound": 3}, {"\u2581tiny,": 3}, {"\u2581Infinity": 3}, {"\u2581trace": 3}, {"\u2581movements": 3}, {"\u2581dangerously": 3}, {"\u2581~27": 3}, {"\u2581matter,": 3}, {"\u2581bit.": 3}, {"\u2581sideways": 3}, {"\u2581awards": 3}, {"\u2581Flamethrower,": 3}, {"\u2581Escob": 3}, {"\u2581traveled": 3}, {"\u2581Inevit": 3}, {"\u2581Aborted": 3}, {"\u2581corners": 3}, {"\u2581Develop": 3}, {"\u2581Local": 3}, {"\u2581Revolutions": 3}, {"\u2581Dun": 3}, {"\u2581throw": 3}, {"\u2581Occupy": 3}, {"\u2581bag": 3}, {"\u2581tonights": 3}, {"\u2581connected,": 3}, {"\u2581cause.": 3}, {"\u2581Fun,": 3}, {"\u2581mer": 3}, {"\u2581Typing": 3}, {"\u2581view.": 3}, {"\u2581Seat": 3}, {"\u2581Louis": 3}, {"\u2581critique": 3}, {"\u2581ways,": 3}, {"\u2581toile": 3}, {"\u2581ICBM": 3}, {"\u2581A380.": 3}, {"\u2581presumably": 3}, {"\u2581core,": 3}, {"\u2581God": 3}, {"\u2581Colonizing": 3}, {"\u2581(near": 3}, {"\u2581screen,": 3}, {"\u2581droids": 3}, {"\u2581surviving": 3}, {"\u2581Thermal": 3}, {"\u2581strain": 3}, {"\u2581blades.": 3}, {"\u2581contrast": 3}, {"\u2581shades": 3}, {"\u2581curbs": 3}, {"rete": 3}, {"\u2581reuse.": 3}, {"\u2581inspections": 3}, {"\u2581stator": 3}, {"ears": 3}, {"\u2581Accelerating": 3}, {"\u2581musk": 3}, {"()": 3}, {"\u2581Yezz": 3}, {"\u2581multi-coat": 3}, {"\u2581meunire": 3}, {"\u2581Amsterdam": 3}, {"oh": 3}, {"\u2581operation,": 3}, {"\u2581need,": 3}, {"\u2581Venge": 3}, {"\u2581clothing": 3}, {"\u2581$800": 3}, {"\u2581$3750": 3}, {"\u2581Return": 3}, {"\u2581V3.0": 3}, {"\u2581tit": 3}, {"\u2581optimize": 3}, {"\u2581resident": 3}, {"\u2581awareness": 3}, {"\u2581technic": 3}, {"\u2581eligible": 3}, {"\u2581gentle": 3}, {"\u2581batt": 3}, {"\u2581*way*": 3}, {"\u2581~10,000": 3}, {"/flaps": 3}, {"\u2581grace": 3}, {"\u2581Edgy": 3}, {"\u2581twitch": 3}, {"\u2581Rot": 3}, {"\u2581ax": 3}, {"\u2581terrestrial": 3}, {"\u2581orientation": 3}, {"\u2581btw,": 3}, {"\u2581advancements": 3}, {"\u2581optim": 3}, {"\u2581maximizes": 3}, {"\u2581initiating": 3}, {"\u2581interconnect": 3}, {"\u2581ramps": 3}, {"\u2581true:": 3}, {"\u2581approving": 3}, {"\u2581Racing": 3}, {"\u2581(near)": 3}, {"\u2581leaves": 3}, {"\u2581airframe,": 3}, {"\u2581colony,": 3}, {"/mo": 3}, {"\u2581Ocean": 3}, {"\u2581Otherwise": 3}, {"\u2581spins": 3}, {"\u2581spinning": 3}, {"\u2581tricky.": 3}, {"\u2581Nintendo": 3}, {"\u2581endorsements.": 3}, {"\u2581Instead,": 3}, {"\u2581could,": 3}, {"\u2581ingredient": 3}, {"\u2581tox": 3}, {"\u2581viruses,": 3}, {"\u2581imaginary": 3}, {"\u2581liter": 3}, {"\u2581installing": 3}, {"\u2581*might*": 3}, {"\u2581lon": 3}, {"\u2581teas": 3}, {"\u2581questionable": 3}, {"\u2581Basically": 3}, {"\u2581purchase,": 3}, {"/month": 3}, {"\u2581Ultra": 3}, {"\u2581pictures": 3}, {"\u2581happiness.": 3}, {"\u2581Gand": 3}, {"\u2581Euro": 3}, {"\u2581Click": 3}, {"\u2581Setting": 3}, {"\u2581throttles": 3}, {"\u2581dairy": 3}, {"\u2581Policy": 3}, {"\u2581merge": 3}, {"\u2581theory.": 3}, {"\u2581Gatsb": 3}, {"\u2581ASIC": 3}, {"\u2581productive": 3}, {"\u2581taxi": 3}, {"\u2581board.": 3}, {"\u2581states.": 3}, {"\u2581agencies": 3}, {"\u2581differ": 3}, {"\u2581useful,": 3}, {"\u2581semi-": 3}, {"\u2581overall,": 3}, {"\u2581Cramer": 3}, {"\u2581thereafter": 3}, {"\u2581Japan,": 3}, {"\u2581Francisco": 3}, {"\u2581blower": 3}, {"\u2581particulate": 3}, {"\u2581leaf": 3}, {"\u2581Fred,": 3}, {"\u2581-12": 3}, {"\u2581Anti-matter": 3}, {"\u2581~120": 3}, {"\u2581choked": 3}, {"\u2581bus,": 3}, {"\u2581Warning,": 3}, {"\u2581Home": 3}, {"\u2581Alchem": 3}, {"\u2581Respawn": 3}, {"\u2581succeed,": 3}, {"\u2581blue,": 3}, {"\u2581USB": 3}, {"le!": 3}, {"\u2581oxid": 3}, {"\u2581rural": 3}, {"\u2581replic": 3}, {"\u2581full,": 3}, {"\u2581uncooled": 3}, {"\u2581corrupt": 3}, {"\u2581~2/3": 3}, {"\u2581higher,": 3}, {"\u2581verify": 3}, {"\u2581Pana": 3}, {"\u2581substantially": 3}, {"\u2581Cryptocurrency": 3}, {"\u2581modules": 3}, {"\u2581Repl": 3}, {"\u2581Da": 3}, {"\u2581discounts": 3}, {"\u2581Leasing": 3}, {"\u2581Comput": 3}, {"\u2581precautionary": 3}, {"\u2581parked": 3}, {"\u2581functional": 3}, {"\u2581vigil": 3}, {"\u2581forgetting": 3}, {"\u2581needing": 3}, {"\u2581personally,": 3}, {"\u2581servicing": 3}, {"\u2581windows": 3}, {"\u2581earlier.": 3}, {"\u2581Help": 3}, {"\u2581tin": 3}, {"rad": 3}, {"\u2581spelled": 3}, {"\u2581wipe": 3}, {"\u2581ineffect": 3}, {"ung": 3}, {"ords": 3}, {"\u2581Instagram": 3}, {"\u2581(M": 3}, {"eous": 3}, {"\u2581insecure": 3}, {"\u2581Primary": 3}, {"\u2581automation": 3}, {"\u2581Cape,": 3}, {"\u2581modified": 3}, {"\u2581bays": 3}, {"read": 3}, {"\u2581refined": 3}, {"\u2581Sens": 3}, {"\u2581remained": 3}, {"\u2581complic": 3}, {"\u2581Roadsters": 3}, {"\u2581inventory": 3}, {"\u2581Exclude": 3}, {"\u2581cumulative": 3}, {"\u2581fiber,": 3}, {"\u2581gaps": 3}, {"\u2581Hex": 3}, {"\u2581powers": 3}, {"\u2581deeper": 3}, {"\u2581Ken": 3}, {"\u2581complex,": 3}, {"\u2581(really": 3}, {"\u2581Goes": 3}, {"\u2581magnet": 3}, {"\u2581motors.": 3}, {"\u2581flash": 3}, {"\u2581Designed": 3}, {"\u2581spl": 3}, {"\u2581price,": 3}, {"\u2581pad,": 3}, {"\u2581NK": 3}, {"\u2581admired": 3}, {"/space": 3}, {"\u2581maintained": 3}, {"\u2581vapor": 3}, {"\u2581splitting": 3}, {"W.": 3}, {"\u2581Net": 3}, {"&amp;": 3}, {"\u2581reject": 3}, {"dy": 3}, {"\u2581Slightly": 3}, {"\u2581Norm": 3}, {"\u2581rides": 3}, {"\u2581shadow": 3}, {"\u2581Lightning": 3}, {"\u2581floats": 3}, {"iple": 3}, {"\u2581full-time": 3}, {"\u2581equivalent": 3}, {"\u2581hi": 3}, {"\u2581feelings": 3}, {"\u2581loads": 3}, {"\u2581Satur": 3}, {"\u2581Robin": 3}, {"\u2581Clarke": 3}, {"/design": 3}, {"\u2581mist": 3}, {"\u2581Ro": 3}, {"\u2581Inconel": 3}, {"\u2581temps": 3}, {"\u2581pets": 3}, {"\u2581Bet": 3}, {"\u2581bubble": 3}, {"side": 3}, {"\u2581ticket": 3}, {"\u2581RD-1": 3}, {"\u2581Tilburg": 3}, {"\u2581Oslo": 3}, {"\u2581Norway.": 3}, {"\u2581bi": 3}, {"\u2581pads": 3}, {"\u2581(pro": 3}, {"\u2581baff": 3}, {"\u2581Dog": 3}, {"\u2581*actually*": 3}, {"\u2581apples": 3}, {"\u2581do,": 3}, {"\u2581redd": 3}, {"\u2581meth": 3}, {"\u2581cre": 3}, {"\u2581tougher": 3}, {"\u2581sea-level": 3}, {"\u2581touched": 3}, {"\u2581patent": 3}, {"\u2581retirement": 3}, {"\u2581questions.": 3}, {"\u2581skyscraper": 3}, {"at.": 3}, {"\u2581document": 3}, {"\u2581Lea": 3}, {"cc": 3}, {"\u2581bra": 3}, {"/G": 3}, {"erman": 3}, {"\u2581Rough": 3}, {"\u2581security,": 3}, {"\u2581snap": 3}, {"\u2581lat": 3}, {"\u2581zo": 3}, {"5M": 3}, {"\u2581$2": 3}, {"\u2581Cup": 3}, {"\u2581trippy": 3}, {"\u2581version,": 3}, {"\u2581endurance": 3}, {"-w": 3}, {"rapped": 3}, {"\u2581models": 3}, {"\u2581hopper": 3}, {"wards": 3}, {"ences": 3}, {"\u2581mid-range": 3}, {"\u2581solar/battery": 3}, {"\u2581Chines": 3}, {"\u2581Govt": 3}, {"omp": 3}, {"\u2581Although": 3}, {"\u2581importantly,": 3}, {"\u2581$7500": 3}, {"\u2581cuts": 3}, {"\u2581acquired": 3}, {"\u2581gra": 3}, {"\u2581infinite": 3}, {"\u2581ps": 3}, {"\u2581flow,": 3}, {"\u2581jo": 3}, {"ao": 3}, {"\u2581Mast": 3}, {"xi": 3}, {"\u2581(P": 3}, {"\u2581streets": 3}, {"\u2581walking": 3}, {"\u2581Pop": 3}, {"\u2581bel": 3}, {"\u2581demonstr": 3}, {"\u2581convenient": 3}, {"\u2581disruption": 3}, {"\u2581affordability.": 3}, {"\u2581whatsoever": 3}, {"\u2581wine": 3}, {"\u2581execut": 3}, {"\u2581story.": 3}, {"\u2581viewed": 3}, {"atically": 3}, {"chang": 3}, {"\u2581Pump": 3}, {"\u2581critical,": 3}, {"away": 3}, {"\u2581Recovery": 3}, {"-only": 3}, {"\u2581Norway,": 3}, {"\u2581Arctic": 3}, {"coming": 3}, {"\u2581Prof": 3}, {"\u2581Sep": 3}, {"\u2581Used": 3}, {"\u2581Ren": 3}, {"\u2581resour": 3}, {"\u2581gl": 3}, {"uming": 3}, {"angers": 3}, {"aps": 3}, {"\u2581LA/Hawthorne": 3}, {"\u2581especially,": 3}, {"\u2581$12": 3}, {"\u2581discount.": 3}, {"}": 3}, {"\u2581watcht": 3}, {"\u2581castle.": 3}, {"\u2581ours": 3}, {"\u2581March,": 3}, {"\u2581transporting": 3}, {"\u2581secured": 3}, {"\u2581events.": 3}, {"\u2581smart,": 3}, {"\u2581publishing": 3}, {"\u2581slowing": 3}, {"\u2581profits": 3}, {"\u2581dinosaurs": 3}, {"\u2581catastroph": 3}, {"\u2581psych": 3}, {"urb": 3}, {"ge.": 3}, {"\u2581prec": 3}, {"\u2581broader": 3}, {"\u2581purely": 3}, {"\u2581Hahaha": 3}, {"\u2581&lt;ahem&gt;": 3}, {"\u2581worry,": 3}, {"\u2581underp": 3}, {"\u2581Navigation": 3}, {"\u2581Inst": 3}, {"\u2581criticism": 3}, {"\u2581Frost": 3}, {"\u2581arrow": 3}, {"-selling": 3}, {"itors": 3}, {"\u2581operational,": 3}, {"\u2581Op": 3}, {"\u2581Digital": 3}, {"\u2581Ma": 3}, {"\u2581sport": 3}, {"ially": 3}, {"\u2581David": 3}, {"imated": 3}, {"ari": 3}, {"\u2581Princess": 3}, {"\u2581towel": 3}, {"\u2581*own": 3}, {"ude": 3}, {"\u2581Pun": 3}, {"\u2581fans": 3}, {"\u2581welcome,": 3}, {"wh": 3}, {"\u2581Blackrock": 3}, {"\u2581V9": 3}, {"\u2581Holding": 3}, {"\u2581excessive": 3}, {"\u2581pretending": 3}, {"\u2581index": 3}, {"\u2581Deb": 3}, {"\u2581stocks": 3}, {"\u2581conscious": 3}, {"\u2581funds,": 3}, {"\u2581angle,": 3}, {"\u2581Nature": 3}, {"\u2581handling,": 3}, {"\u2581Apologies,": 3}, {"\u2581alleviate": 3}, {"\u2581Tricky": 3}, {"\u2581educ": 3}, {"\u2581center.": 3}, {"\u2581combust": 3}, {"\u2581stats": 3}, {"\u2581listen": 3}, {"ever": 3}, {"\u2581scammers": 3}, {"\u2581mult": 3}, {"\u2581tint": 3}, {"\u2581size,": 3}, {"-of": 3}, {"-se": 3}, {"\u2581chose": 3}, {"\u2581swear": 3}, {"\u2581record,": 3}, {"\u2581McC": 3}, {"ain.": 3}, {"\u2581Fossil": 3}, {"-up": 3}, {"\u2581checks": 3}, {"\u2581stupid": 3}, {"\u2581happen,": 3}, {"any": 3}, {"\u2581optimizing": 3}, {"\u2581earning": 3}, {"and,": 3}, {"\u2581Lunar": 3}, {"\u2581spirit": 3}, {"\u2581Mun": 3}, {"\u2581thigh": 3}, {"\u2581pockets": 3}, {"\u2581Nan": 3}, {"\u2581MI": 3}, {"rupt": 3}, {"\u2581refinements": 3}, {"\u2581enhance": 3}, {"\u2581Hardware": 3}, {"\u2581Hitler": 3}, {"\u2581examp": 3}, {"\u2581(wh": 3}, {"\u2581body.": 3}, {"\u2581plastic": 3}, {"\u2581listening": 3}, {"\u2581Jon": 3}, {"ularity": 3}, {"\u2581reality,": 3}, {"\u2581Tweet": 3}, {"\u2581Phil": 3}, {"\u2581relentless": 3}, {"dle": 3}, {"\u2581Mt": 3}, {"\u2581wa": 3}, {"\u2581Then,": 3}, {"\u2581historical": 3}, {"\u2581Wall": 3}, {"\u2581compet": 3}, {"\u2581Lockhe": 3}, {"\u2581justify": 3}, {"\u2581suggests,": 3}, {"\u2581mini-sub": 3}, {"\u2581register": 3}, {"\u2581shes": 3}, {"\u2581Look": 3}, {"\u2581smell": 3}, {"\u2581birthday,": 3}, {"\u2581Hmm": 3}, {"\u2581thanks.": 3}, {"\u2581us,": 3}, {"ax": 3}, {"\u2581resc": 3}, {"\u2581rose": 3}, {"\u2581theyve": 3}, {"storm": 3}, {"\u2581commit": 3}, {"\u2581Catch": 3}, {"\u2581massively": 3}, {"\u2581deadly": 3}, {"\u2581~250": 3}, {"\u2581indirect": 3}, {"vir": 3}, {"cial": 3}, {"ave": 3}, {"\u2581Mini-sub": 3}, {"\u2581infl": 3}, {"ube": 3}, {"\u2581alarming": 3}, {"ms": 3}, {"\u2581shell": 3}, {"duct": 3}, {"ule": 3}, {"\u2581(primarily": 3}, {"l
[...]
