{
  "version": "1.0",
  "truncation": null,
  "padding": null,
  "added_tokens": [
    {
      "id": 0,
      "content": "<s>",
      "single_word": false,
      "lstrip": false,
      "rstrip": false,
      "normalized": false,
      "special": true
    },
    {
      "id": 1,
      "content": "<pad>",
      "single_word": false,
      "lstrip": false,
      "rstrip": false,
      "normalized": false,
      "special": true
    },
    {
      "id": 2,
      "content": "</s>",
      "single_word": false,
      "lstrip": false,
      "rstrip": false,
      "normalized": false,
      "special": true
    },
    {
      "id": 3,
      "content": "<unk>",
      "single_word": false,
      "lstrip": false,
      "rstrip": false,
      "normalized": false,
      "special": true
    },
    {
      "id": 4,
      "content": "<mask>",
      "single_word": false,
      "lstrip": false,
      "rstrip": false,
      "normalized": false,
      "special": true
    },
    {
      "id": 5,
      "content": "[UNK]",
      "single_word": false,
      "lstrip": false,
      "rstrip": false,
      "normalized": false,
      "special": true
    }
  ],
  "normalizer": {
    "type": "BertNormalizer",
    "clean_text": true,
    "handle_chinese_chars": true,
    "strip_accents": null,
    "lowercase": true
  },
  "pre_tokenizer": {
    "type": "BertPreTokenizer"
  },
  "post_processor": null,
  "decoder": {
    "type": "WordPiece",
    "prefix": "##",
    "cleanup": true
  },
  "model": {
    "type": "WordPiece",
    "unk_token": "[UNK]",
    "continuing_subword_prefix": "##",
    "max_input_chars_per_word": 100,
    "vocab": {
      "<s>": 0,
      "<pad>": 1,
      "</s>": 2,
      "<unk>": 3,
      "<mask>": 4,
      "[UNK]": 5,
      "!": 6,
      "\"": 7,
      "$": 8,
      "%": 9,
      "&": 10,
      "'": 11,
      "(": 12,
      ")": 13,
      "*": 14,
      "+": 15,
      ",": 16,
      "-": 17,
      ".": 18,
      "/": 19,
      "0": 20,
      "1": 21,
      "2": 22,
      "3": 23,
      "4": 24,
      "5": 25,
      "6": 26,
      "7": 27,
      "8": 28,
      "9": 29,
      ":": 30,
      ";": 31,
      "<": 32,
      "=": 33,
      ">": 34,
      "?": 35,
      "[": 36,
      "\\": 37,
      "]": 38,
      "_": 39,
      "a": 40,
      "b": 41,
      "c": 42,
      "d": 43,
      "e": 44,
      "f": 45,
      "g": 46,
      "h": 47,
      "i": 48,
      "j": 49,
      "k": 50,
      "l": 51,
      "m": 52,
      "n": 53,
      "o": 54,
      "p": 55,
      "q": 56,
      "r": 57,
      "s": 58,
      "t": 59,
      "u": 60,
      "v": 61,
      "w": 62,
      "x": 63,
      "y": 64,
      "z": 65,
      "|": 66,
      "~": 67,
      "##5": 68,
      "##6": 69,
      "##8": 70,
      "##7": 71,
      "##a": 72,
      "##l": 73,
      "##s": 74,
      "##4": 75,
      "##0": 76,
      "##t": 77,
      "##r": 78,
      "##i": 79,
      "##m": 80,
      "##o": 81,
      "##v": 82,
      "##h": 83,
      "##e": 84,
      "##n": 85,
      "##g": 86,
      "##u": 87,
      "##y": 88,
      "##b": 89,
      "##j": 90,
      "##c": 91,
      "##1": 92,
      "##d": 93,
      "##k": 94,
      "##9": 95,
      "##2": 96,
      "##3": 97,
      "##x": 98,
      "##p": 99,
      "##w": 100,
      "##f": 101,
      "##z": 102,
      "##q": 103,
      "th": 104,
      "##on": 105,
      "##al": 106,
      "##er": 107,
      "##in": 108,
      "##re": 109,
      "##an": 110,
      "##ou": 111,
      "the": 112,
      "##at": 113,
      "##ald": 114,
      "##mp": 115,
      "##or": 116,
      "##ru": 117,
      "##ing": 118,
      "##en": 119,
      "re": 120,
      "##rump": 121,
      "##es": 122,
      "to": 123,
      "##ar": 124,
      "##ic": 125,
      "##ll": 126,
      "##it": 127,
      "you": 128,
      "##st": 129,
      "##onald": 130,
      "in": 131,
      "an": 132,
      "##ed": 133,
      "##trump": 134,
      "##is": 135,
      "##onaldtrump": 136,
      "reald": 137,
      "realdonaldtrump": 138,
      "##le": 139,
      "is": 140,
      "##as": 141,
      "be": 142,
      "##ot": 143,
      "of": 144,
      "##ve": 145,
      "##ow": 146,
      "and": 147,
      "##am": 148,
      "##ay": 149,
      "on": 150,
      "##ac": 151,
      "for": 152,
      "##om": 153,
      "##et": 154,
      "##ill": 155,
      "##id": 156,
      "##ion": 157,
      "trump": 158,
      "##ent": 159,
      "wh": 160,
      "##ig": 161,
      "##ld": 162,
      "##ank": 163,
      "##ad": 164,
      "##ly": 165,
      "##ur": 166,
      "st": 167,
      "##ver": 168,
      "##nt": 169,
      "it": 170,
      "##ut": 171,
      "go": 172,
      "ne": 173,
      "##reat": 174,
      "thank": 175,
      "##pp": 176,
      "##se": 177,
      "he": 178,
      "##ch": 179,
      "great": 180,
      "sh": 181,
      "we": 182,
      "##est": 183,
      "ha": 184,
      "##im": 185,
      "##bam": 186,
      "ch": 187,
      "##res": 188,
      "##ke": 189,
      "##un": 190,
      "will": 191,
      "lo": 192,
      "at": 193,
      "##ht": 194,
      "that": 195,
      "do": 196,
      "##ould": 197,
      "##ice": 198,
      "##us": 199,
      "##ir": 200,
      "##ter": 201,
      "##ri": 202,
      "##and": 203,
      "##ack": 204,
      "con": 205,
      "##od": 206,
      "##ith": 207,
      "de": 208,
      "thanks": 209,
      "##bama": 210,
      "are": 211,
      "my": 212,
      "##ers": 213,
      "##op": 214,
      "##th": 215,
      "am": 216,
      "li": 217,
      "with": 218,
      "##ol": 219,
      "your": 220,
      "##ie": 221,
      "##ight": 222,
      "##ct": 223,
      "##ust": 224,
      "have": 225,
      "##ce": 226,
      "##ee": 227,
      "##ation": 228,
      "##ess": 229,
      "pres": 230,
      "##ne": 231,
      "##ul": 232,
      "##ag": 233,
      "##il": 234,
      "##ast": 235,
      "##rent": 236,
      "su": 237,
      "##ro": 238,
      "##ate": 239,
      "##pprent": 240,
      "##ant": 241,
      "not": 242,
      "##ident": 243,
      "wor": 244,
      "##ity": 245,
      "so": 246,
      "##ry": 247,
      "can": 248,
      "##ere": 249,
      "this": 250,
      "president": 251,
      "##el": 252,
      "as": 253,
      "cou": 254,
      "all": 255,
      "##rom": 256,
      "was": 257,
      "##end": 258,
      "##day": 259,
      "##ard": 260,
      "jo": 261,
      "##one": 262,
      "donald": 263,
      "##ore": 264,
      "##ra": 265,
      "obama": 266,
      "ab": 267,
      "me": 268,
      "our": 269,
      "##ia": 270,
      "10": 271,
      "##art": 272,
      "le": 273,
      "20": 274,
      "##ele": 275,
      "11": 276,
      "##ok": 277,
      "16": 278,
      "15": 279,
      "##pprentice": 280,
      "new": 281,
      "17": 282,
      "12": 283,
      "13": 284,
      "14": 285,
      "19": 286,
      "18": 287,
      "just": 288,
      "sp": 289,
      "by": 290,
      "##ome": 291,
      "fo": 292,
      "what": 293,
      "has": 294,
      "get": 295,
      "tim": 296,
      "##ink": 297,
      "co": 298,
      "ma": 299,
      "they": 300,
      "al": 301,
      "##ck": 302,
      "real": 303,
      "##out": 304,
      "##all": 305,
      "cele": 306,
      "celeb": 307,
      "us": 308,
      "se": 309,
      "bar": 310,
      "ag": 311,
      "if": 312,
      "would": 313,
      "pl": 314,
      "##ble": 315,
      "run": 316,
      "ex": 317,
      "ever": 318,
      "win": 319,
      "##ive": 320,
      "##are": 321,
      "cont": 322,
      "but": 323,
      "his": 324,
      "man": 325,
      "no": 326,
      "don": 327,
      "##ment": 328,
      "##lf": 329,
      "like": 330,
      "un": 331,
      "##bc": 332,
      "from": 333,
      "##os": 334,
      "##ain": 335,
      "##eric": 336,
      "tru": 337,
      "good": 338,
      "barack": 339,
      "##oug": 340,
      "##her": 341,
      "think": 342,
      "should": 343,
      "##ort": 344,
      "pe": 345,
      "americ": 346,
      "who": 347,
      "need": 348,
      "##ery": 349,
      "inter": 350,
      "baracko": 351,
      "##ff": 352,
      "##ist": 353,
      "barackobama": 354,
      "##ber": 355,
      "##cc": 356,
      "##20": 357,
      "one": 358,
      "peop": 359,
      "##sp": 360,
      "##ak": 361,
      "about": 362,
      "##ect": 363,
      "count": 364,
      "out": 365,
      "bu": 366,
      "people": 367,
      "en": 368,
      "##ine": 369,
      "pr": 370,
      "very": 371,
      "##ire": 372,
      "##ub": 373,
      "##um": 374,
      "##ous": 375,
      "cl": 376,
      "##ies": 377,
      "##ong": 378,
      "time": 379,
      "##iew": 380,
      "##ost": 381,
      "best": 382,
      "now": 383,
      "show": 384,
      "##ear": 385,
      "up": 386,
      "##16": 387,
      "look": 388,
      "how": 389,
      "##ge": 390,
      "##atch": 391,
      "##now": 392,
      "love": 393,
      "or": 394,
      "##man": 395,
      "big": 396,
      "see": 397,
      "##au": 398,
      "##az": 399,
      "##ase": 400,
      "##ful": 401,
      "##ans": 402,
      "ar": 403,
      "dis": 404,
      "##apprentice": 405,
      "##av": 406,
      "##der": 407,
      "more": 408,
      "##itt": 409,
      "##ays": 410,
      "##ning": 411,
      "country": 412,
      "work": 413,
      "##10": 414,
      "when": 415,
      "##lo": 416,
      "##we": 417,
      "br": 418,
      "pro": 419,
      "ro": 420,
      "##ite": 421,
      "##12": 422,
      "job": 423,
      "##hing": 424,
      "watch": 425,
      "over": 426,
      "every": 427,
      "via": 428,
      "##19": 429,
      "bus": 430,
      "ta": 431,
      "true": 432,
      "sc": 433,
      "##13": 434,
      "bo": 435,
      "know": 436,
      "mar": 437,
      "##ip": 438,
      "##ass": 439,
      "##ick": 440,
      "ad": 441,
      "te": 442,
      "year": 443,
      "##ven": 444,
      "##iss": 445,
      "golf": 446,
      "##view": 447,
      "##ich": 448,
      "off": 449,
      "any": 450,
      "##ough": 451,
      "##aw": 452,
      "never": 453,
      "com": 454,
      "##rat": 455,
      "fox": 456,
      "##ame": 457,
      "mr": 458,
      "chin": 459,
      "rep": 460,
      "##ord": 461,
      "why": 462,
      "##ign": 463,
      "vot": 464,
      "##riend": 465,
      "cour": 466,
      "back": 467,
      "##ure": 468,
      "##ary": 469,
      "lead": 470,
      "there": 471,
      "make": 472,
      "him": 473,
      "celebr": 474,
      "bill": 475,
      "##ally": 476,
      "##00": 477,
      "##amp": 478,
      "##44": 479,
      "int": 480,
      "##ue": 481,
      "##ish": 482,
      "##ney": 483,
      "##cus": 484,
      "##de": 485,
      "than": 486,
      "##iness": 487,
      "want": 488,
      "##sh": 489,
      "only": 490,
      "happ": 491,
      "today": 492,
      "apprentice": 493,
      "##77": 494,
      "##oun": 495,
      "going": 496,
      "america": 497,
      "interview": 498,
      "##ccess": 499,
      "##ings": 500,
      "##ace": 501,
      "##11": 502,
      "##age": 503,
      "really": 504,
      "obam": 505,
      "won": 506,
      "##88": 507,
      "business": 508,
      "world": 509,
      "aw": 510,
      "celebrity": 511,
      "##lease": 512,
      "##iv": 513,
      "deal": 514,
      "success": 515,
      "##ap": 516,
      "bet": 517,
      "##con": 518,
      "again": 519,
      "celebapprentice": 520,
      "miss": 521,
      "did": 522,
      "##iver": 523,
      "cong": 524,
      "##row": 525,
      "mu": 526,
      "##23": 527,
      "##eep": 528,
      "##14": 529,
      "china": 530,
      "rec": 531,
      "apprent": 532,
      "##15": 533,
      "##enbc": 534,
      "ton": 535,
      "af": 536,
      "apprentic": 537,
      "bec": 538,
      "apprenticenbc": 539,
      "##ree": 540,
      "does": 541,
      "##land": 542,
      "them": 543,
      "##new": 544,
      "fin": 545,
      "##85": 546,
      "##ason": 547,
      "##60": 548,
      "##99": 549,
      "##pt": 550,
      "ter": 551,
      "##ial": 552,
      "mitt": 553,
      "##ations": 554,
      "##ab": 555,
      "##ational": 556,
      "##83": 557,
      "##ild": 558,
      "##our": 559,
      "ent": 560,
      "##em": 561,
      "much": 562,
      "some": 563,
      "many": 564,
      "##84": 565,
      "sm": 566,
      "##73": 567,
      "##22": 568,
      "##65": 569,
      "##fe": 570,
      "right": 571,
      "##lic": 572,
      "##ions": 573,
      "pre": 574,
      "##75": 575,
      "##ny": 576,
      "##ail": 577,
      "##63": 578,
      "##80": 579,
      "gu": 580,
      "ny": 581,
      "##74": 582,
      "vote": 583,
      "lu": 584,
      "please": 585,
      "##riends": 586,
      "last": 587,
      "##70": 588,
      "tonight": 589,
      "must": 590,
      "##69": 591,
      "##iz": 592,
      "##act": 593,
      "##ope": 594,
      "##64": 595,
      "amaz": 596,
      "##25": 597,
      "play": 598,
      "tr": 599,
      "keep": 600,
      "##89": 601,
      "##79": 602,
      "##24": 603,
      "##own": 604,
      "course": 605,
      "obamac": 606,
      "##ade": 607,
      "sa": 608,
      "obamacare": 609,
      "amazing": 610,
      "night": 611,
      "pol": 612,
      "being": 613,
      "##ways": 614,
      "bl": 615,
      "she": 616,
      "##29": 617,
      "read": 618,
      "comp": 619,
      "let": 620,
      "been": 621,
      "always": 622,
      "op": 623,
      "congrat": 624,
      "##ence": 625,
      "her": 626,
      "##ton": 627,
      "##ek": 628,
      "day": 629,
      "##og": 630,
      "tal": 631,
      "better": 632,
      "##ah": 633,
      "##jo": 634,
      "##romney": 635,
      "even": 636,
      "fir": 637,
      "tw": 638,
      "##ric": 639,
      "##33": 640,
      "deb": 641,
      "mon": 642,
      "##urn": 643,
      "##oral": 644,
      "##ublic": 645,
      "way": 646,
      "##rong": 647,
      "hot": 648,
      "##other": 649,
      "mittromney": 650,
      "say": 651,
      "##qu": 652,
      "scot": 653,
      "doing": 654,
      "their": 655,
      "hope": 656,
      "qu": 657,
      "##55": 658,
      "##ound": 659,
      "bad": 660,
      "##oney": 661,
      "##ach": 662,
      "its": 663,
      "##ction": 664,
      "##ide": 665,
      "week": 666,
      "##ress": 667,
      "##weet": 668,
      "##ory": 669,
      "##ause": 670,
      "##ris": 671,
      "##ork": 672,
      "att": 673,
      "##66": 674,
      "##ret": 675,
      "##itic": 676,
      "chan": 677,
      "exp": 678,
      "nice": 679,
      "were": 680,
      "##ago": 681,
      "##king": 682,
      "##sing": 683,
      "##ily": 684,
      "##pre": 685,
      "##50": 686,
      "##mor": 687,
      "##xt": 688,
      "start": 689,
      "##news": 690,
      "##ward": 691,
      "could": 692,
      "##if": 693,
      "##ated": 694,
      "##ind": 695,
      "##ud": 696,
      "first": 697,
      "hotel": 698,
      "po": 699,
      "##ts": 700,
      "wa": 701,
      "had": 702,
      "war": 703,
      "##17": 704,
      "season": 705,
      "##aut": 706,
      "##wer": 707,
      "got": 708,
      "im": 709,
      "money": 710,
      "##82": 711,
      "per": 712,
      "record": 713,
      "##ious": 714,
      "oth": 715,
      "##ting": 716,
      "##30": 717,
      "##87": 718,
      "##ner": 719,
      "inc": 720,
      "ele": 721,
      "ve": 722,
      "##ey": 723,
      "##ec": 724,
      "##ran": 725,
      "##self": 726,
      "##40": 727,
      "well": 728,
      "##ren": 729,
      "##thing": 730,
      "happy": 731,
      "hard": 732,
      "mi": 733,
      "##59": 734,
      "most": 735,
      "art": 736,
      "years": 737,
      "##ell": 738,
      "##39": 739,
      "nbc": 740,
      "##49": 741,
      "app": 742,
      "##67": 743,
      "bel": 744,
      "needs": 745,
      "##son": 746,
      "rem": 747,
      "##ict": 748,
      "beaut": 749,
      "take": 750,
      "because": 751,
      "dan": 752,
      "mac": 753,
      "give": 754,
      "##able": 755,
      "too": 756,
      "next": 757,
      "discus": 758,
      "mor": 759,
      "##ian": 760,
      "##repre": 761,
      "##neur": 762,
      "imp": 763,
      "entrepre": 764,
      "##62": 765,
      "##ms": 766,
      "entrepreneur": 767,
      "call": 768,
      "ste": 769,
      "def": 770,
      "wait": 771,
      "##io": 772,
      "##ates": 773,
      "char": 774,
      "news": 775,
      "##for": 776,
      "fun": 777,
      "ll": 778,
      "##conom": 779,
      "des": 780,
      "##ower": 781,
      "##andf": 782,
      "into": 783,
      "##ett": 784,
      "star": 785,
      "gr": 786,
      "econom": 787,
      "ow": 788,
      "tot": 789,
      "wind": 790,
      "looking": 791,
      "##ty": 792,
      "##ath": 793,
      "res": 794,
      "build": 795,
      "##bs": 796,
      "luck": 797,
      "resp": 798,
      "foxandf": 799,
      "hig": 800,
      "foxandfriends": 801,
      "bir": 802,
      "mo": 803,
      "##hn": 804,
      "##ys": 805,
      "smart": 806,
      "##35": 807,
      "##ose": 808,
      "##18": 809,
      "leaders": 810,
      "mill": 811,
      "made": 812,
      "##ving": 813,
      "##up": 814,
      "##34": 815,
      "##icago": 816,
      "##ought": 817,
      "may": 818,
      "pers": 819,
      "another": 820,
      "los": 821,
      "down": 822,
      "part": 823,
      "##ile": 824,
      "##ph": 825,
      "car": 826,
      "fail": 827,
      "##mon": 828,
      "under": 829,
      "tax": 830,
      "book": 831,
      "##ib": 832,
      "##ves": 833,
      "##ieve": 834,
      "national": 835,
      "##ise": 836,
      "##iful": 837,
      "ser": 838,
      "##72": 839,
      "##ens": 840,
      "fl": 841,
      "after": 842,
      "rat": 843,
      "pm": 844,
      "##ouse": 845,
      "##ited": 846,
      "discussing": 847,
      "tweet": 848,
      "##get": 849,
      "##red": 850,
      "agree": 851,
      "jobs": 852,
      "##pport": 853,
      "beautiful": 854,
      "fr": 855,
      "##68": 856,
      "##atrump": 857,
      "##54": 858,
      "##fl": 859,
      "ann": 860,
      "politic": 861,
      "##my": 862,
      "##ulations": 863,
      "put": 864,
      "enjo": 865,
      "iv": 866,
      "wonder": 867,
      "##be": 868,
      "then": 869,
      "##2016": 870,
      "terri": 871,
      "enjoy": 872,
      "##att": 873,
      "forward": 874,
      "lot": 875,
      "high": 876,
      "##90": 877,
      "sure": 878,
      "exc": 879,
      "ivank": 880,
      "##lp": 881,
      "##umb": 882,
      "yes": 883,
      "mark": 884,
      "##ark": 885,
      "stop": 886,
      "republic": 887,
      "hon": 888,
      "##so": 889,
      "##ved": 890,
      "##ester": 891,
      "american": 892,
      "long": 893,
      "sign": 894,
      "congratulations": 895,
      "##ger": 896,
      "top": 897,
      "dec": 898,
      "done": 899,
      "##bo": 900,
      "##int": 901,
      "champ": 902,
      "##rist": 903,
      "scotland": 904,
      "person": 905,
      "where": 906,
      "fe": 907,
      "##vent": 908,
      "##gy": 909,
      "tower": 910,
      "##aug": 911,
      "said": 912,
      "##ull": 913,
      "##ider": 914,
      "el": 915,
      "##enn": 916,
      "act": 917,
      "proble": 918,
      "##mo": 919,
      "##ute": 920,
      "come": 921,
      "sad": 922,
      "help": 923,
      "spe": 924,
      "guy": 925,
      "own": 926,
      "##astic": 927,
      "kill": 928,
      "##ember": 929,
      "believe": 930,
      "birth": 931,
      "##vel": 932,
      "entrepreneurs": 933,
      "vis": 934,
      "##air": 935,
      "##ma": 936,
      "##ins": 937,
      "doral": 938,
      "em": 939,
      "ph": 940,
      "##ann": 941,
      "##ance": 942,
      "##sc": 943,
      "##ons": 944,
      "stay": 945,
      "sun": 946,
      "##32": 947,
      "##aster": 948,
      "##ody": 949,
      "##ired": 950,
      "som": 951,
      "sur": 952,
      "##cy": 953,
      "trump2016": 954,
      "office": 955,
      "other": 956,
      "##vern": 957,
      "che": 958,
      "life": 959,
      "team": 960,
      "champion": 961,
      "care": 962,
      "gen": 963,
      "##61": 964,
      "##78": 965,
      "##ier": 966,
      "open": 967,
      "30": 968,
      "##ines": 969,
      "john": 970,
      "brand": 971,
      "sen": 972,
      "##94": 973,
      "eric": 974,
      "fant": 975,
      "house": 976,
      "state": 977,
      "govern": 978,
      "nothing": 979,
      "watching": 980,
      "speak": 981,
      "far": 982,
      "##ors": 983,
      "neg": 984,
      "interest": 985,
      "tomor": 986,
      "##oss": 987,
      "morning": 988,
      "fantastic": 989,
      "fam": 990,
      "##co": 991,
      "##als": 992,
      "inv": 993,
      "focus": 994,
      "remember": 995,
      "yourself": 996,
      "tomorrow": 997,
      "##ood": 998,
      "##ont": 999,
      "##ert": 1000,
      "which": 1001,
      "##ave": 1002,
      "attack": 1003,
      "je": 1004,
      "pay": 1005,
      "##52": 1006,
      "##ince": 1007,
      "gop": 1008,
      "ivankatrump": 1009,
      "everyone": 1010,
      "mich": 1011,
      "sch": 1012,
      "##llow": 1013,
      "somet": 1014,
      "dest": 1015,
      "##ues": 1016,
      "##gan": 1017,
      "iran": 1018,
      "york": 1019,
      "##ern": 1020,
      "still": 1021,
      "soon": 1022,
      "##ending": 1023,
      "yester": 1024,
      "things": 1025,
      "##ady": 1026,
      "comm": 1027,
      "yesterday": 1028,
      "fav": 1029,
      "gret": 1030,
      "##ible": 1031,
      "turn": 1032,
      "##ake": 1033,
      "election": 1034,
      "##loy": 1035,
      "leader": 1036,
      "##fore": 1037,
      "##oth": 1038,
      "hear": 1039,
      "buy": 1040,
      "awes": 1041,
      "celebrityapprentice": 1042,
      "##mi": 1043,
      "##ste": 1044,
      "coll": 1045,
      "place": 1046,
      "tell": 1047,
      "##ivers": 1048,
      "ep": 1049,
      "##ds": 1050,
      "##per": 1051,
      "##lex": 1052,
      "also": 1053,
      "two": 1054,
      "##uring": 1055,
      "awesome": 1056,
      "pa": 1057,
      "set": 1058,
      "##no": 1059,
      "trumpt": 1060,
      "doesn": 1061,
      "bor": 1062,
      "hu": 1063,
      "##53": 1064,
      "ho": 1065,
      "##its": 1066,
      "##ities": 1067,
      "strong": 1068,
      "total": 1069,
      "fight": 1070,
      "##te": 1071,
      "ratings": 1072,
      "pass": 1073,
      "##ming": 1074,
      "##hip": 1075,
      "##ars": 1076,
      "creat": 1077,
      "here": 1078,
      "med": 1079,
      "such": 1080,
      "##upid": 1081,
      "##gr": 1082,
      "stupid": 1083,
      "follow": 1084,
      "adm": 1085,
      "economy": 1086,
      "insp": 1087,
      "while": 1088,
      "chicago": 1089,
      "list": 1090,
      "live": 1091,
      "sec": 1092,
      "tough": 1093,
      "##ating": 1094,
      "ret": 1095,
      "##arn": 1096,
      "debt": 1097,
      "##ft": 1098,
      "plan": 1099,
      "##iverse": 1100,
      "birthday": 1101,
      "ben": 1102,
      "pat": 1103,
      "view": 1104,
      "##81": 1105,
      "thing": 1106,
      "cons": 1107,
      "respect": 1108,
      "before": 1109,
      "##eech": 1110,
      "end": 1111,
      "est": 1112,
      "tak": 1113,
      "##71": 1114,
      "usa": 1115,
      "ap": 1116,
      "dav": 1117,
      "wish": 1118,
      "##09": 1119,
      "##body": 1120,
      "ac": 1121,
      "law": 1122,
      "thought": 1123,
      "##une": 1124,
      "contin": 1125,
      "happen": 1126,
      "sunday": 1127,
      "##04": 1128,
      "##com": 1129,
      "getting": 1130,
      "change": 1131,
      "government": 1132,
      "mag": 1133,
      "##anc": 1134,
      "washing": 1135,
      "against": 1136,
      "washington": 1137,
      "oil": 1138,
      "sy": 1139,
      "tra": 1140,
      "wow": 1141,
      "##76": 1142,
      "##ss": 1143,
      "leadership": 1144,
      "gl": 1145,
      "##iff": 1146,
      "##med": 1147,
      "##ash": 1148,
      "speech": 1149,
      "mike": 1150,
      "tou": 1151,
      "club": 1152,
      "everything": 1153,
      "talk": 1154,
      "million": 1155,
      "favor": 1156,
      "##kes": 1157,
      "##mploy": 1158,
      "##oti": 1159,
      "hell": 1160,
      "mid": 1161,
      "wrong": 1162,
      "building": 1163,
      "republicans": 1164,
      "alex": 1165,
      "ira": 1166,
      "##by": 1167,
      "##ker": 1168,
      "dont": 1169,
      "someone": 1170,
      "negoti": 1171,
      "acc": 1172,
      "camp": 1173,
      "tur": 1174,
      "fast": 1175,
      "wast": 1176,
      "##86": 1177,
      "##vice": 1178,
      "maj": 1179,
      "making": 1180,
      "class": 1181,
      "bring": 1182,
      "##iers": 1183,
      "##he": 1184,
      "##bal": 1185,
      "conf": 1186,
      "support": 1187,
      "terrible": 1188,
      "iraq": 1189,
      "city": 1190,
      "##ix": 1191,
      "##ale": 1192,
      "##oud": 1193,
      "david": 1194,
      "cr": 1195,
      "##mar": 1196,
      "without": 1197,
      "campa": 1198,
      "glo": 1199,
      "hand": 1200,
      "tv": 1201,
      "##less": 1202,
      "##roy": 1203,
      "ask": 1204,
      "foxnews": 1205,
      "nyc": 1206,
      "##ased": 1207,
      "##ments": 1208,
      "looks": 1209,
      "successful": 1210,
      "bre": 1211,
      "friends": 1212,
      "tri": 1213,
      "##gh": 1214,
      "once": 1215,
      "stand": 1216,
      "try": 1217,
      "##uck": 1218,
      "##ang": 1219,
      "##any": 1220,
      "ins": 1221,
      "white": 1222,
      "americans": 1223,
      "billion": 1224,
      "debate": 1225,
      "##ster": 1226,
      "ed": 1227,
      "##ony": 1228,
      "greatest": 1229,
      "congrats": 1230,
      "major": 1231,
      "both": 1232,
      "##ai": 1233,
      "##ael": 1234,
      "##ision": 1235,
      "intern": 1236,
      "ener": 1237,
      "interesting": 1238,
      "##nn": 1239,
      "##nbc": 1240,
      "ind": 1241,
      "exce": 1242,
      "global": 1243,
      "mess": 1244,
      "mind": 1245,
      "##les": 1246,
      "##oo": 1247,
      "##21": 1248,
      "press": 1249,
      "family": 1250,
      "ra": 1251,
      "ties": 1252,
      "##vin": 1253,
      "ide": 1254,
      "rus": 1255,
      "##mer": 1256,
      "##alth": 1257,
      "##ather": 1258,
      "##eel": 1259,
      "learn": 1260,
      "wonderful": 1261,
      "something": 1262,
      "game": 1263,
      "home": 1264,
      "mel": 1265,
      "power": 1266,
      "use": 1267,
      "wr": 1268,
      "##ki": 1269,
      "thr": 1270,
      "##erry": 1271,
      "##ices": 1272,
      "##itter": 1273,
      "##isod": 1274,
      "campaign": 1275,
      "christ": 1276,
      "party": 1277,
      "check": 1278,
      "mil": 1279,
      "these": 1280,
      "trumpd": 1281,
      "##log": 1282,
      "fact": 1283,
      "##ees": 1284,
      "##pris": 1285,
      "ass": 1286,
      "wants": 1287,
      "announ": 1288,
      "episod": 1289,
      "energy": 1290,
      "mist": 1291,
      "vict": 1292,
      "##ism": 1293,
      "##ley": 1294,
      "##eter": 1295,
      "del": 1296,
      "trumpdoral": 1297,
      "old": 1298,
      "##ult": 1299,
      "meet": 1300,
      "disaster": 1301,
      "find": 1302,
      "public": 1303,
      "##line": 1304,
      "##ond": 1305,
      "doll": 1306,
      "##ately": 1307,
      "times": 1308,
      "host": 1309,
      "name": 1310,
      "##ually": 1311,
      "invest": 1312,
      "cut": 1313,
      "##omp": 1314,
      "##gol": 1315,
      "##jr": 1316,
      "##almon": 1317,
      "##ility": 1318,
      "letter": 1319,
      "cor": 1320,
      "hist": 1321,
      "rod": 1322,
      "sol": 1323,
      "##93": 1324,
      "##ames": 1325,
      "##etog": 1326,
      "##ury": 1327,
      "timetog": 1328,
      "##bert": 1329,
      "away": 1330,
      "giv": 1331,
      "##mag": 1332,
      "##ho": 1333,
      "##bl": 1334,
      "##rew": 1335,
      "##ater": 1336,
      "##ition": 1337,
      "running": 1338,
      "contr": 1339,
      "anyone": 1340,
      "danny": 1341,
      "##ettough": 1342,
      "destroy": 1343,
      "timetogettough": 1344,
      "dr": 1345,
      "key": 1346,
      "yet": 1347,
      "##ready": 1348,
      "##ola": 1349,
      "enough": 1350,
      "proud": 1351,
      "##ize": 1352,
      "warming": 1353,
      "import": 1354,
      "inspir": 1355,
      "international": 1356,
      "bank": 1357,
      "during": 1358,
      "fan": 1359,
      "friend": 1360,
      "rt": 1361,
      "##gas": 1362,
      "##ets": 1363,
      "states": 1364,
      "already": 1365,
      "twitter": 1366,
      "turb": 1367,
      "210": 1368,
      "mc": 1369,
      "nfl": 1370,
      "says": 1371,
      "##ative": 1372,
      "##arl": 1373,
      "trumpv": 1374,
      "save": 1375,
      "monday": 1376,
      "surpris": 1377,
      "through": 1378,
      "jon": 1379,
      "##mc": 1380,
      "##95": 1381,
      "rest": 1382,
      "chris": 1383,
      "award": 1384,
      "full": 1385,
      "ke": 1386,
      "sir": 1387,
      "same": 1388,
      "yank": 1389,
      "##ration": 1390,
      "##ock": 1391,
      "##iting": 1392,
      "joan": 1393,
      "touch": 1394,
      "page": 1395,
      "unt": 1396,
      "##ler": 1397,
      "cost": 1398,
      "winning": 1399,
      "anything": 1400,
      "##almond": 1401,
      "##olute": 1402,
      "abs": 1403,
      "truth": 1404,
      "##show": 1405,
      "air": 1406,
      "eb": 1407,
      "free": 1408,
      "laug": 1409,
      "##not": 1410,
      "##pac": 1411,
      "##ection": 1412,
      "favorite": 1413,
      "fired": 1414,
      "lar": 1415,
      "##ject": 1416,
      "quest": 1417,
      "ill": 1418,
      "piers": 1419,
      "sk": 1420,
      "##45": 1421,
      "##43": 1422,
      "##gar": 1423,
      "##ual": 1424,
      "beg": 1425,
      "##ular": 1426,
      "prop": 1427,
      "called": 1428,
      "cent": 1429,
      "tre": 1430,
      "##gest": 1431,
      "##ane": 1432,
      "having": 1433,
      "problem": 1434,
      "until": 1435,
      "ebola": 1436,
      "cap": 1437,
      "et": 1438,
      "feel": 1439,
      "ge": 1440,
      "##rupt": 1441,
      "##ami": 1442,
      "##neider": 1443,
      "leg": 1444,
      "##ship": 1445,
      "blue": 1446,
      "syri": 1447,
      "important": 1448,
      "cant": 1449,
      "fore": 1450,
      "past": 1451,
      "##inc": 1452,
      "united": 1453,
      "add": 1454,
      "didn": 1455,
      "point": 1456,
      "others": 1457,
      "fund": 1458,
      "absolute": 1459,
      "212": 1460,
      "light": 1461,
      "less": 1462,
      "pal": 1463,
      "pot": 1464,
      "sl": 1465,
      "##ams": 1466,
      "lost": 1467,
      "##inks": 1468,
      "##azine": 1469,
      "coming": 1470,
      "report": 1471,
      "move": 1472,
      "problems": 1473,
      "listen": 1474,
      "alexs": 1475,
      "##neiderman": 1476,
      "gas": 1477,
      "jack": 1478,
      "##05": 1479,
      "##03": 1480,
      "##ng": 1481,
      "##ces": 1482,
      "##eny": 1483,
      "##stand": 1484,
      "##und": 1485,
      "##rael": 1486,
      "makes": 1487,
      "winner": 1488,
      "charity": 1489,
      "eas": 1490,
      "##me": 1491,
      "##ov": 1492,
      "##ness": 1493,
      "##reed": 1494,
      "told": 1495,
      "trumpch": 1496,
      "around": 1497,
      "213": 1498,
      "event": 1499,
      "grow": 1500,
      "##iner": 1501,
      "##ime": 1502,
      "cho": 1503,
      "##usa": 1504,
      "##ants": 1505,
      "bush": 1506,
      "loser": 1507,
      "michael": 1508,
      "##ures": 1509,
      "##orge": 1510,
      "red": 1511,
      "reason": 1512,
      "spending": 1513,
      "##ific": 1514,
      "turbines": 1515,
      "alexsalmond": 1516,
      "esp": 1517,
      "##uc": 1518,
      "##br": 1519,
      "##pl": 1520,
      "those": 1521,
      "israel": 1522,
      "ago": 1523,
      "comple": 1524,
      "totally": 1525,
      "gretaw": 1526,
      "history": 1527,
      "donaldtrump": 1528,
      "fix": 1529,
      "id": 1530,
      "mom": 1531,
      "mod": 1532,
      "nor": 1533,
      "squ": 1534,
      "tune": 1535,
      "une": 1536,
      "went": 1537,
      "rele": 1538,
      "head": 1539,
      "economic": 1540,
      "erictrump": 1541,
      "paul": 1542,
      "return": 1543,
      "gretawire": 1544,
      "ger": 1545,
      "min": 1546,
      "post": 1547,
      "ros": 1548,
      "wom": 1549,
      "##imp": 1550,
      "##bu": 1551,
      "##ball": 1552,
      "##26": 1553,
      "##ature": 1554,
      "ans": 1555,
      "thinking": 1556,
      "elect": 1557,
      "else": 1558,
      "unemploy": 1559,
      "bra": 1560,
      "cpac": 1561,
      "late": 1562,
      "since": 1563,
      "##led": 1564,
      "##ife": 1565,
      "##yle": 1566,
      "##28": 1567,
      "##27": 1568,
      "##ots": 1569,
      "health": 1570,
      "demo": 1571,
      "worst": 1572,
      "become": 1573,
      "macys": 1574,
      "losers": 1575,
      "##maher": 1576,
      "russ": 1577,
      "milit": 1578,
      "hate": 1579,
      "rich": 1580,
      "##ude": 1581,
      "##ott": 1582,
      "##ution": 1583,
      "##imes": 1584,
      "loved": 1585,
      "truly": 1586,
      "tweets": 1587,
      "gener": 1588,
      "trumpvlog": 1589,
      "yankees": 1590,
      "democ": 1591,
      "dumb": 1592,
      "ms": 1593,
      "opport": 1594,
      "pri": 1595,
      "##aily": 1596,
      "##ses": 1597,
      "##ied": 1598,
      "##post": 1599,
      "##ents": 1600,
      "shir": 1601,
      "dop": 1602,
      "left": 1603,
      "knows": 1604,
      "billmaher": 1605,
      "honor": 1606,
      "dc": 1607,
      "gi": 1608,
      "hit": 1609,
      "jim": 1610,
      "##aters": 1611,
      "100": 1612,
      "working": 1613,
      "lux": 1614,
      "##form": 1615,
      "episode": 1616,
      "dam": 1617,
      "rivers": 1618,
      "##back": 1619,
      "##cl": 1620,
      "##fic": 1621,
      "##zu": 1622,
      "thx": 1623,
      "##lear": 1624,
      "joe": 1625,
      "200": 1626,
      "taxes": 1627,
      "syria": 1628,
      "military": 1629,
      "opportun": 1630,
      "21": 1631,
      "cra": 1632,
      "matt": 1633,
      "van": 1634,
      "##mend": 1635,
      "##erde": 1636,
      "##ille": 1637,
      "board": 1638,
      "weekend": 1639,
      "macy": 1640,
      "letterman": 1641,
      "50": 1642,
      "cur": 1643,
      "fall": 1644,
      "mass": 1645,
      "##ience": 1646,
      "##fo": 1647,
      "##anv": 1648,
      "##vers": 1649,
      "wel": 1650,
      "##olog": 1651,
      "##berry": 1652,
      "prot": 1653,
      "obamas": 1654,
      "month": 1655,
      "scott": 1656,
      "glad": 1657,
      "trumpchicago": 1658,
      "democrat": 1659,
      "ca": 1660,
      "cred": 1661,
      "pos": 1662,
      "sw": 1663,
      "##ham": 1664,
      "reg": 1665,
      "beat": 1666,
      "dem": 1667,
      "aberde": 1668,
      "congress": 1669,
      "melan": 1670,
      "25": 1671,
      "40": 1672,
      "west": 1673,
      "##bb": 1674,
      "##ese": 1675,
      "##iday": 1676,
      "story": 1677,
      "##pping": 1678,
      "weak": 1679,
      "child": 1680,
      "super": 1681,
      "sugar": 1682,
      "ready": 1683,
      "actually": 1684,
      "aberdeen": 1685,
      "aut": 1686,
      "fire": 1687,
      "##ew": 1688,
      "##ci": 1689,
      "##ced": 1690,
      "##pres": 1691,
      "##lly": 1692,
      "god": 1693,
      "##pped": 1694,
      "##room": 1695,
      "gets": 1696,
      "##awk": 1697,
      "polic": 1698,
      "compet": 1699,
      "miami": 1700,
      "media": 1701,
      "absolutely": 1702,
      "lee": 1703,
      "lord": 1704,
      "poss": 1705,
      "vac": 1706,
      "##xic": 1707,
      "##zy": 1708,
      "ref": 1709,
      "##lee": 1710,
      "gold": 1711,
      "##ross": 1712,
      "talent": 1713,
      "poll": 1714,
      "visit": 1715,
      "pageant": 1716,
      "29": 1717,
      "mat": 1718,
      "nation": 1719,
      "rom": 1720,
      "##mill": 1721,
      "##gu": 1722,
      "##outh": 1723,
      "##itive": 1724,
      "universe": 1725,
      "room": 1726,
      "afric": 1727,
      "##morgan": 1728,
      "serious": 1729,
      "##uesday": 1730,
      "bro": 1731,
      "eff": 1732,
      "face": 1733,
      "hour": 1734,
      "prom": 1735,
      "##rod": 1736,
      "##eg": 1737,
      "##irl": 1738,
      "allow": 1739,
      "##ists": 1740,
      "buff": 1741,
      "played": 1742,
      "##umbers": 1743,
      "60": 1744,
      "cand": 1745,
      "cast": 1746,
      "vide": 1747,
      "##ror": 1748,
      "##den": 1749,
      "##ount": 1750,
      "##ense": 1751,
      "##urch": 1752,
      "##sey": 1753,
      "webs": 1754,
      "##ulous": 1755,
      "bud": 1756,
      "saying": 1757,
      "incre": 1758,
      "terrific": 1759,
      "##vention": 1760,
      "90": 1761,
      "din": 1762,
      "links": 1763,
      "numbers": 1764,
      "penn": 1765,
      "##ius": 1766,
      "##erv": 1767,
      "##iden": 1768,
      "##imate": 1769,
      "##ters": 1770,
      "conc": 1771,
      "worse": 1772,
      "##ittle": 1773,
      "march": 1774,
      "jeff": 1775,
      "midas": 1776,
      "49": 1777,
      "70": 1778,
      "ear": 1779,
      "ene": 1780,
      "haters": 1781,
      "low": 1782,
      "##min": 1783,
      "##of": 1784,
      "##nc": 1785,
      "##ga": 1786,
      "##zz": 1787,
      "young": 1788,
      "##thony": 1789,
      "mexic": 1790,
      "##orts": 1791,
      "close": 1792,
      "playing": 1793,
      "##ertain": 1794,
      "69": 1795,
      "diff": 1796,
      "gave": 1797,
      "ir": 1798,
      "ru": 1799,
      "tele": 1800,
      "wwe": 1801,
      "##mas": 1802,
      "##off": 1803,
      "##bar": 1804,
      "##cal": 1805,
      "##ator": 1806,
      "##ising": 1807,
      "worth": 1808,
      "words": 1809,
      "150": 1810,
      "prices": 1811,
      "##uban": 1812,
      "shows": 1813,
      "excited": 1814,
      "piersmorgan": 1815,
      "39": 1816,
      "54": 1817,
      "80": 1818,
      "99": 1819,
      "ach": 1820,
      "cnn": 1821,
      "dou": 1822,
      "fut": 1823,
      "little": 1824,
      "pick": 1825,
      "##uff": 1826,
      "##jon": 1827,
      "##wh": 1828,
      "##ital": 1829,
      "isn": 1830,
      "donaldj": 1831,
      "120": 1832,
      "130": 1833,
      "140": 1834,
      "180": 1835,
      "spec": 1836,
      "chinese": 1837,
      "chance": 1838,
      "political": 1839,
      "passion": 1840,
      "rosie": 1841,
      "massive": 1842,
      "romney": 1843,
      "84": 1844,
      "osc": 1845,
      "##ral": 1846,
      "sold": 1847,
      "110": 1848,
      "160": 1849,
      "170": 1850,
      "190": 1851,
      "prim": 1852,
      "##ourn": 1853,
      "pred": 1854,
      "deser": 1855,
      "waste": 1856,
      "announce": 1857,
      "control": 1858,
      "gerald": 1859,
      "unemployment": 1860,
      "video": 1861,
      "future": 1862,
      "donaldjtrump": 1863,
      "44": 1864,
      "59": 1865,
      "89": 1866,
      "fil": 1867,
      "la": 1868,
      "rick": 1869,
      "##ax": 1870,
      "##aire": 1871,
      "##ling": 1872,
      "##lim": 1873,
      "##sen": 1874,
      "##ream": 1875,
      "##itz": 1876,
      "##itor": 1877,
      "convention": 1878,
      "liber": 1879,
      "109": 1880,
      "169": 1881,
      "179": 1882,
      "reality": 1883,
      "sell": 1884,
      "artic": 1885,
      "steve": 1886,
      "bankrupt": 1887,
      "moment": 1888,
      "answer": 1889,
      "website": 1890,
      "budget": 1891,
      "donaldjtrumpjr": 1892,
      "24": 1893,
      "64": 1894,
      "79": 1895,
      "gre": 1896,
      "men": 1897,
      "sal": 1898,
      "ur": 1899,
      "##lin": 1900,
      "##ool": 1901,
      "##ging": 1902,
      "##ention": 1903,
      "presidential": 1904,
      "209": 1905,
      "119": 1906,
      "159": 1907,
      "129": 1908,
      "139": 1909,
      "149": 1910,
      "199": 1911,
      "189": 1912,
      "sean": 1913,
      "##ared": 1914,
      "howard": 1915,
      "biggest": 1916,
      "project": 1917,
      "talking": 1918,
      "sense": 1919,
      "##medi": 1920,
      "mistake": 1921,
      "squawk": 1922,
      "34": 1923,
      "94": 1924,
      "path": 1925,
      "snow": 1926,
      "wal": 1927,
      "##ians": 1928,
      "##ump": 1929,
      "##fair": 1930,
      "##ina": 1931,
      "sho": 1932,
      "##allen": 1933,
      "understand": 1934,
      "lots": 1935,
      "magazine": 1936,
      "trying": 1937,
      "dannyzu": 1938,
      "complete": 1939,
      "##president": 1940,
      "74": 1941,
      "crow": 1942,
      "days": 1943,
      "hor": 1944,
      "##bt": 1945,
      "##bel": 1946,
      "##wood": 1947,
      "##fact": 1948,
      "##erence": 1949,
      "##oront": 1950,
      "##ote": 1951,
      "##illi": 1952,
      "##urs": 1953,
      "gov": 1954,
      "##universe": 1955,
      "104": 1956,
      "204": 1957,
      "114": 1958,
      "164": 1959,
      "154": 1960,
      "174": 1961,
      "124": 1962,
      "134": 1963,
      "144": 1964,
      "194": 1965,
      "184": 1966,
      "order": 1967,
      "advice": 1968,
      "missuniverse": 1969,
      "immedi": 1970,
      "failure": 1971,
      "create": 1972,
      "estate": 1973,
      "##mendous": 1974,
      "35": 1975,
      "bri": 1976,
      "col": 1977,
      "ire": 1978,
      "keny": 1979,
      "rd": 1980,
      "##ient": 1981,
      "##go": 1982,
      "##york": 1983,
      "food": 1984,
      "used": 1985,
      "adv": 1986,
      "terror": 1987,
      "honest": 1988,
      "decision": 1989,
      "continue": 1990,
      "inspiration": 1991,
      "tremendous": 1992,
      "george": 1993,
      "dannyzuker": 1994,
      "ren": 1995,
      "saw": 1996,
      "##win": 1997,
      "##way": 1998,
      "ant": 1999,
      "##ised": 2000,
      "##ults": 2001,
      "prod": 2002,
      "frank": 2003,
      "politics": 2004,
      "market": 2005,
      "republican": 2006,
      "feat": 2007,
      "consider": 2008,
      "excell": 2009,
      "giving": 2010,
      "surprise": 2011,
      "shirts": 2012,
      "luxury": 2013,
      "article": 2014,
      "##oronto": 2015,
      "95": 2016,
      "jay": 2017,
      "jud": 2018,
      "son": 2019,
      "send": 2020,
      "simp": 2021,
      "##las": 2022,
      "##ino": 2023,
      "##itch": 2024,
      "small": 2025,
      "monster": 2026,
      "imag": 2027,
      "vegas": 2028,
      "charl": 2029,
      "design": 2030,
      "##aught": 2031,
      "killing": 2032,
      "huge": 2033,
      "taking": 2034,
      "thoughts": 2035,
      "victory": 2036,
      "easy": 2037,
      "special": 2038,
      "ireland": 2039,
      "55": 2040,
      "land": 2041,
      "oh": 2042,
      "south": 2043,
      "treat": 2044,
      "##ges": 2045,
      "##cnbc": 2046,
      "##fect": 2047,
      "##ero": 2048,
      "ang": 2049,
      "##illy": 2050,
      "trumpgol": 2051,
      "##igl": 2052,
      "##rove": 2053,
      "cover": 2054,
      "offer": 2055,
      "##cond": 2056,
      "premi": 2057,
      "##maros": 2058,
      "billionaire": 2059,
      "christmas": 2060,
      "dollars": 2061,
      "positive": 2062,
      "candid": 2063,
      "85": 2064,
      "jan": 2065,
      "omaros": 2066,
      "vince": 2067,
      "wife": 2068,
      "##sch": 2069,
      "##ially": 2070,
      "##mber": 2071,
      "##cial": 2072,
      "##ison": 2073,
      "isis": 2074,
      "##ama": 2075,
      "rock": 2076,
      "comes": 2077,
      "records": 2078,
      "millions": 2079,
      "potus": 2080,
      "squawkcnbc": 2081,
      "immediately": 2082,
      "45": 2083,
      "75": 2084,
      "dire": 2085,
      "five": 2086,
      "hi": 2087,
      "rid": 2088,
      "##alo": 2089,
      "##rect": 2090,
      "##ics": 2091,
      "##omb": 2092,
      "##omin": 2093,
      "##ional": 2094,
      "##ries": 2095,
      "dead": 2096,
      "##iece": 2097,
      "##cept": 2098,
      "105": 2099,
      "##weight": 2100,
      "imm": 2101,
      "defin": 2102,
      "greta": 2103,
      "russia": 2104,
      "predict": 2105,
      "23": 2106,
      "65": 2107,
      "dum": 2108,
      "park": 2109,
      "sav": 2110,
      "##eal": 2111,
      "##na": 2112,
      "##far": 2113,
      "##inist": 2114,
      "requ": 2115,
      "beach": 2116,
      "##ilt": 2117,
      "155": 2118,
      "125": 2119,
      "second": 2120,
      "courses": 2121,
      "expect": 2122,
      "failed": 2123,
      "school": 2124,
      "collection": 2125,
      "trumptower": 2126,
      "laughing": 2127,
      "foreign": 2128,
      "released": 2129,
      "each": 2130,
      "gun": 2131,
      "har": 2132,
      "hol": 2133,
      "sam": 2134,
      "##app": 2135,
      "##uct": 2136,
      "##ks": 2137,
      "##oup": 2138,
      "forget": 2139,
      "stud": 2140,
      "##utes": 2141,
      "##ief": 2142,
      "205": 2143,
      "115": 2144,
      "165": 2145,
      "175": 2146,
      "135": 2147,
      "145": 2148,
      "195": 2149,
      "185": 2150,
      "price": 2151,
      "##ished": 2152,
      "exper": 2153,
      "maybe": 2154,
      "brandigl": 2155,
      "##mike": 2156,
      "apolog": 2157,
      "idea": 2158,
      "vanity": 2159,
      "##anville": 2160,
      "omarosa": 2161,
      "brandiglanville": 2162,
      "93": 2163,
      "case": 2164,
      "found": 2165,
      "fair": 2166,
      "karl": 2167,
      "mot": 2168,
      "mus": 2169,
      "rac": 2170,
      "##ug": 2171,
      "##bart": 2172,
      "##bab": 2173,
      "##work": 2174,
      "##orn": 2175,
      "sto": 2176,
      "##ored": 2177,
      "123": 2178,
      "spect": 2179,
      "cool": 2180,
      "seen": 2181,
      "ext": 2182,
      "bob": 2183,
      "incomp": 2184,
      "colle": 2185,
      "critic": 2186,
      "kevin": 2187,
      "dopey": 2188,
      "boardroom": 2189,
      "leez": 2190,
      "africa": 2191,
      "33": 2192,
      "43": 2193,
      "53": 2194,
      "63": 2195,
      "83": 2196,
      "kid": 2197,
      "net": 2198,
      "num": 2199,
      "##aur": 2200,
      "##aff": 2201,
      "##lain": 2202,
      "##ying": 2203,
      "threat": 2204,
      "##icial": 2205,
      "anthony": 2206,
      "stor": 2207,
      "heart": 2208,
      "lose": 2209,
      "cannot": 2210,
      "113": 2211,
      "nobody": 2212,
      "##ister": 2213,
      "reading": 2214,
      "##forpresident": 2215,
      "children": 2216,
      "incompet": 2217,
      "73": 2218,
      "cad": 2219,
      "hur": 2220,
      "king": 2221,
      "sor": 2222,
      "wis": 2223,
      "##most": 2224,
      "##over": 2225,
      "##gn": 2226,
      "##po": 2227,
      "##atur": 2228,
      "release": 2229,
      "youre": 2230,
      "##ims": 2231,
      "##andy": 2232,
      "103": 2233,
      "203": 2234,
      "163": 2235,
      "153": 2236,
      "173": 2237,
      "133": 2238,
      "143": 2239,
      "193": 2240,
      "183": 2241,
      "tea": 2242,
      "term": 2243,
      "opec": 2244,
      "turnberry": 2245,
      "boring": 2246,
      "secret": 2247,
      "proper": 2248,
      "lightweight": 2249,
      "daily": 2250,
      "line": 2251,
      "ran": 2252,
      "##bes": 2253,
      "##orid": 2254,
      "##itbart": 2255,
      "beh": 2256,
      "##urity": 2257,
      "##azi": 2258,
      "florid": 2259,
      "genius": 2260,
      "security": 2261,
      "views": 2262,
      "palm": 2263,
      "given": 2264,
      "demand": 2265,
      "sorry": 2266,
      "211": 2267,
      "cal": 2268,
      "cru": 2269,
      "lat": 2270,
      "pus": 2271,
      "sound": 2272,
      "ug": 2273,
      "##unt": 2274,
      "##come": 2275,
      "inste": 2276,
      "shar": 2277,
      "final": 2278,
      "guest": 2279,
      "player": 2280,
      "##john": 2281,
      "resort": 2282,
      "phil": 2283,
      "##annity": 2284,
      "speaking": 2285,
      "bengh": 2286,
      "restaur": 2287,
      "illeg": 2288,
      "begin": 2289,
      "minutes": 2290,
      "crazy": 2291,
      "oscars": 2292,
      "motiv": 2293,
      "college": 2294,
      "instead": 2295,
      "benghazi": 2296,
      "bought": 2297,
      "##iam": 2298,
      "##ged": 2299,
      "##gra": 2300,
      "##que": 2301,
      "##etic": 2302,
      "spend": 2303,
      "##shire": 2304,
      "signature": 2305,
      "administ": 2306,
      "##comm": 2307,
      "correct": 2308,
      "choice": 2309,
      "model": 2310,
      "north": 2311,
      "immig": 2312,
      "fed": 2313,
      "zero": 2314,
      "##val": 2315,
      "theg": 2316,
      "##ills": 2317,
      "fool": 2318,
      "##berg": 2319,
      "role": 2320,
      "##123": 2321,
      "finally": 2322,
      "trade": 2323,
      "qual": 2324,
      "defic": 2325,
      "service": 2326,
      "##velop": 2327,
      "question": 2328,
      "buffalo": 2329,
      "primary": 2330,
      "spectac": 2331,
      "administration": 2332,
      "av": 2333,
      "ey": 2334,
      "hall": 2335,
      "iow": 2336,
      "rad": 2337,
      "sar": 2338,
      "tour": 2339,
      "##lus": 2340,
      "##ik": 2341,
      "rel": 2342,
      "##amed": 2343,
      "##illac": 2344,
      "develop": 2345,
      "##ights": 2346,
      "canad": 2347,
      "spent": 2348,
      "plans": 2349,
      "offers": 2350,
      "started": 2351,
      "perfect": 2352,
      "break": 2353,
      "meeting": 2354,
      "priv": 2355,
      "democrats": 2356,
      "definite": 2357,
      "spectacular": 2358,
      "00": 2359,
      "22": 2360,
      "bret": 2361,
      "ce": 2362,
      "dere": 2363,
      "kind": 2364,
      "nuc": 2365,
      "ple": 2366,
      "sit": 2367,
      "val": 2368,
      "water": 2369,
      "toget": 2370,
      "##ical": 2371,
      "inno": 2372,
      "andy": 2373,
      "##illion": 2374,
      "trumpforpresident": 2375,
      "##iger": 2376,
      "##sel": 2377,
      "weiner": 2378,
      "losing": 2379,
      "death": 2380,
      "almost": 2381,
      "##akes": 2382,
      "countries": 2383,
      "prof": 2384,
      "deals": 2385,
      "financ": 2386,
      "prep": 2387,
      "incl": 2388,
      "steph": 2389,
      "books": 2390,
      "##ibility": 2391,
      "laws": 2392,
      "policy": 2393,
      "mexico": 2394,
      "momentum": 2395,
      "shoot": 2396,
      "trumptowerny": 2397,
      "derek": 2398,
      "together": 2399,
      "cle": 2400,
      "pict": 2401,
      "san": 2402,
      "##van": 2403,
      "##full": 2404,
      "##ined": 2405,
      "rev": 2406,
      "##asure": 2407,
      "challen": 2408,
      "agsch": 2409,
      "contest": 2410,
      "seeing": 2411,
      "starting": 2412,
      "appear": 2413,
      "##ibb": 2414,
      "killed": 2415,
      "championship": 2416,
      "travel": 2417,
      "breitbart": 2418,
      "except": 2419,
      "credit": 2420,
      "autism": 2421,
      "florida": 2422,
      "definitely": 2423,
      "nuclear": 2424,
      "agschneiderman": 2425,
      "dri": 2426,
      "lago": 2427,
      "ok": 2428,
      "pen": 2429,
      "uk": 2430,
      "##sy": 2431,
      "##mies": 2432,
      "##mah": 2433,
      "##pend": 2434,
      "rece": 2435,
      "tom": 2436,
      "inde": 2437,
      "##idence": 2438,
      "stra": 2439,
      "goes": 2440,
      "##unch": 2441,
      "loves": 2442,
      "const": 2443,
      "defe": 2444,
      "trust": 2445,
      "built": 2446,
      "arsen": 2447,
      "intell": 2448,
      "##ivera": 2449,
      "hotels": 2450,
      "remain": 2451,
      "results": 2452,
      "failing": 2453,
      "exclus": 2454,
      "few": 2455,
      "##ennis": 2456,
      "welcome": 2457,
      "dummy": 2458,
      "cadillac": 2459,
      "exclusive": 2460,
      "ball": 2461,
      "fab": 2462,
      "gary": 2463,
      "james": 2464,
      "met": 2465,
      "ty": 2466,
      "##ten": 2467,
      "##ring": 2468,
      "##kins": 2469,
      "##wai": 2470,
      "##ston": 2471,
      "inst": 2472,
      "##otland": 2473,
      "short": 2474,
      "wear": 2475,
      "sum": 2476,
      "##raid": 2477,
      "able": 2478,
      "runs": 2479,
      "nymag": 2480,
      "incred": 2481,
      "danger": 2482,
      "hold": 2483,
      "mcuban": 2484,
      "nflcomm": 2485,
      "growth": 2486,
      "women": 2487,
      "protect": 2488,
      "dinner": 2489,
      "##ournal": 2490,
      "pathetic": 2491,
      "excellent": 2492,
      "number": 2493,
      "nflcommish": 2494,
      "dream": 2495,
      "father": 2496,
      "kick": 2497,
      "master": 2498,
      "ron": 2499,
      "ris": 2500,
      "##ii": 2501,
      "##hannity": 2502,
      "##ners": 2503,
      "##bow": 2504,
      "##dy": 2505,
      "andrew": 2506,
      "forbes": 2507,
      "trumps": 2508,
      "##vert": 2509,
      "##uts": 2510,
      "##esty": 2511,
      "liby": 2512,
      "mean": 2513,
      "least": 2514,
      "robert": 2515,
      "watched": 2516,
      "bills": 2517,
      "afraid": 2518,
      "poor": 2519,
      "lucky": 2520,
      "exciting": 2521,
      "patri": 2522,
      "takes": 2523,
      "negotiation": 2524,
      "##ghan": 2525,
      "ideas": 2526,
      "telev": 2527,
      "seanhannity": 2528,
      "experience": 2529,
      "iowa": 2530,
      "hill": 2531,
      "hum": 2532,
      "las": 2533,
      "par": 2534,
      "tiger": 2535,
      "##la": 2536,
      "##gs": 2537,
      "##cast": 2538,
      "##care": 2539,
      "##don": 2540,
      "##alf": 2541,
      "##ination": 2542,
      "##rey": 2543,
      "##ites": 2544,
      "iss": 2545,
      "stern": 2546,
      "##ceed": 2547,
      "##rab": 2548,
      "exec": 2549,
      "wins": 2550,
      "afghan": 2551,
      "defense": 2552,
      "friday": 2553,
      "vision": 2554,
      "schneiderman": 2555,
      "commun": 2556,
      "##head": 2557,
      "trip": 2558,
      "general": 2559,
      "ugly": 2560,
      "arsenio": 2561,
      "incredible": 2562,
      "dru": 2563,
      "dub": 2564,
      "employ": 2565,
      "nick": 2566,
      "named": 2567,
      "rul": 2568,
      "tuesday": 2569,
      "##ike": 2570,
      "##iatrump": 2571,
      "##ef": 2572,
      "##yc": 2573,
      "##ats": 2574,
      "tow": 2575,
      "str": 2576,
      "hey": 2577,
      "heard": 2578,
      "##nel": 2579,
      "suc": 2580,
      "supp": 2581,
      "##ards": 2582,
      "foot": 2583,
      "climate": 2584,
      "bigger": 2585,
      "himself": 2586,
      "prez": 2587,
      "company": 2588,
      "starts": 2589,
      "appro": 2590,
      "enjoyed": 2591,
      "##stein": 2592,
      "conserv": 2593,
      "melaniatrump": 2594,
      "seriously": 2595,
      "crowd": 2596,
      "vanityfair": 2597,
      "##fully": 2598,
      "television": 2599,
      "32": 2600,
      "42": 2601,
      "52": 2602,
      "72": 2603,
      "82": 2604,
      "fa": 2605,
      "fans": 2606,
      "four": 2607,
      "ign": 2608,
      "knew": 2609,
      "mis": 2610,
      "mad": 2611,
      "opp": 2612,
      "pan": 2613,
      "##lant": 2614,
      "##tv": 2615,
      "##ior": 2616,
      "##ias": 2617,
      "##hood": 2618,
      "##use": 2619,
      "##ding": 2620,
      "##ka": 2621,
      "##ica": 2622,
      "##stone": 2623,
      "stock": 2624,
      "thats": 2625,
      "##ands": 2626,
      "##ander": 2627,
      "##ither": 2628,
      "##ctor": 2629,
      "##agan": 2630,
      "102": 2631,
      "132": 2632,
      "##itting": 2633,
      "brilli": 2634,
      "probab": 2635,
      "##newyork": 2636,
      "##ized": 2637,
      "black": 2638,
      "hero": 2639,
      "impress": 2640,
      "highest": 2641,
      "phot": 2642,
      "border": 2643,
      "fighting": 2644,
      "questions": 2645,
      "opportunity": 2646,
      "##leep": 2647,
      "##miller": 2648,
      "early": 2649,
      "brilliant": 2650,
      "probably": 2651,
      "62": 2652,
      "92": 2653,
      "bost": 2654,
      "cit": 2655,
      "fame": 2656,
      "icon": 2657,
      "kate": 2658,
      "nomin": 2659,
      "satur": 2660,
      "ten": 2661,
      "tie": 2662,
      "##lish": 2663,
      "##cav": 2664,
      "thom": 2665,
      "thurs": 2666,
      "##inal": 2667,
      "##otte": 2668,
      "force": 2669,
      "loc": 2670,
      "##ops": 2671,
      "lives": 2672,
      "##ield": 2673,
      "sub": 2674,
      "##roll": 2675,
      "202": 2676,
      "112": 2677,
      "162": 2678,
      "152": 2679,
      "172": 2680,
      "122": 2681,
      "142": 2682,
      "192": 2683,
      "182": 2684,
      "pray": 2685,
      "cla": 2686,
      "missed": 2687,
      "windfar": 2688,
      "carter": 2689,
      "sadly": 2690,
      "##max": 2691,
      "continues": 2692,
      "gives": 2693,
      "sky": 2694,
      "fundra": 2695,
      "##reedom": 2696,
      "returns": 2697,
      "snowden": 2698,
      "trumpgolfl": 2699,
      "private": 2700,
      "picture": 2701,
      "succeed": 2702,
      "egy": 2703,
      "ob": 2704,
      "pet": 2705,
      "sing": 2706,
      "##aa": 2707,
      "##ires": 2708,
      "##more": 2709,
      "##cer": 2710,
      "##ases": 2711,
      "trumpnewyork": 2712,
      "##urious": 2713,
      "staff": 2714,
      "##rib": 2715,
      "businessman": 2716,
      "pret": 2717,
      "trou": 2718,
      "trace": 2719,
      "badly": 2720,
      "buying": 2721,
      "dollar": 2722,
      "##golf": 2723,
      "fully": 2724,
      "legend": 2725,
      "renov": 2726,
      "imagine": 2727,
      "##ibbons": 2728,
      "breitbartnews": 2729,
      "egypt": 2730,
      "det": 2731,
      "er": 2732,
      "eur": 2733,
      "hes": 2734,
      "ice": 2735,
      "kat": 2736,
      "race": 2737,
      "##iot": 2738,
      "##ole": 2739,
      "##hall": 2740,
      "##dc": 2741,
      "review": 2742,
      "reagan": 2743,
      "##arter": 2744,
      "##iter": 2745,
      "##ague": 2746,
      "word": 2747,
      "wouldn": 2748,
      "##berts": 2749,
      "brother": 2750,
      "##venue": 2751,
      "billions": 2752,
      "beauty": 2753,
      "newsmax": 2754,
      "respons": 2755,
      "tweeting": 2756,
      "putin": 2757,
      "huff": 2758,
      "##coming": 2759,
      "conference": 2760,
      "deliver": 2761,
      "woman": 2762,
      "enemies": 2763,
      "charlotte": 2764,
      "racist": 2765,
      "intellig": 2766,
      "libya": 2767,
      "saturday": 2768,
      "76": 2769,
      "boss": 2770,
      "dennis": 2771,
      "gar": 2772,
      "hits": 2773,
      "sleep": 2774,
      "##af": 2775,
      "##ta": 2776,
      "##uel": 2777,
      "##pro": 2778,
      "##rest": 2779,
      "##orter": 2780,
      "##orivera": 2781,
      "##ene": 2782,
      "##amo": 2783,
      "##ided": 2784,
      "##lyn": 2785,
      "##chan": 2786,
      "##ried": 2787,
      "##the": 2788,
      "lie": 2789,
      "##agibbons": 2790,
      "joke": 2791,
      "cold": 2792,
      "looked": 2793,
      "organ": 2794,
      "rob": 2795,
      "comments": 2796,
      "##arybu": 2797,
      "##iving": 2798,
      "recent": 2799,
      "track": 2800,
      "explain": 2801,
      "focused": 2802,
      "seth": 2803,
      "raise": 2804,
      "central": 2805,
      "months": 2806,
      "geraldorivera": 2807,
      "ridic": 2808,
      "leezagibbons": 2809,
      "property": 2810,
      "thegarybu": 2811,
      "dubai": 2812,
      "boston": 2813,
      "thursday": 2814,
      "27": 2815,
      "ari": 2816,
      "gif": 2817,
      "rated": 2818,
      "##ray": 2819,
      "##nesty": 2820,
      "##dle": 2821,
      "##ked": 2822,
      "##edy": 2823,
      "##vember": 2824,
      "hair": 2825,
      "chuck": 2826,
      "atlant": 2827,
      "amnesty": 2828,
      "lies": 2829,
      "##iel": 2830,
      "##iling": 2831,
      "asking": 2832,
      "november": 2833,
      "seems": 2834,
      "roll": 2835,
      "repeal": 2836,
      "voting": 2837,
      "thereal": 2838,
      "recover": 2839,
      "entertain": 2840,
      "##scotland": 2841,
      "sometimes": 2842,
      "accomp": 2843,
      "keystone": 2844,
      "opportunities": 2845,
      "##fox": 2846,
      "deficit": 2847,
      "citiz": 2848,
      "thegarybusey": 2849,
      "26": 2850,
      "86": 2851,
      "96": 2852,
      "dro": 2853,
      "lis": 2854,
      "purch": 2855,
      "song": 2856,
      "##mit": 2857,
      "##oy": 2858,
      "##house": 2859,
      "##ns": 2860,
      "##cent": 2861,
      "##wal": 2862,
      "##vegas": 2863,
      "##ides": 2864,
      "##used": 2865,
      "lil": 2866,
      "##ctions": 2867,
      "##ros": 2868,
      "176": 2869,
      "136": 2870,
      "justice": 2871,
      "exact": 2872,
      "##istan": 2873,
      "env": 2874,
      "comment": 2875,
      "missusa": 2876,
      "guess": 2877,
      "quick": 2878,
      "weeks": 2879,
      "ivanka": 2880,
      "honored": 2881,
      "##anna": 2882,
      "statement": 2883,
      "laugh": 2884,
      "hours": 2885,
      "candidate": 2886,
      "incompetent": 2887,
      "includ": 2888,
      "thomas": 2889,
      "trouble": 2890,
      "organiz": 2891,
      "36": 2892,
      "46": 2893,
      "47": 2894,
      "56": 2895,
      "57": 2896,
      "66": 2897,
      "87": 2898,
      "arab": 2899,
      "cause": 2900,
      "dj": 2901,
      "mur": 2902,
      "mention": 2903,
      "pop": 2904,
      "sent": 2905,
      "toronto": 2906,
      "vir": 2907,
      "wise": 2908,
      "##cess": 2909,
      "##down": 2910,
      "##ken": 2911,
      "##pe": 2912,
      "##fr": 2913,
      "##ington": 2914,
      "took": 2915,
      "##let": 2916,
      "##acy": 2917,
      "##aces": 2918,
      "##igning": 2919,
      "stated": 2920,
      "church": 2921,
      "chief": 2922,
      "##key": 2923,
      "##ird": 2924,
      "aren": 2925,
      "present": 2926,
      "##nell": 2927,
      "106": 2928,
      "107": 2929,
      "level": 2930,
      "206": 2931,
      "116": 2932,
      "166": 2933,
      "156": 2934,
      "126": 2935,
      "146": 2936,
      "147": 2937,
      "196": 2938,
      "197": 2939,
      "186": 2940,
      "187": 2941,
      "along": 2942,
      "realize": 2943,
      "arch": 2944,
      "everybody": 2945,
      "courage": 2946,
      "wanted": 2947,
      "##ailable": 2948,
      "trans": 2949,
      "trillion": 2950,
      "bless": 2951,
      "couldn": 2952,
      "grand": 2953,
      "longer": 2954,
      "michell": 2955,
      "wishes": 2956,
      "hands": 2957,
      "solution": 2958,
      "jimmy": 2959,
      "scottish": 2960,
      "vacation": 2961,
      "achieve": 2962,
      "announcement": 2963,
      "##itzer": 2964,
      "brian": 2965,
      "features": 2966,
      "available": 2967,
      "ridiculous": 2968,
      "28": 2969,
      "38": 2970,
      "37": 2971,
      "5m": 2972,
      "67": 2973,
      "77": 2974,
      "88": 2975,
      "97": 2976,
      "action": 2977,
      "due": 2978,
      "east": 2979,
      "fis": 2980,
      "ian": 2981,
      "kell": 2982,
      "lance": 2983,
      "mos": 2984,
      "piece": 2985,
      "rate": 2986,
      "tro": 2987,
      "##aj": 2988,
      "##hap": 2989,
      "##bass": 2990,
      "##wart": 2991,
      "##reen": 2992,
      "##reci": 2993,
      "##ether": 2994,
      "trumpscotland": 2995,
      "##andmike": 2996,
      "##antor": 2997,
      "leave": 2998,
      "207": 2999,
      "117": 3000,
      "167": 3001,
      "157": 3002,
      "177": 3003,
      "127": 3004,
      "137": 3005,
      "coast": 3006,
      "outs": 3007,
      "voted": 3008,
      "doesnt": 3009,
      "desper": 3010,
      "rather": 3011,
      "opening": 3012,
      "senate": 3013,
      "mikeandmike": 3014,
      "hosting": 3015,
      "capital": 3016,
      "elected": 3017,
      "healthcare": 3018,
      "possible": 3019,
      "kenyamo": 3020,
      "##lasvegas": 3021,
      "canada": 3022,
      "##selves": 3023,
      "stephen": 3024,
      "##mahon": 3025,
      "trumpgolfla": 3026,
      "atlantic": 3027,
      "kenyamoore": 3028,
      "bal": 3029,
      "blo": 3030,
      "came": 3031,
      "gone": 3032,
      "##iet": 3033,
      "##how": 3034,
      "##girl": 3035,
      "##fall": 3036,
      "##inton": 3037,
      "##itude": 3038,
      "ine": 3039,
      "trumplasvegas": 3040,
      "whether": 3041,
      "abc": 3042,
      "118": 3043,
      "198": 3044,
      "using": 3045,
      "univers": 3046,
      "##ween": 3047,
      "##ived": 3048,
      "enter": 3049,
      "appreci": 3050,
      "moron": 3051,
      "##ette": 3052,
      "respon": 3053,
      "decis": 3054,
      "hearing": 3055,
      "magn": 3056,
      "standing": 3057,
      "message": 3058,
      "destroying": 3059,
      "espn": 3060,
      "##ledge": 3061,
      "liberty": 3062,
      "kids": 3063,
      "beginning": 3064,
      "straight": 3065,
      "fabulous": 3066,
      "troops": 3067,
      "##antorum": 3068,
      "48": 3069,
      "58": 3070,
      "68": 3071,
      "78": 3072,
      "98": 3073,
      "aust": 3074,
      "aff": 3075,
      "bed": 3076,
      "dad": 3077,
      "either": 3078,
      "freedom": 3079,
      "lower": 3080,
      "mine": 3081,
      "nd": 3082,
      "opt": 3083,
      "ry": 3084,
      "sending": 3085,
      "tun": 3086,
      "tip": 3087,
      "wall": 3088,
      "yr": 3089,
      "##ted": 3090,
      "##mst": 3091,
      "##uation": 3092,
      "##ba": 3093,
      "thous": 3094,
      "##alty": 3095,
      "##eno": 3096,
      "##leman": 3097,
      "stre": 3098,
      "goals": 3099,
      "##sell": 3100,
      "amsp": 3101,
      "cance": 3102,
      "##elf": 3103,
      "108": 3104,
      "208": 3105,
      "168": 3106,
      "158": 3107,
      "178": 3108,
      "128": 3109,
      "138": 3110,
      "148": 3111,
      "188": 3112,
      "alone": 3113,
      "winners": 3114,
      "##ective": 3115,
      "clos": 3116,
      "progr": 3117,
      "##199": 3118,
      "comb": 3119,
      "common": 3120,
      "between": 3121,
      "finished": 3122,
      "opin": 3123,
      "expand": 3124,
      "perhap": 3125,
      "##reng": 3126,
      "waiting": 3127,
      "mayor": 3128,
      "carol": 3129,
      "accept": 3130,
      "##ancou": 3131,
      "asked": 3132,
      "contract": 3133,
      "address": 3134,
      "matter": 3135,
      "rooms": 3136,
      "allowed": 3137,
      "predicted": 3138,
      "immigration": 3139,
      "amspec": 3140,
      "perhaps": 3141,
      "000": 3142,
      "bomb": 3143,
      "clear": 3144,
      "girl": 3145,
      "kore": 3146,
      "might": 3147,
      "mother": 3148,
      "ri": 3149,
      "test": 3150,
      "ver": 3151,
      "wed": 3152,
      "##gg": 3153,
      "##gress": 3154,
      "##yn": 3155,
      "##cow": 3156,
      "##port": 3157,
      "##eral": 3158,
      "##ining": 3159,
      "inform": 3160,
      "bey": 3161,
      "often": 3162,
      "streng": 3163,
      "##champ": 3164,
      "shut": 3165,
      "shark": 3166,
      "league": 3167,
      "##cks": 3168,
      "##aud": 3169,
      "##avy": 3170,
      "rove": 3171,
      "##awn": 3172,
      "##rated": 3173,
      "businesses": 3174,
      "becom": 3175,
      "lets": 3176,
      "perfor": 3177,
      "discuss": 3178,
      "desp": 3179,
      "group": 3180,
      "flights": 3181,
      "##beg": 3182,
      "governor": 3183,
      "passed": 3184,
      "followers": 3185,
      "middle": 3186,
      "large": 3187,
      "etc": 3188,
      "sweep": 3189,
      "horri": 3190,
      "muslim": 3191,
      "behind": 3192,
      "restaurant": 3193,
      "hillary": 3194,
      "envir": 3195,
      "response": 3196,
      "##mstrong": 3197,
      "strength": 3198,
      "cnbc": 3199,
      "doug": 3200,
      "gain": 3201,
      "lad": 3202,
      "sick": 3203,
      "tick": 3204,
      "##01": 3205,
      "##mb": 3206,
      "##viv": 3207,
      "##dog": 3208,
      "##pan": 3209,
      "##rel": 3210,
      "##orters": 3211,
      "##ruction": 3212,
      "form": 3213,
      "##ader": 3214,
      "##ades": 3215,
      "##urst": 3216,
      "stri": 3217,
      "##verage": 3218,
      "##rie": 3219,
      "jose": 3220,
      "means": 3221,
      "thinks": 3222,
      "whole": 3223,
      "knowledge": 3224,
      "##444": 3225,
      "##777": 3226,
      "##aper": 3227,
      "entire": 3228,
      "quit": 3229,
      "gray": 3230,
      "mov": 3231,
      "career": 3232,
      "paying": 3233,
      "taken": 3234,
      "awards": 3235,
      "possib": 3236,
      "vacc": 3237,
      "concern": 3238,
      "enemy": 3239,
      "##official": 3240,
      "sales": 3241,
      "angel": 3242,
      "premiere": 3243,
      "eyes": 3244,
      "clean": 3245,
      "dangerous": 3246,
      "afghanistan": 3247,
      "conservative": 3248,
      "photo": 3249,
      "purchase": 3250,
      "including": 3251,
      "fiscal": 3252,
      "tuned": 3253,
      "thousands": 3254,
      "environ": 3255,
      "avenue": 3256,
      "bru": 3257,
      "cbs": 3258,
      "cute": 3259,
      "certain": 3260,
      "dra": 3261,
      "oce": 3262,
      "pine": 3263,
      "pga": 3264,
      "rnc": 3265,
      "sus": 3266,
      "tar": 3267,
      "vp": 3268,
      "##santorum": 3269,
      "##rick": 3270,
      "##iol": 3271,
      "##nes": 3272,
      "##yers": 3273,
      "##bage": 3274,
      "##cu": 3275,
      "##pa": 3276,
      "##onna": 3277,
      "##erg": 3278,
      "##instein": 3279,
      "##itect": 3280,
      "##stweet": 3281,
      "##lew": 3282,
      "##ayer": 3283,
      "former": 3284,
      "##lymp": 3285,
      "##uto": 3286,
      "##utions": 3287,
      "##eek": 3288,
      "##ager": 3289,
      "spot": 3290,
      "upcoming": 3291,
      "seem": 3292,
      "road": 3293,
      "##195": 3294,
      "##ahl": 3295,
      "hopefully": 3296,
      "##ecially": 3297,
      "calling": 3298,
      "stewart": 3299,
      "trumptuesday": 3300,
      "raised": 3301,
      "especially": 3302,
      "achie": 3303,
      "doubt": 3304,
      "ricksantorum": 3305,
      "terrorists": 3306,
      "product": 3307,
      "direct": 3308,
      "stories": 3309,
      "push": 3310,
      "illegal": 3311,
      "quality": 3312,
      "financial": 3313,
      "claims": 3314,
      "architect": 3315,
      "bab": 3316,
      "emp": 3317,
      "half": 3318,
      "mand": 3319,
      "nat": 3320,
      "nic": 3321,
      "olymp": 3322,
      "side": 3323,
      "self": 3324,
      "##rop": 3325,
      "##rich": 3326,
      "##mart": 3327,
      "##vo": 3328,
      "##vis": 3329,
      "##gin": 3330,
      "##do": 3331,
      "##daily": 3332,
      "##ky": 3333,
      "third": 3334,
      "##eren": 3335,
      "##stern": 3336,
      "weap": 3337,
      "presiden": 3338,
      "worry": 3339,
      "##eline": 3340,
      "leav": 3341,
      "albert": 3342,
      "sex": 3343,
      "works": 3344,
      "tah": 3345,
      "adam": 3346,
      "anymore": 3347,
      "happens": 3348,
      "todayshow": 3349,
      "##ives": 3350,
      "attention": 3351,
      "##ify": 3352,
      "##rence": 3353,
      "##iano": 3354,
      "defund": 3355,
      "##ensive": 3356,
      "embar": 3357,
      "johnny": 3358,
      "##coll": 3359,
      "turned": 3360,
      "created": 3361,
      "medic": 3362,
      "happened": 3363,
      "inside": 3364,
      "episodes": 3365,
      "current": 3366,
      "##minster": 3367,
      "diffic": 3368,
      "green": 3369,
      "howardstern": 3370,
      "##aughter": 3371,
      "independ": 3372,
      "execut": 3373,
      "oppos": 3374,
      "single": 3375,
      "churchill": 3376,
      "kelly": 3377,
      "program": 3378,
      "horrible": 3379,
      "environment": 3380,
      "presidency": 3381,
      "einstein": 3382,
      "fine": 3383,
      "field": 3384,
      "kerry": 3385,
      "merry": 3386,
      "round": 3387,
      "sg": 3388,
      "##lt": 3389,
      "##uary": 3390,
      "##dan": 3391,
      "ther": 3392,
      "three": 3393,
      "##onbeg": 3394,
      "theapprentice": 3395,
      "##stem": 3396,
      "shot": 3397,
      "doonbeg": 3398,
      "##erson": 3399,
      "##olf": 3400,
      "##ulation": 3401,
      "sue": 3402,
      "subs": 3403,
      "josh": 3404,
      "coach": 3405,
      "orig": 3406,
      "disc": 3407,
      "##101": 3408,
      "scand": 3409,
      "##ured": 3410,
      "wont": 3411,
      "##ape": 3412,
      "themselves": 3413,
      "finale": 3414,
      "guys": 3415,
      "blow": 3416,
      "warren": 3417,
      "pervert": 3418,
      "bird": 3419,
      "taxp": 3420,
      "annivers": 3421,
      "putting": 3422,
      "##book": 3423,
      "senator": 3424,
      "tells": 3425,
      "paid": 3426,
      "holly": 3427,
      "wasting": 3428,
      "cuts": 3429,
      "melania": 3430,
      "##jonas": 3431,
      "premium": 3432,
      "stopped": 3433,
      "ceiling": 3434,
      "profess": 3435,
      "football": 3436,
      "huffington": 3437,
      "university": 3438,
      "##ancouver": 3439,
      "korea": 3440,
      "beyond": 3441,
      "graydon": 3442,
      "ocean": 3443,
      "anniversary": 3444,
      "ahead": 3445,
      "cop": 3446,
      "ev": 3447,
      "gonna": 3448,
      "linc": 3449,
      "rise": 3450,
      "sett": 3451,
      "##mal": 3452,
      "##mark": 3453,
      "##oress": 3454,
      "##ever": 3455,
      "##fort": 3456,
      "##za": 3457,
      "##ze": 3458,
      "##alph": 3459,
      "##real": 3460,
      "##aldwin": 3461,
      "##rus": 3462,
      "##ises": 3463,
      "##asing": 3464,
      "##eth": 3465,
      "##ading": 3466,
      "##adkins": 3467,
      "wealth": 3468,
      "##unning": 3469,
      "##ira": 3470,
      "myself": 3471,
      "amen": 3472,
      "lif": 3473,
      "##ages": 3474,
      "##antage": 3475,
      "asp": 3476,
      "spring": 3477,
      "agreed": 3478,
      "winston": 3479,
      "anyway": 3480,
      "court": 3481,
      "billy": 3482,
      "##ails": 3483,
      "players": 3484,
      "keeps": 3485,
      "defend": 3486,
      "higher": 3487,
      "##mooress": 3488,
      "careful": 3489,
      "hole": 3490,
      "lawrence": 3491,
      "system": 3492,
      "bringing": 3493,
      "indust": 3494,
      "##kiki": 3495,
      "announced": 3496,
      "center": 3497,
      "policies": 3498,
      "double": 3499,
      "geraldo": 3500,
      "kenya": 3501,
      "situation": 3502,
      "shooting": 3503,
      "challenge": 3504,
      "cadillacchamp": 3505,
      "strate": 3506,
      "brotherhood": 3507,
      "garbage": 3508,
      "accomplish": 3509,
      "popular": 3510,
      "despite": 3511,
      "sweepstweet": 3512,
      "tahmooress": 3513,
      "bow": 3514,
      "bry": 3515,
      "bbc": 3516,
      "base": 3517,
      "batt": 3518,
      "fra": 3519,
      "fran": 3520,
      "fred": 3521,
      "games": 3522,
      "hack": 3523,
      "jenn": 3524,
      "lim": 3525,
      "ment": 3526,
      "ralph": 3527,
      "sil": 3528,
      "sandy": 3529,
      "##ium": 3530,
      "##mac": 3531,
      "##vious": 3532,
      "##nie": 3533,
      "##bus": 3534,
      "##dom": 3535,
      "##dav": 3536,
      "##ple": 3537,
      "##inct": 3538,
      "##atic": 3539,
      "##enry": 3540,
      "##amer": 3541,
      "##acious": 3542,
      "##iding": 3543,
      "##ential": 3544,
      "stuff": 3545,
      "ship": 3546,
      "lol": 3547,
      "loving": 3548,
      "##thew": 3549,
      "living": 3550,
      "##oln": 3551,
      "social": 3552,
      "spa": 3553,
      "clinton": 3554,
      "##mann": 3555,
      "##100": 3556,
      "##well": 3557,
      "repl": 3558,
      "##rown": 3559,
      "##wards": 3560,
      "##rency": 3561,
      "apple": 3562,
      "elite": 3563,
      "killer": 3564,
      "##ontv": 3565,
      "attacks": 3566,
      "parent": 3567,
      "born": 3568,
      "planning": 3569,
      "benef": 3570,
      "hello": 3571,
      "accord": 3572,
      "confidence": 3573,
      "editor": 3574,
      "victor": 3575,
      "msviv": 3576,
      "currency": 3577,
      "effort": 3578,
      "increase": 3579,
      "jeffrey": 3580,
      "bankruptcy": 3581,
      "##factor": 3582,
      "anti": 3583,
      "judge": 3584,
      "simple": 3585,
      "january": 3586,
      "##iamond": 3587,
      "lawsu": 3588,
      "appearance": 3589,
      "defeat": 3590,
      "##icafox": 3591,
      "traceadkins": 3592,
      "europe": 3593,
      "exactly": 3594,
      "moscow": 3595,
      "opinion": 3596,
      "medicare": 3597,
      "lincoln": 3598,
      "tahmooressi": 3599,
      "msvivicafox": 3600,
      "cross": 3601,
      "caught": 3602,
      "den": 3603,
      "equ": 3604,
      "fac": 3605,
      "fear": 3606,
      "gall": 3607,
      "hop": 3608,
      "journal": 3609,
      "nations": 3610,
      "ult": 3611,
      "wrest": 3612,
      "##like": 3613,
      "##ove": 3614,
      "##bills": 3615,
      "##can": 3616,
      "##cing": 3617,
      "##pr": 3618,
      "##pol": 3619,
      "##iny": 3620,
      "##lement": 3621,
      "##ownt": 3622,
      "ones": 3623,
      "style": 3624,
      "sports": 3625,
      "spitzer": 3626,
      "brought": 3627,
      "marine": 3628,
      "repres": 3629,
      "tony": 3630,
      "##izing": 3631,
      "police": 3632,
      "evening": 3633,
      "calls": 3634,
      "funny": 3635,
      "grant": 3636,
      "moving": 3637,
      "front": 3638,
      "politicians": 3639,
      "helping": 3640,
      "staying": 3641,
      "##iering": 3642,
      "jew": 3643,
      "hunt": 3644,
      "following": 3645,
      "continu": 3646,
      "talks": 3647,
      "##anything": 3648,
      "mistakes": 3649,
      "investig": 3650,
      "fundanything": 3651,
      "##guy": 3652,
      "earth": 3653,
      "##where": 3654,
      "karlrove": 3655,
      "kevinjonas": 3656,
      "sounds": 3657,
      "motivation": 3658,
      "innov": 3659,
      "recovery": 3660,
      "desperate": 3661,
      "bedminster": 3662,
      "information": 3663,
      "according": 3664,
      "cir": 3665,
      "cris": 3666,
      "hus": 3667,
      "henry": 3668,
      "iontv": 3669,
      "kim": 3670,
      "kno": 3671,
      "lady": 3672,
      "mcc": 3673,
      "nc": 3674,
      "nast": 3675,
      "ore": 3676,
      "pac": 3677,
      "peter": 3678,
      "tbt": 3679,
      "##ron": 3680,
      "##rass": 3681,
      "##ique": 3682,
      "##hurst": 3683,
      "##night": 3684,
      "##bur": 3685,
      "##band": 3686,
      "##cri": 3687,
      "##dd": 3688,
      "##dra": 3689,
      "##ps": 3690,
      "##pal": 3691,
      "##par": 3692,
      "##alk": 3693,
      "##ansp": 3694,
      "##oric": 3695,
      "##orse": 3696,
      "rebel": 3697,
      "infl": 3698,
      "ford": 3699,
      "##ety": 3700,
      "trumpwai": 3701,
      "whate": 3702,
      "stamp": 3703,
      "##sec": 3704,
      "loy": 3705,
      "##iring": 3706,
      "yours": 3707,
      "##ffer": 3708,
      "county": 3709,
      "bull": 3710,
      "##aze": 3711,
      "prov": 3712,
      "##888": 3713,
      "finest": 3714,
      "changed": 3715,
      "##ified": 3716,
      "applic": 3717,
      "miller": 3718,
      "flag": 3719,
      "commer": 3720,
      "apart": 3721,
      "across": 3722,
      "negotiate": 3723,
      "handle": 3724,
      "investment": 3725,
      "larry": 3726,
      "cares": 3727,
      "broad": 3728,
      "soldiers": 3729,
      "deserves": 3730,
      "liberal": 3731,
      "terrorist": 3732,
      "simply": 3733,
      "holiday": 3734,
      "radio": 3735,
      "sternshow": 3736,
      "community": 3737,
      "faith": 3738,
      "pretty": 3739,
      "gift": 3740,
      "dropped": 3741,
      "organization": 3742,
      "magnific": 3743,
      "street": 3744,
      "concerned": 3745,
      "target": 3746,
      "embarrass": 3747,
      "fraud": 3748,
      "whatever": 3749,
      "bin": 3750,
      "card": 3751,
      "dt": 3752,
      "dm": 3753,
      "dun": 3754,
      "die": 3755,
      "dans": 3756,
      "diamond": 3757,
      "downt": 3758,
      "fell": 3759,
      "jam": 3760,
      "ken": 3761,
      "nj": 3762,
      "pip": 3763,
      "wild": 3764,
      "##lam": 3765,
      "##lvan": 3766,
      "##rad": 3767,
      "##mcc": 3768,
      "##hus": 3769,
      "##uction": 3770,
      "##car": 3771,
      "##ko": 3772,
      "##91": 3773,
      "##pm": 3774,
      "##fer": 3775,
      "##alous": 3776,
      "##ena": 3777,
      "##ening": 3778,
      "##icip": 3779,
      "##acc": 3780,
      "##illette": 3781,
      "near": 3782,
      "held": 3783,
      "shock": 3784,
      "shawn": 3785,
      "lied": 3786,
      "##iev": 3787,
      "presidents": 3788,
      "##ela": 3789,
      "ash": 3790,
      "ally": 3791,
      "##ardi": 3792,
      "manu": 3793,
      "unless": 3794,
      "eng": 3795,
      "brit": 3796,
      "robb": 3797,
      "roberts": 3798,
      "##129": 3799,
      "screen": 3800,
      "didnt": 3801,
      "##ability": 3802,
      "complim": 3803,
      "attend": 3804,
      "charge": 3805,
      "ground": 3806,
      "buildings": 3807,
      "highly": 3808,
      "visiting": 3809,
      "jealous": 3810,
      "trumptoronto": 3811,
      "admit": 3812,
      "delay": 3813,
      "hosted": 3814,
      "drop": 3815,
      "slow": 3816,
      "pennsy": 3817,
      "##johnson": 3818,
      "buffalobills": 3819,
      "sarah": 3820,
      "rules": 3821,
      "quickly": 3822,
      "decisions": 3823,
      "pinehurst": 3824,
      "difficult": 3825,
      "original": 3826,
      "magnificent": 3827,
      "##lvania": 3828,
      "pennsylvania": 3829,
      "400": 3830,
      "500": 3831,
      "cert": 3832,
      "cuban": 3833,
      "daughter": 3834,
      "ell": 3835,
      "gra": 3836,
      "jerry": 3837,
      "jeter": 3838,
      "krist": 3839,
      "lau": 3840,
      "ml": 3841,
      "match": 3842,
      "obs": 3843,
      "signing": 3844,
      "ye": 3845,
      "##ien": 3846,
      "##mm": 3847,
      "##ha": 3848,
      "##hunt": 3849,
      "##gie": 3850,
      "##gel": 3851,
      "##yer": 3852,
      "##bre": 3853,
      "##just": 3854,
      "##cr": 3855,
      "##cor": 3856,
      "##piece": 3857,
      "##fam": 3858,
      "##ziering": 3859,
      "##online": 3860,
      "##ini": 3861,
      "rebu": 3862,
      "##amira": 3863,
      "shame": 3864,
      "docu": 3865,
      "##rium": 3866,
      "amount": 3867,
      "cancer": 3868,
      "coal": 3869,
      "##allas": 3870,
      "examp": 3871,
      "needed": 3872,
      "##aker": 3873,
      "##aking": 3874,
      "armstrong": 3875,
      "disg": 3876,
      "##104": 3877,
      "##103": 3878,
      "brings": 3879,
      "roger": 3880,
      "reporter": 3881,
      "keeping": 3882,
      "quote": 3883,
      "danamira": 3884,
      "steal": 3885,
      "stars": 3886,
      "owner": 3887,
      "windmill": 3888,
      "series": 3889,
      "frag": 3890,
      "##boy": 3891,
      "personally": 3892,
      "actor": 3893,
      "visited": 3894,
      "doralres": 3895,
      "negative": 3896,
      "attacking": 3897,
      "commiss": 3898,
      "setting": 3899,
      "admire": 3900,
      "respected": 3901,
      "account": 3902,
      "wasted": 3903,
      "trial": 3904,
      "standard": 3905,
      "##angel": 3906,
      "pressure": 3907,
      "inspiring": 3908,
      "surprised": 3909,
      "##mcmahon": 3910,
      "listening": 3911,
      "##ificate": 3912,
      "msnbc": 3913,
      "damn": 3914,
      "advantage": 3915,
      "requires": 3916,
      "network": 3917,
      "sharp": 3918,
      "pleasure": 3919,
      "risk": 3920,
      "patriot": 3921,
      "issue": 3922,
      "location": 3923,
      "responsible": 3924,
      "citizens": 3925,
      "ianziering": 3926,
      "##lemania": 3927,
      "becoming": 3928,
      "weapons": 3929,
      "sgt": 3930,
      "oreilly": 3931,
      "rebels": 3932,
      "trumpwaikiki": 3933,
      "manufact": 3934,
      "certificate": 3935,
      "bah": 3936,
      "blog": 3937,
      "fly": 3938,
      "fol": 3939,
      "ju": 3940,
      "jer": 3941,
      "june": 3942,
      "mitch": 3943,
      "pg": 3944,
      "rising": 3945,
      "saud": 3946,
      "ted": 3947,
      "ut": 3948,
      "veter": 3949,
      "##lson": 3950,
      "##life": 3951,
      "##sm": 3952,
      "##mich": 3953,
      "##vc": 3954,
      "##han": 3955,
      "##here": 3956,
      "##nick": 3957,
      "##gre": 3958,
      "##baldwin": 3959,
      "##jillette": 3960,
      "##177": 3961,
      "##press": 3962,
      "##zing": 3963,
      "though": 3964,
      "##ones": 3965,
      "##rell": 3966,
      "##ency": 3967,
      "##arch": 3968,
      "##icag": 3969,
      "##iser": 3970,
      "##ota": 3971,
      "##amin": 3972,
      "trumpcoll": 3973,
      "stick": 3974,
      "necess": 3975,
      "##olution": 3976,
      "##usting": 3977,
      "##ilbert": 3978,
      "##rock": 3979,
      "couple": 3980,
      "##ravel": 3981,
      "ability": 3982,
      "memor": 3983,
      "justin": 3984,
      "##cker": 3985,
      "sector": 3986,
      "barbar": 3987,
      "##200": 3988,
      "##202": 3989,
      "##aks": 3990,
      "rose": 3991,
      "##197": 3992,
      "busy": 3993,
      "scary": 3994,
      "boy": 3995,
      "mary": 3996,
      "tex": 3997,
      "tech": 3998,
      "became": 3999,
      "transp": 4000,
      "oper": 4001,
      "##urnberry": 4002,
      "channel": 4003,
      "##821": 4004,
      "harder": 4005,
      "rating": 4006,
      "personal": 4007,
      "feature": 4008,
      "embass": 4009,
      "stayed": 4010,
      "sched": 4011,
      "committ": 4012,
      "trumpturnberry": 4013,
      "creating": 4014,
      "apri": 4015,
      "insur": 4016,
      "learned": 4017,
      "destroyed": 4018,
      "legal": 4019,
      "pastor": 4020,
      "events": 4021,
      "idol": 4022,
      "brave": 4023,
      "aberdeenshire": 4024,
      "polls": 4025,
      "facebook": 4026,
      "increased": 4027,
      "pennjillette": 4028,
      "featuring": 4029,
      "vincemcmahon": 4030,
      "hurric": 4031,
      "wisdom": 4032,
      "innocent": 4033,
      "prepared": 4034,
      "contestants": 4035,
      "received": 4036,
      "masterpiece": 4037,
      "patriots": 4038,
      "arseniohall": 4039,
      "iconic": 4040,
      "michelle": 4041,
      "appreciate": 4042,
      "douglas": 4043,
      "laden": 4044,
      "movie": 4045,
      "achievers": 4046,
      "battle": 4047,
      "wrestlemania": 4048,
      "circ": 4049,
      "commercial": 4050,
      "pipeline": 4051,
      "oreillyfactor": 4052,
      "##michael": 4053,
      "250": 4054,
      "aud": 4055,
      "bas": 4056,
      "cat": 4057,
      "dying": 4058,
      "furious": 4059,
      "guts": 4060,
      "ham": 4061,
      "jen": 4062,
      "kra": 4063,
      "non": 4064,
      "oct": 4065,
      "rip": 4066,
      "vo": 4067,
      "viol": 4068,
      "vancouver": 4069,
      "ws": 4070,
      "ya": 4071,
      "##oint": 4072,
      "##har": 4073,
      "##ni": 4074,
      "##ned": 4075,
      "##giving": 4076,
      "##cas": 4077,
      "##fan": 4078,
      "##ford": 4079,
      "##erent": 4080,
      "##inp": 4081,
      "theview": 4082,
      "##atter": 4083,
      "##stor": 4084,
      "##otes": 4085,
      "fort": 4086,
      "weather": 4087,
      "hawai": 4088,
      "hagel": 4089,
      "##ackson": 4090,
      "cond": 4091,
      "amend": 4092,
      "among": 4093,
      "##iles": 4094,
      "##ilities": 4095,
      "suffer": 4096,
      "newyork": 4097,
      "131": 4098,
      "##istic": 4099,
      "##cca": 4100,
      "##aki": 4101,
      "##164": 4102,
      "progress": 4103,
      "official": 4104,
      "anybody": 4105,
      "celebrate": 4106,
      "##007": 4107,
      "##ivid": 4108,
      "##cons": 4109,
      "##834": 4110,
      "somebody": 4111,
      "##227": 4112,
      "##747": 4113,
      "##izz": 4114,
      "##555": 4115,
      "##305": 4116,
      "macmiller": 4117,
      "frack": 4118,
      "politico": 4119,
      "##annah": 4120,
      "famous": 4121,
      "invol": 4122,
      "iranian": 4123,
      "viewers": 4124,
      "endorse": 4125,
      "toure": 4126,
      "raising": 4127,
      "powerful": 4128,
      "write": 4129,
      "keynot": 4130,
      "easily": 4131,
      "cpacnews": 4132,
      "prior": 4133,
      "protest": 4134,
      "golden": 4135,
      "dining": 4136,
      "rule": 4137,
      "selling": 4138,
      "designed": 4139,
      "##graham": 4140,
      "federal": 4141,
      "construction": 4142,
      "approval": 4143,
      "windfarms": 4144,
      "skyline": 4145,
      "afford": 4146,
      "carolina": 4147,
      "performan": 4148,
      "possibly": 4149,
      "independent": 4150,
      "amenities": 4151,
      "represent": 4152,
      "crisis": 4153,
      "rebuild": 4154,
      "example": 4155,
      "windmills": 4156,
      "april": 4157,
      "31": 4158,
      "41": 4159,
      "61": 4160,
      "71": 4161,
      "91": 4162,
      "catch": 4163,
      "cath": 4164,
      "date": 4165,
      "dress": 4166,
      "deter": 4167,
      "gd": 4168,
      "gorge": 4169,
      "hy": 4170,
      "hos": 4171,
      "ky": 4172,
      "kyle": 4173,
      "lou": 4174,
      "later": 4175,
      "mer": 4176,
      "mart": 4177,
      "occ": 4178,
      "piano": 4179,
      "ronald": 4180,
      "ray": 4181,
      "##lor": 4182,
      "##to": 4183,
      "##obs": 4184,
      "##vant": 4185,
      "##gers": 4186,
      "##uce": 4187,
      "##bit": 4188,
      "##but": 4189,
      "##journal": 4190,
      "##call": 4191,
      "##wr": 4192,
      "##wor": 4193,
      "##ints": 4194,
      "##oul": 4195,
      "##ators": 4196,
      "##leader": 4197,
      "##igh": 4198,
      "##ural": 4199,
      "stunning": 4200,
      "welf": 4201,
      "##imul": 4202,
      "cher": 4203,
      "ath": 4204,
      "thanksgiving": 4205,
      "##ilton": 4206,
      "##asters": 4207,
      "##antly": 4208,
      "notice": 4209,
      "wasn": 4210,
      "##rah": 4211,
      "101": 4212,
      "##arton": 4213,
      "sport": 4214,
      "##ckless": 4215,
      "age": 4216,
      "places": 4217,
      "##osed": 4218,
      "shouldn": 4219,
      "##205": 4220,
      "cliff": 4221,
      "disgr": 4222,
      "disapp": 4223,
      "##itten": 4224,
      "##look": 4225,
      "##125": 4226,
      "##126": 4227,
      "##194": 4228,
      "offic": 4229,
      "##000": 4230,
      "##442": 4231,
      "##604": 4232,
      "##601": 4233,
      "##222": 4234,
      "##803": 4235,
      "##701": 4236,
      "##897": 4237,
      "##247": 4238,
      "safe": 4239,
      "nights": 4240,
      "attitude": 4241,
      "##401": 4242,
      "##395": 4243,
      "birds": 4244,
      "##atten": 4245,
      "emily": 4246,
      "##321": 4247,
      "famil": 4248,
      "telling": 4249,
      "insight": 4250,
      "christian": 4251,
      "corrupt": 4252,
      "##magazine": 4253,
      "##hof": 4254,
      "costs": 4255,
      "freezing": 4256,
      "forever": 4257,
      "welch": 4258,
      "credibility": 4259,
      "competition": 4260,
      "matthew": 4261,
      "##rodman": 4262,
      "mexican": 4263,
      "different": 4264,
      "irre": 4265,
      "completely": 4266,
      "##woods": 4267,
      "direction": 4268,
      "latest": 4269,
      "restaurants": 4270,
      "penalty": 4271,
      "exclusively": 4272,
      "instinct": 4273,
      "towers": 4274,
      "##cavino": 4275,
      "windfarm": 4276,
      "reviews": 4277,
      "intelligence": 4278,
      "dennisrodman": 4279,
      "entertaining": 4280,
      "virgin": 4281,
      "outside": 4282,
      "austral": 4283,
      "expanding": 4284,
      "leaving": 4285,
      "premiums": 4286,
      "huffingtonpost": 4287,
      "parents": 4288,
      "knock": 4289,
      "loyal": 4290,
      "danscavino": 4291,
      "doralresort": 4292,
      "gorgeous": 4293,
      "welfare": 4294,
      "51": 4295,
      "81": 4296,
      "aug": 4297,
      "bay": 4298,
      "bid": 4299,
      "cash": 4300,
      "camer": 4301,
      "dw": 4302,
      "died": 4303,
      "dump": 4304,
      "ego": 4305,
      "fal": 4306,
      "fat": 4307,
      "ferry": 4308,
      "hom": 4309,
      "jr": 4310,
      "mic": 4311,
      "pra": 4312,
      "qvc": 4313,
      "sust": 4314,
      "sele": 4315,
      "tast": 4316,
      "va": 4317,
      "vs": 4318,
      "##sa": 4319,
      "##sman": 4320,
      "##ram": 4321,
      "##ract": 4322,
      "##ville": 4323,
      "##hon": 4324,
      "##ez": 4325,
      "##gc": 4326,
      "##je": 4327,
      "##dn": 4328,
      "##des": 4329,
      "##anies": 4330,
      "reform": 4331,
      "reckless": 4332,
      "##arant": 4333,
      "##eds": 4334,
      "##asc": 4335,
      "##idge": 4336,
      "wharton": 4337,
      "##igan": 4338,
      "##aded": 4339,
      "##adem": 4340,
      "hamp": 4341,
      "##ung": 4342,
      "atrium": 4343,
      "##uses": 4344,
      "##oday": 4345,
      "dee": 4346,
      "##open": 4347,
      "##ther": 4348,
      "##thed": 4349,
      "sucks": 4350,
      "solyn": 4351,
      "##enda": 4352,
      "join": 4353,
      "201": 4354,
      "111": 4355,
      "161": 4356,
      "151": 4357,
      "171": 4358,
      "121": 4359,
      "141": 4360,
      "191": 4361,
      "181": 4362,
      "spre": 4363,
      "sept": 4364,
      "unfair": 4365,
      "##206": 4366,
      "##207": 4367,
      "##204": 4368,
      "##201": 4369,
      "##209": 4370,
      "##203": 4371,
      "##inell": 4372,
      "prison": 4373,
      "arri": 4374,
      "prove": 4375,
      "proven": 4376,
      "##193": 4377,
      "##137": 4378,
      "teach": 4379,
      "##117": 4380,
      "##881": 4381,
      "##234": 4382,
      "##140": 4383,
      "##156": 4384,
      "##858": 4385,
      "##854": 4386,
      "##859": 4387,
      "##609": 4388,
      "##999": 4389,
      "##654": 4390,
      "##756": 4391,
      "##752": 4392,
      "##753": 4393,
      "##807": 4394,
      "##809": 4395,
      "##748": 4396,
      "##708": 4397,
      "##707": 4398,
      "##izes": 4399,
      "##641": 4400,
      "##249": 4401,
      "companies": 4402,
      "talib": 4403,
      "##337": 4404,
      "##rend": 4405,
      "##672": 4406,
      "morgan": 4407,
      "step": 4408,
      "##athan": 4409,
      "resign": 4410,
      "##345": 4411,
      "flash": 4412,
      "enjoying": 4413,
      "##901": 4414,
      "speaks": 4415,
      "speaker": 4416,
      "##group": 4417,
      "retweet": 4418,
      "planet": 4419,
      "negotiations": 4420,
      "individ": 4421,
      "facts": 4422,
      "##937": 4423,
      "##956": 4424,
      "##951": 4425,
      "paulry": 4426,
      "healthy": 4427,
      "dope": 4428,
      "luxurious": 4429,
      "mattg": 4430,
      "broken": 4431,
      "effective": 4432,
      "difference": 4433,
      "wwehof": 4434,
      "ohio": 4435,
      "trumpgolf": 4436,
      "##ombardi": 4437,
      "saved": 4438,
      "request": 4439,
      "wishing": 4440,
      "summer": 4441,
      "summit": 4442,
      "kicked": 4443,
      "##laus": 4444,
      "##cavuto": 4445,
      "intelligent": 4446,
      "ripping": 4447,
      "lawsuit": 4448,
      "##politic": 4449,
      "document": 4450,
      "disgusting": 4451,
      "trumpcollection": 4452,
      "texas": 4453,
      "hurricane": 4454,
      "amendment": 4455,
      "performance": 4456,
      "hosp": 4457,
      "taliban": 4458,
      "ak": 4459,
      "based": 4460,
      "dist": 4461,
      "dian": 4462,
      "dnc": 4463,
      "dallas": 4464,
      "gal": 4465,
      "hous": 4466,
      "hired": 4467,
      "hitting": 4468,
      "lab": 4469,
      "lombardi": 4470,
      "rink": 4471,
      "sens": 4472,
      "vatten": 4473,
      "wo": 4474,
      "wood": 4475,
      "##set": 4476,
      "##ipp": 4477,
      "##iams": 4478,
      "##vy": 4479,
      "##emp": 4480,
      "##james": 4481,
      "##96": 4482,
      "##wers": 4483,
      "##wil": 4484,
      "##zen": 4485,
      "##aly": 4486,
      "##inn": 4487,
      "##reg": 4488,
      "##eda": 4489,
      "##levin": 4490,
      "islam": 4491,
      "online": 4492,
      "##omberg": 4493,
      "##illed": 4494,
      "##idays": 4495,
      "##enty": 4496,
      "##ads": 4497,
      "##ado": 4498,
      "##christ": 4499,
      "doct": 4500,
      "##andon": 4501,
      "##odd": 4502,
      "##thur": 4503,
      "##ilu": 4504,
      "newt": 4505,
      "manip": 4506,
      "##208": 4507,
      "clip": 4508,
      "##165": 4509,
      "##166": 4510,
      "##168": 4511,
      "##167": 4512,
      "##160": 4513,
      "##161": 4514,
      "##169": 4515,
      "##162": 4516,
      "##163": 4517,
      "##105": 4518,
      "##106": 4519,
      "##108": 4520,
      "##107": 4521,
      "##109": 4522,
      "prosp": 4523,
      "##128": 4524,
      "##127": 4525,
      "##121": 4526,
      "##196": 4527,
      "##198": 4528,
      "##190": 4529,
      "##191": 4530,
      "##192": 4531,
      "##138": 4532,
      "##134": 4533,
      "##130": 4534,
      "##131": 4535,
      "##133": 4536,
      "box": 4537,
      "known": 4538,
      "##441": 4539,
      "##776": 4540,
      "##772": 4541,
      "##111": 4542,
      "##885": 4543,
      "##880": 4544,
      "##889": 4545,
      "##237": 4546,
      "##231": 4547,
      "##233": 4548,
      "##145": 4549,
      "##147": 4550,
      "##141": 4551,
      "##149": 4552,
      "##142": 4553,
      "##150": 4554,
      "##159": 4555,
      "##603": 4556,
      "##998": 4557,
      "##997": 4558,
      "##990": 4559,
      "##836": 4560,
      "##838": 4561,
      "##845": 4562,
      "##840": 4563,
      "##738": 4564,
      "##734": 4565,
      "##739": 4566,
      "##733": 4567,
      "##226": 4568,
      "##224": 4569,
      "##221": 4570,
      "##229": 4571,
      "##657": 4572,
      "##650": 4573,
      "##653": 4574,
      "rights": 4575,
      "##757": 4576,
      "##nyc": 4577,
      "##805": 4578,
      "##808": 4579,
      "##804": 4580,
      "##802": 4581,
      "##740": 4582,
      "##749": 4583,
      "##743": 4584,
      "##705": 4585,
      "##702": 4586,
      "##250": 4587,
      "##251": 4588,
      "##253": 4589,
      "##890": 4590,
      "##891": 4591,
      "##892": 4592,
      "##893": 4593,
      "##792": 4594,
      "##240": 4595,
      "##241": 4596,
      "##242": 4597,
      "blame": 4598,
      "##295": 4599,
      "firing": 4600,
      "##330": 4601,
      "##331": 4602,
      "##339": 4603,
      "##333": 4604,
      "monst": 4605,
      "##550": 4606,
      "##666": 4607,
      "##662": 4608,
      "expensive": 4609,
      "##505": 4610,
      "##509": 4611,
      "##ifer": 4612,
      "##171": 4613,
      "##828": 4614,
      "##308": 4615,
      "##304": 4616,
      "##303": 4617,
      "##878": 4618,
      "##408": 4619,
      "##404": 4620,
      "##596": 4621,
      "##590": 4622,
      "##593": 4623,
      "##397": 4624,
      "##390": 4625,
      "##498": 4626,
      "##491": 4627,
      "impact": 4628,
      "##626": 4629,
      "##628": 4630,
      "loss": 4631,
      "carl": 4632,
      "##721": 4633,
      "##686": 4634,
      "##681": 4635,
      "##542": 4636,
      "##907": 4637,
      "##909": 4638,
      "##902": 4639,
      "marklevin": 4640,
      "signed": 4641,
      "emm": 4642,
      "teamcavuto": 4643,
      "##941": 4644,
      "farm": 4645,
      "##528": 4646,
      "##527": 4647,
      "##521": 4648,
      "##nold": 4649,
      "borrow": 4650,
      "patient": 4651,
      "patrick": 4652,
      "happening": 4653,
      "classy": 4654,
      "crime": 4655,
      "historic": 4656,
      "##938": 4657,
      "##931": 4658,
      "##hold": 4659,
      "largest": 4660,
      "##456": 4661,
      "capt": 4662,
      "addition": 4663,
      "choose": 4664,
      "answers": 4665,
      "##anvp": 4666,
      "weakness": 4667,
      "deserve": 4668,
      "##axter": 4669,
      "walk": 4670,
      "honestly": 4671,
      "candidates": 4672,
      "guns": 4673,
      "study": 4674,
      "apologize": 4675,
      "foundation": 4676,
      "calif": 4677,
      "immigr": 4678,
      "drive": 4679,
      "driving": 4680,
      "human": 4681,
      "tigerwoods": 4682,
      "town": 4683,
      "ignor": 4684,
      "renovations": 4685,
      "recently": 4686,
      "liljon": 4687,
      "yrs": 4688,
      "##mbers": 4689,
      "olympic": 4690,
      "executive": 4691,
      "professional": 4692,
      "strategy": 4693,
      "##davis": 4694,
      "downtown": 4695,
      "ashley": 4696,
      "##family": 4697,
      "commission": 4698,
      "folks": 4699,
      "disgrace": 4700,
      "families": 4701,
      "instincts": 4702,
      "australia": 4703,
      "solyndra": 4704,
      "paulryanvp": 4705,
      "vattenfall": 4706,
      "marklevinshow": 4707,
      "aid": 4708,
      "access": 4709,
      "bon": 4710,
      "dar": 4711,
      "dip": 4712,
      "dave": 4713,
      "ew": 4714,
      "eag": 4715,
      "ft": 4716,
      "gam": 4717,
      "gut": 4718,
      "gab": 4719,
      "ive": 4720,
      "jord": 4721,
      "kar": 4722,
      "lay": 4723,
      "lack": 4724,
      "nh": 4725,
      "nik": 4726,
      "pays": 4727,
      "pull": 4728,
      "rank": 4729,
      "rap": 4730,
      "sn": 4731,
      "tit": 4732,
      "ww": 4733,
      "##lom": 4734,
      "##tr": 4735,
      "##times": 4736,
      "##mad": 4737,
      "##mey": 4738,
      "##oke": 4739,
      "##eed": 4740,
      "##yos": 4741,
      "##bon": 4742,
      "##bor": 4743,
      "##bru": 4744,
      "##bie": 4745,
      "##bro": 4746,
      "##bell": 4747,
      "##brown": 4748,
      "##cra": 4749,
      "reve": 4750,
      "##esa": 4751,
      "todd": 4752,
      "##arin": 4753,
      "##itable": 4754,
      "##isl": 4755,
      "##ayers": 4756,
      "forg": 4757,
      "trumppan": 4758,
      "##search": 4759,
      "##kelly": 4760,
      "dog": 4761,
      "area": 4762,
      "##oph": 4763,
      "##eele": 4764,
      "##agc": 4765,
      "##rose": 4766,
      "worried": 4767,
      "measure": 4768,
      "members": 4769,
      "##ia60": 4770,
      "##oked": 4771,
      "newsp": 4772,
      "timing": 4773,
      "plain": 4774,
      "wine": 4775,
      "##aren": 4776,
      "union": 4777,
      "nowhere": 4778,
      "##102": 4779,
      "##124": 4780,
      "##122": 4781,
      "##135": 4782,
      "##136": 4783,
      "##139": 4784,
      "##132": 4785,
      "mrs": 4786,
      "leading": 4787,
      "##006": 4788,
      "##445": 4789,
      "##446": 4790,
      "##448": 4791,
      "##447": 4792,
      "##440": 4793,
      "##449": 4794,
      "##443": 4795,
      "##775": 4796,
      "##778": 4797,
      "##774": 4798,
      "##770": 4799,
      "##771": 4800,
      "##779": 4801,
      "##773": 4802,
      "##115": 4803,
      "##agement": 4804,
      "##886": 4805,
      "##887": 4806,
      "##884": 4807,
      "##882": 4808,
      "##883": 4809,
      "##235": 4810,
      "##236": 4811,
      "##238": 4812,
      "##230": 4813,
      "##239": 4814,
      "##232": 4815,
      "##146": 4816,
      "##148": 4817,
      "##143": 4818,
      "##155": 4819,
      "##158": 4820,
      "##157": 4821,
      "##154": 4822,
      "##151": 4823,
      "##152": 4824,
      "##153": 4825,
      "##855": 4826,
      "##856": 4827,
      "##857": 4828,
      "##850": 4829,
      "##851": 4830,
      "##852": 4831,
      "##853": 4832,
      "##605": 4833,
      "##606": 4834,
      "##608": 4835,
      "##607": 4836,
      "##602": 4837,
      "##995": 4838,
      "##996": 4839,
      "##994": 4840,
      "##991": 4841,
      "##992": 4842,
      "##993": 4843,
      "##835": 4844,
      "##837": 4845,
      "##830": 4846,
      "##831": 4847,
      "##839": 4848,
      "##832": 4849,
      "##833": 4850,
      "##846": 4851,
      "##848": 4852,
      "##847": 4853,
      "##841": 4854,
      "##849": 4855,
      "##842": 4856,
      "##843": 4857,
      "smarter": 4858,
      "##735": 4859,
      "##736": 4860,
      "##737": 4861,
      "##730": 4862,
      "##731": 4863,
      "##732": 4864,
      "##225": 4865,
      "##228": 4866,
      "##655": 4867,
      "##656": 4868,
      "##658": 4869,
      "##651": 4870,
      "##659": 4871,
      "##652": 4872,
      "prem": 4873,
      "##755": 4874,
      "##758": 4875,
      "##754": 4876,
      "##750": 4877,
      "##751": 4878,
      "##759": 4879,
      "##635": 4880,
      "##636": 4881,
      "##638": 4882,
      "##637": 4883,
      "##634": 4884,
      "##630": 4885,
      "##631": 4886,
      "##639": 4887,
      "##632": 4888,
      "##633": 4889,
      "##806": 4890,
      "##801": 4891,
      "nypost": 4892,
      "##745": 4893,
      "##746": 4894,
      "##741": 4895,
      "##742": 4896,
      "##706": 4897,
      "##704": 4898,
      "##709": 4899,
      "##703": 4900,
      "##695": 4901,
      "##696": 4902,
      "##698": 4903,
      "##697": 4904,
      "##694": 4905,
      "##690": 4906,
      "##691": 4907,
      "##692": 4908,
      "##693": 4909,
      "##645": 4910,
      "##646": 4911,
      "##648": 4912,
      "##647": 4913,
      "##640": 4914,
      "##649": 4915,
      "##642": 4916,
      "##643": 4917,
      "##255": 4918,
      "##256": 4919,
      "##258": 4920,
      "##257": 4921,
      "##254": 4922,
      "##259": 4923,
      "##252": 4924,
      "##895": 4925,
      "##896": 4926,
      "##898": 4927,
      "##894": 4928,
      "##795": 4929,
      "##796": 4930,
      "##798": 4931,
      "##797": 4932,
      "##794": 4933,
      "##790": 4934,
      "##791": 4935,
      "##793": 4936,
      "##245": 4937,
      "##246": 4938,
      "##248": 4939,
      "##243": 4940,
      "##296": 4941,
      "##298": 4942,
      "##297": 4943,
      "##294": 4944,
      "##290": 4945,
      "##291": 4946,
      "##292": 4947,
      "##293": 4948,
      "oprah": 4949,
      "##335": 4950,
      "##336": 4951,
      "##338": 4952,
      "##334": 4953,
      "##332": 4954,
      "##quis": 4955,
      "##556": 4956,
      "##558": 4957,
      "##557": 4958,
      "##554": 4959,
      "##551": 4960,
      "##559": 4961,
      "##552": 4962,
      "##553": 4963,
      "##668": 4964,
      "##667": 4965,
      "##661": 4966,
      "##507": 4967,
      "##501": 4968,
      "points": 4969,
      "##176": 4970,
      "##178": 4971,
      "##172": 4972,
      "##826": 4973,
      "##827": 4974,
      "##306": 4975,
      "##307": 4976,
      "##301": 4977,
      "##309": 4978,
      "##302": 4979,
      "##876": 4980,
      "##871": 4981,
      "##872": 4982,
      "##405": 4983,
      "##406": 4984,
      "##407": 4985,
      "##409": 4986,
      "##402": 4987,
      "##403": 4988,
      "##595": 4989,
      "##598": 4990,
      "##597": 4991,
      "##594": 4992,
      "##591": 4993,
      "##592": 4994,
      "##396": 4995,
      "##398": 4996,
      "##394": 4997,
      "##391": 4998,
      "##392": 4999,
      "##393": 5000,
      "##495": 5001,
      "##496": 5002,
      "##497": 5003,
      "##494": 5004,
      "##490": 5005,
      "##492": 5006,
      "##493": 5007,
      "##676": 5008,
      "##678": 5009,
      "##671": 5010,
      "belie": 5011,
      "imposs": 5012,
      "##627": 5013,
      "##621": 5014,
      "charac": 5015,
      "result": 5016,
      "respond": 5017,
      "smartest": 5018,
      "##356": 5019,
      "##358": 5020,
      "##357": 5021,
      "##354": 5022,
      "##351": 5023,
      "##352": 5024,
      "##353": 5025,
      "##186": 5026,
      "##181": 5027,
      "##346": 5028,
      "##348": 5029,
      "##347": 5030,
      "##341": 5031,
      "##342": 5032,
      "##343": 5033,
      "serv": 5034,
      "##726": 5035,
      "##728": 5036,
      "##727": 5037,
      "##545": 5038,
      "##546": 5039,
      "##548": 5040,
      "##547": 5041,
      "##541": 5042,
      "##543": 5043,
      "annual": 5044,
      "##becca": 5045,
      "##905": 5046,
      "##906": 5047,
      "##908": 5048,
      "##904": 5049,
      "##903": 5050,
      "##326": 5051,
      "##328": 5052,
      "##327": 5053,
      "##786": 5054,
      "##781": 5055,
      "##ier123": 5056,
      "##945": 5057,
      "##946": 5058,
      "##948": 5059,
      "##947": 5060,
      "##942": 5061,
      "##943": 5062,
      "farms": 5063,
      "##526": 5064,
      "##536": 5065,
      "##538": 5066,
      "##537": 5067,
      "##531": 5068,
      "plane": 5069,
      "acres": 5070,
      "##ucker": 5071,
      "majority": 5072,
      "induct": 5073,
      "##ooo": 5074,
      "victims": 5075,
      "solid": 5076,
      "##936": 5077,
      "inspirational": 5078,
      "##958": 5079,
      "##957": 5080,
      "##458": 5081,
      "##457": 5082,
      "##451": 5083,
      "##436": 5084,
      "##438": 5085,
      "##437": 5086,
      "##431": 5087,
      "geor": 5088,
      "reports": 5089,
      "##meier123": 5090,
      "##plus": 5091,
      "unemployed": 5092,
      "promised": 5093,
      "filed": 5094,
      "launch": 5095,
      "considered": 5096,
      "angry": 5097,
      "##ornia": 5098,
      "incompetence": 5099,
      "illegals": 5100,
      "exceptional": 5101,
      "tyler": 5102,
      "ronmeier123": 5103,
      "impressive": 5104,
      "achievement": 5105,
      "clearly": 5106,
      "##nesday": 5107,
      "subsid": 5108,
      "scandal": 5109,
      "taxpayers": 5110,
      "industry": 5111,
      "baseball": 5112,
      "pacific": 5113,
      "##ievable": 5114,
      "manufacturing": 5115,
      "bahia60": 5116,
      "committee": 5117,
      "theviewtv": 5118,
      "hawaii": 5119,
      "involved": 5120,
      "gdp": 5121,
      "##inellagc": 5122,
      "mattginellagc": 5123,
      "##yosaki": 5124,
      "bahia6085": 5125,
      "bit": 5126,
      "blew": 5127,
      "cy": 5128,
      "civ": 5129,
      "cahl": 5130,
      "dom": 5131,
      "dig": 5132,
      "dir": 5133,
      "ess": 5134,
      "hbo": 5135,
      "hund": 5136,
      "jason": 5137,
      "kather": 5138,
      "lake": 5139,
      "pur": 5140,
      "patt": 5141,
      "sand": 5142,
      "tank": 5143,
      "wgc": 5144,
      "##rstor": 5145,
      "##ih": 5146,
      "##iest": 5147,
      "##men": 5148,
      "##mus": 5149,
      "##ox": 5150,
      "##ober": 5151,
      "##va": 5152,
      "##hh": 5153,
      "##ex": 5154,
      "##baxter": 5155,
      "##jb": 5156,
      "##dig": 5157,
      "##week": 5158,
      "##ona": 5159,
      "##inson": 5160,
      "##ano": 5161,
      "##atives": 5162,
      "##ences": 5163,
      "##ita": 5164,
      "##state": 5165,
      "isnt": 5166,
      "##oting": 5167,
      "##ament": 5168,
      "trump4": 5169,
      "##adel": 5170,
      "##urning": 5171,
      "##very": 5172,
      "itself": 5173,
      "##uth": 5174,
      "neil": 5175,
      "greater": 5176,
      "greatness": 5177,
      "shape": 5178,
      "##imin": 5179,
      "chair": 5180,
      "williams": 5181,
      "##anda": 5182,
      "dep": 5183,
      "##elrod": 5184,
      "##endo": 5185,
      "leverage": 5186,
      "exist": 5187,
      "manager": 5188,
      "unlike": 5189,
      "##erick": 5190,
      "outr": 5191,
      "##ubb": 5192,
      "dishon": 5193,
      "worked": 5194,
      "screw": 5195,
      "boyc": 5196,
      "temp": 5197,
      "votes": 5198,
      "voters": 5199,
      "celebrities": 5200,
      "##005": 5201,
      "intl": 5202,
      "##118": 5203,
      "##114": 5204,
      "##pton": 5205,
      "trag": 5206,
      "##506": 5207,
      "##508": 5208,
      "##504": 5209,
      "##502": 5210,
      "##503": 5211,
      "##rance": 5212,
      "hardball": 5213,
      "resident": 5214,
      "comeback": 5215,
      "statements": 5216,
      "##erties": 5217,
      "jean": 5218,
      "##098": 5219,
      "supports": 5220,
      "tried": 5221,
      "written": 5222,
      "cutting": 5223,
      "awarded": 5224,
      "##leracc": 5225,
      "skills": 5226,
      "##056": 5227,
      "reasons": 5228,
      "modern": 5229,
      "square": 5230,
      "richard": 5231,
      "shirt": 5232,
      "damac": 5233,
      "craig": 5234,
      "falling": 5235,
      "regard": 5236,
      "##illiams": 5237,
      "franklin": 5238,
      "expected": 5239,
      "holidays": 5240,
      "storm": 5241,
      "pushing": 5242,
      "tenacious": 5243,
      "##channel": 5244,
      "stephenbaldwin": 5245,
      "wednesday": 5246,
      "ticket": 5247,
      "replace": 5248,
      "victorious": 5249,
      "investigation": 5250,
      "husband": 5251,
      "nasty": 5252,
      "applications": 5253,
      "dmreg": 5254,
      "compliment": 5255,
      "veterans": 5256,
      "insurance": 5257,
      "october": 5258,
      "kyleracc": 5259,
      "pianobecca": 5260,
      "irrele": 5261,
      "virginia": 5262,
      "false": 5263,
      "hampshire": 5264,
      "flashback": 5265,
      "##politics": 5266,
      "doctors": 5267,
      "emmys": 5268,
      "california": 5269,
      "diplom": 5270,
      "cahlrstor": 5271,
      "boycott": 5272,
      "dmregister": 5273,
      "kyleraccio": 5274,
      "cahlrstorrie": 5275,
      "bs": 5276,
      "ban": 5277,
      "biden": 5278,
      "cc": 5279,
      "cuff": 5280,
      "dre": 5281,
      "dat": 5282,
      "drew": 5283,
      "eth": 5284,
      "flo": 5285,
      "gir": 5286,
      "iam": 5287,
      "iph": 5288,
      "jess": 5289,
      "jul": 5290,
      "jump": 5291,
      "kath": 5292,
      "kenn": 5293,
      "pas": 5294,
      "pack": 5295,
      "pain": 5296,
      "rh": 5297,
      "ric": 5298,
      "rust": 5299,
      "river": 5300,
      "sle": 5301,
      "site": 5302,
      "tall": 5303,
      "tourn": 5304,
      "vets": 5305,
      "##aeda": 5306,
      "##sk": 5307,
      "##rt": 5308,
      "##iod": 5309,
      "##iots": 5310,
      "##ients": 5311,
      "##mz": 5312,
      "##mur": 5313,
      "##hor": 5314,
      "##has": 5315,
      "##een": 5316,
      "##gen": 5317,
      "##uan": 5318,
      "##upp": 5319,
      "##you": 5320,
      "##biden": 5321,
      "##jamin": 5322,
      "##col": 5323,
      "##dad": 5324,
      "##kid": 5325,
      "##31": 5326,
      "##por": 5327,
      "##west": 5328,
      "##wise": 5329,
      "##aldo": 5330,
      "##inger": 5331,
      "reilly": 5332,
      "##aring": 5333,
      "inth": 5334,
      "##asion": 5335,
      "##asota": 5336,
      "##ows": 5337,
      "trumpn": 5338,
      "trump16": 5339,
      "stimul": 5340,
      "##cho": 5341,
      "haven": 5342,
      "##unn": 5343,
      "##rian": 5344,
      "##rivers": 5345,
      "dev": 5346,
      "likes": 5347,
      "##ula": 5348,
      "##rog": 5349,
      "spy": 5350,
      "spir": 5351,
      "alive": 5352,
      "usual": 5353,
      "plenty": 5354,
      "uns": 5355,
      "##osing": 5356,
      "peace": 5357,
      "whose": 5358,
      "##istent": 5359,
      "##2014": 5360,
      "##sports": 5361,
      "pract": 5362,
      "clue": 5363,
      "showed": 5364,
      "disco": 5365,
      "workers": 5366,
      "##weiner": 5367,
      "brady": 5368,
      "overse": 5369,
      "boe": 5370,
      "knowing": 5371,
      "golfdig": 5372,
      "golfchannel": 5373,
      "##009": 5374,
      "aware": 5375,
      "complain": 5376,
      "##ahu": 5377,
      "period": 5378,
      "belong": 5379,
      "##mony": 5380,
      "underest": 5381,
      "excite": 5382,
      "##augh": 5383,
      "eliot": 5384,
      "johnson": 5385,
      "destination": 5386,
      "benjamin": 5387,
      "##095": 5388,
      "##096": 5389,
      "##097": 5390,
      "##091": 5391,
      "##092": 5392,
      "##093": 5393,
      "##045": 5394,
      "##046": 5395,
      "##048": 5396,
      "##047": 5397,
      "##041": 5398,
      "##042": 5399,
      "##043": 5400,
      "washingtonpost": 5401,
      "traitor": 5402,
      "##ashion": 5403,
      "negotiating": 5404,
      "classic": 5405,
      "confident": 5406,
      "supporting": 5407,
      "india": 5408,
      "rush": 5409,
      "writing": 5410,
      "publicity": 5411,
      "banks": 5412,
      "jonhunt": 5413,
      "properties": 5414,
      "added": 5415,
      "palos": 5416,
      "potential": 5417,
      "##058": 5418,
      "##057": 5419,
      "##051": 5420,
      "##036": 5421,
      "##038": 5422,
      "##037": 5423,
      "##031": 5424,
      "##standing": 5425,
      "ident": 5426,
      "norman": 5427,
      "heading": 5428,
      "##hamed": 5429,
      "refused": 5430,
      "talented": 5431,
      "oscar": 5432,
      "antbaxter": 5433,
      "excellence": 5434,
      "landmark": 5435,
      "apology": 5436,
      "music": 5437,
      "stopping": 5438,
      "hurt": 5439,
      "secretary": 5440,
      "foolish": 5441,
      "sarasota": 5442,
      "tourism": 5443,
      "bretmichael": 5444,
      "arsenioofficial": 5445,
      "employees": 5446,
      "supporters": 5447,
      "ignore": 5448,
      "obvious": 5449,
      "pete": 5450,
      "##change": 5451,
      "ariannah": 5452,
      "djt": 5453,
      "balanc": 5454,
      "ryan": 5455,
      "closing": 5456,
      "brut": 5457,
      "sexual": 5458,
      "hollywood": 5459,
      "bryant": 5460,
      "editorial": 5461,
      "continued": 5462,
      "##cript": 5463,
      "yeah": 5464,
      "##icagos": 5465,
      "necessary": 5466,
      "voice": 5467,
      "keynote": 5468,
      "martin": 5469,
      "officially": 5470,
      "august": 5471,
      "susteren": 5472,
      "monstros": 5473,
      "services": 5474,
      "civil": 5475,
      "hundred": 5476,
      "katherine": 5477,
      "dishonest": 5478,
      "irrelevant": 5479,
      "golfdigest": 5480,
      "jonhuntsman": 5481,
      "bretmichaels": 5482,
      "ariannahuff": 5483,
      "ave": 5484,
      "average": 5485,
      "burn": 5486,
      "cu": 5487,
      "cow": 5488,
      "cry": 5489,
      "cards": 5490,
      "div": 5491,
      "dark": 5492,
      "fre": 5493,
      "fur": 5494,
      "fif": 5495,
      "fashion": 5496,
      "gru": 5497,
      "ic": 5498,
      "icy": 5499,
      "jc": 5500,
      "jur": 5501,
      "navy": 5502,
      "ol": 5503,
      "paper": 5504,
      "sweet": 5505,
      "vill": 5506,
      "wanna": 5507,
      "##sn": 5508,
      "##ij": 5509,
      "##i19": 5510,
      "##ob": 5511,
      "##hab": 5512,
      "##ev": 5513,
      "##nor": 5514,
      "##gment": 5515,
      "##gates": 5516,
      "##ule": 5517,
      "##ynn": 5518,
      "##ben": 5519,
      "##bag": 5520,
      "##jj": 5521,
      "##ca": 5522,
      "##cru": 5523,
      "##dam": 5524,
      "##ket": 5525,
      "##kio": 5526,
      "##pd": 5527,
      "##ws": 5528,
      "##wing": 5529,
      "##anthony": 5530,
      "##aton": 5531,
      "##orney": 5532,
      "##ruct": 5533,
      "##ically": 5534,
      "##leod": 5535,
      "forced": 5536,
      "##omen": 5537,
      "##etch": 5538,
      "trumpwin": 5539,
      "stone": 5540,
      "nelson": 5541,
      "##chester": 5542,
      "shots": 5543,
      "##imon": 5544,
      "##resp": 5545,
      "doctor": 5546,
      "##ode": 5547,
      "dems": 5548,
      "liked": 5549,
      "suit": 5550,
      "suits": 5551,
      "soft": 5552,
      "##elt": 5553,
      "ashamed": 5554,
      "allen": 5555,
      "##raph": 5556,
      "above": 5557,
      "abandon": 5558,
      "spin": 5559,
      "als": 5560,
      "celebrat": 5561,
      "usmc": 5562,
      "barrel": 5563,
      "agenda": 5564,
      "plays": 5565,
      "contrib": 5566,
      "donate": 5567,
      "unbel": 5568,
      "unique": 5569,
      "##2012": 5570,
      "outstanding": 5571,
      "buzz": 5572,
      "##ume": 5573,
      "clown": 5574,
      "##weather": 5575,
      "bridge": 5576,
      "everyday": 5577,
      "ads": 5578,
      "reporters": 5579,
      "##008": 5580,
      "##004": 5581,
      "##001": 5582,
      "##002": 5583,
      "##003": 5584,
      "interviews": 5585,
      "missing": 5586,
      "recog": 5587,
      "##ourmar": 5588,
      "##ailed": 5589,
      "guarant": 5590,
      "opens": 5591,
      "twice": 5592,
      "wayne": 5593,
      "quarter": 5594,
      "attorney": 5595,
      "##rett": 5596,
      "changing": 5597,
      "wake": 5598,
      "nbcnews": 5599,
      "charities": 5600,
      "##athew": 5601,
      "##iley": 5602,
      "carry": 5603,
      "flight": 5604,
      "politically": 5605,
      "##beat": 5606,
      "phone": 5607,
      "phony": 5608,
      "senior": 5609,
      "michigan": 5610,
      "commander": 5611,
      "collect": 5612,
      "epic": 5613,
      "setback": 5614,
      "##ground": 5615,
      "inspired": 5616,
      "endors": 5617,
      "academ": 5618,
      "lawyer": 5619,
      "davidax": 5620,
      "trib": 5621,
      "wright": 5622,
      "turbine": 5623,
      "throughout": 5624,
      "jonathan": 5625,
      "larger": 5626,
      "feeling": 5627,
      "lessons": 5628,
      "idiots": 5629,
      "dumbest": 5630,
      "promise": 5631,
      "##cali": 5632,
      "passionate": 5633,
      "deserved": 5634,
      "steveking": 5635,
      "projects": 5636,
      "saving": 5637,
      "bobby": 5638,
      "critical": 5639,
      "netany": 5640,
      "crude": 5641,
      "latoy": 5642,
      "spends": 5643,
      "breaking": 5644,
      "wearing": 5645,
      "fundraising": 5646,
      "rolling": 5647,
      "verdes": 5648,
      "certainly": 5649,
      "directly": 5650,
      "baby": 5651,
      "environmental": 5652,
      "copies": 5653,
      "benefit": 5654,
      "ultimate": 5655,
      "jewel": 5656,
      "stamps": 5657,
      "fellow": 5658,
      "##radio": 5659,
      "july": 5660,
      "saudi": 5661,
      "wsj": 5662,
      "endorsement": 5663,
      "determin": 5664,
      "taste": 5665,
      "september": 5666,
      "hospital": 5667,
      "nikkio": 5668,
      "trumppanama": 5669,
      "##eelections": 5670,
      "premier": 5671,
      "outrage": 5672,
      "stephenbaldwin7": 5673,
      "intheelections": 5674,
      "excitement": 5675,
      "recogn": 5676,
      "##ourmarine": 5677,
      "davidaxelrod": 5678,
      "breat": 5679,
      "bern": 5680,
      "cro": 5681,
      "cere": 5682,
      "fack": 5683,
      "flex": 5684,
      "fuck": 5685,
      "jake": 5686,
      "lind": 5687,
      "mult": 5688,
      "pun": 5689,
      "qaeda": 5690,
      "tired": 5691,
      "vic": 5692,
      "wolf": 5693,
      "##light": 5694,
      "##side": 5695,
      "##time": 5696,
      "##rs": 5697,
      "##rack": 5698,
      "##rink": 5699,
      "##mt": 5700,
      "##hol": 5701,
      "##eer": 5702,
      "##gop": 5703,
      "##gilbert": 5704,
      "##uol": 5705,
      "##buck": 5706,
      "##jets": 5707,
      "##cour": 5708,
      "##pga": 5709,
      "##war": 5710,
      "##will": 5711,
      "##wide": 5712,
      "##q2": 5713,
      "##inusa": 5714,
      "thefamily": 5715,
      "reele": 5716,
      "research": 5717,
      "##aries": 5718,
      "##arning": 5719,
      "##itution": 5720,
      "info": 5721,
      "##owell": 5722,
      "##acher": 5723,
      "forces": 5724,
      "forq2": 5725,
      "##omo": 5726,
      "whit": 5727,
      "stu": 5728,
      "stat": 5729,
      "sha": 5730,
      "habit": 5731,
      "conne": 5732,
      "##ulate": 5733,
      "##ulated": 5734,
      "##aged": 5735,
      "##ila": 5736,
      "soho": 5737,
      "##ryan": 5738,
      "##eless": 5739,
      "learning": 5740,
      "whats": 5741,
      "maher": 5742,
      "plus": 5743,
      "##ube": 5744,
      "##aza": 5745,
      "army": 5746,
      "##love": 5747,
      "##lock": 5748,
      "bron": 5749,
      "rooting": 5750,
      "jobless": 5751,
      "score": 5752,
      "##dev": 5753,
      "##shall": 5754,
      "finish": 5755,
      "##ources": 5756,
      "enthus": 5757,
      "smith": 5758,
      "nydaily": 5759,
      "blind": 5760,
      "herald": 5761,
      "##ogan": 5762,
      "twist": 5763,
      "quite": 5764,
      "weekly": 5765,
      "##prez": 5766,
      "gotta": 5767,
      "income": 5768,
      "implement": 5769,
      "failures": 5770,
      "fron": 5771,
      "puts": 5772,
      "excuse": 5773,
      "helped": 5774,
      "surv": 5775,
      "cheap": 5776,
      "teams": 5777,
      "focusing": 5778,
      "jeb": 5779,
      "passing": 5780,
      "stupidity": 5781,
      "inspire": 5782,
      "secure": 5783,
      "confir": 5784,
      "##marilu": 5785,
      "whitehouse": 5786,
      "edward": 5787,
      "pressjournal": 5788,
      "writer": 5789,
      "factor": 5790,
      "corpor": 5791,
      "solutions": 5792,
      "reporting": 5793,
      "growing": 5794,
      "completed": 5795,
      "releasing": 5796,
      "paula": 5797,
      "electric": 5798,
      "damage": 5799,
      "caused": 5800,
      "##ciuol": 5801,
      "promises": 5802,
      "allowing": 5803,
      "increases": 5804,
      "filming": 5805,
      "answered": 5806,
      "color": 5807,
      "frankcali": 5808,
      "imagination": 5809,
      "##works": 5810,
      "extre": 5811,
      "##point": 5812,
      "value": 5813,
      "challenges": 5814,
      "okay": 5815,
      "constantly": 5816,
      "defeated": 5817,
      "holding": 5818,
      "protecting": 5819,
      "drug": 5820,
      "ruling": 5821,
      "responsibility": 5822,
      "repealed": 5823,
      "therealmarilu": 5824,
      "citizen": 5825,
      "##walker": 5826,
      "murder": 5827,
      "libertyu": 5828,
      "cancell": 5829,
      "wedding": 5830,
      "strike": 5831,
      "opposite": 5832,
      "##fortun": 5833,
      "bowl": 5834,
      "##business": 5835,
      "gallon": 5836,
      "hoping": 5837,
      "innovation": 5838,
      "##palinusa": 5839,
      "broadcast": 5840,
      "jamie": 5841,
      "sarahpalinusa": 5842,
      "##angelo": 5843,
      "techn": 5844,
      "featured": 5845,
      "schedule": 5846,
      "##ointed": 5847,
      "##inpeter": 5848,
      "fatal": 5849,
      "individual": 5850,
      "documentary": 5851,
      "gala": 5852,
      "labor": 5853,
      "prosper": 5854,
      "immigrants": 5855,
      "vattenfallgroup": 5856,
      "impossible": 5857,
      "character": 5858,
      "dreams": 5859,
      "iphone": 5860,
      "fifth": 5861,
      "jurciuol": 5862,
      "trumpwinery": 5863,
      "netanyahu": 5864,
      "fackinpeter": 5865,
      "thefamilyleader": 5866,
      "nydailynews": 5867,
      "frankcaliendo": 5868,
      "jurciuoli19": 5869,
      "bc": 5870,
      "bes": 5871,
      "bur": 5872,
      "bord": 5873,
      "biz": 5874,
      "dal": 5875,
      "earn": 5876,
      "fig": 5877,
      "fres": 5878,
      "git": 5879,
      "hou": 5880,
      "hiding": 5881,
      "jd": 5882,
      "jod": 5883,
      "jere": 5884,
      "lunch": 5885,
      "mbo": 5886,
      "oval": 5887,
      "si": 5888,
      "sot": 5889,
      "sass": 5890,
      "tas": 5891,
      "tiff": 5892,
      "vine": 5893,
      "##58": 5894,
      "##lu": 5895,
      "##leno": 5896,
      "##mk": 5897,
      "##hen": 5898,
      "##hatt": 5899,
      "##big": 5900,
      "##bby": 5901,
      "##jude": 5902,
      "##cle": 5903,
      "##cot": 5904,
      "##ders": 5905,
      "##pet": 5906,
      "##aled": 5907,
      "##insp": 5908,
      "##atoday": 5909,
      "tool": 5910,
      "##aro": 5911,
      "##arily": 5912,
      "##lling": 5913,
      "##eday": 5914,
      "##lemon": 5915,
      "bea": 5916,
      "beating": 5917,
      "##ador": 5918,
      "stage": 5919,
      "hel": 5920,
      "heat": 5921,
      "shit": 5922,
      "share": 5923,
      "##htimes": 5924,
      "dece": 5925,
      "depend": 5926,
      "##ulian": 5927,
      "##ilty": 5928,
      "sued": 5929,
      "joel": 5930,
      "joey": 5931,
      "##raham": 5932,
      "abraham": 5933,
      "max": 5934,
      "mail": 5935,
      "alert": 5936,
      "usc": 5937,
      "usopen": 5938,
      "usatoday": 5939,
      "winter": 5940,
      "unfortun": 5941,
      "##ainable": 5942,
      "americas": 5943,
      "##2013": 5944,
      "##span": 5945,
      "##sport": 5946,
      "##akers": 5947,
      "buck": 5948,
      "enroll": 5949,
      "##ubio": 5950,
      "##azy": 5951,
      "armed": 5952,
      "arnold": 5953,
      "disag": 5954,
      "brad": 5955,
      "overrated": 5956,
      "scared": 5957,
      "##icks": 5958,
      "inte": 5959,
      "##deb": 5960,
      "##shit": 5961,
      "todays": 5962,
      "interviewed": 5963,
      "##apers": 5964,
      "##lict": 5965,
      "prest": 5966,
      "guilty": 5967,
      "nytimes": 5968,
      "##ograph": 5969,
      "firm": 5970,
      "debut": 5971,
      "debates": 5972,
      "##achamp": 5973,
      "expl": 5974,
      "gotten": 5975,
      "macar": 5976,
      "##iana": 5977,
      "improve": 5978,
      "steven": 5979,
      "downgr": 5980,
      "serve": 5981,
      "serta": 5982,
      "politician": 5983,
      "##beck": 5984,
      "johnrich": 5985,
      "brandi": 5986,
      "attacked": 5987,
      "turns": 5988,
      "stronger": 5989,
      "creative": 5990,
      "returning": 5991,
      "trav": 5992,
      "conflict": 5993,
      "educ": 5994,
      "edison": 5995,
      "russell": 5996,
      "wrote": 5997,
      "assa": 5998,
      "delus": 5999,
      "##ondon": 6000,
      "investor": 6001,
      "investments": 6002,
      "letters": 6003,
      "kept": 6004,
      "jacknick": 6005,
      "michaels": 6006,
      "brav": 6007,
      "##yle1": 6008,
      "russian": 6009,
      "giulian": 6010,
      "position": 6011,
      "fireworks": 6012,
      "competitor": 6013,
      "african": 6014,
      "effect": 6015,
      "irish": 6016,
      "ruined": 6017,
      "film": 6018,
      "greg": 6019,
      "##allenge": 6020,
      "govt": 6021,
      "jayleno": 6022,
      "judd": 6023,
      "treatment": 6024,
      "deficits": 6025,
      "development": 6026,
      "values": 6027,
      "prepare": 6028,
      "ballot": 6029,
      "##bowl": 6030,
      "issues": 6031,
      "details": 6032,
      "sleepy": 6033,
      "##ajackson": 6034,
      "ineff": 6035,
      "optim": 6036,
      "options": 6037,
      "combination": 6038,
      "mandela": 6039,
      "settle": 6040,
      "jennifer": 6041,
      "limit": 6042,
      "ralphreed": 6043,
      "##secut": 6044,
      "difficulties": 6045,
      "fragrance": 6046,
      "embassy": 6047,
      "fortune": 6048,
      "louis": 6049,
      "arrived": 6050,
      "trumpgolfdc": 6051,
      "eagles": 6052,
      "gabri": 6053,
      "newspaper": 6054,
      "inducted": 6055,
      "stimulus": 6056,
      "overseas": 6057,
      "hundreds": 6058,
      "oliv": 6059,
      "##cruz": 6060,
      "celebrating": 6061,
      "unbelievable": 6062,
      "stevekingia": 6063,
      "latoyajackson": 6064,
      "ceremony": 6065,
      "mboyle1": 6066,
      "tiffany": 6067,
      "jacknicklaus": 6068,
      "6t": 6069,
      "ah": 6070,
      "ay": 6071,
      "aj": 6072,
      "aol": 6073,
      "bi": 6074,
      "bun": 6075,
      "core": 6076,
      "cia": 6077,
      "cbo": 6078,
      "cspan": 6079,
      "fias": 6080,
      "fasc": 6081,
      "iq": 6082,
      "jt": 6083,
      "lang": 6084,
      "mub": 6085,
      "mach": 6086,
      "masters": 6087,
      "pure": 6088,
      "pier": 6089,
      "ring": 6090,
      "ross": 6091,
      "ski": 6092,
      "tx": 6093,
      "till": 6094,
      "tee": 6095,
      "wil": 6096,
      "zim": 6097,
      "##lad": 6098,
      "##lished": 6099,
      "##48": 6100,
      "##08": 6101,
      "##tt": 6102,
      "##rig": 6103,
      "##mat": 6104,
      "##met": 6105,
      "##mel": 6106,
      "##oll": 6107,
      "##hal": 6108,
      "##hill": 6109,
      "##gun": 6110,
      "##gate": 6111,
      "##gov": 6112,
      "##uing": 6113,
      "##burn": 6114,
      "##cott": 6115,
      "##fired": 6116,
      "##fdn": 6117,
      "##zer": 6118,
      "throw": 6119,
      "##er3": 6120,
      "##erver": 6121,
      "##inations": 6122,
      "##report": 6123,
      "##anell": 6124,
      "##ouch": 6125,
      "thedaily": 6126,
      "##run": 6127,
      "##esp": 6128,
      "##icient": 6129,
      "youll": 6130,
      "youth": 6131,
      "ingraham": 6132,
      "##isers": 6133,
      "##isman": 6134,
      "island": 6135,
      "##aylor": 6136,
      "##omon": 6137,
      "##omac": 6138,
      "##ently": 6139,
      "stru": 6140,
      "stjude": 6141,
      "##sever": 6142,
      "##sequ": 6143,
      "sher": 6144,
      "shes": 6145,
      "##they": 6146,
      "amy": 6147,
      "amand": 6148,
      "ambass": 6149,
      "##olen": 6150,
      "##ustainable": 6151,
      "##ession": 6152,
      "##agh": 6153,
      "##asts": 6154,
      "sug": 6155,
      "counc": 6156,
      "washtimes": 6157,
      "##arden": 6158,
      "##iable": 6159,
      "hasn": 6160,
      "coinc": 6161,
      "maathew": 6162,
      "realgilbert": 6163,
      "separ": 6164,
      "segment": 6165,
      "pls": 6166,
      "nov": 6167,
      "donnell": 6168,
      "counts": 6169,
      "princ": 6170,
      "##umont": 6171,
      "##itty": 6172,
      "scient": 6173,
      "##ipm": 6174,
      "golfmagazine": 6175,
      "##ichol": 6176,
      "repe": 6177,
      "awful": 6178,
      "dealm": 6179,
      "##abr": 6180,
      "##feed": 6181,
      "prec": 6182,
      "guard": 6183,
      "nyjets": 6184,
      "blake": 6185,
      "##joe": 6186,
      "pool": 6187,
      "apply": 6188,
      "approve": 6189,
      "macleod": 6190,
      "morons": 6191,
      "owes": 6192,
      "resources": 6193,
      "losses": 6194,
      "carson": 6195,
      "decide": 6196,
      "household": 6197,
      "interested": 6198,
      "##loyd": 6199,
      "##perry": 6200,
      "patton": 6201,
      "consum": 6202,
      "lawyers": 6203,
      "trail": 6204,
      "turning": 6205,
      "stands": 6206,
      "##ucky": 6207,
      "##angle": 6208,
      "##merman": 6209,
      "##kiyosaki": 6210,
      "checks": 6211,
      "publicly": 6212,
      "solve": 6213,
      "drill": 6214,
      "statesman": 6215,
      "mcmahon": 6216,
      "begins": 6217,
      "begging": 6218,
      "legisl": 6219,
      "reported": 6220,
      "israelipm": 6221,
      "fixed": 6222,
      "idiot": 6223,
      "heads": 6224,
      "brain": 6225,
      "bravo": 6226,
      "generals": 6227,
      "joebiden": 6228,
      "mediaite": 6229,
      "promote": 6230,
      "##zzzz": 6231,
      "##jones": 6232,
      "govchrist": 6233,
      "advis": 6234,
      "produc": 6235,
      "considering": 6236,
      "extra": 6237,
      "sharpton": 6238,
      "fools": 6239,
      "qualified": 6240,
      "sanctions": 6241,
      "revolution": 6242,
      "receiving": 6243,
      "##iii": 6244,
      "panama": 6245,
      "located": 6246,
      "subst": 6247,
      "prayers": 6248,
      "fundraiser": 6249,
      "legendary": 6250,
      "erin": 6251,
      "euro": 6252,
      "therealkiyosaki": 6253,
      "lisal": 6254,
      "block": 6255,
      "inept": 6256,
      "bombed": 6257,
      "girls": 6258,
      "shutdown": 6259,
      "angeles": 6260,
      "empire": 6261,
      "mccain": 6262,
      "##burg": 6263,
      "inflation": 6264,
      "bullshit": 6265,
      "provide": 6266,
      "british": 6267,
      "circulation": 6268,
      "##world": 6269,
      "disappointed": 6270,
      "cameron": 6271,
      "deep": 6272,
      "housing": 6273,
      "commissioner": 6274,
      "jordan": 6275,
      "rapid": 6276,
      "purp": 6277,
      "packed": 6278,
      "rusty": 6279,
      "unsustainable": 6280,
      "underestimate": 6281,
      "golfdigestmag": 6282,
      "further": 6283,
      "icymi": 6284,
      "##etchallenge": 6285,
      "abandoned": 6286,
      "endorsed": 6287,
      "##bucketchallenge": 6288,
      "connect": 6289,
      "corporate": 6290,
      "extreme": 6291,
      "cancelled": 6292,
      "fresh": 6293,
      "gitmo": 6294,
      "sotu": 6295,
      "sassy": 6296,
      "##hattan": 6297,
      "beaumont": 6298,
      "december": 6299,
      "disagree": 6300,
      "integr": 6301,
      "macarthur": 6302,
      "ingrahamangle": 6303,
      "ambassador": 6304,
      "council": 6305,
      "coincidence": 6306,
      "maathewdavis": 6307,
      "govchristie": 6308,
      "beaumontanthony": 6309,
      "ba": 6310,
      "berg": 6311,
      "ct": 6312,
      "cm": 6313,
      "cas": 6314,
      "cust": 6315,
      "du": 6316,
      "ded": 6317,
      "diet": 6318,
      "es": 6319,
      "easter": 6320,
      "fris": 6321,
      "gate": 6322,
      "hil": 6323,
      "hide": 6324,
      "hiring": 6325,
      "jp": 6326,
      "jup": 6327,
      "jury": 6328,
      "kay": 6329,
      "kiss": 6330,
      "led": 6331,
      "london": 6332,
      "mt": 6333,
      "mir": 6334,
      "mouth": 6335,
      "names": 6336,
      "natur": 6337,
      "ride": 6338,
      "ruth": 6339,
      "sat": 6340,
      "sac": 6341,
      "salmond": 6342,
      "tort": 6343,
      "tren": 6344,
      "tmz": 6345,
      "vin": 6346,
      "ways": 6347,
      "##51": 6348,
      "##lines": 6349,
      "##sher": 6350,
      "##47": 6351,
      "##4real": 6352,
      "##07": 6353,
      "##tw": 6354,
      "##tim": 6355,
      "##take": 6356,
      "##tube": 6357,
      "##rshire": 6358,
      "##mom": 6359,
      "##mod": 6360,
      "##money": 6361,
      "##old": 6362,
      "##hu": 6363,
      "##hard": 6364,
      "##eld": 6365,
      "##eaks": 6366,
      "##gi": 6367,
      "##ux": 6368,
      "##best": 6369,
      "##baugh": 6370,
      "##jay": 6371,
      "##cat": 6372,
      "##count": 6373,
      "##dge": 6374,
      "##kers": 6375,
      "##xy": 6376,
      "##ww": 6377,
      "##with": 6378,
      "##wee": 6379,
      "##watch": 6380,
      "##williams": 6381,
      "##fin": 6382,
      "##fire": 6383,
      "thru": 6384,
      "##erve": 6385,
      "##inos": 6386,
      "##anne": 6387,
      "##orm": 6388,
      "towards": 6389,
      "##aranc": 6390,
      "##arcl": 6391,
      "inaug": 6392,
      "##edini": 6393,
      "##amic": 6394,
      "##americ": 6395,
      "##acing": 6396,
      "##acle": 6397,
      "##acobs": 6398,
      "##omer": 6399,
      "##ommend": 6400,
      "##etime": 6401,
      "##urate": 6402,
      "stood": 6403,
      "stuck": 6404,
      "stubb": 6405,
      "goangelo": 6406,
      "web": 6407,
      "##imed": 6408,
      "##kel": 6409,
      "william": 6410,
      "door": 6411,
      "##using": 6412,
      "##riff": 6413,
      "convers": 6414,
      "concept": 6415,
      "dele": 6416,
      "amate": 6417,
      "lived": 6418,
      "##negie": 6419,
      "suing": 6420,
      "suites": 6421,
      "assh": 6422,
      "allies": 6423,
      "##rain": 6424,
      "meyers": 6425,
      "ours": 6426,
      "##iah": 6427,
      "space": 6428,
      "fold": 6429,
      "cook": 6430,
      "ali": 6431,
      "realpro": 6432,
      "plat": 6433,
      "plate": 6434,
      "likely": 6435,
      "##ained": 6436,
      "##cci": 6437,
      "##2015": 6438,
      "##spin": 6439,
      "##speaks": 6440,
      "ende": 6441,
      "pride": 6442,
      "prime": 6443,
      "clare": 6444,
      "shown": 6445,
      "showing": 6446,
      "disney": 6447,
      "whenever": 6448,
      "##webb": 6449,
      "proves": 6450,
      "roast": 6451,
      "overlook": 6452,
      "boom": 6453,
      "advert": 6454,
      "anywhere": 6455,
      "##away": 6456,
      "comed": 6457,
      "voter": 6458,
      "##4444": 6459,
      "recommend": 6460,
      "finance": 6461,
      "termin": 6462,
      "teresa": 6463,
      "##ource": 6464,
      "##8484": 6465,
      "nypd": 6466,
      "luv": 6467,
      "letting": 6468,
      "##rict": 6469,
      "##achel": 6470,
      "changes": 6471,
      "percent": 6472,
      "persever": 6473,
      "##range": 6474,
      "entrepreneurship": 6475,
      "parts": 6476,
      "carnegie": 6477,
      "fails": 6478,
      "##my8": 6479,
      "decided": 6480,
      "##box": 6481,
      "##board": 6482,
      "fees": 6483,
      "##anned": 6484,
      "someday": 6485,
      "opened": 6486,
      "collap": 6487,
      "##nox": 6488,
      "hoax": 6489,
      "strongly": 6490,
      "ending": 6491,
      "training": 6492,
      "negotiator": 6493,
      "campaigning": 6494,
      "breeds": 6495,
      "miles": 6496,
      "mister": 6497,
      "investing": 6498,
      "##bling": 6499,
      "drama": 6500,
      "##undit": 6501,
      "trumpchicagos": 6502,
      "headed": 6503,
      "erictrumpfdn": 6504,
      "german": 6505,
      "minute": 6506,
      "elections": 6507,
      "##ottes": 6508,
      "mattress": 6509,
      "beats": 6510,
      "westchester": 6511,
      "##rooms": 6512,
      "compete": 6513,
      "competit": 6514,
      "refuses": 6515,
      "buffett": 6516,
      "casting": 6517,
      "lowest": 6518,
      "irs": 6519,
      "iron": 6520,
      "ruining": 6521,
      "##gingrich": 6522,
      "briarcl": 6523,
      "columb": 6524,
      "anticip": 6525,
      "production": 6526,
      "charlottes": 6527,
      "treated": 6528,
      "require": 6529,
      "holes": 6530,
      "student": 6531,
      "students": 6532,
      "behalf": 6533,
      "relax": 6534,
      "ceo": 6535,
      "include": 6536,
      "appearing": 6537,
      "autismspeaks": 6538,
      "receive": 6539,
      "indeed": 6540,
      "drugs": 6541,
      "fault": 6542,
      "blackdog": 6543,
      "impressed": 6544,
      "kateplus": 6545,
      "delivered": 6546,
      "##walters": 6547,
      "arabia": 6548,
      "murray": 6549,
      "##ajwalters": 6550,
      "bloomberg": 6551,
      "cancel": 6552,
      "joseph": 6553,
      "susan": 6554,
      "##paul": 6555,
      "olympics": 6556,
      "discip": 6557,
      "scandals": 6558,
      "taxpayer": 6559,
      "lifetime": 6560,
      "embarrassed": 6561,
      "kenny": 6562,
      "mlb": 6563,
      "memorial": 6564,
      "justinrose": 6565,
      "barbarajwalters": 6566,
      "audience": 6567,
      "athlet": 6568,
      "newtgingrich": 6569,
      "captain": 6570,
      "ranked": 6571,
      "##adelph": 6572,
      "girlf": 6573,
      "sleaze": 6574,
      "tournament": 6575,
      "boeing": 6576,
      "academy": 6577,
      "fronts": 6578,
      "survive": 6579,
      "besides": 6580,
      "unfortunately": 6581,
      "##debate": 6582,
      "prestig": 6583,
      "delusional": 6584,
      "zimmerman": 6585,
      "rapidly": 6586,
      "bergd": 6587,
      "stubborn": 6588,
      "asshole": 6589,
      "realpro4real": 6590,
      "briarcliff": 6591,
      "kateplusmy8": 6592,
      "1b": 6593,
      "ale": 6594,
      "ack": 6595,
      "bain": 6596,
      "cup": 6597,
      "dil": 6598,
      "domin": 6599,
      "eg": 6600,
      "eve": 6601,
      "eri": 6602,
      "fuel": 6603,
      "ferg": 6604,
      "gil": 6605,
      "gumb": 6606,
      "ja": 6607,
      "js": 6608,
      "jap": 6609,
      "jets": 6610,
      "ko": 6611,
      "mal": 6612,
      "nan": 6613,
      "nath": 6614,
      "oc": 6615,
      "obl": 6616,
      "que": 6617,
      "rand": 6618,
      "rio": 6619,
      "rates": 6620,
      "sr": 6621,
      "sitting": 6622,
      "soph": 6623,
      "tp": 6624,
      "tau": 6625,
      "ven": 6626,
      "vinc": 6627,
      "vlad": 6628,
      "wt": 6629,
      "wig": 6630,
      "yay": 6631,
      "yard": 6632,
      "zach": 6633,
      "##57": 6634,
      "##arent": 6635,
      "##lar": 6636,
      "##live": 6637,
      "##links": 6638,
      "##46": 6639,
      "##42": 6640,
      "##todd": 6641,
      "##iors": 6642,
      "##mg": 6643,
      "##may": 6644,
      "##mun": 6645,
      "##oon": 6646,
      "##vander": 6647,
      "##nald": 6648,
      "##gl": 6649,
      "##uine": 6650,
      "##uage": 6651,
      "##yl": 6652,
      "##yard": 6653,
      "##bn": 6654,
      "##bin": 6655,
      "##ban": 6656,
      "##bra": 6657,
      "##blo": 6658,
      "##bren": 6659,
      "##cos": 6660,
      "##cnn": 6661,
      "##dh": 6662,
      "##dale": 6663,
      "##kr": 6664,
      "##know": 6665,
      "##fare": 6666,
      "##onnell": 6667,
      "##alle": 6668,
      "##alie": 6669,
      "##erc": 6670,
      "##erling": 6671,
      "##inst": 6672,
      "##reeny": 6673,
      "##orman": 6674,
      "##russ": 6675,
      "##ened": 6676,
      "react": 6677,
      "reward": 6678,
      "##arious": 6679,
      "##lls": 6680,
      "##ito": 6681,
      "youtube": 6682,
      "##star": 6683,
      "infect": 6684,
      "##ishing": 6685,
      "bear": 6686,
      "##otcom": 6687,
      "##vey": 6688,
      "##owers": 6689,
      "##amas": 6690,
      "##aced": 6691,
      "##oma": 6692,
      "##idd": 6693,
      "##ented": 6694,
      "##utch": 6695,
      "goal": 6696,
      "##pper": 6697,
      "heav": 6698,
      "heavy": 6699,
      "##cher": 6700,
      "##estic": 6701,
      "##imid": 6702,
      "##imir": 6703,
      "willing": 6704,
      "local": 6705,
      "##uss": 6706,
      "##rial": 6707,
      "convin": 6708,
      "consequ": 6709,
      "##ationship": 6710,
      "presents": 6711,
      "supre": 6712,
      "##rys": 6713,
      "##els": 6714,
      "member": 6715,
      "newly": 6716,
      "spark": 6717,
      "maint": 6718,
      "sequ": 6719,
      "sext": 6720,
      "aggress": 6721,
      "exemp": 6722,
      "hispan": 6723,
      "manhattan": 6724,
      "donations": 6725,
      "unve": 6726,
      "##herald": 6727,
      "buys": 6728,
      "clock": 6729,
      "cluel": 6730,
      "argu": 6731,
      "arrest": 6732,
      "##itted": 6733,
      "roy": 6734,
      "roof": 6735,
      "bold": 6736,
      "boys": 6737,
      "teacher": 6738,
      "chinas": 6739,
      "backont": 6740,
      "background": 6741,
      "##ampanell": 6742,
      "intact": 6743,
      "##abe": 6744,
      "previous": 6745,
      "prefer": 6746,
      "compared": 6747,
      "herself": 6748,
      "##ahn": 6749,
      "##quire": 6750,
      "quotes": 6751,
      "warri": 6752,
      "defending": 6753,
      "##formed": 6754,
      "funeral": 6755,
      "grade": 6756,
      "##athers": 6757,
      "resol": 6758,
      "particip": 6759,
      "##phy": 6760,
      "##monium": 6761,
      "##ibson": 6762,
      "owners": 6763,
      "##velt": 6764,
      "##scott": 6765,
      "genuine": 6766,
      "negate": 6767,
      "mornings": 6768,
      "invit": 6769,
      "destruction": 6770,
      "acquis": 6771,
      "magic": 6772,
      "##ances": 6773,
      "train": 6774,
      "speeches": 6775,
      "tourist": 6776,
      "negotiators": 6777,
      "insane": 6778,
      "checking": 6779,
      "assets": 6780,
      "rodmonium": 6781,
      "##bled": 6782,
      "trumpvine": 6783,
      "jones": 6784,
      "century": 6785,
      "capable": 6786,
      "feels": 6787,
      "legacy": 6788,
      "syrian": 6789,
      "potomac": 6790,
      "listened": 6791,
      "jackshall": 6792,
      "##ngreeny": 6793,
      "##ova": 6794,
      "espngreeny": 6795,
      "##brity": 6796,
      "moder": 6797,
      "brains": 6798,
      "##otto": 6799,
      "generation": 6800,
      "##ology": 6801,
      "beaten": 6802,
      "aberdeencc": 6803,
      "##ciety": 6804,
      "competitive": 6805,
      "refer": 6806,
      "matters": 6807,
      "increasing": 6808,
      "concer": 6809,
      "##ofthed": 6810,
      "harv": 6811,
      "critics": 6812,
      "kidding": 6813,
      "threats": 6814,
      "threatening": 6815,
      "dailycall": 6816,
      "##johnny": 6817,
      "avo": 6818,
      "eye": 6819,
      "radical": 6820,
      "relationship": 6821,
      "pleas": 6822,
      "championships": 6823,
      "remains": 6824,
      "communic": 6825,
      "approved": 6826,
      "photos": 6827,
      "nominee": 6828,
      "nominated": 6829,
      "subject": 6830,
      "robin": 6831,
      "sethmey": 6832,
      "chucktodd": 6833,
      "entertainment": 6834,
      "virt": 6835,
      "transform": 6836,
      "transcript": 6837,
      "decisive": 6838,
      "austin": 6839,
      "ryder": 6840,
      "tips": 6841,
      "possibilities": 6842,
      "vaccines": 6843,
      "susp": 6844,
      "pushed": 6845,
      "natl": 6846,
      "industrial": 6847,
      "granted": 6848,
      "influ": 6849,
      "apartment": 6850,
      "lauren": 6851,
      "flying": 6852,
      "transparen": 6853,
      "kravis": 6854,
      "hypo": 6855,
      "selection": 6856,
      "spread": 6857,
      "dirty": 6858,
      "cufflinks": 6859,
      "data": 6860,
      "kathy": 6861,
      "##owski": 6862,
      "trumpnational": 6863,
      "spirit": 6864,
      "monstrosity": 6865,
      "katherinewebb": 6866,
      "gruber": 6867,
      "buzzfeed": 6868,
      "setbacks": 6869,
      "tribute": 6870,
      "premieres": 6871,
      "outrageous": 6872,
      "vicious": 6873,
      "##rackusa": 6874,
      "stuart": 6875,
      "borders": 6876,
      "earned": 6877,
      "houston": 6878,
      "jodi": 6879,
      "ayrshire": 6880,
      "fiasco": 6881,
      "fascin": 6882,
      "language": 6883,
      "suggest": 6884,
      "lisalampanell": 6885,
      "purpose": 6886,
      "integrity": 6887,
      "gateway": 6888,
      "natural": 6889,
      "plateau": 6890,
      "endeav": 6891,
      "overlooking": 6892,
      "columbia": 6893,
      "charlottesville": 6894,
      "justinrose99": 6895,
      "bergdahl": 6896,
      "vladimir": 6897,
      "consequences": 6898,
      "clueless": 6899,
      "backontrackusa": 6900,
      "acquisition": 6901,
      "rodmonium91": 6902,
      "jackshallis": 6903,
      "dailycaller": 6904,
      "sethmeyers": 6905,
      "transcripts": 6906,
      "transparency": 6907,
      "300": 6908,
      "bust": 6909,
      "bott": 6910,
      "cdc": 6911,
      "dict": 6912,
      "eat": 6913,
      "evan": 6914,
      "fit": 6915,
      "fate": 6916,
      "fought": 6917,
      "filled": 6918,
      "fathers": 6919,
      "gree": 6920,
      "gross": 6921,
      "jw": 6922,
      "jet": 6923,
      "kier": 6924,
      "link": 6925,
      "liter": 6926,
      "leno": 6927,
      "lazy": 6928,
      "mate": 6929,
      "moral": 6930,
      "mens": 6931,
      "mumb": 6932,
      "mets": 6933,
      "nons": 6934,
      "od": 6935,
      "pic": 6936,
      "pil": 6937,
      "psy": 6938,
      "rally": 6939,
      "rud": 6940,
      "sort": 6941,
      "six": 6942,
      "sony": 6943,
      "size": 6944,
      "sided": 6945,
      "tam": 6946,
      "tear": 6947,
      "tzu": 6948,
      "tiny": 6949,
      "vet": 6950,
      "vers": 6951,
      "wend": 6952,
      "xox": 6953,
      "yah": 6954,
      "##low": 6955,
      "##lif": 6956,
      "##si": 6957,
      "##tan": 6958,
      "##iac": 6959,
      "##iven": 6960,
      "##oc": 6961,
      "##vp": 6962,
      "##vest": 6963,
      "##hom": 6964,
      "##hner": 6965,
      "##gibson": 6966,
      "##ym": 6967,
      "##yy": 6968,
      "##bd": 6969,
      "##bat": 6970,
      "##bul": 6971,
      "##boss": 6972,
      "##jp": 6973,
      "##cic": 6974,
      "##cass": 6975,
      "##cross": 6976,
      "##dah": 6977,
      "##kin": 6978,
      "##92": 6979,
      "##38": 6980,
      "##pass": 6981,
      "##ports": 6982,
      "##pundit": 6983,
      "##fc": 6984,
      "##face": 6985,
      "##fund": 6986,
      "thrown": 6987,
      "##onent": 6988,
      "##anes": 6989,
      "thed": 6990,
      "##atory": 6991,
      "##oring": 6992,
      "##oria": 6993,
      "##rum": 6994,
      "##ruth": 6995,
      "##enes": 6996,
      "reach": 6997,
      "##arak": 6998,
      "##lll": 6999,
      "ing": 7000,
      "inj": 7001,
      "anim": 7002,
      "##lect": 7003,
      "##aming": 7004,
      "##ete": 7005,
      "##idy": 7006,
      "##ionship": 7007,
      "##anks": 7008,
      "##advice": 7009,
      "sty": 7010,
      "stolen": 7011,
      "strange": 7012,
      "sterling": 7013,
      "neither": 7014,
      "shane": 7015,
      "##uson": 7016,
      "##iro": 7017,
      "##riage": 7018,
      "##andrew": 7019,
      "conde": 7020,
      "dear": 7021,
      "##ieces": 7022,
      "##neg": 7023,
      "##ulpo": 7024,
      "##ils": 7025,
      "##astrop": 7026,
      "suck": 7027,
      "##rae": 7028,
      "spoke": 7029,
      "theyre": 7030,
      "alan": 7031,
      "plz": 7032,
      "excus": 7033,
      "noon": 7034,
      "##osh": 7035,
      "peoples": 7036,
      "##ects": 7037,
      "bump": 7038,
      "busey": 7039,
      "##umn": 7040,
      "clay": 7041,
      "upd": 7042,
      "however": 7043,
      "##anson": 7044,
      "dise": 7045,
      "disp": 7046,
      "roose": 7047,
      "robo": 7048,
      "boone": 7049,
      "bobb": 7050,
      "##icky": 7051,
      "golfer": 7052,
      "golfers": 7053,
      "##ratv": 7054,
      "reput": 7055,
      "celebration": 7056,
      "worlds": 7057,
      "dealing": 7058,
      "mission": 7059,
      "terry": 7060,
      "playoff": 7061,
      "readers": 7062,
      "##ogul": 7063,
      "attract": 7064,
      "express": 7065,
      "warfare": 7066,
      "seasons": 7067,
      "perd": 7068,
      "eleg": 7069,
      "##rane": 7070,
      "appl": 7071,
      "remind": 7072,
      "stein": 7073,
      "charles": 7074,
      "newsweek": 7075,
      "desire": 7076,
      "gram": 7077,
      "grad": 7078,
      "resolution": 7079,
      "moore": 7080,
      "moves": 7081,
      "loses": 7082,
      "partners": 7083,
      "##philly": 7084,
      "cars": 7085,
      "carbon": 7086,
      "wondering": 7087,
      "decades": 7088,
      "##bolling": 7089,
      "personable": 7090,
      "emin": 7091,
      "otherwise": 7092,
      "ericbolling": 7093,
      "##comp": 7094,
      "michele": 7095,
      "destiny": 7096,
      "admir": 7097,
      "patience": 7098,
      "estates": 7099,
      "sundays": 7100,
      "maggie": 7101,
      "glass": 7102,
      "supported": 7103,
      "edge": 7104,
      "ideal": 7105,
      "melt": 7106,
      "solar": 7107,
      "##blue": 7108,
      "surprises": 7109,
      "yankee": 7110,
      "costly": 7111,
      "cents": 7112,
      "lights": 7113,
      "palmer": 7114,
      "slot": 7115,
      "movement": 7116,
      "choices": 7117,
      "fixing": 7118,
      "minister": 7119,
      "##buff": 7120,
      "200m": 7121,
      "fallon": 7122,
      "fallen": 7123,
      "swing": 7124,
      "regular": 7125,
      "register": 7126,
      "demos": 7127,
      "superb": 7128,
      "superbowl": 7129,
      "author": 7130,
      "miamiherald": 7131,
      "concent": 7132,
      "picked": 7133,
      "deserter": 7134,
      "laur": 7135,
      "realitytv": 7136,
      "walked": 7137,
      "horrend": 7138,
      "##gold": 7139,
      "honesty": 7140,
      "produce": 7141,
      "judges": 7142,
      "coverage": 7143,
      "##ception": 7144,
      "harry": 7145,
      "experien": 7146,
      "extratv": 7147,
      "leeza": 7148,
      "numer": 7149,
      "heartbeat": 7150,
      "wiscons": 7151,
      "demands": 7152,
      "cruz": 7153,
      "##unta": 7154,
      "guestrooms": 7155,
      "philadelph": 7156,
      "canadian": 7157,
      "profit": 7158,
      "preparing": 7159,
      "penny": 7160,
      "rises": 7161,
      "##iasm": 7162,
      "nomination": 7163,
      "fundraisers": 7164,
      "renovation": 7165,
      "detail": 7166,
      "katy": 7167,
      "katie": 7168,
      "huffpost": 7169,
      "coldest": 7170,
      "explains": 7171,
      "explaining": 7172,
      "gifts": 7173,
      "accomplished": 7174,
      "dropping": 7175,
      "lisarin": 7176,
      "mentioned": 7177,
      "levels": 7178,
      "handsome": 7179,
      "outsour": 7180,
      "capitalism": 7181,
      "##selljr": 7182,
      "accepted": 7183,
      "##ggling": 7184,
      "becomes": 7185,
      "tickets": 7186,
      "movies": 7187,
      "drake": 7188,
      "products": 7189,
      "architectural": 7190,
      "leaves": 7191,
      "currently": 7192,
      "theres": 7193,
      "warrencas": 7194,
      "aspiring": 7195,
      "strateg": 7196,
      "silver": 7197,
      "hunter": 7198,
      "##alkin": 7199,
      "flags": 7200,
      "dunes": 7201,
      "shawnjohnson": 7202,
      "delayed": 7203,
      "ellen": 7204,
      "kristen": 7205,
      "stealing": 7206,
      "fragile": 7207,
      "##smith": 7208,
      "##rocket": 7209,
      "embassies": 7210,
      "catastrop": 7211,
      "officials": 7212,
      "##observer": 7213,
      "knockout": 7214,
      "measured": 7215,
      "tragedy": 7216,
      "regarding": 7217,
      "floor": 7218,
      "passport": 7219,
      "##daddy": 7220,
      "devast": 7221,
      "discovery": 7222,
      "identify": 7223,
      "brutal": 7224,
      "cuomo": 7225,
      "icahn": 7226,
      "##jjacobs": 7227,
      "jewelry": 7228,
      "enthusiasm": 7229,
      "jeremy": 7230,
      "mailonline": 7231,
      "giulianaranc": 7232,
      "jenniferjjacobs": 7233,
      "mubarak": 7234,
      "legislation": 7235,
      "extremely": 7236,
      "jupiter": 7237,
      "sacri": 7238,
      "##eldin": 7239,
      "girlfriend": 7240,
      "sleazebag": 7241,
      "dilig": 7242,
      "ferguson": 7243,
      "gumbel": 7244,
      "japan": 7245,
      "sophistic": 7246,
      "taunt": 7247,
      "##brenner": 7248,
      "convinced": 7249,
      "supreme": 7250,
      "sexting": 7251,
      "aggressive": 7252,
      "invitational": 7253,
      "concerning": 7254,
      "##ofthedeal": 7255,
      "harvard": 7256,
      "hypocr": 7257,
      "fascinating": 7258,
      "lisalampanelli": 7259,
      "nonsense": 7260,
      "excuses": 7261,
      "roosevelt": 7262,
      "horrendous": 7263,
      "wisconsin": 7264,
      "lisarinna": 7265,
      "warrencasselljr": 7266,
      "giulianarancic": 7267,
      "5b": 7268,
      "635": 7269,
      "8c": 7270,
      "ax": 7271,
      "aar": 7272,
      "aim": 7273,
      "arist": 7274,
      "aaa": 7275,
      "brent": 7276,
      "body": 7277,
      "bases": 7278,
      "cav": 7279,
      "cable": 7280,
      "cult": 7281,
      "cyc": 7282,
      "dur": 7283,
      "dick": 7284,
      "deny": 7285,
      "eman": 7286,
      "esc": 7287,
      "earl": 7288,
      "fill": 7289,
      "faster": 7290,
      "fits": 7291,
      "gem": 7292,
      "gates": 7293,
      "han": 7294,
      "hire": 7295,
      "jac": 7296,
      "jeep": 7297,
      "jane": 7298,
      "kl": 7299,
      "kent": 7300,
      "knight": 7301,
      "lor": 7302,
      "lines": 7303,
      "loud": 7304,
      "lakers": 7305,
      "mk": 7306,
      "mck": 7307,
      "nu": 7308,
      "none": 7309,
      "nba": 7310,
      "owe": 7311,
      "omg": 7312,
      "pub": 7313,
      "ppl": 7314,
      "punch": 7315,
      "pupp": 7316,
      "papers": 7317,
      "punta": 7318,
      "ram": 7319,
      "rsp": 7320,
      "rav": 7321,
      "rivera": 7322,
      "sne": 7323,
      "source": 7324,
      "tj": 7325,
      "tan": 7326,
      "tatt": 7327,
      "vent": 7328,
      "wy": 7329,
      "wide": 7330,
      "yuan": 7331,
      "zone": 7332,
      "zucker": 7333,
      "##aac": 7334,
      "##ares": 7335,
      "##lv": 7336,
      "##law": 7337,
      "##iber": 7338,
      "##mu": 7339,
      "##mory": 7340,
      "##oh": 7341,
      "##vr": 7342,
      "##von": 7343,
      "##vote": 7344,
      "##hi": 7345,
      "##his": 7346,
      "##hot": 7347,
      "##host": 7348,
      "##hilton": 7349,
      "##got": 7350,
      "##god": 7351,
      "##gins": 7352,
      "##green": 7353,
      "##uu": 7354,
      "##uals": 7355,
      "##bi": 7356,
      "##bles": 7357,
      "##jackson": 7358,
      "##cd": 7359,
      "##carl": 7360,
      "##cotland": 7361,
      "##die": 7362,
      "##del": 7363,
      "##kh": 7364,
      "##kat": 7365,
      "##kiss": 7366,
      "##98": 7367,
      "##97": 7368,
      "##36": 7369,
      "##xx": 7370,
      "##pat": 7371,
      "##found": 7372,
      "##ferry": 7373,
      "##fection": 7374,
      "##field": 7375,
      "##onz": 7376,
      "##alt": 7377,
      "##alem": 7378,
      "##inet": 7379,
      "##rep": 7380,
      "##reck": 7381,
      "theart": 7382,
      "##atour": 7383,
      "##rust": 7384,
      "##enomen": 7385,
      "reds": 7386,
      "revenue": 7387,
      "##rumpy": 7388,
      "##arison": 7389,
      "##armstrong": 7390,
      "##iced": 7391,
      "##llower": 7392,
      "##iters": 7393,
      "##itute": 7394,
      "##stan": 7395,
      "##stravel": 7396,
      "##isure": 7397,
      "##lete": 7398,
      "##asury": 7399,
      "behead": 7400,
      "##otle": 7401,
      "andre": 7402,
      "##aminer": 7403,
      "##acity": 7404,
      "##ionage": 7405,
      "trumpphilly": 7406,
      "trumpferry": 7407,
      "##advis": 7408,
      "##lyss": 7409,
      "##verty": 7410,
      "##uted": 7411,
      "neigh": 7412,
      "##ppins": 7413,
      "heather": 7414,
      "##che": 7415,
      "##char": 7416,
      "##child": 7417,
      "##chez": 7418,
      "greatly": 7419,
      "##imated": 7420,
      "##bamas": 7421,
      "chase": 7422,
      "chrys": 7423,
      "locker": 7424,
      "##tern": 7425,
      "##rier": 7426,
      "dean": 7427,
      "areas": 7428,
      "##oper": 7429,
      "##thy": 7430,
      "lift": 7431,
      "##olic": 7432,
      "##olomon": 7433,
      "##uster": 7434,
      "##ulating": 7435,
      "##aging": 7436,
      "suz": 7437,
      "society": 7438,
      "##ends": 7439,
      "joy": 7440,
      "abuse": 7441,
      "memory": 7442,
      "leaks": 7443,
      "##okes": 7444,
      "spell": 7445,
      "follower": 7446,
      "timte": 7447,
      "##inking": 7448,
      "coke": 7449,
      "uses": 7450,
      "sea": 7451,
      "sees": 7452,
      "seank": 7453,
      "sebel": 7454,
      "wouldnt": 7455,
      "exchange": 7456,
      "exerc": 7457,
      "winery": 7458,
      "##aret": 7459,
      "mans": 7460,
      "unit": 7461,
      "unrel": 7462,
      "uncle": 7463,
      "goods": 7464,
      "barackobamas": 7465,
      "##istence": 7466,
      "##ector": 7467,
      "encour": 7468,
      "##ummer": 7469,
      "clint": 7470,
      "upset": 7471,
      "lovely": 7472,
      "##aucus": 7473,
      "arrog": 7474,
      "bright": 7475,
      "everywhere": 7476,
      "scam": 7477,
      "scale": 7478,
      "married": 7479,
      "##ipe": 7480,
      "##assion": 7481,
      "##venient": 7482,
      "foxbusiness": 7483,
      "repweiner": 7484,
      "courts": 7485,
      "billran": 7486,
      "introd": 7487,
      "intimid": 7488,
      "##uez": 7489,
      "##shir": 7490,
      "worldwide": 7491,
      "##const": 7492,
      "terre": 7493,
      "##ably": 7494,
      "##ablish": 7495,
      "##emalkin": 7496,
      "smile": 7497,
      "trash": 7498,
      "pols": 7499,
      "blair": 7500,
      "compassion": 7501,
      "talisman": 7502,
      "##urner": 7503,
      "attending": 7504,
      "expert": 7505,
      "poverty": 7506,
      "warm": 7507,
      "warning": 7508,
      "incor": 7509,
      "element": 7510,
      "miley": 7511,
      "belich": 7512,
      "remark": 7513,
      "impe": 7514,
      "charitable": 7515,
      "desk": 7516,
      "builder": 7517,
      "##yscra": 7518,
      "persu": 7519,
      "carr": 7520,
      "##monster": 7521,
      "agreement": 7522,
      "decline": 7523,
      "champions": 7524,
      "feet": 7525,
      "elimin": 7526,
      "acting": 7527,
      "helps": 7528,
      "##insider": 7529,
      "emmy": 7530,
      "embr": 7531,
      "phenomen": 7532,
      "##annon": 7533,
      "cheat": 7534,
      "interests": 7535,
      "##oods": 7536,
      "##uesen": 7537,
      "iranians": 7538,
      "sooner": 7539,
      "favour": 7540,
      "##steven": 7541,
      "##noon": 7542,
      "medal": 7543,
      "admitting": 7544,
      "admitted": 7545,
      "glam": 7546,
      "iraqi": 7547,
      "crash": 7548,
      "##marie": 7549,
      "handed": 7550,
      "handled": 7551,
      "meliss": 7552,
      "melrivers": 7553,
      "assad": 7554,
      "announces": 7555,
      "##bliss": 7556,
      "##blaze": 7557,
      "kev": 7558,
      "keith": 7559,
      "freeourmarine": 7560,
      "skyscra": 7561,
      "treasury": 7562,
      "importantly": 7563,
      "funding": 7564,
      "jackson": 7565,
      "##undo": 7566,
      "reasonable": 7567,
      "espionage": 7568,
      "##brody": 7569,
      "protection": 7570,
      "switch": 7571,
      "regulations": 7572,
      "refuse": 7573,
      "polling": 7574,
      "brook": 7575,
      "efforts": 7576,
      "picks": 7577,
      "soldier": 7578,
      "predic": 7579,
      "crown": 7580,
      "column": 7581,
      "renew": 7582,
      "charlie": 7583,
      "landex": 7584,
      "offering": 7585,
      "rocks": 7586,
      "deadspin": 7587,
      "apologized": 7588,
      "secrets": 7589,
      "sharing": 7590,
      "models": 7591,
      "tours": 7592,
      "brett": 7593,
      "finances": 7594,
      "stephan": 7595,
      "constitution": 7596,
      "forbesinsp": 7597,
      "paris": 7598,
      "suppl": 7599,
      "madison": 7600,
      "heroes": 7601,
      "##rolling": 7602,
      "petrae": 7603,
      "arianna": 7604,
      "lisa": 7605,
      "commentary": 7606,
      "##friday": 7607,
      "michellemalkin": 7608,
      "lancearmstrong": 7609,
      "desperately": 7610,
      "balance": 7611,
      "enterpris": 7612,
      "combat": 7613,
      "vaccine": 7614,
      "vaccinations": 7615,
      "draw": 7616,
      "vpdebate": 7617,
      "##paolomon": 7618,
      "babe": 7619,
      "##daniel": 7620,
      "theapprentice9": 7621,
      "joshu": 7622,
      "copy": 7623,
      "billygraham": 7624,
      "france": 7625,
      "mentor": 7626,
      "silent": 7627,
      "ships": 7628,
      "gallup": 7629,
      "jewish": 7630,
      "continuing": 7631,
      "innovative": 7632,
      "mcconnell": 7633,
      "duncan": 7634,
      "attended": 7635,
      "delaying": 7636,
      "##corp": 7637,
      "pgachamp": 7638,
      "pgatour": 7639,
      "schedul": 7640,
      "violent": 7641,
      "newyorkobserver": 7642,
      "fracking": 7643,
      "athlete": 7644,
      "emilymiller": 7645,
      "insightful": 7646,
      "select": 7647,
      "spreading": 7648,
      "diane": 7649,
      "carlos": 7650,
      "ewerick": 7651,
      "pulling": 7652,
      "georg": 7653,
      "digital": 7654,
      "patti": 7655,
      "##ihad": 7656,
      "temper": 7657,
      "ethic": 7658,
      "tallest": 7659,
      "awareness": 7660,
      "balanced": 7661,
      "villa": 7662,
      "##respect": 7663,
      "contributions": 7664,
      "quarterback": 7665,
      "flexible": 7666,
      "reelection": 7667,
      "shaun": 7668,
      "colorado": 7669,
      "bucket": 7670,
      "olivia": 7671,
      "pierpaolomon": 7672,
      "thedailyshow": 7673,
      "struggling": 7674,
      "separates": 7675,
      "##icholas": 7676,
      "repeated": 7677,
      "frisk": 7678,
      "trending": 7679,
      "##country": 7680,
      "inaugural": 7681,
      "amateur": 7682,
      "##4444444": 7683,
      "perseverance": 7684,
      "ironic": 7685,
      "acknow": 7686,
      "venue": 7687,
      "##russia": 7688,
      "infected": 7689,
      "##johnnya": 7690,
      "gatewaypundit": 7691,
      "xoxo": 7692,
      "perduesen": 7693,
      "steinbrenner": 7694,
      "meltdown": 7695,
      "realitytvbliss": 7696,
      "drake4444444": 7697,
      "catastrophe": 7698,
      "aristotle": 7699,
      "theartofthedeal": 7700,
      "trumpferrypoint": 7701,
      "timtebow": 7702,
      "sebelius": 7703,
      "billrancic": 7704,
      "talismanjohnnya": 7705,
      "phenomenal": 7706,
      "landexpo": 7707,
      "forbesinspector": 7708,
      "petraeus": 7709,
      "pgachampionship": 7710,
      "ewerickson": 7711,
      "pierpaolomonni": 7712,
      "1t": 7713,
      "ailes": 7714,
      "bat": 7715,
      "bald": 7716,
      "bom": 7717,
      "bent": 7718,
      "bash": 7719,
      "cases": 7720,
      "dor": 7721,
      "dale": 7722,
      "dyn": 7723,
      "este": 7724,
      "flew": 7725,
      "felt": 7726,
      "gent": 7727,
      "gma": 7728,
      "gilbert": 7729,
      "hat": 7730,
      "hated": 7731,
      "hates": 7732,
      "hannity": 7733,
      "hrs": 7734,
      "jun": 7735,
      "jail": 7736,
      "jihad": 7737,
      "lately": 7738,
      "mm": 7739,
      "mall": 7740,
      "mogul": 7741,
      "nsa": 7742,
      "nagh": 7743,
      "port": 7744,
      "pist": 7745,
      "pope": 7746,
      "pump": 7747,
      "rent": 7748,
      "rig": 7749,
      "rout": 7750,
      "rum": 7751,
      "randy": 7752,
      "ribb": 7753,
      "sin": 7754,
      "sail": 7755,
      "sno": 7756,
      "sale": 7757,
      "sinc": 7758,
      "tor": 7759,
      "tight": 7760,
      "tact": 7761,
      "vice": 7762,
      "ward": 7763,
      "woo": 7764,
      "weren": 7765,
      "waldo": 7766,
      "xl": 7767,
      "yd": 7768,
      "##56": 7769,
      "##500": 7770,
      "##aid": 7771,
      "##abama": 7772,
      "##ls": 7773,
      "##sis": 7774,
      "##02": 7775,
      "##tour": 7776,
      "##rice": 7777,
      "##rag": 7778,
      "##rant": 7779,
      "##round": 7780,
      "##ipping": 7781,
      "##mav": 7782,
      "##matt": 7783,
      "##mama": 7784,
      "##oot": 7785,
      "##happ": 7786,
      "##nst": 7787,
      "##gm": 7788,
      "##gal": 7789,
      "##ued": 7790,
      "##uable": 7791,
      "##ucci": 7792,
      "##ye": 7793,
      "##yes": 7794,
      "##bp": 7795,
      "##bet": 7796,
      "##ja": 7797,
      "##jan": 7798,
      "##jack": 7799,
      "##jmk": 7800,
      "##cur": 7801,
      "##corn": 7802,
      "##kar": 7803,
      "##kle": 7804,
      "##kay": 7805,
      "##911": 7806,
      "##wan": 7807,
      "##wall": 7808,
      "##wear": 7809,
      "##fre": 7810,
      "##fit": 7811,
      "##fun": 7812,
      "##fia": 7813,
      "##zi": 7814,
      "thug": 7815,
      "##aley": 7816,
      "##eres": 7817,
      "##anl": 7818,
      "##anth": 7819,
      "thet": 7820,
      "thehill": 7821,
      "##atures": 7822,
      "##orious": 7823,
      "##enf": 7824,
      "reed": 7825,
      "rever": 7826,
      "reject": 7827,
      "##esch": 7828,
      "youve": 7829,
      "##sth": 7830,
      "##stick": 7831,
      "##stock": 7832,
      "##edcruz": 7833,
      "##isf": 7834,
      "##isher": 7835,
      "##lets": 7836,
      "##asy": 7837,
      "##owitz": 7838,
      "##aman": 7839,
      "forcing": 7840,
      "##oman": 7841,
      "##illo": 7842,
      "##illions": 7843,
      "##idable": 7844,
      "##idden": 7845,
      "trumpadvice": 7846,
      "wheres": 7847,
      "##ada": 7848,
      "##adium": 7849,
      "##lynn": 7850,
      "##urb": 7851,
      "stam": 7852,
      "stadium": 7853,
      "##uty": 7854,
      "##uters": 7855,
      "##sein": 7856,
      "##chen": 7857,
      "##ched": 7858,
      "##chise": 7859,
      "shout": 7860,
      "haha": 7861,
      "##imo": 7862,
      "##imately": 7863,
      "chad": 7864,
      "chel": 7865,
      "chem": 7866,
      "##kevin": 7867,
      "##unner": 7868,
      "lois": 7869,
      "logo": 7870,
      "##riv": 7871,
      "##andi": 7872,
      "conden": 7873,
      "convenient": 7874,
      "arent": 7875,
      "##opher": 7876,
      "##oline": 7877,
      "##esser": 7878,
      "##essed": 7879,
      "##ulu": 7880,
      "##ulty": 7881,
      "##roit": 7882,
      "##road": 7883,
      "##ateful": 7884,
      "##anti": 7885,
      "sooo": 7886,
      "presidenttrump": 7887,
      "wasnt": 7888,
      "##ender": 7889,
      "##raine": 7890,
      "##arty": 7891,
      "leon": 7892,
      "spo": 7893,
      "celebrated": 7894,
      "usually": 7895,
      "seven": 7896,
      "seals": 7897,
      "management": 7898,
      "donated": 7899,
      "##osen": 7900,
      "##oses": 7901,
      "##ains": 7902,
      "truck": 7903,
      "##aked": 7904,
      "counting": 7905,
      "prince": 7906,
      "##ubs": 7907,
      "clark": 7908,
      "upon": 7909,
      "seek": 7910,
      "##aux": 7911,
      "dismal": 7912,
      "disasters": 7913,
      "moreland": 7914,
      "process": 7915,
      "overt": 7916,
      "table": 7917,
      "scar": 7918,
      "marines": 7919,
      "marcor": 7920,
      "marriage": 7921,
      "adults": 7922,
      "golfs": 7923,
      "comfort": 7924,
      "reply": 7925,
      "##ignment": 7926,
      "wanting": 7927,
      "successes": 7928,
      "mull": 7929,
      "##lander": 7930,
      "##ials": 7931,
      "entit": 7932,
      "##eme": 7933,
      "guide": 7934,
      "luke": 7935,
      "amazon": 7936,
      "trillions": 7937,
      "saeed": 7938,
      "##ahill": 7939,
      "twain": 7940,
      "##achmann": 7941,
      "warned": 7942,
      "perfection": 7943,
      "##ner19": 7944,
      "remove": 7945,
      "##icted": 7946,
      "danie": 7947,
      "daniel": 7948,
      "entrepreneurial": 7949,
      "ows": 7950,
      "windy": 7951,
      "window": 7952,
      "residen": 7953,
      "##bscotland": 7954,
      "luckier": 7955,
      "smarts": 7956,
      "mayweather": 7957,
      "persistent": 7958,
      "persistence": 7959,
      "##mond": 7960,
      "undertake": 7961,
      "##ibe": 7962,
      "afternoon": 7963,
      "##myers": 7964,
      "##beach": 7965,
      "signific": 7966,
      "decent": 7967,
      "feed": 7968,
      "feud": 7969,
      "febru": 7970,
      "##gyn": 7971,
      "acted": 7972,
      "actions": 7973,
      "actual": 7974,
      "speed": 7975,
      "owned": 7976,
      "kills": 7977,
      "##airs": 7978,
      "##mafia": 7979,
      "##insula": 7980,
      "emerson": 7981,
      "surround": 7982,
      "openly": 7983,
      "seniors": 7984,
      "ericlee": 7985,
      "##llowens": 7986,
      "sometime": 7987,
      "yesterdays": 7988,
      "##others": 7989,
      "##steph": 7990,
      "epa": 7991,
      "trumpto": 7992,
      "creates": 7993,
      "medio": 7994,
      "bene": 7995,
      "establish": 7996,
      "##media": 7997,
      "talked": 7998,
      "wastes": 7999,
      "##ghes": 8000,
      "##ango": 8001,
      "insult": 8002,
      "##aiken": 8003,
      "energ": 8004,
      "indic": 8005,
      "assume": 8006,
      "assignment": 8007,
      "trumpdorals": 8008,
      "##ompson": 8009,
      "##hole": 8010,
      "trumpvancouver": 8011,
      "surprising": 8012,
      "restore": 8013,
      "airports": 8014,
      "skating": 8015,
      "begun": 8016,
      "proposed": 8017,
      "bluemonster": 8018,
      "lesson": 8019,
      "gasoline": 8020,
      "grown": 8021,
      "reduce": 8022,
      "redcross": 8023,
      "##brad": 8024,
      "##play": 8025,
      "##place": 8026,
      "economically": 8027,
      "returned": 8028,
      "##bug": 8029,
      "russians": 8030,
      "honoring": 8031,
      "damon": 8032,
      "##club": 8033,
      "##clinton": 8034,
      "curb": 8035,
      "##guru": 8036,
      "##guard": 8037,
      "##ervative": 8038,
      "closely": 8039,
      "telecast": 8040,
      "doubled": 8041,
      "picking": 8042,
      "##what": 8043,
      "##white": 8044,
      "salary": 8045,
      "walter": 8046,
      "understands": 8047,
      "horiz": 8048,
      "colin": 8049,
      "sends": 8050,
      "savvy": 8051,
      "##babe": 8052,
      "stole": 8053,
      "leezeldin": 8054,
      "hurting": 8055,
      "##gnorman": 8056,
      "behav": 8057,
      "crucial": 8058,
      "philip": 8059,
      "motivated": 8060,
      "developing": 8061,
      "developments": 8062,
      "breaks": 8063,
      "bretba": 8064,
      "kinda": 8065,
      "peninsula": 8066,
      "intellect": 8067,
      "balls": 8068,
      "poorly": 8069,
      "conservatives": 8070,
      "praying": 8071,
      "claim": 8072,
      "skyrocket": 8073,
      "##ribute": 8074,
      "bossie": 8075,
      "sentedcruz": 8076,
      "presentation": 8077,
      "jimmyfall": 8078,
      "vacationer": 8079,
      "coastline": 8080,
      "appreciated": 8081,
      "straighten": 8082,
      "option": 8083,
      "closer": 8084,
      "##1996": 8085,
      "combined": 8086,
      "addressing": 8087,
      "sharkgre": 8088,
      "formidable": 8089,
      "emphas": 8090,
      "natalie": 8091,
      "nicole": 8092,
      "##voc": 8093,
      "independence": 8094,
      "blowing": 8095,
      "defends": 8096,
      "bbcnews": 8097,
      "franchise": 8098,
      "benefits": 8099,
      "lawsuits": 8100,
      "ultimately": 8101,
      "##cribe": 8102,
      "embarrassment": 8103,
      "##mccall": 8104,
      "robbing": 8105,
      "compliments": 8106,
      "obsessed": 8107,
      "coalition": 8108,
      "networks": 8109,
      "saudis": 8110,
      "barbara": 8111,
      "operation": 8112,
      "basket": 8113,
      "jenny": 8114,
      "condition": 8115,
      "occasion": 8116,
      "corruption": 8117,
      "dwight": 8118,
      "praise": 8119,
      "dallasmav": 8120,
      "woody": 8121,
      "woods": 8122,
      "##wilson": 8123,
      "##alyst": 8124,
      "islamists": 8125,
      "manipulation": 8126,
      "borrowing": 8127,
      "title": 8128,
      "wwii": 8129,
      "believes": 8130,
      "pattinson": 8131,
      "trump4prez": 8132,
      "diplomatic": 8133,
      "kennedy": 8134,
      "practice": 8135,
      "knowingly": 8136,
      "belongs": 8137,
      "guarantee": 8138,
      "determination": 8139,
      "bernard": 8140,
      "linda": 8141,
      "whitney": 8142,
      "habitual": 8143,
      "electricity": 8144,
      "task": 8145,
      "vineyard": 8146,
      "maxim": 8147,
      "education": 8148,
      "louisiana": 8149,
      "gabriel": 8150,
      "biased": 8151,
      "machine": 8152,
      "wilson": 8153,
      "##riguez": 8154,
      "princip": 8155,
      "torture": 8156,
      "##uxe": 8157,
      "conversation": 8158,
      "delegates": 8159,
      "##bloomberg": 8160,
      "avoid": 8161,
      "trumpnationalny": 8162,
      "endeavor": 8163,
      "greece": 8164,
      "version": 8165,
      "##cassidy": 8166,
      "injured": 8167,
      "disease": 8168,
      "reputation": 8169,
      "numerous": 8170,
      "diligence": 8171,
      "mckay": 8172,
      "rspbscotland": 8173,
      "redskins": 8174,
      "##advisor": 8175,
      "chrysler": 8176,
      "seankesser": 8177,
      "unreliable": 8178,
      "terrellowens": 8179,
      "incorrect": 8180,
      "##stevens": 8181,
      "perduesenate": 8182,
      "naghme": 8183,
      "ribbon": 8184,
      "tactics": 8185,
      "chelse": 8186,
      "condenast": 8187,
      "marcorubio": 8188,
      "residences": 8189,
      "february": 8190,
      "ericleebow": 8191,
      "jimmyfallon": 8192,
      "sharkgregnorman": 8193,
      "dallasmavs": 8194,
      "08": 8195,
      "1m": 8196,
      "aka": 8197,
      "bn": 8198,
      "bag": 8199,
      "bother": 8200,
      "cam": 8201,
      "cure": 8202,
      "code": 8203,
      "crane": 8204,
      "cahill": 8205,
      "der": 8206,
      "drove": 8207,
      "durst": 8208,
      "dnor": 8209,
      "eating": 8210,
      "eonline": 8211,
      "fel": 8212,
      "fried": 8213,
      "finger": 8214,
      "floyd": 8215,
      "grat": 8216,
      "hud": 8217,
      "hang": 8218,
      "hogan": 8219,
      "hidden": 8220,
      "ibd": 8221,
      "istan": 8222,
      "jh": 8223,
      "jes": 8224,
      "ki": 8225,
      "kle": 8226,
      "ly": 8227,
      "lous": 8228,
      "lates": 8229,
      "lying": 8230,
      "mun": 8231,
      "mort": 8232,
      "nad": 8233,
      "nav": 8234,
      "nuts": 8235,
      "nunn": 8236,
      "os": 8237,
      "ov": 8238,
      "pu": 8239,
      "pent": 8240,
      "purs": 8241,
      "pitch": 8242,
      "row": 8243,
      "rag": 8244,
      "raw": 8245,
      "sig": 8246,
      "sight": 8247,
      "sain": 8248,
      "sams": 8249,
      "sister": 8250,
      "sides": 8251,
      "tl": 8252,
      "tu": 8253,
      "torn": 8254,
      "tcot": 8255,
      "taylor": 8256,
      "vi": 8257,
      "vol": 8258,
      "wing": 8259,
      "witch": 8260,
      "yo": 8261,
      "##aats": 8262,
      "##lac": 8263,
      "##lah": 8264,
      "##sin": 8265,
      "##sque": 8266,
      "##41": 8267,
      "##0d": 8268,
      "##tg": 8269,
      "##tis": 8270,
      "##test": 8271,
      "##riss": 8272,
      "##iad": 8273,
      "##ios": 8274,
      "##mes": 8275,
      "##mith": 8276,
      "##mie": 8277,
      "##miss": 8278,
      "##mundo": 8279,
      "##ores": 8280,
      "##obama": 8281,
      "##vs": 8282,
      "##vans": 8283,
      "##hawk": 8284,
      "##ept": 8285,
      "##eared": 8286,
      "##net": 8287,
      "##nch": 8288,
      "##uk": 8289,
      "##ya": 8290,
      "##bad": 8291,
      "##bee": 8292,
      "##biz": 8293,
      "##js": 8294,
      "##jf": 8295,
      "##jal": 8296,
      "##jim": 8297,
      "##jord": 8298,
      "##jab": 8299,
      "##cke": 8300,
      "##cia": 8301,
      "##cap": 8302,
      "##cgirl": 8303,
      "##kn": 8304,
      "##kc": 8305,
      "##kward": 8306,
      "##37": 8307,
      "##pg": 8308,
      "##pers": 8309,
      "##pick": 8310,
      "##pective": 8311,
      "##pieces": 8312,
      "##wire": 8313,
      "##wynn": 8314,
      "##fast": 8315,
      "##zk": 8316,
      "##zai": 8317,
      "##zona": 8318,
      "thor": 8319,
      "##oner": 8320,
      "##onents": 8321,
      "##alor": 8322,
      "##aling": 8323,
      "##inting": 8324,
      "##invest": 8325,
      "##anine": 8326,
      "theb": 8327,
      "thejb": 8328,
      "theblaze": 8329,
      "##ati": 8330,
      "##mpa": 8331,
      "##enusa": 8332,
      "##enrod": 8333,
      "##encer": 8334,
      "reid": 8335,
      "reign": 8336,
      "##esc": 8337,
      "topped": 8338,
      "##icing": 8339,
      "##lle": 8340,
      "##itig": 8341,
      "##stal": 8342,
      "inacc": 8343,
      "anger": 8344,
      "##edge": 8345,
      "##ashing": 8346,
      "beth": 8347,
      "##oted": 8348,
      "##othing": 8349,
      "##owradio": 8350,
      "##aching": 8351,
      "##omers": 8352,
      "##etown": 8353,
      "##etoo": 8354,
      "##illa": 8355,
      "##idem": 8356,
      "##igible": 8357,
      "##lynews": 8358,
      "stress": 8359,
      "steel": 8360,
      "##sexy": 8361,
      "heck": 8362,
      "greats": 8363,
      "shannon": 8364,
      "##ima": 8365,
      "##iment": 8366,
      "##imates": 8367,
      "chen": 8368,
      "chery": 8369,
      "loe": 8370,
      "loren": 8371,
      "logan": 8372,
      "##htaking": 8373,
      "dose": 8374,
      "conv": 8375,
      "##odity": 8376,
      "dees": 8377,
      "demon": 8378,
      "myst": 8379,
      "myrt": 8380,
      "##ople": 8381,
      "##thom": 8382,
      "##though": 8383,
      "within": 8384,
      "##ustin": 8385,
      "##agon": 8386,
      "##astouch": 8387,
      "suic": 8388,
      "##robb": 8389,
      "##rocks": 8390,
      "##roads": 8391,
      "##erely": 8392,
      "thiswee": 8393,
      "##eland": 8394,
      "asap": 8395,
      "asso": 8396,
      "megra": 8397,
      "megyn": 8398,
      "##arts": 8399,
      "##arten": 8400,
      "lex": 8401,
      "17t": 8402,
      "spl": 8403,
      "span": 8404,
      "cos": 8405,
      "cox": 8406,
      "covers": 8407,
      "cohen": 8408,
      "main": 8409,
      "alge": 8410,
      "alabama": 8411,
      "although": 8412,
      "realsque": 8413,
      "##outs": 8414,
      "usnew": 8415,
      "sealed": 8416,
      "barry": 8417,
      "plaza": 8418,
      "wintour": 8419,
      "contact": 8420,
      "donors": 8421,
      "likewise": 8422,
      "und": 8423,
      "unins": 8424,
      "unfo": 8425,
      "unpar": 8426,
      "##ouge": 8427,
      "##ccable": 8428,
      "bully": 8429,
      "ends": 8430,
      "##ieshow": 8431,
      "ups": 8432,
      "orders": 8433,
      "##auer": 8434,
      "disloy": 8435,
      "disrespect": 8436,
      "##avin": 8437,
      "##load": 8438,
      "brown": 8439,
      "robs": 8440,
      "##1914": 8441,
      "tape": 8442,
      "tampa": 8443,
      "science": 8444,
      "scene": 8445,
      "boost": 8446,
      "marth": 8447,
      "mariss": 8448,
      "marco": 8449,
      "##asso": 8450,
      "golfweek": 8451,
      "comedy": 8452,
      "repubs": 8453,
      "therefore": 8454,
      "billclinton": 8455,
      "##def": 8456,
      "##she": 8457,
      "happiness": 8458,
      "awa": 8459,
      "awkward": 8460,
      "##ival": 8461,
      "##apable": 8462,
      "##landle": 8463,
      "##abee": 8464,
      "##ours": 8465,
      "lucas": 8466,
      "blt": 8467,
      "blown": 8468,
      "blasts": 8469,
      "shell": 8470,
      "debbie": 8471,
      "hottest": 8472,
      "##quer": 8473,
      "itsryan": 8474,
      "chances": 8475,
      "exposing": 8476,
      "nicely": 8477,
      "perry": 8478,
      "perman": 8479,
      "incapable": 8480,
      "mik": 8481,
      "nbcnight": 8482,
      "below": 8483,
      "##tyler": 8484,
      "reserve": 8485,
      "mock": 8486,
      "perspective": 8487,
      "##phel": 8488,
      "##ibbs": 8489,
      "##ension": 8490,
      "tweeted": 8491,
      "honol": 8492,
      "##estern": 8493,
      "americanowradio": 8494,
      "longest": 8495,
      "decade": 8496,
      "fewer": 8497,
      "##moil": 8498,
      "emails": 8499,
      "sunk": 8500,
      "surplus": 8501,
      "##cyrus": 8502,
      "chef": 8503,
      "genes": 8504,
      "30pm": 8505,
      "brande": 8506,
      "brandon": 8507,
      "brandenrod": 8508,
      "##cock": 8509,
      "invite": 8510,
      "payer": 8511,
      "destined": 8512,
      "destruct": 8513,
      "##erno": 8514,
      "commodity": 8515,
      "##othy": 8516,
      "##miami": 8517,
      "sets": 8518,
      "hof": 8519,
      "medical": 8520,
      "follows": 8521,
      "admits": 8522,
      "inspires": 8523,
      "toughest": 8524,
      "patients": 8525,
      "paterno": 8526,
      "respects": 8527,
      "endless": 8528,
      "aplemon": 8529,
      "acu": 8530,
      "glenf": 8531,
      "mikey": 8532,
      "favorites": 8533,
      "midastouch": 8534,
      "turmoil": 8535,
      "bringback": 8536,
      "citys": 8537,
      "crim": 8538,
      "tries": 8539,
      "standards": 8540,
      "insist": 8541,
      "indones": 8542,
      "minds": 8543,
      "minded": 8544,
      "writers": 8545,
      "thrilled": 8546,
      "christie": 8547,
      "delivers": 8548,
      "deluxe": 8549,
      "finding": 8550,
      "investors": 8551,
      "rodman": 8552,
      "friendly": 8553,
      "mondays": 8554,
      "yankeer": 8555,
      "joanrivers": 8556,
      "costing": 8557,
      "airs": 8558,
      "airing": 8559,
      "airport": 8560,
      "aircra": 8561,
      "begged": 8562,
      "tread": 8563,
      "treasure": 8564,
      "slams": 8565,
      "easier": 8566,
      "##player": 8567,
      "##plaats": 8568,
      "normal": 8569,
      "releases": 8570,
      "headline": 8571,
      "generations": 8572,
      "##formetoo": 8573,
      "damages": 8574,
      "crap": 8575,
      "causing": 8576,
      "melanie": 8577,
      "superior": 8578,
      "##ciated": 8579,
      "matty": 8580,
      "broke": 8581,
      "buffet": 8582,
      "concert": 8583,
      "ruin": 8584,
      "telemundo": 8585,
      "greens": 8586,
      "salv": 8587,
      "##lined": 8588,
      "snowing": 8589,
      "##umph": 8590,
      "crowned": 8591,
      "advance": 8592,
      "adviser": 8593,
      "sonns": 8594,
      "covered": 8595,
      "offered": 8596,
      "positively": 8597,
      "prediction": 8598,
      "predictions": 8599,
      "dummies": 8600,
      "schools": 8601,
      "samuel": 8602,
      "samcgirl": 8603,
      "apologizing": 8604,
      "bobvander": 8605,
      "anthonyweiner": 8606,
      "properly": 8607,
      "range": 8608,
      "calm": 8609,
      "latin": 8610,
      "sharon": 8611,
      "##graph": 8612,
      "correctly": 8613,
      "radic": 8614,
      "pictures": 8615,
      "sanchez": 8616,
      "oklah": 8617,
      "strait": 8618,
      "remaining": 8619,
      "typ": 8620,
      "risks": 8621,
      "execute": 8622,
      "tripadvisor": 8623,
      "drudge": 8624,
      "nicklaus": 8625,
      "supporter": 8626,
      "approach": 8627,
      "crowdfund": 8628,
      "madness": 8629,
      "##kabc": 8630,
      "nominate": 8631,
      "prayformetoo": 8632,
      "obst": 8633,
      "pretend": 8634,
      "detroit": 8635,
      "icebucketchallenge": 8636,
      "katieshow": 8637,
      "arizona": 8638,
      "rollout": 8639,
      "laughs": 8640,
      "thomasaro": 8641,
      "##people": 8642,
      "##frank": 8643,
      "statedept": 8644,
      "eastwood": 8645,
      "blood": 8646,
      "entering": 8647,
      "streets": 8648,
      "canceled": 8649,
      "opinions": 8650,
      "bombing": 8651,
      "bruce": 8652,
      "roads": 8653,
      "nicest": 8654,
      "##martin": 8655,
      "weapon": 8656,
      "opposes": 8657,
      "kerrygold": 8658,
      "warrenbuff": 8659,
      "evidence": 8660,
      "settlement": 8661,
      "wealthy": 8662,
      "accomplishments": 8663,
      "bryan": 8664,
      "franc": 8665,
      "hacking": 8666,
      "hacked": 8667,
      "jenna": 8668,
      "mental": 8669,
      "replay": 8670,
      "judgeje": 8671,
      "denver": 8672,
      "facing": 8673,
      "journalist": 8674,
      "peterose": 8675,
      "application": 8676,
      "nearly": 8677,
      "shocked": 8678,
      "england": 8679,
      "patriotic": 8680,
      "jersey": 8681,
      "necessarily": 8682,
      "personality": 8683,
      "250m": 8684,
      "basis": 8685,
      "violence": 8686,
      "fortun": 8687,
      "##conservative": 8688,
      "protests": 8689,
      "catholic": 8690,
      "dateline": 8691,
      "merger": 8692,
      "##thedonald": 8693,
      "houses": 8694,
      "ignorant": 8695,
      "gaming": 8696,
      "reveals": 8697,
      "cyber": 8698,
      "domestic": 8699,
      "##music": 8700,
      "residential": 8701,
      "damacofficial": 8702,
      "replacement": 8703,
      "flashbackfriday": 8704,
      "balancing": 8705,
      "brutally": 8706,
      "##habedini": 8707,
      "##ructure": 8708,
      "carrying": 8709,
      "determined": 8710,
      "recognize": 8711,
      "breathtaking": 8712,
      "fucking": 8713,
      "status": 8714,
      "bronx": 8715,
      "implemented": 8716,
      "confirmed": 8717,
      "prosperity": 8718,
      "figure": 8719,
      "sixt": 8720,
      "dependent": 8721,
      "enrollment": 8722,
      "downgraded": 8723,
      "travlandle": 8724,
      "ineffective": 8725,
      "inefficient": 8726,
      "scientists": 8727,
      "dealmaker": 8728,
      "consumer": 8729,
      "drilling": 8730,
      "advisors": 8731,
      "connectic": 8732,
      "dedic": 8733,
      "esquire": 8734,
      "vinny": 8735,
      "##america": 8736,
      "platform": 8737,
      "comedian": 8738,
      "collapse": 8739,
      "competitors": 8740,
      "nancy": 8741,
      "oclock": 8742,
      "vincent": 8743,
      "##alleled": 8744,
      "reacts": 8745,
      "##iddich": 8746,
      "heaven": 8747,
      "sequester": 8748,
      "arrested": 8749,
      "kieranl": 8750,
      "mumbai": 8751,
      "wendy": 8752,
      "##iveness": 8753,
      "ingred": 8754,
      "playoffs": 8755,
      "philadelphia": 8756,
      "katyperry": 8757,
      "sophisticated": 8758,
      "cavuto": 8759,
      "earlier": 8760,
      "fitsnews": 8761,
      "##onzale": 8762,
      "exercise": 8763,
      "arrogant": 8764,
      "compassionate": 8765,
      "mileycyrus": 8766,
      "belichick": 8767,
      "impeccable": 8768,
      "persuasion": 8769,
      "favourite": 8770,
      "skyscraper": 8771,
      "enterprise": 8772,
      "scheduled": 8773,
      "georgia": 8774,
      "bomber": 8775,
      "gentleman": 8776,
      "horizons": 8777,
      "behavior": 8778,
      "bretbaier": 8779,
      "basketball": 8780,
      "naghmehabedini": 8781,
      "dnorrell": 8782,
      "istanbul": 8783,
      "lousy": 8784,
      "lateshow": 8785,
      "samsung": 8786,
      "lorenz": 8787,
      "myrtle": 8788,
      "thisweekabc": 8789,
      "megrahi": 8790,
      "megynkelly": 8791,
      "algeme": 8792,
      "realsquezz": 8793,
      "usnewstravel": 8794,
      "uninsured": 8795,
      "unparalleled": 8796,
      "golfweekmag": 8797,
      "itsryanhilton": 8798,
      "nbcnightlynews": 8799,
      "brandenroderick": 8800,
      "aplemonlemon": 8801,
      "glenfiddich": 8802,
      "yankeerunner": 8803,
      "aircraft": 8804,
      "sonnset": 8805,
      "bobvanderplaats": 8806,
      "oklahoma": 8807,
      "thomasaroberts": 8808,
      "kerrygold1914": 8809,
      "warrenbuffett": 8810,
      "judgejeanine": 8811,
      "kieranlalor": 8812,
      "7c": 8813,
      "az": 8814,
      "ain": 8815,
      "ast": 8816,
      "ail": 8817,
      "alyss": 8818,
      "batter": 8819,
      "baton": 8820,
      "btw": 8821,
      "bachmann": 8822,
      "cj": 8823,
      "cp": 8824,
      "cnt": 8825,
      "cab": 8826,
      "caut": 8827,
      "colog": 8828,
      "cros": 8829,
      "culpo": 8830,
      "dp": 8831,
      "dit": 8832,
      "dce": 8833,
      "dlo": 8834,
      "darl": 8835,
      "dime": 8836,
      "dimon": 8837,
      "erod": 8838,
      "fle": 8839,
      "fren": 8840,
      "fake": 8841,
      "gee": 8842,
      "gard": 8843,
      "gaff": 8844,
      "garden": 8845,
      "hr": 8846,
      "hood": 8847,
      "hater": 8848,
      "hilton": 8849,
      "hmun": 8850,
      "ip": 8851,
      "jm": 8852,
      "jude": 8853,
      "jared": 8854,
      "kor": 8855,
      "kir": 8856,
      "kud": 8857,
      "knick": 8858,
      "karen": 8859,
      "lyn": 8860,
      "mj": 8861,
      "mount": 8862,
      "mvp": 8863,
      "micky": 8864,
      "manti": 8865,
      "nen": 8866,
      "nro": 8867,
      "pod": 8868,
      "pak": 8869,
      "piss": 8870,
      "pab": 8871,
      "pour": 8872,
      "piz": 8873,
      "qe": 8874,
      "rg": 8875,
      "rw": 8876,
      "rare": 8877,
      "rain": 8878,
      "rough": 8879,
      "rah": 8880,
      "rory": 8881,
      "rubio": 8882,
      "rachel": 8883,
      "rouge": 8884,
      "sid": 8885,
      "sant": 8886,
      "swe": 8887,
      "sab": 8888,
      "sach": 8889,
      "sits": 8890,
      "soul": 8891,
      "tack": 8892,
      "tub": 8893,
      "tennis": 8894,
      "trend": 8895,
      "vast": 8896,
      "vick": 8897,
      "vital": 8898,
      "vene": 8899,
      "wand": 8900,
      "wound": 8901,
      "wreck": 8902,
      "xim": 8903,
      "yell": 8904,
      "zu": 8905,
      "##ais": 8906,
      "##aver": 8907,
      "##aos": 8908,
      "##lucky": 8909,
      "##sky": 8910,
      "##4life": 8911,
      "##till": 8912,
      "##tank": 8913,
      "##tem": 8914,
      "##town": 8915,
      "##troll": 8916,
      "##rol": 8917,
      "##rone": 8918,
      "##rase": 8919,
      "##ront": 8920,
      "##rina": 8921,
      "##racy": 8922,
      "##iate": 8923,
      "##mate": 8924,
      "##mos": 8925,
      "##made": 8926,
      "##mens": 8927,
      "##vi": 8928,
      "##vich": 8929,
      "##hem": 8930,
      "##efe": 8931,
      "##nv": 8932,
      "##nz": 8933,
      "##non": 8934,
      "##nin": 8935,
      "##nam": 8936,
      "##nider": 8937,
      "##gur": 8938,
      "##gil": 8939,
      "##gery": 8940,
      "##gaz": 8941,
      "##good": 8942,
      "##uate": 8943,
      "##uated": 8944,
      "##bir": 8945,
      "##bust": 8946,
      "##bast": 8947,
      "##bear": 8948,
      "##billion": 8949,
      "##baker": 8950,
      "##jad": 8951,
      "##jee": 8952,
      "##c3": 8953,
      "##crow": 8954,
      "##cup": 8955,
      "##dick": 8956,
      "##dromney": 8957,
      "##kk": 8958,
      "##kill": 8959,
      "##karl": 8960,
      "##xaminer": 8961,
      "##pi": 8962,
      "##pot": 8963,
      "##page": 8964,
      "##park": 8965,
      "##wa": 8966,
      "##woman": 8967,
      "##fly": 8968,
      "##from": 8969,
      "##f82": 8970,
      "##file": 8971,
      "##zucker": 8972,
      "##ales": 8973,
      "##alies": 8974,
      "##erves": 8975,
      "##inas": 8976,
      "##iners": 8977,
      "##anr": 8978,
      "##anor": 8979,
      "##ange": 8980,
      "thee": 8981,
      "theod": 8982,
      "##ato": 8983,
      "##atson": 8984,
      "##atmiller": 8985,
      "##oramic": 8986,
      "##rug": 8987,
      "##rud": 8988,
      "toward": 8989,
      "##ara": 8990,
      "##ico": 8991,
      "##ller": 8992,
      "##llman": 8993,
      "##stage": 8994,
      "insec": 8995,
      "##eding": 8996,
      "##edent": 8997,
      "##edwards": 8998,
      "##leans": 8999,
      "##leading": 9000,
      "isaac": 9001,
      "##aska": 9002,
      "##veland": 9003,
      "andey": 9004,
      "##acar": 9005,
      "##acles": 9006,
      "##ommod": 9007,
      "##etor": 9008,
      "##ido": 9009,
      "##ionary": 9010,
      "trumpin": 9011,
      "trumpfor": 9012,
      "trumprink": 9013,
      "##entially": 9014,
      "whack": 9015,
      "##add": 9016,
      "##adams": 9017,
      "##urd": 9018,
      "##urk": 9019,
      "##urse": 9020,
      "station": 9021,
      "stays": 9022,
      "strict": 9023,
      "##verse": 9024,
      "neck": 9025,
      "heid": 9026,
      "##chick": 9027,
      "shines": 9028,
      "shake": 9029,
      "##estone": 9030,
      "##estyle": 9031,
      "chi": 9032,
      "chave": 9033,
      "chicag": 9034,
      "##reshing": 9035,
      "##under": 9036,
      "loan": 9037,
      "lobby": 9038,
      "doses": 9039,
      "##icebucketchallenge": 9040,
      "##ush": 9041,
      "##rien": 9042,
      "##riot": 9043,
      "##anded": 9044,
      "##andler": 9045,
      "concl": 9046,
      "conrad": 9047,
      "##oding": 9048,
      "##odes": 9049,
      "degre": 9050,
      "##ersx": 9051,
      "##that": 9052,
      "##this": 9053,
      "##them": 9054,
      "amel": 9055,
      "##cel": 9056,
      "##aga": 9057,
      "##agazine": 9058,
      "##ilater": 9059,
      "##roe": 9060,
      "##rovers": 9061,
      "##roberts": 9062,
      "sole": 9063,
      "##erever": 9064,
      "asia": 9065,
      "##ended": 9066,
      "##ardo": 9067,
      "joint": 9068,
      "meant": 9069,
      "lew": 9070,
      "2016": 9071,
      "##eleakes": 9072,
      "##oker": 9073,
      "16t": 9074,
      "spain": 9075,
      "foley": 9076,
      "timeless": 9077,
      "maker": 9078,
      "maked": 9079,
      "realest": 9080,
      "realized": 9081,
      "seal": 9082,
      "sever": 9083,
      "secy": 9084,
      "barr": 9085,
      "agency": 9086,
      "##ively": 9087,
      "controvers": 9088,
      "manning": 9089,
      "manny": 9090,
      "donation": 9091,
      "donny": 9092,
      "donating": 9093,
      "donnie": 9094,
      "unpre": 9095,
      "unlucky": 9096,
      "unilater": 9097,
      "truman": 9098,
      "##ougher": 9099,
      "##hero": 9100,
      "pean": 9101,
      "##isten": 9102,
      "##space": 9103,
      "##inez": 9104,
      "client": 9105,
      "claud": 9106,
      "clothing": 9107,
      "timepieces": 9108,
      "bestberg": 9109,
      "##man5": 9110,
      "arod": 9111,
      "arming": 9112,
      "arthur": 9113,
      "##derdale": 9114,
      "proving": 9115,
      "proved": 9116,
      "proof": 9117,
      "prosecut": 9118,
      "watches": 9119,
      "##1994": 9120,
      "scenes": 9121,
      "boot": 9122,
      "marl": 9123,
      "mariano": 9124,
      "##ips": 9125,
      "##icker": 9126,
      "adore": 9127,
      "adrian": 9128,
      "##awa": 9129,
      "##ordin": 9130,
      "leads": 9131,
      "makeover": 9132,
      "##ishes": 9133,
      "##ishop": 9134,
      "##dec": 9135,
      "##oung": 9136,
      "businessmen": 9137,
      "##ivion": 9138,
      "##ivity": 9139,
      "##conf": 9140,
      "missy": 9141,
      "recession": 9142,
      "afph": 9143,
      "theme": 9144,
      "##newman": 9145,
      "terr": 9146,
      "##ables": 9147,
      "##eminist": 9148,
      "##licated": 9149,
      "##action": 9150,
      "trading": 9151,
      "sake": 9152,
      "blat": 9153,
      "blip": 9154,
      "reads": 9155,
      "complicated": 9156,
      "heres": 9157,
      "talents": 9158,
      "##ahah": 9159,
      "##quotes": 9160,
      "scotty": 9161,
      "##weets": 9162,
      "expo": 9163,
      "expans": 9164,
      "##xtra": 9165,
      "##ift": 9166,
      "##udice": 9167,
      "pock": 9168,
      "warner": 9169,
      "warns": 9170,
      "##werner19": 9171,
      "image": 9172,
      "perpet": 9173,
      "appeal": 9174,
      "appoint": 9175,
      "##ianne": 9176,
      "imperson": 9177,
      "##force": 9178,
      "grill": 9179,
      "grace": 9180,
      "gracious": 9181,
      "##tyw": 9182,
      "resc": 9183,
      "resil": 9184,
      "resolute": 9185,
      "builds": 9186,
[...]
