{
  "version": "1.0",
  "truncation": null,
  "padding": null,
  "added_tokens": [
    {
      "id": 0,
      "content": "<s>",
      "single_word": false,
      "lstrip": false,
      "rstrip": false,
      "normalized": false,
      "special": true
    },
    {
      "id": 1,
      "content": "<pad>",
      "single_word": false,
      "lstrip": false,
      "rstrip": false,
      "normalized": false,
      "special": true
    },
    {
      "id": 2,
      "content": "</s>",
      "single_word": false,
      "lstrip": false,
      "rstrip": false,
      "normalized": false,
      "special": true
    },
    {
      "id": 3,
      "content": "<unk>",
      "single_word": false,
      "lstrip": false,
      "rstrip": false,
      "normalized": false,
      "special": true
    },
    {
      "id": 4,
      "content": "<mask>",
      "single_word": false,
      "lstrip": false,
      "rstrip": false,
      "normalized": false,
      "special": true
    },
    {
      "id": 5,
      "content": "[UNK]",
      "single_word": false,
      "lstrip": false,
      "rstrip": false,
      "normalized": false,
      "special": true
    }
  ],
  "normalizer": {
    "type": "BertNormalizer",
    "clean_text": true,
    "handle_chinese_chars": true,
    "strip_accents": null,
    "lowercase": true
  },
  "pre_tokenizer": {
    "type": "BertPreTokenizer"
  },
  "post_processor": null,
  "decoder": {
    "type": "WordPiece",
    "prefix": "##",
    "cleanup": true
  },
  "model": {
    "type": "WordPiece",
    "unk_token": "[UNK]",
    "continuing_subword_prefix": "##",
    "max_input_chars_per_word": 100,
    "vocab": {
      "<s>": 0,
      "<pad>": 1,
      "</s>": 2,
      "<unk>": 3,
      "<mask>": 4,
      "[UNK]": 5,
      "!": 6,
      "\"": 7,
      "$": 8,
      "%": 9,
      "&": 10,
      "'": 11,
      "(": 12,
      ")": 13,
      "*": 14,
      "+": 15,
      ",": 16,
      "-": 17,
      ".": 18,
      "/": 19,
      "0": 20,
      "1": 21,
      "2": 22,
      "3": 23,
      "4": 24,
      "5": 25,
      "6": 26,
      "7": 27,
      "8": 28,
      "9": 29,
      ":": 30,
      ";": 31,
      "=": 32,
      "?": 33,
      "[": 34,
      "]": 35,
      "^": 36,
      "_": 37,
      "a": 38,
      "b": 39,
      "c": 40,
      "d": 41,
      "e": 42,
      "f": 43,
      "g": 44,
      "h": 45,
      "i": 46,
      "j": 47,
      "k": 48,
      "l": 49,
      "m": 50,
      "n": 51,
      "o": 52,
      "p": 53,
      "q": 54,
      "r": 55,
      "s": 56,
      "t": 57,
      "u": 58,
      "v": 59,
      "w": 60,
      "x": 61,
      "y": 62,
      "z": 63,
      "{": 64,
      "|": 65,
      "}": 66,
      "~": 67,
      "##n": 68,
      "##i": 69,
      "##t": 70,
      "##2": 71,
      "##1": 72,
      "##7": 73,
      "##6": 74,
      "##h": 75,
      "##u": 76,
      "##m": 77,
      "##b": 78,
      "##3": 79,
      "##0": 80,
      "##a": 81,
      "##s": 82,
      "##e": 83,
      "##w": 84,
      "##y": 85,
      "##r": 86,
      "##v": 87,
      "##c": 88,
      "##9": 89,
      "##4": 90,
      "##5": 91,
      "##8": 92,
      "##l": 93,
      "##f": 94,
      "##o": 95,
      "##d": 96,
      "##g": 97,
      "##k": 98,
      "##p": 99,
      "##z": 100,
      "##x": 101,
      "##q": 102,
      "##j": 103,
      "##er": 104,
      "th": 105,
      "##in": 106,
      "##es": 107,
      "##on": 108,
      "##or": 109,
      "##at": 110,
      "##ing": 111,
      "##ar": 112,
      "##ll": 113,
      "##an": 114,
      "to": 115,
      "##ou": 116,
      "##en": 117,
      "##ed": 118,
      "the": 119,
      "##it": 120,
      "##re": 121,
      "##st": 122,
      "in": 123,
      "##mp": 124,
      "is": 125,
      "##al": 126,
      "of": 127,
      "##ro": 128,
      "##ic": 129,
      "##le": 130,
      "##ut": 131,
      "be": 132,
      "##as": 133,
      "##ion": 134,
      "##ly": 135,
      "##ig": 136,
      "##ac": 137,
      "##ve": 138,
      "##is": 139,
      "re": 140,
      "##ot": 141,
      "for": 142,
      "amp": 143,
      "##et": 144,
      "so": 145,
      "on": 146,
      "##ill": 147,
      "st": 148,
      "it": 149,
      "##ow": 150,
      "##ay": 151,
      "co": 152,
      "an": 153,
      "##ld": 154,
      "##ct": 155,
      "we": 156,
      "##ent": 157,
      "##me": 158,
      "will": 159,
      "##el": 160,
      "##id": 161,
      "##ch": 162,
      "##igh": 163,
      "wh": 164,
      "that": 165,
      "##la": 166,
      "##all": 167,
      "tes": 168,
      "##ad": 169,
      "##ur": 170,
      "ne": 171,
      "##ver": 172,
      "pro": 173,
      "##oo": 174,
      "su": 175,
      "##ith": 176,
      "##ter": 177,
      "but": 178,
      "##ir": 179,
      "you": 180,
      "##th": 181,
      "tesla": 182,
      "ha": 183,
      "with": 184,
      "##se": 185,
      "this": 186,
      "mo": 187,
      "##ke": 188,
      "tr": 189,
      "##il": 190,
      "en": 191,
      "sh": 192,
      "##ust": 193,
      "##ould": 194,
      "ex": 195,
      "##op": 196,
      "are": 197,
      "##ars": 198,
      "10": 199,
      "not": 200,
      "li": 201,
      "##ce": 202,
      "##ab": 203,
      "at": 204,
      "##ere": 205,
      "##un": 206,
      "##ight": 207,
      "do": 208,
      "##ea": 209,
      "or": 210,
      "sp": 211,
      "as": 212,
      "##ally": 213,
      "15": 214,
      "##ers": 215,
      "12": 216,
      "11": 217,
      "##pp": 218,
      "14": 219,
      "al": 220,
      "13": 221,
      "##ation": 222,
      "##ess": 223,
      "##est": 224,
      "se": 225,
      "##ate": 226,
      "de": 227,
      "ma": 228,
      "wor": 229,
      "con": 230,
      "##ul": 231,
      "##ge": 232,
      "##ant": 233,
      "ch": 234,
      "##ck": 235,
      "ab": 236,
      "##im": 237,
      "##oun": 238,
      "##ra": 239,
      "##ip": 240,
      "##ity": 241,
      "16": 242,
      "than": 243,
      "all": 244,
      "##ore": 245,
      "and": 246,
      "no": 247,
      "ro": 248,
      "by": 249,
      "un": 250,
      "##ks": 251,
      "have": 252,
      "##ard": 253,
      "##and": 254,
      "##out": 255,
      "##ri": 256,
      "##act": 257,
      "##ace": 258,
      "##ine": 259,
      "##ol": 260,
      "##ort": 261,
      "yes": 262,
      "just": 263,
      "was": 264,
      "##ue": 265,
      "##ood": 266,
      "##gh": 267,
      "##ap": 268,
      "##reat": 269,
      "me": 270,
      "##um": 271,
      "comp": 272,
      "fro": 273,
      "go": 274,
      "from": 275,
      "##os": 276,
      "car": 277,
      "good": 278,
      "la": 279,
      "he": 280,
      "##art": 281,
      "##per": 282,
      "##one": 283,
      "##us": 284,
      "its": 285,
      "##ive": 286,
      "like": 287,
      "##if": 288,
      "##ure": 289,
      "if": 290,
      "##king": 291,
      "ye": 292,
      "up": 293,
      "great": 294,
      "##ction": 295,
      "imp": 296,
      "high": 297,
      "##ough": 298,
      "need": 299,
      "##ment": 300,
      "com": 301,
      "##ain": 302,
      "can": 303,
      "prob": 304,
      "more": 305,
      "about": 306,
      "mod": 307,
      "would": 308,
      "us": 309,
      "space": 310,
      "##ie": 311,
      "sa": 312,
      "##ack": 313,
      "fe": 314,
      "##om": 315,
      "pr": 316,
      "fa": 317,
      "eng": 318,
      "there": 319,
      "lo": 320,
      "##ound": 321,
      "out": 322,
      "my": 323,
      "##am": 324,
      "##ect": 325,
      "##uch": 326,
      "##00": 327,
      "##du": 328,
      "##ong": 329,
      "ar": 330,
      "##end": 331,
      "##ase": 332,
      "##ide": 333,
      "has": 334,
      "should": 335,
      "##ies": 336,
      "bet": 337,
      "pl": 338,
      "##ime": 339,
      "they": 340,
      "produ": 341,
      "model": 342,
      "##able": 343,
      "##ite": 344,
      "##ull": 345,
      "much": 346,
      "##ist": 347,
      "##iz": 348,
      "ad": 349,
      "am": 350,
      "##any": 351,
      "rock": 352,
      "##ry": 353,
      "any": 354,
      "##lo": 355,
      "##are": 356,
      "##ci": 357,
      "##ft": 358,
      "time": 359,
      "some": 360,
      "app": 361,
      "aut": 362,
      "one": 363,
      "##ont": 364,
      "bu": 365,
      "##ving": 366,
      "##ven": 367,
      "act": 368,
      "##ign": 369,
      "te": 370,
      "what": 371,
      "le": 372,
      "##mo": 373,
      "too": 374,
      "our": 375,
      "##hip": 376,
      "po": 377,
      "##ower": 378,
      "##em": 379,
      "##xt": 380,
      "get": 381,
      "hard": 382,
      "##ass": 383,
      "most": 384,
      "##der": 385,
      "##ous": 386,
      "##pt": 387,
      "##qu": 388,
      "over": 389,
      "may": 390,
      "pe": 391,
      "##ff": 392,
      "fl": 393,
      "next": 394,
      "##ice": 395,
      "##con": 396,
      "ac": 397,
      "ta": 398,
      "ever": 399,
      "rocket": 400,
      "new": 401,
      "##ib": 402,
      "only": 403,
      "##ably": 404,
      "work": 405,
      "##gr": 406,
      "##ink": 407,
      "engine": 408,
      "true": 409,
      "ear": 410,
      "##so": 411,
      "##ire": 412,
      "##ays": 413,
      "sol": 414,
      "##ich": 415,
      "##unch": 416,
      "fir": 417,
      "ver": 418,
      "peop": 419,
      "wee": 420,
      "dri": 421,
      "##ia": 422,
      "##ans": 423,
      "super": 424,
      "people": 425,
      "pre": 426,
      "##int": 427,
      "soon": 428,
      "##our": 429,
      "make": 430,
      "were": 431,
      "also": 432,
      "ag": 433,
      "##age": 434,
      "inc": 435,
      "##ha": 436,
      "year": 437,
      "yea": 438,
      "stars": 439,
      "loo": 440,
      "yeah": 441,
      "launch": 442,
      "mon": 443,
      "des": 444,
      "##19": 445,
      "actu": 446,
      "now": 447,
      "##10": 448,
      "##ware": 449,
      "##ach": 450,
      "##ind": 451,
      "cars": 452,
      "##ome": 453,
      "##75": 454,
      "inter": 455,
      "starship": 456,
      "thr": 457,
      "##nt": 458,
      "probably": 459,
      "oth": 460,
      "##be": 461,
      "##72": 462,
      "##atter": 463,
      "spacex": 464,
      "##76": 465,
      "##73": 466,
      "##74": 467,
      "##ory": 468,
      "##ting": 469,
      "##85": 470,
      "exact": 471,
      "hop": 472,
      "sure": 473,
      "which": 474,
      "##12": 475,
      "##16": 476,
      "##15": 477,
      "##14": 478,
      "##82": 479,
      "##13": 480,
      "##79": 481,
      "##86": 482,
      "##83": 483,
      "##89": 484,
      "##84": 485,
      "your": 486,
      "production": 487,
      "##80": 488,
      "##ster": 489,
      "per": 490,
      "##70": 491,
      "##ud": 492,
      "very": 493,
      "long": 494,
      "##eam": 495,
      "tw": 496,
      "##ber": 497,
      "int": 498,
      "##bit": 499,
      "exactly": 500,
      "many": 501,
      "fal": 502,
      "##iv": 503,
      "part": 504,
      "##ult": 505,
      "first": 506,
      "##ors": 507,
      "who": 508,
      "cont": 509,
      "##ence": 510,
      "even": 511,
      "team": 512,
      "acc": 513,
      "lot": 514,
      "real": 515,
      "power": 516,
      "when": 517,
      "qu": 518,
      "right": 519,
      "##ens": 520,
      "impro": 521,
      "land": 522,
      "haha": 523,
      "orbit": 524,
      "res": 525,
      "##ance": 526,
      "thanks": 527,
      "exp": 528,
      "better": 529,
      "##pe": 530,
      "##oth": 531,
      "cr": 532,
      "##ated": 533,
      "month": 534,
      "##32": 535,
      "other": 536,
      "##ount": 537,
      "coming": 538,
      "##50": 539,
      "##vel": 540,
      "im": 541,
      "ser": 542,
      "##99": 543,
      "##ange": 544,
      "how": 545,
      "way": 546,
      "##fer": 547,
      "##arg": 548,
      "##hing": 549,
      "##42": 550,
      "##46": 551,
      "##56": 552,
      "##36": 553,
      "##52": 554,
      "##ions": 555,
      "##own": 556,
      "fun": 557,
      "##gy": 558,
      "actually": 559,
      "##ully": 560,
      "maybe": 561,
      "kn": 562,
      "years": 563,
      "mars": 564,
      "##30": 565,
      "##ree": 566,
      "##ater": 567,
      "big": 568,
      "every": 569,
      "##ric": 570,
      "rap": 571,
      "##92": 572,
      "##96": 573,
      "##40": 574,
      "does": 575,
      "week": 576,
      "##ary": 577,
      "##ild": 578,
      "sy": 579,
      "test": 580,
      "few": 581,
      "bo": 582,
      "design": 583,
      "##ru": 584,
      "##day": 585,
      "##urn": 586,
      "spe": 587,
      "hope": 588,
      "##wn": 589,
      "then": 590,
      "thats": 591,
      "##90": 592,
      "could": 593,
      "min": 594,
      "use": 595,
      "still": 596,
      "##ade": 597,
      "sm": 598,
      "dont": 599,
      "point": 600,
      "##ial": 601,
      "##oss": 602,
      "##kes": 603,
      "soft": 604,
      "def": 605,
      "back": 606,
      "well": 607,
      "cl": 608,
      "aw": 609,
      "ele": 610,
      "##lease": 611,
      "##ility": 612,
      "##ical": 613,
      "falcon": 614,
      "flight": 615,
      "##ible": 616,
      "pu": 617,
      "##45": 618,
      "##33": 619,
      "##ath": 620,
      "supp": 621,
      "dra": 622,
      "##ings": 623,
      "##ty": 624,
      "rec": 625,
      "dif": 626,
      "ph": 627,
      "under": 628,
      "##ile": 629,
      "##met": 630,
      "##ep": 631,
      "software": 632,
      "##ating": 633,
      "##ically": 634,
      "##ise": 635,
      "happ": 636,
      "##11": 637,
      "did": 638,
      "##ang": 639,
      "##77": 640,
      "##fe": 641,
      "ext": 642,
      "solar": 643,
      "##ose": 644,
      "##95": 645,
      "##most": 646,
      "earth": 647,
      "air": 648,
      "##26": 649,
      "##88": 650,
      "lit": 651,
      "##35": 652,
      "##44": 653,
      "almost": 654,
      "##ast": 655,
      "best": 656,
      "boo": 657,
      "##ations": 658,
      "sc": 659,
      "cost": 660,
      "af": 661,
      "##ines": 662,
      "their": 663,
      "world": 664,
      "##ons": 665,
      "think": 666,
      "##20": 667,
      "know": 668,
      "cap": 669,
      "reg": 670,
      "build": 671,
      "ve": 672,
      "own": 673,
      "##te": 674,
      "fin": 675,
      "add": 676,
      "##ering": 677,
      "star": 678,
      "cool": 679,
      "elect": 680,
      "##66": 681,
      "##row": 682,
      "improve": 683,
      "love": 684,
      "##ful": 685,
      "##elf": 686,
      "want": 687,
      "##oc": 688,
      "really": 689,
      "fut": 690,
      "hum": 691,
      "##ph": 692,
      "##orm": 693,
      "needed": 694,
      "rep": 695,
      "see": 696,
      "##tle": 697,
      "##ron": 698,
      "##ick": 699,
      "fact": 700,
      "##les": 701,
      "start": 702,
      "been": 703,
      "##iss": 704,
      "##ves": 705,
      "those": 706,
      "cons": 707,
      "sl": 708,
      "##use": 709,
      "##ys": 710,
      "same": 711,
      "after": 712,
      "##ious": 713,
      "day": 714,
      "hel": 715,
      "ob": 716,
      "sn": 717,
      "##71": 718,
      "working": 719,
      "going": 720,
      "##78": 721,
      "##orn": 722,
      "gen": 723,
      "ok": 724,
      "##93": 725,
      "##94": 726,
      "##ady": 727,
      "##22": 728,
      "##55": 729,
      "them": 730,
      "future": 731,
      "opt": 732,
      "ins": 733,
      "##ish": 734,
      "end": 735,
      "rapt": 736,
      "ca": 737,
      "##iver": 738,
      "drag": 739,
      "electric": 740,
      "##fully": 741,
      "requ": 742,
      "##els": 743,
      "##ilot": 744,
      "##iew": 745,
      "id": 746,
      "mass": 747,
      "##icle": 748,
      "thrust": 749,
      "##ics": 750,
      "autop": 751,
      "##erm": 752,
      "##stem": 753,
      "ind": 754,
      "##unn": 755,
      "tech": 756,
      "off": 757,
      "bec": 758,
      "##imes": 759,
      "system": 760,
      "##up": 761,
      "##ments": 762,
      "full": 763,
      "##ag": 764,
      "##ved": 765,
      "##ense": 766,
      "import": 767,
      "landing": 768,
      "gr": 769,
      "being": 770,
      "pret": 771,
      "down": 772,
      "sound": 773,
      "##ord": 774,
      "into": 775,
      "far": 776,
      "autopilot": 777,
      "##60": 778,
      "##bl": 779,
      "##lem": 780,
      "##eav": 781,
      "art": 782,
      "dis": 783,
      "##81": 784,
      "comple": 785,
      "problem": 786,
      "##ize": 787,
      "cur": 788,
      "##34": 789,
      "pretty": 790,
      "fs": 791,
      "somet": 792,
      "del": 793,
      "heav": 794,
      "press": 795,
      "though": 796,
      "##enc": 797,
      "ener": 798,
      "fsd": 799,
      "##ying": 800,
      "hopefully": 801,
      "done": 802,
      "##ix": 803,
      "##mit": 804,
      "driving": 805,
      "months": 806,
      "made": 807,
      "pay": 808,
      "##ute": 809,
      "help": 810,
      "trans": 811,
      "energy": 812,
      "batter": 813,
      "had": 814,
      "jo": 815,
      "es": 816,
      "say": 817,
      "bl": 818,
      "##ward": 819,
      "max": 820,
      "why": 821,
      "##fore": 822,
      "##ark": 823,
      "fair": 824,
      "##ced": 825,
      "dragon": 826,
      "poss": 827,
      "##ats": 828,
      "str": 829,
      "ship": 830,
      "short": 831,
      "small": 832,
      "fr": 833,
      "##atch": 834,
      "##thing": 835,
      "seem": 836,
      "support": 837,
      "cy": 838,
      "ho": 839,
      "sign": 840,
      "##veral": 841,
      "life": 842,
      "last": 843,
      "important": 844,
      "heavy": 845,
      "less": 846,
      "adv": 847,
      "cle": 848,
      "low": 849,
      "wr": 850,
      "##ane": 851,
      "100": 852,
      "engines": 853,
      "publ": 854,
      "op": 855,
      "##mm": 856,
      "road": 857,
      "human": 858,
      "days": 859,
      "vers": 860,
      "##az": 861,
      "raptor": 862,
      "call": 863,
      "gu": 864,
      "##ame": 865,
      "##cess": 866,
      "before": 867,
      "sub": 868,
      "##ability": 869,
      "veh": 870,
      "techn": 871,
      "lea": 872,
      "tunn": 873,
      "cent": 874,
      "eff": 875,
      "miss": 876,
      "youre": 877,
      "##erson": 878,
      "both": 879,
      "ev": 880,
      "##ways": 881,
      "company": 882,
      "appro": 883,
      "20": 884,
      "bas": 885,
      "##25": 886,
      "##ese": 887,
      "tra": 888,
      "conf": 889,
      "speed": 890,
      "gener": 891,
      "met": 892,
      "roo": 893,
      "##way": 894,
      "##91": 895,
      "##87": 896,
      "ste": 897,
      "count": 898,
      "vide": 899,
      "##ell": 900,
      "##43": 901,
      "ai": 902,
      "sur": 903,
      "dep": 904,
      "incre": 905,
      "##inite": 906,
      "##ific": 907,
      "take": 908,
      "contro": 909,
      "##ress": 910,
      "##ert": 911,
      "enough": 912,
      "through": 913,
      "30": 914,
      "gig": 915,
      "##li": 916,
      "ret": 917,
      "val": 918,
      "where": 919,
      "around": 920,
      "product": 921,
      "drive": 922,
      "##fet": 923,
      "inv": 924,
      "level": 925,
      "bor": 926,
      "later": 927,
      "red": 928,
      "term": 929,
      "##reci": 930,
      "bel": 931,
      "differ": 932,
      "exce": 933,
      "extre": 934,
      "something": 935,
      "br": 936,
      "cor": 937,
      "gi": 938,
      "times": 939,
      "today": 940,
      "60": 941,
      "##ready": 942,
      "##ets": 943,
      "already": 944,
      "serv": 945,
      "little": 946,
      "##form": 947,
      "##ition": 948,
      "sec": 949,
      "##oney": 950,
      "upd": 951,
      "amaz": 952,
      "booster": 953,
      "might": 954,
      "par": 955,
      "ra": 956,
      "always": 957,
      "50": 958,
      "cal": 959,
      "gas": 960,
      "##ative": 961,
      "##ank": 962,
      "two": 963,
      "##initely": 964,
      "##65": 965,
      "##we": 966,
      "makes": 967,
      "abs": 968,
      "definitely": 969,
      "public": 970,
      "##62": 971,
      "things": 972,
      "extreme": 973,
      "hy": 974,
      "self": 975,
      "doing": 976,
      "order": 977,
      "upgr": 978,
      "video": 979,
      "giga": 980,
      "man": 981,
      "money": 982,
      "##ual": 983,
      "these": 984,
      "release": 985,
      "several": 986,
      "curr": 987,
      "amazing": 988,
      "##imp": 989,
      "##ero": 990,
      "maj": 991,
      "engineering": 992,
      "looks": 993,
      "obv": 994,
      "av": 995,
      "med": 996,
      "safet": 997,
      "beta": 998,
      "leg": 999,
      "safety": 1000,
      "sim": 1001,
      "rev": 1002,
      "ref": 1003,
      "plan": 1004,
      "appreci": 1005,
      "tax": 1006,
      "again": 1007,
      "matter": 1008,
      "tal": 1009,
      "limit": 1010,
      "change": 1011,
      "##olo": 1012,
      "needs": 1013,
      "fast": 1014,
      "##load": 1015,
      "doesnt": 1016,
      "open": 1017,
      "version": 1018,
      "major": 1019,
      "fix": 1020,
      "please": 1021,
      "##ble": 1022,
      "##iles": 1023,
      "dec": 1024,
      "comm": 1025,
      "turn": 1026,
      "##ates": 1027,
      "inst": 1028,
      "early": 1029,
      "pressure": 1030,
      "##ency": 1031,
      "never": 1032,
      "happen": 1033,
      "starl": 1034,
      "boring": 1035,
      "40": 1036,
      "range": 1037,
      "sk": 1038,
      "show": 1039,
      "weeks": 1040,
      "cant": 1041,
      "due": 1042,
      "eas": 1043,
      "fla": 1044,
      "##less": 1045,
      "##iting": 1046,
      "##charg": 1047,
      "150": 1048,
      "roll": 1049,
      "interest": 1050,
      "battery": 1051,
      "control": 1052,
      "90": 1053,
      "stop": 1054,
      "said": 1055,
      "current": 1056,
      "80": 1057,
      "##ts": 1058,
      "##uck": 1059,
      "##ak": 1060,
      "##97": 1061,
      "##ds": 1062,
      "##alf": 1063,
      "##ude": 1064,
      "awes": 1065,
      "regul": 1066,
      "lower": 1067,
      "oper": 1068,
      "##98": 1069,
      "iss": 1070,
      "70": 1071,
      "mot": 1072,
      "##17": 1073,
      "##18": 1074,
      "##ause": 1075,
      "##ason": 1076,
      "120": 1077,
      "worth": 1078,
      "sounds": 1079,
      "possible": 1080,
      "starlink": 1081,
      "awesome": 1082,
      "pri": 1083,
      "simp": 1084,
      "##lin": 1085,
      "##ution": 1086,
      "read": 1087,
      "service": 1088,
      "bit": 1089,
      "##ail": 1090,
      "##cial": 1091,
      "orbital": 1092,
      "because": 1093,
      "cyber": 1094,
      "bra": 1095,
      "ke": 1096,
      "person": 1097,
      "sor": 1098,
      "vis": 1099,
      "##co": 1100,
      "##dy": 1101,
      "summ": 1102,
      "ent": 1103,
      "110": 1104,
      "chang": 1105,
      "higher": 1106,
      "supercharg": 1107,
      "crit": 1108,
      "ap": 1109,
      "dire": 1110,
      "vol": 1111,
      "##ash": 1112,
      "140": 1113,
      "congr": 1114,
      "160": 1115,
      "intern": 1116,
      "sorry": 1117,
      "hour": 1118,
      "##gg": 1119,
      "##gen": 1120,
      "##ina": 1121,
      "reus": 1122,
      "##ural": 1123,
      "moon": 1124,
      "130": 1125,
      "allow": 1126,
      "##ieve": 1127,
      "##ized": 1128,
      "look": 1129,
      "clear": 1130,
      "clo": 1131,
      "mer": 1132,
      "##mor": 1133,
      "##illion": 1134,
      "making": 1135,
      "deliver": 1136,
      "light": 1137,
      "pass": 1138,
      "##ily": 1139,
      "his": 1140,
      "##ume": 1141,
      "##come": 1142,
      "thing": 1143,
      "unt": 1144,
      "factory": 1145,
      "fo": 1146,
      "free": 1147,
      "set": 1148,
      "side": 1149,
      "wind": 1150,
      "##red": 1151,
      "##fact": 1152,
      "##itive": 1153,
      "without": 1154,
      "using": 1155,
      "anything": 1156,
      "autom": 1157,
      "fire": 1158,
      "mach": 1159,
      "ris": 1160,
      "ton": 1161,
      "vs": 1162,
      "war": 1163,
      "while": 1164,
      "che": 1165,
      "comput": 1166,
      "likely": 1167,
      "diff": 1168,
      "close": 1169,
      "don": 1170,
      "nor": 1171,
      "##ps": 1172,
      "##ature": 1173,
      "play": 1174,
      "quest": 1175,
      "requir": 1176,
      "##io": 1177,
      "exc": 1178,
      "china": 1179,
      "goes": 1180,
      "ago": 1181,
      "cre": 1182,
      "mult": 1183,
      "num": 1184,
      "rate": 1185,
      "sate": 1186,
      "##lan": 1187,
      "head": 1188,
      "satell": 1189,
      "25": 1190,
      "must": 1191,
      "wow": 1192,
      "##23": 1193,
      "##24": 1194,
      "##63": 1195,
      "##64": 1196,
      "##ugh": 1197,
      "##wh": 1198,
      "##rect": 1199,
      "try": 1200,
      "##iming": 1201,
      "looking": 1202,
      "center": 1203,
      "extremely": 1204,
      "det": 1205,
      "night": 1206,
      "##val": 1207,
      "##uring": 1208,
      "##ately": 1209,
      "loc": 1210,
      "fly": 1211,
      "half": 1212,
      "vac": 1213,
      "##ially": 1214,
      "##ever": 1215,
      "##ject": 1216,
      "##ider": 1217,
      "used": 1218,
      "post": 1219,
      "incl": 1220,
      "##ather": 1221,
      "vehicle": 1222,
      "nice": 1223,
      "##tw": 1224,
      "##stain": 1225,
      "rem": 1226,
      "sustain": 1227,
      "feel": 1228,
      "##cially": 1229,
      "temp": 1230,
      "owners": 1231,
      "least": 1232,
      "update": 1233,
      "bad": 1234,
      "sw": 1235,
      "sense": 1236,
      "yet": 1237,
      "yup": 1238,
      "##ient": 1239,
      "##gn": 1240,
      "tomor": 1241,
      "stand": 1242,
      "compet": 1243,
      "tomorrow": 1244,
      "cour": 1245,
      "fully": 1246,
      "sing": 1247,
      "tons": 1248,
      "##ied": 1249,
      "##ai": 1250,
      "##vid": 1251,
      "##53": 1252,
      "##54": 1253,
      "##de": 1254,
      "sun": 1255,
      "auto": 1256,
      "##gress": 1257,
      "##pell": 1258,
      "tunnel": 1259,
      "absol": 1260,
      "bar": 1261,
      "got": 1262,
      "pos": 1263,
      "##eric": 1264,
      "##anced": 1265,
      "##eng": 1266,
      "nothing": 1267,
      "deep": 1268,
      "hardware": 1269,
      "roof": 1270,
      "until": 1271,
      "gt": 1272,
      "home": 1273,
      "##ues": 1274,
      "##arge": 1275,
      "##anies": 1276,
      "propell": 1277,
      "##ational": 1278,
      "companies": 1279,
      "tex": 1280,
      "##ruck": 1281,
      "article": 1282,
      "##ology": 1283,
      "absolute": 1284,
      "iron": 1285,
      "let": 1286,
      "water": 1287,
      "zero": 1288,
      "##ness": 1289,
      "##ten": 1290,
      "##truck": 1291,
      "##inal": 1292,
      "##ond": 1293,
      "##reed": 1294,
      "##icles": 1295,
      "##ential": 1296,
      "comb": 1297,
      "getting": 1298,
      "bigg": 1299,
      "texas": 1300,
      "dat": 1301,
      "put": 1302,
      "wa": 1303,
      "##ids": 1304,
      "##velop": 1305,
      "idea": 1306,
      "called": 1307,
      "review": 1308,
      "propellant": 1309,
      "ach": 1310,
      "aff": 1311,
      "##ian": 1312,
      "##ium": 1313,
      "reach": 1314,
      "##ield": 1315,
      "perform": 1316,
      "liter": 1317,
      "regulat": 1318,
      "cybertruck": 1319,
      "wont": 1320,
      "##med": 1321,
      "##pect": 1322,
      "##mpt": 1323,
      "##ict": 1324,
      "##icult": 1325,
      "progress": 1326,
      "##pecially": 1327,
      "fund": 1328,
      "slight": 1329,
      "especially": 1330,
      "difficult": 1331,
      "gra": 1332,
      "imo": 1333,
      "stage": 1334,
      "move": 1335,
      "##ulation": 1336,
      "fav": 1337,
      "mostly": 1338,
      "expect": 1339,
      "invest": 1340,
      "volume": 1341,
      "absolutely": 1342,
      "case": 1343,
      "lat": 1344,
      "##eed": 1345,
      "##ases": 1346,
      "##aces": 1347,
      "rear": 1348,
      "area": 1349,
      "secon": 1350,
      "##iforn": 1351,
      "optim": 1352,
      "seems": 1353,
      "hold": 1354,
      "californ": 1355,
      "bro": 1356,
      "creat": 1357,
      "top": 1358,
      "##ites": 1359,
      "reason": 1360,
      "come": 1361,
      "exper": 1362,
      "att": 1363,
      "doge": 1364,
      "##ization": 1365,
      "away": 1366,
      "phys": 1367,
      "building": 1368,
      "thought": 1369,
      "course": 1370,
      "net": 1371,
      "##ning": 1372,
      "##cra": 1373,
      "##eres": 1374,
      "ann": 1375,
      "##ention": 1376,
      "##eak": 1377,
      "betwe": 1378,
      "rapid": 1379,
      "mins": 1380,
      "##iously": 1381,
      "technology": 1382,
      "california": 1383,
      "between": 1384,
      "eu": 1385,
      "hot": 1386,
      "kind": 1387,
      "miles": 1388,
      "pack": 1389,
      "rest": 1390,
      "##bal": 1391,
      "##itter": 1392,
      "develop": 1393,
      "able": 1394,
      "care": 1395,
      "option": 1396,
      "payload": 1397,
      "interesting": 1398,
      "risk": 1399,
      "found": 1400,
      "##ock": 1401,
      "##port": 1402,
      "live": 1403,
      "##ctions": 1404,
      "##ending": 1405,
      "rockets": 1406,
      "parts": 1407,
      "##other": 1408,
      "body": 1409,
      "value": 1410,
      "check": 1411,
      "question": 1412,
      "multip": 1413,
      "data": 1414,
      "performance": 1415,
      "75": 1416,
      "aiming": 1417,
      "cust": 1418,
      "ox": 1419,
      "old": 1420,
      "rad": 1421,
      "via": 1422,
      "##ces": 1423,
      "##gra": 1424,
      "##itch": 1425,
      "##ros": 1426,
      "form": 1427,
      "anyone": 1428,
      "buy": 1429,
      "##ffic": 1430,
      "mission": 1431,
      "##craft": 1432,
      "35": 1433,
      "cam": 1434,
      "dou": 1435,
      "sch": 1436,
      "##wer": 1437,
      "##line": 1438,
      "##ator": 1439,
      "cover": 1440,
      "##ures": 1441,
      "sell": 1442,
      "goal": 1443,
      "price": 1444,
      "general": 1445,
      "easy": 1446,
      "hours": 1447,
      "custom": 1448,
      "dro": 1449,
      "em": 1450,
      "##aut": 1451,
      "testing": 1452,
      "neural": 1453,
      "const": 1454,
      "pres": 1455,
      "didnt": 1456,
      "wrong": 1457,
      "upgrad": 1458,
      "single": 1459,
      "literally": 1460,
      "36": 1461,
      "cert": 1462,
      "##uel": 1463,
      "##ead": 1464,
      "##ked": 1465,
      "##ality": 1466,
      "forward": 1467,
      "wel": 1468,
      "whe": 1469,
      "americ": 1470,
      "accel": 1471,
      "happy": 1472,
      "cape": 1473,
      "consider": 1474,
      "steel": 1475,
      "sin": 1476,
      "##ins": 1477,
      "##ale": 1478,
      "trying": 1479,
      "heat": 1480,
      "twitter": 1481,
      "improvements": 1482,
      "complete": 1483,
      "media": 1484,
      "against": 1485,
      "critical": 1486,
      "22": 1487,
      "46": 1488,
      "76": 1489,
      "btw": 1490,
      "##ities": 1491,
      "station": 1492,
      "##ident": 1493,
      "suc": 1494,
      "##ilt": 1495,
      "##und": 1496,
      "##ulations": 1497,
      "rob": 1498,
      "mean": 1499,
      "means": 1500,
      "place": 1501,
      "false": 1502,
      "prior": 1503,
      "direct": 1504,
      "reusable": 1505,
      "##lanet": 1506,
      "welcome": 1507,
      "26": 1508,
      "56": 1509,
      "66": 1510,
      "86": 1511,
      "96": 1512,
      "here": 1513,
      "km": 1514,
      "##ted": 1515,
      "##ually": 1516,
      "##atic": 1517,
      "##atically": 1518,
      "##llow": 1519,
      "another": 1520,
      "106": 1521,
      "156": 1522,
      "126": 1523,
      "116": 1524,
      "146": 1525,
      "alth": 1526,
      "136": 1527,
      "166": 1528,
      "##uss": 1529,
      "##omm": 1530,
      "##ists": 1531,
      "quite": 1532,
      "acceler": 1533,
      "42": 1534,
      "45": 1535,
      "52": 1536,
      "55": 1537,
      "cell": 1538,
      "hand": 1539,
      "sci": 1540,
      "##ital": 1541,
      "##itude": 1542,
      "##ising": 1543,
      "prot": 1544,
      "##ool": 1545,
      "main": 1546,
      "abo": 1547,
      "clos": 1548,
      "signific": 1549,
      "appreciated": 1550,
      "second": 1551,
      "significant": 1552,
      "32": 1553,
      "62": 1554,
      "72": 1555,
      "82": 1556,
      "92": 1557,
      "name": 1558,
      "view": 1559,
      "##ho": 1560,
      "##ern": 1561,
      "##ices": 1562,
      "102": 1563,
      "152": 1564,
      "122": 1565,
      "112": 1566,
      "142": 1567,
      "132": 1568,
      "deal": 1569,
      "162": 1570,
      "mode": 1571,
      "news": 1572,
      "contin": 1573,
      "fairing": 1574,
      "advanced": 1575,
      "correct": 1576,
      "computer": 1577,
      "detail": 1578,
      "above": 1579,
      "cry": 1580,
      "game": 1581,
      "three": 1582,
      "##asing": 1583,
      "##ither": 1584,
      "recomm": 1585,
      "disc": 1586,
      "complex": 1587,
      "although": 1588,
      "recommend": 1589,
      "85": 1590,
      "95": 1591,
      "city": 1592,
      "dist": 1593,
      "non": 1594,
      "size": 1595,
      "##her": 1596,
      "##wall": 1597,
      "##ouse": 1598,
      "inf": 1599,
      "105": 1600,
      "1000": 1601,
      "165": 1602,
      "agreed": 1603,
      "slow": 1604,
      "increase": 1605,
      "return": 1606,
      "limited": 1607,
      "slightly": 1608,
      "24": 1609,
      "64": 1610,
      "65": 1611,
      "el": 1612,
      "gam": 1613,
      "mid": 1614,
      "pol": 1615,
      "sigh": 1616,
      "wide": 1617,
      "##ms": 1618,
      "##av": 1619,
      "##ear": 1620,
      "tot": 1621,
      "coll": 1622,
      "truck": 1623,
      "155": 1624,
      "125": 1625,
      "115": 1626,
      "145": 1627,
      "135": 1628,
      "thank": 1629,
      "##mental": 1630,
      "prim": 1631,
      "theyre": 1632,
      "accur": 1633,
      "designed": 1634,
      "effect": 1635,
      "approval": 1636,
      "believe": 1637,
      "motor": 1638,
      "camer": 1639,
      "certain": 1640,
      "33": 1641,
      "84": 1642,
      "cra": 1643,
      "##its": 1644,
      "##stand": 1645,
      "init": 1646,
      "##ourn": 1647,
      "everyone": 1648,
      "given": 1649,
      "supercharger": 1650,
      "number": 1651,
      "sustainable": 1652,
      "34": 1653,
      "44": 1654,
      "54": 1655,
      "73": 1656,
      "74": 1657,
      "94": 1658,
      "each": 1659,
      "find": 1660,
      "fuel": 1661,
      "mph": 1662,
      "pan": 1663,
      "run": 1664,
      "##na": 1665,
      "##zy": 1666,
      "##reen": 1667,
      "such": 1668,
      "104": 1669,
      "note": 1670,
      "154": 1671,
      "124": 1672,
      "114": 1673,
      "144": 1674,
      "134": 1675,
      "164": 1676,
      "safe": 1677,
      "##loy": 1678,
      "actual": 1679,
      "twe": 1680,
      "cred": 1681,
      "favor": 1682,
      "since": 1683,
      "23": 1684,
      "fle": 1685,
      "fine": 1686,
      "##cr": 1687,
      "theres": 1688,
      "near": 1689,
      "moving": 1690,
      "built": 1691,
      "prec": 1692,
      "traffic": 1693,
      "##lanetary": 1694,
      "43": 1695,
      "53": 1696,
      "63": 1697,
      "83": 1698,
      "93": 1699,
      "da": 1700,
      "dest": 1701,
      "journ": 1702,
      "tur": 1703,
      "##ier": 1704,
      "##ling": 1705,
      "##oid": 1706,
      "isnt": 1707,
      "once": 1708,
      "##lad": 1709,
      "neg": 1710,
      "103": 1711,
      "153": 1712,
      "123": 1713,
      "113": 1714,
      "##pper": 1715,
      "143": 1716,
      "133": 1717,
      "death": 1718,
      "works": 1719,
      "##imate": 1720,
      "163": 1721,
      "meant": 1722,
      "##ought": 1723,
      "##aining": 1724,
      "amount": 1725,
      "flights": 1726,
      "humanity": 1727,
      "based": 1728,
      "redu": 1729,
      "keep": 1730,
      "changes": 1731,
      "congrat": 1732,
      "satellites": 1733,
      "base": 1734,
      "blo": 1735,
      "kids": 1736,
      "mind": 1737,
      "mark": 1738,
      "##uly": 1739,
      "##bo": 1740,
      "##pir": 1741,
      "##ined": 1742,
      "rel": 1743,
      "col": 1744,
      "##ush": 1745,
      "fail": 1746,
      "##ends": 1747,
      "##ibly": 1748,
      "##ives": 1749,
      "front": 1750,
      "travel": 1751,
      "##where": 1752,
      "civ": 1753,
      "give": 1754,
      "ive": 1755,
      "pie": 1756,
      "sal": 1757,
      "win": 1758,
      "##ygen": 1759,
      "##lass": 1760,
      "##oud": 1761,
      "stor": 1762,
      "stock": 1763,
      "##ters": 1764,
      "longer": 1765,
      "access": 1766,
      "reality": 1767,
      "ground": 1768,
      "tunnels": 1769,
      "effic": 1770,
      "difference": 1771,
      "oxygen": 1772,
      "##ross": 1773,
      "success": 1774,
      "crazy": 1775,
      "congratulations": 1776,
      "house": 1777,
      "pain": 1778,
      "rough": 1779,
      "##ug": 1780,
      "##bs": 1781,
      "##ene": 1782,
      "rele": 1783,
      "anal": 1784,
      "faster": 1785,
      "log": 1786,
      "load": 1787,
      "vehicles": 1788,
      "regulatory": 1789,
      "ed": 1790,
      "sent": 1791,
      "sens": 1792,
      "tank": 1793,
      "ul": 1794,
      "won": 1795,
      "##ufact": 1796,
      "##air": 1797,
      "##zz": 1798,
      "##acking": 1799,
      "##ote": 1800,
      "##ents": 1801,
      "dem": 1802,
      "hell": 1803,
      "someone": 1804,
      "whole": 1805,
      "everything": 1806,
      "black": 1807,
      "giant": 1808,
      "manufact": 1809,
      "##coin": 1810,
      "summon": 1811,
      "standard": 1812,
      "physics": 1813,
      "civil": 1814,
      "bot": 1815,
      "either": 1816,
      "foc": 1817,
      "pot": 1818,
      "pla": 1819,
      "##ience": 1820,
      "##cing": 1821,
      "tough": 1822,
      "prop": 1823,
      "##ird": 1824,
      "liqu": 1825,
      "plus": 1826,
      "agree": 1827,
      "others": 1828,
      "however": 1829,
      "repl": 1830,
      "roadster": 1831,
      "issues": 1832,
      "positive": 1833,
      "funda": 1834,
      "ult": 1835,
      "di": 1836,
      "dam": 1837,
      "fil": 1838,
      "hist": 1839,
      "watch": 1840,
      "##uum": 1841,
      "##ca": 1842,
      "##ries": 1843,
      "law": 1844,
      "flow": 1845,
      "powerwall": 1846,
      "result": 1847,
      "spec": 1848,
      "insane": 1849,
      "legs": 1850,
      "matters": 1851,
      "required": 1852,
      "vacuum": 1853,
      "euro": 1854,
      "accurate": 1855,
      "focus": 1856,
      "emp": 1857,
      "glad": 1858,
      "larg": 1859,
      "mar": 1860,
      "wish": 1861,
      "##wise": 1862,
      "##over": 1863,
      "##par": 1864,
      "##ism": 1865,
      "force": 1866,
      "##ether": 1867,
      "cold": 1868,
      "progra": 1869,
      "orig": 1870,
      "gov": 1871,
      "left": 1872,
      "##conom": 1873,
      "smart": 1874,
      "report": 1875,
      "ess": 1876,
      "different": 1877,
      "fixed": 1878,
      "follow": 1879,
      "liquid": 1880,
      "19": 1881,
      "burn": 1882,
      "econom": 1883,
      "large": 1884,
      "million": 1885,
      "pad": 1886,
      "ut": 1887,
      "##light": 1888,
      "bey": 1889,
      "ang": 1890,
      "##vers": 1891,
      "exist": 1892,
      "ass": 1893,
      "require": 1894,
      "room": 1895,
      "upgrade": 1896,
      "entire": 1897,
      "machine": 1898,
      "affect": 1899,
      "wheel": 1900,
      "ber": 1901,
      "bab": 1902,
      "glo": 1903,
      "ny": 1904,
      "oh": 1905,
      "##ming": 1906,
      "##aw": 1907,
      "##las": 1908,
      "##put": 1909,
      "##anks": 1910,
      "##ream": 1911,
      "##ision": 1912,
      "##eter": 1913,
      "##ada": 1914,
      "sugg": 1915,
      "she": 1916,
      "deb": 1917,
      "##aps": 1918,
      "auton": 1919,
      "takes": 1920,
      "incred": 1921,
      "function": 1922,
      "##ruct": 1923,
      "costs": 1924,
      "improvement": 1925,
      "strong": 1926,
      "hyd": 1927,
      "fleet": 1928,
      "beyond": 1929,
      "suggest": 1930,
      "39": 1931,
      "ah": 1932,
      "dens": 1933,
      "fri": 1934,
      "ir": 1935,
      "lab": 1936,
      "line": 1937,
      "##mb": 1938,
      "##ract": 1939,
      "##vent": 1940,
      "##face": 1941,
      "##ited": 1942,
      "butt": 1943,
      "lift": 1944,
      "unless": 1945,
      "boca": 1946,
      "factor": 1947,
      "batteries": 1948,
      "basically": 1949,
      "install": 1950,
      "issue": 1951,
      "combust": 1952,
      "rapidly": 1953,
      "games": 1954,
      "roughly": 1955,
      "69": 1956,
      "##mos": 1957,
      "##aid": 1958,
      "##led": 1959,
      "##iny": 1960,
      "touch": 1961,
      "##veil": 1962,
      "rece": 1963,
      "ready": 1964,
      "online": 1965,
      "stud": 1966,
      "##vern": 1967,
      "having": 1968,
      "##pping": 1969,
      "ch4": 1970,
      "unveil": 1971,
      "govern": 1972,
      "itself": 1973,
      "probability": 1974,
      "took": 1975,
      "understand": 1976,
      "saying": 1977,
      "vision": 1978,
      "automatically": 1979,
      "##ength": 1980,
      "multiplanetary": 1981,
      "robot": 1982,
      "history": 1983,
      "49": 1984,
      "99": 1985,
      "bre": 1986,
      "during": 1987,
      "equ": 1988,
      "hon": 1989,
      "ur": 1990,
      "upper": 1991,
      "##ral": 1992,
      "##ler": 1993,
      "##pr": 1994,
      "##vert": 1995,
      "mov": 1996,
      "##unk": 1997,
      "conn": 1998,
      "##ify": 1999,
      "impact": 2000,
      "feed": 2001,
      "record": 2002,
      "adding": 2003,
      "subs": 2004,
      "excell": 2005,
      "except": 2006,
      "local": 2007,
      "negative": 2008,
      "govt": 2009,
      "29": 2010,
      "ast": 2011,
      "las": 2012,
      "pure": 2013,
      "##amp": 2014,
      "##ake": 2015,
      "##ken": 2016,
      "##ination": 2017,
      "beaut": 2018,
      "ans": 2019,
      "chance": 2020,
      "hear": 2021,
      "impress": 2022,
      "useful": 2023,
      "phone": 2024,
      "cause": 2025,
      "indeed": 2026,
      "currently": 2027,
      "bigger": 2028,
      "europe": 2029,
      "excellent": 2030,
      "59": 2031,
      "79": 2032,
      "89": 2033,
      "bay": 2034,
      "fre": 2035,
      "opp": 2036,
      "past": 2037,
      "##ta": 2038,
      "##ump": 2039,
      "thin": 2040,
      "##ork": 2041,
      "##entially": 2042,
      "##urs": 2043,
      "##oop": 2044,
      "109": 2045,
      "##cept": 2046,
      "spaces": 2047,
      "159": 2048,
      "129": 2049,
      "119": 2050,
      "149": 2051,
      "139": 2052,
      "conc": 2053,
      "univer": 2054,
      "feature": 2055,
      "worked": 2056,
      "party": 2057,
      "otherwise": 2058,
      "weekend": 2059,
      "special": 2060,
      "turns": 2061,
      "sky": 2062,
      "congrats": 2063,
      "exciting": 2064,
      "grav": 2065,
      "total": 2066,
      "plaid": 2067,
      "bought": 2068,
      "mess": 2069,
      "pop": 2070,
      "##mes": 2071,
      "##ey": 2072,
      "##fort": 2073,
      "##dd": 2074,
      "##rot": 2075,
      "beg": 2076,
      "##acks": 2077,
      "shield": 2078,
      "atmos": 2079,
      "cham": 2080,
      "##ounce": 2081,
      "final": 2082,
      "address": 2083,
      "guess": 2084,
      "event": 2085,
      "countries": 2086,
      "ramp": 2087,
      "tonight": 2088,
      "radar": 2089,
      "turb": 2090,
      "market": 2091,
      "sales": 2092,
      "civilization": 2093,
      "fundamental": 2094,
      "berlin": 2095,
      "autonom": 2096,
      "combustion": 2097,
      "catch": 2098,
      "fall": 2099,
      "her": 2100,
      "pic": 2101,
      "sour": 2102,
      "tb": 2103,
      "tiny": 2104,
      "vent": 2105,
      "##oke": 2106,
      "offer": 2107,
      "##acing": 2108,
      "##oty": 2109,
      "state": 2110,
      "provid": 2111,
      "sus": 2112,
      "##ilar": 2113,
      "list": 2114,
      "##pped": 2115,
      "##ules": 2116,
      "chall": 2117,
      "carb": 2118,
      "comes": 2119,
      "##ains": 2120,
      "##oming": 2121,
      "whats": 2122,
      "tests": 2123,
      "##ysis": 2124,
      "maxim": 2125,
      "avai": 2126,
      "talk": 2127,
      "requires": 2128,
      "create": 2129,
      "includ": 2130,
      "achie": 2131,
      "america": 2132,
      "science": 2133,
      "tweet": 2134,
      "piece": 2135,
      "atmosph": 2136,
      "chamber": 2137,
      "availa": 2138,
      "date": 2139,
      "ep": 2140,
      "fra": 2141,
      "hu": 2142,
      "him": 2143,
      "late": 2144,
      "var": 2145,
      "vel": 2146,
      "##que": 2147,
      "##acy": 2148,
      "story": 2149,
      "##ently": 2150,
      "atte": 2151,
      "taking": 2152,
      "##ension": 2153,
      "improved": 2154,
      "scale": 2155,
      "ide": 2156,
      "config": 2157,
      "confir": 2158,
      "metal": 2159,
      "bring": 2160,
      "irony": 2161,
      "prototy": 2162,
      "block": 2163,
      "analysis": 2164,
      "answer": 2165,
      "aust": 2166,
      "core": 2167,
      "dr": 2168,
      "ge": 2169,
      "mis": 2170,
      "mus": 2171,
      "mile": 2172,
      "sou": 2173,
      "##ik": 2174,
      "##mi": 2175,
      "##back": 2176,
      "##ators": 2177,
      "##iday": 2178,
      "within": 2179,
      "nozz": 2180,
      "meet": 2181,
      "##istic": 2182,
      "##izing": 2183,
      "active": 2184,
      "gets": 2185,
      "harder": 2186,
      "solution": 2187,
      "hoping": 2188,
      "##ference": 2189,
      "##rupt": 2190,
      "fins": 2191,
      "massive": 2192,
      "clean": 2193,
      "deploy": 2194,
      "##like": 2195,
      "below": 2196,
      "obvious": 2197,
      "wait": 2198,
      "double": 2199,
      "priority": 2200,
      "certainly": 2201,
      "credit": 2202,
      "baby": 2203,
      "density": 2204,
      "connect": 2205,
      "carbon": 2206,
      "78": 2207,
      "dron": 2208,
      "latter": 2209,
      "mk": 2210,
      "mention": 2211,
      "pm": 2212,
      "paid": 2213,
      "sil": 2214,
      "smo": 2215,
      "went": 2216,
      "##ior": 2217,
      "##iency": 2218,
      "##cle": 2219,
      "beh": 2220,
      "static": 2221,
      "ant": 2222,
      "white": 2223,
      "nose": 2224,
      "heard": 2225,
      "pred": 2226,
      "lead": 2227,
      "launches": 2228,
      "##meth": 2229,
      "strange": 2230,
      "avoid": 2231,
      "happened": 2232,
      "internal": 2233,
      "delivery": 2234,
      "crew": 2235,
      "biggest": 2236,
      "details": 2237,
      "original": 2238,
      "available": 2239,
      "veloc": 2240,
      "drones": 2241,
      "fig": 2242,
      "mount": 2243,
      "nav": 2244,
      "tanks": 2245,
      "##tc": 2246,
      "##cy": 2247,
      "##ders": 2248,
      "##read": 2249,
      "struct": 2250,
      "trip": 2251,
      "trick": 2252,
      "ask": 2253,
      "seen": 2254,
      "##rib": 2255,
      "mech": 2256,
      "##iful": 2257,
      "feels": 2258,
      "prices": 2259,
      "quar": 2260,
      "##anger": 2261,
      "repair": 2262,
      "thrusters": 2263,
      "##wards": 2264,
      "increasing": 2265,
      "exceed": 2266,
      "similar": 2267,
      "flaps": 2268,
      "rolling": 2269,
      "internet": 2270,
      "merlin": 2271,
      "achieve": 2272,
      "results": 2273,
      "astron": 2274,
      "droneship": 2275,
      "action": 2276,
      "bir": 2277,
      "dual": 2278,
      "flo": 2279,
      "grow": 2280,
      "hor": 2281,
      "norm": 2282,
      "pur": 2283,
      "peak": 2284,
      "uaw": 2285,
      "##aster": 2286,
      "##side": 2287,
      "##oice": 2288,
      "##go": 2289,
      "##icul": 2290,
      "##igate": 2291,
      "##idual": 2292,
      "prof": 2293,
      "enable": 2294,
      "ali": 2295,
      "word": 2296,
      "engineers": 2297,
      "lots": 2298,
      "crash": 2299,
      "class": 2300,
      "climate": 2301,
      "finish": 2302,
      "raptors": 2303,
      "indust": 2304,
      "gigafact": 2305,
      "obviously": 2306,
      "flameth": 2307,
      "operating": 2308,
      "simple": 2309,
      "latest": 2310,
      "kinda": 2311,
      "primary": 2312,
      "favorite": 2313,
      "efficiency": 2314,
      "diam": 2315,
      "global": 2316,
      "honor": 2317,
      "movie": 2318,
      "flamethrow": 2319,
      "cat": 2320,
      "dig": 2321,
      "glass": 2322,
      "hat": 2323,
      "lin": 2324,
      "lay": 2325,
      "nam": 2326,
      "russ": 2327,
      "sat": 2328,
      "targ": 2329,
      "vast": 2330,
      "##hop": 2331,
      "##ule": 2332,
      "##cc": 2333,
      "##ared": 2334,
      "##ret": 2335,
      "##ased": 2336,
      "weve": 2337,
      "weather": 2338,
      "track": 2339,
      "alt": 2340,
      "deg": 2341,
      "magn": 2342,
      "unlike": 2343,
      "##ands": 2344,
      "highly": 2345,
      "proud": 2346,
      "tell": 2347,
      "incent": 2348,
      "respect": 2349,
      "humans": 2350,
      "caus": 2351,
      "request": 2352,
      "become": 2353,
      "blow": 2354,
      "possibly": 2355,
      "technically": 2356,
      "surface": 2357,
      "surpr": 2358,
      "hyper": 2359,
      "simply": 2360,
      "north": 2361,
      "announce": 2362,
      "##hold": 2363,
      "manufacturing": 2364,
      "hydro": 2365,
      "government": 2366,
      "beautiful": 2367,
      "ventil": 2368,
      "velocity": 2369,
      "500": 2370,
      "bi": 2371,
      "hw": 2372,
      "ice": 2373,
      "rules": 2374,
      "site": 2375,
      "##dit": 2376,
      "##atures": 2377,
      "##arily": 2378,
      "isp": 2379,
      "often": 2380,
      "##ica": 2381,
      "enter": 2382,
      "enab": 2383,
      "shot": 2384,
      "##une": 2385,
      "orders": 2386,
      "dev": 2387,
      "##action": 2388,
      "canada": 2389,
      "arent": 2390,
      "activ": 2391,
      "seriously": 2392,
      "minim": 2393,
      "pump": 2394,
      "sometimes": 2395,
      "transport": 2396,
      "products": 2397,
      "satellite": 2398,
      "else": 2399,
      "impressive": 2400,
      "target": 2401,
      "bill": 2402,
      "est": 2403,
      "rend": 2404,
      "tiles": 2405,
      "##haps": 2406,
      "##lic": 2407,
      "##person": 2408,
      "##uth": 2409,
      "##utes": 2410,
      "step": 2411,
      "covid": 2412,
      "prom": 2413,
      "##tern": 2414,
      "demo": 2415,
      "une": 2416,
      "arg": 2417,
      "perhaps": 2418,
      "resp": 2419,
      "phot": 2420,
      "consum": 2421,
      "object": 2422,
      "job": 2423,
      "country": 2424,
      "simulation": 2425,
      "norway": 2426,
      "creating": 2427,
      "sched": 2428,
      "present": 2429,
      "closer": 2430,
      "demand": 2431,
      "universe": 2432,
      "huge": 2433,
      "attempt": 2434,
      "gigafactory": 2435,
      "diameter": 2436,
      "##personic": 2437,
      "cash": 2438,
      "dark": 2439,
      "er": 2440,
      "ft": 2441,
      "ign": 2442,
      "july": 2443,
      "py": 2444,
      "rat": 2445,
      "vir": 2446,
      "##tical": 2447,
      "##cent": 2448,
      "##down": 2449,
      "throt": 2450,
      "##roll": 2451,
      "code": 2452,
      "mob": 2453,
      "seats": 2454,
      "semi": 2455,
      "##umb": 2456,
      "height": 2457,
      "usually": 2458,
      "##istics": 2459,
      "across": 2460,
      "perf": 2461,
      "screen": 2462,
      "starting": 2463,
      "systems": 2464,
      "##ages": 2465,
      "grid": 2466,
      "missions": 2467,
      "appreciate": 2468,
      "bitcoin": 2469,
      "upgrades": 2470,
      "larger": 2471,
      "gravity": 2472,
      "nozzle": 2473,
      "normal": 2474,
      "industry": 2475,
      "18": 2476,
      "21": 2477,
      "51": 2478,
      "71": 2479,
      "bs": 2480,
      "bank": 2481,
      "die": 2482,
      "jam": 2483,
      "lith": 2484,
      "mill": 2485,
      "ty": 2486,
      "##ned": 2487,
      "##ians": 2488,
      "##vin": 2489,
      "##view": 2490,
      "##loop": 2491,
      "##gs": 2492,
      "##jo": 2493,
      "##just": 2494,
      "reent": 2495,
      "weird": 2496,
      "heart": 2497,
      "heating": 2498,
      "imposs": 2499,
      "##oms": 2500,
      "prin": 2501,
      "arri": 2502,
      "lear": 2503,
      "realize": 2504,
      "minor": 2505,
      "aircraft": 2506,
      "book": 2507,
      "inside": 2508,
      "talent": 2509,
      "brain": 2510,
      "entry": 2511,
      "setting": 2512,
      "neuralink": 2513,
      "cryo": 2514,
      "cameras": 2515,
      "panels": 2516,
      "potential": 2517,
      "feedback": 2518,
      "predict": 2519,
      "birth": 2520,
      "hyperloop": 2521,
      "lithium": 2522,
      "31": 2523,
      "cases": 2524,
      "ill": 2525,
      "lt": 2526,
      "sit": 2527,
      "send": 2528,
      "tight": 2529,
      "wild": 2530,
      "##ner": 2531,
      "##uff": 2532,
      "##ube": 2533,
      "##man": 2534,
      "##mber": 2535,
      "##bers": 2536,
      "##ax": 2537,
      "##averal": 2538,
      "tower": 2539,
      "##idth": 2540,
      "##ured": 2541,
      "necess": 2542,
      "training": 2543,
      "truth": 2544,
      "ens": 2545,
      "share": 2546,
      "charge": 2547,
      "abort": 2548,
      "##olution": 2549,
      "canaveral": 2550,
      "spacecraft": 2551,
      "lost": 2552,
      "adjust": 2553,
      "account": 2554,
      "extra": 2555,
      "capac": 2556,
      "owner": 2557,
      "flying": 2558,
      "experience": 2559,
      "precise": 2560,
      "color": 2561,
      "successful": 2562,
      "program": 2563,
      "utility": 2564,
      "incredible": 2565,
      "spaceship": 2566,
      "south": 2567,
      "perfect": 2568,
      "41": 2569,
      "48": 2570,
      "61": 2571,
      "68": 2572,
      "81": 2573,
      "91": 2574,
      "age": 2575,
      "billion": 2576,
      "cand": 2577,
      "dut": 2578,
      "danger": 2579,
      "ga": 2580,
      "hes": 2581,
      "hund": 2582,
      "occ": 2583,
      "pat": 2584,
      "path": 2585,
      "wed": 2586,
      "wal": 2587,
      "##bur": 2588,
      "##egr": 2589,
      "##work": 2590,
      "##ror": 2591,
      "##vir": 2592,
      "##rel": 2593,
      "##alth": 2594,
      "##lect": 2595,
      "teslas": 2596,
      "##ury": 2597,
      "process": 2598,
      "envir": 2599,
      "101": 2600,
      "##unately": 2601,
      "151": 2602,
      "121": 2603,
      "111": 2604,
      "141": 2605,
      "131": 2606,
      "char": 2607,
      "161": 2608,
      "##usion": 2609,
      "greater": 2610,
      "anywhere": 2611,
      "solve": 2612,
      "vertical": 2613,
      "contract": 2614,
      "expend": 2615,
      "immed": 2616,
      "serve": 2617,
      "supply": 2618,
      "veg": 2619,
      "seeing": 2620,
      "started": 2621,
      "problems": 2622,
      "versions": 2623,
      "depends": 2624,
      "reading": 2625,
      "key": 2626,
      "superchargers": 2627,
      "window": 2628,
      "competition": 2629,
      "afford": 2630,
      "crypt": 2631,
      "initial": 2632,
      "journal": 2633,
      "button": 2634,
      "music": 2635,
      "mechan": 2636,
      "##hopper": 2637,
      "altitude": 2638,
      "ratio": 2639,
      "reentry": 2640,
      "impossible": 2641,
      "hundred": 2642,
      "environ": 2643,
      "immedi": 2644,
      "27": 2645,
      "28": 2646,
      "38": 2647,
      "98": 2648,
      "hol": 2649,
      "o2": 2650,
      "pick": 2651,
      "push": 2652,
      "rd": 2653,
      "rid": 2654,
      "rain": 2655,
      "sad": 2656,
      "uk": 2657,
      "##tion": 2658,
      "##sel": 2659,
      "##self": 2660,
      "##ril": 2661,
      "thread": 2662,
      "towards": 2663,
      "inj": 2664,
      "##ional": 2665,
      "stra": 2666,
      "prov": 2667,
      "door": 2668,
      "separ": 2669,
      "##uls": 2670,
      "charg": 2671,
      "##ounter": 2672,
      "features": 2673,
      "anyway": 2674,
      "appe": 2675,
      "##ously": 2676,
      "earli": 2677,
      "integr": 2678,
      "##ived": 2679,
      "##ivity": 2680,
      "syn": 2681,
      "recover": 2682,
      "starts": 2683,
      "electricity": 2684,
      "##unning": 2685,
      "signal": 2686,
      "approx": 2687,
      "steering": 2688,
      "planet": 2689,
      "april": 2690,
      "direction": 2691,
      "numbers": 2692,
      "development": 2693,
      "##piration": 2694,
      "break": 2695,
      "source": 2696,
      "including": 2697,
      "flamethrower": 2698,
      "##selves": 2699,
      "200": 2700,
      "58": 2701,
      "88": 2702,
      "aero": 2703,
      "aug": 2704,
      "cut": 2705,
      "f9": 2706,
      "hit": 2707,
      "oce": 2708,
      "odd": 2709,
      "rare": 2710,
      "sea": 2711,
      "ter": 2712,
      "##ny": 2713,
      "##hor": 2714,
      "##pl": 2715,
      "##ze": 2716,
      "thous": 2717,
      "told": 2718,
      "##rote": 2719,
      "##ised": 2720,
      "stack": 2721,
      "weld": 2722,
      "##idence": 2723,
      "tried": 2724,
      "tracking": 2725,
      "108": 2726,
      "158": 2727,
      "128": 2728,
      "118": 2729,
      "148": 2730,
      "138": 2731,
      "unfort": 2732,
      "##oline": 2733,
      "##osp": 2734,
      "output": 2735,
      "outside": 2736,
      "arr": 2737,
      "advert": 2738,
      "rocks": 2739,
      "desp": 2740,
      "accident": 2741,
      "points": 2742,
      "didn": 2743,
      "boost": 2744,
      "indiv": 2745,
      "offic": 2746,
      "##aged": 2747,
      "##olog": 2748,
      "commer": 2749,
      "common": 2750,
      "commun": 2751,
      "happening": 2752,
      "motors": 2753,
      "reusability": 2754,
      "playing": 2755,
      "include": 2756,
      "expected": 2757,
      "optimized": 2758,
      "american": 2759,
      "directly": 2760,
      "continu": 2761,
      "discuss": 2762,
      "camera": 2763,
      "tbh": 2764,
      "vari": 2765,
      "quarter": 2766,
      "named": 2767,
      "magnitude": 2768,
      "ventilators": 2769,
      "mobile": 2770,
      "unfortunately": 2771,
      "17": 2772,
      "37": 2773,
      "47": 2774,
      "67": 2775,
      "97": 2776,
      "band": 2777,
      "cast": 2778,
      "doo": 2779,
      "etc": 2780,
      "four": 2781,
      "gim": 2782,
      "jack": 2783,
      "mist": 2784,
      "mater": 2785,
      "nu": 2786,
      "nd": 2787,
      "oil": 2788,
      "round": 2789,
      "son": 2790,
      "song": 2791,
      "v1": 2792,
      "wrote": 2793,
      "##ub": 2794,
      "##wide": 2795,
      "##ka": 2796,
      "##iness": 2797,
      "##aced": 2798,
      "stain": 2799,
      "##irt": 2800,
      "moment": 2801,
      "trend": 2802,
      "extern": 2803,
      "dock": 2804,
      "asked": 2805,
      "dead": 2806,
      "meg": 2807,
      "meme": 2808,
      "##ively": 2809,
      "apply": 2810,
      "##ground": 2811,
      "launching": 2812,
      "interview": 2813,
      "powered": 2814,
      "quality": 2815,
      "series": 2816,
      "doesn": 2817,
      "dram": 2818,
      "extend": 2819,
      "articles": 2820,
      "smaller": 2821,
      "hover": 2822,
      "terminal": 2823,
      "parking": 2824,
      "raise": 2825,
      "opening": 2826,
      "instead": 2827,
      "shows": 2828,
      "operational": 2829,
      "lights": 2830,
      "latency": 2831,
      "attack": 2832,
      "customers": 2833,
      "completely": 2834,
      "cells": 2835,
      "reduce": 2836,
      "propuls": 2837,
      "essentially": 2838,
      "laser": 2839,
      "susp": 2840,
      "atmosphere": 2841,
      "ideas": 2842,
      "bankrupt": 2843,
      "ensure": 2844,
      "capacity": 2845,
      "provide": 2846,
      "ocean": 2847,
      "despite": 2848,
      "material": 2849,
      "57": 2850,
      "77": 2851,
      "87": 2852,
      "fit": 2853,
      "gone": 2854,
      "har": 2855,
      "mt": 2856,
      "morn": 2857,
      "national": 2858,
      "rout": 2859,
      "rather": 2860,
      "tip": 2861,
      "v10": 2862,
      "ways": 2863,
      "##ne": 2864,
      "##base": 2865,
      "##cast": 2866,
      "##ding": 2867,
      "##orrect": 2868,
      "##arant": 2869,
      "##angh": 2870,
      "inform": 2871,
      "##asons": 2872,
      "reasons": 2873,
      "weight": 2874,
      "##ading": 2875,
      "shangh": 2876,
      "107": 2877,
      "157": 2878,
      "127": 2879,
      "117": 2880,
      "147": 2881,
      "137": 2882,
      "meas": 2883,
      "carry": 2884,
      "highest": 2885,
      "comments": 2886,
      "fam": 2887,
      "arch": 2888,
      "plant": 2889,
      "pod": 2890,
      "##ibility": 2891,
      "sooner": 2892,
      "loop": 2893,
      "particul": 2894,
      "clar": 2895,
      "worldwide": 2896,
      "snow": 2897,
      "delta": 2898,
      "helpful": 2899,
      "strength": 2900,
      "ships": 2901,
      "writ": 2902,
      "guarant": 2903,
      "gasoline": 2904,
      "personally": 2905,
      "summer": 2906,
      "changing": 2907,
      "critic": 2908,
      "header": 2909,
      "deaths": 2910,
      "storage": 2911,
      "paint": 2912,
      "logistics": 2913,
      "damn": 2914,
      "filter": 2915,
      "friend": 2916,
      "thinking": 2917,
      "population": 2918,
      "expendable": 2919,
      "vegas": 2920,
      "individual": 2921,
      "commercial": 2922,
      "gimbal": 2923,
      "suspension": 2924,
      "morning": 2925,
      "shanghai": 2926,
      "bla": 2927,
      "corn": 2928,
      "dumb": 2929,
      "ey": 2930,
      "fan": 2931,
      "gon": 2932,
      "hate": 2933,
      "kill": 2934,
      "loss": 2935,
      "ms": 2936,
      "marg": 2937,
      "nn": 2938,
      "nick": 2939,
      "running": 2940,
      "##no": 2941,
      "##hn": 2942,
      "##core": 2943,
      "##fit": 2944,
      "##ode": 2945,
      "##ger": 2946,
      "##po": 2947,
      "##ony": 2948,
      "##ones": 2949,
      "##enge": 2950,
      "##rees": 2951,
      "remo": 2952,
      "stay": 2953,
      "co2": 2954,
      "##ides": 2955,
      "whether": 2956,
      "##ires": 2957,
      "youd": 2958,
      "truly": 2959,
      "speak": 2960,
      "worse": 2961,
      "words": 2962,
      "##orts": 2963,
      "##ape": 2964,
      "##osite": 2965,
      "outcome": 2966,
      "hardest": 2967,
      "flu": 2968,
      "improves": 2969,
      "expla": 2970,
      "serious": 2971,
      "couldnt": 2972,
      "regard": 2973,
      "##ission": 2974,
      "##orne": 2975,
      "##ences": 2976,
      "helping": 2977,
      "join": 2978,
      "write": 2979,
      "##ellig": 2980,
      "secur": 2981,
      "braking": 2982,
      "visit": 2983,
      "switch": 2984,
      "regulators": 2985,
      "network": 2986,
      "distance": 2987,
      "destination": 2988,
      "received": 2989,
      "subsid": 2990,
      "astronaut": 2991,
      "hw2": 2992,
      "hundreds": 2993,
      "earlier": 2994,
      "stainless": 2995,
      "300": 2996,
      "aud": 2997,
      "ball": 2998,
      "c19": 2999,
      "easter": 3000,
      "fool": 3001,
      "jud": 3002,
      "mine": 3003,
      "ped": 3004,
      "park": 3005,
      "rot": 3006,
      "ride": 3007,
      "tor": 3008,
      "vote": 3009,
      "##uation": 3010,
      "##mak": 3011,
      "##ee": 3012,
      "##city": 3013,
      "##ok": 3014,
      "##ole": 3015,
      "reli": 3016,
      "##etic": 3017,
      "social": 3018,
      "web": 3019,
      "##urance": 3020,
      "##ceed": 3021,
      "along": 3022,
      "chip": 3023,
      "##outs": 3024,
      "health": 3025,
      "##ified": 3026,
      "hardcore": 3027,
      "intense": 3028,
      "improving": 3029,
      "resour": 3030,
      "##ruction": 3031,
      "happens": 3032,
      "capital": 3033,
      "finan": 3034,
      "cooling": 3035,
      "shorts": 3036,
      "friday": 3037,
      "approach": 3038,
      "taxes": 3039,
      "delivered": 3040,
      "sunday": 3041,
      "investors": 3042,
      "created": 3043,
      "relative": 3044,
      "replace": 3045,
      "angle": 3046,
      "existing": 3047,
      "autonomous": 3048,
      "provided": 3049,
      "prototype": 3050,
      "structure": 3051,
      "throttle": 3052,
      "immediately": 3053,
      "appears": 3054,
      "gonna": 3055,
      "security": 3056,
      "fate": 3057,
      "green": 3058,
      "hosp": 3059,
      "kid": 3060,
      "lic": 3061,
      "nas": 3062,
      "page": 3063,
      "tap": 3064,
      "um": 3065,
      "##res": 3066,
      "##ris": 3067,
      "##los": 3068,
      "##ging": 3069,
      "##gether": 3070,
      "tho": 3071,
      "##arch": 3072,
      "together": 3073,
      "##itect": 3074,
      "forg": 3075,
      "##irc": 3076,
      "##ther": 3077,
      "enh": 3078,
      "examp": 3079,
      "##abil": 3080,
      "section": 3081,
      "sept": 3082,
      "mag": 3083,
      "maint": 3084,
      "choice": 3085,
      "chica": 3086,
      "ability": 3087,
      "##imately": 3088,
      "union": 3089,
      "memes": 3090,
      "##ushing": 3091,
      "highway": 3092,
      "uses": 3093,
      "faa": 3094,
      "##cient": 3095,
      "driver": 3096,
      "starships": 3097,
      "hopper": 3098,
      "teams": 3099,
      "expans": 3100,
      "known": 3101,
      "underway": 3102,
      "capability": 3103,
      "themselves": 3104,
      "delay": 3105,
      "cyc": 3106,
      "surv": 3107,
      "talking": 3108,
      "winds": 3109,
      "##ught": 3110,
      "feeling": 3111,
      "customer": 3112,
      "upgraded": 3113,
      "scient": 3114,
      "continue": 3115,
      "initially": 3116,
      "ahead": 3117,
      "challeng": 3118,
      "meeting": 3119,
      "figure": 3120,
      "aliens": 3121,
      "links": 3122,
      "unlikely": 3123,
      "surprising": 3124,
      "announcement": 3125,
      "render": 3126,
      "architect": 3127,
      "##elligence": 3128,
      "resources": 3129,
      "hospital": 3130,
      "nasa": 3131,
      "ce": 3132,
      "gear": 3133,
      "los": 3134,
      "mart": 3135,
      "tit": 3136,
      "tree": 3137,
      "tube": 3138,
      "uh": 3139,
      "##ipping": 3140,
      "##mont": 3141,
      "##ball": 3142,
      "##wd": 3143,
      "##yn": 3144,
      "##vac": 3145,
      "##vation": 3146,
      "##att": 3147,
      "##oup": 3148,
      "##itors": 3149,
      "##otive": 3150,
      "sold": 3151,
      "stations": 3152,
      "stream": 3153,
      "ancient": 3154,
      "haw": 3155,
      "trad": 3156,
      "##ope": 3157,
      "alone": 3158,
      "##estri": 3159,
      "seat": 3160,
      "##antage": 3161,
      "wouldnt": 3162,
      "user": 3163,
      "saw": 3164,
      "lock": 3165,
      "##cious": 3166,
      "author": 3167,
      "buying": 3168,
      "tele": 3169,
      "accept": 3170,
      "taken": 3171,
      "incorrect": 3172,
      "##750": 3173,
      "accord": 3174,
      "expand": 3175,
      "solarcity": 3176,
      "starbase": 3177,
      "wanted": 3178,
      "options": 3179,
      "transfer": 3180,
      "guy": 3181,
      "metric": 3182,
      "##ification": 3183,
      "controll": 3184,
      "fixing": 3185,
      "turned": 3186,
      "easily": 3187,
      "allows": 3188,
      "automotive": 3189,
      "putting": 3190,
      "waiting": 3191,
      "meaning": 3192,
      "acceleration": 3193,
      "significantly": 3194,
      "infl": 3195,
      "precision": 3196,
      "fremont": 3197,
      "messed": 3198,
      "begin": 3199,
      "turbop": 3200,
      "behind": 3201,
      "layer": 3202,
      "schedule": 3203,
      "candy": 3204,
      "august": 3205,
      "astronauts": 3206,
      "expansion": 3207,
      "250": 3208,
      "cross": 3209,
      "dying": 3210,
      "egg": 3211,
      "fed": 3212,
      "freed": 3213,
      "link": 3214,
      "luck": 3215,
      "mr": 3216,
      "pet": 3217,
      "port": 3218,
      "squ": 3219,
      "swe": 3220,
      "v2": 3221,
      "v9": 3222,
      "wise": 3223,
      "##not": 3224,
      "##iet": 3225,
      "##rs": 3226,
      "##ration": 3227,
      "##cs": 3228,
      "##fra": 3229,
      "##oy": 3230,
      "##of": 3231,
      "##por": 3232,
      "##ery": 3233,
      "##eral": 3234,
      "thurs": 3235,
      "##inder": 3236,
      "tow": 3237,
      "isn": 3238,
      "storm": 3239,
      "coast": 3240,
      "wear": 3241,
      "##urd": 3242,
      "project": 3243,
      "suck": 3244,
      "##ired": 3245,
      "excess": 3246,
      "areas": 3247,
      "spent": 3248,
      "convin": 3249,
      "chain": 3250,
      "##ards": 3251,
      "compared": 3252,
      "cargo": 3253,
      "carmak": 3254,
      "upload": 3255,
      "users": 3256,
      "##omes": 3257,
      "outer": 3258,
      "##izes": 3259,
      "overall": 3260,
      "fires": 3261,
      "prevent": 3262,
      "deser": 3263,
      "interior": 3264,
      "sympt": 3265,
      "knows": 3266,
      "regions": 3267,
      "insurance": 3268,
      "came": 3269,
      "india": 3270,
      "frank": 3271,
      "supporting": 3272,
      "publish": 3273,
      "evs": 3274,
      "valid": 3275,
      "levels": 3276,
      "secret": 3277,
      "updates": 3278,
      "apo": 3279,
      "allowed": 3280,
      "passed": 3281,
      "excited": 3282,
      "temper": 3283,
      "swap": 3284,
      "thoughtful": 3285,
      "foundation": 3286,
      "constra": 3287,
      "considered": 3288,
      "accelerating": 3289,
      "colle": 3290,
      "ultra": 3291,
      "essential": 3292,
      "ahem": 3293,
      "concern": 3294,
      "frame": 3295,
      "confirm": 3296,
      "austin": 3297,
      "silic": 3298,
      "anti": 3299,
      "hydrogen": 3300,
      "sharehold": 3301,
      "gave": 3302,
      "crypto": 3303,
      "integrated": 3304,
      "bandw": 3305,
      "guaranteed": 3306,
      "nickel": 3307,
      "turbopump": 3308,
      "400": 3309,
      "aka": 3310,
      "bus": 3311,
      "cla": 3312,
      "counter": 3313,
      "diver": 3314,
      "died": 3315,
      "eg": 3316,
      "emo": 3317,
      "fight": 3318,
      "gm": 3319,
      "lm": 3320,
      "nat": 3321,
      "nets": 3322,
      "qa": 3323,
      "race": 3324,
      "rise": 3325,
      "says": 3326,
      "tues": 3327,
      "troll": 3328,
      "wall": 3329,
      "##he": 3330,
      "##by": 3331,
      "##af": 3332,
      "##sc": 3333,
      "##ser": 3334,
      "##set": 3335,
      "##vill": 3336,
      "##cip": 3337,
      "##cone": 3338,
      "##coming": 3339,
      "##km": 3340,
      "##pu": 3341,
      "##pes": 3342,
      "##pha": 3343,
      "third": 3344,
      "##inum": 3345,
      "##arly": 3346,
      "##ste": 3347,
      "##ishing": 3348,
      "##illy": 3349,
      "store": 3350,
      "##ighter": 3351,
      "##thorne": 3352,
      "havent": 3353,
      "trou": 3354,
      "enc": 3355,
      "shut": 3356,
      "dog": 3357,
      "dojo": 3358,
      "spend": 3359,
      "alum": 3360,
      "alpha": 3361,
      "sequ": 3362,
      "worst": 3363,
      "alloc": 3364,
      "role": 3365,
      "unc": 3366,
      "units": 3367,
      "##anden": 3368,
      "yester": 3369,
      "cannot": 3370,
      "fear": 3371,
      "fake": 3372,
      "loan": 3373,
      "loved": 3374,
      "amb": 3375,
      "bug": 3376,
      "solving": 3377,
      "firing": 3378,
      "##ensive": 3379,
      "imm": 3380,
      "tested": 3381,
      "capable": 3382,
      "conscious": 3383,
      "completed": 3384,
      "shortly": 3385,
      "advantage": 3386,
      "increases": 3387,
      "##itional": 3388,
      "rail": 3389,
      "avg": 3390,
      "changed": 3391,
      "questions": 3392,
      "attach": 3393,
      "dogecoin": 3394,
      "school": 3395,
      "selling": 3396,
      "drops": 3397,
      "emb": 3398,
      "wheels": 3399,
      "complexity": 3400,
      "recommended": 3401,
      "polit": 3402,
      "polic": 3403,
      "primarily": 3404,
      "##crip": 3405,
      "wonder": 3406,
      "bott": 3407,
      "laws": 3408,
      "march": 3409,
      "functionality": 3410,
      "opposite": 3411,
      "autonomy": 3412,
      "challenge": 3413,
      "austral": 3414,
      "misle": 3415,
      "smooth": 3416,
      "navigate": 3417,
      "horiz": 3418,
      "entert": 3419,
      "variant": 3420,
      "dramatically": 3421,
      "written": 3422,
      "corner": 3423,
      "example": 3424,
      "hawthorne": 3425,
      "according": 3426,
      "##frame": 3427,
      "symptoms": 3428,
      "silicon": 3429,
      "800": 3430,
      "actions": 3431,
      "den": 3432,
      "dry": 3433,
      "ftw": 3434,
      "field": 3435,
      "gary": 3436,
      "germ": 3437,
      "hi": 3438,
      "h2": 3439,
      "hur": 3440,
      "ion": 3441,
      "mic": 3442,
      "none": 3443,
      "oct": 3444,
      "pen": 3445,
      "pict": 3446,
      "tires": 3447,
      "##ev": 3448,
      "##og": 3449,
      "##gor": 3450,
      "##arr": 3451,
      "theory": 3452,
      "##uts": 3453,
      "beha": 3454,
      "reuse": 3455,
      "stre": 3456,
      "##uration": 3457,
      "##verse": 3458,
      "##thon": 3459,
      "trust": 3460,
      "shif": 3461,
      "doll": 3462,
      "asse": 3463,
      "condit": 3464,
      "##umul": 3465,
      "god": 3466,
      "##ainment": 3467,
      "moder": 3468,
      "##endent": 3469,
      "appear": 3470,
      "buff": 3471,
      "lee": 3472,
      "firm": 3473,
      "##ints": 3474,
      "monop": 3475,
      "monday": 3476,
      "intelligence": 3477,
      "expon": 3478,
      "imag": 3479,
      "fewer": 3480,
      "minute": 3481,
      "minutes": 3482,
      "suppli": 3483,
      "airframe": 3484,
      "scal": 3485,
      "added": 3486,
      "camp": 3487,
      "becoming": 3488,
      "joke": 3489,
      "writing": 3490,
      "guys": 3491,
      "centers": 3492,
      "basic": 3493,
      "services": 3494,
      "absurd": 3495,
      "refund": 3496,
      "planning": 3497,
      "priv": 3498,
      "simpl": 3499,
      "##cover": 3500,
      "summary": 3501,
      "location": 3502,
      "vacc": 3503,
      "competitive": 3504,
      "##pected": 3505,
      "package": 3506,
      "##graph": 3507,
      "constant": 3508,
      "closed": 3509,
      "totally": 3510,
      "approvals": 3511,
      "tweets": 3512,
      "destro": 3513,
      "journey": 3514,
      "efficient": 3515,
      "filters": 3516,
      "largest": 3517,
      "incredibly": 3518,
      "suggestions": 3519,
      "installed": 3520,
      "robots": 3521,
      "robotax": 3522,
      "frequ": 3523,
      "epic": 3524,
      "confirmed": 3525,
      "geo": 3526,
      "nosecone": 3527,
      "consumer": 3528,
      "python": 3529,
      "princip": 3530,
      "external": 3531,
      "pedestri": 3532,
      "torque": 3533,
      "enhanced": 3534,
      "architecture": 3535,
      "freedom": 3536,
      "bandwidth": 3537,
      "aluminum": 3538,
      "conditions": 3539,
      "aster": 3540,
      "dies": 3541,
      "eth": 3542,
      "fur": 3543,
      "fict": 3544,
      "gives": 3545,
      "hal": 3546,
      "length": 3547,
      "pc": 3548,
      "pitch": 3549,
      "row": 3550,
      "rand": 3551,
      "rating": 3552,
      "rene": 3553,
      "tall": 3554,
      "wd": 3555,
      "##bt": 3556,
      "##ew": 3557,
      "##vant": 3558,
      "##ob": 3559,
      "##gi": 3560,
      "##gle": 3561,
      "##pm": 3562,
      "##pa": 3563,
      "##onse": 3564,
      "##orter": 3565,
      "##orters": 3566,
      "tool": 3567,
      "inference": 3568,
      "##aly": 3569,
      "beat": 3570,
      "forever": 3571,
      "iter": 3572,
      "supersonic": 3573,
      "mom": 3574,
      "shop": 3575,
      "dome": 3576,
      "spl": 3577,
      "dele": 3578,
      "##antic": 3579,
      "##rie": 3580,
      "##rist": 3581,
      "##uming": 3582,
      "##ument": 3583,
      "compress": 3584,
      "##iff": 3585,
      "usa": 3586,
      "fault": 3587,
      "apple": 3588,
      "##iber": 3589,
      "desc": 3590,
      "twice": 3591,
      "powerful": 3592,
      "quick": 3593,
      "explan": 3594,
      "board": 3595,
      "books": 3596,
      "starhopper": 3597,
      "helps": 3598,
      "effort": 3599,
      "approved": 3600,
      "##lied": 3601,
      "parach": 3602,
      "legal": 3603,
      "refill": 3604,
      "reflight": 3605,
      "interested": 3606,
      "allowing": 3607,
      "foot": 3608,
      "remain": 3609,
      "position": 3610,
      "letter": 3611,
      "combined": 3612,
      "graph": 3613,
      "former": 3614,
      "construction": 3615,
      "accelerate": 3616,
      "reports": 3617,
      "debt": 3618,
      "friends": 3619,
      "##mbly": 3620,
      "maximum": 3621,
      "tricky": 3622,
      "russian": 3623,
      "incentives": 3624,
      "argu": 3625,
      "response": 3626,
      "error": 3627,
      "birthday": 3628,
      "necessary": 3629,
      "thousands": 3630,
      "official": 3631,
      "information": 3632,
      "magic": 3633,
      "challenges": 3634,
      "##ville": 3635,
      "yesterday": 3636,
      "consciousness": 3637,
      "##cription": 3638,
      "misleading": 3639,
      "renew": 3640,
      "aim": 3641,
      "bf": 3642,
      "fat": 3643,
      "foss": 3644,
      "gre": 3645,
      "goo": 3646,
      "ie": 3647,
      "jap": 3648,
      "lets": 3649,
      "mel": 3650,
      "mir": 3651,
      "mil": 3652,
      "mont": 3653,
      "math": 3654,
      "match": 3655,
      "pap": 3656,
      "pics": 3657,
      "v3": 3658,
      "vib": 3659,
      "wer": 3660,
      "zip": 3661,
      "##night": 3662,
      "##tra": 3663,
      "##28": 3664,
      "##umpt": 3665,
      "##mas": 3666,
      "##31": 3667,
      "##37": 3668,
      "##39": 3669,
      "##38": 3670,
      "##eing": 3671,
      "##ring": 3672,
      "##41": 3673,
      "##47": 3674,
      "##49": 3675,
      "##48": 3676,
      "##oying": 3677,
      "##dle": 3678,
      "##xic": 3679,
      "##ining": 3680,
      "##orid": 3681,
      "##itable": 3682,
      "inert": 3683,
      "refer": 3684,
      "##ots": 3685,
      "ford": 3686,
      "ones": 3687,
      "states": 3688,
      "stuff": 3689,
      "cop": 3690,
      "coin": 3691,
      "cook": 3692,
      "anten": 3693,
      "webs": 3694,
      "whate": 3695,
      "##alley": 3696,
      "##ades": 3697,
      "##uries": 3698,
      "suv": 3699,
      "youll": 3700,
      "sections": 3701,
      "conver": 3702,
      "convers": 3703,
      "chan": 3704,
      "167": 3705,
      "unre": 3706,
      "greatly": 3707,
      "comment": 3708,
      "moreover": 3709,
      "lose": 3710,
      "myself": 3711,
      "##amm": 3712,
      "places": 3713,
      "florid": 3714,
      "solved": 3715,
      "##752": 3716,
      "##751": 3717,
      "##757": 3718,
      "##756": 3719,
      "##753": 3720,
      "##759": 3721,
      "##754": 3722,
      "##755": 3723,
      "##758": 3724,
      "##722": 3725,
      "##721": 3726,
      "##727": 3727,
      "##726": 3728,
      "##723": 3729,
      "##720": 3730,
      "##729": 3731,
      "##724": 3732,
      "##725": 3733,
      "##728": 3734,
      "##762": 3735,
      "##761": 3736,
      "##767": 3737,
      "##766": 3738,
      "##763": 3739,
      "##760": 3740,
      "##769": 3741,
      "##764": 3742,
      "##765": 3743,
      "##768": 3744,
      "##732": 3745,
      "##731": 3746,
      "##737": 3747,
      "##736": 3748,
      "##733": 3749,
      "##730": 3750,
      "##739": 3751,
      "##734": 3752,
      "##735": 3753,
      "##738": 3754,
      "##742": 3755,
      "##741": 3756,
      "##747": 3757,
      "##746": 3758,
      "##743": 3759,
      "##740": 3760,
      "##749": 3761,
      "##744": 3762,
      "##745": 3763,
      "##748": 3764,
      "##123": 3765,
      "##702": 3766,
      "##701": 3767,
      "##707": 3768,
      "##706": 3769,
      "##703": 3770,
      "##709": 3771,
      "##704": 3772,
      "##705": 3773,
      "##708": 3774,
      "landed": 3775,
      "resist": 3776,
      "crush": 3777,
      "##320": 3778,
      "##992": 3779,
      "##wns": 3780,
      "awd": 3781,
      "##771": 3782,
      "##777": 3783,
      "##778": 3784,
      "startup": 3785,
      "##717": 3786,
      "##718": 3787,
      "thruster": 3788,
      "curve": 3789,
      "transit": 3790,
      "transition": 3791,
      "metho": 3792,
      "videos": 3793,
      "depending": 3794,
      "retro": 3795,
      "hyp": 3796,
      "hypersonic": 3797,
      "easier": 3798,
      "rollout": 3799,
      "operation": 3800,
      "apart": 3801,
      "clearly": 3802,
      "warm": 3803,
      "computers": 3804,
      "headed": 3805,
      "locations": 3806,
      "reaching": 3807,
      "holding": 3808,
      "coverage": 3809,
      "collect": 3810,
      "effective": 3811,
      "failure": 3812,
      "stores": 3813,
      "sensible": 3814,
      "demon": 3815,
      "blackouts": 3816,
      "employ": 3817,
      "assuming": 3818,
      "irl": 3819,
      "achieving": 3820,
      "prototypes": 3821,
      "deployed": 3822,
      "behalf": 3823,
      "mounted": 3824,
      "purch": 3825,
      "activate": 3826,
      "presentation": 3827,
      "virus": 3828,
      "millions": 3829,
      "duty": 3830,
      "affordable": 3831,
      "holiday": 3832,
      "advertising": 3833,
      "family": 3834,
      "margin": 3835,
      "subsidies": 3836,
      "license": 3837,
      "temperature": 3838,
      "college": 3839,
      "emoj": 3840,
      "lmk": 3841,
      "trouble": 3842,
      "australia": 3843,
      "destroy": 3844,
      "further": 3845,
      "fossil": 3846,
      "japan": 3847,
      "florida": 3848,
      "000": 3849,
      "380": 3850,
      "600": 3851,
      "aver": 3852,
      "bric": 3853,
      "cath": 3854,
      "cute": 3855,
      "dan": 3856,
      "ded": 3857,
      "face": 3858,
      "fusion": 3859,
      "gl": 3860,
      "hous": 3861,
      "hang": 3862,
      "junk": 3863,
      "june": 3864,
      "ker": 3865,
      "lol": 3866,
      "lines": 3867,
      "lane": 3868,
      "lond": 3869,
      "mad": 3870,
      "mun": 3871,
      "nature": 3872,
      "ps": 3873,
      "pushing": 3874,
      "rud": 3875,
      "racing": 3876,
      "san": 3877,
      "sen": 3878,
      "silly": 3879,
      "ten": 3880,
      "timing": 3881,
      "vot": 3882,
      "wif": 3883,
      "wik": 3884,
      "##nes": 3885,
      "##ios": 3886,
      "##21": 3887,
      "##27": 3888,
      "##29": 3889,
      "##61": 3890,
      "##67": 3891,
      "##69": 3892,
      "##68": 3893,
      "##ah": 3894,
      "##app": 3895,
      "##round": 3896,
      "##rors": 3897,
      "##vable": 3898,
      "##51": 3899,
      "##57": 3900,
      "##59": 3901,
      "##58": 3902,
      "##for": 3903,
      "##gan": 3904,
      "##pon": 3905,
      "thus": 3906,
      "##ances": 3907,
      "##iter": 3908,
      "input": 3909,
      "##icing": 3910,
      "##icated": 3911,
      "reme": 3912,
      "react": 3913,
      "stri": 3914,
      "weak": 3915,
      "##eles": 3916,
      "##eling": 3917,
      "##che": 3918,
      "##ado": 3919,
      "prote": 3920,
      "sha": 3921,
      "shirt": 3922,
      "exe": 3923,
      "spir": 3924,
      "ascent": 3925,
      "map": 3926,
      "##uled": 3927,
      "##ram": 3928,
      "nov": 3929,
      "unit": 3930,
      "mem": 3931,
      "hex": 3932,
      "probable": 3933,
      "usage": 3934,
      "fees": 3935,
      "##ams": 3936,
      "plate": 3937,
      "plans": 3938,
      "plane": 3939,
      "produced": 3940,
      "earn": 3941,
      "solarg": 3942,
      "driven": 3943,
      "drives": 3944,
      "drivers": 3945,
      "##192": 3946,
      "##191": 3947,
      "##197": 3948,
      "##196": 3949,
      "##193": 3950,
      "##190": 3951,
      "##199": 3952,
      "##194": 3953,
      "##195": 3954,
      "##198": 3955,
      "##102": 3956,
      "##101": 3957,
      "##107": 3958,
      "##106": 3959,
      "##103": 3960,
      "##109": 3961,
      "##104": 3962,
      "##105": 3963,
      "##108": 3964,
      "##852": 3965,
      "##851": 3966,
      "##857": 3967,
      "##856": 3968,
      "##853": 3969,
      "##850": 3970,
      "##859": 3971,
      "##854": 3972,
      "##855": 3973,
      "##858": 3974,
      "##122": 3975,
      "##121": 3976,
      "##127": 3977,
      "##126": 3978,
      "##120": 3979,
      "##129": 3980,
      "##124": 3981,
      "##125": 3982,
      "##128": 3983,
      "##162": 3984,
      "##161": 3985,
      "##167": 3986,
      "##166": 3987,
      "##163": 3988,
      "##160": 3989,
      "##169": 3990,
      "##164": 3991,
      "##165": 3992,
      "##168": 3993,
      "##152": 3994,
      "##151": 3995,
      "##157": 3996,
      "##156": 3997,
      "##153": 3998,
      "##150": 3999,
      "##159": 4000,
      "##154": 4001,
      "##155": 4002,
      "##158": 4003,
      "##142": 4004,
      "##141": 4005,
      "##147": 4006,
      "##146": 4007,
      "##143": 4008,
      "##140": 4009,
      "##149": 4010,
      "##144": 4011,
      "##145": 4012,
      "##148": 4013,
      "##822": 4014,
      "##821": 4015,
      "##827": 4016,
      "##826": 4017,
      "##823": 4018,
      "##820": 4019,
      "##829": 4020,
      "##824": 4021,
      "##825": 4022,
      "##828": 4023,
      "##132": 4024,
      "##131": 4025,
      "##137": 4026,
      "##136": 4027,
      "##133": 4028,
      "##130": 4029,
      "##139": 4030,
      "##134": 4031,
      "##135": 4032,
      "##138": 4033,
      "##792": 4034,
      "##791": 4035,
      "##797": 4036,
      "##796": 4037,
      "##793": 4038,
      "##790": 4039,
      "##799": 4040,
      "##794": 4041,
      "##795": 4042,
      "##798": 4043,
      "##862": 4044,
      "##861": 4045,
      "##867": 4046,
      "##866": 4047,
      "##863": 4048,
      "##860": 4049,
      "##869": 4050,
      "##864": 4051,
      "##865": 4052,
      "##868": 4053,
      "##832": 4054,
      "##831": 4055,
      "##837": 4056,
      "##836": 4057,
      "##833": 4058,
      "##830": 4059,
      "##839": 4060,
      "##834": 4061,
      "##835": 4062,
      "##838": 4063,
      "##892": 4064,
      "##891": 4065,
      "##897": 4066,
      "##896": 4067,
      "##893": 4068,
      "##890": 4069,
      "##899": 4070,
      "##894": 4071,
      "##895": 4072,
      "##898": 4073,
      "##842": 4074,
      "##841": 4075,
      "##847": 4076,
      "##846": 4077,
      "##843": 4078,
      "##840": 4079,
      "##849": 4080,
      "##844": 4081,
      "##845": 4082,
      "##848": 4083,
      "##bert": 4084,
      "##ival": 4085,
      "##ultane": 4086,
      "landings": 4087,
      "resear": 4088,
      "##322": 4089,
      "##321": 4090,
      "##327": 4091,
      "##326": 4092,
      "##323": 4093,
      "##329": 4094,
      "##324": 4095,
      "##325": 4096,
      "##328": 4097,
      "image": 4098,
      "##991": 4099,
      "##997": 4100,
      "##996": 4101,
      "##993": 4102,
      "##990": 4103,
      "##999": 4104,
      "##994": 4105,
      "##995": 4106,
      "##998": 4107,
      "##422": 4108,
      "##421": 4109,
      "##427": 4110,
      "##426": 4111,
      "##423": 4112,
      "##420": 4113,
      "##429": 4114,
      "##424": 4115,
      "##425": 4116,
      "##428": 4117,
      "##462": 4118,
      "##461": 4119,
      "##467": 4120,
      "##466": 4121,
      "##463": 4122,
      "##460": 4123,
      "##469": 4124,
      "##464": 4125,
      "##465": 4126,
      "##468": 4127,
      "##562": 4128,
      "##561": 4129,
      "##567": 4130,
      "##566": 4131,
      "##563": 4132,
      "##560": 4133,
      "##569": 4134,
      "##564": 4135,
      "##565": 4136,
      "##568": 4137,
      "##362": 4138,
      "##361": 4139,
      "##367": 4140,
      "##366": 4141,
      "##363": 4142,
      "##360": 4143,
      "##369": 4144,
      "##364": 4145,
      "##365": 4146,
      "##368": 4147,
      "##522": 4148,
      "##521": 4149,
      "##527": 4150,
      "##526": 4151,
      "##523": 4152,
      "##520": 4153,
      "##529": 4154,
      "##524": 4155,
      "##525": 4156,
      "##528": 4157,
      "funny": 4158,
      "##302": 4159,
      "##301": 4160,
      "##307": 4161,
      "##306": 4162,
      "##303": 4163,
      "##309": 4164,
      "##304": 4165,
      "##305": 4166,
      "##308": 4167,
      "##922": 4168,
      "##921": 4169,
      "##927": 4170,
      "##926": 4171,
      "##923": 4172,
      "##920": 4173,
      "##929": 4174,
      "##924": 4175,
      "##925": 4176,
      "##928": 4177,
      "##962": 4178,
      "##961": 4179,
      "##967": 4180,
      "##966": 4181,
      "##963": 4182,
      "##960": 4183,
      "##969": 4184,
      "##964": 4185,
      "##965": 4186,
      "##968": 4187,
      "##402": 4188,
      "##401": 4189,
      "##407": 4190,
      "##406": 4191,
      "##403": 4192,
      "##409": 4193,
      "##404": 4194,
      "##405": 4195,
      "##408": 4196,
      "box": 4197,
      "##902": 4198,
      "##901": 4199,
      "##907": 4200,
      "##906": 4201,
      "##903": 4202,
      "##909": 4203,
      "##904": 4204,
      "##905": 4205,
      "##908": 4206,
      "background": 4207,
      "elev": 4208,
      "##451": 4209,
      "##457": 4210,
      "##453": 4211,
      "##459": 4212,
      "##454": 4213,
      "##455": 4214,
      "##458": 4215,
      "##331": 4216,
      "##337": 4217,
      "##333": 4218,
      "##339": 4219,
      "##334": 4220,
      "##335": 4221,
      "##338": 4222,
      "recent": 4223,
      "phil": 4224,
      "happiness": 4225,
      "##111": 4226,
      "##117": 4227,
      "##118": 4228,
      "##951": 4229,
      "##957": 4230,
      "##953": 4231,
      "##959": 4232,
      "##954": 4233,
      "##955": 4234,
      "##958": 4235,
      "##262": 4236,
      "##261": 4237,
      "##267": 4238,
      "##266": 4239,
      "##263": 4240,
      "##260": 4241,
      "##269": 4242,
      "##264": 4243,
      "##265": 4244,
      "##268": 4245,
      "##881": 4246,
      "##887": 4247,
      "##888": 4248,
      "##351": 4249,
      "##357": 4250,
      "##353": 4251,
      "##359": 4252,
      "##354": 4253,
      "##355": 4254,
      "##358": 4255,
      "##441": 4256,
      "##447": 4257,
      "##443": 4258,
      "##449": 4259,
      "##444": 4260,
      "##448": 4261,
      "score": 4262,
      "worlds": 4263,
      "##202": 4264,
      "##201": 4265,
      "##207": 4266,
      "##206": 4267,
      "##203": 4268,
      "##209": 4269,
      "##204": 4270,
      "##205": 4271,
      "##208": 4272,
      "##662": 4273,
      "##661": 4274,
      "##667": 4275,
      "##666": 4276,
      "##663": 4277,
      "##660": 4278,
      "##669": 4279,
      "##664": 4280,
      "##665": 4281,
      "##668": 4282,
      "##ocr": 4283,
      "facto": 4284,
      "consid": 4285,
      "##781": 4286,
      "##787": 4287,
      "##931": 4288,
      "##937": 4289,
      "##939": 4290,
      "##934": 4291,
      "##938": 4292,
      "##941": 4293,
      "##947": 4294,
      "##943": 4295,
      "##949": 4296,
      "##948": 4297,
      "##222": 4298,
      "##221": 4299,
      "##227": 4300,
      "##223": 4301,
      "##229": 4302,
      "##224": 4303,
      "##225": 4304,
      "##228": 4305,
      "##551": 4306,
      "##557": 4307,
      "##553": 4308,
      "##559": 4309,
      "##554": 4310,
      "##555": 4311,
      "##558": 4312,
      "inspir": 4313,
      "caught": 4314,
      "##602": 4315,
      "##601": 4316,
      "##607": 4317,
      "##606": 4318,
      "##603": 4319,
      "##609": 4320,
      "##604": 4321,
      "##605": 4322,
      "##608": 4323,
      "##817": 4324,
      "##818": 4325,
      "##341": 4326,
      "##347": 4327,
      "##343": 4328,
      "##349": 4329,
      "##348": 4330,
      "jobs": 4331,
      "advance": 4332,
      "subject": 4333,
      "leak": 4334,
      "evol": 4335,
      "evidence": 4336,
      "##251": 4337,
      "##257": 4338,
      "##253": 4339,
      "##259": 4340,
      "##254": 4341,
      "##258": 4342,
      "confident": 4343,
      "##917": 4344,
      "##918": 4345,
      "county": 4346,
      "##431": 4347,
      "##437": 4348,
      "##439": 4349,
      "##438": 4350,
      "surround": 4351,
      "reddit": 4352,
      "bright": 4353,
      "secs": 4354,
      "##651": 4355,
      "##657": 4356,
      "##653": 4357,
      "##659": 4358,
      "##654": 4359,
      "##658": 4360,
      "##621": 4361,
      "##627": 4362,
      "##623": 4363,
      "##629": 4364,
      "##624": 4365,
      "##628": 4366,
      "simultane": 4367,
      "reflect": 4368,
      "skill": 4369,
      "stopp": 4370,
      "merch": 4371,
      "excl": 4372,
      "##231": 4373,
      "##237": 4374,
      "##239": 4375,
      "##238": 4376,
      "##241": 4377,
      "##247": 4378,
      "##249": 4379,
      "##248": 4380,
      "##631": 4381,
      "##637": 4382,
      "##639": 4383,
      "##638": 4384,
      "##641": 4385,
      "##647": 4386,
      "##649": 4387,
      "##648": 4388,
      "annual": 4389,
      "drop": 4390,
      "president": 4391,
      "releases": 4392,
      "propag": 4393,
      "insanely": 4394,
      "affects": 4395,
      "lasers": 4396,
      "hearing": 4397,
      "opport": 4398,
      "eventually": 4399,
      "drone": 4400,
      "##clear": 4401,
      "leader": 4402,
      "exceeds": 4403,
      "floor": 4404,
      "honored": 4405,
      "esth": 4406,
      "settings": 4407,
      "situation": 4408,
      "walk": 4409,
      "charac": 4410,
      "ukra": 4411,
      "injuries": 4412,
      "mistake": 4413,
      "propulsion": 4414,
      "clarify": 4415,
      "criticism": 4416,
      "regarding": 4417,
      "webcast": 4418,
      "ceo": 4419,
      "thursday": 4420,
      "carmakers": 4421,
      "allocation": 4422,
      "embarr": 4423,
      "policy": 4424,
      "bottom": 4425,
      "micro": 4426,
      "picture": 4427,
      "firmware": 4428,
      "explanation": 4429,
      "arguably": 4430,
      "bfr": 4431,
      "google": 4432,
      "website": 4433,
      "london": 4434,
      "remember": 4435,
      "solarglass": 4436,
      "research": 4437,
      "embarrass": 4438,
      "180": 4439,
      "550": 4440,
      "900": 4441,
      "ban": 4442,
      "bal": 4443,
      "cu": 4444,
      "cult": 4445,
      "circ": 4446,
      "facing": 4447,
      "fiber": 4448,
      "jump": 4449,
      "lud": 4450,
      "mc": 4451,
      "pac": 4452,
      "pcr": 4453,
      "tm": 4454,
      "treat": 4455,
      "tile": 4456,
      "vect": 4457,
      "voice": 4458,
      "valley": 4459,
      "##ique": 4460,
      "##ux": 4461,
      "##ula": 4462,
      "##ees": 4463,
      "##yc": 4464,
      "##ren": 4465,
      "##rate": 4466,
      "##rous": 4467,
      "##rated": 4468,
      "##v2": 4469,
      "##lish": 4470,
      "##ford": 4471,
      "##faces": 4472,
      "##off": 4473,
      "##kn": 4474,
      "##ki": 4475,
      "##xpected": 4476,
      "##llo": 4477,
      "##itor": 4478,
      "incon": 4479,
      "##rop": 4480,
      "##utions": 4481,
      "##igation": 4482,
      "sty": 4483,
      "cov2": 4484,
      "proof": 4485,
      "##key": 4486,
      "trillion": 4487,
      "shipping": 4488,
      "exit": 4489,
      "spin": 4490,
      "aspiration": 4491,
      "1500": 4492,
      "1400": 4493,
      "seal": 4494,
      "cond": 4495,
      "christ": 4496,
      "##iment": 4497,
      "##anda": 4498,
      "compute": 4499,
      "gold": 4500,
      "upcoming": 4501,
      "commit": 4502,
      "comfort": 4503,
      "canc": 4504,
      "usable": 4505,
      "save": 4506,
      "##omb": 4507,
      "print": 4508,
      "arms": 4509,
      "##lock": 4510,
      "somewhere": 4511,
      "applied": 4512,
      "flat": 4513,
      "##gring": 4514,
      "engineer": 4515,
      "solid": 4516,
      "##berg": 4517,
      "contrib": 4518,
      "quiet": 4519,
      "boys": 4520,
      "boeing": 4521,
      "defense": 4522,
      "supporters": 4523,
      "finally": 4524,
      "repres": 4525,
      "indep": 4526,
      "grad": 4527,
      "transaction": 4528,
      "john": 4529,
      "subtle": 4530,
      "technical": 4531,
      "generate": 4532,
      "valve": 4533,
      "whereas": 4534,
      "invas": 4535,
      "invent": 4536,
      "corpor": 4537,
      "absor": 4538,
      "appreciation": 4539,
      "majority": 4540,
      "deliveries": 4541,
      "warning": 4542,
      "competitors": 4543,
      "##531": 4544,
      "##537": 4545,
      "##539": 4546,
      "##538": 4547,
      "##541": 4548,
      "##547": 4549,
      "##549": 4550,
      "##548": 4551,
      "browns": 4552,
      "annoying": 4553,
      "developing": 4554,
      "checking": 4555,
      "multiple": 4556,
      "radio": 4557,
      "dropped": 4558,
      "protect": 4559,
      "midnight": 4560,
      "credibility": 4561,
      "amounts": 4562,
      "##body": 4563,
      "releasing": 4564,
      "replaced": 4565,
      "species": 4566,
      "focused": 4567,
      "receive": 4568,
      "student": 4569,
      "ramping": 4570,
      "listen": 4571,
      "increasingly": 4572,
      "purp": 4573,
      "alien": 4574,
      "finished": 4575,
      "enabled": 4576,
      "minimize": 4577,
      "promising": 4578,
      "unexpected": 4579,
      "type": 4580,
      "talented": 4581,
      "dangerous": 4582,
      "patient": 4583,
      "##burgring": 4584,
      "journalists": 4585,
      "environment": 4586,
      "separate": 4587,
      "array": 4588,
      "communic": 4589,
      "particularly": 4590,
      "relatively": 4591,
      "maintain": 4592,
      "authorities": 4593,
      "federal": 4594,
      "apollo": 4595,
      "horizont": 4596,
      "leeward": 4597,
      "suppliers": 4598,
      "private": 4599,
      "##rief": 4600,
      "zip2": 4601,
      "whatever": 4602,
      "demonst": 4603,
      "average": 4604,
      "dedicated": 4605,
      "propaganda": 4606,
      "opportun": 4607,
      "ukraine": 4608,
      "brownsville": 4609,
      "aware": 4610,
      "bes": 4611,
      "bat": 4612,
      "bur": 4613,
      "bust": 4614,
      "biz": 4615,
      "dc": 4616,
      "din": 4617,
      "east": 4618,
      "fi": 4619,
      "gar": 4620,
      "gpu": 4621,
      "je": 4622,
      "kar": 4623,
      "moth": 4624,
      "mix": 4625,
      "nr": 4626,
      "od": 4627,
      "patter": 4628,
      "q4": 4629,
      "rh": 4630,
      "sf": 4631,
      "sort": 4632,
      "sending": 4633,
      "ww": 4634,
      "york": 4635,
      "##iot": 4636,
      "##top": 4637,
      "##head": 4638,
      "##mission": 4639,
      "##aks": 4640,
      "##son": 4641,
      "##word": 4642,
      "##rw": 4643,
      "##rac": 4644,
      "##can": 4645,
      "##fl": 4646,
      "##pay": 4647,
      "##punk": 4648,
      "therm": 4649,
      "##inks": 4650,
      "##orbit": 4651,
      "##ancy": 4652,
      "##edge": 4653,
      "##itud": 4654,
      "##stood": 4655,
      "indu": 4656,
      "inev": 4657,
      "##icrous": 4658,
      "reven": 4659,
      "repe": 4660,
      "steam": 4661,
      "stabil": 4662,
      "##irl": 4663,
      "triv": 4664,
      "shown": 4665,
      "spo": 4666,
      "1200": 4667,
      "mak": 4668,
      "master": 4669,
      "conven": 4670,
      "convert": 4671,
      "concept": 4672,
      "##ular": 4673,
      "chart": 4674,
      "child": 4675,
      "##raul": 4676,
      "##ipe": 4677,
      "1600": 4678,
      "noise": 4679,
      "##rif": 4680,
      "wasnt": 4681,
      "##apse": 4682,
      "hepa": 4683,
      "greatest": 4684,
      "spacef": 4685,
      "##ief": 4686,
      "##endar": 4687,
      "poll": 4688,
      "flies": 4689,
      "prem": 4690,
      "prefer": 4691,
      "interp": 4692,
      "##802": 4693,
      "##801": 4694,
      "##807": 4695,
      "##806": 4696,
      "##803": 4697,
      "##809": 4698,
      "##804": 4699,
      "##805": 4700,
      "##808": 4701,
      "partially": 4702,
      "whoa": 4703,
      "reser": 4704,
      "expensive": 4705,
      "##502": 4706,
      "##501": 4707,
      "##507": 4708,
      "##506": 4709,
      "##503": 4710,
      "##509": 4711,
      "##504": 4712,
      "##505": 4713,
      "##508": 4714,
      "backup": 4715,
      "pupp": 4716,
      "phones": 4717,
      "underapp": 4718,
      "capt": 4719,
      "wants": 4720,
      "consist": 4721,
      "consumpt": 4722,
      "sn5": 4723,
      "download": 4724,
      "artific": 4725,
      "discover": 4726,
      "esc": 4727,
      "cycle": 4728,
      "advent": 4729,
      "opin": 4730,
      "guide": 4731,
      "generator": 4732,
      "depart": 4733,
      "##reciated": 4734,
      "giving": 4735,
      "calendar": 4736,
      "manage": 4737,
      "revolution": 4738,
      "cyberpunk": 4739,
      "passeng": 4740,
      "windward": 4741,
      "warming": 4742,
      "posted": 4743,
      "reminder": 4744,
      "sustaining": 4745,
      "tempor": 4746,
      "roofs": 4747,
      "letting": 4748,
      "investigate": 4749,
      "optimistic": 4750,
      "broad": 4751,
      "expert": 4752,
      "developed": 4753,
      "careful": 4754,
      "doubt": 4755,
      "middle": 4756,
      "released": 4757,
      "sensors": 4758,
      "ultimately": 4759,
      "damage": 4760,
      "specific": 4761,
      "empty": 4762,
      "followed": 4763,
      "entirely": 4764,
      "hydraul": 4765,
      "study": 4766,
      "understanding": 4767,
      "shielding": 4768,
      "addressed": 4769,
      "falling": 4770,
      "atmospheric": 4771,
      "russia": 4772,
      "degrees": 4773,
      "consumers": 4774,
      "##burg": 4775,
      "straight": 4776,
      "route": 4777,
      "measure": 4778,
      "reliability": 4779,
      "replacement": 4780,
      "forgot": 4781,
      "claim": 4782,
      "hurt": 4783,
      "assembly": 4784,
      "moderate": 4785,
      "constantly": 4786,
      "diesel": 4787,
      "random": 4788,
      "antenna": 4789,
      "cathode": 4790,
      "wifi": 4791,
      "memory": 4792,
      "considering": 4793,
      "embarrassing": 4794,
      "ludicrous": 4795,
      "tmrw": 4796,
      "battle": 4797,
      "nrburgring": 4798,
      "pattern": 4799,
      "underappreciated": 4800,
      "consumption": 4801,
      "700": 4802,
      "bene": 4803,
      "cab": 4804,
      "cities": 4805,
      "div": 4806,
      "eat": 4807,
      "gro": 4808,
      "gun": 4809,
      "horn": 4810,
      "hvac": 4811,
      "iv": 4812,
      "ic": 4813,
      "jan": 4814,
      "kw": 4815,
      "kwh": 4816,
      "led": 4817,
      "lighter": 4818,
      "mane": 4819,
      "pending": 4820,
      "que": 4821,
      "rip": 4822,
      "six": 4823,
      "sats": 4824,
      "tv": 4825,
      "tun": 4826,
      "table": 4827,
      "vi": 4828,
      "van": 4829,
      "vary": 4830,
      "wing": 4831,
      "wings": 4832,
      "wider": 4833,
      "width": 4834,
      "zone": 4835,
      "##time": 4836,
      "##uit": 4837,
      "##vention": 4838,
      "##ges": 4839,
      "##inary": 4840,
      "##eshold": 4841,
      "theor": 4842,
      "inno": 4843,
      "rew": 4844,
      "stick": 4845,
      "stamp": 4846,
      "stole": 4847,
      "##ches": 4848,
      "##iring": 4849,
      "##thr": 4850,
      "ham": 4851,
      "tri": 4852,
      "##iler": 4853,
      "enjo": 4854,
      "exch": 4855,
      "notice": 4856,
      "lives": 4857,
      "lifet": 4858,
      "doz": 4859,
      "spoke": 4860,
      "1100": 4861,
      "alert": 4862,
      "sever": 4863,
      "##ants": 4864,
      "##ipment": 4865,
      "uns": 4866,
      "unkn": 4867,
      "##ried": 4868,
      "##rible": 4869,
      "##osene": 4870,
      "##ift": 4871,
      "spaceport": 4872,
      "feb": 4873,
      "faith": 4874,
      "produce": 4875,
      "adult": 4876,
      "lease": 4877,
      "##mod": 4878,
      "pods": 4879,
      "##asshopper": 4880,
      "peace": 4881,
      "interse": 4882,
      "threshold": 4883,
      "perio": 4884,
      "twea": 4885,
      "orbits": 4886,
      "everywhere": 4887,
      "symb": 4888,
      "##ructions": 4889,
      "draw": 4890,
      "understood": 4891,
      "##metry": 4892,
      "region": 4893,
      "##ocaly": 4894,
      "sn4": 4895,
      "insight": 4896,
      "ended": 4897,
      "cave": 4898,
      "indic": 4899,
      "##agree": 4900,
      "grand": 4901,
      "grasshopper": 4902,
      "disagree": 4903,
      "completing": 4904,
      "blue": 4905,
      "blood": 4906,
      "fairly": 4907,
      "100k": 4908,
      "century": 4909,
      "missed": 4910,
      "meth": 4911,
      "surfaces": 4912,
      "terms": 4913,
      "differences": 4914,
      "updated": 4915,
      "calc": 4916,
      "medium": 4917,
      "talked": 4918,
      "turning": 4919,
      "instructions": 4920,
      "stops": 4921,
      "brake": 4922,
      "supercharging": 4923,
      "apolog": 4924,
      "fold": 4925,
      "multi": 4926,
      "remains": 4927,
      "posit": 4928,
      "ironically": 4929,
      "funding": 4930,
      "seconds": 4931,
      "optimization": 4932,
      "broken": 4933,
      "physical": 4934,
      "##fficient": 4935,
      "emiss": 4936,
      "succeed": 4937,
      "collapse": 4938,
      "##cracy": 4939,
      "reduction": 4940,
      "keeps": 4941,
      "##box": 4942,
      "##board": 4943,
      "failed": 4944,
      "pieces": 4945,
      "hello": 4946,
      "origin": 4947,
      "economy": 4948,
      "economics": 4949,
      "affected": 4950,
      "nyt": 4951,
      "debate": 4952,
      "labor": 4953,
      "labeling": 4954,
      "equipment": 4955,
      "subscription": 4956,
      "fallout": 4957,
      "achieved": 4958,
      "connected": 4959,
      "mk1": 4960,
      "mentioned": 4961,
      "astronom": 4962,
      "growth": 4963,
      "layers": 4964,
      "vastly": 4965,
      "objects": 4966,
      "learn": 4967,
      "necessarily": 4968,
      "accounts": 4969,
      "duties": 4970,
      "occup": 4971,
      "pushed": 4972,
      "injury": 4973,
      "charging": 4974,
      "recovery": 4975,
      "recovered": 4976,
      "terrible": 4977,
      "docking": 4978,
      "megap": 4979,
      "terminals": 4980,
      "blade": 4981,
      "survival": 4982,
      "scientists": 4983,
      "titan": 4984,
      "controlled": 4985,
      "validation": 4986,
      "principle": 4987,
      "fiction": 4988,
      "compression": 4989,
      "werent": 4990,
      "junky": 4991,
      "kerosene": 4992,
      "protection": 4993,
      "pacific": 4994,
      "vector": 4995,
      "aspirationally": 4996,
      "christmas": 4997,
      "revenue": 4998,
      "interplanetary": 4999,
      "opinion": 5000,
      "maneu": 5001,
      "unknown": 5002,
      "2k": 5003,
      "5k": 5004,
      "ben": 5005,
      "bull": 5006,
      "born": 5007,
      "banks": 5008,
      "cow": 5009,
      "dm": 5010,
      "fp": 5011,
      "fac": 5012,
      "fill": 5013,
      "fwd": 5014,
      "hence": 5015,
      "jet": 5016,
      "jup": 5017,
      "mas": 5018,
      "n2": 5019,
      "nh": 5020,
      "nons": 5021,
      "og": 5022,
      "ota": 5023,
      "pal": 5024,
      "pull": 5025,
      "ring": 5026,
      "rum": 5027,
      "sle": 5028,
      "sand": 5029,
      "sick": 5030,
      "v8": 5031,
      "vid": 5032,
      "vanden": 5033,
      "ws": 5034,
      "west": 5035,
      "wire": 5036,
      "##to": 5037,
      "##ton": 5038,
      "##has": 5039,
      "##how": 5040,
      "##ued": 5041,
      "##ma": 5042,
      "##burn": 5043,
      "##aoke": 5044,
      "##wor": 5045,
      "##rding": 5046,
      "##vada": 5047,
      "##ov": 5048,
      "##od": 5049,
      "##ogn": 5050,
      "##dom": 5051,
      "##pro": 5052,
      "##pack": 5053,
      "##inge": 5054,
      "tour": 5055,
      "##rele": 5056,
      "bear": 5057,
      "reb": 5058,
      "reference": 5059,
      "reverse": 5060,
      "stat": 5061,
      "stan": 5062,
      "item": 5063,
      "coal": 5064,
      "##eless": 5065,
      "##ided": 5066,
      "##allel": 5067,
      "neither": 5068,
      "nevada": 5069,
      "proceed": 5070,
      "suit": 5071,
      "trunk": 5072,
      "shorter": 5073,
      "lie": 5074,
      "living": 5075,
      "##ables": 5076,
      "atlas": 5077,
      "doors": 5078,
      "sports": 5079,
      "asim": 5080,
      "asking": 5081,
      "alive": 5082,
      "1300": 5083,
      "worry": 5084,
      "##ounting": 5085,
      "nobody": 5086,
      "wasn": 5087,
      "compens": 5088,
      "lame": 5089,
      "##ifically": 5090,
      "upon": 5091,
      "##mentally": 5092,
      "modern": 5093,
      "##acked": 5094,
      "loves": 5095,
      "##ounds": 5096,
      "arm": 5097,
      "##ended": 5098,
      "somehow": 5099,
      "##ember": 5100,
      "##pton": 5101,
      "prepar": 5102,
      "preburn": 5103,
      "thru": 5104,
      "yourself": 5105,
      "perman": 5106,
      "intention": 5107,
      "conte": 5108,
      "powertra": 5109,
      "lands": 5110,
      "resale": 5111,
      "residual": 5112,
      "resolution": 5113,
      "explos": 5114,
      "knight": 5115,
      "boat": 5116,
      "mini": 5117,
      "click": 5118,
      "puck": 5119,
      "recogn": 5120,
      "underground": 5121,
      "extending": 5122,
      "scor": 5123,
      "##ronic": 5124,
      "helium": 5125,
      "obser": 5126,
      "sn1": 5127,
      "signs": 5128,
      "roads": 5129,
      "leave": 5130,
      "central": 5131,
      "depth": 5132,
      "belie": 5133,
      "brand": 5134,
      "publicly": 5135,
      "ordered": 5136,
      "planets": 5137,
      "planned": 5138,
      "taxpay": 5139,
      "decade": 5140,
      "command": 5141,
      "rolls": 5142,
      "controls": 5143,
      "operate": 5144,
      "motion": 5145,
      "internally": 5146,
      "international": 5147,
      "##gging": 5148,
      "delivering": 5149,
      "played": 5150,
      "detect": 5151,
      "postpon": 5152,
      "remaining": 5153,
      "reached": 5154,
      "difficulty": 5155,
      "investor": 5156,
      "optimal": 5157,
      "experts": 5158,
      "optional": 5159,
      "schrding": 5160,
      "upgrading": 5161,
      "handle": 5162,
      "discount": 5163,
      "daily": 5164,
      "reduced": 5165,
      "blog": 5166,
      "winter": 5167,
      "watching": 5168,
      "specifically": 5169,
      "economic": 5170,
      "irrele": 5171,
      "liftoff": 5172,
      "turbine": 5173,
      "offering": 5174,
      "providing": 5175,
      "maximize": 5176,
      "structural": 5177,
      "digging": 5178,
      "degree": 5179,
      "incentive": 5180,
      "causes": 5181,
      "##lications": 5182,
      "pyram": 5183,
      "mechanical": 5184,
      "environmental": 5185,
      "separation": 5186,
      "breakthr": 5187,
      "jacket": 5188,
      "nuclear": 5189,
      "applying": 5190,
      "eyes": 5191,
      "speaker": 5192,
      "september": 5193,
      "cycles": 5194,
      "beginning": 5195,
      "eggs": 5196,
      "lucky": 5197,
      "shareholder": 5198,
      "exponential": 5199,
      "robotaxi": 5200,
      "quickly": 5201,
      "refilling": 5202,
      "coinc": 5203,
      "purchase": 5204,
      "reactor": 5205,
      "exec": 5206,
      "style": 5207,
      "represent": 5208,
      "invasive": 5209,
      "corporate": 5210,
      "horizontal": 5211,
      "busted": 5212,
      "odds": 5213,
      "artificial": 5214,
      "hydraulic": 5215,
      "lifetime": 5216,
      "jupiter": 5217,
      "nhts": 5218,
      "vandenberg": 5219,
      "wsj": 5220,
      "schrdinger": 5221,
      "breakthrough": 5222,
      "ari": 5223,
      "breat": 5224,
      "bio": 5225,
      "coup": 5226,
      "dense": 5227,
      "fh": 5228,
      "food": 5229,
      "fart": 5230,
      "gal": 5231,
      "jer": 5232,
      "kg": 5233,
      "mi": 5234,
      "mor": 5235,
      "men": 5236,
      "mit": 5237,
      "mal": 5238,
      "nar": 5239,
      "p1": 5240,
      "pers": 5241,
      "rn": 5242,
      "ren": 5243,
      "rig": 5244,
      "rent": 5245,
      "rich": 5246,
      "sed": 5247,
      "sir": 5248,
      "srs": 5249,
      "tire": 5250,
      "trees": 5251,
      "ula": 5252,
      "wast": 5253,
      "yay": 5254,
      "yoke": 5255,
      "##ners": 5256,
      "##tronic": 5257,
      "##hib": 5258,
      "##heed": 5259,
      "##uations": 5260,
      "##uish": 5261,
      "##aign": 5262,
      "##ault": 5263,
      "##akes": 5264,
      "##ection": 5265,
      "##vior": 5266,
      "##lies": 5267,
      "##fall": 5268,
      "##father": 5269,
      "##oids": 5270,
      "##ged": 5271,
      "##gering": 5272,
      "##pal": 5273,
      "##xy": 5274,
      "##erg": 5275,
      "throw": 5276,
      "thick": 5277,
      "##ona": 5278,
      "##oring": 5279,
      "##orse": 5280,
      "##edy": 5281,
      "##als": 5282,
      "##icks": 5283,
      "##icians": 5284,
      "beast": 5285,
      "##vey": 5286,
      "##ison": 5287,
      "##ota": 5288,
      "onion": 5289,
      "##illa": 5290,
      "stag": 5291,
      "stuck": 5292,
      "coating": 5293,
      "weap": 5294,
      "##ched": 5295,
      "##urr": 5296,
      "moons": 5297,
      "moves": 5298,
      "moved": 5299,
      "trial": 5300,
      "trains": 5301,
      "traction": 5302,
      "exists": 5303,
      "spot": 5304,
      "align": 5305,
      "season": 5306,
      "search": 5307,
      "##imler": 5308,
      "##rage": 5309,
      "nom": 5310,
      "rom": 5311,
      "unus": 5312,
      "##uman": 5313,
      "goodness": 5314,
      "hey": 5315,
      "heats": 5316,
      "wouldn": 5317,
      "wouldve": 5318,
      "safer": 5319,
      "fee": 5320,
      "therefore": 5321,
      "##00d": 5322,
      "shouldnt": 5323,
      "plat": 5324,
      "placed": 5325,
      "adm": 5326,
      "applies": 5327,
      "bump": 5328,
      "bugs": 5329,
      "poly": 5330,
      "##quil": 5331,
      "fired": 5332,
      "superd": 5333,
      "superall": 5334,
      "permit": 5335,
      "intent": 5336,
      "contact": 5337,
      "whenever": 5338,
      "quant": 5339,
      "resc": 5340,
      "express": 5341,
      "recall": 5342,
      "recyc": 5343,
      "earths": 5344,
      "scam": 5345,
      "additional": 5346,
      "sn8": 5347,
      "endorse": 5348,
      "caut": 5349,
      "displ": 5350,
      "curious": 5351,
      "##encies": 5352,
      "paypal": 5353,
      "transl": 5354,
      "jokes": 5355,
      "fran": 5356,
      "advice": 5357,
      "events": 5358,
      "increased": 5359,
      "cores": 5360,
      "parallel": 5361,
      "amazingly": 5362,
      "medtronic": 5363,
      "decent": 5364,
      "decision": 5365,
      "decades": 5366,
      "flame": 5367,
      "##lessly": 5368,
      "rolled": 5369,
      "simpler": 5370,
      "brakes": 5371,
      "apocaly": 5372,
      "volt": 5373,
      "merk": 5374,
      "password": 5375,
      "untr": 5376,
      "machines": 5377,
      "computing": 5378,
      "creation": 5379,
      "posting": 5380,
      "remind": 5381,
      "remote": 5382,
      "investig": 5383,
      "reasonable": 5384,
      "experi": 5385,
      "experiment": 5386,
      "attention": 5387,
      "risky": 5388,
      "foundry": 5389,
      "buyers": 5390,
      "dropping": 5391,
      "email": 5392,
      "hands": 5393,
      "handling": 5394,
      "views": 5395,
      "dealer": 5396,
      "dealers": 5397,
      "distract": 5398,
      "info": 5399,
      "infinite": 5400,
      "damp": 5401,
      "daimler": 5402,
      "colors": 5403,
      "winning": 5404,
      "analy": 5405,
      "logs": 5406,
      "loads": 5407,
      "edge": 5408,
      "sentient": 5409,
      "manufactur": 5410,
      "potentially": 5411,
      "fundamentally": 5412,
      "ultimate": 5413,
      "watched": 5414,
      "emphas": 5415,
      "programm": 5416,
      "programs": 5417,
      "sheep": 5418,
      "strongly": 5419,
      "buttons": 5420,
      "negatively": 5421,
      "univers": 5422,
      "catching": 5423,
      "tweeting": 5424,
      "geor": 5425,
      "##ruption": 5426,
      "navigation": 5427,
      "##ribed": 5428,
      "repairs": 5429,
      "horse": 5430,
      "digital": 5431,
      "causing": 5432,
      "caused": 5433,
      "blowing": 5434,
      "enables": 5435,
      "enabling": 5436,
      "device": 5437,
      "respons": 5438,
      "photon": 5439,
      "errors": 5440,
      "learned": 5441,
      "patents": 5442,
      "processing": 5443,
      "pickup": 5444,
      "thousand": 5445,
      "eye": 5446,
      "##point": 5447,
      "financing": 5448,
      "surprisingly": 5449,
      "hospitals": 5450,
      "lockheed": 5451,
      "expanding": 5452,
      "sucks": 5453,
      "convinced": 5454,
      "deserves": 5455,
      "attached": 5456,
      "entertainment": 5457,
      "germany": 5458,
      "h2o": 5459,
      "behavior": 5460,
      "campaign": 5461,
      "footage": 5462,
      "monty": 5463,
      "paper": 5464,
      "inertia": 5465,
      "startups": 5466,
      "employees": 5467,
      "emoji": 5468,
      "bricks": 5469,
      "##iosis": 5470,
      "elevator": 5471,
      "evolving": 5472,
      "stopped": 5473,
      "esthet": 5474,
      "character": 5475,
      "cuph": 5476,
      "independent": 5477,
      "patients": 5478,
      "escape": 5479,
      "passenger": 5480,
      "innovation": 5481,
      "severe": 5482,
      "period": 5483,
      "symbiosis": 5484,
      "positives": 5485,
      "titanium": 5486,
      "junkyard": 5487,
      "nonsense": 5488,
      "asimov": 5489,
      "nhtsa": 5490,
      "p100d": 5491,
      "srsly": 5492,
      "display": 5493,
      "bb": 5494,
      "btc": 5495,
      "brief": 5496,
      "cit": 5497,
      "cro": 5498,
      "cure": 5499,
      "cats": 5500,
      "cumul": 5501,
      "cgi": 5502,
      "dial": 5503,
      "dyn": 5504,
      "eve": 5505,
      "five": 5506,
      "fish": 5507,
      "gain": 5508,
      "homes": 5509,
      "ich": 5510,
      "kor": 5511,
      "lun": 5512,
      "lbs": 5513,
      "mere": 5514,
      "mort": 5515,
      "nan": 5516,
      "nuts": 5517,
      "os": 5518,
      "packs": 5519,
      "rates": 5520,
      "rule": 5521,
      "rwd": 5522,
      "sx": 5523,
      "tx": 5524,
      "tar": 5525,
      "tint": 5526,
      "ui": 5527,
      "vat": 5528,
      "wra": 5529,
      "wood": 5530,
      "wins": 5531,
      "ya": 5532,
      "##nage": 5533,
      "##hield": 5534,
      "##mous": 5535,
      "##ba": 5536,
      "##bing": 5537,
      "##bed": 5538,
      "##au": 5539,
      "##aur": 5540,
      "##aff": 5541,
      "##eal": 5542,
      "##ech": 5543,
      "##well": 5544,
      "##list": 5545,
      "##lantic": 5546,
      "##fest": 5547,
      "##oint": 5548,
      "##oys": 5549,
      "##ping": 5550,
      "##pse": 5551,
      "##power": 5552,
      "threat": 5553,
      "##aring": 5554,
      "##arre": 5555,
      "##lly": 5556,
      "toy": 5557,
      "toast": 5558,
      "##itas": 5559,
      "##rete": 5560,
      "##stream": 5561,
      "##struct": 5562,
      "inject": 5563,
      "##rock": 5564,
      "##iced": 5565,
      "##let": 5566,
      "beats": 5567,
      "##ionics": 5568,
      "ampl": 5569,
      "stability": 5570,
      "stacking": 5571,
      "copper": 5572,
      "##adian": 5573,
      "##urally": 5574,
      "pros": 5575,
      "proport": 5576,
      "##ithm": 5577,
      "trig": 5578,
      "enem": 5579,
      "shape": 5580,
      "##opter": 5581,
      "likes": 5582,
      "atlantic": 5583,
      "dogs": 5584,
      "spending": 5585,
      "aspir": 5586,
      "algor": 5587,
      "##ested": 5588,
      "##estone": 5589,
      "##estream": 5590,
      "deus": 5591,
      "##ulated": 5592,
      "choo": 5593,
      "##imation": 5594,
      "alloy": 5595,
      "unable": 5596,
      "unique": 5597,
      "##rier": 5598,
      "memb": 5599,
      "compell": 5600,
      "##osed": 5601,
      "lake": 5602,
      "laugh": 5603,
      "##ifying": 5604,
      "##ainty": 5605,
      "canadian": 5606,
      "saves": 5607,
      "safest": 5608,
      "pract": 5609,
      "pricing": 5610,
      "lob": 5611,
      "##amine": 5612,
      "ama": 5613,
      "among": 5614,
      "##rys": 5615,
      "appar": 5616,
      "text": 5617,
      "leo": 5618,
      "##quiv": 5619,
      "solves": 5620,
      "superh": 5621,
      "agi": 5622,
      "income": 5623,
      "launched": 5624,
      "interface": 5625,
      "accumul": 5626,
      "resol": 5627,
      "server": 5628,
      "##rict": 5629,
      "recently": 5630,
      "phd": 5631,
      "airport": 5632,
      "conser": 5633,
      "sn2": 5634,
      "sn10": 5635,
      "gene": 5636,
      "ends": 5637,
      "idiot": 5638,
      "becomes": 5639,
      "farm": 5640,
      "joe": 5641,
      "joy": 5642,
      "##atched": 5643,
      "hole": 5644,
      "leaving": 5645,
      "missing": 5646,
      "bother": 5647,
      "confusion": 5648,
      "valu": 5649,
      "lateral": 5650,
      "redund": 5651,
      "ordering": 5652,
      "manag": 5653,
      "currency": 5654,
      "avionics": 5655,
      "medical": 5656,
      "limits": 5657,
      "limiting": 5658,
      "openai": 5659,
      "decide": 5660,
      "declin": 5661,
      "commission": 5662,
      "showing": 5663,
      "regular": 5664,
      "regulations": 5665,
      "personal": 5666,
      "visiting": 5667,
      "##comp": 5668,
      "merry": 5669,
      "passing": 5670,
      "passive": 5671,
      "rising": 5672,
      "cheese": 5673,
      "remark": 5674,
      "competing": 5675,
      "combine": 5676,
      "wave": 5677,
      "movement": 5678,
      "multiplanet": 5679,
      "radi": 5680,
      "formula": 5681,
      "doug": 5682,
      "covers": 5683,
      "covered": 5684,
      "robust": 5685,
      "closing": 5686,
      "detailed": 5687,
      "distrib": 5688,
      "returned": 5689,
      "##standing": 5690,
      "turbo": 5691,
      "keeping": 5692,
      "traveling": 5693,
      "sentry": 5694,
      "sensitive": 5695,
      "bots": 5696,
      "focusing": 5697,
      "wishes": 5698,
      "reporting": 5699,
      "following": 5700,
      "sheer": 5701,
      "suggests": 5702,
      "factories": 5703,
      "begins": 5704,
      "turbines": 5705,
      "sources": 5706,
      "tbc": 5707,
      "statement": 5708,
      "includes": 5709,
      "epis": 5710,
      "bringing": 5711,
      "deployment": 5712,
      "silver": 5713,
      "crewed": 5714,
      "saturn": 5715,
      "blows": 5716,
      "unequiv": 5717,
      "photos": 5718,
      "thrott": 5719,
      "jamming": 5720,
      "arrived": 5721,
      "learning": 5722,
      "adjusting": 5723,
      "precisely": 5724,
      "cryptoc": 5725,
      "ridicul": 5726,
      "straw": 5727,
      "approximately": 5728,
      "boosters": 5729,
      "##ological": 5730,
      "continuous": 5731,
      "casting": 5732,
      "propulsive": 5733,
      "bankruptcy": 5734,
      "podcast": 5735,
      "explain": 5736,
      "foolish": 5737,
      "reliable": 5738,
      "kidding": 5739,
      "traditional": 5740,
      "sweet": 5741,
      "concerns": 5742,
      "shareholders": 5743,
      "naturally": 5744,
      "encounter": 5745,
      "sequence": 5746,
      "political": 5747,
      "streets": 5748,
      "dollar": 5749,
      "godot": 5750,
      "monopol": 5751,
      "imagine": 5752,
      "absurdly": 5753,
      "##graphy": 5754,
      "pedestrian": 5755,
      "pedestrians": 5756,
      "iteration": 5757,
      "parachutes": 5758,
      "renewable": 5759,
      "grey": 5760,
      "conversation": 5761,
      "resistance": 5762,
      "methods": 5763,
      "houses": 5764,
      "##force": 5765,
      "shaft": 5766,
      "spirit": 5767,
      "simultaneously": 5768,
      "balance": 5769,
      "cancel": 5770,
      "besides": 5771,
      "bizarre": 5772,
      "##raco": 5773,
      "thermal": 5774,
      "inevitable": 5775,
      "trivial": 5776,
      "spaceflight": 5777,
      "puppet": 5778,
      "benefit": 5779,
      "tweaks": 5780,
      "methane": 5781,
      "maneuver": 5782,
      "bullet": 5783,
      "stanford": 5784,
      "preparing": 5785,
      "postponed": 5786,
      "narrow": 5787,
      "staggering": 5788,
      "superdraco": 5789,
      "recycling": 5790,
      "voltage": 5791,
      "untrue": 5792,
      "emphasize": 5793,
      "cumulative": 5794,
      "dynam": 5795,
      "unequivoc": 5796,
      "aer": 5797,
      "boun": 5798,
      "bare": 5799,
      "brow": 5800,
      "cm": 5801,
      "cd": 5802,
      "dream": 5803,
      "ein": 5804,
      "eap": 5805,
      "fel": 5806,
      "ferm": 5807,
      "gent": 5808,
      "girl": 5809,
      "hr": 5810,
      "ip": 5811,
      "king": 5812,
      "lu": 5813,
      "lz": 5814,
      "lan": 5815,
      "lord": 5816,
      "ment": 5817,
      "mich": 5818,
      "muse": 5819,
      "nvid": 5820,
      "nope": 5821,
      "pun": 5822,
      "pair": 5823,
      "pne": 5824,
      "pounds": 5825,
      "q2": 5826,
      "q1": 5827,
      "q3": 5828,
      "sig": 5829,
      "tay": 5830,
      "tim": 5831,
      "vt": 5832,
      "wom": 5833,
      "witch": 5834,
      "yaw": 5835,
      "##ng": 5836,
      "##ius": 5837,
      "##uitive": 5838,
      "##mare": 5839,
      "##bor": 5840,
      "##ban": 5841,
      "##bel": 5842,
      "##rant": 5843,
      "##land": 5844,
      "##lich": 5845,
      "##lines": 5846,
      "##fo": 5847,
      "##oh": 5848,
      "##omp": 5849,
      "##ola": 5850,
      "##da": 5851,
      "##do": 5852,
      "##days": 5853,
      "##gus": 5854,
      "##pire": 5855,
      "thail": 5856,
      "toile": 5857,
      "tops": 5858,
      "##rew": 5859,
      "##rets": 5860,
      "##sters": 5861,
      "##alty": 5862,
      "##rogen": 5863,
      "##icine": 5864,
      "##isl": 5865,
      "##otes": 5866,
      "forced": 5867,
      "forcing": 5868,
      "##eth": 5869,
      "##etch": 5870,
      "sole": 5871,
      "stable": 5872,
      "weigh": 5873,
      "##idd": 5874,
      "wheres": 5875,
      "whoop": 5876,
      "##allow": 5877,
      "##urized": 5878,
      "proven": 5879,
      "trag": 5880,
      "##ili": 5881,
      "##ilities": 5882,
      "shar": 5883,
      "##oph": 5884,
      "liked": 5885,
      "dom": 5886,
      "organ": 5887,
      "asia": 5888,
      "sees": 5889,
      "select": 5890,
      "##ulate": 5891,
      "chea": 5892,
      "##ips": 5893,
      "roc": 5894,
      "##ribe": 5895,
      "justice": 5896,
      "mexic": 5897,
      "goods": 5898,
      "lax": 5899,
      "held": 5900,
      "spaceball": 5901,
      "sam": 5902,
      "saving": 5903,
      "english": 5904,
      "##aming": 5905,
      "##duct": 5906,
      "aren": 5907,
      "hash": 5908,
      "hasnt": 5909,
      "plug": 5910,
      "theyd": 5911,
      "produces": 5912,
      "applications": 5913,
      "poor": 5914,
      "overr": 5915,
      "acid": 5916,
      "solutions": 5917,
      "hops": 5918,
      "permission": 5919,
      "twist": 5920,
      "tweak": 5921,
      "intro": 5922,
      "intended": 5923,
      "##ensing": 5924,
      "monthly": 5925,
      "funds": 5926,
      "##rica": 5927,
      "bogus": 5928,
      "mining": 5929,
      "smith": 5930,
      "defe": 5931,
      "cloud": 5932,
      "clicks": 5933,
      "elements": 5934,
      "phased": 5935,
      "earthqu": 5936,
      "scr": 5937,
      "scen": 5938,
      "scra": 5939,
      "africa": 5940,
      "finishing": 5941,
      "afterno": 5942,
      "sn6": 5943,
      "inspe": 5944,
      "ending": 5945,
      "ident": 5946,
      "office": 5947,
      "became": 5948,
      "grade": 5949,
      "##enced": 5950,
      "paywall": 5951,
      "transpar": 5952,
      "joined": 5953,
      "fred": 5954,
      "seemed": 5955,
      "opens": 5956,
      "calling": 5957,
      "guard": 5958,
      "subst": 5959,
      "subway": 5960,
      "confl": 5961,
      "throughout": 5962,
      "30pm": 5963,
      "differential": 5964,
      "bran": 5965,
      "brit": 5966,
      "brought": 5967,
      "branden": 5968,
      "param": 5969,
      "raised": 5970,
      "manip": 5971,
      "medicine": 5972,
      "legisl": 5973,
      "simulations": 5974,
      "refine": 5975,
      "fastest": 5976,
      "instant": 5977,
      "roller": 5978,
      "interests": 5979,
      "visible": 5980,
      "donate": 5981,
      "nightmare": 5982,
      "swift": 5983,
      "barrel": 5984,
      "deeply": 5985,
      "expecting": 5986,
      "broke": 5987,
      "physically": 5988,
      "restart": 5989,
      "generalized": 5990,
      "constit": 5991,
      "protest": 5992,
      "continues": 5993,
      "polar": 5994,
      "widely": 5995,
      "collision": 5996,
      "trucks": 5997,
      "initi": 5998,
      "safely": 5999,
      "dawn": 6000,
      "stories": 6001,
      "sensor": 6002,
      "suggested": 6003,
      "##ventions": 6004,
      "lifting": 6005,
      "installation": 6006,
      "understands": 6007,
      "breaks": 6008,
      "equal": 6009,
      "honest": 6010,
      "urban": 6011,
      "exceptional": 6012,
      "beauty": 6013,
      "thinks": 6014,
      "concrete": 6015,
      "gravitas": 6016,
      "message": 6017,
      "maximizing": 6018,
      "ideal": 6019,
      "configur": 6020,
      "configuration": 6021,
      "soul": 6022,
      "growing": 6023,
      "profound": 6024,
      "flamethrowers": 6025,
      "linux": 6026,
      "satis": 6027,
      "ventilator": 6028,
      "minimizing": 6029,
      "billions": 6030,
      "rendering": 6031,
      "democracy": 6032,
      "argument": 6033,
      "photo": 6034,
      "scheduled": 6035,
      "arrives": 6036,
      "cryogen": 6037,
      "illust": 6038,
      "situations": 6039,
      "aborted": 6040,
      "wednes": 6041,
      "windows": 6042,
      "synth": 6043,
      "discussion": 6044,
      "sonic": 6045,
      "materials": 6046,
      "killing": 6047,
      "fluid": 6048,
      "switched": 6049,
      "eastern": 6050,
      "judge": 6051,
      "minecraft": 6052,
      "chips": 6053,
      "financial": 6054,
      "losing": 6055,
      "tradem": 6056,
      "constraints": 6057,
      "tuesday": 6058,
      "##stein": 6059,
      "uncert": 6060,
      "ambient": 6061,
      "entertaining": 6062,
      "german": 6063,
      "dollars": 6064,
      "buffet": 6065,
      "monopo": 6066,
      "scaling": 6067,
      "vaccines": 6068,
      "asteroids": 6069,
      "parachute": 6070,
      "renewables": 6071,
      "mirror": 6072,
      "milestone": 6073,
      "unreal": 6074,
      "retrofit": 6075,
      "hypocr": 6076,
      "destroyed": 6077,
      "munro": 6078,
      "inspired": 6079,
      "condition": 6080,
      "listening": 6081,
      "purpose": 6082,
      "communication": 6083,
      "opportunity": 6084,
      "fiat": 6085,
      "garage": 6086,
      "##topia": 6087,
      "##itudes": 6088,
      "stabilize": 6089,
      "maker": 6090,
      "theoret": 6091,
      "enjoy": 6092,
      "dozen": 6093,
      "apologies": 6094,
      "emissions": 6095,
      "context": 6096,
      "powertrain": 6097,
      "irrelevant": 6098,
      "coincidence": 6099,
      "couple": 6100,
      "##urrency": 6101,
      "heatshield": 6102,
      "polytopia": 6103,
      "quantum": 6104,
      "esthetics": 6105,
      "cuphead": 6106,
      "citiz": 6107,
      "proportion": 6108,
      "members": 6109,
      "compelling": 6110,
      "superhuman": 6111,
      "valuable": 6112,
      "distribution": 6113,
      "cryptocurrency": 6114,
      "browser": 6115,
      "fermi": 6116,
      "museum": 6117,
      "nvidia": 6118,
      "pneum": 6119,
      "thailand": 6120,
      "mexico": 6121,
      "spaceballs": 6122,
      "brandenburg": 6123,
      "wednesday": 6124,
      "bon": 6125,
      "ble": 6126,
      "bol": 6127,
      "bure": 6128,
      "bunch": 6129,
      "boss": 6130,
      "bond": 6131,
      "bern": 6132,
      "bounce": 6133,
      "cir": 6134,
      "card": 6135,
      "das": 6136,
      "dad": 6137,
      "dil": 6138,
      "dim": 6139,
      "dive": 6140,
      "dare": 6141,
      "dign": 6142,
      "dia": 6143,
      "fu": 6144,
      "fy": 6145,
      "fru": 6146,
      "father": 6147,
      "gather": 6148,
      "hq": 6149,
      "hull": 6150,
      "hors": 6151,
      "hidd": 6152,
      "ii": 6153,
      "jim": 6154,
      "kry": 6155,
      "kick": 6156,
      "lar": 6157,
      "lid": 6158,
      "lil": 6159,
      "lack": 6160,
      "mm": 6161,
      "mat": 6162,
      "moo": 6163,
      "mand": 6164,
      "na": 6165,
      "np": 6166,
      "nit": 6167,
      "nut": 6168,
      "pill": 6169,
      "pra": 6170,
      "pors": 6171,
      "pilot": 6172,
      "pix": 6173,
      "patch": 6174,
      "rage": 6175,
      "rated": 6176,
      "river": 6177,
      "rna": 6178,
      "sla": 6179,
      "seam": 6180,
      "sites": 6181,
      "ted": 6182,
      "tent": 6183,
      "tong": 6184,
      "tune": 6185,
      "teles": 6186,
      "vict": 6187,
      "wis": 6188,
      "woo": 6189,
      "##nel": 6190,
      "##ney": 6191,
      "##ien": 6192,
      "##iest": 6193,
      "##iving": 6194,
      "##tor": 6195,
      "##tim": 6196,
      "##tube": 6197,
      "##hamm": 6198,
      "##boo": 6199,
      "##bles": 6200,
      "##aire": 6201,
      "##awn": 6202,
      "##sh": 6203,
      "##ss": 6204,
      "##eor": 6205,
      "##yr": 6206,
      "##vance": 6207,
      "##cl": 6208,
      "##cur": 6209,
      "##lor": 6210,
      "##lar": 6211,
      "##oked": 6212,
      "##plan": 6213,
      "##zer": 6214,
      "thro": 6215,
      "##inction": 6216,
      "##esis": 6217,
      "##esign": 6218,
      "##ored": 6219,
      "##aters": 6220,
      "##atable": 6221,
      "##inguish": 6222,
      "##arter": 6223,
      "tom": 6224,
      "toxic": 6225,
      "##ened": 6226,
      "##ench": 6227,
      "##iti": 6228,
      "##stic": 6229,
      "inhib": 6230,
      "##mph": 6231,
      "##aling": 6232,
      "##icking": 6233,
      "##icious": 6234,
      "beer": 6235,
      "reve": 6236,
      "sock": 6237,
      "soci": 6238,
      "stone": 6239,
      "coff": 6240,
      "##enty": 6241,
      "##iden": 6242,
      "neut": 6243,
      "sufficient": 6244,
      "young": 6245,
      "youtube": 6246,
      "haz": 6247,
      "##ils": 6248,
      "##iling": 6249,
      "enorm": 6250,
      "envelop": 6251,
      "shr": 6252,
      "sho": 6253,
      "shall": 6254,
      "shark": 6255,
      "shock": 6256,
      "notes": 6257,
      "##under": 6258,
      "span": 6259,
      "spool": 6260,
      "ash": 6261,
      "##ppy": 6262,
      "altern": 6263,
      "##ationary": 6264,
      "worried": 6265,
      "convention": 6266,
      "##ulse": 6267,
      "##ulating": 6268,
      "##gee": 6269,
      "##anted": 6270,
      "chem": 6271,
      "chass": 6272,
      "chris": 6273,
      "chrys": 6274,
      "##imated": 6275,
      "##umes": 6276,
      "compl": 6277,
      "compar": 6278,
      "compla": 6279,
      "##osh": 6280,
      "##used": 6281,
      "##ife": 6282,
      "yep": 6283,
      "upside": 6284,
      "imply": 6285,
      "comedy": 6286,
      "thereaf": 6287,
      "##amb": 6288,
      "armor": 6289,
      "plot": 6290,
      "plays": 6291,
      "plenty": 6292,
      "someones": 6293,
      "appoint": 6294,
      "acqu": 6295,
      "tast": 6296,
      "monkey": 6297,
      "interventions": 6298,
      "spacexs": 6299,
      "partly": 6300,
      "parties": 6301,
      "partial": 6302,
      "partners": 6303,
      "reson": 6304,
      "expos": 6305,
      "explo": 6306,
      "cru": 6307,
      "crushing": 6308,
      "images": 6309,
      "serving": 6310,
      "bold": 6311,
      "minus": 6312,
      "pointy": 6313,
      "default": 6314,
      "clim": 6315,
      "cloth": 6316,
      "puff": 6317,
      "recirc": 6318,
      "phase": 6319,
      "##angu": 6320,
      "extension": 6321,
      "knowled": 6322,
      "regen": 6323,
      "regret": 6324,
      "##oco": 6325,
      "futur": 6326,
      "humor": 6327,
      "##phone": 6328,
      "##phob": 6329,
      "reply": 6330,
      "facts": 6331,
      "factors": 6332,
      "snake": 6333,
      "##agon": 6334,
      "group": 6335,
      "##bled": 6336,
      "disp": 6337,
      "disaster": 6338,
      "delays": 6339,
      "heavier": 6340,
      "thoughts": 6341,
      "stress": 6342,
      "shortfall": 6343,
      "french": 6344,
      "signed": 6345,
      "advis": 6346,
      "advoc": 6347,
      "subc": 6348,
      "suborbit": 6349,
      "basis": 6350,
      "traject": 6351,
      "generation": 6352,
      "generated": 6353,
      "meter": 6354,
      "steer": 6355,
      "countdown": 6356,
      "dependent": 6357,
      "gigantic": 6358,
      "retros": 6359,
      "redesign": 6360,
      "extrem": 6361,
      "corre": 6362,
      "parad": 6363,
      "parents": 6364,
      "parado": 6365,
      "raising": 6366,
      "publications": 6367,
      "openly": 6368,
      "decided": 6369,
      "instr": 6370,
      "flap": 6371,
      "operations": 6372,
      "prize": 6373,
      "readers": 6374,
      "bits": 6375,
      "visual": 6376,
      "##ashed": 6377,
      "looked": 6378,
      "lightning": 6379,
      "passes": 6380,
      "automation": 6381,
      "automak": 6382,
      "automatic": 6383,
      "2500": 6384,
      "##ughty": 6385,
      "standing": 6386,
      "compete": 6387,
      "autoba": 6388,
      "##nesses": 6389,
      "##meda": 6390,
      "investing": 6391,
      "latitudes": 6392,
      "attacking": 6393,
      "announ": 6394,
      "hotel": 6395,
      "packet": 6396,
      "foundational": 6397,
      "checked": 6398,
      "35k": 6399,
      "sellers": 6400,
      "emerg": 6401,
      "stationary": 6402,
      "##ooled": 6403,
      "secondary": 6404,
      "continent": 6405,
      "discord": 6406,
      "noneth": 6407,
      "slowed": 6408,
      "slowly": 6409,
      "elon": 6410,
      "elise": 6411,
      "gaming": 6412,
      "police": 6413,
      "accuracy": 6414,
      "effectively": 6415,
      "panic": 6416,
      "humanitys": 6417,
      "relent": 6418,
      "colon": 6419,
      "relevant": 6420,
      "loaded": 6421,
      "edit": 6422,
      "standards": 6423,
      "replacing": 6424,
      "marx": 6425,
      "economies": 6426,
      "padre": 6427,
      "utter": 6428,
      "requirement": 6429,
      "stronger": 6430,
      "touchdown": 6431,
      "studio": 6432,
      "movies": 6433,
      "impacts": 6434,
      "offered": 6435,
      "suspect": 6436,
      "achieves": 6437,
      "epa": 6438,
      "frames": 6439,
      "varies": 6440,
      "attemp": 6441,
      "answered": 6442,
      "nozzles": 6443,
      "connectivity": 6444,
      "smoking": 6445,
      "leaders": 6446,
      "floating": 6447,
      "##going": 6448,
      "surprise": 6449,
      "hydrophob": 6450,
      "500k": 6451,
      "bikes": 6452,
      "minimizes": 6453,
      "objective": 6454,
      "ignore": 6455,
      "viral": 6456,
      "adjusted": 6457,
      "walking": 6458,
      "contractors": 6459,
      "journalist": 6460,
      "charger": 6461,
      "sync": 6462,
      "approximation": 6463,
      "continued": 6464,
      "mistakes": 6465,
      "attacked": 6466,
      "measured": 6467,
      "##onymous": 6468,
      "remove": 6469,
      "audi": 6470,
      "forget": 6471,
      "##abilities": 6472,
      "martian": 6473,
      "streaming": 6474,
      "telemetry": 6475,
      "acceptable": 6476,
      "meaningful": 6477,
      "influ": 6478,
      "square": 6479,
      "swear": 6480,
      "wearing": 6481,
      "deserve": 6482,
      "confirmation": 6483,
      "business": 6484,
      "divers": 6485,
      "trolls": 6486,
      "rails": 6487,
      "exponentially": 6488,
      "simplify": 6489,
      "robotaxis": 6490,
      "asteroid": 6491,
      "halves": 6492,
      "split": 6493,
      "splash": 6494,
      "describe": 6495,
      "cookie": 6496,
      "viruses": 6497,
      "wiki": 6498,
      "earnings": 6499,
      "##ocracy": 6500,
      "inspiring": 6501,
      "exclus": 6502,
      "culture": 6503,
      "circum": 6504,
      "mcu": 6505,
      "invented": 6506,
      "burst": 6507,
      "jeff": 6508,
      "repeated": 6509,
      "convenience": 6510,
      "children": 6511,
      "discovered": 6512,
      "cabin": 6513,
      "exchang": 6514,
      "originally": 6515,
      "astronomy": 6516,
      "occupant": 6517,
      "rumor": 6518,
      "sleep": 6519,
      "statistics": 6520,
      "preburner": 6521,
      "explosion": 6522,
      "branding": 6523,
      "taxpayers": 6524,
      "biography": 6525,
      "menu": 6526,
      "platform": 6527,
      "superalloy": 6528,
      "rescue": 6529,
      "cautious": 6530,
      "apocalypse": 6531,
      "investigating": 6532,
      "damping": 6533,
      "george": 6534,
      "responsible": 6535,
      "curevac": 6536,
      "dialog": 6537,
      "mortality": 6538,
      "##structure": 6539,
      "trigger": 6540,
      "lobby": 6541,
      "apparently": 6542,
      "episode": 6543,
      "ridiculous": 6544,
      "felt": 6545,
      "vtol": 6546,
      "tragic": 6547,
      "rococo": 6548,
      "afternoon": 6549,
      "cryogenic": 6550,
      "synthetic": 6551,
      "theoretical": 6552,
      "bureau": 6553,
      "circle": 6554,
      "dignity": 6555,
      "fyi": 6556,
      "horses": 6557,
      "hidden": 6558,
      "krypton": 6559,
      "larry": 6560,
      "lidar": 6561,
      "nitrogen": 6562,
      "porsche": 6563,
      "telesc": 6564,
      "wisdom": 6565,
      "##hammer": 6566,
      "enormous": 6567,
      "envelope": 6568,
      "chassis": 6569,
      "chrysler": 6570,
      "thereafter": 6571,
      "knowledge": 6572,
      "suborbital": 6573,
      "trajectory": 6574,
      "retrospect": 6575,
      "paradox": 6576,
      "autobahn": 6577,
      "nonetheless": 6578,
      "hydrophobic": 6579,
      "ala": 6580,
      "bday": 6581,
      "bang": 6582,
      "cn": 6583,
      "cig": 6584,
      "cous": 6585,
      "cup": 6586,
      "der": 6587,
      "dow": 6588,
      "dust": 6589,
      "dru": 6590,
      "dirt": 6591,
      "et": 6592,
      "eber": 6593,
      "fab": 6594,
      "fud": 6595,
      "fps": 6596,
      "gw": 6597,
      "gard": 6598,
      "gho": 6599,
      "hh": 6600,
      "hide": 6601,
      "hats": 6602,
      "hrs": 6603,
      "ipo": 6604,
      "jon": 6605,
      "jun": 6606,
      "lb": 6607,
      "lou": 6608,
      "lap": 6609,
      "loud": 6610,
      "langu": 6611,
      "mw": 6612,
      "mild": 6613,
      "nap": 6614,
      "nich": 6615,
      "nik": 6616,
      "pace": 6617,
      "pink": 6618,
      "pour": 6619,
      "p85": 6620,
      "ram": 6621,
      "sain": 6622,
      "ts": 6623,
      "till": 6624,
      "tend": 6625,
      "tick": 6626,
      "vr": 6627,
      "vul": 6628,
      "wip": 6629,
      "wiring": 6630,
      "yield": 6631,
      "zer": 6632,
      "##nels": 6633,
      "##iant": 6634,
      "##hoo": 6635,
      "##here": 6636,
      "##hood": 6637,
      "##house": 6638,
      "##uf": 6639,
      "##uct": 6640,
      "##mark": 6641,
      "##backs": 6642,
      "##ses": 6643,
      "##sight": 6644,
      "##eg": 6645,
      "##war": 6646,
      "##wood": 6647,
      "##watt": 6648,
      "##ray": 6649,
      "##vative": 6650,
      "##500": 6651,
      "##lig": 6652,
      "##fire": 6653,
      "##finder": 6654,
      "##oon": 6655,
      "##des": 6656,
      "##ded": 6657,
      "##gon": 6658,
      "##gre": 6659,
      "##gment": 6660,
      "##pri": 6661,
      "##erry": 6662,
      "##inery": 6663,
      "##esp": 6664,
      "##onic": 6665,
      "##onge": 6666,
      "##orical": 6667,
      "##atr": 6668,
      "##atory": 6669,
      "##anese": 6670,
      "tours": 6671,
      "##ourage": 6672,
      "##eden": 6673,
      "##edia": 6674,
      "##real": 6675,
      "##sts": 6676,
      "inac": 6677,
      "inher": 6678,
      "inner": 6679,
      "inches": 6680,
      "##icip": 6681,
      "##lee": 6682,
      "##ley": 6683,
      "##leet": 6684,
      "begging": 6685,
      "##vember": 6686,
      "rein": 6687,
      "fort": 6688,
      "##eto": 6689,
      "soc": 6690,
      "sooo": 6691,
      "##illiant": 6692,
      "stro": 6693,
      "staged": 6694,
      "stiff": 6695,
      "coat": 6696,
      "coach": 6697,
      "cobal": 6698,
      "anonymous": 6699,
      "wealth": 6700,
      "##elming": 6701,
      "whos": 6702,
      "##adow": 6703,
      "##aday": 6704,
      "##adily": 6705,
      "##urative": 6706,
      "neur": 6707,
      "prove": 6708,
      "proper": 6709,
      "sudd": 6710,
      "moments": 6711,
      "trim": 6712,
      "trash": 6713,
      "shes": 6714,
      "shell": 6715,
      "shear": 6716,
      "shadow": 6717,
      "##optim": 6718,
      "noting": 6719,
      "notable": 6720,
      "lies": 6721,
      "liber": 6722,
      "##ereum": 6723,
      "##unt": 6724,
      "dod": 6725,
      "domes": 6726,
      "orient": 6727,
      "orgs": 6728,
      "spi": 6729,
      "spring": 6730,
      "asy": 6731,
      "alar": 6732,
      "##ession": 6733,
      "deorbit": 6734,
      "conting": 6735,
      "##ulpt": 6736,
      "chad": 6737,
      "champ": 6738,
      "chief": 6739,
      "abl": 6740,
      "##rastructure": 6741,
      "##ipedia": 6742,
      "alloys": 6743,
      "november": 6744,
      "unw": 6745,
      "unf": 6746,
      "unp": 6747,
      "##rian": 6748,
      "complic": 6749,
      "compiler": 6750,
      "gods": 6751,
      "##oses": 6752,
      "##osoph": 6753,
      "caraoke": 6754,
      "carrier": 6755,
      "heh": 6756,
      "##ifies": 6757,
      "highways": 6758,
      "comet": 6759,
      "sail": 6760,
      "saved": 6761,
      "lox": 6762,
      "outages": 6763,
      "outfit": 6764,
      "outstanding": 6765,
      "myth": 6766,
      "##amination": 6767,
      "##izations": 6768,
      "adap": 6769,
      "bud": 6770,
      "buzz": 6771,
      "acts": 6772,
      "tears": 6773,
      "lev": 6774,
      "ourselves": 6775,
      "overp": 6776,
      "overhe": 6777,
      "flip": 6778,
      "flint": 6779,
      "workers": 6780,
      "peoples": 6781,
      "prev": 6782,
      "preference": 6783,
      "loose": 6784,
      "descent": 6785,
      "##ntown": 6786,
      "yours": 6787,
      "percent": 6788,
      "##uded": 6789,
      "intuitive": 6790,
      "content": 6791,
      "accounting": 6792,
      "resume": 6793,
      "thanksgi": 6794,
      "##peed": 6795,
      "crane": 6796,
      "served": 6797,
      "##owner": 6798,
      "knock": 6799,
      "knew": 6800,
      "bob": 6801,
      "boats": 6802,
      "speech": 6803,
      "smarter": 6804,
      "backpack": 6805,
      "awe": 6806,
      "award": 6807,
      "recru": 6808,
      "underwe": 6809,
      "underrated": 6810,
      "##angel": 6811,
      "##angers": 6812,
      "airplan": 6813,
      "sculpt": 6814,
      "regional": 6815,
      "builds": 6816,
      "buildings": 6817,
      "adds": 6818,
      "lovely": 6819,
      "sledge": 6820,
      "dayquil": 6821,
      "obt": 6822,
      "sn9": 6823,
      "snl": 6824,
      "snail": 6825,
      "insert": 6826,
      "inspiration": 6827,
      "electrical": 6828,
      "inde": 6829,
      "offset": 6830,
      "##ago": 6831,
      "downward": 6832,
      "faraday": 6833,
      "artists": 6834,
      "delight": 6835,
      "heavily": 6836,
      "pressurized": 6837,
      "paying": 6838,
      "transmit": 6839,
      "transpiration": 6840,
      "bloo": 6841,
      "possibility": 6842,
      "strate": 6843,
      "shortages": 6844,
      "hod": 6845,
      "host": 6846,
      "holly": 6847,
      "signature": 6848,
      "##azilla": 6849,
      "calls": 6850,
      "suboptim": 6851,
      "leaked": 6852,
      "missile": 6853,
      "evolution": 6854,
      "generates": 6855,
      "metap": 6856,
      "meteor": 6857,
      "steven": 6858,
      "steadily": 6859,
      "##ressing": 6860,
      "throughput": 6861,
      "retire": 6862,
      "retired": 6863,
      "wherever": 6864,
      "invited": 6865,
      "bored": 6866,
      "brilliant": 6867,
      "corona": 6868,
      "paran": 6869,
      "paris": 6870,
      "50k": 6871,
      "gigawatt": 6872,
      "refers": 6873,
      "refuel": 6874,
      "planes": 6875,
      "decre": 6876,
      "starlinks": 6877,
      "skins": 6878,
      "sketch": 6879,
      "lowering": 6880,
      "brag": 6881,
      "brave": 6882,
      "personnel": 6883,
      "merc": 6884,
      "fog": 6885,
      "tonnage": 6886,
      "warrant": 6887,
      "closely": 6888,
      "player": 6889,
      "headline": 6890,
      "##while": 6891,
      "##whelming": 6892,
      "sustained": 6893,
      "tempting": 6894,
      "ownership": 6895,
      "swipe": 6896,
      "sweden": 6897,
      "homeowner": 6898,
      "ironic": 6899,
      "datab": 6900,
      "reviews": 6901,
      "reviewed": 6902,
      "reaches": 6903,
      "literal": 6904,
      "holders": 6905,
      "creative": 6906,
      "restaur": 6907,
      "restrict": 6908,
      "carefully": 6909,
      "7500": 6910,
      "buyer": 6911,
      "customized": 6912,
      "drove": 6913,
      "emeral": 6914,
      "presum": 6915,
      "considerably": 6916,
      "priorit": 6917,
      "disclos": 6918,
      "distances": 6919,
      "infrastructure": 6920,
      "journo": 6921,
      "markets": 6922,
      "related": 6923,
      "colony": 6924,
      "fails": 6925,
      "salt": 6926,
      "stored": 6927,
      "logic": 6928,
      "manufacture": 6929,
      "toughest": 6930,
      "damaged": 6931,
      "assess": 6932,
      "requirements": 6933,
      "glove": 6934,
      "debris": 6935,
      "autonav": 6936,
      "strongest": 6937,
      "linear": 6938,
      "unveiling": 6939,
      "governor": 6940,
      "records": 6941,
      "impression": 6942,
      "spacesuit": 6943,
      "herbert": 6944,
      "achievable": 6945,
      "fraud": 6946,
      "various": 6947,
      "ideally": 6948,
      "connector": 6949,
      "mk3": 6950,
      "predic": 6951,
      "avoidance": 6952,
      "figurative": 6953,
      "mountain": 6954,
      "mechazilla": 6955,
      "quarks": 6956,
      "floki": 6957,
      "profit": 6958,
      "alto": 6959,
      "tells": 6960,
      "telling": 6961,
      "surprised": 6962,
      "5000": 6963,
      "shots": 6964,
      "devices": 6965,
      "activity": 6966,
      "pumps": 6967,
      "steps": 6968,
      "unelect": 6969,
      "ignite": 6970,
      "ignition": 6971,
      "weirdly": 6972,
      "printer": 6973,
      "arrive": 6974,
      "arriving": 6975,
      "candid": 6976,
      "occur": 6977,
      "pathfinder": 6978,
      "journalism": 6979,
      "mechanically": 6980,
      "mechanics": 6981,
      "immediate": 6982,
      "picked": 6983,
      "riding": 6984,
      "synd": 6985,
      "synch": 6986,
      "signals": 6987,
      "2000": 6988,
      "##place": 6989,
      "welded": 6990,
      "arrays": 6991,
      "community": 6992,
      "castle": 6993,
      "momentum": 6994,
      "drama": 6995,
      "extended": 6996,
      "routing": 6997,
      "carrying": 6998,
      "plants": 6999,
      "nns": 7000,
      "removed": 7001,
      "removal": 7002,
      "explained": 7003,
      "switching": 7004,
      "audio": 7005,
      "audience": 7006,
      "parked": 7007,
      "rotor": 7008,
      "rotation": 7009,
      "##oleon": 7010,
      "approaching": 7011,
      "martin": 7012,
      "martians": 7013,
      "uhh": 7014,
      "projects": 7015,
      "excessive": 7016,
      "convincing": 7017,
      "prevented": 7018,
      "frankly": 7019,
      "apogee": 7020,
      "constraint": 7021,
      "constrained": 7022,
      "turbopumps": 7023,
      "natural": 7024,
      "walls": 7025,
      "encourage": 7026,
      "shutdown": 7027,
      "buggy": 7028,
      "politicians": 7029,
      "variants": 7030,
      "penn": 7031,
      "penalty": 7032,
      "street": 7033,
      "shifting": 7034,
      "vaccine": 7035,
      "frequency": 7036,
      "principles": 7037,
      "ethereum": 7038,
      "halo": 7039,
      "tools": 7040,
      "deleting": 7041,
      "delete": 7042,
      "described": 7043,
      "fatal": 7044,
      "fatig": 7045,
      "vibe": 7046,
      "converts": 7047,
      "converted": 7048,
      "chanos": 7049,
      "channels": 7050,
      "unreason": 7051,
      "method": 7052,
      "collective": 7053,
      "faceboo": 7054,
      "housing": 7055,
      "psi": 7056,
      "psy": 7057,
      "wikipedia": 7058,
      "philosoph": 7059,
      "brightness": 7060,
      "mcgre": 7061,
      "inconel": 7062,
      "##ropy": 7063,
      "committed": 7064,
      "printing": 7065,
      "contribution": 7066,
      "opportunities": 7067,
      "mothers": 7068,
      "rhd": 7069,
      "induction": 7070,
      "spoken": 7071,
      "convenient": 7072,
      "temporary": 7073,
      "tvc": 7074,
      "tuned": 7075,
      "adults": 7076,
      "drawing": 7077,
      "grandfather": 7078,
      "megapack": 7079,
      "megapacks": 7080,
      "fp32": 7081,
      "palo": 7082,
      "compensation": 7083,
      "permanent": 7084,
      "intentionally": 7085,
      "pyramid": 7086,
      "execution": 7087,
      "galact": 7088,
      "sedan": 7089,
      "weapons": 7090,
      "trials": 7091,
      "nominal": 7092,
      "romance": 7093,
      "merkin": 7094,
      "distracted": 7095,
      "analysts": 7096,
      "manufacturers": 7097,
      "tariff": 7098,
      "tintin": 7099,
      "enemy": 7100,
      "algorithm": 7101,
      "practical": 7102,
      "douglas": 7103,
      "throttling": 7104,
      "podcasts": 7105,
      "monopolies": 7106,
      "unequivocally": 7107,
      "lanes": 7108,
      "taycan": 7109,
      "##iliar": 7110,
      "scratch": 7111,
      "scenar": 7112,
      "transparent": 7113,
      "branch": 7114,
      "illustrate": 7115,
      "trademark": 7116,
      "buffett": 7117,
      "monopoly": 7118,
      "fruit": 7119,
      "slam": 7120,
      "tonga": 7121,
      "woohoo": 7122,
      "coffee": 7123,
      "ashlee": 7124,
      "exposure": 7125,
      "futuristic": 7126,
      "instrument": 7127,
      "emergency": 7128,
      "splashdown": 7129,
      "alameda": 7130,
      "downtown": 7131,
      "eberh": 7132,
      "gwyn": 7133,
      "ghost": 7134,
      "napoleon": 7135,
      "nikola": 7136,
      "saints": 7137,
      "vulner": 7138,
      "inaccur": 7139,
      "cobalt": 7140,
      "sudden": 7141,
      "godspeed": 7142,
      "thanksgiving": 7143,
      "airplanes": 7144,
      "sledgehammer": 7145,
      "hollywood": 7146,
      "suboptimal": 7147,
      "warranty": 7148,
      "unelected": 7149,
      "facebook": 7150,
      "mcgregor": 7151,
      "1k": 7152,
      "230": 7153,
      "3k": 7154,
      "bm": 7155,
      "bed": 7156,
      "bac": 7157,
      "bow": 7158,
      "bul": 7159,
      "barg": 7160,
      "batch": 7161,
      "batt": 7162,
      "bomb": 7163,
      "biden": 7164,
      "ct": 7165,
      "coun": 7166,
      "cord": 7167,
      "cards": 7168,
      "dice": 7169,
      "dance": 7170,
      "dise": 7171,
      "dick": 7172,
      "dank": 7173,
      "duration": 7174,
      "fought": 7175,
      "fda": 7176,
      "gap": 7177,
      "gend": 7178,
      "gpt": 7179,
      "gates": 7180,
      "gwh": 7181,
      "grief": 7182,
      "hill": 7183,
      "hack": 7184,
      "hert": 7185,
      "hitch": 7186,
      "hallow": 7187,
      "iphone": 7188,
      "jay": 7189,
      "jaz": 7190,
      "kern": 7191,
      "ly": 7192,
      "mac": 7193,
      "mang": 7194,
      "mason": 7195,
      "mature": 7196,
      "mug": 7197,
      "muff": 7198,
      "n1": 7199,
      "nail": 7200,
      "ow": 7201,
      "pin": 7202,
      "ple": 7203,
      "pas": 7204,
      "pist": 7205,
      "pays": 7206,
      "pool": 7207,
      "rp": 7208,
      "ran": 7209,
      "rpm": 7210,
      "sars": 7211,
      "sant": 7212,
      "sale": 7213,
      "sides": 7214,
      "tern": 7215,
      "tik": 7216,
      "umm": 7217,
      "vig": 7218,
      "vance": 7219,
      "vital": 7220,
      "wan": 7221,
      "wars": 7222,
      "xav": 7223,
      "yer": 7224,
      "zillion": 7225,
      "zee": 7226,
      "zeal": 7227,
      "##ias": 7228,
      "##ila": 7229,
      "##tes": 7230,
      "##test": 7231,
      "##hol": 7232,
      "##uh": 7233,
      "##mer": 7234,
      "##more": 7235,
      "##map": 7236,
      "##matic": 7237,
      "##mmetry": 7238,
      "##mbled": 7239,
      "##br": 7240,
      "##bons": 7241,
      "##bble": 7242,
      "##borne": 7243,
      "##aking": 7244,
      "##sing": 7245,
      "##efficient": 7246,
      "##ye": 7247,
      "##rit": 7248,
      "##vestream": 7249,
      "##cer": 7250,
      "##car": 7251,
      "##cis": 7252,
      "##lists": 7253,
      "##lands": 7254,
      "##fast": 7255,
      "##fleet": 7256,
      "##ox": 7257,
      "##dam": 7258,
      "##gu": 7259,
      "##gin": 7260,
      "##get": 7261,
      "##gun": 7262,
      "##ky": 7263,
      "##pap": 7264,
      "##za": 7265,
      "thor": 7266,
      "##inj": 7267,
      "##esh": 7268,
      "##ori": 7269,
      "##ata": 7270,
      "##atz": 7271,
      "##atics": 7272,
      "##arl": 7273,
      "##arks": 7274,
      "##argh": 7275,
      "##arian": 7276,
      "##lled": 7277,
      "todays": 7278,
      "##ouri": 7279,
      "##eness": 7280,
      "##enance": 7281,
      "theater": 7282,
      "##iters": 7283,
      "##itute": 7284,
      "##rej": 7285,
      "##ston": 7286,
      "##stop": 7287,
      "##alop": 7288,
      "##rome": 7289,
      "##room": 7290,
      "##roph": 7291,
      "##ico": 7292,
      "##ication": 7293,
      "##lex": 7294,
      "##lection": 7295,
      "##lement": 7296,
      "##lets": 7297,
      "##utal": 7298,
      "bell": 7299,
      "beam": 7300,
      "beach": 7301,
      "##ionally": 7302,
      "##igs": 7303,
      "##acopter": 7304,
      "##isk": 7305,
      "##isms": 7306,
      "rech": 7307,
      "recharg": 7308,
      "regress": 7309,
      "revers": 7310,
      "reaction": 7311,
      "##oted": 7312,
      "##otic": 7313,
      "##otainment": 7314,
      "forum": 7315,
      "##ety": 7316,
      "##eted": 7317,
      "##eters": 7318,
      "##etric": 7319,
      "##ette": 7320,
      "soph": 7321,
      "onboard": 7322,
      "stal": 7323,
      "stow": 7324,
      "##owers": 7325,
      "cob": 7326,
      "coaster": 7327,
      "coefficient": 7328,
      "anarch": 7329,
      "##lder": 7330,
      "##ctim": 7331,
      "willing": 7332,
      "##ela": 7333,
      "##idays": 7334,
      "##idium": 7335,
      "whist": 7336,
      "##launch": 7337,
      "neu": 7338,
      "prox": 7339,
      "proving": 7340,
      "suff": 7341,
      "##irrel": 7342,
      "youve": 7343,
      "hamm": 7344,
      "##sell": 7345,
      "trun": 7346,
      "train": 7347,
      "trade": 7348,
      "##ilers": 7349,
      "##ilisk": 7350,
      "enr": 7351,
      "shed": 7352,
      "shap": 7353,
      "exha": 7354,
      "##opes": 7355,
      "10m": 7356,
      "noted": 7357,
      "lif": 7358,
      "limb": 7359,
      "livestream": 7360,
      "##abit": 7361,
      "atv": 7362,
      "doc": 7363,
      "doct": 7364,
      "##eaking": 7365,
      "spect": 7366,
      "sponge": 7367,
      "aspire": 7368,
      "sex": 7369,
      "seater": 7370,
      "sexy": 7371,
      "conference": 7372,
      "##ulator": 7373,
      "choc": 7374,
      "andro": 7375,
      "andrej": 7376,
      "root": 7377,
      "roaming": 7378,
      "unimp": 7379,
      "unbel": 7380,
      "##rix": 7381,
      "meal": 7382,
      "##umber": 7383,
      "composite": 7384,
      "##osph": 7385,
      "carried": 7386,
      "##using": 7387,
      "yellow": 7388,
      "imped": 7389,
      "impulse": 7390,
      "highlight": 7391,
      "modes": 7392,
      "usb": 7393,
      "samp": 7394,
      "##acker": 7395,
      "##omo": 7396,
      "##ometer": 7397,
      "outdo": 7398,
      "outlets": 7399,
      "hashing": 7400,
      "betting": 7401,
      "pls": 7402,
      "theyve": 7403,
      "producing": 7404,
      "##itement": 7405,
      "admit": 7406,
      "adams": 7407,
      "anytime": 7408,
      "timeline": 7409,
      "autoc": 7410,
      "acting": 7411,
      "ours": 7412,
      "pose": 7413,
      "pock": 7414,
      "poem": 7415,
      "##ption": 7416,
      "##ques": 7417,
      "##quila": 7418,
      "overse": 7419,
      "overarch": 7420,
      "oversight": 7421,
      "overwhelming": 7422,
      "pearl": 7423,
      "flown": 7424,
      "flush": 7425,
      "##cond": 7426,
      "tail": 7427,
      "taught": 7428,
      "newton": 7429,
      "##ibration": 7430,
      "verb": 7431,
      "superpower": 7432,
      "preval": 7433,
      "description": 7434,
      "actuator": 7435,
      "interst": 7436,
      "longitud": 7437,
      "intact": 7438,
      "intub": 7439,
      "contest": 7440,
      "lotus": 7441,
      "powerpack": 7442,
      "quote": 7443,
      "quotes": 7444,
      "rights": 7445,
      "expense": 7446,
      "craters": 7447,
      "serves": 7448,
      "functions": 7449,
      "syd": 7450,
      "designing": 7451,
      "couldn": 7452,
      "smashed": 7453,
      "pointless": 7454,
      "club": 7455,
      "awa": 7456,
      "awful": 7457,
      "election": 7458,
      "element": 7459,
      "underest": 7460,
      "extinction": 7461,
      "airpl": 7462,
      "boom": 7463,
      "scar": 7464,
      "scroll": 7465,
      "knowing": 7466,
      "capit": 7467,
      "regime": 7468,
      "owns": 7469,
      "owned": 7470,
      "finest": 7471,
      "starman": 7472,
      "starfleet": 7473,
      "cooled": 7474,
      "electron": 7475,
      "sneak": 7476,
      "insulation": 7477,
      "cake": 7478,
      "##iverse": 7479,
      "autopark": 7480,
      "offers": 7481,
      "##orders": 7482,
      "##bling": 7483,
      "cures": 7484,
      "##encing": 7485,
      "payments": 7486,
      "helped": 7487,
      "transmission": 7488,
      "joints": 7489,
      "blown": 7490,
      "maxwell": 7491,
      "shortage": 7492,
      "supportive": 7493,
      "holy": 7494,
      "signing": 7495,
      "roadmap": 7496,
      "technolog": 7497,
      "evil": 7498,
      "basilisk": 7499,
      "trapped": 7500,
      "confusing": 7501,
      "generally": 7502,
      "metall": 7503,
      "steal": 7504,
      "steve": 7505,
      "steady": 7506,
      "survey": 7507,
      "depot": 7508,
      "incremental": 7509,
      "##erto": 7510,
      "retest": 7511,
      "retwe": 7512,
      "retains": 7513,
      "productive": 7514,
      "invite": 7515,
      "border": 7516,
      "somethings": 7517,
      "brutal": 7518,
      "correl": 7519,
      "corruption": 7520,
      "secure": 7521,
      "calibration": 7522,
      "##wee": 7523,
      "manual": 7524,
      "manually": 7525,
      "taxi": 7526,
      "taxing": 7527,
      "talula": 7528,
      "limitation": 7529,
      "fixes": 7530,
      "skip": 7531,
      "skirt": 7532,
      "flag": 7533,
      "##aken": 7534,
      "operates": 7535,
      "prime": 7536,
      "simplic": 7537,
      "summar": 7538,
      "entr": 7539,
      "entropy": 7540,
      "critique": 7541,
      "##gged": 7542,
      "##ggle": 7543,
      "clearing": 7544,
      "merger": 7545,
      "setbacks": 7546,
      "##faction": 7547,
      "rises": 7548,
      "warren": 7549,
      "donated": 7550,
      "donating": 7551,
      "excitement": 7552,
      "heads": 7553,
      "headlight": 7554,
      "detection": 7555,
      "locally": 7556,
      "sustainability": 7557,
      "temps": 7558,
      "stands": 7559,
      "competitor": 7560,
      "sunset": 7561,
      "autoste": 7562,
      "tunneling": 7563,
      "gto": 7564,
      "wake": 7565,
      "reviewing": 7566,
      "##pective": 7567,
      "expects": 7568,
      "expectancy": 7569,
      "optimus": 7570,
      "holds": 7571,
      "holder": 7572,
      "brother": 7573,
      "reasoning": 7574,
      "reasonably": 7575,
      "attacks": 7576,
      "restored": 7577,
      "career": 7578,
      "payloads": 7579,
      "questionable": 7580,
      "forms": 7581,
      "seller": 7582,
      "goals": 7583,
      "customs": 7584,
      "upgradable": 7585,
      "handful": 7586,
      "dealing": 7587,
      "correctly": 7588,
      "recommendation": 7589,
      "infotainment": 7590,
      "returning": 7591,
      "##avir": 7592,
      "panel": 7593,
      "runs": 7594,
      "dave": 7595,
      "destruction": 7596,
      "reducing": 7597,
      "baseball": 7598,
      "painful": 7599,
      "painted": 7600,
      "logo": 7601,
      "edgy": 7602,
      "edition": 7603,
      "editor": 7604,
      "civilian": 7605,
      "diap": 7606,
      "specs": 7607,
      "burning": 7608,
      "angels": 7609,
      "angeles": 7610,
      "affecting": 7611,
      "sheet": 7612,
      "sheets": 7613,
      "suggesting": 7614,
      "iridium": 7615,
      "labs": 7616,
      "touching": 7617,
      "touched": 7618,
      "touchsc": 7619,
      "unveiled": 7620,
      "equally": 7621,
      "equation": 7622,
      "##ralized": 7623,
      "connection": 7624,
      "subsonic": 7625,
      "##ception": 7626,
      "concl": 7627,
      "concent": 7628,
      "popular": 7629,
      "begun": 7630,
      "marketing": 7631,
      "herz": 7632,
      "tbd": 7633,
      "provides": 7634,
      "blocks": 7635,
      "blocked": 7636,
      "misunder": 7637,
      "musk": 7638,
      "cleaning": 7639,
      "mentioning": 7640,
      "smoother": 7641,
      "leading": 7642,
      "triple": 7643,
      "trickier": 7644,
      "trickery": 7645,
      "birds": 7646,
      "grows": 7647,
      "profess": 7648,
      "profitable": 7649,
      "classic": 7650,
      "names": 7651,
      "magnetic": 7652,
      "requests": 7653,
      "announcements": 7654,
      "hydrocar": 7655,
      "bias": 7656,
      "biological": 7657,
      "hw1": 7658,
      "entering": 7659,
      "devil": 7660,
      "##licit": 7661,
      "promin": 7662,
      "promise": 7663,
      "promote": 7664,
      "demograph": 7665,
      "igniters": 7666,
      "jammed": 7667,
      "millinery": 7668,
      "illeg": 7669,
      "##mberg": 7670,
      "occas": 7671,
      "processes": 7672,
      "affordability": 7673,
      "holidays": 7674,
      "rarely": 7675,
      "##ospace": 7676,
      "advertise": 7677,
      "castings": 7678,
      "doom": 7679,
      "nuke": 7680,
      "externally": 7681,
      "mega": 7682,
      "megat": 7683,
      "interviews": 7684,
      "harm": 7685,
      "harness": 7686,
      "particular": 7687,
      "particulate": 7688,
      "individuals": 7689,
      "killed": 7690,
      "removing": 7691,
      "flux": 7692,
      "explains": 7693,
      "joining": 7694,
      "fools": 7695,
      "judic": 7696,
      "rotate": 7697,
      "healthy": 7698,
      "financially": 7699,
      "licensing": 7700,
      "maintenance": 7701,
      "cyclists": 7702,
      "survive": 7703,
      "scientist": 7704,
      "scientific": 7705,
      "challenging": 7706,
      "loses": 7707,
      "title": 7708,
      "authority": 7709,
      "teleport": 7710,
      "controlling": 7711,
      "inflatable": 7712,
      "squirrel": 7713,
      "excession": 7714,
      "carmaker": 7715,
      "sequel": 7716,
      "ambien": 7717,
      "immense": 7718,
      "immune": 7719,
      "shifts": 7720,
      "assembled": 7721,
      "frequently": 7722,
      "fictional": 7723,
      "shops": 7724,
      "melt": 7725,
      "melting": 7726,
      "matches": 7727,
      "referral": 7728,
      "copv": 7729,
      "conversations": 7730,
      "##ammers": 7731,
      "crushed": 7732,
      "hypoth": 7733,
      "employee": 7734,
      "emojis": 7735,
      "glitch": 7736,
      "sanctim": 7737,
      "senate": 7738,
      "senior": 7739,
      "voting": 7740,
      "voters": 7741,
      "hexacopter": 7742,
      "elevators": 7743,
      "simultaneous": 7744,
      "reflective": 7745,
      "skillz": 7746,
      "stopping": 7747,
      "esthetic": 7748,
      "characters": 7749,
      "treating": 7750,
      "johnson": 7751,
      "purple": 7752,
      "dinner": 7753,
      "karaoke": 7754,
      "makers": 7755,
      "preferred": 7756,
      "capture": 7757,
      "captured": 7758,
      "consistent": 7759,
      "queen": 7760,
      "tuning": 7761,
      "viol": 7762,
      "spaceports": 7763,
      "intersect": 7764,
      "intersections": 7765,
      "insightful": 7766,
      "masks": 7767,
      "sandy": 7768,
      "items": 7769,
      "compensate": 7770,
      "pucker": 7771,
      "recognition": 7772,
      "scores": 7773,
      "believing": 7774,
      "detected": 7775,
      "pyramids": 7776,
      "ariane": 7777,
      "breathing": 7778,
      "moral": 7779,
      "perspective": 7780,
      "waste": 7781,
      "thickness": 7782,
      "unusually": 7783,
      "bumper": 7784,
      "endorsements": 7785,
      "franz": 7786,
      "decentralized": 7787,
      "remotely": 7788,
      "experienced": 7789,
      "programmed": 7790,
      "bbc": 7791,
      "korea": 7792,
      "lunar": 7793,
      "merely": 7794,
      "sx500": 7795,
      "wrapped": 7796,
      "toyota": 7797,
      "injector": 7798,
      "choosing": 7799,
      "conservative": 7800,
      "redundant": 7801,
      "declined": 7802,
      "remarkable": 7803,
      "maneuvering": 7804,
      "staggeringly": 7805,
      "aerospace": 7806,
      "barely": 7807,
      "gentrif": 7808,
      "mentions": 7809,
      "toilet": 7810,
      "savings": 7811,
      "override": 7812,
      "introdu": 7813,
      "earthquake": 7814,
      "inspection": 7815,
      "guardians": 7816,
      "substant": 7817,
      "honestly": 7818,
      "configurator": 7819,
      "uncertainty": 7820,
      "citizen": 7821,
      "proportionate": 7822,
      "diagon": 7823,
      "gatherings": 7824,
      "mandate": 7825,
      "prav": 7826,
      "pixels": 7827,
      "throat": 7828,
      "inhibit": 7829,
      "reveal": 7830,
      "neutral": 7831,
      "spooling": 7832,
      "complac": 7833,
      "explode": 7834,
      "paradise": 7835,
      "automakers": 7836,
      "splitting": 7837,
      "dialogue": 7838,
      "language": 7839,
      "p85d": 7840,
      "zeroth": 7841,
      "stiffness": 7842,
      "neurons": 7843,
      "complicated": 7844,
      "bloomberg": 7845,
      "metaphor": 7846,
      "paranoid": 7847,
      "restaurant": 7848,
      "restrictions": 7849,
      "emerald": 7850,
      "presumably": 7851,
      "fatigue": 7852,
      "tariffs": 7853,
      "inaccurate": 7854,
      "bmw": 7855,
      "counc": 7856,
      "hertz": 7857,
      "jazz": 7858,
      "kernel": 7859,
      "santa": 7860,
      "ternary": 7861,
      "wanna": 7862,
      "xavier": 7863,
      "zealand": 7864,
      "thorough": 7865,
      "whistle": 7866,
      "exhaust": 7867,
      "limbic": 7868,
      "overarching": 7869,
      "longitudinal": 7870,
      "airplane": 7871,
      "talulah": 7872,
      "touchscreen": 7873,
      "hydrocarbons": 7874,
      "1m": 7875,
      "185": 7876,
      "3750": 7877,
      "420": 7878,
      "5b": 7879,
      "a3": 7880,
      "ax": 7881,
      "aft": 7882,
      "bound": 7883,
      "bach": 7884,
      "bind": 7885,
      "bak": 7886,
      "blad": 7887,
      "brian": 7888,
      "cort": 7889,
      "cpu": 7890,
      "dar": 7891,
      "dot": 7892,
      "dur": 7893,
      "dish": 7894,
      "dane": 7895,
      "duck": 7896,
      "dude": 7897,
      "dash": 7898,
      "dainty": 7899,
      "ell": 7900,
      "era": 7901,
      "edu": 7902,
      "ease": 7903,
      "egy": 7904,
      "eric": 7905,
      "ego": 7906,
      "elder": 7907,
      "fb": 7908,
      "fid": 7909,
      "fist": 7910,
      "fry": 7911,
      "fans": 7912,
      "gp": 7913,
      "gate": 7914,
      "gant": 7915,
      "gaps": 7916,
      "gift": 7917,
      "hp": 7918,
      "hen": 7919,
      "hip": 7920,
      "hire": 7921,
      "hmm": 7922,
      "honey": 7923,
      "heres": 7924,
      "hedge": 7925,
      "hinge": 7926,
      "hacked": 7927,
      "irel": 7928,
      "jars": 7929,
      "jared": 7930,
      "kit": 7931,
      "kel": 7932,
      "kest": 7933,
      "kong": 7934,
      "kath": 7935,
      "lh": 7936,
      "lmp": 7937,
      "lunch": 7938,
      "laps": 7939,
      "mut": 7940,
      "mall": 7941,
      "mri": 7942,
      "mord": 7943,
      "mitch": 7944,
      "nk": 7945,
      "nested": 7946,
      "ooh": 7947,
      "pa": 7948,
      "pip": 7949,
      "purs": 7950,
      "rust": 7951,
      "rings": 7952,
      "raz": 7953,
      "rural": 7954,
      "rico": 7955,
      "si": 7956,
      "s3": 7957,
      "sq": 7958,
      "sst": 7959,
      "sas": 7960,
      "sac": 7961,
      "sight": 7962,
      "slo": 7963,
      "sque": 7964,
      "ti": 7965,
      "tin": 7966,
      "tea": 7967,
      "tied": 7968,
      "tends": 7969,
      "tension": 7970,
      "tub": 7971,
      "ufo": 7972,
      "v7": 7973,
      "vf": 7974,
      "vess": 7975,
      "vap": 7976,
      "vents": 7977,
      "wine": 7978,
      "yo": 7979,
      "zen": 7980,
      "zill": 7981,
      "zoo": 7982,
      "zomb": 7983,
      "##nect": 7984,
      "##nish": 7985,
      "##iation": 7986,
      "##iate": 7987,
      "##ieter": 7988,
      "##tr": 7989,
      "##tag": 7990,
      "##hen": 7991,
      "##hill": 7992,
      "##uk": 7993,
      "##uj": 7994,
      "##uits": 7995,
      "##ueto": 7996,
      "##bc": 7997,
      "##bum": 7998,
      "##bia": 7999,
      "##bability": 8000,
      "##ael": 8001,
      "##aware": 8002,
      "##sp": 8003,
      "##ship": 8004,
      "##een": 8005,
      "##eks": 8006,
      "##eper": 8007,
      "##eze": 8008,
      "##will": 8009,
      "##ran": 8010,
      "##rum": 8011,
      "##rite": 8012,
      "##rating": 8013,
      "##rational": 8014,
      "##ratr": 8015,
      "##vo": 8016,
      "##vision": 8017,
      "##vlar": 8018,
      "##cd": 8019,
      "##cla": 8020,
      "##cure": 8021,
      "##case": 8022,
      "##lay": 8023,
      "##lide": 8024,
      "##fa": 8025,
      "##fers": 8026,
      "##fits": 8027,
      "##oes": 8028,
      "##och": 8029,
      "##oil": 8030,
      "##oks": 8031,
      "##oqu": 8032,
      "##ods": 8033,
      "##ody": 8034,
      "##dp": 8035,
      "##dies": 8036,
      "##diver": 8037,
      "##g2": 8038,
      "##gar": 8039,
      "##gers": 8040,
      "##glide": 8041,
      "##kk": 8042,
      "##ker": 8043,
      "##katch": 8044,
      "##pad": 8045,
      "##pone": 8046,
      "##zil": 8047,
      "##inter": 8048,
      "##inations": 8049,
      "##onious": 8050,
      "##onavir": 8051,
      "##ora": 8052,
      "##ores": 8053,
      "##ories": 8054,
      "##order": 8055,
      "##ativity": 8056,
      "##inger": 8057,
      "##lla": 8058,
      "##llower": 8059,
      "##ana": 8060,
      "##ancing": 8061,
      "tox": 8062,
      "##ouch": 8063,
      "##enn": 8064,
      "##ena": 8065,
      "theme": 8066,
      "##itt": 8067,
      "##itably": 8068,
      "##itary": 8069,
      "##itzer": 8070,
      "##reh": 8071,
      "##rek": 8072,
      "##repr": 8073,
      "##step": 8074,
      "##stick": 8075,
      "##stationary": 8076,
      "ine": 8077,
      "inver": 8078,
      "##rode": 8079,
      "##icide": 8080,
      "##icopter": 8081,
      "##icago": 8082,
      "##uter": 8083,
      "##uted": 8084,
      "bei": 8085,
      "bee": 8086,
      "beep": 8087,
      "beating": 8088,
      "##asse": 8089,
      "##ashing": 8090,
      "##asma": 8091,
      "##ises": 8092,
      "##isis": 8093,
      "rect": 8094,
      "reel": 8095,
      "reward": 8096,
      "revert": 8097,
      "relaunch": 8098,
      "##oting": 8099,
      "formed": 8100,
      "##ete": 8101,
      "ongoing": 8102,
      "stays": 8103,
      "stance": 8104,
      "stated": 8105,
      "stru": 8106,
      "stup": 8107,
      "stake": 8108,
      "stret": 8109,
      "sticking": 8110,
      "italy": 8111,
      "##owea": 8112,
      "##elter": 8113,
      "##iding": 8114,
      "##idity": 8115,
      "##chem": 8116,
      "whom": 8117,
      "whimp": 8118,
      "##adem": 8119,
      "##urch": 8120,
      "neigh": 8121,
      "neil": 8122,
      "sued": 8123,
      "##ithms": 8124,
      "##tered": 8125,
      "##teria": 8126,
      "##iry": 8127,
      "##iration": 8128,
      "##irical": 8129,
      "##thora": 8130,
      "haven": 8131,
      "##sequ": 8132,
      "##secure": 8133,
      "trace": 8134,
      "traged": 8135,
      "trading": 8136,
      "shd": 8137,
      "shill": 8138,
      "shib": 8139,
      "shade": 8140,
      "shared": 8141,
      "shades": 8142,
      "shelter": 8143,
      "exting": 8144,
      "examine": 8145,
      "examination": 8146,
      "##arship": 8147,
      "noticed": 8148,
      "atoms": 8149,
      "doci": 8150,
      "spy": 8151,
      "spine": 8152,
      "spam": 8153,
      "spare": 8154,
      "spread": 8155,
      "sphere": 8156,
      "speaking": 8157,
      "asho": 8158,
      "album": 8159,
      "##essed": 8160,
      "seated": 8161,
      "dece": 8162,
      "deck": 8163,
      "deuts": 8164,
      "maps": 8165,
      "cones": 8166,
      "convey": 8167,
      "conduct": 8168,
      "##ulf": 8169,
      "cha": 8170,
      "chess": 8171,
      "chose": 8172,
      "chick": 8173,
      "chutes": 8174,
      "choms": 8175,
      "cherry": 8176,
      "chicago": 8177,
      "abt": 8178,
      "aband": 8179,
      "##imity": 8180,
      "##rapt": 8181,
      "allev": 8182,
      "rose": 8183,
      "unity": 8184,
      "univ": 8185,
      "united": 8186,
      "unne": 8187,
      "uncover": 8188,
      "unlock": 8189,
      "unaware": 8190,
      "##oute": 8191,
      "##actions": 8192,
      "##olutions": 8193,
      "##apore": 8194,
      "##uments": 8195,
      "compreh": 8196,
      "carto": 8197,
      "goodwill": 8198,
      "##usk": 8199,
      "##usive": 8200,
      "##kings": 8201,
      "upset": 8202,
      "impell": 8203,
      "highs": 8204,
      "##mented": 8205,
      "comets": 8206,
      "##aint": 8207,
      "cance": 8208,
      "module": 8209,
      "fellow": 8210,
      "##ommod": 8211,
      "engage": 8212,
      "engaged": 8213,
      "##ama": 8214,
      "##00km": 8215,
      "arc": 8216,
      "arbit": 8217,
      "bets": 8218,
      "plumb": 8219,
      "plasma": 8220,
      "models": 8221,
      "##istent": 8222,
      "##izer": 8223,
      "##fts": 8224,
      "apples": 8225,
      "##venience": 8226,
      "leasing": 8227,
      "poison": 8228,
      "##xture": 8229,
      "hardly": 8230,
      "overst": 8231,
      "overha": 8232,
      "overcome": 8233,
      "mayor": 8234,
      "flood": 8235,
      "flare": 8236,
      "##connect": 8237,
      "acs": 8238,
      "acou": 8239,
      "academ": 8240,
      "##some": 8241,
      "##soft": 8242,
      "##irect": 8243,
      "verify": 8244,
      "drift": 8245,
      "superint": 8246,
      "supercomp": 8247,
      "premi": 8248,
      "preview": 8249,
      "incoming": 8250,
      "launchpad": 8251,
      "desper": 8252,
      "desert": 8253,
      "##acheal": 8254,
      "interact": 8255,
      "##bell": 8256,
      "##beit": 8257,
      "twin": 8258,
      "intake": 8259,
      "intratr": 8260,
      "particle": 8261,
      "whose": 8262,
      "contain": 8263,
      "contour": 8264,
      "evening": 8265,
      "accomp": 8266,
      "accommod": 8267,
      "powerglide": 8268,
      "qual": 8269,
      "quieter": 8270,
      "##ensus": 8271,
      "improbability": 8272,
      "hahaha": 8273,
      "resmed": 8274,
      "export": 8275,
      "explicit": 8276,
      "##oths": 8277,
      "cran": 8278,
      "crater": 8279,
      "cracked": 8280,
      "crisis": 8281,
      "##velength": 8282,
      "imf": 8283,
      "serial": 8284,
      "##ferential": 8285,
      "knuck": 8286,
      "knife": 8287,
      "boy": 8288,
      "bodies": 8289,
      "designs": 8290,
      "couldve": 8291,
      "miners": 8292,
      "minnes": 8293,
      "sml": 8294,
      "backwards": 8295,
      "clou": 8296,
      "clust": 8297,
      "falcons": 8298,
      "puerto": 8299,
      "drain": 8300,
      "recession": 8301,
      "airlin": 8302,
      "airborne": 8303,
      "scene": 8304,
      "scammers": 8305,
      "regrets": 8306,
      "finance": 8307,
      "finale": 8308,
      "finnish": 8309,
      "addition": 8310,
      "elected": 8311,
      "wanting": 8312,
      "futures": 8313,
      "repaid": 8314,
      "reporter": 8315,
      "##icker": 8316,
      "slower": 8317,
      "helmet": 8318,
      "helicopter": 8319,
      "sn3": 8320,
      "snap": 8321,
      "sn15": 8322,
      "sn20": 8323,
      "snacks": 8324,
      "insult": 8325,
      "inspect": 8326,
      "##ished": 8327,
      "endeav": 8328,
      "caution": 8329,
      "indirect": 8330,
      "##aging": 8331,
      "##ordinary": 8332,
      "disad": 8333,
      "dislike": 8334,
      "disruption": 8335,
      "disney": 8336,
      "disasse": 8337,
      "curated": 8338,
      "pressing": 8339,
      "energ": 8340,
      "payment": 8341,
      "payroll": 8342,
      "transform": 8343,
      "blueto": 8344,
      "fairings": 8345,
      "string": 8346,
      "stranger": 8347,
      "strangers": 8348,
      "shipment": 8349,
      "shorting": 8350,
      "fraction": 8351,
      "fringe": 8352,
      "fresh": 8353,
      "supports": 8354,
      "supported": 8355,
      "lasting": 8356,
      "lesson": 8357,
      "advise": 8358,
      "100b": 8359,
      "publishing": 8360,
      "##cessary": 8361,
      "leaf": 8362,
      "efforts": 8363,
      "eval": 8364,
      "appropri": 8365,
      "confined": 8366,
      "confidence": 8367,
      "speeds": 8368,
      "speedrapt": 8369,
      "meters": 8370,
      "counts": 8371,
      "counted": 8372,
      "##ella": 8373,
      "##ellation": 8374,
      "retract": 8375,
      "valves": 8376,
      "valuation": 8377,
      "invol": 8378,
      "termin": 8379,
      "belong": 8380,
      "belts": 8381,
      "coronavir": 8382,
      "60mph": 8383,
      "updating": 8384,
      "paras": 8385,
      "paraf": 8386,
      "raw": 8387,
      "calcs": 8388,
      "legit": 8389,
      "legacy": 8390,
      "revoked": 8391,
      "refres": 8392,
      "refused": 8393,
      "limitations": 8394,
      "opened": 8395,
      "decline": 8396,
      "skin": 8397,
      "skit": 8398,
      "skull": 8399,
      "showed": 8400,
      "flaming": 8401,
      "regulated": 8402,
      "motiv": 8403,
      "worthless": 8404,
      "worthwhile": 8405,
      "##utional": 8406,
      "brains": 8407,
      "bravo": 8408,
      "brazil": 8409,
      "kept": 8410,
      "kevlar": 8411,
      "volcan": 8412,
      "clock": 8413,
      "merit": 8414,
      "passage": 8415,
      "follower": 8416,
      "freeway": 8417,
      "fireball": 8418,
      "warn": 8419,
      "warp": 8420,
      "warned": 8421,
      "computation": 8422,
      "excuse": 8423,
      "headlines": 8424,
      "postpone": 8425,
      "feelings": 8426,
      "sword": 8427,
      "courses": 8428,
      "singapore": 8429,
      "suns": 8430,
      "autogen": 8431,
      "wavelength": 8432,
      "##iums": 8433,
      "##ieldy": 8434,
      "funded": 8435,
      "grave": 8436,
      "investment": 8437,
      "latitude": 8438,
      "netfl": 8439,
      "hottest": 8440,
      "hotsp": 8441,
      "restoring": 8442,
      "checks": 8443,
      "oxford": 8444,
      "older": 8445,
      "schol": 8446,
      "neuralinks": 8447,
      "constellation": 8448,
      "preser": 8449,
      "certification": 8450,
      "##ilton": 8451,
      "accelerates": 8452,
      "handed": 8453,
      "handles": 8454,
      "closest": 8455,
      "viewing": 8456,
      "correcting": 8457,
      "distinguish": 8458,
      "infect": 8459,
      "returns": 8460,
      "trucking": 8461,
      "primitive": 8462,
      "finding": 8463,
      "pana": 8464,
      "credits": 8465,
      "favorites": 8466,
      "flex": 8467,
      "nearby": 8468,
      "dairy": 8469,
      "destinations": 8470,
      "negot": 8471,
      "negativity": 8472,
      "meantime": 8473,
      "##boy": 8474,
      "relight": 8475,
      "relief": 8476,
      "travels": 8477,
      "relevance": 8478,
      "logar": 8479,
      "edits": 8480,
      "edited": 8481,
      "##otech": 8482,
      "blackout": 8483,
      "civilizations": 8484,
      "ultrac": 8485,
      "diess": 8486,
      "filing": 8487,
      "historical": 8488,
      "watcht": 8489,
      "flows": 8490,
      "speculation": 8491,
      "empirical": 8492,
      "marks": 8493,
      "marvin": 8494,
      "reported": 8495,
      "follows": 8496,
      "liquidity": 8497,
      "economist": 8498,
      "pads": 8499,
      "utah": 8500,
      "angel": 8501,
      "angry": 8502,
      "existential": 8503,
      "assist": 8504,
      "babe": 8505,
      "nyquil": 8506,
      "irrational": 8507,
      "lifts": 8508,
      "installing": 8509,
      "receives": 8510,
      "governments": 8511,
      "breaking": 8512,
      "equity": 8513,
      "exceptions": 8514,
      "impressed": 8515,
      "specialized": 8516,
      "skydiver": 8517,
      "guesses": 8518,
      "ramps": 8519,
      "picking": 8520,
      "sourced": 8521,
      "included": 8522,
      "metals": 8523,
      "drink": 8524,
      "##isticated": 8525,
      "connecting": 8526,
      "mk2": 8527,
      "smoke": 8528,
      "anticip": 8529,
      "strangely": 8530,
      "figuring": 8531,
      "figured": 8532,
      "mountains": 8533,
      "normally": 8534,
      "classified": 8535,
      "glasses": 8536,
      "hatestream": 8537,
      "northern": 8538,
      "biowea": 8539,
      "hw3": 8540,
      "activation": 8541,
      "activated": 8542,
      "impressively": 8543,
      "targeted": 8544,
      "estab": 8545,
      "estate": 8546,
      "estimate": 8547,
      "promised": 8548,
      "darkness": 8549,
      "ignoring": 8550,
      "virgin": 8551,
      "heights": 8552,
      "james": 8553,
      "millise": 8554,
      "tyran": 8555,
      "prediction": 8556,
      "predictable": 8557,
      "predictions": 8558,
      "births": 8559,
      "illnesses": 8560,
      "##axy": 8561,
      "extraordinary": 8562,
      "perfectly": 8563,
      "occl": 8564,
      "contracts": 8565,
      "contracting": 8566,
      "mechanism": 8567,
      "environments": 8568,
      "holes": 8569,
      "strain": 8570,
      "doorstep": 8571,
      "charged": 8572,
      "appealing": 8573,
      "earliest": 8574,
      "integrity": 8575,
      "2009": 8576,
      "200k": 8577,
      "cutting": 8578,
      "oddly": 8579,
      "welds": 8580,
      "accidents": 8581,
      "officer": 8582,
      "communities": 8583,
      "continuance": 8584,
      "continuously": 8585,
      "discussions": 8586,
      "variation": 8587,
      "mobileye": 8588,
      "doomed": 8589,
      "sonar": 8590,
      "sonata": 8591,
      "songs": 8592,
      "docked": 8593,
      "harv": 8594,
      "informed": 8595,
      "measures": 8596,
      "familiar": 8597,
      "clarification": 8598,
      "blame": 8599,
      "lossy": 8600,
      "explaining": 8601,
      "balls": 8602,
      "##olev": 8603,
      "enhance": 8604,
      "architectural": 8605,
      "titles": 8606,
      "locked": 8607,
      "inflation": 8608,
      "linked": 8609,
      "porting": 8610,
      "portal": 8611,
      "stormy": 8612,
      "uploading": 8613,
      "preventing": 8614,
      "collection": 8615,
      "concerned": 8616,
      "loaner": 8617,
      "immers": 8618,
      "attachment": 8619,
      "policies": 8620,
      "smoothly": 8621,
      "horizon": 8622,
      "deny": 8623,
      "denial": 8624,
      "buffer": 8625,
      "privile": 8626,
      "simplifying": 8627,
      "vaccination": 8628,
      "efficiently": 8629,
      "frequent": 8630,
      "geostationary": 8631,
      "##ewan": 8632,
      "describ": 8633,
      "graphics": 8634,
      "fatality": 8635,
      "greg": 8636,
      "mirrors": 8637,
      "military": 8638,
      "vibes": 8639,
      "vibration": 8640,
      "referring": 8641,
      "copy": 8642,
      "crushes": 8643,
      "transitioning": 8644,
      "brick": 8645,
      "hanging": 8646,
      "munger": 8647,
      "voted": 8648,
      "stripped": 8649,
      "shakes": 8650,
      "spiral": 8651,
      "philips": 8652,
      "surrounding": 8653,
      "skills": 8654,
      "exclude": 8655,
      "microsoft": 8656,
      "researchers": 8657,
      "treatment": 8658,
      "inconvenience": 8659,
      "committe": 8660,
      "comfortable": 8661,
      "cancer": 8662,
      "independ": 8663,
      "gradually": 8664,
      "absorb": 8665,
      "absorption": 8666,
      "protecting": 8667,
      "communications": 8668,
      "demonstrate": 8669,
      "demonstrated": 8670,
      "dinos": 8671,
      "mixed": 8672,
      "inducer": 8673,
      "inevitably": 8674,
      "concepts": 8675,
      "premise": 8676,
      "premiums": 8677,
      "reservation": 8678,
      "consistency": 8679,
      "adventure": 8680,
      "temporal": 8681,
      "broader": 8682,
      "broadly": 8683,
      "claims": 8684,
      "divide": 8685,
      "vanity": 8686,
      "rewatched": 8687,
      "stamped": 8688,
      "hamlet": 8689,
      "trippy": 8690,
      "enjoying": 8691,
      "exchange": 8692,
      "dozens": 8693,
      "unsched": 8694,
      "insights": 8695,
      "indicates": 8696,
      "calculations": 8697,
      "emissivity": 8698,
      "nytimes": 8699,
      "bench": 8700,
      "dmv": 8701,
      "facility": 8702,
      "facilities": 8703,
      "mask": 8704,
      "rumors": 8705,
      "##worth": 8706,
      "##proof": 8707,
      "bearings": 8708,
      "proceeds": 8709,
      "suitcase": 8710,
      "preburners": 8711,
      "permanently": 8712,
      "clicked": 8713,
      "observed": 8714,
      "taxpayer": 8715,
      "discounts": 8716,
      "breathe": 8717,
      "galaxy": 8718,
      "mixture": 8719,
      "reno": 8720,
      "rigor": 8721,
      "rental": 8722,
      "throwing": 8723,
      "weapon": 8724,
      "flameout": 8725,
      "reminds": 8726,
      "horsepower": 8727,
      "paperwork": 8728,
      "bbq": 8729,
      "briefly": 8730,
      "gained": 8731,
      "korolev": 8732,
      "lung": 8733,
      "nano": 8734,
      "prosper": 8735,
      "aspires": 8736,
      "resolve": 8737,
      "bothered": 8738,
      "redundancy": 8739,
      "declining": 8740,
      "remarkably": 8741,
      "strawber": 8742,
      "dynamic": 8743,
      "dynamically": 8744,
      "bouncy": 8745,
      "cdc": 8746,
      "michael": 8747,
      "woman": 8748,
      "women": 8749,
      "witcher": 8750,
      "weighs": 8751,
      "shares": 8752,
      "domain": 8753,
      "organization": 8754,
      "cheap": 8755,
      "cheaper": 8756,
      "arenas": 8757,
      "hashtag": 8758,
      "smiths": 8759,
      "scrap": 8760,
      "british": 8761,
      "paramount": 8762,
      "parameters": 8763,
      "legislation": 8764,
      "refinements": 8765,
      "swiftly": 8766,
      "satisf": 8767,
      "satisfaction": 8768,
      "hypocrite": 8769,
      "enjoyed": 8770,
      "pneumatics": 8771,
      "bleed": 8772,
      "fuels": 8773,
      "matrix": 8774,
      "naughty": 8775,
      "npc": 8776,
      "pillar": 8777,
      "seamlessly": 8778,
      "victory": 8779,
      "##loroqu": 8780,
      "society": 8781,
      "hazard": 8782,
      "alternative": 8783,
      "chemical": 8784,
      "comparable": 8785,
      "armored": 8786,
      "tastes": 8787,
      "climb": 8788,
      "regrette": 8789,
      "advocates": 8790,
      "subcooled": 8791,
      "extremism": 8792,
      "announcing": 8793,
      "relentlessly": 8794,
      "colonizing": 8795,
      "attempting": 8796,
      "exclusively": 8797,
      "circumferential": 8798,
      "exchanges": 8799,
      "triggered": 8800,
      "bureaucracy": 8801,
      "cnn": 8802,
      "cigar": 8803,
      "cousins": 8804,
      "laptop": 8805,
      "poured": 8806,
      "tsla": 8807,
      "tillerson": 8808,
      "##espan": 8809,
      "inherently": 8810,
      "reinforce": 8811,
      "orientation": 8812,
      "spike": 8813,
      "asymmetry": 8814,
      "contingent": 8815,
      "unwieldy": 8816,
      "percentage": 8817,
      "recruiting": 8818,
      "sculpture": 8819,
      "insertion": 8820,
      "index": 8821,
      "strateg": 8822,
      "refueling": 8823,
      "decreasing": 8824,
      "database": 8825,
      "glovebox": 8826,
      "predicting": 8827,
      "figuratively": 8828,
      "candidate": 8829,
      "syndical": 8830,
      "synchron": 8831,
      "unreasonable": 8832,
      "psych": 8833,
      "galactic": 8834,
      "scenario": 8835,
      "eberhard": 8836,
      "gwynne": 8837,
      "vulnerable": 8838,
      "bacteria": 8839,
      "bargaining": 8840,
      "dicey": 8841,
      "halloween": 8842,
      "manganese": 8843,
      "plethora": 8844,
      "recharging": 8845,
      "sophisticated": 8846,
      "anarcho": 8847,
      "proximity": 8848,
      "hammer": 8849,
      "trunc": 8850,
      "shapes": 8851,
      "lifespan": 8852,
      "doctors": 8853,
      "spectrum": 8854,
      "unbelted": 8855,
      "sample": 8856,
      "autocorrect": 8857,
      "prevalence": 8858,
      "interstage": 8859,
      "intubation": 8860,
      "electronics": 8861,
      "correlation": 8862,
      "simplicity": 8863,
      "summarizes": 8864,
      "entrance": 8865,
      "autosteer": 8866,
      "illegal": 8867,
      "megatons": 8868,
      "sanctimonious": 8869,
      "gentrify": 8870,
      "diagonal": 8871,
      "a380": 8872,
      "blades": 8873,
      "educ": 8874,
      "egypt": 8875,
      "elderly": 8876,
      "gantry": 8877,
      "ireland": 8878,
      "kelvin": 8879,
      "kestrel": 8880,
      "lmpe": 8881,
      "mordor": 8882,
      "mitchell": 8883,
      "siq": 8884,
      "ssto": 8885,
      "saskatch": 8886,
      "sacrif": 8887,
      "squeeze": 8888,
      "tubes": 8889,
      "vapor": 8890,
      "zillow": 8891,
      "stupid": 8892,
      "whimper": 8893,
      "tragedy": 8894,
      "shiba": 8895,
      "docile": 8896,
      "ashok": 8897,
      "deutsch": 8898,
      "chicken": 8899,
      "chomsky": 8900,
      "abandon": 8901,
      "unnecessary": 8902,
      "cartoon": 8903,
      "impellers": 8904,
      "overhaul": 8905,
      "superintelligence": 8906,
      "supercomputer": 8907,
      "intratracheal": 8908,
      "minnesota": 8909,
      "endeavor": 8910,
      "disassembly": 8911,
      "bluetooth": 8912,
      "speedraptor": 8913,
      "coronavirus": 8914,
      "parafoil": 8915,
      "refresh": 8916,
      "netflix": 8917,
      "bioweapon": 8918,
      "tyranny": 8919,
      "unscheduled": 8920,
      "##loroquine": 8921,
      "saskatchewan": 8922,
      "1750": 8923,
      "210": 8924,
      "260": 8925,
      "225": 8926,
      "350": 8927,
      "399": 8928,
      "auf": 8929,
      "aargh": 8930,
      "alex": 8931,
      "bn": 8932,
      "bic": 8933,
      "bars": 8934,
      "bone": 8935,
      "bend": 8936,
      "bite": 8937,
      "bays": 8938,
      "bully": 8939,
      "bag": 8940,
      "bending": 8941,
      "bund": 8942,
      "bake": 8943,
      "binary": 8944,
      "bounds": 8945,
      "baff": 8946,
      "cb": 8947,
      "cate": 8948,
      "cough": 8949,
      "cable": 8950,
      "cree": 8951,
      "ceres": 8952,
      "cuff": 8953,
      "cub": 8954,
      "dj": 8955,
      "dke": 8956,
      "dop": 8957,
      "dun": 8958,
      "dang": 8959,
      "dys": 8960,
      "dress": 8961,
      "dna": 8962,
      "dug": 8963,
      "dune": 8964,
      "dumber": 8965,
      "dusk": 8966,
      "eating": 8967,
      "fw": 8968,
      "fad": 8969,
      "fant": 8970,
      "fif": 8971,
      "font": 8972,
      "fric": 8973,
      "file": 8974,
      "gh": 8975,
      "gf": 8976,
      "gall": 8977,
      "gest": 8978,
      "gand": 8979,
      "gem": 8980,
      "goth": 8981,
      "gats": 8982,
      "gross": 8983,
      "gains": 8984,
      "gdp": 8985,
      "gulf": 8986,
      "hoo": 8987,
      "hust": 8988,
      "hun": 8989,
      "hea": 8990,
      "hits": 8991,
      "iain": 8992,
      "jitter": 8993,
      "jury": 8994,
      "jalop": 8995,
      "kh": 8996,
      "ken": 8997,
      "ket": 8998,
      "kil": 8999,
      "kai": 9000,
      "kitch": 9001,
      "ll": 9002,
      "lg": 9003,
      "latch": 9004,
      "lately": 9005,
      "lope": 9006,
      "lori": 9007,
      "mn": 9008,
      "mou": 9009,
      "mary": 9010,
      "mids": 9011,
      "mcc": 9012,
      "mounting": 9013,
      "n3": 9014,
      "nc": 9015,
      "ner": 9016,
      "nic": 9017,
      "null": 9018,
      "nint": 9019,
      "nts": 9020,
      "oge": 9021,
      "ober": 9022,
      "oval": 9023,
      "osc": 9024,
      "olig": 9025,
      "pd": 9026,
      "ping": 9027,
      "pse": 9028,
      "punch": 9029,
      "pile": 9030,
      "pets": 9031,
      "pian": 9032,
      "pins": 9033,
      "pier": 9034,
      "ports": 9035,
      "pipe": 9036,
      "powers": 9037,
      "r2": 9038,
      "ru": 9039,
      "rut": 9040,
      "rab": 9041,
      "rally": 9042,
      "rif": 9043,
      "rude": 9044,
      "races": 9045,
      "rope": 9046,
      "rams": 9047,
      "sar": 9048,
      "sme": 9049,
      "sized": 9050,
      "sands": 9051,
      "tu": 9052,
      "til": 9053,
      "tort": 9054,
      "tone": 9055,
      "tach": 9056,
      "torn": 9057,
      "taps": 9058,
      "ull": 9059,
      "uber": 9060,
      "von": 9061,
      "ven": 9062,
      "vic": 9063,
      "venge": 9064,
      "vangel": 9065,
      "wt": 9066,
      "wit": 9067,
      "wut": 9068,
      "wet": 9069,
      "wiz": 9070,
      "ware": 9071,
      "woke": 9072,
      "wides": 9073,
      "wired": 9074,
      "wipe": 9075,
      "wuh": 9076,
      "yr": 9077,
      "yel": 9078,
      "yrs": 9079,
      "yod": 9080,
      "##nd": 9081,
      "##nas": 9082,
      "##net": 9083,
      "##nam": 9084,
      "##nets": 9085,
      "##nik": 9086,
      "##nicious": 9087,
      "##iw": 9088,
      "##iven": 9089,
      "##iach": 9090,
      "##iary": 9091,
      "##iates": 9092,
      "##ipped": 9093,
      "##tt": 9094,
      "##tal": 9095,
      "##tles": 9096,
      "##hs": 9097,
      "##hr": 9098,
      "##hin": 9099,
      "##uz": 9100,
      "##uing": 9101,
      "##upp": 9102,
      "##uated": 9103,
      "##ugg": 9104,
      "##mt": 9105,
      "##my": 9106,
      "##ml": 9107,
      "##min": 9108,
      "##bm": 9109,
      "##bar": 9110,
      "##bre": 9111,
      "##bow": 9112,
      "##bay": 9113,
      "##bound": 9114,
      "##bru": 9115,
      "##bility": 9116,
      "##3k": 9117,
      "##aj": 9118,
      "##aic": 9119,
      "##aqu": 9120,
      "##away": 9121,
      "##aution": 9122,
      "##aurs": 9123,
      "##sistent": 9124,
      "##ek": 9125,
      "##eous": 9126,
      "##ections": 9127,
      "##ecd": 9128,
      "##wu": 9129,
      "##wing": 9130,
      "##wers": 9131,
      "##wich": 9132,
      "##water": 9133,
      "##watch": 9134,
      "##yers": 9135,
      "##rp": 9136,
      "##rid": 9137,
      "##rason": 9138,
      "##restri": 9139,
      "##rlich": 9140,
      "##vd": 9141,
      "##vity": 9142,
      "##viet": 9143,
      "##cp": 9144,
      "##cou": 9145,
      "##cut": 9146,
      "##cope": 9147,
      "##clock": 9148,
      "##cribed": 9149,
      "##lm": 9150,
      "##lers": 9151,
      "##lim": 9152,
      "##found": 9153,
      "##fare": 9154,
      "##fires": 9155,
      "##ost": 9156,
      "##old": 9157,
      "##oking": 9158,
      "##ogy": 9159,
      "##d2": 9160,
      "##dles": 9161,
      "##gas": 9162,
      "##gest": 9163,
      "##gge": 9164,
      "##gue": 9165,
      "##gments": 9166,
      "##gian": 9167,
      "##girl": 9168,
      "##kill": 9169,
      "##kind": 9170,
      "##kins": 9171,
      "##pre": 9172,
      "##pet": 9173,
      "##pers": 9174,
      "##pol": 9175,
      "##pie": 9176,
      "##pass": 9177,
      "##pical": 9178,
      "##packs": 9179,
      "##pread": 9180,
      "##zes": 9181,
      "##zing": 9182,
      "##zen": 9183,
      "##zero": 9184,
      "##zzy": 9185,
      "##zilla": 9186,
      "##xon": 9187,
      "##jing": 9188,
      "##erc": 9189,
      "##erous": 9190,
      "thigh": 9191,
      "thesis": 9192,
      "##inth": 9193,
      "##inse": 9194,
      "##inity": 9195,
      "##inist": 9196,
      "##onk": 9197,
      "##onoun": 9198,
      "##orpor": 9199,
      "##atia": 9200,
      "##atware": 9201,
[...]
