#version: 0.2
Ġ t
i n
Ġ a
e r
o n
Ġ s
r e
Ġt h
Ġ w
e s
o r
Ġ b
a t
Ġ c
i s
in g
Ġ f
o u
i t
e n
Ġ m
l l
a r
a n
Ġ p
Ġt o
Ġ o
, "
e d
Ġ d
Ġ h
Ġth e
Ġ l
m p
r o
s t
Ġ in
Ġ is
a l
Ġ n
Ġo f
i c
l e
a s
i on
l y
Ġb e
v e
Ġ g
i g
u t
a c
Ġ re
a mp
o t
e t
Ġ &
Ġ T
Ġ e
. "
i ll
Ġf or
Ġ S
Ġ on
o m
o w
a y
l d
c t
v er
en t
i d
Ġ u
Ġ y
e l
Ġa n
c h
Ġ I
ig h
l a
a ll
a d
o o
Ġs o
1 0
Ġ it
i m
t er
Ġs t
t h
it h
1 5
1 2
Ġ M
Ġw ill
1 4
1 3
Ġw h
s e
Ġth at
Ġw e
k e
es la
Ġn e
Ġb ut
a m
i r
u st
Ġp ro
i l
Ġw ith
T h
Ġ r
Ġ A
o p
es t
ou ld
1 6
u r
u n
ou t
ar s
Ġa re
i f
Ġy ou
a b
Ġm o
Ġc o
er e
c e
igh t
all y
Ġh a
Ġ C
ĠT esla
Ġ en
Ġa t
p p
Ġs h
at ion
u re
at e
Ġt r
Ġ or
Ġa s
n d
u l
Ġ v
Ġ W
er s
g e
an t
Ġd o
Ġth is
c k
Ġn ot
ĠT h
Ġe x
Ġs e
n t
Ġw or
u m
Ġm a
it y
i p
Ġ F
om e
e a
i ve
Ġc on
an d
Ġ ro
k s
Ġd e
ar d
ac t
Ġb y
Ġ j
Ġ B
ac e
Ġa b
Ġha ve
Ġa l
in e
or t
p e
r a
Ġ (
s s
Ġs u
o d
ou r
es s
u e
Ġa ll
oo d
Ġ H
g h
re at
1 1
Ġl i
Ġ N
Ġ P
Ġan d
l o
ro m
p er
Ġw as
Ġ D
t s
Ġ E
Ġc h
ou gh
q u
on e
Ġf rom
i mp
k ing
Ġ R
Y es
i v
Ġp o
i e
ct ion
a in
Ġco mp
Ġli ke
a p
on g
a re
Ġm e
Ġth an
p ace
u s
Ġu p
ĠS t
Ġg o
a st
Ġy e
ac k
d u
Ġ k
ar t
Ġne ed
Ġt e
i re
Ġab out
i es
Ġc ar
Ġ imp
Ġ G
Ġt im
Ġ L
ver y
id e
ou nd
m ent
Ġh igh
o l
Ġmo re
Ġw ould
b le
Ġj ust
Ġf e
Ġh e
as e
Ġen g
Ġp re
it e
0 0
e m
Ġ out
Ġn o
Ġc om
u ch
Ġc an
r y
Ġh as
ab le
i z
u ll
od el
ig n
Ġl o
7 5
an y
is t
on t
c i
en d
h ip
x t
1 9
Ġg reat
Ġpro du
7 3
7 8
7 2
7 6
Ġg ood
7 4
o re
Ġm uch
ow er
7 9
Ġa r
1 8
Ġm y
Ġp l
7 0
ic e
as s
Th e
f f
ou s
Ġ ~
Ġbe t
2 5
c on
m o
Ġan y
Ġtim e
Ġro ck
Ġa d
f t
Ġsh ould
2 0
am e
Ġto o
Ġb u
Ġg et
3 0
3 5
p t
b ab
3 8
Ġu s
Ġu n
3 9
4 5
Ġa pp
s o
in k
2 6
3 6
4 6
2 8
2 9
4 8
4 9
c c
ic h
ay s
Ġ U
ĠM odel
Ġh ard
un ch
e op
Ġ O
Ġwor k
i a
l ight
Ġ if
Ġl a
h a
4 0
in d
Ġa ct
an s
Ġ our
eop le
Ġth ere
v en
Ġon e
W e
a ge
Ġs ome
Ġl e
Ġeng ine
Ġo ver
Ġs a
ea h
Ġma ke
Ġt a
Ġd r
Ġit s
Ġ V
Ġwe e
T esla
w are
! "
b e
Ġp r
ac h
ars hip
s ion
Ġso on
Ġp eople
Ġne xt
u ally
Ġrock et
at s
bab ly
at ter
Ġthe y
or y
Ġc ars
Ġin c
pace X
b er
e ct
ĠTh e
Y eah
Ġ .
in t
Ġye ar
b it
Ġd es
Ġmo st
ot h
Ġth r
5 0
th er
6 0
6 9
6 8
act ly
5 9
5 8
Ġ J
E x
Ġon ly
Ġwh ich
ir st
u d
Ġla unch
or s
Ġm on
an ks
Ġt est
en ce
e p
ou nt
Ġin t
Ġa g
Ġf a
an ce
Ġyou r
Ġcon t
Ġprodu ction
Ġs p
at ed
ow n
ve l
Ġ %
an ge
Ġl ong
ar g
e f
f er
Ġ qu
Ġso l
g y
Ġa m
Ġr ight
r ic
Ġimp ro
Ġn ow
Ġte am
Ġm any
ay be
Ġne w
ull y
Ġmon th
Th is
9 9
Ġl and
Ġwh at
3 2
8 8
Ġa cc
oo l
Ġor bit
r u
Ġw ay
at er
et h
Ġp er
ul t
Ġre al
4 2
re e
S t
Ġwh o
ĠSt arship
W h
ĠW ill
Ġbet ter
g r
ar y
ing s
Ġye ars
Ġk n
i ld
nd er
ĠS paceX
Ex actly
Ġf un
Ġo ther
Ġfe w
5 5
ur n
en s
Ġre s
Y ou
d ay
i ble
6 6
i al
w e
ad e
3 3
Ġa ut
4 4
ĠM ars
w n
re ss
Ġwee k
' s
k es
Ġwh en
9 0
8 0
e ly
Ġu se
ĠW e
Ġl ot
le ase
Ġe ven
il ity
v ing
al con
ic al
t ing
H a
on s
" "
' t
Ġw ere
Ġs y
Ġs er
at h
Ġin ter
le ct
t y
Ġdes ign
7 7
Ġs pe
Ġl oo
mo st
o c
o se
ft ware
2 2
i le
at ing
ic ally
Ġact ually
Ġf irst
w ay
Ġb ig
st er
ĠTh is
ar th
an g
Ġ very
Ġdo es
Ġth en
Ġb ack
Ġf light
o s
Ġe very
Ġd if
Ġtr ue
Ġp ower
I t
N o
is e
9 8
Ġsu pp
Ġu nder
ation s
Ġpo int
5 6
in es
er ing
Ġre c
ap t
or m
Ġc ould
Ġm in
Ġp u
Ġso ftware
3 4
G ood
n e
Ġcom ing
Ġ $
or d
l ic
Ġkn ow
iv ing
Ġth ink
is h
ion s
ra g
u per
Ġs m
Ġp art
Ġthe ir
el f
u p
ro w
r i
Ġs ure
f ter
l ow
Ġco st
Ġex p
f ul
l es
Th anks
Ġimpro ve
t le
Ġd id
Ġre g
Ġpro bably
ĠE arth
1 7
u se
b s
Ġ ve
Ġex t
Ġo wn
Ġl it
Ġneed ed
T r
y s
Ġc r
Ġl if
Ġbu ild
i ous
ut ure
ĠN e
Ġf act
Ġp ar
Ġd ont
h ic
Ġthe m
el s
ad y
10 0
. .
Ġ X
Ġst ill
Ġse e
l so
Ġh ow
u al
Ġs c
re d
Ġw ant
Ġbe en
lect ric
8 9
il ot
ie w
ĠI n
un n
6 5
I n
a g
Ġ ver
Ġha pp
st em
iz e
I ts
i ver
t e
Ġa ir
Ġf uture
Ġh el
2 4
Ġ *
Th at
Ġwor ld
Ġsa f
en se
ĠF alcon
ea v
Ġal so
Ġb est
ic k
ic s
Ġint o
Ha ha
d er
Ġs pace
Ġf in
an k
op ilot
Ġthr ust
Ġh um
Ġwe ll
P ro
Ġt w
Ġb oo
Ġsu per
ble m
Ġad d
p h
t ty
Ġ im
Ġf ast
Ġo pt
Ġbe ing
Ġre p
ment s
Ġd own
Ġre qu
op ef
ĠU S
S D
W ill
v ed
w ard
ĠI t
ĠA ut
Ġsy stem
m er
Ġa fter
v es
Ġen d
opef ully
c ed
i x
n o
pe ct
4 3
or n
Ġm is
Ġof f
Ġe lectric
Ġcon s
2 3
er gy
Ġg en
Ġre ally
o ld
Ġf ar
Ġp h
Ġpro blem
8 5
I f
e ll
Ġin s
Ġal most
Ġcomp le
Ġland ing
ĠS uper
Ġmonth s
7 1
f ore
Ġc lo
Ġm ass
Ġd ay
Ġar t
9 5
Ġpre ss
Ġhel p
J ust
Ġd is
ĠC h
Ġen ergy
Ġgo ing
rag on
9 6
at ch
ort ant
Tr ue
8 6
a use
c y
o st
y ing
re m
ar ly
th ing
N ot
er t
Ġm ade
ar l
ver al
eav y
Ġs ay
Ġd one
Ġth ough
Ġbe c
apt or
e x
Ġg r
Ġwor king
Ġde f
Ġtr ans
a z
Ġd el
G reat
v ent
Ġ ,
Ġth ose
ĠF SD
Ġs ame
o ck
Ġd ays
Ġh ad
ers on
Ġte ch
p en
w ays
es e
Ġst art
if ic
ĠW h
Ġpu b
Ġsm all
Ġve hic
ĠAut opilot
Ġbe fore
Ġsupp ort
et s
ĠI ts
Ġeng ines
Ġsol ar
! !
Ġ /
Ġb atter
Ġp ay
Ġl ow
15 0
ss ible
ff ic
in ite
Ġc le
Ġl ess
ur re
a il
Ġl ea
Ġl ast
Ġcon f
Ġlo ve
Ġt unn
Ġw r
Ġc all
Ġo b
Ġsh ip
Ġthr ough
ar k
an e
12 0
Ġinc re
Ġf ull
Ġcont ro
Ġhum an
o ve
re ci
Ġc ool
Ġta ke
Ġlif e
Ġver sion
Ġrequ ire
Ġs ign
at ure
om eth
Ġen ough
Ġv ide
Ġdif fer
e el
f orm
Ġ ent
Ġe ver
ĠI f
14 0
16 0
Ġsh ort
Ġar ound
1 13
v ice
re ady
ĠS h
Ġgen er
c o
or ing
it ion
et y
one y
a k
Ġj o
Ġapp ro
S ure
at ive
Ġprodu ct
inite ly
ometh ing
er o
Ġc ount
Ġto day
Ġdr ive
Ġspe ed
N e
e ad
Ġre t
Ġv al
Ġlit tle
3 7
i b
om ing
ĠA I
Ġtr a
ound s
ol ut
l i
Ġ -
Ġf ire
im it
az ing
1 10
2 7
4 7
O k
d e
l ess
m on
Ġg u
ig a
Ġma x
Ġ K
Ġs ur
Ġtim es
1 15
1 12
1 14
1 16
j or
Ġth ings
Ġl ater
13 0
Ġup d
Ġimp ortant
) .
S o
Ġre lease
Ġha ha
lo ad
Ġad v
Ġag ain
Ġpub lic
Ġm oney
Ġre f
il es
ĠD o
ff ect
? "
l an
v iew
er y
at es
as h
g en
o f
Ġc ent
ĠA lso
Ġse em
Ġapp reci
Ġvide o
Ġc l
ĠI m
est ing
Ġse veral
ĠN o
Ġpress ure
3 1
ch arg
Ġwh y
ĠC o
Ġch ange
Ġup gr
Ġhapp en
5 2
w es
Ġdo ing
Ġal ways
ĠH eavy
ĠD ragon
ĠR aptor
Ġwee ks
Ġfa ir
urre nt
6 4
it ing
Ġm atter
al f
Ġwh ere
op e
Ġex ce
Ġengine ering
ud e
Ġsaf ety
Ġart ic
5 4
6 2
Ġa v
or re
Ġc ap
Ġg as
Th ere
Ġse c
Ġal ready
Ġta x
Ġext rem
) ,
9 2
r on
u ck
as on
arl ink
Ġcontro l
wes ome
g s
Ġt al
Ġb oth
8 2
8 4
9 4
M aybe
y ber
er m
Ġsh ow
ci al
Ġsa id
Ġtw o
or ry
Ġe arly
Ġthat s
Ġcomp ut
Ġreg ul
Pro bably
i or
Ġl ower
Ġl imit
ĠTh at
Ġma kes
ie ve
A nd
l in
in a
Ġs k
Ġin v
Ġis s
ur al
Ġpo ssible
iz ed
Ġle vel
ĠJ ust
a ir
e ar
Ġ z
Ġ id
Ġ You
Ġm an
Ġo per
Ġd ue
Ġe as
ill ion
Ġde p
5 3
v id
Ġ es
Ġ ""
Ġb as
Ġin d
6 3
c es
i ly
Ġs imp
Ġs elf
Ġf ix
Ġm ed
Ġo pen
Ġr ange
Ġro ll
Ġall ow
Ġam azing
Ġmis sion
c ome
f act
Ġs im
Ġth ing
Ġm et
Ġm aybe
um e
ong r
Ġdoes nt
9 3
F or
r iving
Ġb r
Ġre us
Ġv is
Ġch ang
Ġfact ory
Ġboo ster
ĠSuper charg
8 3
ou n
ĠS N
Ġne ver
Th ats
ab ility
ĠP ro
Ġpl an
w h
in al
Ġf r
Ġp erson
Ġh our
Ġv ol
ĠR e
Ġcomp any
ĠG iga
Ġser vice
Ġbatter y
M odel
a pe
v al
Ġv s
od y
Ġhigh er
Ġag o
Ġloo k
l t
Ġf la
Ġu nt
ate ll
Ġpre tty
Ġqu est
S h
Ġb o
it ive
Ġd ire
Ġst r
Ġneed s
Ġob v
P re
m or
n al
Ġa wesome
Ġs omething
Ġr ate
ur ing
ĠC an
ate ly
Ġlike ly
Ġgo es
Ġaut om
orre ct
i ally
j ect
o ll
Ġ Y
Ġ ke
on d
Ġs et
Ġm ay
Ġp ass
ust ain
ath er
C ongr
O n
R e
a ut
c ess
i o
Ġl ight
Ġin st
id er
im e
Ġr is
Ġma jor
Ġde c
ci ally
Ġorbit al
ru ck
Ġcr it
g g
n g
Ġ ir
Ġs ense
Ġn um
Ġre m
Ġsu b
ĠThe y
Ġclo se
Ġlea st
k ed
n ess
p s
w it
Ġw ind
Ġro ad
pe ll
Ġdif f
Ġown ers
A n
i ed
i ent
in s
Ġf ree
en cy
an ced
Ġor der
Ġte mp
ol ar
con d
ĠCh ina
ert ain
Ġvehic le
Ġcle ar
Ġtunn el
h ing
o ver
u es
Ġth ese
Ġm ight
Ġm ult
ar ge
an ies
Ġre ad
Ġwh ile
Ġwith out
un d
ation al
lo gy
Ġcomp anies
Ġany thing
Ġus ed
Ġupd ate
pell ant
W ere
Y up
i an
t ruck
Ġs ide
Ġto mor
om m
ent ial
Ġmo on
Ġma king
ĠN ot
ĠSt arlink
Ġlo c
Ġus ing
Ġinc l
ex as
Ġtomor row
d d
g ress
t en
Ġt ons
re ed
Ġb ad
id s
Ġpo s
Ġfe el
Wh at
Ġid ea
W ow
i er
i um
m ed
Ġ Q
Ġs atell
Ġh alf
ĠT exas
Ġy et
10 8
Ġst op
15 8
12 8
14 8
13 8
11 8
ie ld
yber truck
Ġunt il
i ant
Ġc are
Ġc urrent
Ġf ly
Ġm ot
Ġh is
mp t
al if
ic ult
10 9
15 9
12 9
14 9
13 9
pe cially
our se
11 9
iv es
Ġcomp et
Ġpl ay
Ġhard ware
St arship
Ġbec ause
Ġartic le
2 1
4 1
5 7
6 7
A ll
S paceX
Ġ +
Ġt on
Ġa ch
at a
Ġf ully
Ġre ach
Ġst and
ul ation
ĠTh ere
iv en
ĠL A
olut ely
a x
g t
er lin
it s
Ġh ome
al ity
ic t
as es
Ġbe l
im ing
Ġyou re
Ġmo ve
ea k
Ġpo st
Ġfa v
Ġim o
Ġregul at
alif orn
g er
p r
p ort
it es
ar n
Ġn ight
ac es
ra ft
Ġcom b
iz ation
Ġfun d
Ġtech no
Ġcall ed
D o
a ke
e ck
t w
Ġt urn
Ġa way
er es
Ġb l
Ġb ra
Ġc ant
Ġc ase
Ġst age
Ġat t
Ġhe ad
we en
ious ly
lan et
aliforn ia
T o
a i
b al
e c
Ġc re
Ġm iles
Ġd on
Ġh y
10 5
10 6
15 6
12 6
14 6
13 6
16 5
16 6
Ġex per
vel op
Ġopt ion
Ġa c
or th
Ġd et
Ġy es
15 5
12 5
14 5
13 5
Ġro of
Ġab le
ction s
ap id
oth er
form ance
Ġvol ume
c raft
e g
e ver
er ally
Ġs light
Ġf l
Ġre ar
ough t
end ing
Ġdr iving
Ġcent er
Ġextrem ely
Ġquest ion
Ġris k
L oo
m b
s h
Ġs ing
Ġw ater
at or
Ġc ome
Ġp ack
ĠS pace
ter m
ust om
Ġpro pellant
Ġtr y
Ġde velop
The y
Ġbet a
Ġ. ..
Ġpar ts
Ġdiff icult
9 7
l ine
Ġc ourse
Ġh ot
Ġv ia
Ġex pect
ĠR o
ef initely
Ġpay load
Ġes pecially
a ve
Ġh opefully
Ġl et
Ġpro gress
Ġbu y
Ġmult ip
Ġtechno logy
8 7
A bs
A lso
a v
l ass
t ed
u el
Ġs ustain
Ġb ody
is ing
Ġf al
al e
Ġre view
el er
el come
ĠC alifornia
ul ations
Ġv ac
Ġwor th
mer ic
Ġwr ong
Ġval ue
Ġagain st
Ġz ero
Ġhour s
Pre tty
Abs olutely
w er
Ġw ont
it ies
Ġm ust
Ġp ut
ut ion
id ent
am es
il t
Ġr apid
Ġbet ween
Ġbuild ing
C oming
S orry
d riving
u ss
at ic
at ically
is ts
Ġd ata
Ġh old
Ġfor ward
am er
Ġpr ice
ĠNe w
Ġgener al
y es
it al
it ude
Ġd ro
Ġn et
Ġre ason
ĠS o
ĠA meric
Ġse cond
ĠF or
Ġfe ature
Ġimprove ments
ific ant
Ġeas y
Ġfal se
5 1
l ed
n ot
Ġc reat
Ġo x
Ġst eel
th ough
ĠC ape
Ġme ans
Ġget ting
Ġrocket s
Ġmin s
Ġopt im
Ġcons ider
Ġappreci ated
B ut
I m
s p
in ce
Ġb ar
Ġc ustom
Ġl at
as ing
Ġg ot
Ġg ra
Ġre st
Ġst re
ith er
Ġco ver
Ġcon st
Ġhe at
Ġcom m
Ġpr ior
Ġloo ks
Ġclo s
Ġinv est
Ġmed ia
Ġreus able
omm end
A l
e ed
l ing
w all
Ġs um
Ġc ell
ou se
Ġo ld
st and
ot s
10 00
ĠM aybe
op per
ĠU n
Ġaut o
Ġthough t
Ġincre ase
Ġsing le
6 1
ut e
ent ion
Ġde ep
Ġab ove
ra z
Ġpl ace
Ġqu ite
Ġdid nt
Ġupgr ad
Ġcomput er
) "
F alcon
w or
Ġl ive
Ġn ame
ic es
ter n
Ġk ind
Ġcont in
Ġacc eler
Ġappro val
ĠCo mp
9 1
M y
re en
Ġw elcome
ou d
la d
Ġco ll
Ġse ll
od e
ĠP ower
lo y
Ġk m
Ġrec ommend
Ġcomple x
Ġsign ificant
Ġdire ct
8 1
A m
u g
u ro
Ġ :
Ġ Z
Ġf ind
Ġm ach
ar m
Ġh and
ĠS e
ch ed
Ġr ad
Ġv iew
Ġex c
Ġde al
us h
Ġdesign ed
Ġdis c
Ġdel iver
Ġnum ber
Ġfav or
lanet ary
Ġslight ly
C ool
F irst
H e
N ice
V ery
o b
o id
on es
Ġb it
Ġm id
Ġh ope
Ġg ame
10 2
im es
im ate
15 2
12 2
14 2
13 2
ir d
16 2
ur b
Ġtr ying
Ġtr uck
Ġma in
Ġme an
Ġany one
cc ess
gr am
Ġret urn
ĠDo ge
Ġchang es
ĠSupercharg er
wh ere
Sh ould
wit ter
Ġbel ieve
z z
in ed
Ġs ound
Ġs low
Ġs ize
Ġw ide
Ġf uel
Ġh ere
10 4
15 4
12 3
12 4
14 4
13 4
Ġr un
16 4
ur ate
Ġwor d
Ġro b
Ġal though
lo ck
Ġme m
Ġgo al
ĠO n
Ġam ount
ib ly
Ġadv anced
Ġlimit ed
S ome
c ing
e ch
u ly
y gen
Ġt we
on y
at ulations
Ġc amer
is m
ou ble
Ġm ph
Ġd ist
ro ss
Ġe ach
10 3
Ġst e
15 3
14 3
13 3
16 3
Ġflight s
In ter
Ġtra ffic
Ġfair ing
raz y
g reed
Ġs al
Ġc ry
Ġf ine
en g
ar ch
Ġp ie
le et
as ed
ĠS olar
Ġan al
ter s
Ġne g
am ent
ĠC ybertruck
Ġwor ks
du ction
end s
Ġbu ilt
Ġle g
Ġfa il
Ġfast er
Ġvehic les
Ġdiffer ence
Ġcrit ical
Ġsustain able
Ġox ygen
A b
A s
A ct
g n
u fact
Ġt erm
er n
Ġw a
Ġc ity
Ġc red
Ġc orrect
ac king
th ers
Ġj our
ĠB oring
iv il
Ġpre s
Ġtest ing
Ġacc ess
eth er
ys ics
Ġhuman ity
oll ow
Ġke ep
A greed
D efinitely
a id
i ence
u b
Ġ ."
Ġc a
Ġc razy
is ion
Ġn on
Ġg ive
Ġan other
ad ster
Ġare a
ĠH e
qu id
Ġlo ad
Ġag ree
Ġlong er
You re
Ġlit erally
Ġdef initely
co in
Ġiss ues
Ġsatell ites
Ġregulat ory
M ost
l or
n ing
r act
u um
Ġc ertain
Ġm ind
Ġto p
Ġo k
Ġis nt
Ġe ffic
ct ure
Ġan n
Ġab s
Ġmost ly
Ġnew s
Ġwho le
oc us
Ġgr ound
Ġtra vel
O r
O ne
l as
t on
w ise
Ġo thers
Ġe vent
ab ly
pp y
Ġnot hing
ough ly
con om
bab ility
Ġspe c
Ġdiffer ent
Ġfr ont
Ġpos itive
Ġdet ail
S ounds
n y
r ies
y c
Ġa ffect
Ġb ro
ou ch
Ġe ffect
Ġfor m
Ġst ock
Ġsu ccess
Ġk ids
Ġpre c
Ġact ual
Ġpr im
.. .
Ġrequire d
Ġmatter s
Congr atulations
c ent
p ut
y ond
Ġth ree
Ġf leet
Ġd est
ĠT witter
ad a
oo p
Ġpro gram
ĠA t
if y
pp er
Ġde ath
ĠB et
Ġsu ch
ĠH ow
Ġsome one
Ġle ft
Ġle gs
Ne w
Ġupgr ade
Ġman ufact
Ġstand ard
ĠRo adster
f ace
Ġt ank
Ġs un
Ġw in
Ġb urn
Ġc ivil
Ġm ark
ed s
Ġg iant
et er
Ġne ar
Ġpro p
Ġpro t
Ġco re
Ġro om
ĠE uro
ain ing
ap s
ist ory
Ġper formance
oc a
Ġevery one
Ġimprove ment
Ġtunn els
Ġent ire
li ke
a unch
n a
in y
Ġs n
Ġf low
it ed
it ch
Ġin it
ve il
Ġre le
Ġre ce
Ġpro b
ĠA ll
pp ing
ul ts
ĠW ere
ĠB oca
Ġch eck
Ġar r
Ġ~ $
mo s
We ll
Ġits elf
Ġcost s
Ġsaf e
ĠWh at
Ġmultip lanetary
H ow
H igh
H opefully
a w
r al
v t
Ġt ough
in ts
Ġs ens
Ġs ounds
Ġs ince
Ġf ollow
Ġm illion
Ġp ain
Ġd ens
Ġl arg
Ġl arge
Ġin f
Ġre ady
Ġe mp
Ġe ither
ver t
un k
Ġco ld
ĠW ould
Ġex ist
Ġex actly
ort un
Ġsu gg
ĠD e
Ġfun ction
Ġunder stand
ĠIn tern
Ġseem s
Ġiss ue
Ġfix ed
Ġinst all
Ġmot or
Ġrapid ly
Inter esting
Ab out
' m
l er
l ish
p o
q ue
Ġ !
in ation
Ġs w
ll ent
Ġp an
Ġst ar
Ġr a
ĠA l
ce pt
ĠTh ats
ĠTh anks
ĠF r
Ġde b
ort s
Ġch ance
ci ent
Ġun veil
Ġinc red
Ġrep l
Ġautom atically
Ġcomb ust
Ġfund ament
Ġvac uum
ĠComp any
ĠPower wall
S e
c r
h ead
k en
n ect
Ġ ed
er r
Ġf il
Ġf ocus
Ġp ast
Ġto t
Ġd uring
Ġl ab
Ġre d
Ġre l
Ġe qu
Ġe conom
Ġon line
ent ially
ĠI ve
la id
Ġwh eel
ir m
Ġmo ving
Ġsu bs
lo g
ĠSt ation
Ġfe ed
00 0
Ġla w
Ġreal ity
Ġweek end
Ġsay ing
Ġmach ine
Ġneg ative
! ?
C h
g o
p ar
s ide
in ks
on om
Ġs ent
Ġth re
Ġf ound
Ġf ri
Ġp ad
Ġp lease
Ġh istory
ro t
Ġbe g
ac ks
ot e
Ġpro bability
ĠC H
Ġor d
Ġv ent
Ġli quid
Ġgo vt
em s
ci ence
Ġpl us
Ġuse ful
Ġfact or
Ġph one
Ġcomple te
ock et
Ġbatter ies
Ġcount ries
Ġvis ion
oun ce
Ġloc al
D ragon
I mp
O f
S uper
W ould
b on
i am
o y
p l
u mp
Ġb re
Ġc ause
Ġm ess
Ġp ot
Ġg lo
Ġg ames
ac ing
Ġre du
ot y
am ber
ir ing
ĠA m
op ing
ab y
Ġmo v
pp ed
Ġsh ield
ul es
ĠE x
Ġch all
ain s
Ġthan ks
ĠSt ar
ire s
Ġbig ger
Ġrec ord
ys is
Ġtal k
On ly
ai la
Ġhy d
Ġsal es
Ġpie ce
ĠEuro pe
mos ph
g le
s wer
t a
u ff
Ġw on
Ġw ish
at ors
Ġf o
Ġm er
Ġd ate
Ġl ine
Ġg iven
ac y
Ġe l
ver n
Ġst ru
ĠM ore
il ar
ĠA s
Ġgo vern
ore d
Ġthey re
Ġtest s
fer ence
Ġfin ish
Ġadd ress
Ġconf ig
Ġstr ong
Ġach ie
Ġcre ate
ĠAmeric a
Ġanal ysis
Ġsugg est
A t
M a
M ore
b ack
g est
Ġt iny
Ġb ase
Ġc al
is sion
Ġh im
Ġbe yond
id ay
ĠM y
ĠM ost
Ġwith in
Ġmo d
Ġor ig
um mon
ĠB ut
Ġsu s
ĠE V
Ġhe ar
iz ing
ist ic
Ġta kes
Ġsol ution
Ġacc urate
Wh en
Ġpart y
iver se
ward s
Ġav aila
Ġsk y
Ġton ight
Ġbl ack
Ġdens ity
Ġcombust ion
M e
W or
i very
i ency
m eth
t ical
Ġ ut
in c
Ġc atch
Ġm ile
Ġm ention
Ġp m
Ġp ur
Ġh ouse
ro ll
Ġof fer
Ġbe h
et ing
Ġon ce
om s
om et
ent ry
Ġu lt
ad ing
Ġst ud
ĠM ay
Ġr amp
and ing
ĠH opefully
Ġch amber
ĠG o
ĠG reat
Ġtoo k
Ġwork ed
Ġlaunch es
ru pt
ang er
Ġcr ash
Ġexce pt
Ġbas ed
Ġobv ious
Congr ats
Act ually
A W
P lease
i ke
o ke
s ing
s ure
u gh
Ġt urb
Ġth eres
ar ter
Ġd ouble
Ġl ate
st ron
Ġbe low
Ġst ate
Ġpro vid
Ġr oughly
if ul
Ġha ving
Ġat te
Ġse en
and s
ĠB erlin
ss ibly
ĠN Y
ĠE ven
iv ed
are d
Ġme ant
ire d
Ġcar bon
ĠL oo
Ġget s
Ġun less
Ġhard er
ĠO r
oth ing
Ġsp aces
Ġloo king
ri b
Ġfin s
ĠSh ould
Ġhappen ed
Ġav oid
Ġdep loy
Ġincl ud
Ġach ieve
Loo ks
Ġcivil ization
ĠIntern et
Ġavaila ble
e ars
i k
o ice
Ġs our
Ġb ought
Ġp ure
Ġl ist
Ġg row
ig ate
id ual
Ġu pper
Th ank
Ġmo de
Ġen able
Ġat mosph
Ġsh e
Ġas s
Ġv ar
ĠH igh
Ġimp act
Ġno zz
Ġcom es
Ġspe cial
Ġevery thing
apt ors
Ġsc ale
Ġdel ivery
Ġfavor ite
meth row
' re
L ove
P h
R aptor
W ith
c ity
d own
e els
i en
j ust
n ically
t o
v ity
re t
Ġb oring
ar ily
Ġp ic
Ġp aid
Ġh eavy
Ġbe aut
ĠS ome
ĠS ummon
Ġan swer
10 7
15 7
12 7
14 7
13 7
am ed
ĠA ust
ive ly
11 7
ĠN ow
Ġte ll
Ġpre d
ĠO ur
arg et
Ġacc ount
Ġinter est
Ġbec ome
Ġcle an
Ġbas ically
Ġind ust
Ġsimp ly
Ġcurrent ly
Ġprior ity
Ġrad ar
ĠOn ly
Ġfundament al
5 00
F air
O h
S A
o le
o ssible
r it
u ge
Ġt anks
Ġt ouch
Ġa ction
Ġw ent
Ġw atch
Ġc or
Ġp op
Ġp od
Ġo pp
ic ul
ut h
Ġe m
ent s
ĠM on
ĠA nd
16 7
un e
Ġcon nect
iv ity
Ġlo g
Ġengine ers
Ġta king
Ġpr oud
Ġinter nal
Ġthrust ers
Ġrep air
Ġtrans port
Ġincre asing
Ġproduct s
Ġroll ing
Ġmet al
ĠPro bably
Al most
Ġca us
Ġeffic iency
Ġtot al
Ġel se
Ġgovern ment
omet imes
L aunch
O ur
h aps
p erson
y per
Ġs mo
or way
Ġc yc
Ġd iam
Ġl as
Ġn orm
Ġof ten
ut es
ver s
Ġu r
ĠI sp
Ġst or
Ġst ore
Ġne ural
ĠA re
ur s
Ġtr ip
Ġnot e
um b
Ġcon c
Ġde g
Ġde mo
act ion
ĠP lease
lo city
ĠR aptors
Ġpo l
ast er
ĠG ood
Ġhe ll
Ġno se
25 0
Ġact ive
Ġle ad
Ġdr iver
Ġdr ones
Ġpr ices
Ġother wise
Ġres ults
Ġaut onom
Ġve locity
Ġins ane
Ġjo b
Ġsimp le
fact ory
Ġfla ps
Ġclos er
Ġwa it
Ġcred it
Ġprim ary
Ġvent il
Ġatte mpt
I nd
N ow
f ect
l oop
p on
t ime
u le
Ġ ess
Ġ ide
Ġt iles
Ġf ig
Ġd ual
Ġl ay
Ġg lass
ĠT o
ent ly
oo k
Ġst atic
Ġwe ather
ir th
ir ation
Ġpro f
Ġr ules
ĠA r
Ġare nt
Ġco de
Ġen ab
Ġas k
ĠP laid
Ġhe ight
Ġhe ard
75 0
ist ics
38 0
ĠU AW
Ġres pect
ag es
Ġmax im
Ġsur pr
Ġexce llent
Ġoper ating
Ġir ony
Ġmanufact uring
Ġmark et
Ġord ers
Ġmov ie
Ġindust ry
Ġdrones hip
D e
D ont
G lad
R ocket
U n
d it
e e
h or
p ro
s igh
v ir
Ġs ched
re s
Ġf all
ou th
it coin
Ġm om
Ġp eak
Ġd ig
Ġh on
om es
Ġst ory
ith ium
ure s
Ġtr ick
Ġma gn
Ġde m
ff ord
ĠV ery
Ġinc ent
Ġimpro ved
Ġreal ize
ress ive
Ġbig gest
Ġmin im
Ġpu mp
Ġfin al
Ġrequ est
Ġob ject
Ġgu ess
Ġcl imate
ural ink
Ġmission s
Ġbr ing
Ġac ross
Loo king
Ġcertain ly
Ġann ounce
Ġdetail s
ĠBet a
person ic
yper loop
Ġdiam eter
A ut
a veral
i ans
u be
w ide
Ġs it
Ġs ite
re nd
Ġth rot
Ġc ases
Ġm ill
Ġm ount
Ġd am
al th
Ġre nder
Ġe le
Ġfor ce
ĠS m
id th
ĠI mp
th e
ĠM erlin
Ġwh ite
Ġr at
ĠA pp
Ġsh are
Ġse ats
ĠH W
ĠP er
iv ate
ĠSt ill
Ġhe ating
Ġsc reen
Ġboo k
Ġsystem s
Ġmass ive
Ġrequire s
olut ion
Ġsur face
Ġcap ac
Ġtal ent
ĠGiga factory
ĠCan averal
Ġexper ience
Ġgra vity
Ġupgrad es
Ġcamer as
Ġprot oty
Ġincred ible
Ġpot ential
Ġglo bal
Ġorig inal
Ġnorm al
' ve
B et
O ver
S olar
a h
b o
b ers
e am
h opper
m m
n er
o g
es ign
es las
Ġb ank
Ġb lock
Ġb irth
Ġc at
Ġc ash
Ġp ath
Ġd anger
le vel
Ġre v
ĠS p
Ġan t
oo ster
Ġst ep
ĠM ach
ir c
ir t
ur y
if e
ĠW or
ĠP h
Ġch arge
us ic
us ion
Ġgreat er
Ġar g
18 0
Ġsol ve
Ġair craft
Ġim med
Ġversion s
Ġent ry
Ġcount ry
Ġappreci ate
Ġextrem e
Ġsim ulation
ĠCan ada
und red
wor k
Ġexc iting
ortun ately
Ġpan els
Ġfeed back
Ġhyd ro
Ġnozz le
Ġpred ict
vir on
Ġimmed i
A iming
G o
S N
b ur
e gr
m e
o on
r ass
s elf
v in
Ġ ign
Ġ err
Ġt arget
Ġa fford
re am
Ġw ar
Ġb ot
Ġb low
Ġb illion
Ġc ur
ar ant
Ġp ush
Ġd ut
Ġh or
Ġh at
Ġin j
ĠT r
Ġe p
el ves
ĠI nd
ĠM k
ĠM ode
Ġbut ton
Ġpro m
Ġsh ot
ure d
Ġtr ack
Ġtr aining
Ġv ast
Ġch arg
Ġme ch
Ġimp ossible
ĠL ot
ous ly
Ġus ually
Ġle arn
ĠJ uly
Ġint egr
Ġcont ract
Ġper m
Ġper fect
Ha ppy
Ġser ve
Ġsupp ly
unn ing
Ġver tical
Ġhapp y
Ġadd ing
Ġproblem s
Ġins ide
Ne xt
oun ter
Ġwind ow
An y
Ġsatell ite
pr il
Ġbra in
Ġtwe et
Ġcry o
Ġpres ent
ĠHow ever
Ġlarg er
Ġthre ad
methrow er
Ġbeaut iful
Ġdem and
Ġrat io
) ."
B tw
C an
E O
M ars
P A
T urn
W orth
a kes
b h
f ortunately
s elves
v it
v ide
in ing
in king
Ġs cience
re l
Ġw arm
Ġb ill
is ed
Ġf t
Ġp at
Ġto wards
Ġh over
ro te
Ġn av
Ġn amed
ion al
Ġre entry
Ġe arl
ĠS un
id es
Ġpro cess
ĠA ir
ĠC ar
Ġen sure
Ġen viron
Ġse par
and y
ĠH yperloop
ĠP C
Ġch ar
Ġpo ints
ie f
ol ine
Ġout put
Ġlo st
St ill
Wh o
Ġinter esting
Ġmin or
Ġext ra
Ġph ot
Ġph ysics
Ġgr id
Ġsim ilar
Ġnum bers
Ġincl ude
eg as
Ġdevelop ment
Ġexpect ed
Ġfeature s
Ġsuccess ful
Ind eed
Ġmagn itude
0 1
0 3
C ybertruck
c ast
e w
e ing
p ite
r ing
t ion
t ely
u ation
y n
Ġ et
in ess
er al
Ġs ong
Ġs end
re es
Ġb s
Ġb ay
Ġo dd
Ġd ie
Ġd ark
Ġh undred
Ġg im
ac ed
Ġne cess
Ġpro vide
Ġr ain
Ġr are
ĠA iming
if f
Ġmo der
Ġco lor
ce an
ĠC O
ĠC hic
Ġas ked
ĠW as
ĠE ng
ĠR uss
are nt
em ber
Ġout side
end able
Ġany way
Ġad vert
ĠO ne
Ġqu arter
ater ial
gr ound
ag ed
Ġspace craft
Ġrep ort
Ġelectric ity
Ġsmall er
Ġhappen ing
Ġartic les
Ġreus ability
ĠSupercharg ers
Ġdire ction
Ġfly ing
Ġatt ack
Ġcustom ers
Ġcomm un
Ġdisc uss
Ġrob ot
Ġste ering
Ġjour nal
Ġra ise
Ġredu ce
Wor king
Ġut ility
Ġcapac ity
Ġmech an
0 2
0 7
A A
S ame
W D
W as
a pp
b ase
h old
m ing
m ak
o mp
t itude
y r
y ear
Ġ ill
Ġ ice
Ġt ight
Ġa ero
Ġa stron
re n
re w
Ġw ays
Ġw rote
Ġb tw
Ġc ast
Ġf lo
ou b
Ġm ist
Ġm eth
Ġm orn
an gh
Ġto wer
Ġo il
Ġl atter
as ons
Ġg e
ĠT eslas
ĠS orry
10 1
Ġst ack
15 1
12 1
14 1
13 1
16 1
Ġtr acking
Ġdo or
Ġdo ck
ĠTh ose
Ġal titude
11 1
iv idual
Ġpo ssibly
Ġme as
Ġhe art
Ġpl ant
Ġany where
Ġun like
ĠJ o
Ġacc ident
we e
ne y
Ġsm art
Ġown er
Ġworld wide
Ġhum ans
mer cial
pen sion
ib ility
Ġshow s
Ġoper ational
Ġstr ange
Ġke y
Ġcrit ic
ng th
Ġread ing
Ġcompet ition
Ġlat est
Ġcell s
Ġkind a
Ġdirect ly
Ġcamer a
Ġcry pt
Ġinit ial
Ġstru cture
Ġsus pension
Ġsour ce
Ġatmosph ere
Ġstor age
Ġventil ators
Ġmom ent
Ġbank rupt
Ġgim bal
Ġmorn ing
angh ai
0 4
0 5
0 6
0 8
0 9
A I
A pp
c ore
d ing
f or
m s
r is
v ices
Ġa ge
Ġth ous
or ne
Ġc ut
Ġc orn
Ġf i
Ġf our
Ġf ore
en ge
Ġm aterial
Ġto ld
Ġl ithium
Ġn d
Ġg one
ĠI d
Ġr out
ĠA ny
ĠA pril
Ġtr ied
Ġwor se
ĠF ull
ĠB l
ĠB itcoin
ĠN N
ĠD ay
ĠE n
ĠE very
ain less
Ġcar ry
Ġhigh ly
Ġrock s
Ġdr am
ĠV egas
Ġsoon er
Ġdes pite
Ġimpro ves
Wh y
os ite
ĠNe ed
ĠNe xt
Ġpar king
Ġboo st
ell ig
Ġhelp ful
Ġvis it
ec ause
Ġnet work
ĠAmeric an
Ġlat ency
Ġstre ngth
wor ld
Ġterm inal
Ġrece ived
Ġbre ak
Ġspaces hip
Ġinclud ing
Ġet c
! !"
B oring
C ity
L ong
M ight
a f
c an
c oming
g ing
j o
k m
Ġt ip
Ġt bh
Ġa p
on na
Ġb and
is s
Ġf re
Ġf an
Ġp ed
Ġp ick
Ġo p
Ġh ol
Ġre mo
amp le
et ic
et ting
ĠT eam
ill ing
Ġan gle
ter nal
Ġst ation
Ġst ra
Ġwh ats
Ġwe ld
Ġr ound
Ġr ather
ĠA ug
ur ity
ur ance
out s
if ied
Ġtr uly
ĠW ith
um an
ĠB ro
Ġab ort
od s
ĠH ard
ĠN orth
ĠD ont
ĠL ove
Ġpre vent
Ġcom mon
Ġcom mercial
Ġlo ss
Ġad just
ĠO ther
ind er
Ġ. .
bit al
Ġsp eak
ru ction
St op
St arlink
Ġlot s
Ġser ious
Ġinter view
Ġext end
ĠNe uralink
Ġsee ing
Ġhapp ens
Ġfin an
Ġhelp ing
ific ation
Ġpub lish
Ġcl ass
Ġobv iously
Ġlight s
Ġplay ing
Ġregulat ors
Ġcreat ing
Ġinvest ors
Ġsum mer
Ġcontin u
Ġdeliver ed
Ġmem e
Ġdest ination
Ġdeath s
Ġstar ts
Ġsubs id
Ġfri end
Ġlog istics
ĠAre a
Ġide as
Ġthrot tle
Ġimmedi ately
Ġearl ier
Ġenviron ment
3 00
A SA
B est
B oth
E very
E ven
G iga
M uch
P U
S igh
b y
g ether
i ens
n ight
p ital
Ġt or
Ġa head
Ġs ometimes
Ġb all
Ġf it
Ġf am
ou p
Ġo cc
Ġo cean
Ġh er
Ġh it
Ġl inks
Ġre li
ĠS er
ĠS outh
ch ite
im ately
se mb
Ġwe ird
am ing
Th ese
Ġr ide
Ġr unning
Ġmo b
Ġv ir
Ġma int
Ġde ad
ĠB o
ĠB ig
Ġal ong
pe ed
our ces
Ġch oice
us hing
em i
Ġout come
iz es
Ġar chite
Ġapp ly
Ex c
Ġqu ality
Ġkn own
os pital
Ġunder way
Ġexp endable
Ġcomple tely
Ġdel ay
Ġconf irm
Ġwr it
Ġwr ite
Ġship s
Ġshort s
Ġappro ach
Ġret ro
Ġcap ability
Ġsec urity
Ġind ividual
Ġopen ing
aut s
Ġir on
Ġhead er
Ġcreat ed
Ġsum m
Ġprop ul
ĠFr iday
Ġrepl ace
Ġfil ter
Ġchall eng
Ġlas er
ĠPer formance
Ġprototy pe
ĠChic a
ellig ence
Ġ.. ."
, .
2 00
A cc
H ard
H oping
L A
b all
c le
h e
o ly
r ange
t r
v ation
Ġth o
Ġw ild
at t
Ġf ool
it ors
en e
Ġm usic
Ġto gether
Ġh uge
Ġin form
Ġre asons
ot ive
Ġe v
Ġe ff
Ġst ations
am s
Ġr id
ĠA d
ĠA n
Ġyou d
Ġtr ad
ant age
ĠB ooster
Ġal one
Ġal iens
ĠH a
ĠN ASA
Ġk id
Ġimp ort
Ġhigh est
Ġfe els
Ġhe alth
ci ous
Ġus es
Ġhard est
ans ion
ep ends
Ġimpro ving
Ġteam s
Ġres ources
ress ion
Ġsy n
Ġpower ed
Ġpart icul
Ġdid n
Ġlif t
Ġthem selves
rem ont
Ġstart ing
Ġstart ed
Ġcontro ll
ĠSh anghai
ative ly
Ġgu y
Ġcl ar
Ġexce ed
Ġgas oline
Ġtax es
Ġmet ric
Ġperson ally
Ġautom otive
Ġbra king
Ġcre w
Ġcustom er
Ġupgrad ed
Ġcontin ue
Ġdist ance
eng th
Ġprec ise
Ġprec ision
Ġpain t
Ġbeg in
Ġmess ed
Ġbeh ind
ugh t
Ġprovid ed
Ġpop ulation
Ġhundred s
: "
U D
U p
Y our
e y
f r
i os
p or
r s
r ation
r ound
y p
Ġt it
Ġt ube
er ature
Ġs ch
Ġs il
Ġs wit
Ġb aby
Ġc ame
en ces
Ġm arg
Ġp age
Ġd ying
Ġn or
ill y
om b
ent er
Ġy eah
ĠI s
Ġso ld
Ġso cial
Ġwh ether
Ġwe ve
Ġr d
op s
op ump
ur d
Ġare as
Ġco vid
ĠC ould
Ġv ote
Ġex act
um er
ĠF ound
ĠF AA
Ġro t
ra in
Ġsu ck
ĠH ope
ĠP l
Ġch ain
Ġup load
Ġcom ments
xt rem
Ġus er
Ġus ers
Ġta ken
Ġloo p
oc al
Ġdoes n
Ġrec o
ord ing
Ġexp la
Ġreg ions
Ġsc ore
iver s
ick el
Ġopt ions
Ġoff ic
Ġph ys
urre n
Ġcool ing
Ġsign al
ĠSh ort
Ġfire s
Ġsur v
Ġupd ates
ĠDo es
Ġcap ital
Ġtal king
Ġlevel s
Ġeas ily
Ġchang ing
Ġplan et
Ġinst ead
Ġturn ed
Ġoptim ized
Ġcoll e
Ġword s
Ġsn ow
Ġexist ing
Ġsw ap
Se ems
ĠEV s
Ġconc ern
Ġfig ure
Ġsched ule
Ġhon or
Ġannounce ment
ĠSm art
arant eed
Ġintegr ated
ĠSun day
Ġcrypt o
Ġmob ile
+ +
C ant
D riving
F r
F SD
T ry
i et
p ha
s er
u pp
w o
Ġt en
in um
Ġs l
Ġs ays
Ġth inking
Ġw al
Ġc irc
Ġp e
Ġto w
Ġd ied
Ġd umb
Ġh ate
Ġh ospital
Ġl ic
Ġis n
Ġn ice
Ġn ets
Ġn ational
ic on
Ġe g
Ġe arn
ill e
Ġfor g
ĠS at
ĠS elf
ĠS emi
igh ter
th orne
ĠM ar
Ġwh eels
Ġwe b
ir med
ab il
ce ed
Ġex ample
Ġex ternal
Ġse a
Ġse ction
ĠF remont
and en
Ġro le
ard s
Ġj ack
Ġj ud
ĠB e
ĠH opper
ĠN orway
ĠP ar
ĠD a
ĠD ec
ĠE U
Ġch ip
Ġcomp ared
Ġme eting
Ġcar mak
ĠL ike
Ġcan not
18 5
Ġbu ying
Ġun c
Ġun its
Ġinc orrect
ber g
Ġdes er
Ġint ense
Ġfa ke
Ġsp end
St ar
ens ive
ĠWe ll
"" "
Ġsy mpt
Ġser ies
Ġinter ior
Ġknow s
Ġins p
Ġtrans fer
ĠWh y
Ġincre ases
Ġshort ly
co ver
ition al
Ġappro x
Ġadv antage
Ġref und
Ġallow s
Ġallow ed
Ġquest ions
ĠQ A
Ġmot ors
Do es
Ġturn s
Ġdro ps
Ġconsider ed
Ġconst ra
Ġsignificant ly
ĠSe pt
Ġmem es
cr ip
Imp ortant
Ġchall enge
Ġvar iant
Ph ysics
ĠAust ral
Ġautonom ous
Ġess ential
Ġsurpr ising
ĠInd ia
wee k
Ġcorn er
ĠAug ust
fr ame
' d
A re
C omp
F ull
I s
M ax
S er
S omething
T O
b v
c one
g or
h anced
i pping
k er
l ation
m it
s c
u x
w idth
y th
Ġt our
Ġa iming
Ġa ctions
Ġs on
Ġs ad
Ġb i
Ġc ross
Ġc ounter
Ġf ight
Ġf iring
it erally
Ġh ur
Ġbe ha
Ġg ave
Ġe mb
ver se
ad es
Ġst ainless
ĠM a
ĠM ot
Ġr ise
Ġr ail
est ri
ur ation
Ġco l
ĠC on
Ġen c
Ġdo ll
um ul
um inum
Ġma g
ĠF irst
Ġcon dit
Ġj am
Ġab ility
Ġall oc
ĠH ave
art ing
Ġcar go
Ġimp ressive
Ġhigh way
end ent
Ġpr inc
Ġlaunch ing
Ġsp ent
ĠStarship s
Ġfew er
Ġinter n
Ġmin ute
Ġexp on
Ġexp ansion
Ġair frame
Ġim m
pect ed
Ġmis le
Ġcons cious
Ġcomple ted
Ġtech n
Ġsupport ing
Ġjo ke
Ġval id
li ed
Ġchang ed
ĠRe ally
Ġpass ed
Ġwind s
Ġtemp erature
Ġloc ation
Ġatt ach
Ġpack age
ĠFor ce
Ġconst ant
Ġacceler ation
Ġcomplex ity
Ġinstall ed
Ġturb opump
Ġsmo oth
Ġpol it
Ġlay er
Aut opilot
Go ing
Ġrobot ax
Ġcritic ism
Ġfre qu
Ġped estri
Ġarchite cture
Ġsumm ary
Ġsympt oms
yth on
Ġcondit ions
Ġprinc ip
4 00
8 00
B C
B ecause
C ould
M any
S pace
T ech
U S
e es
e or
e al
f ully
o v
p es
s ed
u ild
u mpt
v ant
v ille
Ġ i
Ġt rend
er ry
Ġw ise
or ter
or ters
Ġb en
Ġc la
Ġc andy
Ġp ict
Ġto ol
Ġd ry
Ġthe ory
st r
st ru
Ġin ference
Ġg onna
ut s
Ġre use
ĠT ech
ter day
Ġst ay
ĠM om
ĠM art
ĠM ax
Ġwe ight
Ġpro ject
Th ose
Ġr ating
Ġha vent
Ġsh if
Ġas p
Ġas semb
ant ic
um ing
um ent
Ġcon vin
ard ing
ĠB ay
Ġal uminum
ra p
ra w
ĠD r
ĠE l
iv al
Ġthan k
du ct
ĠG M
ĠL o
75 1
75 2
75 3
75 4
75 5
75 6
75 7
75 8
75 9
end ed
73 0
73 1
73 2
73 3
73 4
73 5
73 6
73 7
73 8
73 9
72 0
72 1
72 2
72 3
72 4
72 5
72 6
72 7
72 8
72 9
76 0
76 1
76 2
76 3
76 4
76 5
76 6
76 7
76 8
76 9
74 0
74 1
74 2
74 3
74 4
74 5
74 6
74 7
74 8
74 9
18 2
70 1
70 2
70 3
70 4
70 5
70 6
70 7
70 8
70 9
Ġun e
Ġun iverse
Ġapp ear
Ġapp ears
Ġhard core
Ġsa w
Ġtest ed
Ġsol ving
Ġaut hor
Ġser vices
Ġpower ful
Ġcould nt
Ġsc al
Ġtw ice
Ġboo ks
Ġadd ed
ĠUS A
Ġins an
Ġwr iting
Ġ- -
Ġref light
ron ic
Ġsimp l
Ġallow ing
Ġrem ain
ĠNot e
dd ing
reed om
Ġpos ition
Ġfeel ing
Ġcompet itive
Do ge
Ġac cept
Ġclos ed
Ġacceler ate
Ġacceler ating
Ġapproval s
Ġrecommend ed
Am azing
Ġrob ots
Ġjour ney
Ġeffic ient
Ġabs urd
Ġlarg est
ĠStar base
Ġfo ot
Ġinterest ed
rit ical
ĠMon day
pon se
Ġshare hold
Ġerr or
Turn s
Ġunlike ly
Ġdram atically
Ġtor que
Ġchalleng es
Ġeff ort
xtrem ely
urren cy
crip tion
B ig
D epends
E arth
E ng
F R
N othing
P l
Q u
T A
U V
V ac
c l
d le
f it
h n
m k
m as
o x
p m
p ower
r id
r ist
s et
t ings
v est
Ġ est
Ġt all
Ġt ap
Ġt ires
Ġa ware
Ġa ud
Ġs qu
re al
Ġw d
Ġw all
Ġb us
at tle
Ġc amp
Ġc lic
Ġf ict
Ġm atch
ar ing
an n
Ġp ort
ed ic
Ġd oo
Ġd rag
Ġd oub
Ġl ink
ro p
ro ved
Ġin ert
ic ing
Ġre fer
ĠT oo
ĠT op
Ġon es
ct or
id a
Ġan ten
all ey
oo gle
Ġit er
Ġst uff
ĠM e
ĠM uch
ĠM any
ke y
am n
16 8
16 9
ur ies
ur ther
ĠC l
Ġsh ut
Ġtr uth
ĠW ed
ĠTh en
ĠTh urs
Ġse at
Ġse qu
Ġse ctions
Ġwor st
Ġcon ver
ss il
ĠH aw
ĠN othing
ĠP ython
ĠR es
Ġpo lic
ap an
Ġme et
Ġte le
ĠG PU
Ġpre m
Ġcom f
Ġlo se
19 0
19 1
19 2
19 3
19 4
19 5
19 6
19 7
19 8
19 9
78 0
78 1
78 2
78 3
78 4
78 5
78 6
78 7
78 8
78 9
79 0
79 1
79 2
79 3
79 4
79 5
79 6
79 7
79 8
79 9
18 1
18 3
18 4
18 6
18 7
18 8
18 9
Ġmy self
Ġpl aces
mo j
Ġbu g
35 0
39 9
26 0
ĠO ct
atter y
Ġdes c
ĠJ apan
Ġint elligence
Ġqu ick
Ġsol ved
Ġper haps
Ġres ult
Ġres ponse
we et
wn s
77 1
77 7
Ġsupp li
Ġexp lan
17 1
Ġpar k
Ġwant ed
Ġim ag
Ġtrans it
Ġtrans ition
Ġtech nically
Ġstart up
ĠWh en
Ġconf irmed
Ġvide os
Ġjo in
Ġgu ys
So on
Ġcap able
Ġoper ation
vid ence
ĠPro duction
Ġfr ame
Ġfla methrower
Ġbo ard
Ġloc ations
arn ing
Ġhy personic
Ġvac c
Ġcover age
ĠUn iverse
Ġtwe ets
lor ida
Ġemp loy
Ġfunction ality
Ġdeb t
Ġlaw s
Ġfri ends
Ġsuggest ions
Ġblack outs
Ġpur ch
Ġbeh alf
Ġult ra
Ġdeploy ed
ĠAust in
Ġstore s
ĠApp le
Ġbirth day
Ġant i
Ġdut y
Ġwrit ten
Ġsch ool
Ġmarg in
Ġcolle ge
ĠAustral ia
Ġmisle ading
Ġconscious ness
A fter
P er
T ime
b ody
c el
i que
n es
s ustain
t om
u ably
y e
y pe
Ġt err
Ġt roll
in ally
er ic
er os
Ġs illy
Ġw er
Ġb io
Ġf at
Ġf usion
Ġf urther
it ter
Ġm il
ar rass
an ces
Ġd en
Ġd ome
Ġd edic
Ġh ous
Ġh eav
Ġl ines
ro y
Ġin h
Ġin vent
Ġin de
Ġin put
Ġn u
ic ro
Ġbe at
Ġg ives
Ġg lad
Ġre act
et ail
Ġe moj
ĠS ol
ĠS UV
ct ural
ver age
el es
Ġwe bs
Ġwe ak
Ġbut t
Th eres
ĠA C
ĠA WD
op t
ĠC ant
ĠC urrent
ĠC yber
ul ed
ers ion
Ġdo g
ĠF lorida
Ġde mon
ĠB tw
Ġsu personic
reat ing
ĠD efinitely
ĠE aster
ĠR ed
ĠR ep
Ġfe es
Ġcom ment
Ġgreat ly
Ġprodu ced
Ġpl ans
Ġus age
Ġun it
45 6
46 5
Ġdr ives
ber t
ĠJ une
Ġland ed
Ġland ings
ult ane
Ha ve
Ġrec over
ne w
ri ed
Ġcr ush
Ġfact o
Ġhapp iness
Ġhelp s
Ġbec oming
Ġjo bs
Ġgu aranteed
Ġadv ance
Ġref lect
Ġexce eds
Ġsec s
Ġsec ret
Ġsk ill
Ġes th
Ġroll out
Ġsim ultane
ond on
Ġset ting
On ce
Ġir l
Ġsub ject
Ġreach ing
Ġcomb ined
Ġyes terday
Ġfl u
Ġlet ter
Ġdro p
Ġsum mon
Ġca ught
Ġaffect s
ĠBet ter
Ġprop ag
ĠAl most
Ġfil ters
irm ware
Ġachie ving
Ma jor
Ġcal c
ĠLoo ks
Ġnose cone
Ġlead er
Ġmaxim um
Un fortunately
Ġincent ives
Ġsit uation
Ġmill ions
Ġhydro gen
Ġafford able
Ġinj uries
Ġchar ac
Ġadvert ising
Ġmist ake
Ġthous ands
Ġfore ver
Ġband width
Ġsubsid ies
cle ar
Ġclar ify
Ġoffic ial
Ser iously
Ġemb arrass
Ġalloc ation
Ġinde ed
2 30
5 50
A P
D r
D id
G I
N orway
P S
P eople
T esting
f light
f ord
f aces
h as
i ot
k a
k n
k ra
l u
o ving
p ay
p oll
r ous
u la
Ġa im
or k
ou ter
it er
Ġm ir
an ing
an cy
Ġo bs
ed eral
Ġin e
Ġn ickel
le x
ig ation
ut er
ĠT ues
Ġe vidence
ĠS omething
el t
Ġan g
ch ang
im ent
ĠM ust
se ll
Ġpro te
if t
Ġyou ll
ĠC ons
ate ver
Ġtr ust
ul ar
ĠF e
ĠF la
ĠF ord
and a
Ġj ump
ĠB r
ĠB est
ĠB ase
ĠP ay
ĠD el
ack ed
ĠG od
ĠL ong
Ġwould nt
ry pt
iz ont
Ġlo an
Ġpl ate
25 1
25 2
25 3
25 4
25 5
25 6
25 7
25 8
25 9
20 1
20 2
20 3
20 4
20 5
20 6
20 7
20 8
20 9
35 1
35 2
35 3
35 4
35 5
35 6
35 7
35 8
35 9
38 1
38 2
38 3
38 4
38 5
38 6
38 7
38 8
38 9
Ġun ion
39 0
39 1
39 2
39 3
39 4
39 5
39 6
39 7
39 8
45 0
45 1
45 2
45 3
45 4
45 5
45 7
45 8
45 9
Ġapp lied
26 1
26 2
26 3
26 4
26 5
26 6
26 7
26 8
26 9
36 0
36 1
36 2
36 3
36 4
36 5
36 6
36 7
36 8
36 9
46 0
46 1
46 2
46 3
46 4
46 6
46 7
46 8
46 9
28 0
28 1
28 2
28 3
28 4
28 5
28 6
28 7
28 8
28 9
29 0
29 1
29 2
29 3
29 4
29 5
29 6
29 7
29 8
29 9
48 0
48 1
48 2
48 3
48 4
48 5
48 6
48 7
48 8
48 9
49 0
49 1
49 2
49 3
49 4
49 5
49 6
49 7
49 8
49 9
ĠO ver
40 1
40 2
40 3
40 4
40 5
40 6
40 7
40 8
40 9
Ġact ivate
ĠV alley
Ġcont rib
Ġ% ,
Ġqu iet
32 1
32 2
32 3
32 4
32 7
42 1
42 2
42 3
42 4
42 7
gr ing
Ġfun ny
Ġres ist
Ġser iously
Ġsupp orters
Ġmin utes
Ġpar ach
Ġhow ever
Ġthrust er
Ġim age
Ġrep res
no ying
Ġins urance
ĠCh rist
Ġconf ident
reci ated
Ġent ertain
Ġgener ate
co mp
Ġsur round
Ġcent ers
Ġappreci ation
Ġav g
Ġcomput e
Ġeas ier
ĠRe qu
Ġmajor ity
Ġrem ember
Ġsub tle
Ġstop p
Ġdevelop ing
Ġput ting
led ge
Ġcoll ect
Ġsell ing
Ġmean ing
ĠDoge coin
Ġamount s
Ġleg al
Ġfail ure
Ġcred ibility
Ġabs or
Ġspec ies
Ġprim arily
Ġrele ases
Ġrece ive
Ġsens ible
Ġincred ibly
Ġlab el
Ġmer ch
Ġmod el
ĠLoo king
ĠOr der
Ġincreasing ly
Ġautonom y
Ġenab led
De ep
Ġminim ize
Ġmount ed
Ġtalent ed
Ġdanger ous
Ġep ic
Ġpat ient
ĠPC R
Ġnecess ary
Ġcommun ic
Ġjournal ists
ĠJo hn
Ġfam ily
Ġvir us
Ġmaint ain
ĠBo eing
Ġinform ation
Ġev ol
Ġswit ch
Ġcarmak ers
umpt ion
Ġpict ure
Ġinsan ely
ĠHaw thorne
Ġcomf ort
wns ville
Ġexplan ation
Ġdedic ated
Ġwebs ite
Ġpropag anda
kra ine
poll o
B e
B ack
E n
G iven
H i
H ell
I P
L anding
N A
P r
S im
U h
U m
a ks
a per
c om
c ool
d o
e ward
g es
g an
k i
m r
m et
n ed
n ow
p unk
r bur
s on
u it
u ed
v able
w ord
y d
y ears
z e
Ġt ype
Ġt mr
in ter
Ġa verage
Ġs at
Ġs cient
Ġb la
Ġc ath
Ġf ield
Ġf reedom
it or
it ud
en ing
en sion
Ġm ine
Ġm ath
ar ks
Ġp et
Ġp itch
Ġh es
Ġl uck
Ġl ength
ro gen
st e
st ood
Ġn one
ic o
ic rous
Ġg ear
Ġg reen
Ġre new
ĠT rend
Ġe lect
Ġe mer
ĠS ame
id ering
Ġan noying
oo f
Ġst y
th r
15 00
ĠM r
ĠM ight
ĠM ont
ĠM arch
14 00
ir l
Ġr ace
ab les
ĠC EO
ĠC rew
Ġsh own
Ġtr illion
ĠTh ese
Ġex it
Ġex ec
Ġse al
um ers
Ġma p
ip e
Ġcon vert
Ġcon vers
and om
Ġde v
Ġde le
Ġj unk
ra ul
ĠN rbur
ĠP r
ĠP an
ĠP ac
ĠP art
ĠP res
ĠD id
Ġch ild
ĠR UD
ap se
ĠSt e
art ed
ies el
Ġtim ing
ĠL aunch
ĠL ondon
end ar
Ġgreat est
Ġar ms
Ġpl ane
Ġad vent
30 1
30 2
30 3
30 4
30 5
30 6
30 7
30 8
30 9
ven ue
Ġsome where
Ġle eward
Ġengine er
Ġsa ve
Ġdr iven
Ġpr int
Ġpr ivate
atter n
ud icrous
Ġmon op
Ġfa ult
Ġsp l
Ġsp in
Ġam b
Ġacc ording
Ġres p
Ġres er
we ar
33 1
33 3
33 4
33 7
44 1
44 3
44 4
44 7
oc r
Ġpower t
Ġrec ent
34 1
34 3
34 7
Ġexp ensive
Ġwant s
Pro duction
Ġcons ist
Ġph ones
Ġdis cover
ex pected
Ġgr ad
Ġtrans action
Ġdel ta
ffic ient
Ġlea k
Ġgener ator
Ġappro ved
Ġval ve
Ġgu ide
ĠNo v
Ġwhere as
Ġcomput ers
Ġman age
Ġdep ending
Ġbas ic
Ġbr ight
Ġbo ys
ĠY ork
Ġset tings
Re ally
An other
Ġcare ful
Ġcompet itors
Ġpost ed
Ġhy p
Ġexper t
Ġroof s
Ġfl at
sh irt
Ġdevelop ed
Ġlet ting
Ġoptim istic
Ġgra ph
Ġconst ruction
Ġinvest igate
Ġmid dle
Ġmem ory
Ġann ual
Ġevent ually
Ġeffect ive
Ġdest roy
Ġprot ect
Ġinit ially
Ġrele ased
Ġarr ay
Ġfollow ed
Ġrepl aced
Ġwon der
Ġfo ssil
Ġfinish ed
Ġaddress ed
Ma king
Me ant
Ġpur p
Ġstud ent
Ġramp ing
Ġopp ortun
Ġopp osite
Ġcyc le
Ġdriver s
Ġfall ing
Ġtrick y
Ġdam age
Ġele v
Ġarg uably
bur g
Ġnav igate
Ġsepar ate
Ġmoder ate
ĠRuss ian
app reciated
Ġastron auts
Ġmeas ure
Ġfi ber
Ġrout e
Ġop in
Ġhol iday
Ġstra ight
ĠBro wnsville
por ate
Ġwal k
Ġlic ense
Ġweb cast
Ġhur t
Ġmag ic
Ġtechn ical
Ġconstant ly
Ġcla im
Ġassemb ly
Ġanten na
Ġsuppli ers
sustain ing
opt im
Ġembarrass ing
Ġtmr w
Ġcath ode
ĠNrbur gring
! ?"
, ~
6 00
9 00
A h
B y
C on
C urrent
E PA
G u
I d
I ve
L e
L ot
L ike
P ower
R em
R ead
S p
T C
T W
a ult
a iting
b ut
b ot
c ur
h ow
l and
l ies
o k
o int
p re
p lanetary
r ate
s es
y stem
Ġ '
Ġt un
in ary
Ġa po
on ic
Ġs ort
Ġs ats
Ġc apt
Ġc aut
Ġc ities
Ġm T
Ġm ix
Ġp en
Ġp attern
Ġd a
Ġd iv
Ġd raw
Ġh ang
Ġh orn
Ġl ighter
al o
Ġn ature
le t
as ically
ac o
Ġre se
Ġre pe
Ġre duction
Ġe at
Ġfor mer
ĠS il
ĠS hip
id ence
ch es
ĠI C
ĠI P
ĠI ron
Ġst ates
Ġst abil
12 00
ĠM in
Ġwh atever
Ġwe ar
Ġr acing
ĠA b
op ia
16 00
Ġco ast
ce llent
ĠC enter
Ġsh ipping
Ġtr ouble
Ġv ot
Ġv ary
Ġv oice
ant s
ant ed
Ġnot ice
Ġex cess
Ġse ver
ip ment
Ġcon ven
ĠB y
Ġal ien
ra ph
Ġ( ~
Ġsu c
ĠH er
ĠH ouse
ĠH oping
Ġli ves
ĠD is
ĠE ast
Ġch e
Ġpo ll
ain ment
Ġcomp ression
Ġme g
Ġk ill
ĠG en
ĠG erm
Ġhe x
Ġno ise
Ġlo ved
Ġprodu ce
Ġun kn
Ġun expected
Ġact u
Ġover all
ĠV ac
ĠV ersion
59 7
ĠJ an
ep endent
Ġ% .
Ġsol id
Ġorbit s
Ġper i
Wh ere
we ight
Ġback up
Ġback ground
Ġunder stood
ord er
Ġexp lo
Ġreg ion
Ġsc am
ag ree
Ġworld s
Ġtw ea
Ġtw itter
Ġdown load
Ġcons umption
Ġart ific
Ġdis agree
ock h
ĠWh o
ane u
Ġdiffer ences
ak a
Ġes c
Ġind ic
Ġfix ing
Ġmed ium
ĠSupercharg ing
Ġplan ning
Ġbo x
Ġir re
Ġrem ains
ĠThey re
Ġwind ward
Ġpos it
eck ing
eg ap
sh old
Ġhold ing
Ġdro pped
Ġsecond s
Ġoptim ization
Ġthought ful
Ġcoll apse
Ġrad io
Ġdeliver ies
Ġmid night
Ġfail ed
Ġwa iting
Ġkeep s
Most ly
Ġspec ific
Ġaffect ed
Ġbro ad
Ġbro ken
Ġentire ly
Ġprob able
Ġunderstand ing
Ġdeb ate
cr acy
Ġlab or
Ġequ ipment
Ġeconom y
Ġeconom ics
Ġthre shold
pl ay
Ġshield ing
Ġhyd raul
Ġachie ved
Ġcal endar
Ġmention ed
Ġgrow th
Ġdeg rees
Ġlay ers
iration ally
Ġobject s
Solar City
bo ard
rass hopper
Ġdut ies
Ġinj ury
Ġcharg ing
Ġwarm ing
Who a
Ġflo or
Ġterminal s
Ġap art
Ġreli ability
Ġreplace ment
Acc urate
ĠHa ppy
Ġcontroll ed
ĠDoes nt
upp ort
Ġvalid ation
Ġprincip le
Tech nically
Ġben ef
Ġauthor ities
Ġpolic y
Per haps
Ġterr ible
ĠCyber punk
ĠChrist mas
thr ough
Ġopin ion
Ġrese arch
Ġunkn own
1 100
5 69
5 68
5 58
6 69
6 68
6 58
7 00
8 69
8 68
8 58
8 99
9 69
9 68
9 58
9 88
A C
B l
B aby
C ar
H T
H es
H ead
H uge
L iterally
P ut
P art
R es
S J
S m
a ft
a oke
b el
b urn
b ased
c is
d om
i est
k y
l oo
m a
m an
n ers
o ssibly
p ack
r ding
s y
u ish
v ada
w d
w ill
w ith
y ard
z en
Ġ =
Ġ Yes
Ġ outer
Ġt er
Ġa w
Ġa mp
re y
Ġth us
Ġw ins
Ġw idth
Ġb an
Ġb orn
Ġb attle
at est
Ġc ave
Ġc ute
ing e
Ġf old
Ġf wd
en ed
Ġm icro
Ġm aneu
an ium
Ġp ushing
ed y
Ġh ar
Ġn at
Ġn ons
as ive
Ġg ar
Ġg ig
Ġre ference
Ġre venue
amp ing
et ime
ĠT ry
ĠT ree
ĠS c
ĠS ch
ĠS ur
ĠS ign
ow s
id ed
Ġan cient
ch e
ĠI V
all el
Ġso ft
10 69
10 68
10 58
10 99
10 88
Ġst at
Ġst ars
Ġst ick
Ġst ole
15 69
15 68
15 58
15 99
15 88
12 69
12 68
12 58
12 99
12 88
ĠM an
ĠM ed
ĠM ass
14 50
14 69
14 68
14 58
14 99
14 88
13 69
13 68
13 58
13 99
13 88
am mer
ust ed
il ities
ĠA ct
16 69
16 68
16 58
if ically
Ġco v
ĠC ount
ĠC omm
Ġsh orter
Ġtr iv
Ġtr unk
Ġas king
Ġv i
ĠW W
Ġdo ors
Ġcon d
Ġro w
ĠB FR
Ġal ive
Ġal ert
ĠH EPA
11 99
11 88
ĠP re
ĠP eople
Ġwas nt
ĠR ocket
ĠR oof
Ġcomp ens
Ġup on
ĠG ary
ĠG rasshopper
ĠL i
ĠL atter
Ġlo ck
Ġbu ff
ĠU kraine
ĠO k
ind a
Ġle ase
Ġover r
Ġdr one
Ġthr u
60 1
60 2
60 3
60 4
60 5
60 6
60 7
60 8
60 9
59 0
59 1
59 2
59 3
59 4
59 5
59 6
59 8
59 9
Ġfa ith
Ġyour self
Ġcont e
Ġsp orts
Ġland s
Ġres ale
Ġres olution
Ġsy mb
22 1
22 2
22 3
22 4
22 7
Ġevery where
Ġunder appreciated
Ġpu pp
lic ations
up iter
Ġexp and
Ġve ctor
Tr uth
Ġlif etime
ĠNe eds
24 1
24 3
24 7
Ġspace port
Ġend ed
no vation
43 1
43 7
Ġcons umers
23 1
23 7
ell ing
Ġins ight
Ġcomple ting
atch ed
Ġdef ense
vent ion
Ġlea ve
Ġsign s
Ne eds
Ġupd ated
Ġpublic ly
Ġref illing
ĠCo vid
Ġoper ate
Ġroll s
Ġplan ets
Ġplan ned
Ġbo at
Ġdec ade
Ġroad s
Ġtemp or
Ġmot ion
Ġbel ie
Ġbra ke
Ġexper ts
Ġoption al
Ġdet ect
Ġfl ies
Ġmultip le
Ġoptim al
Ġcomm it
Al ways
Al ready
ĠZ ip
Ġhand s
Ġhand le
ĠSe ems
Ġdisc ount
Ġdeliver ing
Ġpie ces
Ġterm s
Ġspec ifically
yc ling
ĠAt las
Ġemp ty
Ġfocus ed
Ġrel atively
Ġsubs cription
log ies
go ing
Ġstru ctural
Ma kes
Ġhear ing
Ġstud y
Ġprovid ing
ĠNY T
to ff
Ġaccount s
Ġpod s
Ġcaus es
Ġcyc les
Ġlas ers
Ġdeg ree
Ġdig ging
Ġincent ive
Bet a
Ġrev olution
ĠWor king
Ġbot tom
Ġpush ed
Ġprom ising
Ġpresent ation
Ġsepar ation
Ġnecess arily
ĠEng ine
yr am
Ġastron om
Ġge o
Ġdock ing
for ce
ĠEn hanced
Ġspeak er
Ġenvironment al
Ġpropul s
Ġpropul sion
Ġparticul arly
Ġbegin ning
Ġreco gn
Ġphys ical
anden berg
Ġjack et
bv iously
ĠMa jor
Ġintern ally
Ġexpon ential
Ġrobotax i
Eng ine
Ġfict ion
ĠThurs day
Ġquick ly
Ġpurch ase
Ġwer ent
Ġreact or
Ġdemon str
Ġrecover ed
Ġprote ction
izont al
Ġrepres ent
ĠRequ ires
Ġlabel ing
ĠPac ific
Ah em
Ġsuc ceed
Ġirre le
Ġhydraul ic
rding er
1 150
1 120
1 140
1 160
6 50
8 50
8 90
9 50
9 80
; &
A stron
B usted
D one
G etting
I ron
L ater
M A
M ass
N u
O pen
P C
P al
R ed
T ot
a king
a ign
c ar
c ies
d iesel
f all
f ather
g ed
g ering
h igh
h ard
i ation
i bit
k in
l us
o ys
r or
r ust
t oty
t ronic
u ations
u gg
v ior
Ġ ie
Ġt ire
Ġt able
Ġt ree
on av
Ġs le
Ġs ick
Ġs ix
Ġth ick
Ġth ird
Ġw ire
Ġw ider
or se
Ġb al
Ġb reat
Ġb iz
Ġb ull
Ġb log
Ġc op
Ġc ru
is on
Ġf ac
Ġf ood
Ġf acing
en ger
Ġm s
Ġm as
Ġo h
," .
Ġd in
Ġd ense
Ġl ed
Ġl ane
Ġl mk
mp h
ro x
Ġin con
al s
Ġn ar
ic a
ic ians
ly ing
Ġg un
Ġg iving
ig s
ut ions
Ġre nt
ot a
ĠT imes
ĠT wo
Ġe ye
ill a
ĠS F
el ess
all out
10 50
10 90
10 80
im b
im ler
im ov
Ġst uck
th anks
15 50
15 90
15 80
12 50
12 90
12 80
ĠM c
ĠM un
ĠM egap
14 90
14 80
13 00
13 50
13 90
13 80
Ġwe ap
Ġpro of
il er
Th en
Th ought
Ġr um
Ġr andom
ĠA lt
ĠA ng
ĠA dding
ĠA pollo
est ed
16 50
if ying
Ġmo ved
Ġmo ves
Ġco ating
Ġco inc
ĠC ritical
Ġtr ains
Ġv id
ĠW ater
ĠW orth
ĠW SJ
Ġex ists
Ġse x
Ġwor ry
um ans
ĠF TW
ĠB ar
ĠB oth
ĠB lock
Ġal ign
ra v
ra ge
Ġsu it
11 90
11 80
ĠD C
ĠD on
ĠE nd
ĠE lectric
Ġch art
ĠR ock
us ed
ĠSt an
Ġgo ld
Ġk Wh
ire ct
Ġfe e
Ġhe ats
Ġpre fer
Ġpre burn
Ġad vice
Ġshould nt
Ġbu mp
Ġbu gs
ĠO TA
Ġsa fer
ĠV an
ĠJ upiter
Ġsp o
Ġsp oke
arg lass
ric ks
Ġacc ur
St range
Wh ich
Wh ile
55 1
55 2
55 3
55 4
55 5
55 6
55 7
66 1
66 2
66 3
66 4
66 5
66 6
66 7
we ll
Ġaut opilot
ress ing
Ġwhen ever
"" .
Ġinter se
Ġunder ground
56 1
56 2
56 3
56 4
56 5
56 7
Ġpu ck
ri er
Ġexp ress
Ġext ending
ĠNe vada
Ġpar allel
.. ."
ĠIn s
ĠIn st
Ġhel ium
Pro b
Ġsuper all
Ġend orse
Ġgr and
ĠWh ere
Ġcle arly
Ġjo kes
Ne ver
Ġ- &
less ly
Ġsur faces
Ġfair ly
Ġtal ked
erm al
Ġcomput ing
Ġz one
ĠYou re
wh ich
Ġfla me
ĠY our
Ġpass enger
Re g
Ġdec ision
Ġdec ades
gg ing
Ġrem aining
Ġorder ed
Ġstop s
Ġreach ed
Ġfund ing
Do jo
Ġatt ention
Ġexper ien
Ġbuy ers
ĠNew s
Ġdro pping
Ġreason able
ĠSo ftware
Ġstre am
stand ing
ĠZ ero
Ġhand ling
Ġview s
Ġdeal ers
Ġtwe eting
Ġdist ract
Ġanal y
Ġload s
Ġabs olutely
Ġevent s
Ġprogram s
Ġcore s
How ever
Ġemp has
po int
ĠAl pha
Ġnegative ly
Imp ressive
Ġredu ced
ĠMore over
Ġoffer ing
Ġult imately
ĠGo ing
rib ed
ik i
Ġass uming
Ġem ission
Ġconnect ed
Ġcaus ing
Ġess entially
Ġprof it
Ġmaxim ize
ĠImp ortant
bo x
Ġerr ors
Ġhor se
Ġlearn ed
Ġperm an
Any one
Ġpat ents
ĠRuss ia
Ġmechan ical
ĠEvery thing
Ġbreak through
Ġfinan cing
Exc iting
ios is
rs ly
Ġtit anium
ĠFound ation
Ġsuck s
Ġsurv ival
Ġforg ot
ĠPar ad
ĠDa imler
Ġdeser ves
Ġbeha vior
Ġcol ors
Ġattach ed
Ġconvin ced
Ġfoot age
Ġcamp aign
Ġdoub t
Ġinert ia
Ġstartup s
Ġemploy ees
Ġemoj i
ĠSol arglass
Ġbutt ons
Ġesth et
Ġcharac ter
Ġine vit
ĠFe b
ĠFla methrower
ĠDel ta
Ġpatient s
Ġsty le
ĠPres ident
Ġperi od
Ġartific ial
ockh eed
Ġposit ives
HT SA
Ġnons ense
ĠMed tronic
! )
8 98
B uild
B attery
C ons
D A
D on
D esign
D amn
F ate
F ound
F ix
H D
H is
I C
L ast
L ets
L ife
M ust
M oon
M oving
R o
R uss
R oughly
S c
S un
S ign
T om
T witter
T wo
a u
a ur
b or
b ar
b ed
c er
e v
h ouse
h uman
j oy
k g
l ate
l ud
l antic
m i
m in
m ore
m ber
m ark
m ins
n age
p lan
r ong
t age
Ġ ?
Ġ [
Ġ Yeah
Ġt reat
Ġt rees
Ġa ster
on a
Ġs ed
Ġs orry
re te
Ġth reat
Ġw ast
Ġw ave
Ġw arning
es ides
or bital
Ġb ur
at r
Ġc opper
Ġc ook
Ġf ill
Ġf ace
ou g
ou l
it ially
en n
Ġm ere
ar re
an os
Ġp ull
Ġp ics
Ġp acks
Ġp yram
Ġto x
Ġd iver
Ġh al
Ġh ence
Ġh ole
Ġl ol
st ream
Ġin ject
ion ics
Ġbe ll
Ġbe ar
Ġbe ast
Ġbe ats
ve y
Ġg ain
ac c
Ġre w
Ġre verse
ĠT V
ĠT X
Ġe yes
ĠS w
ĠS ec
ĠS ince
Ġy oke
all ow
ad ian
10 98
im ation
Ġst orm
ith m
15 98
12 98
ĠM akes
14 98
13 98
se c
am ine
ir it
Ġpro s
Ġpro port
Th ree
Ġr n
Ġr ing
Ġr ates
Ġr ule
ĠA GI
op ter
ur ally
Ġco al
ĠC A
ĠC ongr
Ġen em
Ġsh ape
Ġsh aft
Ġas cent
ul ate
ul ated
Ġv ib
ĠW ar
ĠW ish
ĠW atch
Ġse mi
ip s
ĠF P
ĠF air
ea ut
Ġj et
Ġal pha
Ġal gor
ra pped
ss entially
Ġall oy
ĠH as
ĠH ad
11 98
Ġli e
Ġli ving
lo se
Ġwas n
ĠD M
ĠD an
ĠD esign
ĠD etail
ĠE xtremely
Ġch oo
qu iv
ĠR ight
ĠR ead
Ġpo ss
ain t
Ġme mb
us k
Ġup coming
Ġk eros
ĠG u
ĠG ot
ĠG oogle
Ġfe ar
ry s
Ġlo b
Ġlo ves
Ġgood ness
Ġar m
Ġpl at
Ġus able
Ġun us
Ġun able
ĠU I
ĠU LA
Ġla ugh
We ve
Ġsome how
Ġsa ves
ĠV andenberg
Ġpr icing
Ġinc ome
ĠJ am
Ex cellent
Ġint ention
Ġcont act
Ġsp ot
Ġ% ."
Ġsol ves
ric t
Ġacc umul
Wh ats
Ġres c
Ġres idual
Ġser ver
Ġinter face
Ġinter planetary
os ed
Ġrec all
Ġrec ycling
ord s
Ġpart ially
Ġexp anding
Ġreg arding
65 1
65 2
65 3
65 4
65 7
ag gering
Ġcons idering
Ġfar m
Ġdis play
Not e
Ġbec omes
ex actly
Ġtrans p
ĠWh ats
Ġconf usion
Ġincre ased
Ġent er
Ġval u
Ġfire d
mon th
ĠDo jo
gen cy
Ġcent ral
Ġcent ury
Ġcl oud
Ġtax pay
Ġcontrol s
Ġboth er
Ġshow ing
Ġlimit s
Ġid iot
Ġdep art
Ġind ependent
Ġbr ief
Ġvis iting
Ġperson al
Ġvol tage
Ġunt r
Ġdec ide
Ġdec lin
An cient
Ġmult i
Ġplay ed
Ġrisk y
They re
Ġmultip lanet
sp irationally
Ġstre ets
Ġclos ing
Ġinvest or
Ġmach ines
ob v
Ġreturn ed
Ġrob ust
Ġdist rib
Ġste am
ĠSolar City
Or der
ĠAt lantic
Ġmanufact ur
Ġwin ter
Ġwin ning
Ġsens ors
Ġfollow ing
Ġinf o
ĠDe ep
Ġfundament ally
Ġtot ally
Ġred und
Ġeconom ic
log ical
par ing
Ġsent ient
Ġbeg ins
Ġord ering
Ġfactor ies
ĠStar hopper
Ġwish es
ĠAs ia
Ġsuggest s
ĠMost ly
Ġcatch ing
ĠGo al
rupt ion
Ġturb ine
Ġstate ment
Ġinclud es
Ġsour ces
Ġatmosph eric
Ġpod cast
Ġrepair s
Ġcaus ed
pon ed
ĠAr t
Ġenab les
Ġenab ling
Ġdam n
Bet ter
ĠPh D
Ġblow s
Ġcur ve
Ġhor izontal
Ġep is
Ġvast ly
yn am
arent s
Ġreport ing
Ġcast ing
Ġmeth ods
Ġbankrupt cy
Ġthous and
Ġboost ers
af ety
Ġap ocal
ĠOther wise
oup le
Ġreli able
Ġapply ing
Exc ited
Ġfool ish
Ġrid icul
Ġtrad itional
Ġkid ding
Ġcrew ed
yp se
Ġreco very
Ġconcern s
ĠSat urn
ĠSept ember
Ġdoll ar
Ġpolit ical
Ġpedestri an
Ġpedestri ans
Ġune quiv
Ġabsurd ly
Ġsharehold er
Qu il
Ġiter ation
Ġmil est
Ġhous es
ĠRep orts
Ġsimultane ously
Ġobs er
Ġresist ance
Ġstopp ed
Ġevol ving
Ġconvers ation
Ġresp ons
Ġda ily
raph y
ĠGerm any
Ġexplo sion
Ġtwea ks
Ġesc ape
Ġbenef it
Ġamp l
ĠSch rdinger
Ġsymb iosis
Ġpupp et
Ġpropuls ive
toty pes
Ġbal ance
Ġbull et
ĠStan ford
Ġemphas ize
Ġinevit able
Ġkeros ene
$ $
% ,
A r
A dd
B ooster
D ef
E lectric
F i
F un
F rom
F light
F inal
G en
G as
H ad
H old
I nt
L o
L ive
L atest
M in
P ay
R O
R ep
S u
S ometimes
T e
T unn
T ube
V ide
V AC
W al
a wn
a fter
b an
b ra
d r
d en
d ays
e er
f l
f ric
g us
h r
h our
h opefully
h ield
i us
l ist
l ich
m are
o la
o ids
p art
r ant
s i
s pace
s atell
t les
t opia
u itive
v anced
y ou
Ġt ast
Ġt ile
in ux
on ored
Ġs igh
re st
Ġth in
Ġth row
Ġth inks
Ġw ing
Ġw if
Ġb oun
Ġb ots
at ory
Ġc m
Ġc it
Ġc am
Ġc ab
Ġc and
Ġc our
Ġc orre
Ġc urrency
ing le
Ġf ive
Ġf irmware
Ġf ederal
en cies
Ġm or
Ġm en
Ġm ent
Ġm ort
an a
an o
an z
an es
Ġp ers
Ġp ounds
Ġp ending
Ġto ast
ed ia
Ġd at
Ġd ial
Ġd ynam
Ġh op
Ġh ops
Ġthe ore
Ġl ame
Ġl bs
ro at
ro ck
st s
st ic
Ġin novation
al ty
Ġn om
ic le
le ment
as y
Ġg l
ig ating
ig inal
Ġre b
ot es
ot or
et ch
ĠT ot
ĠT ay
ĠT ra
ĠT urn
ĠT BC
Ġe ast
Ġe arth
Ġe gg
Ġfor ced
ĠS X
ĠS en
ĠS an
om o
ay er
ĠI M
la m
la unch
ad o
10 89
im izing
Ġst ri
15 89
12 89
ĠM ex
ĠM ob
14 89
13 89
Ġwe igh
am m
Ġpro ven
il i
ĠA fter
ĠA sh
ĠA MA
op h
ur ized
un g
un der
Ġmo ons
ĠC ol
ĠC ont
Ġen joy
Ġsh r
Ġsh op
Ġtr ial
Ġtr action
Ġor gan
ant um
ĠTh ail
Ġse es
Ġse lect
Ġse arch
um es
Ġma ster
ĠF l
ĠF ate
ĠF eels
Ġde vice
ĠB anks
ĠB aby
ĠB rit
ine craft
ra vit
ĠH el
ĠH VAC
11 89
Ġli kes
ĠN ice
ĠN HTSA
ĠP lan
ĠD ef
ĠD iff
ĠD oug
ĠE s
ĠE AP
Ġch o
Ġch ea
ĠR ad
Ġpo or
Ġk W
ĠG ear
ĠG etting
ĠG eor
ĠL Z
ĠL et
ĠL ess
ĠL ife
ol ies
Ġwould ve
Ġhe ld
Ġhas nt
Ġprodu ces
Ġpl aced
Ġun re
Ġun ique
ĠU lt
light s
ind s
Ġact iv
Ġthere fore
Ġpr act
Ġthey d
Ex p
Ġlaunch ed
Ġint ro
Ġint ended
Ġsp ending
Ġsol utions
Ġam ong
ens ing
ress ed
"" ,
oc urrency
Ġrec ently
Ġmin i
ne um
ish ing
up head
row ser
ri be
Ġreg ard
ĠEarth s
use um
Ġlif toff
Ġpar am
Ġsc r
Ġsc en
ĠIn f
ag ing
ag ic
Ġsaf est
Ġsaf ely
Ġspace flight
Ġtw ist
Ġsuper human
Ġadd itional
Ġmis s
Ġmis sing
Ġmis sed
Ġoff ice
Ġgen e
Ġph ased
Ġins pe
Ġbec ame
vent ions
Ġpay wall
Ġthrough out
Ġdiffer ential
Ġjo ined
Ġcount y
Ne uralink
Ġref ine
ĠCo ast
Ġav ionics
erm i
Ġregul ar
Ġregul ations
Ġinv asive
Ġdep ends
Ġmed ical
Ġroll ed
Ġbr an
Ġvis ible
Ġbo gus
Pre cis
Re view
Re ason
Ġinst ant
Ġrem ark
Ġsub st
An n
ertain ly
und ament
Ġcompet ing
ĠLA X
Ġmove ment
Ġpost poned
Ġnight mare
Ġcomb ine
Ġfund s
Ġturn ing
Ġbra kes
Ġcre ation
Ġdon ate
Ġexper iment
ĠSo C
Ġcomm and
Ġcontin ues
Ġcoll ision
Ġexc ited
He y
urb o
Ġtruck s
Ġwide ly
ĠOn ion
Ġleg is
ub lic
Or bital
Ġinit i
Ġarr ives
Ġarr ived
Ġsens or
Ġsens itive
Ġunderstand s
ĠIntern ational
Ġinstall ation
Ġra ised
ĠFr ank
Ġed ge
Ġrel ative
Ch ina
Ġbre aks
ĠEx c
Ġconfig ur
Ġconfig uration
Ġstrong ly
Ġexcept ional
Ġdeploy ment
Ġgrow ing
Ġshe ep
methrow ers
Ġinterest s
Ġwatch ing
Ġwatch ed
Ġcor porate
Ġem ail
Ġur ban
Ġstor ies
Ġdemo cracy
Ġpol ar
Ġventil ator
Ġprof ound
Ġsit uations
Ġrender ing
Ġele ments
ah n
ah em
Ġarg ument
Ġcur ious
ĠTr ue
Ġperm ission
Ġwindow s
Ġcryo gen
Ġbill ions
Ġprocess ing
Ġphot o
Ġmoder n
ĠEng lish
Ġdiscuss ion
ĠAny thing
Ġpick up
Ġfinan cial
Ġcontinu ous
Every one
Ġocc up
Ġretro fit
ball s
oly topia
tr ue
Ġtrad em
Ġsyn th
Up gr
Ġexpla in
Fr ank
Ġpe ace
Ġhospital s
Ġeg gs
anden burg
Ġchip s
Ġunc ertain
Star hopper
Ġconstra ints
ĠMot or
ĠMot ors
Ġdoll ars
umul ative
Ġsharehold ers
Pl ay
Ġsqu are
Ġclic ks
ĠWed nes
Ġsequ ence
Ġnu clear
Ġflu id
ĠCons umer
Ġparach utes
Ġentertain ing
Ġsat is
itud es
ste in
ĠMont y
Ġjunk yard
Ġchild ren
Ġamb ient
Ġpowert rain
Ġelev ator
ĠSil icon
Ġsever e
Ġche ese
Head ed
loo king
Ġmaneu ver
Ġgar age
Ġconte xt
Ġirrele vant
Ġnar row
Thought ful
Ġheats hield
Ġemission s
Ġesthet ics
Ġproport ion
Ġmemb ers
Ġvalu able
Ġuntr ue
Ġdistrib ution
Ġmilest one
Tunn els
fric a
ĠMex ico
ĠThail and
ravit as
Precis ely
ĠWednes day
, %
, (
; $
A d
A wesome
A dding
A spirationally
B itcoin
B eaut
C om
C ont
C orrect
C alifornia
D C
D ue
E D
E R
E xtremely
F O
F eels
G re
G ary
H ere
K ids
K inda
M s
M er
M ach
M erlin
M otor
N ope
O ther
O dd
P V
P ossibly
S at
S ad
S pe
S cience
T op
U nder
W r
W elcome
a ire
a ff
b et
e ction
e ff
f ar
g i
g et
g raphy
h ammer
l ines
m ous
n or
n as
o h
r ated
s our
s pect
s ub
t est
v ance
y i
z er
Ġ )
Ġt ar
Ġt une
Ġt eles
in n
in ction
er g
er v
Ġs en
Ġs ites
Ġs ending
Ġs weet
re ts
re asing
Ġw ed
Ġw om
Ġw ings
Ġw iki
es is
or bit
Ġb ab
Ġb its
Ġb ounce
Ġb esides
Ġb rowser
at ers
at able
Ġc ow
Ġc ult
Ġc ert
Ġc yber
is dom
ing uish
Ġf ru
Ġf ish
it ting
it rogen
Ġm it
Ġm ar
Ġm el
ar ry
Ġp ill
Ġp la
Ġp ilot
Ġp ix
Ġp atch
Ġp aper
Ġp arents
Ġp neum
Ġto ile
," ""
Ġd om
Ġd ive
Ġd ign
Ġd ream
Ġd ivers
Ġd amping
Ġh ull
ro wn
al t
al act
Ġn uts
Ġn itrogen
ic ed
ic ine
ic ious
le e
le ction
le asing
Ġbe er
Ġg ather
Ġg aming
Ġg rey
ig ger
ut ur
et t
et ers
ĠT O
ĠT akes
Ġfor cing
ĠS ub
ĠS peed
ent y
ent ral
id en
id den
Ġu nd
Ġy a
ĠI I
ĠI nt
la med
ad re
oo h
oo o
im ated
Ġst amp
Ġst able
Ġst ress
Ġst aggering
th ere
ĠM et
ĠM ain
ĠM oth
ĠM oon
il s
Ġr ig
ĠA P
ĠA ss
ĠA ri
ĠA frica
Ġco ff
Ġha z
ĠC ity
ĠC ost
Ġen orm
Ġsh all
ure Vac
ure au
Ġtr i
Ġtr ash
ul se
ul ating
Ġv ict
ĠW on
ĠW est
ge e
Ġdo om
Ġdo zen
Ġnot es
ĠTh ank
Ġex chang
Ġse ason
Ġwor ried
um ber
ĠF H
ĠF orm
ĠF uture
ĠF ermi
ĠB uff
ĠB ecause
ĠB TC
Ġal tern
ess entially
ĠH is
ĠH am
ĠH ell
ĠH uman
Ġli ked
ĠN ight
ĠN av
ĠP ors
ĠP adre
ĠE ffect
ĠE PA
Ġch em
Ġch ann
ĠR D
ĠR om
Ġcomp la
Ġcomp elling
us ing
Ġk illing
Ġte xt
ĠG iven
ĠL EO
ĠL udicrous
ĠL inux
ĠL arry
Ġwould n
Ġlo gs
Ġlo sing
Ġgood s
Ġpl ot
Ġpl ays
ass is
25 00
Ġad m
Ġun f
Ġun s
Ġun fortunately
Ġapp oint
Ġapp lications
ĠU K
ĠU N
Ġsome ones
Ġsa il
ĠV al
ĠThe ir
ther n
ud i
ors es
ep ing
Ġint ent
Ġag reed
own er
vel ope
ric k
eth eless
Ġper form
St arting
Ġres on
Ġres ol
ress urized
Ġinter ventions
Ġspe ech
oc o
ang u
ang ing
os es
Ġpoint y
Ġrec irc
Ġmin ing
Ġknow ledge
Ġsm ash
Ġpart ies
Ġpart ners
low ing
Ġexp l
Ġexp os
Ġext ension
ĠNe ver
Ġfact ors
ĠIn ter
ĠIn stru
In c
In st
ag on
Ġair port
Ġfin ally
Ġhum or
ph ob
Ġim ages
Ġfast est
Ġrep orts
Ġafter no
Ġcons umer
85 1
85 2
85 3
85 4
85 7
95 1
95 2
95 3
95 4
95 7
Ġdis p
ĠCh eck
ĠCh rys
96 1
96 2
96 3
96 4
96 7
86 1
86 2
86 3
86 4
86 7
ost ing
Ġthough ts
Ġgr ade
Ġgr oup
Ġdef e
Ġdel ays
Ġlea ving
Ġcall ing
Ġrequire ment
Ġsign ed
Ġsign ature
eel ing
Ġgener ation
Ġjo y
Ġtra ject
Ġlater al
Ġadv is
Ġadv oc
Ġpublic ations
52 1
64 1
54 1
62 1
92 1
82 1
84 1
94 1
Ġid ent
ĠYou Tube
Ġman ip
Ġoper ations
Ġdep th
Ġbas is
Ġsimp ler
Ġmed icine
Ġopen ly
Ġroll er
Ġamazing ly
Ġbr ought
Ġbr anding
wh ile
Ġfr ames
ĠRe c
Ġfla p
ĠCan adian
Ġautom ak
oll y
Ġpass es
Ġpass ing
Ġpass ive
Ġpass word
Re ality
cess ary
Ġinst r
Ġrem inder
ness es
Ġread ers
Ġcompet e
Ġpost ing
Ġbl ue
Ġatt acking
Ġpack et
Ġdifficult y
Ġhot el
Ġexpect ing
ĠRo b
Ġgeneral ized
Ġsecond ary
Ġbar rel
Ġlat itudes
Ġcover ed
Ġconst it
Ġcontin ent
arm ing
Ġexc lus
ob ahn
Ġslow ly
ony mous
Act ual
Ġkeep ing
Ġload ed
Ġabs olut
Ġtravel ing
Or iginal
Ġdetail ed
Ġbro ke
Ġstandard s
Ġrele asing
Ġrele vant
Ġinf lu
po logies
cient ists
Ġed it
Ġfocus ing
Ġred esign
Ġrel ent
Ġequ al
Ġeconom ies
Ġfound ation
pl us
Ġmess age
Ġmov ies
ĠAs imov
Ġstrong er
Ġachie ves
Ġsuggest ed
Ġsus pect
Ġoffer ed
Ġult imate
ugh ty
Ġturb ines
ĠHigh ly
Ġimpact s
Ġnozz les
Ph one
Ġanswer ed
Fair ing
Ġconnect ivity
Launch ing
Ġlead ers
Ġsurpr ise
pro of
Ġsched uled
Ġdig ital
Ġhon ored
Ġminim izes
ĠImp act
Ġprototy pes
Bet ween
Over all
ĠWor ld
ĠPh il
Ġhydro phob
Ġign ore
Ġcharg er
Ġcontract ors
Ġnav igation
Ġphot on
arent ly
Ġattack ed
Ġill ust
ren ch
Ġflo ating
Ġmist akes
Ġmeth ane
Ġmeas ured
App rox
Ġfi at
ĠBl ack
Ġop ens
Ġstation ary
Every thing
ĠSer vice
Ġvir al
Ġconfirm ation
Ġretro spect
Ġsil icon
Ġphys ically
Ġdeser ve
Ġinsp ired
Ġapprox imation
Ġsurprising ly
Ġbi kes
Ġenc ounter
Ġjam ming
Ġexpon entially
Ġrobotax is
stru cture
ĠMart ian
rap hic
ĠDr ive
ĠEl ise
ĠLo ved
Ġscal ing
Ġsimpl ify
Ġdesc ribe
Ġimag ine
Ġbio graphy
Ġheav ier
Ġinh ibit
Ġinvent ed
ĠRed dit
ĠPay Pal
ĠGod ot
rypt on
Ġmeaning ful
Ġcommunic ation
met ry
Ġluck y
Ġrenew ables
ocr acy
Ġdiscover ed
Ġpurp ose
Power wall
cur ve
Ġcaut ious
Ġrepe ated
Ġstabil ize
ĠAb out
ĠEast ern
Bl ack
Put ting
Sm all
Ġgig antic
Ġstat istics
ĠCount y
Ġtriv ial
Ġcond ition
Ġastronom y
Tot ally
Ġbiz arre
Ġrum or
Ġcoinc idence
Ġpreburn er
Ġaccur acy
Ġsuperall oy
ĠParad ox
Fix ing
Ġhal ves
Ġlob by
Ġplat form
Ġepis ode
Ġapocal ypse
Ġridicul ous
Vide o
Ġwif i
Ġcit iz
Ġmort ality
Ġdial og
Ġtheore tical
ĠDiff icult
undament al
Ġcryogen ic
Ġsynth etic
Beaut iful
Spe cial
Ġteles c
Ġdign ity
Ġenorm ous
ĠPors che
ĠInstru ctions
ĠChrys ler
Ġtraject ory
Ġhydrophob ic
* ,
, [
2 000
5 000
A pologies
B u
B asically
C le
C lose
E d
E nd
F e
G ot
G erm
G lass
I S
I de
L I
L i
L ots
L ockheed
M k
M em
M ake
M erry
N Y
N ight
O G
O X
O ut
O bviously
P rom
P ass
P laid
R ight
R oc
S T
S w
S ide
S hip
S ystem
T H
T V
T on
T oo
T od
T ouch
U K
U s
U sing
V iew
W ed
W ay
W ont
W atch
Y ay
Y ep
a it
b d
b re
b ing
b acks
b ook
b lowing
c ap
c gi
d y
d ia
e en
f ire
f leet
f inder
g on
g as
g iving
h es
h ere
h ood
h ost
i as
i ate
i Fi
l on
l ot
l ative
m ap
n el
n etic
o e
o es
o ff
p ing
p ts
p ass
r ay
r ich
s w
s ight
s ame
s ounds
t oo
t ling
u h
u ct
u ilt
w as
w ood
w yn
w att
y eah
Ġt end
in ery
Ġa ka
er a
er c
on est
on ge
Ġs oul
Ġs lam
re ad
Ġw ip
Ġw ood
Ġw arn
Ġw isdom
es pecially
or ies
or ical
or row
Ġb le
Ġb are
Ġb day
Ġb rag
Ġb ureau
at ri
Ġc ig
Ġc ard
Ġc ous
ing ly
Ġf u
Ġf ather
Ġf tw
Ġf elt
Ġf utur
ou rage
it ers
Ġm m
Ġm ad
Ġm and
Ġm oth
Ġm ature
Ġm useum
ll ow
ar ad
ar io
ar ian
an ese
an cing
Ġp eop
Ġp si
ed en
ed ge
Ġd ow
Ġd are
Ġd ash
Ġd omes
Ġh ab
Ġh ide
Ġh oping
Ġh rs
Ġh orses
Ġl ack
Ġl oud
Ġl anes
Ġl angu
ro ve
st ers
Ġin duction
Ġin ches
al d
al most
ic ip
le y
as ion
Ġbe gging
ve al
Ġg ent
ig ible
Ġre in
et e
et ry
ĠT al
ĠT ong
ĠT ile
Ġe ve
ill s
ill iant
ĠS im
ĠS ound
ĠS uch
ĠS upport
ct ors
id ing
Ġu h
Ġu m
Ġy ield
Ġy aw
el ming
ĠI R
la de
all ed
ad ow
Ġso le
Ġso ck
Ġit em
im us
ter ed
Ġst ead
Ġst ored
Ġst iff
Ġst aged
ĠM T
ĠM W
ĠM s
ĠM ount
ĠM ult
ĠM ark
ĠM inecraft
se qu
Ġwe alth
Ġne ut
Ġne ur
Ġne ither
am b
am ination
Ġpro ve
Ġpro per
il os
ĠA lamed
op ulation
un t
un ion
if ies
Ġyou ng
Ġco bal
ce ll
ce pts
ĠC om
ĠC ourse
ĠC ureVac
Ġen velope
Ġsh ear
Ġsh ots
Ġtr im
Ġtr ail
Ġor gs
Ġas y
ul pt
ul ner
Ġv ulner
ĠW ant
ĠW ik
ĠW iFi
Ġnot ing
Ġnot able
ĠTh ree
ĠTh eres
nt own
Ġma ker
ip edia
ĠF rom
ĠF ree
Ġcon ne
Ġcon cept
Ġde vices
act ually
ĠB ack
ĠB ob
ĠB uild
ace book
ra ud
ra structure
od es
ess ion
Ġall oys
ĠH Q
ĠH ar
ĠH ear
ĠH umans
ĠH onored
ĠN or
ĠP R
ĠP ot
ĠP ol
ĠP alo
ĠP olytopia
lo l
lo bal
lo sed
lo ki
ĠD ad
ĠD rag
ĠD amn
ĠE ber
Ġch amp
imp ortant
ĠR ow
ĠR WD
ĠR IP
ĠR NA
ĠR HD
ain ts
Ġcomp l
Ġcomp ar
Ġcomp lic
ap ers
ap ole
are n
us able
Ġup side
ĠSt r
Ġk ick
Ġte ars
Ġimp ression
ĠG over
Ġtim el
ĠL ast
ĠL imit
ĠL ots
ĠL aw
ĠL mk
Ġhigh ways
Ġjust ice
Ġpre ference
Ġout ages
Ġout fit
Ġhas h
iz z
iz ations
75 00
Ġar riving
con nect
Ġad ults
Ġun a
Ġun w
Ġapp lies
ĠU nder
ĠU FO
ĠO x
ĠO per
ĠO pt
ĠO pen
Ġwork ers
ind ing
Ġact ivity
Ġour selves
Ġthere after
Ġsa v
Ġsa ved
Ġpr inter
int elligence
int uitive
Ġdes cent
ĠJ on
ĠJ eff
ep s
Ġyour s
Ġcont ing
Ġqu antum
Ġmonth ly
ool ing
Ġper cent
ult ure
St orm
Ġkn ew
Ġres ume
Ġaut onav
ĠWe ve
lect ed
Ġloo se
most ly
oc ally
ang ers
Ġback pack
Ġunder rated
Ġmin us
ne ar
ne xt
Ġsm arter
Ġpart ly
ri or
ri an
Ġreg en
Ġreg ional
Ġlit eral
Tr ans
Ġcr ane
Ġcr ushing
Ġlif ting
Ġbuild s
Ġbuild ings
Ġfact s
Ġpar ked
Ġsc ulpt
red it
In itially
ag o
Ġair plan
Pro gress
Pro totypes
Ġtw eak
Ġdown ward
ĠIt al
ĠAut obahn
Ġend ing
no logy
Ġoff set
Ġph ase
ĠCh anos
arl inks
Ġdef ault
Ġtrans mit
az illa
Ġlea ked
Ġcall s
Ġthrough put
Ġincre ment
Ġrequire ments
Ġshort ages
ĠSh ow
ak en
Ne ed
Ġret ire
ĠK ore
Ġref ers
Ġref uel
ĠDo ing
ffect ive
ash down
Ġwhere ver
Ġsk ins
Ġsk etch
Ġinv esting
Ġinv ited
Ġmet er
Ġmet ap
ĠPro blem
Ġplan es
wh elming
ĠRe al
Ġlook ed
Ġbo ss
Ġbo ats
Ġautom atic
ĠY ear
Re al
cess ion
Ġris ing
Ġsub way
Ġsub optim
Ġclose ly
Ġowners hip
Ġtemp ting
ĠQ u
ĠQ ue
Ġreach es
Ġhome owner
Ġbl ood
Ġhead ed
Ġac id
Ġac qu
Ġfl ip
ĠSpace balls
Ġbuy er
Ġsustain ed
Ġreview s
Ġhold ers
Ġdro ve
Ġrest aur
Ġcover s
Ġprior it
ĠUn like
Ġdeep ly
arm an
ĠSe cond
Ġdeal er
zz le
Ġslow ed
ech azilla
Ġste er
Ġsal t
arch ing
Ġfail s
Ġjour no
Ġpres um
Ġhumanity s
Ġmanufact ure
Ġmark ets
Ġsn ail
Ġarr ive
Ġarr ays
Ġtough est
Ġinf rastructure
ĠDe us
Ġsw ift
Ġdeb ris
Se veral
Ch ecking
Ġfound ry
Ġfound ational
Super charg
pl ace
Ġglo ve
Ġfo g
Ġmer kin
Ġachie vable
Ġorig inally
ĠOr bital
Ġspaces uit
Ġavoid ance
ik ola
Ġshe er
Ġass ess
Ġbeaut y
Ġtell s
Ġtell ing
Ġaccount ing
Ġcor ona
Ġlog ic
Ġconc rete
Ġpol ice
Ġide al
Ġsurpr ised
De ath
pro duction
Ġmom ents
Ġpump s
Ġobject ive
Ġbring ing
Aut o
Ġdam aged
Ġpath finder
Ġstep s
Ġimmedi ate
Ġign ite
Ġwar rant
ĠTr ans
Ġlearn ing
Ġodd s
Ġcommun ity
Ġjournal ism
Ġmechan ics
Ġmeth od
Ġplant s
ĠJo e
Ġmoment um
Ġmaterial s
ĠNN s
Ġdram a
Ġremo ve
Ġremo ved
Ġremo val
ods peed
Ġprevent ed
Ġocc ur
ĠSer ies
Ġapproach ing
Acc ording
Ġsyn c
Ġsyn ch
Ġsil ver
Ġswit ched
Ġrot or
Ġrot ation
Ġexpla ined
Ġsignal s
++ ,
Try ing
Ġcirc le
Ġcirc um
Ġearn ings
Ġjud ge
ĠPar is
Does nt
Ġconstra int
Ġvariant s
Ġtour s
Ġrail s
Ġenc ourage
Ġturbopump s
Ġpolit icians
Ġfrequ ency
Ġprincip les
Ġtool s
ĠMart in
Ġproject s
duct ive
Ġaccept able
vest igating
Ġaud io
Ġwall s
rop y
Ġshut down
Ġconver ted
Ġvacc ine
Ġvacc ines
Ġtroll s
Ġfat al
Ġfat ig
Ġhous ing
Ġheav ily
Ġinh er
sell er
Ġcontrib ution
Ġparach ute
ledge hammer
Ġvirus es
Be en
Sim ilar
yd rogen
Ġscient ists
Ġbla de
Ġrenew able
Ġemer ald
Ġexec ution
Ġdele te
ĠSte ven
Ġprint ing
Ġdestroy ed
Ġopportun ity
Ġopportun ities
optim ized
Gu ess
Ġtun ed
Ġapo gee
Ġpen alty
Ġdraw ing
ĠIP O
ĠIron y
Ġconven ient
Ġconven ience
Ġnat ural
ĠSign al
Ġcompens ation
Ġcommit ted
Astron auts
Ġweap ons
ĠAlt o
ĠRock ets
Ġspo ken
Reg arding
Ġdistract ed
Ġanaly sts
Build ing
Ġbur st
Ġtox ic
ĠTV C
Ġenem y
Ġalgor ithm
Ġposs ibility
Ġresc ue
Ġpodcast s
Ġunequiv ocally
Ġrespons ible
Ġcand id
Ġmen u
Ġdat ab
Ġnom inal
ĠTot al
ĠTay can
ili ar
Ġtrial s
ĠGeor ge
Ġunre ason
Ġscr atch
Ġbran ch
Ġoccup ant
Ġtradem ark
Gre gor
Ġfru it
ĠTO PS
ooh oo
Ġcoff ee
ĠBuff ett
Ġchann els
Ġexpos ure
Ġafterno on
olly wood
Ġinstr ument
Ġillust rate
Roc oco
Ġfutur istic
arad ay
Ġpeop les
Ġdow ntown
ĠTong a
Ġstead ily
ilos oph
ĠAlamed a
Ġcobal t
ĠWik ipedia
apole on
ĠOpen AI
Ġairplan es
Ġsuboptim al
Ġwarrant y
% )
A T
A c
A v
A ir
B ought
B ased
B ring
B iden
C H
C U
C l
C o
C ome
C ost
C omes
C enter
C reating
C ertainly
D is
D etail
D irect
E A
E nt
E uro
E ssentially
F la
F red
F ear
F allout
F undamental
G wyn
H S
H omes
H uman
J ay
L et
L ist
L uck
M W
M on
M ed
M un
M ade
M iss
N N
O ld
O uter
P T
P ossible
R I
R en
R el
R ad
R est
R IP
S F
S W
S ch
S light
S ens
S ince
S upport
T E
T S
T rag
T ues
W anted
W oohoo
a ired
a ughty
b ons
b orne
c ase
c ont
c ord
c lass
c omb
c alled
e fficient
f la
f rom
f ound
f low
f ix
g in
g ood
g ment
g raphic
h m
h and
i la
i eter
k t
k ins
l ar
l ists
l ands
l ife
m y
m uch
m aybe
m atic
m ission
p a
p an
r ac
r ight
r ors
s u
s ize
s peed
t ra
u c
u j
u z
v ision
w thorne
z ero
Ġ ing
Ġ !"
Ġ eth
Ġt ent
Ġt ern
Ġt yp
Ġt reating
in j
Ġa we
Ġa ward
Ġa eros
er ly
er oth
on ly
Ġs ir
Ġs ale
Ġs outh
re j
re sh
Ġth ermal
Ġth roat
Ġw iring
es hip
or i
or ch
or porate
Ġb ac
Ġb unch
Ġb arg
Ġb ored
Ġb omb
Ġb order
Ġb ricks
at z
at ics
at urally
Ġc y
Ġc art
Ġc ord
Ġc up
Ġc oun
Ġc ake
Ġc ures
Ġc ards
is k
is es
Ġf ate
Ġf rag
Ġf ought
Ġf raud
ou red
ou ched
it i
it tle
it ute
en ance
Ġm i
Ġm al
Ġm ild
Ġm ug
Ġm elt
ar a
ar f
ar gh
ar ies
ar aoke
an oid
an na
Ġp le
Ġp ist
Ġp ays
Ġp ool
Ġp air
Ġp laid
," ...
Ġd er
Ġd im
Ġd ust
Ġd ice
Ġd ia
Ġd ise
Ġd irt
Ġd uration
Ġh i
Ġh od
Ġh ats
Ġh oly
Ġh idden
Ġthe ater
Ġl b
Ġl id
Ġl ets
Ġl udicrous
Ġl imb
ro l
ro st
ro om
ro id
st on
st ory
st ick
Ġin du
Ġin ner
Ġin acc
al op
al so
al ib
Ġn ut
Ġn ames
ic king
ic ting
le ts
as c
as er
as ic
as semb
Ġbe am
Ġg ard
Ġg end
Ġg irl
ut al
ac opter
Ġre ch
Ġre charg
ot ed
ot ic
ot ely
ot os
ot ainment
et ric
ĠT est
ĠT arget
ĠT urbo
." ""
ĠS S
ĠS n
ĠS ant
ĠS ounds
ĠS cience
ĠS entry
ĠS ystem
ĠS afety
om eter
om berg
ow ers
ct im
ent ation
id ays
el a
el oc
ch ange
ĠI S
ĠI rid
Ġso ph
Ġit ems
im arily
Ġst ability
Ġst acking
th is
ĠM ad
ĠM ade
ĠM echazilla
Ġwill ing
Ġwh ist
se ctions
Ġne uro
ir rel
ust in
Ġpro ving
Ġpro ceed
il isk
Th ird
Th rust
Ġr h
Ġr an
Ġr ated
ĠA F
ĠA cc
ĠA ster
ĠA wesome
ĠA dd
ĠA udi
ĠA TV
op es
op ark
op olies
un ar
if ting
ab it
Ġco aster
Ġco efficient
ce eds
ĠC t
ĠC ent
ĠC ars
ĠC ap
ĠC oming
ĠC orre
ĠC PU
ĠC reating
Ġen hanced
pp osite
Ġsh ed
Ġsh ops
Ġtr un
Ġtr ain
Ġtr igger
ul ator
Ġv at
Ġv ig
ĠW ars
ĠW ont
ĠW ild
ĠW aiting
Ġdo c
Ġdo gs
Ġex ha
Ġse am
Ġse ater
ĠF il
ĠF ocus
ĠF allout
ĠF DA
ĠF acebook
ĠF araday
ea king
Ġcon ference
and er
Ġro aming
ard ians
ĠB ot
ĠB ill
ĠB lo
ĠB BC
ĠB lade
ĠB MW
Ġsu ff
Ġsu dd
Ġsu fficient
ĠH it
ĠH ert
ĠH ead
Ġli es
Ġli ber
Ġli vest
ĠN et
ĠN PC
ĠN ikola
ĠN apoleon
ĠP enn
rom e
ĠD ep
ĠD epends
ĠE TH
qu es
qu ake
qu ila
imp roved
ĠR P
ĠR en
ĠR est
ĠR em
ĠR ange
Ġpo ck
Ġcomp osite
Ġcomp iler
ĠSt ud
ĠSt arted
ast ers
ack er
Ġcar ried
Ġimp ed
Ġimp ly
Ġimp ulse
ĠG et
ĠG Wh
ĠG reen
ĠG TO
ĠG ravitas
ĠL e
ĠL ow
ĠL ive
ĠL os
ment ed
Ġhigh light
ol m
ol ume
Ġpre p
Ġpre t
Ġpre paring
ite ment
em ed
Ġout standing
Ġout lets
Ġcom et
Ġcom edy
Ġcan cel
Ġhas hing
Ġlo go
Ġlo ses
ist ent
Ġprodu cing
Ġmy th
Ġpl enty
con s
Ġad ult
Ġad mit
Ġbu b
Ġbu d
pt ion
Ġun p
Ġun ne
Ġun real
so ft
ĠU p
ĠU r
ĠU sing
ĠO G
ĠO S
ĠO f
ĠO ffic
ĠO dd
ĠO bviously
Ġact s
Ġact ing
Ġour s
ven ience
We ird
Ġle pt
Ġle ading
Ġover se
Ġover sight
Ġover whelming
Ġta il
Ġta ught
ĠV R
ĠV ast
ĠV TO
ĠV eloc
Ġpr ize
atter ies
int in
Ġdes cription
Ġmon key
ep h
Ġint act
Ġcont ent
Ġcont est
Ġsp an
Ġsp am
Ġsp irit
Ġsp onge
Ġqu ote
Ġqu arks
Ġright s
ru mp
ru ctions
St atic
St rong
Ġwho s
Wh eres
Ġkn ight
Ġkn ock
ĠSpaceX s
Ġfun ctions
Ġaut oc
ress ure
Ha ving
Ha wthorne
Ġser ving
Ġser ved
Ġser ves
Ġinter st
Ġunder est
Ġpoint less
Ġrec ru
ord ers
lic k
lic it
Ġpart ial
Ġexp ense
Ġreg ime
Ġreg ret
Ġcr aters
Ġpar anoid
ĠX av
Ġsc roll
ĠIn c
Ġver b
te ch
Ġfin est
Ġsuper power
Ġadd s
Ġrep ly
ĠUS B
ĠAut om
Ġend s
pect ive
Ġoff ers
Ġelectric al
Ġcons erv
ell ers
Ġins ert
ĠSuper dr
Ġhelp ed
Ġdis aster
ert o
Ġgr ief
Ġtrans mission
az z
Ġdel ight
ĠWh ite
Ġsupport ive
Ġpay ing
Ġpay ments
Ġconf using
Ġob t
ometh ings
form ed
Ġshort age
Ġgener ated
Ġjo ints
Ġjo ining
Ġret ains
Ġtra pped
ĠK night
Ġsur vey
So ftware
Ġref ill
ĠDo D
Ġseem ed
Ġcl imb
Ġsec ure
ron eship
Ġlower ing
Ġlimit ation
Ġsk irt
Ġinv ite
Ġman ually
Ġman ual
Ġman ag
Ġoper ates
Ġdep endent
vid ia
Ġ"" "
Ġsimp lic
Ġfix es
fact ion
Ġsim ulations
Ġmet eor
Ġbr utal
Ġvis ual
ĠSN L
ĠPro b
ĠPro pellant
wh eel
ĠRe g
ĠRe ality
Ġfla methrowers
Sh e
Ġbo om
Ġstr ate
Ġset backs
ustain able
Re c
Re leasing
Ġinst ructions
Ġdec ent
Ġdec ided
Ġcrit ique
Ġrem ote
Ġrem otely
Ġsub cool
Ġsub orbital
Ġroad map
Ġtemp s
Ġclear ing
Ġtunnel ing
Ġloc ally
Ġcare er
Ġcare fully
Ġcompet itor
Ġstand s
aces hip
Do ing
Ġbl own
Ġatt acks
Ġhead s
Ġhead line
Ġdon ated
Ġdon ating
Ġdet ection
eg al
Ġfl own
Ġfl ush
Ġquestion able
sh ould
Ġexpect ancy
Ġpayload s
Ġsustain ability
Ġreview ed
Ġhold s
Ġhold er
ĠNew ton
Ġreason ing
Ġreason ably
Ġcreat ive
Ġconsider ably
Ġgra ve
Ġrest ored
Ġrest rict
Ġstre aming
Ġcomm ission
ĠUn fortunately
Ġupgrad ing
Ġupgrad able
tern ally
Ġrecommend ation
ĠZ ee
ĠZ eal
Ġhand ful
ched uled
Ġdeal ing
ird s
Ġste al
Ġste ady
ĠSolar Glass
As cent
ern el
ivil ization
Ġpres ident
Ġspec s
Ġaffect ing
Ġbro ther
Ġform s
Ġprogram med
Ġsn ake
High er
Ġpain ful
Ġinf l
Ġinf lation
ĠWould nt
Ġsugg esting
lish ed
Ġpan ic
Ġpan el
Ġra ising
cept ion
ĠThanks giving
Ġunveil ing
Ġunveil ed
Se cond
Ġed itor
Ġlab s
Ġequ ally
Ġequ ation
Ġsubs onic
Ch eck
onom y
Ġbeg un
pl ane
Ġpot entially
Ġmer ger
Ġfinish ing
Ġmod es
Wor ld
Ġut ter
Ġmention ing
Ġstud io
Ġgrow s
Ġshe et
Ġshe ets
Ġvar ies
Ġvar ious
With out
rit ten
Ġtouch ing
Ġtouch down
Ġtouch sc
Ġcor ruption
Ġpop ular
Ġsmo other
Ġcyc lists
Ġdemo graphic
Ġhell o
pro bably
Ġtrick ery
Ġminim izing
Ġrequest s
Ġmill inery
Ġele ment
ĠPer haps
mm etry
Ġblock s
Ġblock ed
ĠMach ine
ĠWor k
ĠPh ysics
Ġhydro car
Go al
Ġafford ability
Ġblow ing
ĠTr ack
Ġprom in
Ġprom ote
ĠLot us
Ġperm it
Can ada
PA C
Ġprocess es
Ġrare ly
iff s
Ġadvert ise
Ġjournal ist
Ġmechan ically
Ġmechan ism
Ġcast le
Ġcast ings
Ġcrypt ocurrency
Ġrout ing
ĠAny one
ĠEn ergy
ĠEvery one
Ġcarry ing
Ġpick ed
Ġhol idays
Ġremo ving
Ġstra w
ĠWith out
Ġabort ed
Ġadjust ing
Ġadjust ed
Ġinterview s
Ġfinan cially
Ġcontinu ed
Ġmaint enance
Ġchalleng ing
Ġev olution
ĠAd ams
ĠAd vanced
Ġhealth y
Ġparticul ar
Ġcontroll ing
Up d
Ġtit le
Ġscore s
ĠShort fall
Ġsurv ive
Ġlic ensing
ĠMar x
Ġjud ic
ĠBe yond
Ġcarmak er
Ġinsp iring
Ġconstra ined
Comp le
Ġbi as
Ġcol ony
ĠCon vention
Ġjam med
Ġimm une
Ġfrequ ently
Ġi Phone
ĠTech n
ĠTech nically
Ġshif ts
Ġshif ting
Ġasp ire
Ġconvin cing
ĠEl on
Doge coin
Ġaud ience
Ġbus iness
Ġfict ional
Ġmatch es
Ġrefer ral
Ġtele port
Ġdesc ribed
Ġemploy ee
Ġbio logical
Ġemoj is
Ġcrush ed
Ġreflect ive
Ġskill z
Ġesth etic
Ġsimultane ous
Ġcharac ters
ula h
Ġmir ror
ĠTues day
ĠBr andenburg
Ġentertain ment
Ġstopp ing
Ġcollect ive
ĠJohn son
Pr ice
itud inal
Ġelect ron
Ġemer gency
Ġdev il
ĠDid nt
ĠSte ve
Ġmonop oly
Ġspl ashdown
Ġconsist ent
Ġbright ness
Ġhyp ocr
Ġpurp le
Ġelev ators
Rem inder
Ġtun ing
Ġcapt ure
Ġcapt ured
ĠIron ically
Ġvot ing
ĠGen eral
Ġactu ator
ĠVac uum
Ġaw ful
Ġhar ness
ĠTry ing
ĠSur face
Ġvi ol
ĠPre tty
Ġcompens ate
ĠLi quid
Ġoverr ide
Ġspaceport s
Ġtempor ary
Ġbelie ving
Ġdetect ed
Ġrecogn ition
Engine ering
Iron ically
Red dit
Ġthick ness
Ġbreat hing
Ġmas ks
ĠMc Gregor
ĠMun ro
ĠMegap ack
ĠMegap acks
ĠAng eles
Ġsex y
Ġbump er
Ġinterse ct
ĠIns urance
Ġendorse ments
Ġexperien ced
Ġprofit able
Ġperman ent
Ġaster oids
Ġsed an
Ġcook ie
Ġmere ly
Ġpyram ids
Ġinject or
ĠSec ret
ĠCongr atulations
Ġchoo sing
month s
Ġtaxpay ers
Ġdeclin ed
Ġmanufactur ers
Ġredund ant
Su ccess
satell ite
Ġcab in
Ġment ions
Ġgl itch
ĠTurn s
ĠSen ate
ĠAsh lee
ĠFl int
ĠDoug las
Ġpract ical
ĠInf inite
Ġinspe ction
Ġsubst ant
Ġconfigur ator
Ġuncertain ty
Ġmaneuver ing
Ġproportion ate
Ġmel ting
Ġpix els
alact ic
Ġgather ings
entral ized
there um
ĠMet al
ĠMoth ers
ĠForm ula
ĠNav igate
Ġsmash ed
Ġexpl ode
Ġautomak ers
Ġabsolut e
Ġinflu en
Approx imately
Ġdialog ue
Germ an
Tod ay
onest ly
atri x
Ġmand ate
Ġlangu age
Ġstiff ness
ĠMount ain
Ġneur ons
Ġconne ction
Ġcompl ac
Ġcomplic ated
ĠGover nor
Ġtimel ine
ĠOpt imus
Ġsav ings
Ġincrement al
ĠKore a
Ġmetap hor
Ġrestaur ant
Ġpresum ably
Ġfatig ue
List ening
Ġtern ary
Ġaeros pace
Ġcoun c
Ġlid ar
Ġlimb ic
Ġinacc urate
ĠSant a
ĠIrid ium
Ġwhist le
Ġexha ust
Ġsudd en
ĠHert z
ĠVTO L
ĠXav ier
ĠSuperdr aco
ĠZeal and
Ġtouchsc reen
Ġhydrocar bons
! ).
! )"
% ."
) !
) :
+ ,
3 750
4 20
A F
A nt
A ss
A pril
A pollo
A ustin
B r
B el
B FR
B rav
B asic
C all
C old
C over
C ustom
C lass
C rew
C ritical
C rypt
C uphead
C redit
D T
D as
D est
E C
F T
F ig
F orm
F uture
F inally
F irmware
F lying
F eeling
G od
G iant
G reen
G onna
G lobal
H C
H W
H ate
H eavy
H ope
H yperloop
H onestly
I ch
I gn
J e
J uly
K rypton
L ow
L ight
L ord
L imit
M E
M an
M et
M ay
M id
M ad
M ind
M ission
N on
N one
N ose
N orth
N aturally
O P
O ff
O bv
P G
P ar
P ot
P ics
P ost
P lan
R P
R ace
R NA
S C
S ea
S ha
S ending
S aw
S entry
S peed
S ingle
S cientists
S aints
T im
T ap
T ower
T ake
T urb
T ook
T eslas
U r
U se
U pper
U AW
W ild
W aiting
W ait
a j
a el
a wesome
a gram
b l
b r
b ig
b um
b ound
b ru
b oy
c u
c ount
c orrect
c omm
c ribed
d a
d ed
d ep
d iver
d esign
e ace
e per
e arly
e ze
f ast
f irst
f acing
f lu
f yi
g l
g u
g ot
g ers
h is
h ill
h op
h ol
h ance
h alf
i j
i ess
i pped
k k
k ill
k ers
k atch
l ayer
m ight
m od
m atter
m uff
o ch
o il
o qu
o oth
o ked
p ic
p ad
p ul
p one
p ri
p hic
p lanet
p iration
r amp
r out
r um
r ance
r ational
r ify
r atr
s m
s ch
s ha
s rsly
s entation
t al
t ag
t te
t ainment
u k
u ing
u et
u gs
u its
u erto
v ac
v il
v olut
w ing
x im
y Quil
z ens
Ġ x
Ġ ion
Ġ ich
Ġ ?"
Ġ )"
Ġ que
Ġ era
Ġt ick
Ġt ied
Ġt ends
Ġt ub
Ġt yr
in f
in o
in ated
in ations
in ishing
er d
er ve
er ved
er bal
on ious
on izing
Ġs an
Ġs ac
Ġs ight
Ġs we
Ġs que
Ġs ample
Ġs ooo
Ġs ledgehammer
re g
re h
re k
re et
re ally
Ġth or
Ġw ine
Ġw anna
es pan
or a
or ole
Ġb ed
Ġb ul
Ġb od
Ġb ol
Ġb atch
Ġb ond
Ġb lad
at ons
at ivity
Ġc e
Ġc ape
Ġc ouple
is is
ing er
ing ap
Ġf le
Ġf ab
Ġf art
Ġf ry
Ġf ist
Ġf ps
Ġf irm
it ary
it ial
it ted
en a
Ġm ut
Ġm all
Ġm oo
Ġm cu
ll a
ar p
ar ound
ar izes
an ny
Ġp al
Ġp un
Ġp ace
Ġp ink
Ġp sy
Ġp oured
Ġto y
Ġo w
Ġd i
Ġd ot
Ġd il
Ġd ain
Ġd ish
Ġd rain
Ġh o
Ġh ire
Ġh oney
Ġh arm
Ġh omes
Ġh inge
Ġh ammer
Ġh vac
Ġl il
Ġl unch
Ġl apt
Ġl aps
Ġl ung
mp e
mp ting
ro pped
st ep
st ruction
Ġin ver
al er
al ing
al ready
al ax
Ġn ail
Ġn orth
Ġn ested
ic ation
ic ide
ic opter
le g
as ers
as ma
as katch
Ġbe ts
Ġbe ating
Ġg ro
Ġg ant
Ġg ap
Ġg aps
Ġg oogle
Ġg ift
ut ed
ut ers
Ġre n
Ġre ct
Ġre el
Ġre ward
Ġre vert
Ġre action
Ġre launch
amp les
ot ing
ot ech
et r
et ed
et ition
et ta
ĠT e
ĠT ight
ĠT ime
ĠT ruck
ĠT oy
ĠT ook
ĠT ED
ĠT intin
Ġe in
Ġe ase
ill ow
ill ions
ill erson
Ġfor um
ĠS A
ĠS L
ĠS on
ĠS ay
ĠS am
ĠS ure
ĠS imp
ĠS pr
ĠS ingle
ĠS ustainable
ĠS PAC
ĠS askatch
Ġon board
Ġon going
ow ea
ld erly
id ity
el is
el ter
el vin
ch em
ch eck
ch assis
ĠI rel
la us
la me
ad er
ad em
Ġso ci
ter ia
ter tainment
Ġst ro
Ġst ow
Ġst ays
Ġst ance
Ġst ated
Ġst ake
th at
th ings
th ora
ith s
ith ms
ĠM el
ĠM ich
ĠM ord
ĠM itch
ĠM aster
ĠM icro
ĠM oving
ĠM RI
Ġwh om
Ġwh imp
se a
Ġwe aring
Ġne igh
am a
ir al
ir us
ir ical
ir gin
Ġpro ceeds
il icon
Th urs
Th inking
Ġr ough
Ġr ich
Ġr age
Ġr iver
Ġr pm
ĠA v
ĠA nt
ĠA mb
est ream
est rel
ur ch
ur atively
un ction
Ġare nas
ab lish
Ġco in
Ġha ven
ĠC ats
ĠC lass
ĠC ook
ĠC uphead
ĠC DC
ĠC ulture
Ġen jo
Ġen erg
Ġat oms
Ġsh d
Ġsh ock
Ġsh ared
Ġsh adow
ation ary
Ġtr ade
Ġtr ading
Ġtr agic
Ġor ient
nd ical
ul f
Ġv ess
Ġv ital
ĠW ow
ĠW ind
ĠW itch
Ġdo ci
Ġdo zens
Ġnot iced
ĠTh ird
Ġex ting
Ġex amination
Ġex change
Ġex ternally
Ġse ated
nt il
um ents
Ġma ps
Ġma kers
ip es
ip le
ĠF B
ĠF act
ĠF ire
ĠF ully
ĠF ix
ĠF ield
ĠF UD
ĠF ederal
ĠF rench
Ġcon es
Ġcon gr
Ġcon cent
Ġcon vey
Ġcon cepts
and on
Ġde ck
Ġde orbit
act ions
Ġj azz
ĠB S
ĠB u
ĠB it
ĠB en
ĠB el
ĠB ost
ĠB raz
ĠB ern
ĠB attery
ĠB asically
ĠB ricks
ĠB rian
Ġab t
Ġal bum
ort ed
ra pt
ra ined
Ġsu ed
our i
our nal
Ġall ev
ood y
ĠH at
ĠH allow
ĠN on
ĠN ove
ĠN ational
ĠN vidia
ĠN yQuil
ĠP U
ĠP ic
ĠP ri
ĠP ost
ĠP erson
ĠP ublic
ĠP uerto
lo ve
ĠD ie
ĠD ick
ĠD ane
ĠD ata
ĠD oub
ĠE d
ĠE g
ĠE gy
ĠE ric
ĠE ither
ĠE conom
ĠE ssentially
ĠE asy
Ġch ess
Ġch oc
Ġch ick
Ġch utes
Ġch ief
Ġch erry
king s
ĠR and
ĠR ico
iv ile
Ġpo se
Ġpo ison
ie val
ap es
ap or
Ġme al
Ġup set
ĠSt ars
ĠSt one
ĠSt orm
ĠSt ates
ĠSt ainless
ĠSt arlinks
ĠSt arman
Ġye llow
Ġk it
Ġk araoke
Ġk ernel
Ġcar aoke
Ġcar rier
Ġimp ressed
Ġimp ellers
ĠG r
ĠG old
ĠG PT
ĠG reg
ĠL ight
ĠL ink
ĠL arg
ĠL ake
ĠL eg
ĠL oop
ĠL ee
ĠL iterally
ĠL ockheed
ĠL OX
Ġhigh s
ol ist
ol ving
Ġhe h
Ġeng age
Ġeng aged
Ġpre f
Ġpre val
em and
Ġout do
Ġno body
Ġcan cer
Ġcan cell
iz er
iz on
ist ance
ist orical
xt ure
Ġgood will
ore s
Ġar c
Ġar bit
Ġar rest
Ġpl s
Ġpl ug
Ġpl asma
Ġbet ting
con f
Ġany time
Ġad apt
Ġun lock
Ġun ivers
Ġun cover
Ġun bel
Ġapp eal
cc up
ich e
ĠU s
ĠU pper
ĠU ta
ĠO ut
ĠO ff
ĠO wn
Ġla ke
ha ul
We ld
Ġover p
Ġover st
Ġover come
Ġover he
Ġover haul
Ġdr ink
ĠV F
ĠV i
ĠV ance
ĠV irgin
be it
be ll
be fore
Ġpr ime
Ġpr ivile
ach ed
ach eal
Ġdes ert
oth s
ĠJ er
ĠJ im
ĠJ ack
ĠJ ames
ĠJ ared
ud ing
Ġlaunch pad
ep end
Ġint ake
Ġint ub
Ġcont ain
Ġsp are
Ġsp ike
Ġsp ring
Ġsp here
Ġsp eaking
vel ength
Ġlong itudinal
fer ential
Ġqu otes
Ġqu ieter
ric es
ric ky
Ġacc omp
St ay
St ability
Ġwho se
Wh ether
Wh oop
Ġkn uck
Ġkn ife
ens us
ress ively
"" ."
Ġser ial
ath y
Ġdesign s
Ġdesign ing
ang anese
Ġback wards
No body
ise cond
Ġsupp lement
Ġrec ession
Ġcould ve
Ġmin ers
Ġpu ff
Ġ$ $$
ord inary
Ġknow ing
Ġsm l
Ġsm iths
up id
Ġexp licit
Ġreg rets
Ġext inction
Ġown s
Tr ust
Ġcr ater
Ġcr acked
Ġcr isis
Ġlif ts
Ġlif espan
Ġpar ad
Ġpar af
hic le
Ġthem e
Ġsc ene
Ġsc rap
red ibly
Ġwant ing
ĠIn sp
In s
In vestigating
ag netic
Ġver ify
Ġair lin
Ġair plane
Ġfuture s
Ġhel icopter
ĠFalcon s
eav or
Ġfin ale
Pro t
Pro blem
Pro duct
Ġsuper comp
Ġadd ition
Ġrep aid
Ġrep orter
pect s
Ġmis under
Ġph ilosoph
ell ation
Ġins ulation
Ġclo ck
Ġart ists
Ġpress ing
Ġdis ad
Ġdis like
ĠCh ad
ost eer
ost ationary
ex cept
ĠWh ich
Ġsupport s
Ġsupport ed
Ġpay ment
ffic iency
Ġconf lic
Ġconf ined
Ġlove ly
Ġship ment
Ġcool ed
form ation
Ġent ering
Ġent rance
Ġshort ing
ĠSh ark
Ġgener ates
co at
ak er
Ġappro pri
Ġproduct ive
Ġcount s
Ġcount ed
Ġcount down
Ġspeed s
Ġret est
Ġret ract
Ġret ired
Ġret weet
Ġval ves
Ġval uation
ib a
ib ration
Ġfire ball
imit ive
Ġgu arant
ĠK e
ĠK ing
ĠK ev
ĠK elvin
ĠK estrel
Ġsur g
Ġadv ise
Ġref used
Ġref resh
Ġcl ust
Ġfair ings
Ġtax ing
Ġshow ed
Ġcomput ation
Ġregul ated
Ġlimit ing
Ġlimit ations
Ġsk it
Ġsk ip
Ġsk ull
Ġinv ol
ural inks
air y
Ġz illion
Ġz omb
Ġopen ed
fact ories
Ġmet ro
Ġmet ers
Ġbr illiant
oun ced
oun cing
ĠPro gress
ĠPro pul
Ġfr ank
Ġfr action
Ġfr inge
Ġperson nel
Ġvol can
ĠRe veal
Ġfla ming
Sh anghai
Ġstr anger
Pre sentation
Ġautom ation
oll ower
Ġke pt
Ġpass age
Re asons
aut ion
Ġlight ning
Ġris es
Ġdec line
Ġdec reasing
gg le
omm od
Ġfeel ings
ium s
ield y
Ġmot iv
Starship s
Ġstand ing
Ġbel ts
Ġbel ong
Ġpost pone
Ġfund ed
Ġbra ve
Ġhead lines
Ġac ou
Ġfl ood
Ġhot sp
Ġhot test
ĠRo ad
eler ation
eler ating
Ġworth less
Ġworth while
ution al
ilt on
Ġcustom ized
Ġlat itude
Ġgra phic
Ġrest art
Ġstre t
Ġstre et
Ġconst ellation
Ġinvest ment
Ġold er
ĠUn iv
ĠUn less
ĠUn ited
ĠUn ivers
Ġauto gen
Ġacceler ates
ĠPower gl
loy ment
ug gy
ĠZ illow
Ġfind ing
arm s
Ġview ing
Ġexc itement
Ġdisc lo
Ġfavor ites
He ard
Ġtruck ing
Ġreturn s
Ġreturn ing
Ġrun s
Ġgoal s
ĠOn ce
Some one
Ġdist ances
Ġdist inguish
eng ine
arch o
Ġneg ot
Ġneg ativity
Ġleg it
Ġwa velength
Ġcred its
Ġcorrect ing
Ġcorrect ly
ĠHe art
lor oqu
Or bit
Ġspec ulation
Ġeffect ively
Ġform ula
Ġdest inations
ĠAt mosph
Ġsun s
Ġburn ing
Ġcivil ian
Ġcivil izations
Ġnear by
Ġprot est
Ġsn ap
Ġrele vance
Ġrece ives
Ġcheck s
High ly
Ġfollow s
Ġpain ted
Ġexist ential
ĠDe v
po ke
Ġsw ord
Ġsw ipe
ĠAl ways
ĠAl ready
ĠAl though
ĠFr an
Ġrepl acing
Se eing
Ġed ition
Ġed its
Ġed ited
Ġrel ated
Ġequ ity
Ch ange
Ch oms
Ch ris
Ch anging
onom ous
Ġpad s
Ġvent s
Ġliquid ity
Imp roved
ĠAm azing
ĠEx pect
Ġmer it
ĠAs k
Ġgovern ments
Ġstrong est
More over
Ġcal ibration
Ġmod els
istic ated
Ġsky diver
Ġblack out
Me aning
ĠMay or
Ġexcept ion
Ġexcept ions
ĠLoo k
ĠOr bit
Ġinclud ed
Ġvar iation
Ġspecial ized
just ing
Ġpic king
Ġcor onav
Ġem iss
ĠAnd rej
Ġconnect ing
Ġmetal s
Ġsmo ke
Ġsmo king
Ġtrip le
Ġfig uring
Ġglass es
Ġprof ess
ĠAr m
Ġheight s
Un less
Un like
ee ks
Ġguess es
Ġthrot tling
Ġmill isecond
Ġmount ains
ĠSm all
ĠSm ith
Ġshare s
Ġbirth s
Ġrev oked
ĠSp irit
ĠSp aceship
Ġant icip
Ġpredict ion
Ġpredict able
Ġpredict ions
Ġign oring
Ġign ition
Ġtarget ed
Ġcur ated
Ġhat estream
Ġprom ised
Ġcharg ed
Ġintegr ity
Ġcontract s
Ġperfect ly
Any thing
Any where
Ġearl iest
ĠAir borne
Ġenviron ments
Ġphot os
ew an
Ġsong s
Ġdark ness
ĠCO PV
ĠChic ago
ĠEng ines
Ġcommun ities
Ġdiscuss ions
app roved
Ġill nesses
Ġill egal
Ġge og
Ġdoor step
Ġdock ed
Ġmeas ures
Ġaccident s
ĠBl ue
ĠBl ood
ĠBl uet
ĠNeed ed
af e
Ġhol es
Ġweld s
Ġprevent ing
Ġloss y
Ġextend ed
Ġclass ic
Ġcontinu ance
Ġcontinu ously
Ġball s
Ġfam iliar
ĠSer b
ĠBig gest
Ġarchite ctural
Ġindividual s
200 9
Ġfool s
Ġeff orts
Ġrid ing
Ġparticul ate
Ġclar ification
Up coming
Ġnor thern
ĠIs nt
ĠFound ry
Ġupload ing
Ġexpla ining
ĠDoes n
Ġcolle ction
Ġconcern ed
Fr anz
upp ly
Ġten sion
Ġsl ower
Ġpe arl
Ġforg et
ĠMar vin
abil ities
ĠDa wn
ĠLike ly
Star base
Ġinsp iration
Ġapprox imately
Ġson ar
Ġson ic
ĠMa king
ĠCon c
Ġimm ers
Ġimm ense
Ġattach ment
Ġsmooth ly
Ġfrequ ent
Could nt
ov ie
Ġben ch
uts ch
ĠTech nology
ĠMart ians
Ġasp ires
Ġassemb led
Ġune lected
Ġauthor ity
Ġsimpl ifying
Eng ines
cl oud
Ġest ate
Ġest imate
Ġest ablish
Ġsqu irrel
Ġclic ked
Ġport ing
Ġrefer ring
ĠMe ant
ĠCl ub
Ġsequ el
Ġconver ts
ĠRes ults
Ġpolic ies
Ġtele metry
Ġprem i
Ġprem ise
Ġprem iums
Ġbug gy
Ġdesc rib
Ġtransition ing
Ġvacc ination
nes ota
Ġmil itary
Ġden y
Ġden ial
ĠAC S
ĠCurrent ly
ĠRep ort
Ġcrush es
Ġskill s
Ġcalc s
Ġcalc ulations
Dr one
Dr aco
Did nt
Ġmir rors
Ġang ry
Ġang els
Ġloan er
Ġsurround ing
Ġabsor b
Ġabsor ption
Ġcommunic ations
Ġswitch ing
Ġcomfort able
Hell o
Ġscient ific
Ġelect ed
Ġconvers ations
ĠDid n
Ġadvent ure
Ġreser vation
Ġconsist ency
Ġgrad ually
Ġhyp oth
Ġclaim s
Ġapo log
Ġdiv ide
Ġvot ed
Ġexcess ive
ĠHer bert
ĠDis cord
Ġmeg a
Ġkill ed
Ġhex acopter
Ġindic ates
Ġbroad ly
Res p
Sm art
sy ndical
Ġnat urally
ĠAct ually
ĠComm ission
Ġvi be
Ġlock ed
Ġbuff er
Ġinsight s
Ġinsight ful
Ġtempor al
Ġdiscount s
ĠEngine ering
Ġdemonstr ate
Ġdemonstr ated
Nu ke
Open ing
Ġbreat he
Ġcop y
Ġfac ilities
Ġmas k
Ġdin ner
Ġincon venience
Ġrent al
Ġweap on
ĠAlt itude
Ġsuit case
ĠEnd s
Ġprefer red
ĠVan ity
Ġpuck er
ĠInst ead
Ġgrand father
Ġflame out
Ġhorse power
Ġperman ently
Cons idering
Ro adster
Russ ian
Sign ing
Tom orrow
lud ed
min utes
Ġtreat ment
Ġaster oid
Ġwast e
Ġpyram id
Ġbear ings
Ġgain ed
sec ure
Ġpros per
ĠCongr ats
Ġvib es
Ġvib ration
ĠDM V
ĠDetail s
ĠGu ess
Ġunus ually
Ġintention ally
Ġtransp iration
Ġtaxpay er
Ġbother ed
Ġbrief ly
Ġdeclin ing
Ġredund ancy
Ġobser ved
Pay load
Te le
Wal king
fl ix
Ġtast es
Ġboun cy
Ġcour ses
Ġpers pective
Ġdynam ic
Ġdynam ically
ĠTra vel
ĠIM F
ĠMob ile
Ġweigh s
ĠCol or
Ġenjoy ed
Ġorgan ization
ĠBrit ish
Ġchea p
Ġchea per
Ġactiv ation
Exp la
Ġintro du
Ġparam ount
Ġparam eters
Ġscen ario
Ġrefine ments
Ġremark able
Ġremark ably
Ġlegis lation
ĠExc iting
Upgr ading
Play ing
Ġsatis f
Ġsatis faction
Com mon
bet ter
Ġtar iffs
inn ish
Ġsen ior
Ġwom en
Ġbab e
Ġcert ification
Ġpill ar
Ġpneum atics
Ġtoile t
ĠSpeed rapt
Ġrig or
ĠAri ane
Ġhaz ard
Ġvict ory
Ġdoom ed
Ġexchang es
Ġaltern ative
ĠHam let
Ġchem ical
ĠVal ue
Ġresol ve
Ġadvoc ates
Ġexclus ively
Ġrelent lessly
ĠPhil ips
Ġcitiz en
ĠDifficult y
Cle arly
bre ak
dia gon
Ġwarn ed
Ġble ed
Ġcous ins
Ġfu els
Ġrein force
ĠTal ulah
Ġneut ral
ĠCom ments
Ġasy mmetry
Ġvulner able
ĠHear ing
ĠEber hard
Ġcompar able
Ġuna ware
Ġunw ieldy
ĠOx ford
Ġconting ent
Ġpercent age
rior ity
Ġsculpt ure
Ġrefuel ing
ĠUnlike ly
Ġswift ly
Ġglove box
Ġsynch ron
Ġcircum ferential
Ġinher ently
Ġcandid ate
Ġdatab ase
Ġunreason able
Mun ro
Miss ed
Ġbac teria
Ġbarg aining
Ġcart oon
Ġmi xture
Ġple thora
Ġdice y
Ġindu cer
assemb ly
Ġrecharg ing
ĠSS TO
ctim onious
Ġsoph isticated
ĠCent ers
Ġtrun c
Ġseam lessly
Ġlivest ream
ĠNet flix
ĠUp d
Ġautoc orrect
Ġinterst age
Ġregret te
Ġconserv ative
Ġinsert ion
Ġsimplic ity
Ġsubcool ed
Ġrestrict ions
Ġinfl atable
Ġelectron ics
Ġhypocr ite
Brav o
Man ufact
dep th
ratr acheal
volut ions
xim ity
Ġtub es
Ġtyr anny
Ġsac r
Ġsque eze
orole v
Ġbod ies
Ġblad es
ingap ore
Ġdain ty
alax y
Ġgant ry
ĠToy ota
ĠSaskatch ewan
owea pon
ĠIrel and
ĠMord or
ĠMitch ell
ĠMicro soft
Ġwhimp er
Thurs day
ĠAmb ien
Ġenjo ying
Ġorient ation
ĠWitch er
Ġdoci le
Ġexting uish
ĠBraz il
ĠHallow een
ĠNove mber
ĠEgy pt
ĠEconom ist
Ġchick en
ĠLarg er
Ġunbel ted
Ġappeal ing
ĠUta h
Ġ$$$ $
Ġparaf oil
Ġsupercomp uter
ĠKev lar
ĠPropul sion
Ġgraphic s
ĠPowergl ide
loroqu ine
Choms ky
Ġcoronav irus
Ġemiss ivity
ĠBluet ooth
ĠSpeedrapt or
diagon al
! ),
% "
% .
' ll
( )
* .
, $
, *
, :
1 750
2 10
2 25
6 000
9 000
; "
A L
A ge
A meric
B M
B Q
B T
B ot
B ad
B ra
B ase
B old
B erlin
B ec
C r
C at
C ol
C ry
C ook
C EO
C umulative
C orporate
C lick
D K
D M
D an
D ay
D ep
D rag
E S
E s
E as
E xt
E arly
E ither
E xtrem
E lon
F H
F ly
F il
F ine
F ully
F uel
F reedom
F rench
F loki
F inishing
G A
G ro
G et
G ame
G ames
G rid
G ravitas
G BT
H G
H er
H ar
H ol
H ex
H mm
H yp
H umans
H ollywood
I A
I K
I T
J er
J im
J ack
J oe
K arm
L Y
L y
L il
L ithium
L ocal
L asers
M L
M r
M al
M ess
M arg
M ob
M arch
M usic
N orm
N ickel
N atr
O S
P ure
P erson
P eak
P opulation
P riority
R R
R ot
R ough
R age
R ock
R oll
R apid
R ob
R acing
R aptors
R WD
S L
S an
S et
S ay
S am
S ur
S um
S and
S imp
S uch
S elf
S low
S wit
S ummon
S andy
S emi
S now
S yd
S onic
S rsly
S IC
S afety
S EC
S IK
T w
T al
T old
T ax
T bh
T yp
T aking
T urbo
U N
U lt
U mm
U kraine
V ote
V ersion
W ant
W ise
W arning
X Y
Y e
Y o
Y et
Z ip
a o
a ic
a ine
a qu
a way
a urs
b ow
b est
b ility
b ots
b attery
b uilt
c ou
c ut
c ra
c ost
c lock
c ounter
d es
d el
d am
d ef
d les
e ous
e conom
e ffective
e hicle
f ed
f old
f ires
f aring
f irmware
f rock
g ic
g ge
g ue
g ian
g irl
h er
h ot
h ock
h ibit
i ach
i ber
i ary
i kes
i ations
i ety
i ates
i lad
i oweapon
j e
k ind
k yn
l f
l it
l im
l if
l ers
l ong
l ating
l ane
l imit
l ates
l ime
l inder
l iterally
l anted
l igible
m t
m es
m ay
m ers
m ass
m ind
m iss
n on
n ice
n ame
n os
n ets
n ik
n icious
o ks
o ss
o gy
o ssil
p et
p ir
p ers
p ie
p ol
p ose
p ick
p acks
p arent
p ublic
r ite
r ary
r ason
s um
s lo
s ite
s uch
s hip
s ized
s cience
s cientists
s istent
s ilicon
t f
t es
t ower
t urn
t ility
t ons
t ax
t rain
t icle
u f
u ated
u ating
v d
v ts
v olution
v iet
v icing
v asive
v olume
w ich
w ater
w atch
w rapped
w arming
w ritten
y ers
y up
z ing
z eal
z illa
Ġ !!
Ġt v
Ġt in
Ġt ed
Ġt ea
Ġt ort
Ġt one
Ġt int
Ġt orn
Ġt aps
Ġt ouched
in se
in ity
in ance
in cess
in stein
Ġa f
Ġa x
Ġa ft
Ġa wards
Ġa uf
er ous
on k
on us
Ġs ig
Ġs ars
Ġs led
Ġs ands
Ġs wear
Ġs rsly
Ġs omethings
re ation
re str
re pre
Ġth igh
Ġth erm
Ġth esis
Ġw et
Ġw ow
Ġw est
Ġw are
Ġw ond
Ġw ake
Ġw itch
Ġw ides
Ġw rap
Ġw ipe
Ġw rapped
or p
or us
or ists
Ġb er
Ġb ars
Ġb lo
Ġb one
Ġb ite
Ġb ays
Ġb ind
Ġb anks
Ġb ully
Ġb ang
Ġb ag
Ġb old
Ġb ounds
Ġb und
Ġb arn
Ġb ake
Ġb ending
Ġb att
Ġb inary
Ġb aff
Ġb irds
at iv
at ware
at ial
Ġc d
Ġc oo
Ġc ate
Ġc ort
Ġc ough
Ġc able
Ġc ats
Ġc ub
Ġc ows
Ġc umulative
is ers
is ions
Ġf ed
Ġf id
Ġf if
Ġf ant
Ġf ans
Ġf ile
Ġf lic
Ġf arting
Ġf yi
Ġf ollower
ou is
ou der
ou ps
it a
it te
en us
en ry
Ġm ic
Ġm us
Ġm art
Ġm ason
Ġm ids
Ġm usk
Ġm kt
Ġm RNA
ll e
ll ed
ll age
ar se
ar ke
ar ah
ar ithm
an ic
an king
an ia
an ical
Ġp in
Ġp se
Ġp ap
Ġp unch
Ġp ile
Ġp ets
Ġp ins
Ġp ian
Ġp ier
Ġp orts
Ġp ipe
Ġp owers
Ġp ipes
Ġto ler
Ġto days
Ġo ge
Ġo ps
Ġo oh
," ,
," [
," ~
Ġd amp
Ġd ies
Ġd ude
Ġd iesel
Ġd usk
Ġd airy
Ġh om
Ġh am
Ġh ust
Ġh ip
Ġh opef
Ġh opper
Ġh acked
Ġh osting
Ġh edge
Ġh istorical
Ġl ip
Ġl eav
Ġl atch
Ġl ately
Ġl ining
Ġl ouder
mp ts
mp ath
mp loyment
ro ach
ro ph
ro de
ro bability
ro oms
st ar
st ill
st op
st ation
st one
st orm
st ock
st arter
st ration
st aire
Ġin qu
Ġin verse
Ġin let
Ġin secure
al in
al ism
Ġn ic
Ġn aughty
Ġn iche
ic y
ic ense
le ting
le head
as ad
as ite
as ilisk
Ġbe e
Ġbe ach
Ġbe ings
Ġg la
Ġg est
Ġg oth
Ġg ates
Ġg ross
Ġg ains
Ġg amed
Ġg host
Ġg alactic
Ġg alaxy
ig en
ig ated
ig ital
ut o
ut ive
ut tle
ac les
Ġre op
Ġre nd
Ġre light
Ġre ject
Ġre dd
Ġre vers
Ġre but
ot t
ot ers
ot ine
et urn
ĠT it
ĠT im
ĠT il
ĠT ough
ĠT ach
ĠT Wh
ĠT ri
ĠT erm
ĠT ax
ĠT weet
ĠT rump
Ġe ating
Ġe val
Ġe go
Ġe lderly
." "
ill ed
ill otine
Ġfor med
ĠS K
ĠS l
ĠS et
ĠS ad
ĠS mo
ĠS ep
ĠS wit
ĠS aid
ĠS cient
ĠS inc
ĠS kyn
Ġon to
Ġon erous
om y
om al
ct ed
ct ic
ct rum
id al
id ers
id ential
Ġu llage
Ġy er
Ġy rs
el p
Ġan im
Ġan ec
Ġan ode
Ġan onymous
ch n
ch ip
ch anger
ch ecking
ĠI ll
ĠI ce
ĠI ronic
ĠI TA
la ir
la ine
all ur
all oc
ad just
oo st
im s
im ul
im atter
im ary
im ates
im ilar
ter ing
Ġst al
Ġst one
Ġst ats
Ġst ator
Ġst unning
Ġst rict
Ġst aff
Ġst icking
Ġst upid
Ġst imul
th ink
th rop
ĠM t
ĠM er
ĠM ac
ĠM oo
ĠM od
ĠM ead
ĠM ission
ĠM oms
ĠM usic
ĠM iss
ĠM erry
ĠM agic
ĠM erc
ĠM ovie
se y
se ction
se em
ke ys
Ġne ck
am in
am ic
ir aptor
ust ion
Ġpro d
Ġpro bab
Ġpro ves
Ġpro ximity
il an
il ers
il bert
il ometer
Th us
Th ink
Th ings
Ġr u
Ġr if
Ġr ally
Ġr ings
Ġr ude
Ġr ural
Ġr aces
Ġr ave
Ġr ides
Ġr igs
ĠA h
ĠA SIC
ĠA staire
op p
op ify
est ion
ur ant
ur ry
ur day
ur pose
un s
un ire
un ication
Ġare n
if ice
if toff
Ġyou ve
ab out
ab ies
ab led
ab outs
Ġmo du
Ġco at
Ġco il
Ġco ach
Ġco ax
Ġco found
ce mber
Ġha il
ĠC R
ĠC al
ĠC le
ĠC all
ĠC ab
ĠC up
ĠC ash
ĠC ustom
ĠC amer
ĠC roat
ĠC ivilization
Ġen hance
Ġen rout
Ġat e
Ġsh es
Ġsh ill
Ġsh ade
Ġsh ady
Ġsh red
Ġsh ell
Ġsh ades
Ġsh arp
ate way
Ġtr ace
Ġtr ap
Ġtr aged
Ġtr oub
Ġtr illions
Ġas ks
Ġas ph
ul ous
Ġv apor
ĠW o
ĠW ent
ĠW ings
ĠW ash
ĠW uh
Ġdo able
Ġdo ctors
ĠTh ought
ĠTh rust
ĠTh ermal
ĠTh anos
Ġex iting
Ġex amine
Ġex erc
Ġex amples
Ġse as
um etric
Ġma ze
ip se
ĠF ri
ĠF red
ĠF inal
ĠF lex
ĠF loki
ĠF rost
and ard
and width
Ġro m
Ġro ot
Ġro ver
Ġro se
Ġro pe
Ġde eper
ard ed
act ive
Ġby pass
Ġj ars
Ġj ury
Ġj itter
ĠB O
ĠB ow
ĠB us
ĠB ol
ĠB ody
ĠB ond
ĠB ased
ĠB eing
ĠB ring
ĠB asilisk
ĠB andwidth
Ġab lative
Ġab andon
Ġal co
Ġal arming
ine matic
ra st
ra ins
ra ising
ra vity
Ġ( &
Ġ( )
Ġsu e
od a
od d
ess ed
ĠH P
ĠH o
ĠH op
ĠH ere
ĠH ome
ĠH alf
ĠH ub
ĠH alo
ĠH ydrogen
ĠH ollywood
ĠH HS
ĠN C
ĠN V
ĠN ut
ĠN ame
ĠN ature
ĠN ether
ĠN ickel
ĠN TS
ĠP ure
ĠP age
ĠP ics
ĠP erm
ĠP lanet
ĠP itch
ĠP ok
ĠP rav
ĠP ressurized
ĠP DT
ĠP eace
ĠP rices
ĠP asad
lo or
per ate
ĠD J
ĠD ist
ĠD ri
ĠD ual
ĠD ark
ĠD ave
ĠD NA
ĠD roneship
ĠD ilbert
ĠD urant
ĠE mp
ĠE ve
ĠE xt
ĠE lect
ĠE arly
ĠE thereum
ĠE vil
Ġch a
Ġch est
Ġch ose
Ġch ute
Ġch assis
Ġch loroquine
qu is
qu ality
qu akes
ĠR oll
ĠR apid
ĠR ising
iv able
Ġpo em
Ġpo lished
ie lle
Ġcomp reh
ap ital
are hold
are tte
Ġme unire
us es
us ive
us ually
Ġup time
ĠSt u
ĠSt ay
ĠSt ate
ĠSt eel
ĠSt eam
ĠSt range
ĠSt arting
ĠSt eph
ĠSt andard
ast e
Ġk et
Ġk itch
Ġk rypton
Ġk ilometer
Ġneed ing
ire ction
Ġcar rot
ĠG A
ĠG and
ĠG ame
ĠG ats
ĠG iving
ĠG ames
ĠG lad
ĠG irl
ĠG odspeed
ĠG his
ĠG ulf
ĠL ea
ĠL ower
ĠL ater
ĠL ost
ĠL ittle
ĠL aser
ĠL unar
ĠL ouis
ĠL icense
ol es
ol ic
ol arship
Ġjust ify
Ġpre v
Ġpre view
Ġpre orders
Ġout c
Ġout rage
Ġno on
Ġcom ets
iz ard
Ġlo ans
ist ing
ist ant
ist inguish
end a
end o
end ary
xt ures
Ġar row
Ġar mor
18 75
Ġmy ster
Ġpl ume
Ġpl umb
con el
con uts
Ġany more
Ġad s
Ġshould ve
20 19
Ġbu zz
Ġun ha
Ġun wise
Ġun comp
Ġun improved
Ġapp les
so ever
ich t
ĠU ntil
ĠU tility
Ġhard ness
ĠO b
ĠO h
ĠO bs
ĠO bv
ĠO sc
ĠO pposite
ĠO slo
ha ha
We aring
Ġover l
Ġover la
Ġover load
Ġover head
Ġover coming
Ġover arching
Ġover clock
Ġover zeal
Ġsa ving
ĠV ol
ĠV ang
ĠV AT
Ġpr imitive
ach ell
Ġrocket ry
Ġthey ve
Ġinc oming
ber th
int endo
68 00
ĠJ D
Ex cept
Ex cession
ud o
ud ge
Ġmon keys
Ġint ratracheal
Ġag es
Ġag ing
Ġag encies
Ġag enda
Ġcont our
Ġcont rast
Ġsp ort
Ġsp inal
Ġsp ins
Ġsp read
Ġsp ooling
Ġsp iral
Ġsp ores
Ġ% "
arg o
Ġqu arant
Ġqu aint
Ġam end
Ġam az
Ġright ly
ric ed
ric tion
Ġwhat soever
Ġacc el
Ġacc ommod
ool ed
ru b
ru frock
St age
St ud
St acking
St arted
ens es
Ġres il
Ġres ident
we ets
we ather
Ġaut h
Ġaut osteer
kes chn
Ġeven ing
ons hip
Ġsy mpath
Ġser vicing
ath ering
Ġinter vention
Ġinter connect
Ġspe lled
Ġspe ctrum
oc ritical
ster dam
Ġback ed
os ing
os al
os ph
os ene
os aurs
Ġsupp ose
Ġsupp ressing
Ġunder p
Ġunder weight
ines e
Ġrec alib
Ġmin iverse
Ġpu zzle
ne ys
ne urs
ne vit
Ġsm ell
Ġcost ly
Ġexp ed
Ġexp ended
Ġreg is
Ġreg imes
Ġext ens
Ġown ed
Ġlit er
Tr ouble
ys cra
Ġcr ack
Ġcr unch
Ġlif ted
ĠNe il
ĠNe ither
ĠNe cessary
ĠNe uralinks
Ġpar rot
Ġsee k
Ġsc ar
Ġsc an
Ġsc rapped
red ient
ĠIn u
ĠIn cent
ĠIn itially
ĠIn conel
unn er
In f
In novation
In itial
ag an
te mpting
Ġhel o
Ġhel met
Ġsaf eg
Haha ha
Ġspace faring
Ġfin ance
Ġhum idity
Pro pellant
Pro bability
Ġtw in
Ġtw itch
ph ot
ph ere
Ġrep lic
Ġrep orters
Ġrequ esting
ĠAut o
ĠAut opark
ĠAut onomy
Ġafter wards
Ġend urance
Ġend eavor
ced es
pect or
Ġcons ensus
Ġcons pir
Ġproblem atic
ell ow
Ġins ult
Ġins pected
ĠSuper Draco
Ġmass ively
Ġdis able
Ġdis order
Ġdis ruption
Ġdis asters
Ġdis abled
ĠCh ris
ĠCh inese
Not ed
ex p
Ġgr ace
Ġgr anted
Ġgr oups
Ġtrans form
Ġtrans actions
az on
az or
ese arch
ĠWh eres
Ġpay roll
Ġless on
Ġlea f
Ġlast ing
Ġconf idence
Ġcontro vers
Ġhuman ly
Ġhuman oid
reci ate
Ġent it
Ġent ers
Ġent omo
Ġent repre
ĠSh e
ĠSh ell
ĠSh iba
ĠSh inse
ĠSh uttle
Ġgener ally
Ġgener ations
co v
co very
co bar
co conuts
ition ing
Ġjo int
Ġappro ving
Ġdrive train
ib ody
li pping
Ġgu ardians
Ġgu illotine
ĠK en
ĠK ong
ĠK ind
ĠK ai
ĠK inda
ĠK erbal
ĠK athy
ĠK orolev
Ġimportant ly
Ġpublic ation
Ġref urb
Ġref ined
Ġcl othing
ĠNo body
ĠCo vers
64 00
ope z
Ġcap abilities
Ġsec ured
Ġsec rets
Ġtax i
uck y
ason ic
Ġregul arly
Ġsk in
Ġsk yscra
Ġinv asion
Ġz o
Ġman if
Ġdep ot
Ġdep os
Ġdep ressing
Ġbas es
Ġind ex
Ġind irect
Ġind epend
Ġind istinguish
Ġsim ulate
For ward
For got
Ġbr and
Ġbr ings
ĠPro duct
ĠPro totypes
wh ite
Ġperson ality
Ġhour ly
Ġvol umes
Ġvol umetric
ĠRe view
ĠRe ason
ĠGiga factories
Ġfla g
Ġfla w
Ġfla re
Sh ort
Sh eer
Ġbo oms
Ġdire ctions
Ġstr ing
Ġstr ident
Ġautom ated
Ġautom ob
ĠY elp
Ġpass eng
On line
aut hor
io logy
Ġris ks
Ġdec ides
Ġir rational
Ġrem edy
Ġsub sections
Ġsub lime
Ġclear ance
Ġread s
und ers
Ġside ways
dd ed
Ġbad ly
Ġhalf way
Ġcare s
Ġcare less
Ġplay er
Ġton nage
Ġstand point
iven ess
ict ion
Ġmove ments
Ġfav ors
pr ising
pr imarily
arn ings
Ġcomb ination
Ġturn around
Ġbl ower
Ġatt end
Ġatt itude
Ġhead lights
Ġdon or
Ġdon ations
Ġac adem
Ġdet erm
Ġfl ash
Ġfl ux
Ġsing ing
Ġtry in
Ġdifficult ies
line ar
Ġhot els
Ġexpect s
Ġexpect ations
ĠRo gan
Ġbuy able
av a
Ġreview ing
Ġzero es
Ġhold ings
Ġdro ids
ĠSo on
ĠSo ci
ĠSo viet
Ġfalse ly
Ġcreat or
Ġcreat ors
Ġox id
Ġoptim ize
Ġoptim izing
Ġbar rier
Ġgra in
Ġgra il
Ġrest ore
Ġstre ams
Ġstre aks
Ġcomm ands
Ġclos est
Ġinvest igated
ĠUn real
ention ally
ĠComp lex
Ġsell s
Ġsell ers
ĠPower pack
ĠPower packs
Ġdirect ive
ĠZ en
Ġfind s
Ġmach ining
Ġhand les
ĠSe ason
ĠSe emed
Ġrad i
Ġview ed
Ġdisc ord
Ġdisc ourse
ob omb
ird ly
Ġmain stream
zz y
Ġslow ing
lock s
Inter view
Ġanal og
Ġneg ligible
Ġleg acy
Ġfail ing
Ġfail ures
As imov
Act ive
Act iv
Ġpres erve
Ġaccess ible
ether ed
Ġnon etheless
ĠHe at
Ġann ounced
Ġtravel ed
Ġdifferent ly
ouch e
Ġeffect s
Ġform al
Ġstock s
Ġprec aution
Ġdest ruction
Ġprogram ming
Ġtank ers
Ġsun set
Ġwin ner
Ġmark eting
Ġprop osed
ĠEuro pa
Ġsn eak
Ġflow s
Ġcheck ing
Ġcheck ed
Ġtough er
Ġfollow ers
Ġinf ect
Ġinf inite
Ġinf otainment
Ġemp irical
Ġcold er
ĠWould n
Ġexist ed
ĠDe ath
ĠDe velop
ĠDe aler
ĠDe cember
Ġfunction al
Ġinstall s
Ġinstall ing
Ġinstall ers
po ints
ĠAl chem
cept ible
ĠFr ame
ĠPowerwall s
cr acker
Ġed ges
Ġed uc
Ġfil ing
Ġrel ativ
Ġequ ator
Ġequ ival
Ġeconom ically
Ġlaw yers
Ġfri ed
Ġbre aking
Ġcause way
Ġmess ing
ĠAm ish
ĠAm sterdam
ĠAm azon
Ġshield s
ĠEx cl
ĠEx cellent
ĠStar fleet
Ġrecord s
Ġmer ge
Ġline ar
Ġel im
Ġel igible
Ġaddress es
Ġconfig s
Ġbase ball
Ġmod s
Ġmod ify
Ġmod ules
Ġmod ified
Ġorig in
Ġsus ceptible
Ġtonight s
Me in
Me an
Ġut ilities
roll ed
Ġoffer ings
Ġult rason
Ġramp s
ĠGo T
Ġcrash es
Ġcrash ed
Ġprovid es
Ġatte mpts
ĠNY C
Ġmeant ime
Ġavoid ed
Ġachieve ment
Ġpure ly
Ġlist en
Ġlist ening
Ġlist ened
Ġass ets
ĠHigh er
ĠHigh est
Ġpred icting
Ġcor por
Ġpop ulated
icul arly
ĠMon ica
ĠMon opolies
Ġconnect s
Ġconnect or
Ġconnect ors
Ġtransport ing
Ġcyc list
Ġnorm ally
Ġtrip s
Ġdemo cr
Ġlead s
Ġide ally
Ġfig ured
Ġprof its
ĠAr ctic
Ġcode c
Ġmaxim izing
Ġmaxim izes
De us
pro ductive
Ġsched ules
Ġfall s
Ġdig its
Ġhon est
Ġtrick ier
Ġmagn et
fford able
Ġminim um
Ġguess ing
Ġannounce ments
Ġthrot tles
Ġmill ed
Ġrender ed
Ġele ction
ĠImp roved
ĠImp rove
ĠImp robability
Ġcat ast
Ġcat girl
Ġpath s
Ġdanger ously
ĠSp y
ĠPh otos
undred s
Ġpredict ed
me ant
Ġign iters
ream ing
Ġwar p
Ġcur bs
Ġhor ror
Ġhor izon
Ġprom ise
Ġcharg es
Ġcontract ing
Ġpresent ed
PA P
rel ated
Ġbill s
Ġchar ity
Ġchar iot
Ġphot ons
Ġphot obomb
ew el
ew able
Ġadvert ised
Ġadvert isers
Ġquarter ly
Ġreport ed
mak er
mak ers
yr us
Ġill usion
Ġflo ats
Ġge ostationary
Ġdock s
Ġheart warming
Ġplant ed
ĠJo aqu
Ġaccident al
Ġaccident ally
Ġstrange ly
App ears
App lies
App arently
Ġcut s
Ġcut ting
Ġcorn ers
Ġfi xtures
Ġfore st
enge ance
Ġrout es
Ġrout ine
ĠBl vd
ĠDay Quil
Ġbreak fast
can cel
Ġfre sh
Ġped als
Ġstra in
Ġweld ing
Ġweld ed
ĠBro oks
ĠHard core
Ġloss es
Ġadjust s
Ġpublish ing
Ġpublish ed
Ġsubsid y
Giga factory
Ġtor ch
Ġball oon
ĠSer iously
Ġdead ly
ĠBo x
Ġwrit er
Ġwrit ers
Ġsumm arizes
Hard core
cle aning
Ġwild ly
Ġwild fire
Ġwild fires
Ġinform ed
ams es
ĠAd am
ĠAd ela
ĠAn swer
ĠHa ving
ĠHa iti
ios hock
por ter
Ġtit les
Ġsch olarship
Ġsil k
Ġsil ence
ĠCould nt
Ġrot ate
ĠPl ace
Ġupload ed
Ġoffic ers
Ġsurv iving
Ġwal king
Ġpe gging
Ġtow ing
Ġtow ers
Ġearn ed
Ġforg etting
ĠMar ques
Ġexternal ity
Ġjud ging
Ġjud gment
ĠBe en
ĠBe ij
ĠDa vid
ĠDec entralized
Ġunc ooled
Ġinsp ire
Ġapprox imate
Comp etition
Comp ilers
ker osene
sc ope
sc ale
Ġcounter act
Ġhur ts
Ġbeha ve
Ġbeha ving
Ġenc losed
Ġmag ical
Ġintern ational
Ġimm un
Ġtechn icians
Ġtemperature s
Ġattach ments
Ġcriticism s
Ġfrequ encies
Tech n
Ġcla iming
Ġpict ures
ĠMax well
ĠMax imizing
Ġproject ing
Ġshif ted
ument ary
ĠLo an
Ġune mployment
Ġscal es
Ġinsan ity
Ġreflight s
Ġsimpl est
Ġremain ed
Ġaccept ed
Amazing ly
Ġefficient ly
Big gest
Pl ace
Pl us
Qu ite
cl uding
power ed
Ġest imated
Ġtall er
Ġaware ness
Ġsqu ared
Ġanten nas
Ġiter ations
ĠCl arke
ĠGPU s
Ġresult ing
Ġsuppli er
Ġimag ined
Ġimag inary
Ġlaws uit
Ġlaws uits
Ġpurch ases
cel and
Ġfat ality
Ġden ying
Ġinvent ory
Ġglad ly
Ġweak ness
Ġadvance ments
Ġsecret ly
Ġobs c
Ġine ffective
Ġang el
Ġang les
sell ing
sell ers
ular ity
ĠFe ature
Ġjump ing
ĠGod father
izont ally
Ġcontrib ute
Ġcontrib uted
Ġquiet ly
Ġrepres ents
Ġcollect ors
Ġabsor bed
ĠJohn ny
Ġmaintain ed
Ġevol ve
En tertainment
Sim ulation
Sim ulations
aper work
Ġscient ist
Ġbla st
Ġpet ition
Ġgear ing
ĠMont real
Ġexec utive
Ġseal ed
Ġdele ting
ĠPr incess
ĠPan a
ĠPan asonic
ĠRUD s
Ġmonop olies
Ġspl itting
Ġspin ning
Ġresp ond
Ġreser ve
Ġpowert rains
Ġconsist ently
Ġdiscover ies
Ġmanage ment
Ġprotect ing
Con struction
Current ly
Le asing
Read ing
pre ad
Ġsort ed
Ġcaut ion
Ġmix ed
Ġpattern s
Ġda wn
Ġdiv ision
Ġhang ing
Ġhang ar
Ġrepe ater
Ġeat en
ĠIC E
ĠIC U
ĠMin nesota
Ġvot ers
ĠHer z
Ġpoll s
Ġpoll en
Ġmeg atons
ĠGerm an
Ġscam mers
Ġtwea king
Ġdownload ing
Ġdownload ed
Ġindic ate
Ġindic ator
Ġspecific ations
Ġbroad er
Ġresearch ers
Part y
cis co
Ġter restr
Ġfold ed
Ġmicro verse
Ġmaneu vers
Ġhar ass
Ġgar ages
ĠSign ificant
Ġstat us
Ġstick er
ĠMan aging
ĠMass ive
ĠAct ual
ĠCount down
Ġoverr ated
Ġconte mpt
Ġexpand ed
Ġbelie ved
Ġcommit ment
ĠNYT imes
Ġrevolution ary
Ġrecogn ize
Ġsucceed ed
Ġirrele vance
Mass ive
Nu clear
Open AI
PC s
Tot al
Ġsle ep
Ġsick kk
Ġfac ility
,". ,
Ġdin er
Ġdin osaurs
Ġincon el
Ġincon sistent
Ġgun point
ĠMun ger
Ġrum ors
ĠRock s
Ġpreburn ers
ĠVan cou
Ġaccur ately
Ġinterse ctions
ĠInst a
Ġsuperall oys
Ġendorse ment
Ġexperien cing
ĠParad ise
Found ation
Russ ia
Sun day
bor g
bor hood
bed o
lud ing
Ġtreat ed
Ġthreat s
Ġwast ed
Ġcook ies
Ġfill ed
Ġpull s
Ġinject ors
ĠSw eden
Ġenem ies
ĠWar ren
Ġalgor ithms
Ġchoo se
ĠGu aranteed
Ġunus ual
Ġlaugh ing
Ġintention al
Ġaccumul ating
Ġaccumul ator
Ġresidual s
Ġtransp arent
Ġdepart ure
Ġmanufactur er
Ġunequiv ocal
Ġbullet proof
Ar ticle
Gas oline
Min or
Pay Pal
hour s
satell ites
Ġthrow ing
Ġmor al
Ġearth quake
Ġstri pped
ĠAsh ok
ĠCont in
ĠCont rol
Ġenjoy ment
Ġshr oud
ĠBrit ain
ĠHel p
ĠDef ense
ĠEs cobar
Ġcho ked
ĠRad ar
ĠUlt ra
ĠUlt imate
Ġactiv ated
Ġregard less
Ġmiss ile
Ġinspe ctions
Ġrefine ment
Ġsubst itute
Ann ounce
Ann ouncing
Ġiniti ated
Ġiniti ating
ĠExc ited
Ġconfigur able
Frank ly
Ġpeace ful
Ġnarrow er
Ġproportion ately
Odd s
Sad ly
bet a
sour ce
sour ced
Ġwom an
Ġcow bell
Ġmar iach
Ġpla stic
Ġpatch y
Ġtoile ts
Ġdom ain
Ġdream s
ĠInt ense
Ġstaggering ly
ĠAri el
Ġhaz ards
Ġtri ppy
ĠWon der
ĠWest world
ĠHell o
ĠRom ance
Ġcompla ining
Ġtext ured
Ġadm ired
Ġadm iration
Ġreson ate
Ġresol ved
ĠInter planetary
Inst agram
Ġadvis or
ĠRec ords
ĠRob in
Ġconstit u
Ġrelent less
ĠBlack rock
Ġencounter ing
Ġlobby ist
Ġlobby ists
Ġcitiz ens
Ġtelesc ope
Ed gy
Fe ature
Ide ally
Mem e
Mem es
Prom ising
Sw eden
Ton nage
Watch ing
dy ne
pass word
ray ed
sw ers
Ġwip er
Ġwip ers
Ġbare ly
Ġbureau cr
Ġbureau cracy
Ġcig arette
Ġgent le
ĠSim ilar
ĠSound cloud
Ġuh h
ĠIR S
ĠMult i
sequ ences
ĠFree way
ĠBuild ing
ĠPot entially
ĠPol icy
Ġchamp ion
ĠLimit ing
ĠOper ating
ĠJon ah
Trans parent
ĠItal y
Ġretire ment
ĠQue ens
Ġacqu ired
Ġpriorit izing
Supercharg er
Supercharg ers
Ġconvenient ly
Cl imate
Dis ney
Detail s
Ent ropy
Euro pe
Gwyn ne
Ren ewable
Rad ar
Sens ors
Trag ic
Tues day
comb ustion
fla ps
Ġing redient
Ġtyp ical
Ġcy linder
Ġpist ons
Ġdim ension
Ġdise ases
Ġlb f
alop nik
Ġgard en
Ġgend er
Ġvig il
Ġdoc umentary
ĠBlo omberg
Ġsuff ers
ĠHit ler
Ġliber ty
ĠRen o
Ġpock ets
Ġpret ending
Ġadmit ted
Ġbub ble
Ġbud get
Ġunne cessary
ĠOffic er
Ġlept on
ĠVeloc iraptor
Ġunderest imated
Ġrecru iting
ĠAutom ation
Ġdelight ful
Ġobt use
Ġmanag er
ĠZee v
Ġpromin ent
Upd ating
Ġjudic ial
Comple tely
ĠTechn ocracy
Ġviol ence
Success ful
Ġsubstant ially
Ġinfluen ced
Ġcomplac ency
Ġcounc ils
Ġsudden ly
Ant i
Br andenburg
Bel ieve
Crypt ocurrency
Limit ed
Plan ning
bru gge
count ry
comm unication
Ġque ue
Ġtick et
Ġsan ctimonious
Ġswe at
Ġthor oughly
Ġbul k
Ġfle w
Ġpsy ch
Ġdi apers
Ġinver ter
ĠSon ata
ĠSimp ler
check ed
laus ible
ĠMich ael
Ġneigh borhood
urch ill
ĠBost on
ournal ist
Ġallev iate
ĠNon etheless
ĠPU C
ĠDoub t
ĠEg gs
ĠStone cut
Ġpreval ence
Ġarbit er
ccup y
Weld ed
Ġoverst ated
ĠVirgin ia
Ġprivile ge
Ġdesert ed
ĠJer sey
Ġintub ation
Ġknuck lehead
Ġsupplement al
Ġairlin ers
Ġphilosoph y
Ġappropri ate
Ġsurg ery
Ġzomb ie
Ġvolcan o
Ġflood ed
Ġhotsp ots
ĠRoad sters
Ġstret ch
Ġautogen ous
Ġdisclo sure
ĠAtmosph eric
ĠFran cisco
Ġexception ally
ĠSerb ia
ĠClub house
Ġpremi ere
Ġhypoth esis
Resp awn
syndical ism
Tele metry
ĠColor ado
Expla ins
Ġsatisf ying
Ġrigor ous
Ġsacr ific
Ġextinguish er
Americ an
Bec oming
Col onizing
DK E
Jer ome
Karm a
Ly ft
Mess age
Natr lich
Person ally
Rock ets
Sur prising
Simp le
Typ ing
Ult imately
Ye zz
pie ce
Ġwond ering
Ġwides pread
Ġbund led
Ġbaff les
Ġcub ic
Ġflic ker
Ġmids ize
Ġpse udo
Ġpap yrus
Ġpian o
Ġhopef ul
Ġleav es
Ġgest ures
Ġredd it
Ġrevers ed
Ġrebut tal
ĠTil burg
ĠTach eles
ĠSmo king
ĠSinc lair
ĠSkyn et
Ġanec d
ĠITA R
allur gy
alloc ate
Ġstimul us
ĠMod ern
Ġprobab ilities
Ġrif le
Ġmodu le
Ġcoax ial
Ġcofound er
ĠCamer on
ĠCroat ia
Ġenrout e
Ġtraged y
ĠWuh an
Ġalco hol
ĠNether lands
ĠNTS B
ĠPok mon
ĠPasad ena
ĠElect rek
Ġkitch en
ĠGats by
ĠGhis laine
ĠGulf stream
Ġmyster y
Ġplumb ing
Ġuncomp eted
ĠOsc ar
Ġoverzeal ous
ĠVang elis
achell a
Ġquarant ine
Ġresident s
Ġsympath ies
Ġrecalib rate
nevit ably
Ġsafeg u
Ġconspir acy
Ġcontrovers ial
Ġentrepre neurs
ĠShinse ki
Ġskyscra per
Ġindepend ently
Ġindistinguish able
Ġautomob iles
Ġpasseng ers
Ġacadem ia
Ġprecaution ary
Ġrelativ istic
Ġequival ent
ĠExcl ude
Ġcorpor ation
ĠJoaqu in
ĠAdela ide
ĠBeij ing
Ġterrestr ial
ĠVancou ver
Ġmariach i
ĠStonecut ters
Surprising ly
% ),
) /
+ "
, !
, /
, !!
. )"
1 70
2 70
2 45
2 29
3 10
3 14
3 78
3 72
3 20
4 000
6 30
9 11
? )
? ""
? """
A im
A mb
A sh
A ug
A round
A lex
A argh
A RR
B A
B G
B I
B lo
B iz
B ach
B ern
B rain
B ox
B TC
B esides
B irds
B lame
B ioshock
C A
C B
C O
C S
C T
C y
C al
C ut
C ars
C ore
C ats
C ount
C atch
C ause
C ertain
C eres
C amer
C ute
C ross
C razy
C andy
C omb
C ouple
C Sat
C inn
C IS
C ulture
C NN
C eph
C ivilization
D L
D P
D es
D en
D el
D ad
D am
D ance
D ens
D ang
D ank
D ark
D uck
D uring
D ata
D ec
D ave
D ouble
D une
D umb
D oub
D roid
D roneship
D iess
D istance
D IA
D igital
E E
E F
E G
E w
E mp
E ach
E ffect
E ye
E asy
E lection
E thereum
E pic
F A
F F
F L
F P
F W
F l
F ro
F am
F ast
F ree
F ord
F ri
F ail
F ates
F eed
F ocus
F AA
F remont
F ederal
F TW
F EA
F SC
F innish
F ossil
G M
G ent
G ra
G ave
G av
G eor
G oogle
G odspeed
G ateway
H h
H or
H as
H el
H am
H are
H ang
H ash
H ub
H istory
H ospital
H ype
H yd
H alo
H onored
H ydrogen
H OP
H enry
I O
I W
I r
I ll
I ronic
I celand
I DIA
J o
J et
J alopnik
K ing
K ey
L C
L R
L u
L at
L ab
L ate
L ie
L ower
L oc
L ane
L arge
L aw
L og
L ength
L ondon
L OX
L aren
L ori
L ittle
L ifting
L mpe
L amin
M I
M ar
M ont
M ich
M ount
M ath
M ail
M eg
M ech
M egap
M edia
M inecraft
M CU
M asters
M PG
M anganese
M ilad
N K
N V
N an
N et
N ine
N ich
N ational
N av
N BC
N HTSA
N ano
N ER
N intendo
O E
O M
O T
O b
O wn
O ffic
O pposite
O berth
O ccupy
P E
P c
P en
P op
P ace
P ort
P ain
P ull
P ress
P ick
P eng
P ushing
P ython
P rav
P enn
P aint
P olytopia
P osting
P aperwork
P lausible
Q L
Q ue
R E
R a
R ound
R ange
R os
R ex
R ear
R ather
R aw
R unning
R iding
S P
S a
S k
S n
S ig
S ir
S il
S ound
S end
S ix
S atell
S po
S LA
S wear
S ooo
S RP
S ingapore
S arah
S agan
T T
T i
T in
T ow
T ent
T est
T ough
T anks
T ons
T ri
T ank
T exas
T iming
T imes
T iny
T roll
T eam
T rick
T orch
T ouched
T illerson
T ricky
U t
U ber
U SA
V is
V ar
V al
V ast
V andenberg
V ehicle
V enus
V oters
W M
W u
W ar
W ut
W ings
W ake
W oke
W ik
W inter
W atched
W ords
W inds
Y a
Y er
Y ikes
Z ero
Z eroth
a ac
a ven
a ited
a ires
a ops
a argh
b en
b ac
b ay
b ul
b ide
b oth
b row
b les
b ying
b uck
b cast
b asically
b atteries
c ro
c ars
c are
c up
c urrent
c ape
c ute
c iful
c olm
c lick
c reation
d s
d or
d ro
d im
d est
d ers
d ard
d rag
d ead
d efinitely
d iam
d og
d emand
e k
e at
e le
e ve
e ur
e us
e ven
e lect
e lectric
e mpt
e yes
e fficiency
f ess
f ts
f ree
f ins
f its
f ake
f ollow
f rees
f omo
f ection
g ar
g ly
g am
g ust
g un
g ia
g ments
g ative
g lass
g uably
g rained
g mt
h in
h at
h en
h st
h all
h ous
h ams
h ards
i q
i ors
i ang
i ert
i ots
i ques
j k
j est
j ewel
j ournalist
k al
k le
k Wh
k lif
l m
l n
l q
l ig
l est
l ant
l ated
l ery
l arge
l acing
l ithium
l usion
l sc
l enn
m T
m g
m is
m ar
m al
m ere
m ate
m and
m able
m odel
m any
m ount
m ult
m ile
m oney
m illion
m und
m ax
m ored
m usic
m aterial
m iology
n m
n nt
n ament
n acks
n he
n ado
o or
o lo
o em
o ci
o ft
o ber
o ying
o oting
p ure
p od
p ending
p aid
p rot
p uff
p acked
p arents
p ressurized
r v
r in
r ad
r am
r ial
r ification
r angers
s in
s ars
s ome
s qu
s ens
s low
s uring
s ives
s ometimes
s ides
s land
s cheduled
s lanted
s imilar
s nacks
t t
t or
t ent
t un
t ine
t ough
t ol
t ically
t ank
t led
t ires
t ien
t lich
t bd
t aken
u in
u is
u ce
u ice
u ous
u ced
u ition
u cr
u clear
v a
v s
v y
v ard
v ations
v ak
v ative
v ian
v ator
v ince
v antage
v ival
v oted
w in
w on
w ar
w ind
w orth
w atched
w agon
w tf
x on
x iety
y z
y re
y al
y ay
y nd
y our
y pt
y ric
y aw
y po
y ards
y uz
y Torch
z a
z os
z lich
Ġ q
Ġ |
Ġ ip
Ġ king
Ġ ero
Ġ icing
Ġt as
Ġt ut
Ġt ill
Ġt ur
Ġt act
Ġt ens
Ġt urre
Ġt ik
Ġt ents
Ġt iki
Ġt bd
Ġt ypo
in i
in x
in er
in ct
in ish
in ition
in ters
in formed
in formation
in vasive
Ġa er
Ġa ce
Ġa qu
Ġa ff
Ġa ug
Ġa haha
Ġa aargh
er b
er re
er ks
er able
er ont
er ated
er mon
er ates
er vation
er amic
on n
on ent
on el
on ia
on oke
on nage
Ġs in
Ġs ou
Ġs am
Ġs and
Ġs lo
Ġs ci
Ġs ets
Ġs ought
Ġs tern
Ġs orts
Ġs ides
Ġs igs
Ġs iq
re p
re du
re ak
re view
re ased
re lla
Ġth y
Ġth um
Ġth orn
Ġth rown
Ġth ermon
Ġw it
Ġw ight
Ġw and
Ġw ard
Ġw ound
Ġw elf
Ġw ird
Ġw ages
Ġw izard
es ter
es us
es ide
es os
es pite
or f
or al
or ant
or ial
or ating
or ient
Ġb ic
Ġb ow
Ġb ast
Ġb ound
Ġb end
Ġb ore
Ġb ark
Ġb less
Ġb acking
Ġb ike
Ġb ios
Ġb urd
Ġb rick
Ġb orrow
Ġb eside
at o
at on
at oo
at ts
at ible
at ient
at me
at ified
at uration
at ulate
at oes
Ġc ere
Ġc ure
Ġc iv
Ġc row
Ġc li
Ġc uff
Ġc yn
Ġc oup
Ġc rown
Ġc inematic
Ġc uis
Ġc eramic
is a
is in
is ie
is ol
is ible
ing ton
Ġf ro
Ġf ad
Ġf ir
Ġf ol
Ġf ont
Ġf ines
Ġf ron
Ġf reed
Ġf its
Ġf uss
Ġf illing
Ġf aint
Ġf etch
Ġf umes
Ġf asc
Ġf inger
Ġf riction
Ġf lipping
ou ken
ou fla
it t
it ol
it able
it ations
it ics
it ized
it av
it ivity
it zer
it arian
it utional
it Hub
en ess
en ish
en oid
en cing
en viron
en stein
Ġm ch
Ġm ate
Ġm ich
Ġm ash
Ġm ural
Ġm ouse
Ġm ush
Ġm imes
Ġm arch
Ġm outh
Ġm arks
Ġm amm
Ġm atrix
Ġm anganese
Ġm gmt
ll ect
ll ison
ar ate
ar king
ar cy
ar ters
ar ios
ar itav
an us
an uj
an Techn
Ġp i
Ġp p
Ġp ing
Ġp ard
Ġp our
Ġp ess
Ġp ont
Ġp ause
Ġp ax
Ġp ouch
Ġp ages
Ġp ulse
Ġp eeling
Ġp apers
Ġp izz
Ġp aired
Ġp eeks
Ġto wn
Ġto ys
Ġto dd
Ġto ken
Ġto wns
Ġto bac
Ġo ven
Ġo be
Ġo dor
Ġo lig
Ġo mg
Ġo atme
," $
," &
ed ed
Ġd u
Ġd y
Ġd op
Ġd ab
Ġd ra
Ġd ated
Ġd iving
Ġd ank
Ġd ragon
Ġd ates
Ġd uck
Ġd raft
Ġd ug
Ġd ump
Ġd wee
Ġd ressed
Ġd ancing
Ġh r
Ġh et
Ġh all
Ġh ea
Ġh one
Ġh ack
Ġh oc
Ġh atch
Ġh ost
Ġh ero
Ġh its
Ġh eres
Ġh acking
Ġh ollow
Ġh ub
Ġh oop
Ġh itch
Ġh acks
Ġh ired
Ġh og
Ġh oses
Ġthe e
Ġthe aters
Ġthe ories
Ġthe orists
Ġl amp
Ġl im
Ġl ap
Ġl ens
Ġl ions
Ġl ick
Ġl ending
Ġl ined
Ġl acked
Ġl ugg
Ġl umber
Ġl unar
Ġl mpe
Ġl ucr
Ġl yric
Ġl onel
mp or
mp le
ro g
ro ving
ro ying
ro ids
ro hm
ro dded
ro isie
st amp
st ate
st able
st ics
st eel
st atic
st opper
st ances
Ġin k
Ġin n
Ġin ch
Ġin ward
Ġin no
Ġis t
Ġis bo
Ġis lands
al a
al es
al se
al izing
al og
al rog
Ġn ur
Ġn ull
Ġn ick
Ġn ano
Ġn inj
ic ion
ic ant
ic ts
ic les
le xt
le ep
le ments
le vator
as et
as ant
as ional
ly mp
ly ss
Ġbe es
Ġbe lt
Ġbe gg
Ġbe eping
Ġbe eps
Ġbe jewel
ve mber
Ġg all
Ġg em
Ġg iga
Ġg amer
Ġg erry
Ġg alley
Ġg rown
Ġg rump
Ġg eront
ig m
ig an
ig ure
ac er
ac ro
ac le
ac ity
ac itors
Ġre form
Ġre pellant
Ġre wards
Ġre bo
Ġre veal
Ġre conf
Ġre think
Ġre allocate
amp oo
amp oline
ot ional
ot omy
et c
et ro
et ts
et ty
et te
et itive
et orical
ĠT I
ĠT w
ĠT y
ĠT om
ĠT ur
ĠT ef
ĠT ank
ĠT esting
ĠT urb
ĠT ract
ĠT aking
ĠT illerson
ĠT weets
ĠT SLA
ĠT atoo
Ġe ll
Ġe la
Ġe we
Ġe ons
Ġe yre
ill ation
Ġfor th
Ġfor ks
Ġfor klif
Ġfor tun
ĠS ing
ĠS ir
ĠS ea
ĠS lo
ĠS ide
ĠS em
ĠS end
ĠS ens
ĠS pect
ĠS urre
ĠS eg
ĠS ending
ĠS pl
ĠS ometimes
ĠS EO
ĠS andy
ĠS yd
ĠS wear
ĠS oul
ĠS aints
ĠS ledgehammer
ĠS CU
ĠS ingapore
ĠS QL
Ġon ion
om ad
om ination
om stick
ay ed
ct uations
ver ts
ver ted
ver sing
ent ing
ent ed
ent il
id el
id ating
id ency
id ences
id man
Ġu mb
Ġu mm
Ġu Wu
Ġu gly
Ġy ard
Ġy olo
Ġan on
Ġan ts
Ġan ach
Ġan ime
Ġan ger
Ġan imation
Ġan omal
Ġan swers
Ġan kle
ch ing
ch en
ch ach
ch arge
ch amber
ĠI ain
ĠI de
ĠI AC
ĠI ago
ĠI nevitably
ĠI HOP
ĠI rv
la b
all s
all ing
all ic
ad d
ad ed
ad ies
ad os
ad vanced
ad ouche
oo oo
10 46
im a
im um
im os
im istic
im ents
ter days
ter cup
Ġst d
Ġst ood
Ġst ain
Ġst ile
Ġst ating
Ġst acks
Ġst ages
Ġst amping
Ġst alls
th o
th en
th ly
th ats
th ose
th emed
ĠM N
ĠM ir
ĠM em
ĠM atter
ĠM ary
ĠM oney
ĠM iam
ĠM usk
ĠM useum
ĠM atrix
ĠM agnetic
ĠM IT
ĠM SRP
Ġwill y
Ġwh oop
Ġwh ims
se e
Ġthat ll
Ġwe ed
Ġne on
Ġne are
am on
am ity
am atically
am aged
am iliar
am anuj
ir s
ir ts
ir ited
ust y
Ġpro c
Ġpro pell
Ġpro hibit
Ġpro je
il ing
il ed
il ies
il ogy
il Eye
Ġwith stand
Th in
Th row
Ġr q
Ġr ap
Ġr ational
Ġr ake
Ġr uled
Ġr abies
Ġr usty
ĠA c
ĠA ero
ĠA ccess
ĠA greed
ĠA las
ĠA stron
ĠA spirationally
ĠA part
ĠA ston
ĠA PCs
ĠA lyss
op le
op ian
op las
op ods
op oly
est ic
est ions
ur f
ur st
ur able
ur ious
ur ative
ur ai
un a
un in
un es
un ct
un ts
un ft
un less
un ior
un can
if ree
Ġyou th
ab l
ab er
ab ity
ab ia
ab erg
Ġco s
Ġco ins
Ġco ding
ce ived
Ġha ir
Ġha ggle
ĠC J
ĠC r
ĠC at
ĠC am
ĠC reat
ĠC ha
ĠC ool
ĠC ath
ĠC apt
ĠC ather
ĠC aliforn
ĠC av
ĠC arm
ĠC irc
ĠC andy
ĠC ren
ĠC ycling
ĠC ouple
ĠC ertainly
ĠC umulative
ĠC entral
ĠC redit
ĠC NN
ĠC urry
ĠC argo
ĠC PAP
ĠTesla quila
Ġen force
Ġen suring
Ġat ten
pp ortun
pp iness
Ġsh it
Ġsh ine
Ġsh ore
Ġsh ame
Ġsh ake
Ġsh amed
Ġsh irt
Ġsh oe
Ġsh oes
Ġsh unt
Ġsh elter
Ġsh apes
Ġsh rub
Ġsh ampoo
ation ally
ate ful
ate vers
Ġtr on
Ġtr ig
Ġtr ies
Ġtr ib
Ġtr acing
Ġtr illy
Ġtr ampoline
Ġtr ilogy
Ġor g
Ġor ange
Ġor nament
Ġas so
Ġas cribed
Ġas pects
Ġas leep
ul as
ul ance
ul ved
ul ators
ul atory
ul itzer
Ġv it
Ġv an
Ġv ans
Ġv int
Ġv oid
Ġv irt
Ġv ested
Ġv tol
ĠW ing
ĠW ay
ĠW all
ĠW arth
ĠW ang
ĠW ider
ĠW ired
ĠW arning
ĠW ords
ĠW ait
ĠW oody
ĠW arnings
ĠW ARR
ge on
ant on
Ġdo ge
ck ling
Ġnot ification
ĠTh ous
ĠTh ai
ĠTh ames
ĠTh inking
ĠTh aic
Ġex its
Ġex empt
Ġse ven
Ġse ism
Ġse ams
Ġse ctor
Ġse hr
Ġse gment
Ġse gments
nt ax
um ina
Ġma il
Ġma jest
ity s
ĠF A
ĠF it
ĠF art
ĠF ore
ĠF light
ĠF ool
ĠF ish
ĠF low
ĠF ear
ĠF und
ĠF raz
ĠF lock
ĠF ollow
ĠF ortunately
ĠF inally
ĠF PS
ĠF ault
ĠF undamental
ĠF SW
ĠF unction
ĠF innish
ĠF FSC
ĠF alse
ĠF lext
ĠF aberg
Ġcon so
Ġcon vention
Ġcon ductive
Ġcon sequences
Ġcon vince
and father
Ġro ast
Ġro aring
Ġro ds
Ġde val
Ġde eds
Ġde comp
Ġde mented
Ġde ception
ard ian
ard ew
act ively
Ġj e
Ġj uice
Ġj unior
ĠB D
ĠB K
ĠB N
ĠB ad
ĠB ur
ĠB ong
ĠB unch
ĠB ach
ĠB urn
ĠB ang
ĠB os
ĠB ank
ĠB ak
ĠB att
ĠB elt
ĠB eaut
ĠB RO
ĠB ER
ĠB uilt
ĠB atteries
ĠB uggy
ĠB BQ
ĠB ioweapon
ĠB inance
ĠB onus
ĠB oost
ĠB reak
ĠB esos
ĠB alrog
Ġab ide
Ġab orts
Ġab dom
Ġab late
Ġab omination
Ġal arm
Ġal go
Ġal beit
Ġal bedo
Ġal kal
pe ople
ra int
ra form
ra ordinary
ra isin
Ġ( $
ss ue
Ġsu icide
od ed
od ity
our th
our ce
ess ing
Ġall eg
Ġall oying
ĠH z
ĠH es
ĠH or
ĠH ill
ĠH ong
ĠH ack
ĠH ank
ĠH old
ĠH av
ĠH istory
ĠH itch
ĠH ung
ĠH idden
ĠH ills
ĠH AL
ĠH undreds
Ġli qu
Ġli ved
Ġli bert
ĠN G
ĠN O
ĠN Z
ĠN ick
ĠN ude
ĠN DA
ĠN ana
ĠN FT
ĠN erd
ĠP at
ĠP ut
ĠP un
ĠP ort
ĠP ain
ĠP ong
ĠP ink
ĠP os
ĠP ending
ĠP aid
ĠP eter
ĠP ump
ĠP ik
ĠP egas
ĠP ushing
ĠP oint
ĠP ossibly
ĠP yram
ĠP aint
ĠP eters
ĠP ete
ĠP asc
ĠP ressure
ĠP aine
ĠP rufrock
ĠP PE
ĠP ulitzer
Ġand roids
lo s
lo x
lo an
lo be
lo ying
per t
per formance
per iment
ĠD A
ĠD am
ĠD est
ĠD ue
ĠD one
ĠD ance
ĠD own
ĠD ys
ĠD riving
ĠD umb
ĠD umber
ĠD iess
ĠD ropped
ĠD odd
ĠD LC
ĠD OE
ĠD espite
ĠD arcy
ĠD uncan
ts y
ts ley
ĠE nt
ĠE ss
ĠE qu
ĠE mo
ĠE ach
ĠE up
ĠE vent
ĠE ST
ĠE pic
ĠE SL
ĠE instein
ĠE FF
ĠE tien
ĠE llison
ĠE tsy
Ġch op
Ġch ars
Ġch ak
Ġch imes
Ġch ains
Ġch ew
Ġch uggy
Ġch eeks
qu er
qu ence
imp act
imp ressively
ĠR O
ĠR T
ĠR V
ĠR at
ĠR ust
ĠR ive
ĠR ace
ĠR ain
ĠR us
ĠR ich
ĠR ors
ĠR ated
ĠR iver
ĠR ush
ĠR Vac
ĠR andom
ĠR angers
ĠR eturn
ĠR unner
ĠR azor
ĠR esearch
ĠR amses
ĠR aven
ĠR amanuj
Yes terday
iv ated
iv ial
Ġpo ems
ain ted
Ġcomp are
Ġcomp art
Ġcomp ress
Ġcomp os
Ġcomp ressing
ap ing
ap ult
ap acitors
ong es
ong lass
are ly
Ġme mer
Ġme ets
us etts
Ġup s
Ġup hill
Ġup voted
ĠSt ore
ĠSt ory
ĠSt ock
ĠSt ops
ĠSt raw
ĠSt rong
ĠSt reet
ĠSt alin
ĠSt anton
ĠSt ardew
Ġgo at
Ġgo lf
Ġgo vts
ast y
ast ic
ast ero
Ġye ll
Ġk g
Ġk ilot
Ġk ale
art on
Ġte ach
Ġte asing
ire ctor
Ġimp arted
Ġimp ossibly
Ġimp lications
Ġimp lying
Ġimp lement
Ġimp oses
Ġimp lant
ĠG F
ĠG G
ĠG es
ĠG as
ĠG ive
ĠG any
ĠG ree
ĠG ets
ĠG ates
ĠG und
ĠG iant
ĠG ives
ĠG lass
ĠG AA
ĠG onna
ĠG ene
ĠG round
ĠG rid
ĠG rey
ĠG alact
ĠG host
ĠG arf
ĠG inger
ĠG uns
ĠG ravity
ĠG lenn
ĠG itHub
ĠG rohm
ĠG lobe
ĠL C
ĠL J
ĠL R
ĠL and
ĠL ine
ĠL ord
ĠL iving
ĠL ag
ĠL ex
ĠL ets
ĠL eak
ĠL anding
ĠL ithium
ĠL ength
ĠL ued
ĠL atest
ĠL TE
ĠL uc
ĠL ander
ĠL GBT
ĠL iftoff
ĠL opez
ĠL ucky
ĠL EG
ide miology
ol ition
ol ences
Ġmore over
Ġwould a
Ġfe ll
Ġfe as
Ġfe et
Ġfe llow
Ġhe ck
Ġhe aling
Ġpre z
Ġpre ced
em on
em an
em olition
Ġout age
Ġout ward
Ġout board
Ġno is
Ġno ble
Ġno vel
Ġcom ic
iz ona
ign ed
Ġlo re
any e
ist o
ont ent
ci ating
ci ates
hip s
19 92
76 00
Ġpl acing
Ġpl edge
Ġpl ugs
ass uming
The ir
ff iti
ous ines
Ġbet rayed
con cept
con duct
mo on
mo ving
mo ons
mo idal
Ġany place
Ġrock y
Ġad ap
Ġad min
Ġad hes
Ġshould n
20 12
20 11
20 50
Ġbu ys
Ġbu oy
Ġbu ckling
pt ember
Ġus ual
Ġus ern
Ġun ions
Ġun ident
Ġun ob
Ġun pro
Ġun important
Ġun stable
Ġapp s
Ġapp arent
Ġapp arently
so on
so ftware
46 00
cc asional
ich otomy
ĠU m
ĠU sed
ĠU RO
ĠU Penn
Ġhard ly
ĠO p
ĠO cean
ĠO uter
ĠO bel
ĠO CIS
ĠO pportun
Ġwork er
light ly
Ġla ir
Ġla wn
ind ed
Ġact uation
Ġthere ll
ven ge
Ġle ver
Ġle aning
Ġover est
Ġover val
Ġover night
Ġover ste
Ġover weight
Ġover kill
Ġsa uce
Ġta pping
Ġta ils
Ġta unts
Ġdr ied
Ġdr ug
Ġdr inks
Ġdr ift
Ġdr ifting
Ġdr ugs
ĠV P
ĠV W
ĠV on
ĠV os
ĠV ision
ĠV oice
ĠV ias
ĠV olume
ĠV ader
ĠV engeance
ĠV entil
be an
be ard
be yond
Ġpr one
Ġpr ide
Ġpr izes
Ġpr ison
ach ute
ach usetts
Ġinc orporate
ber y
ber ry
ber ries
int iff
Ġdes k
Ġdes perate
Ġdes aturation
oth ermal
ĠJ B
ĠJ J
ĠJ en
ĠJ ul
ĠJ our
ĠJ ens
ĠJ ord
ĠJ ason
ĠJ unk
ĠJ ee
ĠJ ava
ĠJ esus
Ex pect
Ex cess
Ġwhich ever
ud es
ud ed
ors hip
Ġint ellig
Ġfa ux
Ġcont ains
Ġcont ainment
Ġcont amination
Ġsp ine
Ġsp ool
Ġsp ark
Ġsp ann
Ġsp awn
Ġsp iced
Ġsp ray
Ġsp onges
own ed
Ġ% +
Ġ% ),
arg ate
Ġqu al
Ġqu ant
Ġqu alif
Ġsol enoid
Ġam mo
ric ane
ric ted
Ġnew sp
Ġacc ent
Ġacc us
Ġorbit ing
ru p
ru ciating
Ġway points
eth eus
Ġper nicious
ult rac
Ġreal ized
Ġreal istic
St ory
St anding
St ainless
St raw
St arlinks
St onk
St reaming
St rangers
Wh arton
gr ading
Ġkn ives
ens er
ens ation
You d
You ll
we gian
we irdly
Ġaut ose
Ġaut opark
Ġaut opods
ĠMars hm
kes model
ons ible
Ġsy ntax
Ġsy rup
ath on
ath ers
Ġinter im
Ġinter act
Ġinter ven
Ġinter val
Ġinter lock
Ġinter mit
Ġinter faces
Ġdesign ers
Ġspe wing
Ġloo ps
oc ris
oc ado
ile vel
ile ps
ang ed
ang le
ang ible
Ġback fl
Ġback dro
os h
os is
os en
Ġevery things
No v
No vember
Ġsupp osed
Ġunder wear
Ġunder lying
Ġpoint ed
Ġrec ap
Ġrec urs
Ġrec urren
Ġmin ed
Ġpu ppy
Good by
ne e
ne eds
Ġ$ /
ish er
ish ment
Ġsm ile
Ġsm ugg
Ġpart ying
Ġpart icle
Ġpart icip
Ġpart icles
Ġtheir s
up s
up erson
up grading
ri ers
Ġcost ume
Ġexp ort
Ġexp orts
Ġexp enses
Ġreg s
Ġreg ression
ĠEarth quake
bs id
Ġve ctors
Ġext ensive
Tr ack
Tr acking
Tr igger
ys ical
Ġcr acking
Ġcr anes
Ġcr anking
ĠNe uman
Ġfact oring
ĠX mas
ĠX Box
ual ity
Ġsc are
Ġsc rew
Ġsc orch
Ġsc arf
red ict
ĠIn co
ĠIn ternal
ĠIn vestigating
ĠIn formation
unn o
unn y
In side
In cluding
ag ine
Ġver ified
Ġver itable
iver ies
te ll
Ġair line
Ġair time
Ġair lines
Ġair flow
ick y
Ġfin er
Ġfin essing
Ġfin icky
ank en
ank ed
ank et
ank ind
Pro vid
Ġtw igs
Ġsuper intelligence
Ġsuper vision
Ġsuper conduct
ph one
ph ysics
ph ilosoph
Ġim bal
Ġopt ic
Ġopt ical
Ġrep ay
Ġrep lied
Ġrep rior
Ġrep aired
Ġrep roach
Ġrep urpose
Ġdown range
Ġdown force
Ġdown hill
Ġsystem ic
mer cially
ix ed
no x
no zzle
Ġmis led
Ġmis dia
Ġmis communication
Ġoff sh
Ġoff line
Ġoff ramp
Ġcons ume
Ġcons iders
Ġgen ius
old en
Ġfar ing
Ġph r
Ġph ara
Ġph osph
ell ows
Ġins uff
Ġcomple tion
ĠSuper intelligence
Ġmass es
Ġday light
Ġpress ur
Ġdis k
Ġdis bur
Ġdis app
Ġdis assembly
Ġdis gust
Ġdis similar
Ġdis charge
ĠCh e
ĠCh ief
ĠCh ecking
ĠCh ano
ĠCh urchill
ex port
ex pects
Ġgr at
Ġgr ant
Ġgr ind
Ġgr ateful
Ġdef y
Ġdef end
Ġdef inition
Ġtrans pl
Ġtrans crip
Ġtrans lu
Ġtrans late
Ġtrans porter
az ak
Ġdel icious
ific ating
ĠWh oop
ĠWh atevers
Ġbefore hand
Ġpay out
Ġlow s
Ġcle ars
Ġcle ans
ail s
ail ed
Ġlea p
Ġlea gue
Ġconf use
Ġconf lation
Ġconf used
Ġconf lates
Ġob st
ark nado
ane ously
Ġcool s
Ġsign icant
Ġent ropy
Ġshort fall
ĠSh er
ĠSh opify
ĠSh arehold
ĠSh oem
Ġgener ic
Ġgener ous
Ġgener ating
Ġgener ational
Ġgener ators
co vid
ak ed
Ġproduct ivity
ero gen
Ġdrive way
Ne ar
Ne ural
Ne ither
Ġret ain
Ġret ry
Ġret ail
Ġval ues
Ġval ued
ib l
ib us
ib bean
li ers
27 00
de g
mon y
Ġgu ity
Ġgu erre
Ġmax is
ĠK h
ĠK u
ĠK im
ĠK now
ĠK aren
ĠK ara
ĠK SC
ĠK och
ĠK ouri
ĠK apital
ĠK WM
ĠK azak
So le
Ġadv ances
Ġadv ancing
Ġref ly
Ġref lex
Ġref lection
Ġref uses
ĠDo om
ĠDo gs
ash ery
Ġcent s
Ġappreci ating
Ġappreci ative
Ġcl in
Ġcl ip
Ġcl oth
Ġcl imates
ĠIm agine
ĠNo bel
ĠCo king
ĠCo bra
ĠCo achella
ĠCo llect
52 00
Ġfair ies
Ġav ail
Ġav oids
Ġcap s
Ġcap ita
Ġgas es
Ġgas lit
Ġtax is
Ġtax ation
Ġextrem ism
Ġextrem oph
ron istic
Ġtal ks
Ġshow ers
Ġshow stopper
lin er
lin ks
lin son
Ġsk i
Ġsk et
Ġsk ies
Ġinv isible
Ġinv itations
Ġiss u
ĠJust ice
ear ning
Ġoper ative
Ġdep arted
Ġdep iction
Ġdep loying
vid es
Ġ"" :
Ġbas ilisk
Ġind iv
Ġind oor
Ġself ie
Ġmed s
Ġmed ically
Ġmed ieval
Ġopen ings
Ġsim ulator
Ġmet a
Ġmet allurgy
Ġbr id
Ġreus ing
Ġreus ed
Ġreus abity
Ġvis or
Ġvis ually
oun s
ĠPro ject
ĠPro gram
ĠPro vides
Ġplan ar
Ġplan isher
wh at
Ġfr ies
ĠRe lease
ĠRe leasing
ĠRe usable
ĠRe volutions
ĠRe volution
ĠRe versing
ĠGiga watt
val tine
Ġlook in
Ġfla med
Ġfla mm
Ġunt ethered
Sh es
Sh ock
Sh arknado
Ġbo yz
Ġstr ive
Ġstr atified
Pre paring
mor ous
ĠCan al
ĠY et
ĠY ay
ĠY ang
ĠY oda
Ġke bab
ond a
ond s
Re lease
Re cent
Re covery
Re watched
aut opilot
aut onomous
cess ing
Ġlight ly
Ġlight est
Ġlight bul
ider wee
Ġris king
Ġdec entralized
Ġdec orating
Ġdec ontent
gg ed
gg les
Ġrem ind
Ġrem inding
Ġsub mit
Ġwind break
An swer
An onymous
An archo
cond itioning
over paid
Ġmult ilevel
und ed
Ġbad ass
med e
med ia
ĠQ D
mpt ote
Ġcompet ed
Ġplay ability
All ows
SpaceX s
Ġ+ .
Ġ+ +,
ĠThere fore
ĠLA SIK
eak y
Ġpost s
Ġfav s
Ġregulat or
pr int
pr ise
Ġcomb at
Ġcomb ining
Ġtechno log
Ġtechno logies
Do g
Do or
Do gs
Ġbl end
Ġbl ush
Ġbl anket
Ġbra ins
Ġhead light
To ss
Ġdon ors
Ġhy per
Ġexper iments
Ġac cepts
Ġdet our
Ġyes terdays
Ġroof ing
eg ally
eg mark
Ġfl atter
Ġfl uff
Loo k
sh ell
sh adow
sh apes
sh irts
ĠSpace craft
Ġdevelop ments
They ve
Ġhot ter
Ġhot fix
Ġhot dog
Ġhot rodded
ĠRo gers
ĠRo yal
Ġprogress ively
Ġmultip ly
Ġreview ers
Ġvac ation
Ġforward ed
Ġgeneral ist
ĠFor b
not e
Ġcreat es
Ġcreat ivity
Ġcreat ures
Ġoptim um
Ġconsider ation
Ġconsider able
sp ine
sp ond
Ġcustom s
Ġcustom ize
Ġgra ffiti
Ġrest oring
Ġrest arting
Ġrest raint
Ġrest ricted
Ġcover ing
Ġconst ru
Ġcomm s
Ġcomm odity
Ġprior ities
Ġinvest igation
ommend ed
Al though
Ġsum s
stand ard
stand ings
ĠUn ity
ĠUn clear
ĠUn sw
ĠUn bound
ĠUn scheduled
wor ks
wor king
wor ked
Ġkind s
Ġkind ness
Ġkind ling
Ġacceler ator
Ġacceler ators
ĠComp uter
ĠComp uters
ĠComp atible
Ġcoll et
Ġcoll iding
Ġsell er
Ġsell able
Ġrecommend s
Ġcomplex ities
ug pl
ĠZ one
ĠZ eroth
ĠZ uk
Ġhand y
Ġhand ed
ĠSe at
ĠSe veral
ĠSe eing
ĠSe attle
Ġrad ios
Ġrad iate
Ġexc use
Ġexc ruciating
Ġdeal s
Ġdisc ern
Ġdisc ret
Ġdisc losed
Ġdisc reet
He at
He he
Ġbit te
Ġbit stream
Ġtruck ers
Should a
Ġsound tr
Ġhere by
Ġrun ways
Ġrob ocal
Some how
Ġdist ant
Ġdist inction
Ġdist illation
Ġste ep
Inter act
Inter nal
Inter sections
Ġsal ary
ĠSolar is
Ġcritical ity
Ab ort
Ab ility
gn osed
gn osis
Ġterm ino
Ġwa iving
Ġcorrect ive
Ġjour nos
Ġpres ence
Ġpres ume
Ġpres umpt
Ġpres idential
Ġnon stop
ĠHe ard
ĠHe alth
Ġagree ment
lor ation
Ġann ivers
Ġnews rooms
Ġtravel s
Ġevent ual
Ġfront al
Ġpositive ly
Ġform ally
Ġform ation
Ġform ulas
Ġsuccess ive
Ġsuccess fully
cent ury
Ġdest iny
Ġdest roying
Ġprogram mable
Ġupgrade able
Ġtank er
Ġsun light
Ġwin ners
Ġburn s
Ġprop ose
Ġprop osal
Ġroom s
Ġroom y
Ġroom ier
Ġsn acks
Ġsn atched
Ġsn ugg
Ġrece ip
Ġrece iving
Ġprob ing
Ġcheck outs
Ġcheck box
Ġarr ange
Ġarr ival
mos is
aw att
Ġsens itivity
Ġdens er
Ġlarge ly
unk el
ĠWould ve
Ġexist ence
ĠDe b
ĠDe vice
ĠDe utsch
Ġinstall ations
ler otic
Ġsw irl
Ġsw arms
Ġpan zer
Ġra pper
Ġra ises
ĠFr ont
ĠFr idman
Ġdeb ts
Ġdeb ated
Ġdeb ug
Ġdeb atable
Ġunveil s
Ġrepl ies
Ġrepl enish
Ġcombust ed
Se e
Se ptember
nect ed
Ġed gy
Ġed itors
Ġfil ed
Ġrel ief
Ġrel uct
Ġequ ality
par ks
par achute
Ġsent ence
Ġsent ience
Ġthre w
Ġfound ing
rot tling
Ġvent ing
Ġuseful ness
Ġlocal ized
Ġlocal ization
Imp rove
Imp ressively
Imp roving
Would nt
Ġbre ached
Ġbre nnt
Ġmess es
Ġmess aging
Ġglo ves
Ġredu ces
Ġredu cing
Ġmov able
Ġshield ed
ĠEx actly
ĠEx ternal
ĠEx cession
ĠEx isting
ĠEx xon
ĠEx periment
ĠStar ts
Ġsales people
ta u
ta ire
uff eur
Ġfo am
Ġmer its
Ġmer kins
Ġmer ciful
Ġstru ggle
Ġfinish es
Ġsuggest ion
At tempting
Ġcal iber
Ġcal amity
ĠBut t
Ġavaila bility
Ġsky rock
Wor ks
Wor kin
meth ane
inc ere
inc luding
Ġcatch es
Ġcatch ers
Ġmile age
Ġpur s
Ġpur ged
omet ime
Ġult rac
Ġstud s
Ġstud ying
Ġstud iert
ĠMay ans
ĠGo v
ĠGo es
ĠGo vt
Ġcrash ing
ĠLoo per
ĠOr ig
ĠOr ders
Ġavoid ing
Ġdeploy able
Ġdeploy ments
Ġsour ced
Thank fully
Ġatmosph eres
Ġass ign
Ġass ume
Ġass istant
Ġimpact ing
Ġimpact ed
Love ly
Ph ys
Ph otos
ien ces
to k
ret urn
ret ired
ret amine
Ġboring ly
Ġpred icts
Ġindust rial
Ġtouch es
Ġwatch tower
Ġcor ro
Ġcor rid
Ġpop ping
Ġopp ose
Ġopp osing
Ġopp onent
Ġem ulation
Ġem otional
ĠMon th
ĠMon onoke
ĠAnd roid
une lected
Ġlog arithm
Ġcaus ation
Ġcaus ality
Ġur gency
Ġtrip ling
umb ers
Ġconc ert
Ġconc lus
Ġconc luded
Ġwait list
Ġattempt ed
Ind ividual
pon ing
Ġess ay
Ġfig uratively
Ġfig urative
Ġprof ile
ĠAr s
ĠAr guably
ĠAr abia
ĠAr izona
Ġrespect s
Ġdroneship s
De al
De leting
Un ity
Un ivers
hor ia
hor izontal
pro b
pro pellant
Ġfall out
Ġfall acy
Ġpeak er
Ġdig s
Ġdem ands
Ġrequest ed
Ġobject ively
Aut onomy
Ġmount ing
ĠSm urf
ĠImp ressive
the y
the on
ĠApp rox
ĠApp arently
Ġcapac itors
Ġcapac itor
ah r
ah oo
Ġcat alog
Ġcash mere
level ing
Ġrev ision
ĠSp a
ĠSp ent
ĠSp ain
ĠSp ice
ĠSp iderwee
Ġant igen
Ġant imatter
Ġant ibody
Ġant ifree
ĠWor st
ĠWor ks
ĠWor ked
ĠPh illy
Ġarg on
Ġarg ue
Ġarg uing
Ġarg uments
Ġhydro static
Ġpredict or
Go T
me ans
me aning
Ġign orant
Ġwar locks
Ġbot tle
Ġbot tles
Ġbot nets
Ġbot anical
Ġbillion aire
Ġbillion aires
Ġpush er
Ġpush es
Ġhat ers
ĠTr ip
ĠTr uth
Ġep idemiology
Ġep ileps
ĠInd eed
ĠInd ias
Ġcharg ers
Ġintegr ating
Ġcontract ion
Ġperm its
Ġperm itting
Ġtweet ed
Ġpresent ing
Can adian
Turn ing
vit t
Ġwarm up
Ġbill board
Ġhover s
ĠAir port
ĠAir craft
ĠCar lo
ĠCar aoke
ĠCar rier
ĠCar ibbean
Ġensure s
Ġsepar ated
Ġchar ts
Ġoutput s
Ġminor ity
Ġextra ordinary
Ġextra pol
Ġphot onic
Ġet ched
Ġodd ly
Ġdark est
Ġrain water
Ġmoder ates
Ġdiscuss ed
Was n
app ears
hold ers
Ġice berg
Ġtight ly
rew ed
Ġflo at
Ġmist aken
Ġge othermal
Ġheart ening
wee ks
Ġsmart est
Ġsmart phone
Ġcritic izes
Ġstructure s
Ġgimbal ing
App reciate
Ġcut lery
Ġcorn ering
Ġfore most
ĠEn ough
ĠEn rich
Ġboost back
Ġspaceship s
Ġtip s
Ġband wagon
Ġfan cy
Ġround abouts
ĠBro ok
ĠBro omstick
ĠHard est
ĠHard ware
Ġprevent s
Ġprevent ion
Ġadjust ment
Ġspeak ers
Ġinterview er
Ġclass es
Ġclass ified
Ġlights aber
Ġcontinu ing
Ġsubsid ized
Giga watt
Ġball istic
Ġfam ilies
Ġocc asion
Ġocc lusion
Ġher zlich
Ġweird ly
Ġmob ility
Ġmaint aining
Exc use
Ġdelay ed
Ġconfirm ing
Ġapproach es
Ġretro actively
Ġindividual ist
200 3
200 4
200 5
Acc elerating
Hard ly
he h
he at
tr ivial
att ack
Ġinform ative
Ġev il
Ġrid dles
ĠAd justing
Ġtrad es
Ġtrad ed
ĠHa ha
Ġimport ance
Ġhealth care
Ġcontroll er
Ġcontroll ers
Ġclar ity
Ġexceed ing
Ġexceed ed
Ġtit ter
Ġmarg inal
Ġmarg ins
ĠIs aac
Ġsocial ist
Ġsocial ists
ĠCould n
ĠPl um
ĠPl ane
ĠPl aced
ĠPl ayer
ĠPl enty
Ġexpla ins
ĠShort ville
ĠShort seller
Ġsurv ived
Ġcapital ist
Ġplanet ary
Ġsnow y
Ġsnow fall
Ġhonor able
ĠSmart watch
++ /
Fr ont
Fr angible
ser ving
ser vice
ser iously
Ġsl im
Ġsl ip
Ġsl ide
Ġsl ots
Ġwal ks
Ġcirc uit
Ġcirc ulating
Ġtow el
Ġdumb est
Ġearn ing
Ġearn est
ĠSat urday
ĠMar ks
ceed ing
Ġjack ed
ĠBe ans
ĠBe ach
ĠBe zos
Ġunc rewed
Ġincorrect ly
Ġdeser ving
Star ts
Star fleet
Does n
ĠAustral ian
Are a
Are nt
Is nt
Max well
Max imizing
Ser vice
TO PS
gor ies
Ġbi ases
Ġbi ased
Ġcounter point
Ġcounter intuitive
Ġcounter productive
Ġfight ing
Ġhur ricane
Ġrail gun
Ġcol on
ĠCon f
Ġalloc ating
Ġintern ationally
Ġmisle ad
Ġtechn iques
Ġvalid ate
Ġsmooth ness
Ġpolit ics
Could n
Space balls
Tech nology
ees y
vant aged
Ġi Message
Ġtrend s
Ġtrend ing
Ġtool ing
Ġdry wall
str ong
stru cted
Ġstay ing
Ġshif t
Ġshif ter
Ġasp ir
Ġasp iration
Ġasp irationally
Ġconvin ces
rap id
ĠDr aco
ĠDr ori
ĠDr amatically
ĠEl ite
ĠLo gs
ĠLo ki
Ġappear ance
Ġscal able
Ġscal pers
Ġsimpl ification
Ġremain der
Ġfoot wear
Ġfoot print
Big ger
Earth s
Qu antum
Vac uum
cl ipse
ox ide
rid ge
vest or
Ġtall est
Ġaud iences
Ġbus es
Ġcamp ing
Ġclic k
Ġclic king
Ġport al
Ġport ion
Ġdoub les
Ġdoub led
Ġlink ed
rop hic
Ġinert ial
Ġrefer red
ĠToo f
Ġiter ating
ĠMe eting
ĠCl oth
ĠCl oud
ĠCl imate
Ġconver sion
Ġconver ting
ĠHaw king
ĠRes pect
ĠRes med
ĠRes orts
ĠRes Med
Ġtele p
Ġtele lsc
Ġcomf y
ĠOct ober
ĠJapan ese
Ġimag ination
Ġtransit ions
Per formance
Ġwer en
Ġwer de
Ġheav iest
Ġinh abit
Ġinvent ing
Ġnu anced
Ġnu ances
Ġbeat en
ĠSol vable
ĠCyber dyne
Ġdemon stration
Ġreflect or
Ġreflect ivity
Ġskill ed
Ġflu ctuations
Ġcalc ulation
Ġcalc ulator
Ġofficial s
Ġembarrass ed
AP C
Dr onship
Did n
GI GA
iot ic
pay ers
Ġaim ed
iter acy
Ġmir acles
Ġobs essed
chang ing
chang ed
chang el
ĠCons ider
ĠCons umers
ĠFla g
ĠFla methrowers
ĠBr ight
ĠBr illiant
ĠBase ball
ĠDel iveries
ĠGod zilla
ĠGod dard
ĠOver arching
ĠOver heat
Ġcontrib utions
ĠChrist ie
Ġsurround ed
ĠRequ ired
Ġremember ed
Ġcollect or
Ġmeaning less
Ġmeaning fully
Deep ly
Deep fake
Be yond
Back ground
En ough
En hanced
En counter
Uh h
com mercial
cool ing
do or
ned y
Ġbla me
ension al
Ġgear box
ĠTrend line
Ġelect ro
ĠMont e
Ġexec s
Ġseal s
Ġmap le
Ġconvert ible
Ġdele ted
Ġdele tion
Ġjunk yards
ĠPr ize
ĠPr imary
ĠPan els
ĠPan ama
ĠPart ially
Ġprint ed
Ġmonop ost
Ġmonop olist
Ġspl it
Ġamb ulance
Ġreser ved
Ġreser ves
Ġreser vations
Ġpowert ain
Ġdiscover ing
Ġgrad ual
Ġgrad ient
Ġgrad uated
Ġhyp ocris
Ġexpert ise
Ġflat ten
Ġgraph s
Ġgraph ite
Ġprotect ed
Ġwonder ed
burg ering
Ġmeasure ments
Ġclaim ed
Ġembarrassing ly
900 7
Con verts
Con nected
Gu aranteed
Le gs
Le vy
Le vitt
Like wise
Power pack
Rem inds
Sp ooling
Sp atial
cur ious
cur ves
oint ed
Ġcaut iously
Ġmix ing
Ġpen etr
Ġdiv ided
let ub
ĠSil ver
ĠIC Us
ĠIC BM
Ġstabil ized
Ġstabil ization
ĠMin i
ĠMin imizing
Ġwear ables
ĠAb ove
ĠAb orted
Ġvary ing
Ġnotice able
Ġexcess ively
Ġsever ed
Ġsever ely
ĠDis aster
ĠDis assembly
ĠDis neys
Ġche at
Ġmeg adouche
Ġactu ated
Ġactu ators
Ġperi ods
Ġexplo sives
Ġartific ially
ockh olm
Ġesc aping
Ġindic ative
Ġposit ivity
Ġradio active
Ġbenef its
Part ial
loo ks
ma jor
with out
Ġ= =
Ġter abit
Ġter aops
Ġaw aiting
Ġwins ome
Ġban ner
Ġban ana
Ġfold ing
Ġmicro cont
ĠTree beard
ĠSc orp
ĠSc ott
ĠSur faces
ĠSur vival
Ġsoft ball
Ġstick ier
ĠMass ie
ĠMass achusetts
ĠAct ive
ĠComm and
ĠComm itte
Ġtriv ia
Ġtriv ially
Ġvi able
Ġcond ensation
ĠPre paring
Ġlock out
Ġlock down
Ġoverr un
Ġtempor arily
Ġbelie ves
Ġcommit te
Ġhands ome
Ġrevolution ize
Ġastronom ical
Ġgeo logical
Ġpropuls ively
Ġrecogn izing
Engine ers
Ġdemonstr ating
Ġrepresent ive
Astron aut
Iron y
Nu king
high er
high way
hard ware
ugg estions
Ġsle eping
Ġsle eps
Ġsle eve
Ġthick er
Ġcop ies
Ġcop yc
Ġcru ise
Ġcru cial
Ġcru mple
Ġdense ly
Ġled ger
Ġeye brow
Ġrandom ly
Ġcoinc ident
Ġsex ist
ĠBar king
Ġalign ed
ĠElectric ity
irect ly
Ġbump y
Ġspo kesmodel
Ġinterse ction
ĠIns pector
ĠInst itute
Ġgrand parents
Ġexperien ces
Ġanaly tical
Ġanaly ze
Ġhorse f
Ġforgot ten
Ġesthet ically
Ġcharacter ized
Ġperiod ic
Cons ider
Cons ervation
DA R
Fix ed
IC A
IC EF
Ro ot
Ro om
Sc reen
Sun set
Sign al
Sign ificant
mark et
Ġsed uct
atr k
Ġpull ing
Ġtox ins
Ġdiver ge
Ġdiver ting
Ġhal t
Ġbell y
Ġbell ows
acc ident
Ġrew atch
Ġrew atched
Ġrew ritten
Ġrew rite
ĠSw an
ĠSw iss
ĠSw ift
ĠSec a
allow ed
Ġstorm y
ĠFair ing
ĠDesign ed
Ġposs ess
Ġlob bying
Ġarm ored
Ġunus able
ĠJam ming
Ġcontact s
Ġaccumul ate
Ġrecall s
aggering ly
Ġtransp aren
Ġcloud y
Ġidiot ic
obv iously
ĠDeep aks
ĠArt ists
ĠArt station
Ġepis odes
Ġridicul ously
Ġobser ver
Ġobser vation
Ġrespons ibility
Ġexplosion s
Ġampl ified
Ġampl ification
Ar mored
Add ressing
Gen erally
Gen au
Gen erates
Had ouken
Int ent
Int uitive
Int entionally
Lo oming
Rep ly
Rep ort
Te mpor
Te letub
Wal k
Wal ked
bra king
bra ins
dr iven
part ially
part icle
si q
space x
Ġtast e
Ġtast y
Ġthrow s
Ġboun ced
Ġboun cing
Ġcam oufla
Ġcab ins
Ġcour tes
Ġcorre ctions
Ġcorre lation
Ġcorre spond
Ġmor on
Ġmor ale
Ġment al
Ġpers piration
Ġdat aset
Ġreb ate
Ġreb ates
ĠTot ally
ĠTra ining
ĠTurn ing
Ġeast ward
Ġearth quakes
ĠSX SW
Ġstri kes
Ġstri pping
ĠMob i
ĠMob ilEye
amm ers
Ġshr ill
Ġshop ping
Ġorgan ize
Ġselect s
Ġselect ing
Ġselect ed
Ġmaster piece
ĠFl ugpl
ĠHel tsley
ĠPlan ck
ĠPlan ning
ĠEs pecially
Ġcho ices
Ġcho ker
ĠRad io
Ġpoor ly
ĠGeor ges
ĠUlt ima
Ġpract ice
Exp ansion
Ġmini ature
Ġscen es
Ġscen arios
ĠInf inity
Ġtwist ed
Ġpaywall s
Ġbran ches
Ġinstant ly
Ġinstant aneously
Ann ual
Ġexperiment al
ĠSoC s
Ġcommand ed
Ġlegis lative
Ġiniti ative
ĠFrank ly
ĠFrank lin
Ġsheep le
Ġretrofit ted
Ġtradem arking
Upgr ades
Ġcontext ual
Ad justing
ER N
Mer ging
Mer kind
Mer cedes
Sat ire
Under appreciated
Wr ite
Wr ath
Wr lq
zer land
erv atory
Ġsen iors
Ġbab ies
Ġcow boy
Ġcult ural
Ġcult ures
Ġcyber netic
Ġcyber attack
Ġfish y
Ġmit t
Ġmit igate
Ġmar kings
Ġpill ow
Ġpla intiff
Ġpix el
Ġpneum atic
Ġdom estic
ĠSub way
ĠSub orbital
Ġund amaged
Ġstamp ed
ĠMoon base
ĠAP J
ĠAss uming
ĠCost s
Ġvict ors
Ġexchang ed
ĠForm er
Ġaltern ate
ĠNav igation
Ġchem tra
ĠRD W
ĠRom ans
ĠRom ania
Ġcompla ints
Ġunf amiliar
Ġunf unded
Ġuns cheduled
Ġuns afe
Ġappoint ment
Ġappoint ments
ĠUN ICEF
ĠVal hall
Ġintent ions
Ġperform ed
Ġpartners hip
ĠInter esting
Inc orrect
Inc reasing
Inc redibly
Inst ead
agon al
agon ists
Ġdisp ensing
Ġdisp enser
Ġdefe at
Ġdefe ats
Ġdefe ated
Ġsignature s
Ġadvis ory
Ġadvis ors
Ġadvoc ate
Ġident ity
Ġmanip ulation
Ġmanip ulate
ĠRec ommend
Ġautomak er
ĠRob lox
Ġconstit utional
Ġexclus ive
Ġabsolut ist
Ġinflu ence
Ġredesign ed
ĠAsimov s
Ġencounter ed
Ġrepeated ly
Ġtrivial ities
Ġtelesc oping
Ġtelesc opes
Bu ying
Cle anTechn
IS S
Ide al
LI N
LI DAR
Li quid
Li Ti
Prom etheus
Pass ing
Pass ed
Pass ive
Sw ipe
Ship s
Ton ight
Us ually
bre aking
bing er
cap able
Ġtend ency
Ġble ak
Ġcig ars
Ġcous in
Ġfu zzy
Ġdash ingly
Ġhab e
Ġhab its
Ġhab erd
Ġgent rify
Ġyield ed
Ġsock s
ĠMark et
ĠMark eting
Ġneut ron
amb rian
Ġproper ly
Ġproper ty
Ġtrail er
Ġtrail ing
Ġtrail ers
Ġasy mptote
ĠBack gam
ĠHar ris
ĠHar vest
ĠHar vard
ĠNor wegian
ĠPol and
ĠDrag onglass
ĠEber hards
Ġchamp ions
ĠStr ip
Ġkick ass
ĠLimit ed
Ġhash tag
connect or
Ġuna ffordable
ĠUnder going
ĠUFO s
ĠOper a
ĠJeff rey
Ġautonav igate
Ġsculpt ures
ĠItal ian
Ġtransmit ter
Ġtransmit ting
Ġsketch y
ĠQu ite
ĠQue en
Ġpriorit ized
Ġsteer able
Ġfog gy
Ġassess ment
ĠTrans fer
Ġoccur red
Ġfatal ities
Ġcandid ates
Ġdatab ases
Ġunreason ably
Ġinstrument al
Ġinstrument ation
Ac cept
Av g
Co al
Detail ed
EA LiTi
Euro vision
Fla methrower
Gwyn nes
Human ity
Let ter
Luck y
Mon thly
Rel ief
Rel atively
Sch rdinger
Sch atz
Slight ly
Sens ible
TS LA
fix ed
hand ed
su fficient
tra ffic
Ġing estion
Ġeth ical
Ġtyp es
Ġbored om
Ġbomb arded
Ġcy borg
Ġfrag ged
Ġmal igned
Ġmelt down
Ġpist on
Ġpair s
Ġdia per
Ġdia gnosis
Ġdise ase
Ġhod l
Ġhod ler
alop ods
Ġnut shell
Ġgard ens
Ġrech t
Ġrech arge
ĠSn ake
ĠSystem s
ĠIS S
Thrust er
Thrust ers
Ġrh y
Ġrh etorical
ĠAcc eleration
ĠAster ix
ĠAster oid
ĠCap itol
ĠCorre ll
Ġtrigger ed
Ġvig or
ĠWild life
ĠFil ter
ĠFil ters
ĠFocus ed
Ġsufficient ly
ĠHit lers
ĠHead er
ĠHead ed
Ġliber ated
ĠNPC s
ĠDep ending
ĠRest oring
ĠRem inds
Ġpock et
ĠStud ies
ĠStud io
Ġimped ance
Ġprep ared
Ġcancel ed
cons cious
cons umer
Ġbub bles
Ġbud g
Ġunp riced
Ġunne eded
Ġunreal ized
ĠUr anus
ĠOdd s
Ġlept ons
Ġoverse en
Ġoverse as
Ġoverwhelming ly
ĠVR ML
ĠVast ly
ĠVeloc ity
Ġspam ming
Ġspam bot
Strong est
Ġknock s
Ġunderest imate
ĠInc redibly
Ġverb ose
tech nically
Ġmanag ers
Ġmeteor ites
Ġvisual ization
ĠProb able
Ġstrate gy
Ġstrate gic
Rec ommended
Ġcommission ers
ĠZee brugge
Ġinflation ary
World s
Ġutter ly
Ġdemographic s
Ġstraw berries
Ġevolution ary
Upd ate
Ġjudic iary
ĠTechn ica
Ġfictional ized
Ġteleport ed
Ġteleport ation
Ġsubstant ial
Ġinfluen za
Ġcomplac ent
Ġmetaphor ical
Ġcounc il
Ass uming
Custom ized
Class ified
Dest acking
Fig ure
Fig uratively
Form er
God ot
Ign ition
Ign iters
Light s
Mid night
Nose cone
Off er
Par king
Par asite
Pot entially
Race way
Sha kes
Turb ines
Turb opump
Use ful
bl ower
mod ified
muff in
muff led
sm ol
sch ool
sha w
sha kes
tag s
inf inite
inf otainment
Ġbed anken
Ġbol t
Ġbond ed
Ġce ase
Ġce iling
Ġcape x
Ġfab ulous
Ġmut ual
Ġpal m
Ġpal ette
Ġpun y
Ġow l
Ġow ed
Ġdil ution
Ġdrain age
Ġhoney comb
Ġhammer head
Ġlapt op
Ġlapt ops
Ġnail s
leg al
Ġgro k
Ġren aming
Ġrect ify
Ġrect angle
Ġrelaunch ed
ĠTe quila
ĠSA E
ĠSpr ing
ĠSPAC s
Ġsoci o
Ġsoci ety
Ġstro ke
Ġstro be
Ġstow ed
ĠAv g
Ġenerg ized
Ġvess el
Ġvess els
ĠField s
Ġcongr atulate
Ġconcent ration
ĠBu y
ĠBu zz
ĠBern ie
ĠPri est
ĠPri us
ĠPerson nel
ĠRand ers
Ġpoison ous
Ġkit ten
ĠGr nhe
ĠLight ning
ĠLink ed
ĠLeg endary
Ġpref ab
Ġpref ers
Ġoutdo or
Ġcancell ed
Ġcancell ation
Ġarrest ed
conf irmed
Ġadapt ive
Ġunivers al
ĠUs able
ĠOwn er
ĠOwn ers
Ġoverp opulation
Ġoverp ressure
Ġoverhe ating
ĠVF X
ĠVi be
Ġcontain er
Ġaccomp lished
Ġexplicit ly
Ġparad ise
Ġparad igm
ĠInsp iration
Ins ane
Prot esting
Prot agonists
Ġmisunder standings
Ġdisad vantage
Ġdisad vantaged
Ġconflic t
Ġretract able
Ġguarant ee
Ġguarant ees
ĠKe ep
ĠKing dom
Ġrefresh ed
Ġclust er
Ġclust ers
Ġinvol ved
Ġinvol ves
Ġmetro s
Ġmotiv ations
Ġbelong s
Ġacou stic
Ġacou stics
ĠUnivers ity
ĠUnivers itt
Ġnegot iations
Ġprotest s
Ġprofess ional
Ġanticip ate
Ġanticip ated
Ġgeog raphic
ĠConc rete
Ġimmers ed
Ġimmers ive
Ġbench mark
utsch land
Ġsquirrel s
Ġdescrib es
Ġdescrib ing
Ġapolog ize
ĠCommission er
Ġweapon ry
Ġprosper ity
ĠTravel s
ĠMobile ye
Ġintrodu ce
Ġintrodu ced
Ġreinforce ment
Ġreinforce ments
Ġsynchron ization
Ġcartoon ist
Ġtrunc ated
ĠUpd ate
Ġautocorrect ed
Manufact uring
Bot tom
Cr amer
Cry o
Cook ie
DM T
Dan keschn
Day Quil
Dep ot
Eas ier
Ext ended
Extrem ism
Gro an
Her bert
Har binger
Hol iday
Hyp ocritical
Mal colm
Marg aritav
Norm al
Rot ate
Sam wise
Sand wich
Slow poke
Swit ching
Tw eak
Tal ked
del ta
econom ic
pick ed
turn s
tax i
Ġtin ny
Ġtort o
Ġaf icion
Ġax is
Ġsig ma
Ġtherm ometer
Ġware hous
Ġwitch craft
Ġblo atware
Ġbatt ling
Ġcort isol
Ġfif ty
Ġfant astic
Ġmusk et
Ġpier cing
Ġtoler ance
Ġhust le
Ġhip sters
Ġinqu ire
Ġnic est
Ġgla morous
Ġreop en
Ġrend ers
Ġreject ed
ĠTit an
ĠTri pp
ĠTerm inal
ĠTax es
Ġeval u
ĠSl acker
ĠSet tings
ĠSep ulved
ĠSwit zerland
ĠScient ist
Ġanim als
adjust ed
throp ic
ĠMiss ouri
section al
seem ing
Ġru ins
ĠCle arly
ĠCall isto
ĠCab in
Ġenhance ments
Ġshred ded
Ġsharp est
Ġtroub les
Ġasph alt
Ġvapor ization
ĠWo W
ĠWash ington
Ġexerc ise
ĠFlex ible
Ġrom ance
Ġbypass es
ĠBow ie
ĠBus iness
ĠBol iv
ĠBring ing
Ġabandon ed
ĠHub ble
ĠNC AP
ĠNut cracker
ĠPerm ian
ĠPrav da
ĠDist ances
ĠDri ver
ĠEmp ire
ĠExt raordinary
Ġcha uffeur
ielle icht
Ġcompreh ensive
ĠStu art
ĠSteph en
Ġket tle
ĠGand alf
ĠLea ving
ĠLater al
Ġoutc omes
Ġoutrage ously
Ġbuzz word
Ġunha ppiness
ĠOb ama
ĠObs ervatory
Ġoverl ay
Ġoverla pping
Ġoverclock ed
ĠVol taire
Ġamend ment
Ġamaz e
Ġaccommod ate
Stud y
Ġresil ient
Ġauth ent
Ġinterconnect ed
Ġunderp ants
Ġunderweight ed
Ġexped ite
Ġregis ters
Ġextens ively
Ġliter acy
Ġscar city
exp endable
Ġleaf blower
Ġentit lements
Ġentomo logical
ĠKen nedy
Ġrefurb ishment
Ġzo oming
Ġmanif old
Ġdepos its
author ities
unders upply
Ġdeterm ine
linear ities
ĠSoci ety
Ġoxid izer
ĠZen it
Activ ating
Ġinfect ious
ĠDevelop er
ĠAlchem y
Ġelim inated
Mean while
Ġultrason ics
Ġdemocr atic
Ġcatast rophic
Ġcatgirl s
Ġphotobomb ed
Ġroutine ly
Ġimmun ity
Ġobsc uration
Ġharass ment
ĠContin ued
ĠControl s
Announce ments
ĠRobin hood
Ġconstitu ents
Ġbureaucr ats
Ġdimension s
Ġvigil ance
Ġsweat y
Ġbulk head
Ġsacrific ed
Ġanecd otes
ĠModern a
ĠGulfstream s
Ġsafegu ard
Amb roisie
Aug ust
Alex ander
Blo omberg
Biz arre
Camer a
Cross ing
Comb ined
Cinn amon
Ceph alopods
Den mark
Ew ere
Emp ty
Effect ively
FW IW
Fl ux
Fro do
Fail ure
Feed back
FEA R
Gent rify
Gra hams
Gav in
Hor izontally
Hash tags
Hospital s
Jo in
Lat ency
Law s
Lamin ar
Mar x
Mont y
Mail ing
MPG e
Milad y
NV IDIA
Nan otech
Nich eman
NER V
Own er
Port al
Pick up
Que en
Ros etta
Raw linson
Sa udi
Spo iler
Tent ative
Trick ier
Ut ter
Vis ual
War ren
current ly
dim ensional
dest ruction
diam eter
frees pace
hst an
lest ar
mis sing
mand ering
mount ed
mult iple
mund s
material s
prot est
tt os
vak ia
ypt ic
Ġip so
Ġero sion
Ġtas ks
Ġtut orial
Ġtur tles
Ġtact ics
Ġtik tok
Ġaer ial
Ġsou thern
Ġsam urai
Ġslo sh
redu cing
Ġthum bs
Ġthorn y
Ġthermon uclear
Ġwelf are
Ġbic yc
Ġbast ards
Ġbore scope
Ġbios phere
Ġburd ened
Ġcrow d
Ġcli ent
Ġcyn ics
Ġcuis ine
Ġfro zen
Ġfir ings
Ġfol ks
Ġfines se
Ġfron ts
Ġfuss y
Ġfasc ism
environ ment
Ġmch te
Ġmush room
Ġpard on
Ġpess imistic
Ġpont ificating
Ġpizz a
Ġtodd ler
Ġtobac co
Ġobe y
Ġodor less
Ġoatme al
Ġdop amine
Ġdab bing
Ġdra fts
Ġdank est
Ġdwee b
Ġhet erogen
Ġhoc key
Ġhub ris
Ġlim ousines
Ġlugg age
Ġlucr ative
Ġlyric s
Ġlonel iest
stamp ed
Ġisbo ss
Ġninj a
Ġbegg in
Ġbejewel ed
Ġgem tlich
Ġgiga watt
Ġgerry mandering
Ġgrump y
Ġgeront ocracy
Ġrebo ot
Ġreconf igure
ĠTur key
ĠTef lon
ĠTurb ine
ĠTract ion
ĠTatoo ine
Ġforklif ts
Ġfortun ate
ĠSlo vakia
ĠSem ester
ĠSurre alism
ĠSpl itting
ĠSCU BA
Ġumb rella
Ġanach ronistic
Ġanomal ies
ĠIde as
ĠIrv ine
Ġstile ttos
ĠMir ror
ĠMem or
ĠMatter s
ĠMiam i
Ġwhims ical
Ġneare st
Ġpropell ed
Ġproje ctions
ĠAlas ka
ĠAstron auts
ĠAlyss a
oplas mosis
ĠCapt ain
ĠCather ine
ĠCaliforn ians
ĠCav ill
ĠCren shaw
Ġatten uation
Ġtrib ute
Ġornament s
Ġasso ciates
Ġvint age
ĠWarth og
ĠThaic om
Ġseism ic
umina ughty
Ġmajest y
ĠFore ver
ĠFraz etta
ĠFunction ality
ĠFlext ape
Ġconso le
Ġdeval ue
Ġdecomp ress
ĠBos ch
ĠBak unin
ĠBatt lestar
ĠBeaut y
ĠBER LIN
Ġabdom en
Ġalkal ine
ĠHold ing
ĠHav anese
ĠHung ry
ĠNick name
ĠNerd burgering
ĠPink er
ĠPos itive
ĠPik etty
ĠPegas us
ĠPyram id
ĠPeters en
ĠPasc al
ĠDys on
ĠEup horia
ĠEvent ually
ĠEtien ne
ĠRus sell
ĠRors chach
ĠRush more
ĠRamanuj an
Ġcompos ites
Ġmemer y
ĠStraw berry
astero ids
Ġkilot onnage
ĠGany mede
ĠGree ce
ĠGund am
ĠGAA P
ĠGalact ica
ĠGarf unkel
ĠGrohm ann
ĠLiving stone
ĠLag una
ĠLued ers
ĠLuc id
ĠLGBT Q
ĠLEG O
Ġadhes ive
Ġusern ame
Ġunident ified
Ġunob structed
ĠObel ix
ĠOCIS LY
ĠOpportun ity
Ġoverval ued
Ġoverste pping
ĠVos ges
ĠVias at
ĠVentil ators
ĠJens en
ĠJord an
ĠJunk yard
ĠJee z
Excess ive
Ġintellig ent
Ġspann end
ultrac aps
Ġautose quence
ĠMarshm ellow
Ġinterlock ing
Ġintermit tent
Ġbackfl ips
Ġbackdro ps
Ġrecurs ive
Ġrecurren ce
Goodby e
uperson ic
Trigger ed
ĠNeuman n
Provid ed
Ġsuperconduct ors
philosoph ically
Ġimbal ances
Ġreprior itized
Ġmisdia gnosed
Ġoffsh ore
Ġphara oh
Ġphosph orus
ellows hip
Ġdisbur se
Ġdisapp ointed
ĠChano ss
Ġtranscrip t
Ġtranslu cent
ĠSharehold er
ĠShoem aker
ĠKazak hstan
Ġflamm able
Ġlightbul b
Ġtechnolog ists
Ġfluff y
shadow ed
Ġhotfix es
ĠUnsw orth
ĠZuk unft
Ġdiscern ible
Ġdiscret ion
Ġsoundtr ack
Ġrobocal ypse
Ġtermino logy
Ġannivers ary
Improve ments
Ġskyrock ets
Ġultrac apacitors
Photos hop
Ġcorrid or
Ġlogarithm ic
Ġconclus ions
Ġantifree ze
Ġepileps y
Ġmistaken ly
ĠEnrich ment
Ġoccasion ally
Ġtelelsc opes
Ġhypocris y
Ġpenetr ating
Ġmicrocont roll
ĠScorp io
ĠCommitte e
Ġeyebrow s
Ġseduct ive
Ġtransparen cy
Intuitive ly
Ġcamoufla ge
Ġcourtes y
ĠFlugpl atz
Merkind ise
Ġchemtra ils
ĠValhall a
CleanTechn ica
Ġhaberd ashery
ĠBackgam mon
Ġhashtag ging
ĠGrnhe ide
Margaritav ille
Ġaficion ados
Ġwarehous es
ĠSepulved a
Ġheterogen eous
