{
  "!": 6,
  "!!": 1105,
  "!!\"": 3365,
  "!\"": 652,
  "!)": 6065,
  "!)\"": 9144,
  "!),": 10592,
  "!).": 9143,
  "!?": 2338,
  "!?\"": 5119,
  "\"": 7,
  "\"\"": 808,
  "\"\"\"": 3831,
  "\"\",": 6697,
  "\"\".": 5921,
  "\"\".\"": 9844,
  "#": 8,
  "$": 9,
  "$$": 6458,
  "%": 10,
  "%\"": 10593,
  "%)": 8183,
  "%),": 12775,
  "%,": 6459,
  "%.": 10594,
  "%.\"": 9145,
  "&": 11,
  "'": 12,
  "'d": 3873,
  "'ll": 10595,
  "'m": 2273,
  "'re": 2613,
  "'s": 790,
  "'t": 809,
  "'ve": 2920,
  "(": 13,
  "()": 10596,
  ")": 14,
  ")!": 9146,
  ")\"": 1877,
  "),": 1291,
  ").": 1220,
  ").\"": 3058,
  ")/": 12776,
  "):": 9147,
  "*": 15,
  "*,": 7478,
  "*.": 10597,
  "+": 16,
  "+\"": 12777,
  "++": 3750,
  "++,": 8053,
  "++/": 15603,
  "+,": 9148,
  ",": 17,
  ",!": 12778,
  ",!!": 12780,
  ",\"": 289,
  ",\"\"\"": 7025,
  ",\"$": 13589,
  ",\"&": 13590,
  ",\",": 11039,
  ",\".": 5784,
  ",\".,": 12371,
  ",\"...": 8376,
  ",\"[": 11040,
  ",\"~": 11041,
  ",$": 10598,
  ",%": 6909,
  ",(": 6910,
  ",*": 10599,
  ",.": 3553,
  ",/": 12779,
  ",:": 10600,
  ",[": 7479,
  ",~": 5120,
  "-": 18,
  ".": 19,
  ".\"": 321,
  ".\"\"": 11144,
  ".\"\"\"": 8435,
  ".)\"": 12781,
  "..": 924,
  "...": 2150,
  "...\"": 5936,
  "/": 20,
  "0": 21,
  "00": 531,
  "000": 2331,
  "01": 3124,
  "02": 3199,
  "03": 3125,
  "04": 3295,
  "05": 3296,
  "06": 3297,
  "07": 3200,
  "08": 3298,
  "09": 3299,
  "1": 22,
  "10": 346,
  "100": 923,
  "1000": 1858,
  "101": 3238,
  "102": 1941,
  "103": 2009,
  "104": 1974,
  "1046": 13846,
  "105": 1665,
  "1050": 5811,
  "1058": 5464,
  "106": 1666,
  "1068": 5463,
  "1069": 5462,
  "107": 2636,
  "108": 1556,
  "1080": 5813,
  "1088": 5466,
  "1089": 6604,
  "109": 1575,
  "1090": 5812,
  "1098": 6179,
  "1099": 5465,
  "11": 461,
  "110": 1197,
  "1100": 5360,
  "111": 3250,
  "112": 1211,
  "1120": 5710,
  "113": 1157,
  "114": 1212,
  "1140": 5711,
  "115": 1210,
  "1150": 5709,
  "116": 1213,
  "1160": 5712,
  "117": 2644,
  "118": 1562,
  "1180": 5871,
  "1188": 5520,
  "1189": 6651,
  "119": 1582,
  "1190": 5870,
  "1198": 6227,
  "1199": 5519,
  "12": 354,
  "120": 1130,
  "1200": 5194,
  "121": 3241,
  "122": 1945,
  "123": 1976,
  "124": 1977,
  "125": 1681,
  "1250": 5822,
  "1258": 5478,
  "126": 1668,
  "1268": 5477,
  "1269": 5476,
  "127": 2638,
  "128": 1559,
  "1280": 5824,
  "1288": 5480,
  "1289": 6608,
  "129": 1577,
  "1290": 5823,
  "1298": 6184,
  "1299": 5479,
  "13": 358,
  "130": 1217,
  "1300": 5830,
  "131": 3243,
  "132": 1947,
  "133": 2013,
  "134": 1979,
  "135": 1683,
  "1350": 5831,
  "1358": 5492,
  "136": 1670,
  "1368": 5491,
  "1369": 5490,
  "137": 2640,
  "138": 1561,
  "1380": 5833,
  "1388": 5494,
  "1389": 6612,
  "139": 1579,
  "1390": 5832,
  "1398": 6187,
  "1399": 5493,
  "14": 357,
  "140": 1153,
  "1400": 4930,
  "141": 3242,
  "142": 1946,
  "143": 2012,
  "144": 1978,
  "145": 1682,
  "1450": 5484,
  "1458": 5487,
  "146": 1669,
  "1468": 5486,
  "1469": 5485,
  "147": 2639,
  "148": 1560,
  "1480": 5829,
  "1488": 5489,
  "1489": 6611,
  "149": 1578,
  "1490": 5828,
  "1498": 6186,
  "1499": 5488,
  "15": 353,
  "150": 1110,
  "1500": 4925,
  "151": 3240,
  "152": 1944,
  "153": 2011,
  "154": 1975,
  "155": 1680,
  "1550": 5819,
  "1558": 5473,
  "156": 1667,
  "1568": 5472,
  "1569": 5471,
  "157": 2637,
  "158": 1558,
  "1580": 5821,
  "1588": 5475,
  "1589": 6607,
  "159": 1576,
  "1590": 5820,
  "1598": 6183,
  "1599": 5474,
  "16": 379,
  "160": 1154,
  "1600": 5201,
  "161": 3244,
  "162": 1949,
  "163": 2014,
  "164": 1981,
  "165": 1671,
  "1650": 5846,
  "1658": 5501,
  "166": 1672,
  "1668": 5500,
  "1669": 5499,
  "167": 2685,
  "168": 4244,
  "169": 4245,
  "17": 900,
  "170": 12782,
  "171": 4332,
  "1750": 10601,
  "18": 568,
  "180": 2959,
  "181": 4302,
  "182": 4104,
  "183": 4303,
  "184": 4304,
  "185": 3818,
  "186": 4305,
  "187": 4306,
  "1875": 11515,
  "188": 4307,
  "189": 4308,
  "19": 554,
  "190": 4272,
  "191": 4273,
  "192": 4274,
  "193": 4275,
  "194": 4276,
  "195": 4277,
  "196": 4278,
  "197": 4279,
  "198": 4280,
  "199": 4281,
  "1992": 14453,
  "2": 23,
  "20": 588,
  "200": 3554,
  "2000": 7480,
  "2003": 15558,
  "2004": 15559,
  "2005": 15560,
  "2009": 10224,
  "201": 4621,
  "2011": 14476,
  "2012": 14475,
  "2019": 11524,
  "202": 4622,
  "203": 4623,
  "204": 4624,
  "205": 4625,
  "2050": 14477,
  "206": 4626,
  "207": 4627,
  "208": 4628,
  "209": 4629,
  "21": 1590,
  "210": 10602,
  "22": 825,
  "221": 5567,
  "222": 5568,
  "223": 5569,
  "224": 5570,
  "225": 10603,
  "227": 5571,
  "229": 12785,
  "23": 1016,
  "230": 4540,
  "231": 5591,
  "237": 5592,
  "24": 954,
  "241": 5582,
  "243": 5583,
  "245": 12784,
  "247": 5584,
  "25": 579,
  "250": 2745,
  "2500": 7150,
  "251": 4612,
  "252": 4613,
  "253": 4614,
  "254": 4615,
  "255": 4616,
  "256": 4617,
  "257": 4618,
  "258": 4619,
  "259": 4620,
  "26": 605,
  "260": 4315,
  "261": 4668,
  "262": 4669,
  "263": 4670,
  "264": 4671,
  "265": 4672,
  "266": 4673,
  "267": 4674,
  "268": 4675,
  "269": 4676,
  "27": 1198,
  "270": 12783,
  "2700": 14871,
  "28": 608,
  "280": 4696,
  "281": 4697,
  "282": 4698,
  "283": 4699,
  "284": 4700,
  "285": 4701,
  "286": 4702,
  "287": 4703,
  "288": 4704,
  "289": 4705,
  "29": 609,
  "290": 4706,
  "291": 4707,
  "292": 4708,
  "293": 4709,
  "294": 4710,
  "295": 4711,
  "296": 4712,
  "297": 4713,
  "298": 4714,
  "299": 4715,
  "3": 24,
  "30": 593,
  "300": 3464,
  "301": 4973,
  "302": 4974,
  "303": 4975,
  "304": 4976,
  "305": 4977,
  "306": 4978,
  "307": 4979,
  "308": 4980,
  "309": 4981,
  "31": 1252,
  "310": 12786,
  "314": 12787,
  "32": 740,
  "320": 12790,
  "321": 4751,
  "322": 4752,
  "323": 4753,
  "324": 4754,
  "327": 4755,
  "33": 783,
  "331": 5001,
  "333": 5002,
  "334": 5003,
  "337": 5004,
  "34": 865,
  "341": 5012,
  "343": 5013,
  "347": 5014,
  "35": 594,
  "350": 4313,
  "351": 4630,
  "352": 4631,
  "353": 4632,
  "354": 4633,
  "355": 4634,
  "356": 4635,
  "357": 4636,
  "358": 4637,
  "359": 4638,
  "36": 606,
  "360": 4677,
  "361": 4678,
  "362": 4679,
  "363": 4680,
  "364": 4681,
  "365": 4682,
  "366": 4683,
  "367": 4684,
  "368": 4685,
  "369": 4686,
  "37": 1185,
  "372": 12789,
  "3750": 9149,
  "378": 12788,
  "38": 597,
  "380": 2799,
  "381": 4639,
  "382": 4640,
  "383": 4641,
  "384": 4642,
  "385": 4643,
  "386": 4644,
  "387": 4645,
  "388": 4646,
  "389": 4647,
  "39": 600,
  "390": 4649,
  "391": 4650,
  "392": 4651,
  "393": 4652,
  "394": 4653,
  "395": 4654,
  "396": 4655,
  "397": 4656,
  "398": 4657,
  "399": 4314,
  "4": 25,
  "40": 627,
  "400": 3985,
  "4000": 12791,
  "401": 4737,
  "402": 4738,
  "403": 4739,
  "404": 4740,
  "405": 4741,
  "406": 4742,
  "407": 4743,
  "408": 4744,
  "409": 4745,
  "41": 1591,
  "42": 752,
  "420": 9150,
  "421": 4756,
  "422": 4757,
  "423": 4758,
  "424": 4759,
  "427": 4760,
  "43": 1010,
  "431": 5588,
  "437": 5589,
  "44": 785,
  "441": 5005,
  "443": 5006,
  "444": 5007,
  "447": 5008,
  "45": 601,
  "450": 4658,
  "451": 4659,
  "452": 4660,
  "453": 4661,
  "454": 4662,
  "455": 4663,
  "456": 4465,
  "457": 4664,
  "458": 4665,
  "459": 4666,
  "46": 607,
  "460": 4687,
  "4600": 14495,
  "461": 4688,
  "462": 4689,
  "463": 4690,
  "464": 4691,
  "465": 4466,
  "466": 4692,
  "467": 4693,
  "468": 4694,
  "469": 4695,
  "47": 1199,
  "48": 610,
  "480": 4716,
  "481": 4717,
  "482": 4718,
  "483": 4719,
  "484": 4720,
  "485": 4721,
  "486": 4722,
  "487": 4723,
  "488": 4724,
  "489": 4725,
  "49": 611,
  "490": 4726,
  "491": 4727,
  "492": 4728,
  "493": 4729,
  "494": 4730,
  "495": 4731,
  "496": 4732,
  "497": 4733,
  "498": 4734,
  "499": 4735,
  "5": 26,
  "50": 683,
  "500": 2662,
  "5000": 7481,
  "51": 1809,
  "52": 1259,
  "5200": 14912,
  "521": 7253,
  "53": 1346,
  "54": 1280,
  "541": 7255,
  "55": 772,
  "550": 4541,
  "551": 5903,
  "552": 5904,
  "553": 5905,
  "554": 5906,
  "555": 5907,
  "556": 5908,
  "557": 5909,
  "558": 5363,
  "56": 855,
  "561": 5924,
  "562": 5925,
  "563": 5926,
  "564": 5927,
  "565": 5928,
  "567": 5929,
  "568": 5362,
  "569": 5361,
  "57": 1592,
  "58": 690,
  "59": 689,
  "590": 5550,
  "591": 5551,
  "592": 5552,
  "593": 5553,
  "594": 5554,
  "595": 5555,
  "596": 5556,
  "597": 5246,
  "598": 5557,
  "599": 5558,
  "6": 27,
  "60": 685,
  "600": 5121,
  "6000": 10604,
  "601": 5541,
  "602": 5542,
  "603": 5543,
  "604": 5544,
  "605": 5545,
  "606": 5546,
  "607": 5547,
  "608": 5548,
  "609": 5549,
  "61": 1866,
  "62": 1281,
  "621": 7256,
  "63": 1352,
  "630": 12792,
  "64": 1269,
  "6400": 11771,
  "641": 7254,
  "65": 941,
  "650": 5713,
  "651": 6291,
  "652": 6292,
  "653": 6293,
  "654": 6294,
  "657": 6295,
  "658": 5366,
  "66": 779,
  "661": 5910,
  "662": 5911,
  "663": 5912,
  "664": 5913,
  "665": 5914,
  "666": 5915,
  "667": 5916,
  "668": 5365,
  "669": 5364,
  "67": 1593,
  "68": 687,
  "6800": 11564,
  "69": 686,
  "7": 28,
  "70": 571,
  "700": 5367,
  "701": 4105,
  "702": 4106,
  "703": 4107,
  "704": 4108,
  "705": 4109,
  "706": 4110,
  "707": 4111,
  "708": 4112,
  "709": 4113,
  "71": 1033,
  "72": 559,
  "720": 4074,
  "721": 4075,
  "722": 4076,
  "723": 4077,
  "724": 4078,
  "725": 4079,
  "726": 4080,
  "727": 4081,
  "728": 4082,
  "729": 4083,
  "73": 557,
  "730": 4064,
  "731": 4065,
  "732": 4066,
  "733": 4067,
  "734": 4068,
  "735": 4069,
  "736": 4070,
  "737": 4071,
  "738": 4072,
  "739": 4073,
  "74": 562,
  "740": 4094,
  "741": 4095,
  "742": 4096,
  "743": 4097,
  "744": 4098,
  "745": 4099,
  "746": 4100,
  "747": 4101,
  "748": 4102,
  "749": 4103,
  "75": 546,
  "750": 2797,
  "7500": 7816,
  "751": 4054,
  "752": 4055,
  "753": 4056,
  "754": 4057,
  "755": 4058,
  "756": 4059,
  "757": 4060,
  "758": 4061,
  "759": 4062,
  "76": 560,
  "760": 4084,
  "7600": 14454,
  "761": 4085,
  "762": 4086,
  "763": 4087,
  "764": 4088,
  "765": 4089,
  "766": 4090,
  "767": 4091,
  "768": 4092,
  "769": 4093,
  "77": 818,
  "771": 4328,
  "777": 4329,
  "78": 558,
  "780": 4282,
  "781": 4283,
  "782": 4284,
  "783": 4285,
  "784": 4286,
  "785": 4287,
  "786": 4288,
  "787": 4289,
  "788": 4290,
  "789": 4291,
  "79": 566,
  "790": 4292,
  "791": 4293,
  "792": 4294,
  "793": 4295,
  "794": 4296,
  "795": 4297,
  "796": 4298,
  "797": 4299,
  "798": 4300,
  "799": 4301,
  "8": 29,
  "80": 794,
  "800": 3986,
  "81": 1905,
  "82": 1302,
  "821": 7258,
  "83": 1384,
  "84": 1303,
  "841": 7259,
  "85": 1024,
  "850": 5714,
  "851": 7211,
  "852": 7212,
  "853": 7213,
  "854": 7214,
  "857": 7215,
  "858": 5370,
  "86": 1052,
  "861": 7229,
  "862": 7230,
  "863": 7231,
  "864": 7232,
  "867": 7233,
  "868": 5369,
  "869": 5368,
  "87": 1741,
  "88": 741,
  "89": 936,
  "890": 5715,
  "898": 6066,
  "899": 5371,
  "9": 30,
  "90": 793,
  "900": 5122,
  "9000": 10605,
  "9007": 15841,
  "91": 1889,
  "911": 12793,
  "92": 1292,
  "921": 7257,
  "93": 1374,
  "94": 1304,
  "941": 7260,
  "95": 1039,
  "950": 5716,
  "951": 7216,
  "952": 7217,
  "953": 7218,
  "954": 7219,
  "957": 7220,
  "958": 5374,
  "96": 1048,
  "961": 7224,
  "962": 7225,
  "963": 7226,
  "964": 7227,
  "967": 7228,
  "968": 5373,
  "969": 5372,
  "97": 1724,
  "98": 850,
  "980": 5717,
  "988": 5375,
  "99": 737,
  ":": 31,
  ":\"": 3644,
  ";": 32,
  ";\"": 10606,
  ";$": 6911,
  ";&": 5718,
  "<": 33,
  "</s>": 2,
  "<mask>": 4,
  "<pad>": 1,
  "<s>": 0,
  "<unk>": 3,
  "=": 34,
  ">": 35,
  "?": 36,
  "?\"": 1233,
  "?\"\"": 12795,
  "?\"\"\"": 12796,
  "?)": 12794,
  "@": 37,
  "A": 38,
  "AA": 3201,
  "AC": 5376,
  "AF": 9151,
  "AI": 3300,
  "AL": 10607,
  "AP": 4542,
  "APC": 15754,
  "ARR": 12804,
  "ASA": 3465,
  "AT": 8184,
  "AW": 2533,
  "Aargh": 12803,
  "Ab": 2047,
  "Ability": 15180,
  "Abort": 15179,
  "About": 2272,
  "Abs": 1742,
  "Absolutely": 1767,
  "Ac": 8185,
  "Acc": 3555,
  "Accelerating": 15561,
  "Accept": 16300,
  "According": 8044,
  "Accurate": 5341,
  "Act": 2049,
  "Activ": 11925,
  "Activating": 16742,
  "Active": 11924,
  "Actual": 7312,
  "Actually": 2532,
  "Ad": 6912,
  "Add": 6461,
  "Adding": 6914,
  "Addressing": 16037,
  "Adjusting": 16130,
  "After": 4385,
  "Age": 10608,
  "Agreed": 2071,
  "Ah": 5123,
  "Ahem": 5704,
  "Aim": 12797,
  "Aiming": 2981,
  "Air": 8187,
  "Al": 1848,
  "Alex": 12802,
  "Alexander": 16774,
  "All": 1594,
  "Allows": 15033,
  "Almost": 2702,
  "Already": 5625,
  "Also": 1743,
  "Although": 15113,
  "Always": 5624,
  "Am": 1906,
  "Amazing": 4152,
  "Amazingly": 12228,
  "Amb": 12798,
  "Ambroisie": 16772,
  "Americ": 10609,
  "American": 12675,
  "An": 1484,
  "Anarcho": 15021,
  "Ancient": 6331,
  "And": 1324,
  "Ann": 6756,
  "Announce": 12449,
  "Announcements": 16759,
  "Announcing": 12450,
  "Annual": 16117,
  "Anonymous": 15020,
  "Another": 5042,
  "Answer": 15019,
  "Ant": 9152,
  "Anti": 12601,
  "Any": 3044,
  "Anyone": 6018,
  "Anything": 10183,
  "Anywhere": 10184,
  "Apollo": 9155,
  "Apologies": 7482,
  "App": 3301,
  "Apparently": 12119,
  "Appears": 12117,
  "Applies": 12118,
  "Appreciate": 15517,
  "Approx": 7380,
  "Approximately": 9100,
  "April": 9154,
  "Ar": 6460,
  "Are": 3874,
  "Area": 15634,
  "Arent": 15635,
  "Armored": 16036,
  "Around": 12801,
  "Article": 12420,
  "As": 2048,
  "Ascent": 8829,
  "Ash": 12799,
  "Asimov": 11923,
  "Aspirationally": 6915,
  "Ass": 9153,
  "Assuming": 16427,
  "Astron": 5719,
  "Astronaut": 15937,
  "Astronauts": 8122,
  "At": 2453,
  "Attempting": 15310,
  "Aug": 12800,
  "August": 16773,
  "Austin": 9156,
  "Aut": 2867,
  "Auto": 8016,
  "Autonomy": 15413,
  "Autopilot": 3973,
  "Av": 8186,
  "Avg": 16301,
  "Awesome": 6913,
  "B": 39,
  "BA": 12805,
  "BC": 3987,
  "BFR": 9159,
  "BG": 12806,
  "BI": 12807,
  "BM": 10610,
  "BQ": 10611,
  "BT": 10612,
  "BTC": 12814,
  "Baby": 5378,
  "Bach": 12810,
  "Back": 4850,
  "Background": 15790,
  "Bad": 10614,
  "Base": 10616,
  "Based": 8189,
  "Basic": 9161,
  "Basically": 7484,
  "Battery": 6068,
  "Be": 4849,
  "Beaut": 6917,
  "Beautiful": 7468,
  "Bec": 10619,
  "Because": 3988,
  "Becoming": 12676,
  "Been": 8094,
  "Bel": 9158,
  "Believe": 12603,
  "Berlin": 10618,
  "Bern": 12811,
  "Besides": 12815,
  "Best": 3466,
  "Bet": 2921,
  "Beta": 5658,
  "Better": 6388,
  "Between": 7362,
  "Beyond": 15789,
  "Biden": 8191,
  "Big": 4175,
  "Bigger": 15692,
  "Biggest": 12230,
  "Bioshock": 12818,
  "Birds": 12816,
  "Bitcoin": 6916,
  "Biz": 12809,
  "Bizarre": 16776,
  "Bl": 5377,
  "Black": 7434,
  "Blame": 12817,
  "Blo": 12808,
  "Bloomberg": 16775,
  "Bold": 10617,
  "Booster": 6462,
  "Boring": 3366,
  "Bot": 10613,
  "Both": 3467,
  "Bottom": 16592,
  "Bought": 8188,
  "Box": 12813,
  "Br": 9157,
  "Bra": 10615,
  "Brain": 12812,
  "Brandenburg": 12602,
  "Brav": 9160,
  "Bravo": 10536,
  "Bring": 8190,
  "Btw": 3059,
  "Bu": 7483,
  "Build": 6067,
  "Building": 8130,
  "Busted": 5720,
  "But": 1824,
  "Buying": 16220,
  "By": 5124,
  "C": 40,
  "CA": 12819,
  "CB": 12820,
  "CEO": 10625,
  "CH": 8192,
  "CIS": 12844,
  "CNN": 12846,
  "CO": 12821,
  "CS": 12822,
  "CSat": 12842,
  "CT": 12823,
  "CU": 8193,
  "Cal": 12825,
  "California": 6921,
  "Call": 9162,
  "Camer": 12835,
  "Camera": 16777,
  "Can": 3060,
  "Canada": 8909,
  "Canadian": 15475,
  "Candy": 12839,
  "Cant": 3751,
  "Car": 5379,
  "Cars": 12827,
  "Cat": 10621,
  "Catch": 12831,
  "Cats": 12829,
  "Cause": 12832,
  "Center": 8199,
  "Ceph": 12847,
  "Cephalopods": 16781,
  "Ceres": 12834,
  "Certain": 12833,
  "Certainly": 8201,
  "Ch": 2339,
  "Change": 10110,
  "Changing": 10113,
  "Check": 8859,
  "Checking": 7984,
  "China": 6796,
  "Choms": 10111,
  "Chomsky": 10586,
  "Chris": 10112,
  "Cinn": 12843,
  "Cinnamon": 16780,
  "City": 3367,
  "Civilization": 12848,
  "Cl": 8194,
  "Class": 9166,
  "Classified": 16429,
  "Cle": 7485,
  "CleanTechn": 16221,
  "CleanTechnica": 17099,
  "Clearly": 10472,
  "Click": 10628,
  "Climate": 12543,
  "Close": 7486,
  "Co": 8195,
  "Coal": 16302,
  "Col": 10622,
  "Cold": 9163,
  "Colonizing": 12677,
  "Com": 6918,
  "Comb": 12840,
  "Combined": 16779,
  "Come": 8196,
  "Comes": 8198,
  "Coming": 1780,
  "Common": 10443,
  "Comp": 3875,
  "Competition": 12194,
  "Compilers": 12195,
  "Comple": 8957,
  "Completely": 12592,
  "Con": 5125,
  "Congr": 1448,
  "Congrats": 2531,
  "Congratulations": 2153,
  "Connected": 15843,
  "Cons": 6069,
  "Conservation": 15978,
  "Consider": 15977,
  "Considering": 10378,
  "Construction": 12305,
  "Cont": 6919,
  "Converts": 15842,
  "Cook": 10624,
  "Cookie": 16595,
  "Cool": 1929,
  "Core": 12828,
  "Corporate": 10627,
  "Correct": 6920,
  "Cost": 8197,
  "Could": 3989,
  "Couldn": 15659,
  "Couldnt": 10261,
  "Count": 12830,
  "Couple": 12841,
  "Cover": 9164,
  "Cr": 10620,
  "Cramer": 16593,
  "Crazy": 12838,
  "Creating": 8200,
  "Credit": 9171,
  "Crew": 9167,
  "Critical": 9168,
  "Cross": 12837,
  "Crossing": 16778,
  "Cry": 10623,
  "Cryo": 16594,
  "Crypt": 9169,
  "Cryptocurrency": 12604,
  "Culture": 12845,
  "Cumulative": 10626,
  "Cuphead": 9170,
  "Current": 5126,
  "Currently": 12306,
  "Custom": 9165,
  "Customized": 16428,
  "Cut": 12826,
  "Cute": 12836,
  "Cy": 12824,
  "Cybertruck": 3126,
  "D": 41,
  "DA": 6070,
  "DAR": 15979,
  "DC": 6922,
  "DIA": 12874,
  "DK": 10629,
  "DKE": 12678,
  "DL": 12849,
  "DM": 10630,
  "DMT": 16596,
  "DP": 12850,
  "DT": 9172,
  "Dad": 12854,
  "Dam": 12855,
  "Damn": 6073,
  "Dan": 10631,
  "Dance": 12856,
  "Dang": 12858,
  "Dank": 12859,
  "Dankeschn": 16597,
  "Dark": 12860,
  "Das": 9173,
  "Data": 12863,
  "Dave": 12865,
  "Day": 10632,
  "DayQuil": 16598,
  "De": 2814,
  "Deal": 15398,
  "Death": 8010,
  "Dec": 12864,
  "Deep": 4817,
  "Deepfake": 15788,
  "Deeply": 15787,
  "Def": 6463,
  "Definitely": 2072,
  "Del": 12853,
  "Deleting": 15399,
  "Den": 12852,
  "Denmark": 16782,
  "Dens": 12857,
  "Dep": 10633,
  "Depends": 4176,
  "Depot": 16599,
  "Des": 12851,
  "Design": 6072,
  "Dest": 9174,
  "Destacking": 16430,
  "Detail": 8203,
  "Detailed": 16303,
  "Details": 12545,
  "Deus": 12053,
  "Did": 4544,
  "Didn": 15756,
  "Didnt": 10308,
  "Diess": 12872,
  "Digital": 12875,
  "Direct": 8204,
  "Dis": 8202,
  "Disney": 12544,
  "Distance": 12873,
  "Do": 1639,
  "Does": 3851,
  "Doesn": 15632,
  "Doesnt": 8060,
  "Dog": 15049,
  "Doge": 4145,
  "Dogecoin": 8972,
  "Dogs": 15051,
  "Doing": 8786,
  "Dojo": 5970,
  "Don": 6071,
  "Done": 5721,
  "Dont": 2815,
  "Door": 15050,
  "Doub": 12869,
  "Double": 12866,
  "Dr": 4543,
  "Draco": 10307,
  "Drag": 10634,
  "Dragon": 2375,
  "Driving": 3752,
  "Droid": 12870,
  "Drone": 10306,
  "Droneship": 12871,
  "Dronship": 15755,
  "Duck": 12861,
  "Due": 6923,
  "Dumb": 12868,
  "Dune": 12867,
  "During": 12862,
  "E": 42,
  "EA": 8205,
  "EALiTi": 16304,
  "EC": 9175,
  "ED": 6924,
  "EE": 12876,
  "EF": 12877,
  "EG": 12878,
  "EO": 3061,
  "EPA": 5127,
  "ER": 6925,
  "ERN": 16131,
  "ES": 10635,
  "Each": 12881,
  "Early": 10639,
  "Earth": 4177,
  "Earths": 15693,
  "Eas": 10637,
  "Easier": 16600,
  "Easy": 12884,
  "Ed": 7487,
  "Edgy": 12500,
  "Effect": 12882,
  "Effectively": 16785,
  "Either": 10640,
  "Election": 12885,
  "Electric": 6464,
  "Elon": 10642,
  "Emp": 12880,
  "Empty": 16784,
  "En": 4851,
  "Encounter": 15793,
  "End": 7488,
  "Eng": 4178,
  "Engine": 5689,
  "Engineering": 9034,
  "Engineers": 15934,
  "Engines": 10272,
  "Enhanced": 15792,
  "Enough": 15791,
  "Ent": 8206,
  "Entertainment": 12279,
  "Entropy": 12546,
  "Epic": 12887,
  "Es": 10636,
  "Essentially": 8208,
  "Ethereum": 12886,
  "Euro": 8207,
  "Europe": 12547,
  "Eurovision": 16305,
  "Even": 3469,
  "Every": 3468,
  "Everyone": 6839,
  "Everything": 7385,
  "Ew": 12879,
  "Ewere": 16783,
  "Ex": 692,
  "Exactly": 768,
  "Exc": 3518,
  "Excellent": 6270,
  "Except": 11566,
  "Excess": 14577,
  "Excession": 11567,
  "Excessive": 17023,
  "Excited": 6409,
  "Exciting": 6025,
  "Excuse": 15552,
  "Exp": 6688,
  "Expansion": 16107,
  "Expect": 14576,
  "Expla": 10429,
  "Explains": 12670,
  "Ext": 10638,
  "Extended": 16601,
  "Extrem": 10641,
  "Extremely": 6926,
  "Extremism": 16602,
  "Eye": 12883,
  "F": 43,
  "FA": 12888,
  "FAA": 12904,
  "FEA": 12908,
  "FEAR": 16791,
  "FF": 12889,
  "FH": 10643,
  "FL": 12890,
  "FO": 6927,
  "FP": 12891,
  "FR": 4179,
  "FSC": 12909,
  "FSD": 3754,
  "FT": 9176,
  "FTW": 12907,
  "FW": 12892,
  "FWIW": 16786,
  "Fail": 12900,
  "Failure": 16789,
  "Fair": 2663,
  "Fairing": 7350,
  "Falcon": 1878,
  "Fallout": 8212,
  "Fam": 12895,
  "Fast": 12896,
  "Fate": 6074,
  "Fates": 12901,
  "Fe": 7489,
  "Fear": 8211,
  "Feature": 12501,
  "Federal": 12906,
  "Feed": 12902,
  "Feedback": 16790,
  "Feeling": 9183,
  "Feels": 6928,
  "Fi": 6465,
  "Fig": 9177,
  "Figuratively": 16432,
  "Figure": 16431,
  "Fil": 10645,
  "Final": 6469,
  "Finally": 9180,
  "Fine": 10646,
  "Finishing": 10652,
  "Finnish": 12910,
  "Firmware": 9181,
  "First": 1930,
  "Fix": 6076,
  "Fixed": 15980,
  "Fixing": 7451,
  "Fl": 12893,
  "Fla": 8209,
  "Flamethrower": 16306,
  "Flight": 6468,
  "Floki": 10651,
  "Flux": 16787,
  "Fly": 10644,
  "Flying": 9182,
  "Focus": 12903,
  "For": 1375,
  "Ford": 12898,
  "Forgot": 11795,
  "Form": 9178,
  "Former": 16433,
  "Forward": 11794,
  "Fossil": 12911,
  "Found": 6075,
  "Foundation": 12389,
  "Fr": 3753,
  "Frangible": 15605,
  "Frank": 6849,
  "Frankly": 12455,
  "Franz": 10239,
  "Fred": 8210,
  "Free": 12897,
  "Freedom": 10649,
  "Fremont": 12905,
  "French": 10650,
  "Fri": 12899,
  "Fro": 12894,
  "Frodo": 16788,
  "From": 6467,
  "Front": 15604,
  "Fuel": 10648,
  "Full": 3876,
  "Fully": 10647,
  "Fun": 6466,
  "Fundamental": 8213,
  "Future": 9179,
  "G": 44,
  "GA": 10653,
  "GBT": 10660,
  "GI": 4545,
  "GIGA": 15757,
  "GM": 12912,
  "Game": 10656,
  "Games": 10657,
  "Gary": 6930,
  "Gas": 6471,
  "Gasoline": 12421,
  "Gateway": 12920,
  "Gav": 12916,
  "Gave": 12915,
  "Gavin": 16794,
  "Gen": 6470,
  "Genau": 16039,
  "Generally": 16038,
  "Generates": 16040,
  "Gent": 12913,
  "Gentrify": 16792,
  "Geor": 12917,
  "Germ": 7491,
  "German": 9102,
  "Get": 10655,
  "Getting": 5722,
  "Giant": 9185,
  "Giga": 3470,
  "Gigafactory": 12144,
  "Gigawatt": 15543,
  "Given": 4852,
  "Glad": 2816,
  "Glass": 7492,
  "Global": 9188,
  "Go": 2982,
  "GoT": 15448,
  "Goal": 8901,
  "God": 9184,
  "Godot": 16434,
  "Godspeed": 12919,
  "Going": 3974,
  "Gonna": 9187,
  "Good": 866,
  "Goodby": 14679,
  "Goodbye": 17035,
  "Google": 12918,
  "Got": 7490,
  "Gra": 12914,
  "Grahams": 16793,
  "Gravitas": 10659,
  "Gre": 6929,
  "Great": 1078,
  "Green": 9186,
  "Gregor": 8155,
  "Grid": 10658,
  "Gro": 10654,
  "Groan": 16603,
  "Gu": 5128,
  "Guaranteed": 15844,
  "Guess": 8109,
  "Gwyn": 8214,
  "Gwynne": 12548,
  "Gwynnes": 16307,
  "H": 45,
  "HC": 9189,
  "HD": 6077,
  "HG": 10661,
  "HOP": 12937,
  "HS": 8215,
  "HT": 5380,
  "HTSA": 6062,
  "HW": 9190,
  "Ha": 806,
  "Had": 6472,
  "Hadouken": 16041,
  "Haha": 967,
  "Hahaha": 11677,
  "Halo": 12934,
  "Ham": 12925,
  "Hang": 12927,
  "Happy": 3032,
  "Har": 10663,
  "Harbinger": 16605,
  "Hard": 3556,
  "Hardcore": 12153,
  "Hardly": 15562,
  "Hare": 12926,
  "Has": 12923,
  "Hash": 12928,
  "Hashtags": 16796,
  "Hate": 9191,
  "Have": 4473,
  "Having": 8669,
  "Hawthorne": 8670,
  "He": 1931,
  "Head": 5382,
  "Headed": 6885,
  "Heard": 10054,
  "Heat": 15158,
  "Heavy": 9192,
  "Hehe": 15159,
  "Hel": 12924,
  "Hell": 4854,
  "Hello": 10319,
  "Henry": 12938,
  "Her": 10662,
  "Herbert": 16604,
  "Here": 6931,
  "Hes": 5381,
  "Hex": 10665,
  "Hey": 6776,
  "Hh": 12921,
  "Hi": 4853,
  "High": 2233,
  "Higher": 8839,
  "Highly": 10091,
  "His": 6078,
  "History": 12930,
  "Hmm": 10666,
  "Hol": 10664,
  "Hold": 6473,
  "Holiday": 16606,
  "Hollywood": 10669,
  "Homes": 8216,
  "Honestly": 9195,
  "Honored": 12935,
  "Hope": 9193,
  "Hopefully": 2234,
  "Hoping": 3557,
  "Hor": 12922,
  "Horizontally": 16795,
  "Hospital": 12931,
  "Hospitals": 16797,
  "How": 2232,
  "However": 5992,
  "Hub": 12929,
  "Huge": 5383,
  "Human": 8217,
  "Humanity": 16308,
  "Humans": 10668,
  "Hyd": 12933,
  "Hydrogen": 12936,
  "Hyp": 10667,
  "Hype": 12932,
  "Hyperloop": 9194,
  "Hypocritical": 16607,
  "I": 46,
  "IA": 10670,
  "IC": 6079,
  "ICA": 15981,
  "ICEF": 15982,
  "IDIA": 12945,
  "IK": 10671,
  "IO": 12939,
  "IP": 4855,
  "IS": 7493,
  "ISS": 16222,
  "IT": 10672,
  "IW": 12940,
  "Iceland": 12944,
  "Ich": 9196,
  "Id": 5129,
  "Ide": 7494,
  "Ideal": 16223,
  "Ideally": 12502,
  "If": 1025,
  "Ign": 9197,
  "Igniters": 16436,
  "Ignition": 16435,
  "Ill": 12942,
  "Im": 1825,
  "Imp": 2376,
  "Important": 3860,
  "Impressive": 5997,
  "Impressively": 15280,
  "Improve": 15279,
  "Improved": 10118,
  "Improvements": 17071,
  "Improving": 15281,
  "In": 942,
  "Inc": 7199,
  "Including": 14730,
  "Incorrect": 16188,
  "Increasing": 16189,
  "Incredibly": 16190,
  "Ind": 2766,
  "Indeed": 3122,
  "Individual": 15386,
  "Inf": 11669,
  "Initial": 11671,
  "Initially": 7882,
  "Innovation": 11670,
  "Ins": 9883,
  "Insane": 16538,
  "Inside": 14729,
  "Inst": 7200,
  "Instagram": 12488,
  "Instead": 16191,
  "Int": 6474,
  "Intent": 16042,
  "Intentionally": 16044,
  "Inter": 2016,
  "Interact": 15173,
  "Interesting": 2271,
  "Internal": 15174,
  "Intersections": 15175,
  "Interview": 11917,
  "Intuitive": 16043,
  "Intuitively": 17092,
  "Investigating": 9884,
  "Ir": 12941,
  "Iron": 5723,
  "Ironic": 12943,
  "Ironically": 9035,
  "Irony": 15938,
  "Is": 3877,
  "Isnt": 15636,
  "It": 847,
  "Its": 948,
  "Ive": 5130,
  "J": 47,
  "Jack": 10675,
  "Jalopnik": 12948,
  "Jay": 8218,
  "Je": 9198,
  "Jer": 10673,
  "Jerome": 12679,
  "Jet": 12947,
  "Jim": 10674,
  "Jo": 12946,
  "Joe": 10676,
  "Join": 16798,
  "July": 9199,
  "Just": 1042,
  "K": 48,
  "Karm": 10677,
  "Karma": 12680,
  "Key": 12950,
  "Kids": 6932,
  "Kinda": 6933,
  "King": 12949,
  "Krypton": 9200,
  "L": 49,
  "LA": 3558,
  "LC": 12951,
  "LI": 7495,
  "LIDAR": 16225,
  "LIN": 16224,
  "LOX": 12966,
  "LR": 12952,
  "LY": 10678,
  "Lab": 12955,
  "Lamin": 12972,
  "Laminar": 16801,
  "Landing": 4856,
  "Lane": 12960,
  "Laren": 12967,
  "Large": 12961,
  "Lasers": 10683,
  "Last": 6080,
  "Lat": 12954,
  "Late": 12956,
  "Latency": 16799,
  "Later": 5724,
  "Latest": 6477,
  "Launch": 2709,
  "Launching": 7352,
  "Law": 12962,
  "Laws": 16800,
  "Le": 5131,
  "Leasing": 12307,
  "Legs": 15845,
  "Length": 12964,
  "Let": 8219,
  "Lets": 6081,
  "Letter": 16309,
  "Levitt": 15847,
  "Levy": 15846,
  "Li": 7496,
  "LiTi": 16227,
  "Lie": 12957,
  "Life": 6082,
  "Lifting": 12970,
  "Light": 9202,
  "Lights": 16437,
  "Like": 5133,
  "Likewise": 15848,
  "Lil": 10680,
  "Limit": 9204,
  "Limited": 12605,
  "Liquid": 16226,
  "List": 8220,
  "Listening": 9124,
  "Literally": 5384,
  "Lithium": 10681,
  "Little": 12969,
  "Live": 6476,
  "Lmpe": 12971,
  "Lo": 6475,
  "Loc": 12959,
  "Local": 10682,
  "Lockheed": 7498,
  "Log": 12963,
  "London": 12965,
  "Long": 3368,
  "Loo": 1705,
  "Look": 15069,
  "Looking": 2859,
  "Looks": 2580,
  "Looming": 16045,
  "Lord": 9203,
  "Lori": 12968,
  "Lot": 5132,
  "Lots": 7497,
  "Love": 2614,
  "Lovely": 15350,
  "Low": 9201,
  "Lower": 12958,
  "Lu": 12953,
  "Luck": 8221,
  "Lucky": 16310,
  "Ly": 10679,
  "Lyft": 12681,
  "M": 50,
  "MA": 5725,
  "MCU": 12985,
  "ME": 9205,
  "MI": 12973,
  "ML": 10684,
  "MPG": 12987,
  "MPGe": 16805,
  "MW": 8222,
  "Ma": 2454,
  "Mach": 6936,
  "Mad": 9210,
  "Made": 8226,
  "Mail": 12979,
  "Mailing": 16804,
  "Major": 4513,
  "Make": 7501,
  "Makes": 5644,
  "Making": 5073,
  "Mal": 10686,
  "Malcolm": 16608,
  "Man": 9206,
  "Manganese": 12988,
  "Manufact": 10537,
  "Manufacturing": 16591,
  "Many": 3990,
  "Mar": 12974,
  "March": 10690,
  "Marg": 10688,
  "Margaritav": 16609,
  "Margaritaville": 17104,
  "Mars": 3062,
  "Marx": 16802,
  "Mass": 5726,
  "Massive": 12363,
  "Masters": 12986,
  "Math": 12978,
  "Max": 3878,
  "Maximizing": 15638,
  "Maxwell": 15637,
  "May": 9208,
  "Maybe": 1305,
  "Me": 2490,
  "Mean": 12009,
  "Meaning": 10131,
  "Meant": 5074,
  "Meanwhile": 16747,
  "Mech": 12981,
  "Med": 8224,
  "Media": 12983,
  "Meg": 12980,
  "Megap": 12982,
  "Mein": 12008,
  "Mem": 7500,
  "Meme": 12503,
  "Memes": 12504,
  "Mer": 6935,
  "Mercedes": 16134,
  "Merging": 16132,
  "Merkind": 16133,
  "Merkindise": 17096,
  "Merlin": 6937,
  "Merry": 7502,
  "Mess": 10687,
  "Message": 12682,
  "Met": 9207,
  "Mich": 12976,
  "Mid": 9209,
  "Midnight": 16438,
  "Might": 3369,
  "Milad": 12989,
  "Milady": 16806,
  "Min": 6478,
  "Mind": 9211,
  "Minecraft": 12984,
  "Minor": 12422,
  "Miss": 8227,
  "Missed": 10506,
  "Mission": 9212,
  "Mk": 7499,
  "Mob": 10689,
  "Model": 1403,
  "Mon": 8223,
  "Mont": 12975,
  "Monthly": 16311,
  "Monty": 16803,
  "Moon": 6084,
  "More": 2455,
  "Moreover": 10125,
  "Most": 2097,
  "Mostly": 5302,
  "Motor": 6938,
  "Mount": 12977,
  "Moving": 6085,
  "Mr": 10685,
  "Ms": 6934,
  "Much": 3471,
  "Mun": 8225,
  "Munro": 10505,
  "Music": 10691,
  "Must": 6083,
  "My": 1890,
  "N": 51,
  "NA": 4857,
  "NBC": 12998,
  "NER": 13001,
  "NERV": 16810,
  "NHTSA": 12999,
  "NK": 12990,
  "NN": 8228,
  "NV": 12991,
  "NVIDIA": 16807,
  "NY": 7503,
  "Nan": 12992,
  "Nano": 13000,
  "Nanotech": 16808,
  "National": 12996,
  "Natr": 10694,
  "Natrlich": 12683,
  "Naturally": 9217,
  "Nav": 12997,
  "Ne": 1180,
  "Near": 14859,
  "Need": 7908,
  "Needs": 5601,
  "Neither": 14861,
  "Net": 12993,
  "Neural": 14860,
  "Neuralink": 6736,
  "Never": 5947,
  "New": 2174,
  "Next": 3041,
  "Nice": 1932,
  "Nich": 12995,
  "Nicheman": 16809,
  "Nickel": 10693,
  "Night": 7504,
  "Nine": 12994,
  "Nintendo": 13002,
  "No": 848,
  "Nobody": 9851,
  "Non": 9213,
  "None": 9214,
  "Nope": 6939,
  "Norm": 10692,
  "Normal": 16610,
  "North": 9216,
  "Norway": 4546,
  "Nose": 9215,
  "Nosecone": 16439,
  "Not": 1060,
  "Note": 6300,
  "Noted": 11713,
  "Nothing": 4180,
  "Nov": 14668,
  "November": 14669,
  "Now": 2767,
  "Nu": 5727,
  "Nuclear": 12364,
  "Nuke": 10357,
  "Nuking": 15939,
  "O": 52,
  "OE": 13003,
  "OG": 7505,
  "OM": 13004,
  "OP": 9218,
  "OS": 10695,
  "OT": 13005,
  "OX": 7506,
  "Ob": 13006,
  "Oberth": 13010,
  "Obv": 9220,
  "Obviously": 7508,
  "Occupy": 13011,
  "Odd": 6941,
  "Odds": 12459,
  "Of": 2377,
  "Off": 9219,
  "Offer": 16440,
  "Offic": 13008,
  "Oh": 2664,
  "Ok": 1200,
  "Old": 8229,
  "On": 1449,
  "Once": 4495,
  "One": 2118,
  "Online": 11821,
  "Only": 2413,
  "Open": 5728,
  "OpenAI": 12365,
  "Opening": 10358,
  "Opposite": 13009,
  "Or": 2117,
  "Orbit": 10075,
  "Orbital": 6783,
  "Order": 6348,
  "Original": 7317,
  "Other": 6940,
  "Our": 2710,
  "Out": 7507,
  "Outer": 8230,
  "Over": 2922,
  "Overall": 7363,
  "Own": 13007,
  "Owner": 16811,
  "P": 53,
  "PA": 3063,
  "PAC": 8910,
  "PAP": 12091,
  "PC": 5729,
  "PCs": 12366,
  "PE": 13012,
  "PG": 9221,
  "PS": 4547,
  "PT": 8231,
  "PU": 3472,
  "PV": 6942,
  "Pace": 13016,
  "Pain": 13018,
  "Paint": 13027,
  "Pal": 5730,
  "Paperwork": 13030,
  "Par": 9222,
  "Parasite": 16442,
  "Parking": 16441,
  "Part": 5386,
  "Partial": 15892,
  "Party": 12338,
  "Pass": 7510,
  "Passed": 16230,
  "Passing": 16229,
  "Passive": 16231,
  "Pay": 6479,
  "PayPal": 12423,
  "Payload": 10408,
  "Pc": 13013,
  "Peak": 10698,
  "Pen": 13014,
  "Peng": 13022,
  "Penn": 13026,
  "People": 4548,
  "Per": 4386,
  "Performance": 15734,
  "Perhaps": 5352,
  "Person": 10697,
  "Personally": 12684,
  "Ph": 2615,
  "Phone": 7348,
  "Photos": 15352,
  "Photoshop": 17074,
  "Phys": 15351,
  "Physics": 3863,
  "Pick": 13021,
  "Pickup": 16813,
  "Pics": 9224,
  "Pl": 4181,
  "Place": 12231,
  "Plaid": 7511,
  "Plan": 9226,
  "Planning": 12606,
  "Plausible": 13031,
  "Play": 6863,
  "Playing": 10440,
  "Please": 2534,
  "Plus": 12232,
  "Polytopia": 13028,
  "Pop": 13015,
  "Population": 10699,
  "Port": 13017,
  "Portal": 16812,
  "Possible": 8232,
  "Possibly": 6943,
  "Post": 9225,
  "Posting": 13029,
  "Pot": 9223,
  "Potentially": 16443,
  "Power": 5134,
  "Powerpack": 15849,
  "Powerwall": 7427,
  "Pr": 4858,
  "Prav": 13025,
  "Pre": 1424,
  "Precis": 6750,
  "Precisely": 6907,
  "Preparing": 14988,
  "Presentation": 9993,
  "Press": 13020,
  "Pretty": 1766,
  "Price": 8997,
  "Priority": 10700,
  "Pro": 976,
  "Prob": 5940,
  "Probability": 11682,
  "Probably": 1317,
  "Problem": 9895,
  "Product": 9896,
  "Production": 5017,
  "Progress": 7885,
  "Prom": 7509,
  "Prometheus": 16228,
  "Promising": 12505,
  "Propellant": 11681,
  "Prot": 9894,
  "Protagonists": 16540,
  "Protesting": 16539,
  "Prototypes": 7886,
  "Provid": 14748,
  "Provided": 17039,
  "Pull": 13019,
  "Pure": 10696,
  "Pushing": 13023,
  "Put": 5385,
  "Putting": 7435,
  "Python": 13024,
  "Q": 54,
  "QL": 13032,
  "Qu": 4182,
  "Quantum": 15694,
  "Que": 13033,
  "Queen": 16814,
  "Quil": 6427,
  "Quite": 12233,
  "R": 55,
  "RE": 13034,
  "RI": 8233,
  "RIP": 8238,
  "RNA": 9229,
  "RO": 6480,
  "RP": 9227,
  "RR": 10701,
  "RWD": 10711,
  "Ra": 13035,
  "Race": 9228,
  "Raceway": 16444,
  "Racing": 10709,
  "Rad": 8236,
  "Radar": 12550,
  "Rage": 10704,
  "Range": 13037,
  "Rapid": 10707,
  "Raptor": 2616,
  "Raptors": 10710,
  "Rather": 13041,
  "Raw": 13042,
  "Rawlinson": 16816,
  "Re": 1450,
  "Read": 5136,
  "Reading": 12308,
  "Real": 7932,
  "Reality": 7285,
  "Really": 5041,
  "Rear": 13040,
  "Reason": 6752,
  "Reasons": 9998,
  "Rec": 8766,
  "Recent": 14999,
  "Recommended": 16407,
  "Recovery": 15000,
  "Red": 5731,
  "Reddit": 9036,
  "Reg": 5961,
  "Regarding": 8127,
  "Rel": 8235,
  "Relatively": 16313,
  "Release": 14998,
  "Releasing": 8767,
  "Relief": 16312,
  "Rem": 5135,
  "Reminder": 9011,
  "Reminds": 15850,
  "Ren": 8234,
  "Renewable": 12549,
  "Rep": 6481,
  "Reply": 16046,
  "Report": 16047,
  "Res": 5387,
  "Resp": 10341,
  "Respawn": 12666,
  "Rest": 8237,
  "Review": 6751,
  "Rewatched": 15001,
  "Rex": 13039,
  "Riding": 13044,
  "Right": 7512,
  "Ro": 6086,
  "Roadster": 10379,
  "Rob": 10708,
  "Roc": 7513,
  "Rock": 10705,
  "Rocket": 2817,
  "Rockets": 12685,
  "Rococo": 8167,
  "Roll": 10706,
  "Room": 15984,
  "Root": 15983,
  "Ros": 13038,
  "Rosetta": 16815,
  "Rot": 10702,
  "Rotate": 16611,
  "Rough": 10703,
  "Roughly": 6088,
  "Round": 13036,
  "Running": 13043,
  "Russ": 6087,
  "Russia": 12390,
  "Russian": 10380,
  "S": 56,
  "SA": 2665,
  "SC": 9230,
  "SD": 994,
  "SEC": 10734,
  "SF": 8239,
  "SIC": 10732,
  "SIK": 10735,
  "SJ": 5388,
  "SL": 10712,
  "SLA": 13057,
  "SN": 2983,
  "SP": 13045,
  "SRP": 13060,
  "ST": 7514,
  "SW": 8240,
  "Sa": 13046,
  "Sad": 6945,
  "Sadly": 12460,
  "Safety": 10733,
  "Sagan": 13063,
  "Saints": 9239,
  "Sam": 10716,
  "Same": 3202,
  "Samwise": 16612,
  "San": 10713,
  "Sand": 10719,
  "Sandwich": 16613,
  "Sandy": 10726,
  "Sarah": 13062,
  "Sat": 6944,
  "Satell": 13055,
  "Satire": 16135,
  "Saudi": 16817,
  "Saw": 9234,
  "Say": 10715,
  "Sc": 6089,
  "Sch": 8241,
  "Schatz": 16315,
  "Schrdinger": 16314,
  "Science": 6947,
  "Scientists": 9238,
  "Screen": 15985,
  "Se": 2303,
  "Sea": 9231,
  "Second": 8853,
  "See": 15259,
  "Seeing": 10104,
  "Seems": 3737,
  "Self": 10722,
  "Semi": 10727,
  "Send": 13053,
  "Sending": 9233,
  "Sens": 8243,
  "Sensible": 16317,
  "Sensors": 12551,
  "Sentry": 9235,
  "September": 15260,
  "Ser": 3879,
  "Seriously": 4536,
  "Service": 15639,
  "Set": 10714,
  "Several": 7983,
  "Sh": 1417,
  "Sha": 9232,
  "Shakes": 16445,
  "Shanghai": 9991,
  "Sharknado": 14984,
  "She": 8761,
  "Sheer": 11812,
  "Shes": 14982,
  "Ship": 7517,
  "Ships": 16233,
  "Shock": 14983,
  "Short": 11811,
  "Should": 1963,
  "Shoulda": 15163,
  "Side": 7516,
  "Sig": 13049,
  "Sigh": 3473,
  "Sign": 6091,
  "Signal": 15987,
  "Significant": 15988,
  "Signing": 10381,
  "Sil": 13051,
  "Sim": 4859,
  "Similar": 8095,
  "Simp": 10720,
  "Simple": 12687,
  "Simulation": 12280,
  "Simulations": 12281,
  "Since": 8244,
  "Singapore": 13061,
  "Single": 9237,
  "Sir": 13050,
  "Six": 13054,
  "Sk": 13047,
  "Slight": 8242,
  "Slightly": 16316,
  "Slow": 10723,
  "Slowpoke": 16614,
  "Sm": 5389,
  "Small": 7436,
  "Smart": 10342,
  "Sn": 13048,
  "Snow": 10728,
  "So": 1221,
  "Software": 8729,
  "Solar": 2923,
  "SolarCity": 5328,
  "Sole": 14889,
  "Some": 1994,
  "Somehow": 15168,
  "Someone": 10061,
  "Something": 3880,
  "Sometimes": 6483,
  "Sonic": 10730,
  "Soon": 4345,
  "Sooo": 13059,
  "Sorry": 1781,
  "Sound": 13052,
  "Sounds": 2135,
  "Sp": 5137,
  "Space": 3991,
  "SpaceX": 1595,
  "SpaceXs": 15034,
  "Spaceballs": 15660,
  "Spatial": 15852,
  "Spe": 6946,
  "Special": 7469,
  "Speed": 9236,
  "Spo": 13056,
  "Spoiler": 16818,
  "Spooling": 15851,
  "Srsly": 10731,
  "St": 754,
  "Stability": 9836,
  "Stacking": 11602,
  "Stage": 11600,
  "Stainless": 14620,
  "Standing": 14619,
  "Star": 3828,
  "Starbase": 10249,
  "Starfleet": 15631,
  "Starhopper": 6856,
  "Starlink": 3429,
  "Starlinks": 14622,
  "Starship": 1587,
  "Starships": 10010,
  "Started": 11603,
  "Starting": 7174,
  "Starts": 15630,
  "Static": 8659,
  "Stay": 9835,
  "Still": 3106,
  "Stonk": 14623,
  "Stop": 3428,
  "Storm": 7850,
  "Story": 14618,
  "Strange": 5900,
  "Strangers": 14625,
  "Straw": 14621,
  "Streaming": 14624,
  "Strong": 8660,
  "Strongest": 16395,
  "Stud": 11601,
  "Study": 16715,
  "Su": 6482,
  "Success": 9067,
  "Successful": 12595,
  "Such": 10721,
  "Sum": 10718,
  "Summon": 10725,
  "Sun": 6090,
  "Sunday": 12391,
  "Sunset": 15986,
  "Super": 2378,
  "Supercharg": 7987,
  "Supercharger": 12540,
  "Superchargers": 12541,
  "Support": 8245,
  "Sur": 10717,
  "Sure": 1170,
  "Surprising": 12686,
  "Surprisingly": 12774,
  "Sw": 7515,
  "Swear": 13058,
  "Sweden": 12506,
  "Swipe": 16232,
  "Swit": 10724,
  "Switching": 16615,
  "Syd": 10729,
  "System": 7518,
  "T": 57,
  "TA": 4183,
  "TC": 5138,
  "TE": 8246,
  "TH": 7519,
  "TO": 3881,
  "TOPS": 15640,
  "TS": 8247,
  "TSLA": 16318,
  "TT": 13064,
  "TV": 7520,
  "TW": 5139,
  "Take": 9243,
  "Taking": 10742,
  "Tal": 10737,
  "Talked": 16617,
  "Tank": 13074,
  "Tanks": 13071,
  "Tap": 9241,
  "Tax": 10739,
  "Tbh": 10740,
  "Te": 6484,
  "Team": 13080,
  "Tech": 3992,
  "Techn": 12212,
  "Technically": 5348,
  "Technology": 15661,
  "Tele": 10409,
  "Telemetry": 12668,
  "Teletub": 16049,
  "Tempor": 16048,
  "Tent": 13068,
  "Tentative": 16819,
  "Tesla": 650,
  "Teslas": 9246,
  "Test": 13069,
  "Testing": 4549,
  "Texas": 13075,
  "Th": 373,
  "Thank": 2595,
  "Thankfully": 15343,
  "Thanks": 893,
  "That": 956,
  "Thats": 1388,
  "The": 574,
  "Their": 14459,
  "Then": 5837,
  "There": 1286,
  "Theres": 4439,
  "These": 3499,
  "They": 1719,
  "Theyre": 6335,
  "Theyve": 15076,
  "Thin": 13910,
  "Things": 11243,
  "Think": 11242,
  "Thinking": 9573,
  "Third": 8473,
  "This": 736,
  "Those": 4032,
  "Thought": 5838,
  "Thoughtful": 6892,
  "Three": 6193,
  "Throw": 13911,
  "Thrust": 8474,
  "Thruster": 16347,
  "Thrusters": 16348,
  "Thurs": 9572,
  "Thursday": 10561,
  "Thus": 11241,
  "Ti": 13065,
  "Tillerson": 13084,
  "Tim": 9240,
  "Time": 4387,
  "Times": 13077,
  "Timing": 13076,
  "Tin": 13066,
  "Tiny": 13078,
  "To": 1657,
  "Tod": 7523,
  "Today": 9103,
  "Told": 10738,
  "Tom": 6092,
  "Tomorrow": 10382,
  "Ton": 7521,
  "Tonight": 16234,
  "Tonnage": 12507,
  "Tons": 13072,
  "Too": 7522,
  "Took": 9245,
  "Top": 6948,
  "Torch": 13082,
  "Toss": 15057,
  "Tot": 5732,
  "Total": 12367,
  "Totally": 7443,
  "Touch": 7524,
  "Touched": 13083,
  "Tough": 13070,
  "Tow": 13067,
  "Tower": 9242,
  "Tr": 908,
  "Track": 14706,
  "Tracking": 14707,
  "Trag": 8248,
  "Tragic": 12552,
  "Trans": 7872,
  "Transparent": 12534,
  "Tri": 13073,
  "Trick": 13081,
  "Trickier": 16820,
  "Tricky": 13085,
  "Trigger": 14708,
  "Triggered": 17037,
  "Troll": 13079,
  "Trouble": 11649,
  "True": 1051,
  "Trust": 9868,
  "Truth": 5579,
  "Try": 3755,
  "Trying": 8054,
  "Tube": 6486,
  "Tues": 8249,
  "Tuesday": 12553,
  "Tunn": 6485,
  "Tunnels": 6902,
  "Turb": 9244,
  "Turbines": 16446,
  "Turbo": 10743,
  "Turbopump": 16447,
  "Turn": 3064,
  "Turning": 15476,
  "Turns": 4166,
  "Tw": 10736,
  "Tweak": 16616,
  "Twitter": 6093,
  "Two": 6094,
  "Typ": 10741,
  "Typing": 12688,
  "U": 58,
  "UAW": 9250,
  "UD": 3645,
  "UK": 7525,
  "UN": 10744,
  "US": 3993,
  "USA": 13088,
  "UV": 4184,
  "Uber": 13087,
  "Uh": 4860,
  "Uhh": 15794,
  "Ukraine": 10747,
  "Ult": 10745,
  "Ultimately": 12689,
  "Um": 4861,
  "Umm": 10746,
  "Un": 2818,
  "Under": 6949,
  "Underappreciated": 16136,
  "Unfortunately": 4519,
  "Unity": 15400,
  "Univers": 15401,
  "Unless": 10155,
  "Unlike": 10156,
  "Up": 3646,
  "Upcoming": 10230,
  "Upd": 8945,
  "Update": 16416,
  "Updating": 12590,
  "Upgr": 6847,
  "Upgrades": 16128,
  "Upgrading": 10439,
  "Upper": 9249,
  "Ur": 9247,
  "Us": 7526,
  "Use": 9248,
  "Useful": 16448,
  "Using": 7527,
  "Usually": 16235,
  "Ut": 13086,
  "Utter": 16821,
  "V": 59,
  "VAC": 6488,
  "Vac": 4185,
  "Vacuum": 15695,
  "Val": 13091,
  "Vandenberg": 13093,
  "Var": 13090,
  "Vast": 13092,
  "Vehicle": 13094,
  "Venus": 13095,
  "Version": 10749,
  "Very": 1933,
  "Vide": 6487,
  "Video": 7458,
  "View": 7528,
  "Vis": 13089,
  "Visual": 16822,
  "Vote": 10748,
  "Voters": 13096,
  "W": 60,
  "WD": 3203,
  "WM": 13097,
  "Wait": 9253,
  "Waiting": 9252,
  "Wake": 13102,
  "Wal": 6489,
  "Walk": 16050,
  "Walked": 16051,
  "Walking": 10410,
  "Want": 10750,
  "Wanted": 8250,
  "War": 13099,
  "Warning": 10752,
  "Warren": 16823,
  "Was": 3204,
  "Wasn": 15501,
  "Watch": 7532,
  "Watched": 13106,
  "Watching": 12508,
  "Way": 7530,
  "We": 636,
  "Wearing": 11544,
  "Wed": 7529,
  "Weird": 8629,
  "Welcome": 6951,
  "Weld": 9791,
  "Welded": 12638,
  "Well": 2226,
  "Were": 1519,
  "Weve": 6263,
  "Wh": 757,
  "Wharton": 14626,
  "What": 1545,
  "Whats": 6278,
  "When": 2480,
  "Where": 5253,
  "Wheres": 8662,
  "Whether": 9838,
  "Which": 5901,
  "While": 5902,
  "Who": 3107,
  "Whoa": 5335,
  "Whoop": 9839,
  "Why": 3344,
  "Wik": 13104,
  "Wild": 9251,
  "Will": 995,
  "Winds": 13108,
  "Wings": 13101,
  "Winter": 13105,
  "Wise": 10751,
  "With": 2617,
  "Without": 8876,
  "Woke": 13103,
  "Wont": 7531,
  "Woohoo": 8251,
  "Wor": 2491,
  "Words": 13107,
  "Workin": 15317,
  "Working": 3195,
  "Works": 15316,
  "World": 8867,
  "Worlds": 16411,
  "Worth": 3065,
  "Would": 2379,
  "Wouldnt": 15282,
  "Wow": 1547,
  "Wr": 6950,
  "Wrath": 16138,
  "Write": 16137,
  "Wrlq": 16139,
  "Wu": 13098,
  "Wut": 13100,
  "X": 61,
  "XY": 10753,
  "Y": 62,
  "Ya": 13109,
  "Yay": 7533,
  "Ye": 10754,
  "Yeah": 674,
  "Yep": 7534,
  "Yer": 13110,
  "Yes": 481,
  "Yesterday": 14315,
  "Yet": 10756,
  "Yezz": 12690,
  "Yikes": 13111,
  "Yo": 10755,
  "You": 776,
  "Youd": 14631,
  "Youll": 14632,
  "Your": 3647,
  "Youre": 2090,
  "Yup": 1520,
  "Z": 63,
  "Zero": 13112,
  "Zeroth": 13113,
  "Zip": 10757,
  "[": 64,
  "[UNK]": 5,
  "\\": 65,
  "]": 66,
  "^": 67,
  "_": 68,
  "`": 69,
  "a": 70,
  "aac": 13114,
  "aargh": 13119,
  "ab": 387,
  "aber": 13955,
  "aberg": 13958,
  "abia": 13957,
  "abies": 11272,
  "abil": 3793,
  "abilities": 10246,
  "ability": 1389,
  "abit": 8490,
  "abity": 13956,
  "abl": 13954,
  "able": 540,
  "abled": 11273,
  "ables": 4933,
  "ablish": 9588,
  "ably": 2124,
  "about": 11271,
  "abouts": 11274,
  "aby": 2398,
  "ac": 313,
  "acc": 6167,
  "accident": 15999,
  "ace": 441,
  "acebook": 7756,
  "aced": 3149,
  "acer": 13718,
  "aces": 1632,
  "aceship": 8785,
  "ach": 655,
  "acheal": 9808,
  "ached": 9807,
  "achell": 11558,
  "achella": 12745,
  "achusetts": 14554,
  "achute": 14553,
  "acing": 2391,
  "acitors": 13722,
  "acity": 13721,
  "ack": 501,
  "acked": 4604,
  "acker": 8571,
  "acking": 2058,
  "acks": 2354,
  "acle": 13720,
  "acles": 11117,
  "aco": 5179,
  "acopter": 8423,
  "acro": 13719,
  "act": 437,
  "action": 2736,
  "actions": 9648,
  "active": 11349,
  "actively": 14121,
  "actly": 688,
  "actually": 7752,
  "acy": 2432,
  "ad": 343,
  "ada": 2161,
  "add": 13839,
  "ade": 782,
  "aded": 13840,
  "adem": 9537,
  "ader": 9536,
  "ades": 3910,
  "adian": 6178,
  "adies": 13841,
  "ading": 2513,
  "adjust": 11189,
  "adjusted": 16658,
  "ado": 6603,
  "ados": 13842,
  "adouche": 13844,
  "adow": 7688,
  "adre": 7066,
  "adster": 2083,
  "advanced": 13843,
  "ady": 922,
  "ael": 9255,
  "af": 3370,
  "afe": 10209,
  "afety": 6403,
  "aff": 6953,
  "aft": 5390,
  "after": 6491,
  "ag": 943,
  "agan": 11672,
  "age": 637,
  "aged": 3175,
  "ages": 2802,
  "aggering": 6296,
  "aggeringly": 16020,
  "agic": 6715,
  "agine": 14731,
  "aging": 6714,
  "agnetic": 9885,
  "ago": 7883,
  "agon": 7201,
  "agonal": 16192,
  "agonists": 16193,
  "agram": 9257,
  "agree": 5262,
  "ah": 2924,
  "ahem": 6822,
  "ahn": 6821,
  "ahoo": 15424,
  "ahr": 15423,
  "ai": 1658,
  "aic": 10759,
  "aid": 2073,
  "aign": 5734,
  "ail": 1117,
  "aila": 2414,
  "ailed": 14831,
  "ails": 14830,
  "ain": 486,
  "aine": 10760,
  "aining": 2195,
  "ainless": 3335,
  "ainment": 5230,
  "ains": 2405,
  "aint": 6242,
  "ainted": 14319,
  "aints": 7788,
  "air": 1335,
  "aire": 6952,
  "aired": 8252,
  "aires": 13117,
  "airy": 9972,
  "ait": 7535,
  "aited": 13116,
  "aiting": 5141,
  "aj": 9254,
  "ak": 1167,
  "aka": 5274,
  "ake": 1640,
  "aked": 14855,
  "aken": 7907,
  "aker": 9932,
  "akes": 3066,
  "aking": 5733,
  "aks": 4862,
  "al": 300,
  "ala": 13675,
  "alact": 7035,
  "alactic": 9087,
  "alax": 9461,
  "alaxy": 10551,
  "alcon": 803,
  "ald": 7656,
  "ale": 1752,
  "aler": 9458,
  "ales": 13676,
  "alf": 1272,
  "alib": 8408,
  "alif": 1573,
  "aliforn": 1625,
  "alifornia": 1656,
  "alin": 11086,
  "aling": 9459,
  "alism": 11087,
  "ality": 1613,
  "alizing": 13678,
  "all": 342,
  "alled": 7687,
  "allel": 5460,
  "alley": 4235,
  "allic": 13838,
  "alling": 13837,
  "alloc": 11188,
  "allocate": 12716,
  "allout": 5810,
  "allow": 6177,
  "allowed": 16008,
  "alls": 13836,
  "allur": 11187,
  "allurgy": 12715,
  "ally": 393,
  "almost": 7657,
  "alo": 5175,
  "alog": 13679,
  "alop": 8406,
  "alopnik": 12563,
  "alopods": 16339,
  "already": 9460,
  "alrog": 13680,
  "als": 5793,
  "alse": 13677,
  "also": 8407,
  "alt": 7034,
  "alth": 2880,
  "alty": 6574,
  "am": 367,
  "ama": 9565,
  "amaged": 13893,
  "amanuj": 13895,
  "amatically": 13892,
  "amb": 7710,
  "amber": 2394,
  "ambrian": 16254,
  "ame": 589,
  "amed": 2641,
  "ament": 2033,
  "amer": 1790,
  "ames": 1775,
  "amic": 11230,
  "amiliar": 13894,
  "amin": 11229,
  "amination": 7711,
  "amine": 6189,
  "aming": 3498,
  "amity": 13891,
  "amm": 6614,
  "ammer": 5495,
  "ammers": 16087,
  "amn": 4243,
  "amon": 13890,
  "amp": 315,
  "amping": 5447,
  "ample": 3389,
  "amples": 9489,
  "ampoline": 13732,
  "ampoo": 13731,
  "ams": 3581,
  "amses": 12159,
  "an": 285,
  "anTechn": 13559,
  "ana": 6552,
  "ance": 708,
  "anced": 1490,
  "ances": 4411,
  "ancing": 7634,
  "ancy": 4570,
  "and": 432,
  "anda": 4597,
  "andard": 11340,
  "anden": 3800,
  "andenberg": 5682,
  "andenburg": 6853,
  "ander": 8529,
  "andfather": 14110,
  "anding": 2517,
  "andom": 4947,
  "andon": 9645,
  "ands": 2554,
  "andwidth": 11341,
  "andy": 3097,
  "ane": 1129,
  "aneously": 14840,
  "anes": 6555,
  "anese": 7633,
  "aneu": 5272,
  "ang": 836,
  "anganese": 9849,
  "ange": 717,
  "anged": 14659,
  "anger": 2526,
  "angers": 7859,
  "angh": 3230,
  "anghai": 3294,
  "angible": 14661,
  "anging": 7182,
  "angle": 14660,
  "angu": 7181,
  "ania": 11019,
  "anic": 11017,
  "anical": 11020,
  "anies": 1507,
  "aning": 4569,
  "anium": 5436,
  "ank": 971,
  "anked": 14745,
  "anken": 14744,
  "anket": 14746,
  "ankind": 14747,
  "anking": 11018,
  "anks": 700,
  "ann": 4217,
  "anna": 8369,
  "anny": 9424,
  "ano": 6553,
  "anoid": 8368,
  "anos": 6147,
  "ans": 630,
  "ansion": 3601,
  "ant": 413,
  "antage": 3587,
  "anted": 5211,
  "antic": 4038,
  "anton": 14057,
  "ants": 5210,
  "antum": 6633,
  "anuj": 13558,
  "anus": 13557,
  "any": 547,
  "anye": 14447,
  "anz": 6554,
  "ao": 10758,
  "aoke": 5391,
  "aops": 13118,
  "ap": 489,
  "apacitors": 14327,
  "apan": 4265,
  "ape": 1404,
  "aper": 4863,
  "apers": 7792,
  "aperwork": 12282,
  "apes": 9713,
  "apid": 1687,
  "aping": 14325,
  "apital": 11448,
  "apole": 7793,
  "apoleon": 8178,
  "apor": 9714,
  "app": 3205,
  "appears": 15502,
  "appreciated": 5092,
  "approved": 10197,
  "aps": 2196,
  "apse": 4961,
  "apt": 859,
  "aptor": 1070,
  "aptors": 2608,
  "apult": 14326,
  "aqu": 10761,
  "ar": 284,
  "ara": 8363,
  "arad": 7630,
  "araday": 8169,
  "arah": 11015,
  "arant": 3001,
  "aranteed": 3745,
  "araoke": 8367,
  "arate": 13551,
  "arch": 2025,
  "arching": 7968,
  "archo": 10065,
  "arcy": 13553,
  "ard": 436,
  "arded": 11348,
  "ardew": 14120,
  "ardian": 14119,
  "ardians": 8531,
  "arding": 4042,
  "ards": 3802,
  "are": 491,
  "ared": 2560,
  "arehold": 11449,
  "arely": 14330,
  "aren": 7794,
  "arent": 3165,
  "arently": 7372,
  "arents": 6396,
  "arette": 11450,
  "arf": 8364,
  "arg": 719,
  "argate": 14598,
  "arge": 1506,
  "arget": 2649,
  "argh": 8365,
  "arglass": 5897,
  "argo": 11586,
  "arian": 7632,
  "aries": 8366,
  "arily": 2628,
  "aring": 4216,
  "ario": 7631,
  "arios": 13555,
  "aritav": 13556,
  "arithm": 11016,
  "arizes": 9423,
  "ark": 1128,
  "arke": 11014,
  "arking": 13552,
  "arknado": 14839,
  "arks": 4901,
  "arl": 1063,
  "arlink": 1296,
  "arlinks": 7896,
  "arly": 1058,
  "arm": 1913,
  "arman": 7960,
  "arming": 7307,
  "arms": 10049,
  "arn": 1630,
  "arning": 4354,
  "arnings": 11848,
  "around": 9422,
  "arp": 9421,
  "arrass": 4410,
  "arre": 6146,
  "arry": 7015,
  "ars": 383,
  "arse": 11013,
  "arship": 656,
  "art": 504,
  "arted": 4963,
  "arter": 2542,
  "arters": 13554,
  "arth": 835,
  "arting": 3931,
  "arton": 14357,
  "ary": 761,
  "as": 305,
  "asad": 11095,
  "asant": 13695,
  "asc": 8414,
  "ase": 527,
  "ased": 2028,
  "aser": 8415,
  "asers": 9469,
  "ases": 1615,
  "aset": 13694,
  "ash": 1238,
  "ashdown": 7915,
  "ashery": 14898,
  "asic": 8416,
  "asically": 5178,
  "asilisk": 11097,
  "asing": 1831,
  "asion": 7660,
  "asional": 13696,
  "asite": 11096,
  "asive": 5442,
  "askatch": 9471,
  "asma": 9470,
  "ason": 1295,
  "asonic": 11778,
  "asons": 3234,
  "ass": 573,
  "assemb": 8417,
  "assembly": 10514,
  "assis": 7149,
  "assuming": 14458,
  "ast": 499,
  "aste": 11465,
  "aster": 2741,
  "astero": 14352,
  "asteroids": 16992,
  "asters": 8570,
  "astic": 14351,
  "asty": 14350,
  "asy": 6578,
  "at": 274,
  "ata": 1599,
  "atable": 7001,
  "atch": 1049,
  "atched": 5596,
  "ate": 403,
  "ated": 713,
  "ateful": 14012,
  "atell": 1414,
  "ately": 1432,
  "ater": 747,
  "aterial": 3173,
  "aters": 7000,
  "ates": 1237,
  "atest": 5427,
  "atever": 4591,
  "atevers": 14013,
  "ateway": 11305,
  "ath": 813,
  "ather": 1447,
  "athering": 11616,
  "athers": 14644,
  "athon": 14643,
  "athy": 9846,
  "atial": 10972,
  "atible": 13471,
  "atic": 1784,
  "atically": 1785,
  "atics": 8336,
  "atient": 13472,
  "atified": 13474,
  "ating": 827,
  "ation": 401,
  "ational": 1512,
  "ationally": 14011,
  "ationary": 9604,
  "ations": 853,
  "ativ": 10970,
  "ative": 1171,
  "atively": 3618,
  "ativity": 9398,
  "atme": 13473,
  "ato": 13467,
  "atoes": 13477,
  "aton": 13468,
  "atons": 9397,
  "atoo": 13469,
  "ator": 1710,
  "ators": 2426,
  "atory": 6534,
  "atr": 6136,
  "atri": 7611,
  "atrix": 9105,
  "atrk": 15991,
  "ats": 663,
  "att": 3568,
  "attack": 15566,
  "atter": 665,
  "atteries": 8642,
  "attern": 4990,
  "attery": 4317,
  "attle": 4211,
  "atts": 13470,
  "atulate": 13476,
  "atulations": 2001,
  "aturally": 8337,
  "aturation": 13475,
  "ature": 1143,
  "atware": 10971,
  "atz": 8335,
  "au": 6095,
  "aughty": 8253,
  "ault": 5140,
  "aunch": 2205,
  "aur": 6096,
  "aurs": 10763,
  "ause": 1053,
  "aut": 1451,
  "author": 11822,
  "authorities": 16735,
  "aution": 9999,
  "autonomous": 15003,
  "autopilot": 15002,
  "auts": 3537,
  "av": 1744,
  "ava": 11870,
  "ave": 1734,
  "aven": 13115,
  "averal": 2868,
  "aw": 2235,
  "awatt": 15232,
  "away": 10762,
  "awesome": 9256,
  "awn": 6490,
  "ax": 1608,
  "ay": 328,
  "aybe": 732,
  "ayed": 13795,
  "ayer": 6599,
  "ays": 614,
  "az": 1076,
  "azak": 14820,
  "azilla": 7899,
  "azing": 1196,
  "azon": 11720,
  "azor": 11721,
  "azz": 8711,
  "b": 71,
  "bab": 596,
  "bability": 2129,
  "bably": 664,
  "bac": 13121,
  "back": 2456,
  "backs": 7539,
  "bal": 1659,
  "ball": 3559,
  "balls": 6842,
  "ban": 6492,
  "bar": 6098,
  "base": 3206,
  "based": 5394,
  "basically": 13131,
  "batteries": 13132,
  "battery": 10768,
  "bay": 13122,
  "bcast": 13130,
  "bd": 7536,
  "be": 653,
  "bean": 14546,
  "beard": 14547,
  "bed": 6099,
  "bedo": 12394,
  "before": 9804,
  "beit": 9802,
  "bel": 5392,
  "bell": 9803,
  "ben": 13120,
  "ber": 671,
  "berg": 3823,
  "berries": 14558,
  "berry": 14557,
  "bers": 2926,
  "bert": 4468,
  "berth": 11562,
  "bery": 14556,
  "best": 10765,
  "bet": 6954,
  "beta": 12461,
  "better": 10444,
  "beyond": 14548,
  "bh": 3067,
  "bide": 13124,
  "big": 9260,
  "bility": 10766,
  "bing": 7538,
  "binger": 16237,
  "bit": 678,
  "bital": 3425,
  "bl": 9258,
  "ble": 523,
  "blem": 980,
  "bles": 13127,
  "blower": 16449,
  "blowing": 7541,
  "bo": 2925,
  "board": 5329,
  "body": 4388,
  "bon": 2380,
  "bons": 8254,
  "book": 7540,
  "bor": 6097,
  "borg": 12392,
  "borhood": 12393,
  "borne": 8255,
  "bot": 5143,
  "both": 13125,
  "bots": 10767,
  "bound": 9262,
  "bow": 10764,
  "box": 6013,
  "boy": 9264,
  "br": 9259,
  "bra": 6493,
  "brains": 16053,
  "braking": 16052,
  "bre": 7537,
  "break": 10473,
  "breaking": 16236,
  "brow": 13126,
  "bru": 9263,
  "brugge": 12607,
  "bs": 902,
  "bsid": 14703,
  "buck": 13129,
  "built": 10769,
  "bul": 13123,
  "bum": 9261,
  "bur": 2984,
  "burg": 5087,
  "burgering": 15837,
  "burn": 5393,
  "but": 5142,
  "bv": 3882,
  "bviously": 5684,
  "by": 3474,
  "bying": 13128,
  "c": 72,
  "called": 8261,
  "can": 3371,
  "cancel": 12131,
  "cap": 7542,
  "capable": 16238,
  "cape": 13138,
  "car": 5735,
  "care": 13135,
  "cars": 13134,
  "case": 8256,
  "cast": 3127,
  "cc": 612,
  "ccasional": 14496,
  "ccess": 1956,
  "ccup": 9781,
  "ccupy": 12637,
  "ce": 391,
  "cean": 3158,
  "ced": 1006,
  "cedes": 11696,
  "ceed": 3794,
  "ceeding": 15622,
  "ceeds": 8493,
  "ceived": 13962,
  "cel": 4389,
  "celand": 12251,
  "cell": 7722,
  "cellent": 5203,
  "cember": 11281,
  "cent": 2154,
  "century": 15207,
  "cept": 2286,
  "ceptible": 11970,
  "ception": 8849,
  "cepts": 7723,
  "cer": 6100,
  "ces": 1353,
  "cess": 1452,
  "cessary": 7286,
  "cessing": 15004,
  "cession": 7933,
  "cgi": 7543,
  "ch": 338,
  "chach": 13825,
  "chamber": 13827,
  "chang": 4583,
  "change": 8452,
  "changed": 15765,
  "changel": 15766,
  "changer": 11179,
  "changing": 15764,
  "charg": 1253,
  "charge": 13826,
  "chassis": 9532,
  "che": 5458,
  "check": 9531,
  "checked": 12622,
  "checking": 11180,
  "ched": 1916,
  "cheduled": 8823,
  "chem": 9530,
  "chen": 13824,
  "ches": 5188,
  "ching": 13823,
  "chip": 11178,
  "chite": 3494,
  "chn": 11177,
  "ci": 550,
  "cial": 1309,
  "cially": 1461,
  "ciates": 14451,
  "ciating": 14450,
  "cience": 2363,
  "cient": 2293,
  "cientists": 7325,
  "cies": 5736,
  "ciful": 13140,
  "cing": 1995,
  "cious": 3598,
  "cis": 5395,
  "cisco": 12339,
  "city": 2618,
  "ck": 416,
  "ckling": 14059,
  "cl": 4186,
  "class": 8259,
  "cle": 3560,
  "cleaning": 12154,
  "clear": 4533,
  "click": 13142,
  "clipse": 15696,
  "clock": 10774,
  "cloud": 10273,
  "cluding": 12234,
  "co": 1162,
  "coat": 9931,
  "cobar": 11746,
  "coconuts": 11747,
  "coin": 2093,
  "colm": 13141,
  "com": 4864,
  "comb": 8260,
  "combustion": 12554,
  "come": 1365,
  "coming": 3372,
  "comm": 9268,
  "commercial": 15795,
  "communication": 12609,
  "comp": 4779,
  "con": 580,
  "concept": 14463,
  "cond": 1494,
  "conditioning": 15022,
  "conduct": 14464,
  "cone": 3883,
  "conel": 11519,
  "conf": 9773,
  "confirmed": 16521,
  "connect": 7818,
  "connector": 16274,
  "conom": 2128,
  "cons": 8606,
  "conscious": 16377,
  "consumer": 16378,
  "cont": 8257,
  "conuts": 11520,
  "cool": 4865,
  "cooling": 15796,
  "cord": 8258,
  "core": 3302,
  "correct": 9267,
  "cost": 10773,
  "cou": 10770,
  "count": 9266,
  "counter": 10775,
  "country": 12608,
  "cov": 11744,
  "cover": 3841,
  "covery": 11745,
  "covid": 14854,
  "cr": 2304,
  "cra": 10772,
  "cracker": 11973,
  "cracy": 5311,
  "craft": 1691,
  "creation": 13143,
  "cribed": 9269,
  "crip": 3859,
  "cription": 4174,
  "cro": 13133,
  "ct": 330,
  "cted": 11163,
  "ctic": 11164,
  "ctim": 8447,
  "ctimonious": 10517,
  "ction": 485,
  "ctions": 1686,
  "ctor": 4232,
  "ctors": 7678,
  "ctrum": 11165,
  "ctuations": 13796,
  "ctural": 4433,
  "cture": 2108,
  "cu": 9265,
  "cup": 13136,
  "cur": 5144,
  "curious": 15853,
  "current": 13137,
  "currently": 16824,
  "curve": 7428,
  "curves": 15854,
  "cut": 10771,
  "cute": 13139,
  "cy": 1054,
  "d": 73,
  "da": 9270,
  "dam": 10778,
  "dard": 13150,
  "day": 777,
  "days": 6496,
  "dd": 1536,
  "dded": 11834,
  "dding": 4140,
  "de": 1201,
  "dead": 13152,
  "ded": 9271,
  "def": 10779,
  "definitely": 13153,
  "deg": 14872,
  "del": 10777,
  "delta": 16618,
  "demand": 13156,
  "den": 6495,
  "dep": 9272,
  "depth": 10538,
  "der": 968,
  "ders": 13149,
  "des": 10776,
  "design": 9274,
  "dest": 13148,
  "destruction": 16826,
  "dia": 7545,
  "diagon": 10474,
  "diagonal": 10591,
  "diam": 13154,
  "diameter": 16827,
  "diesel": 5737,
  "dim": 13147,
  "dimensional": 16825,
  "ding": 3303,
  "dit": 2819,
  "diver": 9273,
  "dle": 4187,
  "dles": 10780,
  "do": 4866,
  "dog": 13155,
  "dom": 5396,
  "door": 15797,
  "dor": 13145,
  "down": 2619,
  "dr": 6494,
  "drag": 13151,
  "driven": 16054,
  "driving": 1782,
  "dro": 13146,
  "ds": 13144,
  "du": 502,
  "duct": 4051,
  "duction": 2036,
  "ductive": 8073,
  "dy": 7544,
  "dyne": 12509,
  "e": 74,
  "ea": 429,
  "eace": 9275,
  "ead": 1181,
  "eah": 643,
  "eak": 1620,
  "eaking": 8527,
  "eaky": 15039,
  "eal": 3996,
  "eam": 2927,
  "ear": 1336,
  "early": 9277,
  "earning": 14938,
  "ears": 2584,
  "eat": 13158,
  "eaut": 6218,
  "eav": 961,
  "eavor": 9892,
  "eavy": 1065,
  "ec": 1660,
  "ecause": 3353,
  "ech": 1996,
  "echazilla": 7965,
  "eck": 1641,
  "ecking": 5287,
  "econom": 10782,
  "economic": 16619,
  "ect": 672,
  "ection": 6955,
  "ed": 290,
  "eded": 13591,
  "eden": 7637,
  "ederal": 4572,
  "edge": 7638,
  "edia": 6560,
  "edic": 4219,
  "eds": 2186,
  "edy": 5438,
  "ee": 2820,
  "eed": 1849,
  "eeks": 10157,
  "eel": 1148,
  "eeling": 7245,
  "eels": 2620,
  "een": 7546,
  "eer": 6497,
  "ees": 3994,
  "eesy": 15662,
  "ef": 720,
  "eff": 6956,
  "effective": 10783,
  "efficiency": 13168,
  "efficient": 8262,
  "efinitely": 1731,
  "eg": 1692,
  "egal": 8794,
  "egally": 15065,
  "egap": 5288,
  "egas": 3117,
  "egmark": 15066,
  "egr": 2985,
  "ehicle": 10784,
  "eing": 3129,
  "ek": 13157,
  "el": 336,
  "ela": 8450,
  "elcome": 1755,
  "ele": 13159,
  "elect": 13164,
  "electric": 13165,
  "eler": 1754,
  "elerating": 10024,
  "eleration": 10023,
  "eles": 4435,
  "eless": 5809,
  "elf": 882,
  "elis": 9527,
  "ell": 1026,
  "ellation": 9904,
  "ellers": 8703,
  "ellig": 3350,
  "elligence": 3551,
  "elling": 5593,
  "ellow": 11701,
  "ellows": 14787,
  "ellowship": 17048,
  "elming": 7684,
  "eloc": 8451,
  "elp": 11172,
  "els": 921,
  "elt": 4581,
  "elter": 9528,
  "elves": 3009,
  "elvin": 9529,
  "ely": 795,
  "em": 532,
  "eman": 14435,
  "emand": 9754,
  "ember": 3166,
  "emed": 8593,
  "emi": 3513,
  "emolition": 14436,
  "emon": 14434,
  "empt": 13166,
  "ems": 2362,
  "en": 281,
  "ena": 9415,
  "enance": 8357,
  "ence": 702,
  "ences": 3664,
  "encies": 6547,
  "encing": 13531,
  "ency": 1489,
  "end": 551,
  "enda": 11509,
  "endable": 3168,
  "endar": 4968,
  "endary": 11511,
  "ended": 4063,
  "endent": 3935,
  "ending": 1699,
  "endo": 11510,
  "ends": 2037,
  "ene": 3571,
  "ened": 5433,
  "eness": 13528,
  "eng": 2024,
  "enge": 3316,
  "engeance": 12125,
  "enger": 5780,
  "engine": 10064,
  "ength": 3633,
  "ening": 4897,
  "enish": 13529,
  "enn": 6144,
  "enoid": 13530,
  "enry": 11001,
  "ens": 774,
  "ensation": 14630,
  "ense": 959,
  "enser": 14629,
  "enses": 11604,
  "ensing": 6695,
  "ension": 4898,
  "ensional": 15800,
  "ensive": 3829,
  "enstein": 13533,
  "ensus": 9842,
  "ent": 332,
  "entation": 8448,
  "ented": 13801,
  "enter": 3671,
  "ential": 1526,
  "entially": 2321,
  "entil": 13802,
  "enting": 13800,
  "ention": 1868,
  "entionally": 11894,
  "ently": 2781,
  "entral": 7058,
  "entralized": 9089,
  "entry": 2511,
  "ents": 2682,
  "enty": 7057,
  "enus": 11000,
  "environ": 13532,
  "environment": 16873,
  "eop": 619,
  "eople": 632,
  "eor": 3995,
  "eous": 10781,
  "ep": 703,
  "epend": 9818,
  "ependent": 5248,
  "epends": 3602,
  "eper": 9276,
  "eph": 8646,
  "eping": 7166,
  "eps": 7842,
  "er": 265,
  "era": 7591,
  "erable": 13395,
  "eral": 3138,
  "erally": 1694,
  "eramic": 13401,
  "erated": 13397,
  "erates": 13399,
  "erature": 3658,
  "erb": 13392,
  "erbal": 9368,
  "erc": 7592,
  "erd": 9365,
  "ere": 390,
  "eres": 1645,
  "erg": 6981,
  "ergy": 1017,
  "eric": 4400,
  "ering": 857,
  "erks": 13394,
  "erlin": 1610,
  "erly": 8313,
  "erm": 1307,
  "ermal": 5953,
  "ermi": 6740,
  "ermon": 13398,
  "ern": 2053,
  "ernel": 8830,
  "ero": 1175,
  "erogen": 14857,
  "eront": 13396,
  "eros": 4401,
  "eroth": 8314,
  "erous": 10919,
  "err": 2309,
  "erre": 13393,
  "erry": 4007,
  "ers": 411,
  "ersion": 4447,
  "erson": 1087,
  "ert": 1061,
  "ertain": 1496,
  "ertainly": 6757,
  "erto": 8708,
  "erv": 6982,
  "ervation": 13400,
  "ervatory": 16141,
  "erve": 9366,
  "erved": 9367,
  "ery": 1236,
  "es": 271,
  "ese": 1091,
  "esearch": 11722,
  "eship": 8324,
  "eside": 13443,
  "esides": 6133,
  "esign": 2932,
  "esis": 6993,
  "esla": 364,
  "eslas": 2933,
  "esos": 13444,
  "espan": 9387,
  "especially": 7602,
  "espite": 13445,
  "ess": 454,
  "essed": 11379,
  "essentially": 7117,
  "essing": 14176,
  "ession": 7760,
  "est": 377,
  "ested": 5845,
  "ester": 13441,
  "estic": 13935,
  "esting": 1248,
  "estion": 11259,
  "estions": 13936,
  "estream": 9582,
  "estrel": 9583,
  "estri": 3916,
  "esus": 13442,
  "et": 317,
  "etail": 4429,
  "etc": 13735,
  "etch": 6585,
  "ete": 7666,
  "eted": 9493,
  "eter": 2188,
  "eters": 7051,
  "eth": 748,
  "etheless": 7172,
  "ether": 2066,
  "ethered": 11928,
  "etheus": 14613,
  "etic": 3390,
  "etime": 5448,
  "eting": 2507,
  "etition": 9494,
  "etitive": 13740,
  "etorical": 13741,
  "etr": 9492,
  "etric": 8431,
  "etro": 13736,
  "etry": 7667,
  "ets": 1101,
  "ett": 7050,
  "etta": 9495,
  "ette": 13739,
  "etting": 3391,
  "etts": 13737,
  "etty": 13738,
  "eturn": 11128,
  "ety": 1165,
  "eur": 13161,
  "eus": 13162,
  "ev": 6101,
  "eve": 13160,
  "even": 13163,
  "ever": 1693,
  "ew": 3128,
  "ewable": 12099,
  "ewan": 10189,
  "eward": 4867,
  "ewel": 12098,
  "ex": 1071,
  "exactly": 6302,
  "exas": 1534,
  "except": 9914,
  "exp": 11714,
  "expected": 5021,
  "expects": 14807,
  "expendable": 16726,
  "export": 14806,
  "ey": 3648,
  "eyes": 13167,
  "eze": 9278,
  "f": 75,
  "face": 2179,
  "faces": 4552,
  "facing": 9281,
  "fact": 1366,
  "faction": 8749,
  "factories": 9976,
  "factory": 2758,
  "fake": 13174,
  "fall": 5738,
  "far": 6957,
  "faring": 10788,
  "fast": 9279,
  "father": 5739,
  "fect": 2768,
  "fection": 13178,
  "fed": 10785,
  "fer": 721,
  "ference": 2443,
  "ferential": 9829,
  "fess": 13169,
  "ff": 575,
  "ffect": 1232,
  "ffective": 7914,
  "ffic": 1112,
  "fficiency": 9919,
  "fficient": 5025,
  "ffiti": 14460,
  "fford": 2841,
  "ffordable": 12061,
  "finder": 7549,
  "fins": 13172,
  "fire": 7547,
  "fires": 10787,
  "firmware": 10789,
  "first": 9280,
  "fit": 4188,
  "fits": 13173,
  "fix": 8267,
  "fixed": 16319,
  "fl": 6498,
  "fla": 8263,
  "flaps": 12555,
  "fleet": 7548,
  "flight": 4550,
  "flix": 10411,
  "flow": 8266,
  "flu": 9282,
  "fold": 10786,
  "follow": 13175,
  "fomo": 13177,
  "for": 3304,
  "force": 5672,
  "ford": 4551,
  "fore": 1034,
  "form": 1149,
  "formance": 1689,
  "formation": 9925,
  "formed": 8720,
  "fortunately": 3068,
  "found": 8265,
  "fr": 3649,
  "frame": 3872,
  "free": 13171,
  "frees": 13176,
  "freespace": 16828,
  "fric": 6499,
  "frica": 6903,
  "frock": 10790,
  "from": 8264,
  "ft": 586,
  "fter": 887,
  "fts": 13170,
  "ftware": 824,
  "ful": 891,
  "fully": 3997,
  "fyi": 9283,
  "g": 76,
  "gam": 13181,
  "gan": 4869,
  "gar": 13179,
  "gas": 7551,
  "gative": 13186,
  "ge": 412,
  "ged": 5740,
  "gee": 7100,
  "gen": 1239,
  "gency": 6312,
  "geon": 14056,
  "ger": 1626,
  "gering": 5741,
  "gers": 9287,
  "ges": 4868,
  "gest": 2457,
  "get": 6959,
  "gether": 3475,
  "gg": 1465,
  "gge": 10792,
  "gged": 15013,
  "gging": 5964,
  "ggle": 10004,
  "ggles": 15014,
  "gh": 459,
  "gi": 6958,
  "gia": 13184,
  "gian": 10794,
  "gic": 10791,
  "gin": 8268,
  "ging": 3373,
  "girl": 10795,
  "giving": 7552,
  "gl": 9284,
  "glass": 13187,
  "gle": 2420,
  "gly": 13180,
  "gment": 8270,
  "gments": 13185,
  "gmt": 13190,
  "gn": 2050,
  "gnosed": 15181,
  "gnosis": 15182,
  "go": 2340,
  "going": 5642,
  "gon": 7550,
  "good": 8269,
  "gor": 3884,
  "gories": 15641,
  "got": 9286,
  "gr": 760,
  "grading": 14627,
  "grained": 13189,
  "gram": 1957,
  "graphic": 8271,
  "graphy": 6960,
  "greed": 2020,
  "gress": 1537,
  "gring": 4761,
  "ground": 3174,
  "gs": 1299,
  "gt": 1609,
  "gu": 9285,
  "guably": 13188,
  "gue": 10793,
  "gun": 13183,
  "gus": 6500,
  "gust": 13182,
  "gy": 724,
  "h": 77,
  "ha": 626,
  "haha": 11543,
  "half": 9293,
  "hall": 13195,
  "hammer": 6961,
  "hams": 13197,
  "hance": 9292,
  "hanced": 3885,
  "hand": 8273,
  "handed": 16320,
  "haps": 2711,
  "hard": 5743,
  "hards": 13198,
  "hardware": 15942,
  "has": 4553,
  "hat": 13192,
  "haul": 9790,
  "he": 3561,
  "head": 2305,
  "heat": 15564,
  "heh": 15563,
  "hen": 13193,
  "her": 10796,
  "here": 7554,
  "hes": 7553,
  "hibit": 10799,
  "hic": 919,
  "hicle": 9876,
  "hield": 6504,
  "high": 5742,
  "higher": 15940,
  "highway": 15941,
  "hill": 9289,
  "hin": 13191,
  "hing": 1500,
  "hip": 552,
  "hips": 14452,
  "his": 9288,
  "hm": 8272,
  "hn": 4189,
  "hock": 10798,
  "hol": 9291,
  "hold": 3207,
  "holders": 15503,
  "hood": 7555,
  "hop": 9290,
  "hopefully": 6503,
  "hopper": 2928,
  "hor": 2821,
  "horia": 15402,
  "horizontal": 15403,
  "host": 7556,
  "hot": 10797,
  "hour": 6502,
  "hours": 12424,
  "hous": 13196,
  "house": 6102,
  "how": 5145,
  "hr": 6501,
  "hst": 13194,
  "hstan": 16829,
  "human": 6103,
  "i": 78,
  "iFi": 7559,
  "ia": 622,
  "iach": 10800,
  "ial": 780,
  "ially": 1437,
  "iam": 2381,
  "ian": 1521,
  "iang": 13201,
  "ians": 2869,
  "iant": 1566,
  "iary": 10802,
  "ias": 7557,
  "iate": 7558,
  "iates": 10806,
  "iation": 5744,
  "iations": 10804,
  "ib": 1186,
  "iba": 9945,
  "ibbean": 14869,
  "iber": 10801,
  "ibility": 3268,
  "ibit": 5745,
  "ibl": 14867,
  "ible": 778,
  "ibly": 1991,
  "ibody": 11752,
  "ibration": 9946,
  "ibus": 14868,
  "ic": 303,
  "ica": 5795,
  "ical": 804,
  "ically": 828,
  "icant": 13687,
  "ication": 9465,
  "ice": 572,
  "iced": 7038,
  "icense": 11092,
  "ices": 1882,
  "ich": 613,
  "iche": 9782,
  "ichotomy": 14497,
  "icht": 11532,
  "icians": 5796,
  "icide": 9466,
  "icine": 7039,
  "icing": 4227,
  "icion": 13686,
  "icious": 7040,
  "icip": 7658,
  "ick": 964,
  "ickel": 3711,
  "icking": 8411,
  "icky": 14740,
  "icle": 6576,
  "icles": 13689,
  "ico": 4911,
  "icon": 3779,
  "icopter": 9467,
  "icro": 4424,
  "icrous": 4912,
  "ics": 965,
  "ict": 1614,
  "icting": 8412,
  "iction": 11843,
  "icts": 13688,
  "icul": 2679,
  "icularly": 12034,
  "icult": 1574,
  "icy": 11091,
  "id": 333,
  "ida": 4233,
  "idal": 11166,
  "idating": 13804,
  "iday": 2464,
  "idays": 8449,
  "idden": 7060,
  "ide": 516,
  "ided": 5456,
  "idel": 13803,
  "idemiology": 14421,
  "iden": 7059,
  "idence": 5187,
  "idences": 13806,
  "idency": 13805,
  "ident": 1774,
  "idential": 11168,
  "ider": 1456,
  "idering": 4920,
  "iders": 11167,
  "iderwee": 15008,
  "ides": 3090,
  "iding": 7679,
  "idity": 9526,
  "idman": 13807,
  "ids": 1542,
  "idth": 2885,
  "idual": 2593,
  "ie": 484,
  "ied": 1485,
  "ief": 3102,
  "ield": 1563,
  "ieldy": 10008,
  "ielle": 11446,
  "ielleicht": 16694,
  "ien": 2621,
  "ience": 2074,
  "iences": 15353,
  "iency": 2493,
  "iens": 3476,
  "ient": 1486,
  "ier": 1548,
  "iert": 13202,
  "ies": 509,
  "iesel": 4964,
  "iess": 9295,
  "iest": 5397,
  "iet": 3756,
  "ieter": 8275,
  "iety": 10805,
  "ieval": 9712,
  "ieve": 1323,
  "iew": 938,
  "if": 385,
  "ife": 2951,
  "iff": 3155,
  "iffs": 8913,
  "ific": 1093,
  "ifically": 5502,
  "ificant": 1806,
  "ificating": 14822,
  "ification": 3439,
  "ifice": 11268,
  "ified": 3406,
  "ifies": 7719,
  "ifree": 13952,
  "ift": 4588,
  "ifting": 8489,
  "iftoff": 11269,
  "iful": 2550,
  "ify": 2165,
  "ifying": 5847,
  "ig": 311,
  "iga": 1205,
  "igan": 13716,
  "igate": 2592,
  "igated": 11112,
  "igating": 6580,
  "igation": 4576,
  "igen": 11111,
  "igger": 7048,
  "igh": 340,
  "ight": 392,
  "ighter": 3787,
  "igible": 7664,
  "iginal": 6581,
  "igital": 11113,
  "igm": 13715,
  "ign": 544,
  "igned": 14445,
  "igs": 5800,
  "igure": 13717,
  "ij": 9294,
  "ik": 2585,
  "ike": 2535,
  "ikes": 10803,
  "iki": 6004,
  "ikola": 7997,
  "il": 371,
  "ilEye": 13908,
  "ila": 8274,
  "ilad": 10807,
  "ilan": 11237,
  "ilar": 2437,
  "ilbert": 11239,
  "ild": 765,
  "ile": 826,
  "iled": 13905,
  "ileps": 14658,
  "iler": 5836,
  "ilers": 11238,
  "iles": 1230,
  "ilevel": 14657,
  "ili": 6616,
  "iliar": 8147,
  "ilicon": 9571,
  "ilies": 13906,
  "iling": 13904,
  "ilisk": 8472,
  "ilities": 5497,
  "ility": 801,
  "ill": 322,
  "illa": 5807,
  "illation": 13762,
  "ille": 3782,
  "illed": 11145,
  "illerson": 9508,
  "illiant": 7673,
  "illing": 3393,
  "illion": 1344,
  "illions": 9507,
  "illotine": 11146,
  "illow": 9506,
  "ills": 7672,
  "illy": 3669,
  "ilogy": 13907,
  "ilometer": 11240,
  "ilos": 7714,
  "ilosoph": 8174,
  "ilot": 937,
  "ils": 7079,
  "ilt": 1776,
  "ilton": 10028,
  "ily": 1354,
  "im": 348,
  "ima": 13847,
  "imarily": 8457,
  "imary": 11194,
  "imate": 1943,
  "imated": 7069,
  "imately": 3495,
  "imates": 11195,
  "imation": 6180,
  "imatter": 11193,
  "imb": 5814,
  "ime": 1457,
  "iment": 4584,
  "iments": 13851,
  "imes": 1942,
  "imilar": 11196,
  "iming": 1617,
  "imistic": 13850,
  "imit": 1195,
  "imitive": 9948,
  "imizing": 6605,
  "imler": 5815,
  "imos": 13849,
  "imov": 5816,
  "imp": 478,
  "impact": 14289,
  "important": 7782,
  "impressively": 14290,
  "improved": 8559,
  "ims": 11191,
  "imul": 11192,
  "imum": 13848,
  "imus": 7692,
  "in": 263,
  "ina": 1326,
  "inal": 1393,
  "inally": 4399,
  "inance": 10911,
  "inary": 5157,
  "inated": 9362,
  "ination": 2279,
  "inations": 9363,
  "inc": 2497,
  "ince": 1827,
  "incere": 15319,
  "incess": 10912,
  "including": 15320,
  "inct": 13378,
  "inction": 6980,
  "ind": 628,
  "inda": 5536,
  "inded": 14513,
  "inder": 3423,
  "inding": 7830,
  "inds": 6683,
  "ine": 445,
  "inecraft": 6647,
  "ined": 1967,
  "inematic": 11369,
  "iner": 13377,
  "inery": 7589,
  "ines": 856,
  "inese": 11633,
  "iness": 3137,
  "inf": 9360,
  "infinite": 16458,
  "information": 13383,
  "informed": 13382,
  "infotainment": 16459,
  "ing": 277,
  "ingap": 9404,
  "ingapore": 10549,
  "inge": 5430,
  "inger": 9403,
  "ingle": 6543,
  "ingly": 7615,
  "ings": 762,
  "ington": 13495,
  "inguish": 7007,
  "ini": 13375,
  "ining": 3072,
  "inish": 13379,
  "inishing": 9364,
  "inite": 1113,
  "initely": 1173,
  "inition": 13380,
  "inity": 10910,
  "inj": 8309,
  "ink": 604,
  "inking": 3073,
  "inks": 2343,
  "inn": 6979,
  "innish": 10446,
  "ino": 9361,
  "ins": 1487,
  "inse": 10909,
  "instein": 10913,
  "int": 676,
  "intelligence": 7837,
  "intendo": 11563,
  "inter": 4887,
  "inters": 13381,
  "intiff": 14559,
  "intin": 8643,
  "ints": 2239,
  "intuitive": 7838,
  "inum": 3762,
  "inux": 6523,
  "invasive": 13384,
  "inx": 13376,
  "iny": 2207,
  "io": 1453,
  "iology": 11823,
  "ion": 306,
  "ional": 3086,
  "ionics": 6160,
  "ions": 876,
  "ior": 1318,
  "iors": 13200,
  "ios": 3650,
  "ioshock": 12165,
  "iosis": 6026,
  "iot": 4554,
  "iotic": 15758,
  "iots": 13203,
  "ious": 913,
  "iously": 1654,
  "ioweapon": 10808,
  "ip": 426,
  "ipe": 4944,
  "ipedia": 7746,
  "ipes": 9629,
  "iple": 9630,
  "ipment": 5215,
  "ipped": 9296,
  "ipping": 3886,
  "ips": 6215,
  "ipse": 11333,
  "iq": 13199,
  "ique": 4390,
  "iques": 13204,
  "ir": 368,
  "iral": 9566,
  "iraptor": 11231,
  "iration": 2786,
  "irationally": 5326,
  "irc": 2948,
  "ird": 1948,
  "irdly": 11912,
  "irds": 8825,
  "ire": 507,
  "irect": 5882,
  "irection": 11471,
  "irectly": 15962,
  "irector": 14360,
  "ired": 2562,
  "ires": 2408,
  "irgin": 9569,
  "irical": 9568,
  "iring": 2395,
  "irit": 6190,
  "irited": 13898,
  "irl": 4931,
  "irm": 2325,
  "irmed": 3792,
  "irmware": 4511,
  "irrel": 8468,
  "irs": 13896,
  "irst": 695,
  "irt": 2949,
  "irth": 2785,
  "irts": 13897,
  "irus": 9567,
  "is": 276,
  "isa": 13490,
  "isdom": 7006,
  "ise": 849,
  "isecond": 9852,
  "ised": 3078,
  "isers": 10983,
  "ises": 8347,
  "ish": 875,
  "isher": 14683,
  "ishing": 6702,
  "ishment": 14684,
  "isible": 13494,
  "isie": 13492,
  "isin": 13491,
  "ising": 1750,
  "ision": 2079,
  "isions": 10984,
  "isis": 9402,
  "isk": 8346,
  "ism": 2003,
  "isol": 13493,
  "ison": 5776,
  "iss": 3381,
  "ission": 2461,
  "ist": 548,
  "istance": 9761,
  "istant": 11507,
  "istent": 8602,
  "istic": 2476,
  "isticated": 10128,
  "istics": 2798,
  "isting": 11506,
  "istinguish": 11508,
  "isto": 14448,
  "istorical": 9762,
  "istory": 2197,
  "ists": 1786,
  "it": 280,
  "itHub": 13527,
  "ita": 10998,
  "itable": 13518,
  "ital": 1795,
  "itarian": 13525,
  "itary": 9412,
  "itations": 13519,
  "itav": 13522,
  "itch": 2211,
  "itcoin": 2829,
  "ite": 530,
  "ited": 2210,
  "itement": 8592,
  "iter": 4567,
  "iteracy": 15761,
  "iterally": 3904,
  "iters": 7622,
  "ites": 1629,
  "ith": 352,
  "ither": 1836,
  "ithium": 2836,
  "ithm": 6182,
  "ithms": 9551,
  "iths": 9550,
  "iti": 8354,
  "itial": 9413,
  "itially": 6143,
  "itics": 13520,
  "ities": 1770,
  "iting": 1270,
  "ition": 1164,
  "itional": 3842,
  "itioning": 11748,
  "itive": 1419,
  "itivity": 13523,
  "itized": 13521,
  "itol": 13517,
  "itor": 4895,
  "itors": 3570,
  "itrogen": 7011,
  "its": 1611,
  "itt": 13516,
  "itte": 10999,
  "itted": 9414,
  "itter": 4408,
  "itting": 7010,
  "ittle": 8355,
  "itud": 4896,
  "itude": 1796,
  "itudes": 6874,
  "itudinal": 8998,
  "itute": 8356,
  "itutional": 13526,
  "ity": 425,
  "itys": 14079,
  "itzer": 13524,
  "ium": 1549,
  "iums": 10007,
  "ius": 6505,
  "iv": 482,
  "ivable": 11443,
  "ival": 4049,
  "ivate": 2896,
  "ivated": 14316,
  "ive": 430,
  "ived": 2559,
  "ively": 2643,
  "iven": 1605,
  "iveness": 11842,
  "iver": 949,
  "iveries": 14734,
  "ivers": 3710,
  "iverse": 2482,
  "ivery": 2492,
  "ives": 1583,
  "ivial": 14317,
  "ividual": 3251,
  "ivil": 2062,
  "ivile": 9709,
  "ivilization": 8831,
  "iving": 873,
  "ivity": 2688,
  "ix": 1007,
  "ixed": 14770,
  "iz": 541,
  "izard": 11504,
  "ization": 1635,
  "izations": 7815,
  "ize": 947,
  "ized": 1332,
  "izer": 9759,
  "izes": 3515,
  "izing": 2475,
  "izon": 9760,
  "izona": 14444,
  "izont": 4609,
  "izontal": 5699,
  "izontally": 12269,
  "izz": 7814,
  "j": 79,
  "je": 10809,
  "ject": 1438,
  "jest": 13206,
  "jewel": 13207,
  "jk": 13205,
  "jo": 3374,
  "jor": 1214,
  "journalist": 13208,
  "joy": 6104,
  "just": 2622,
  "justing": 10140,
  "k": 80,
  "kWh": 13211,
  "ka": 4555,
  "kal": 13209,
  "katch": 9300,
  "ke": 363,
  "ked": 1475,
  "ken": 2306,
  "ker": 3887,
  "kerosene": 12196,
  "kers": 9299,
  "kes": 791,
  "keschn": 11611,
  "kesmodel": 14639,
  "key": 4242,
  "keys": 11227,
  "kg": 6105,
  "ki": 4870,
  "kill": 9298,
  "kin": 5746,
  "kind": 10810,
  "king": 479,
  "kings": 9706,
  "kins": 8277,
  "kk": 9297,
  "kle": 13210,
  "klif": 13212,
  "km": 3375,
  "kn": 4556,
  "kra": 4557,
  "kraine": 4847,
  "ks": 434,
  "kt": 8276,
  "ky": 5398,
  "kyn": 10811,
  "l": 81,
  "la": 341,
  "lab": 13835,
  "lacing": 13222,
  "lad": 1894,
  "lade": 7686,
  "laid": 2323,
  "laine": 11186,
  "lair": 11185,
  "lam": 6601,
  "lame": 9535,
  "lamed": 7065,
  "lan": 1234,
  "land": 5146,
  "lands": 8280,
  "lane": 10819,
  "lanet": 1655,
  "lanetary": 1927,
  "lant": 13218,
  "lanted": 10825,
  "lantic": 6108,
  "lar": 8278,
  "large": 13221,
  "las": 2119,
  "lass": 1745,
  "late": 6106,
  "lated": 13219,
  "lates": 10821,
  "lating": 10818,
  "lation": 3888,
  "lative": 7562,
  "launch": 6602,
  "laus": 9534,
  "lausible": 12623,
  "layer": 9301,
  "ld": 329,
  "lderly": 9525,
  "le": 304,
  "lease": 799,
  "leasing": 7043,
  "lect": 815,
  "lected": 7855,
  "lection": 7042,
  "lectric": 935,
  "led": 1810,
  "ledge": 4793,
  "ledgehammer": 8092,
  "lee": 7041,
  "leep": 13691,
  "leet": 2027,
  "leg": 9468,
  "legal": 16480,
  "lehead": 11094,
  "lement": 6577,
  "lements": 13692,
  "lenn": 13226,
  "ler": 2274,
  "lerotic": 15243,
  "lers": 10816,
  "lery": 13220,
  "les": 892,
  "less": 1202,
  "lessly": 5949,
  "lest": 13217,
  "lestar": 16830,
  "let": 5177,
  "leting": 11093,
  "lets": 8413,
  "letub": 15860,
  "levator": 13693,
  "level": 2941,
  "leveling": 15427,
  "lex": 4575,
  "lext": 13690,
  "ley": 7659,
  "lf": 10812,
  "li": 1192,
  "lic": 871,
  "lications": 5575,
  "lich": 6507,
  "licit": 8680,
  "lick": 8679,
  "lied": 3955,
  "liers": 14870,
  "lies": 5147,
  "lif": 10815,
  "life": 8281,
  "lig": 13216,
  "light": 623,
  "lightly": 14510,
  "lights": 6682,
  "ligible": 10826,
  "like": 2204,
  "lim": 10814,
  "lime": 10822,
  "limit": 10820,
  "lin": 1325,
  "linder": 10823,
  "line": 1725,
  "linear": 11864,
  "linearities": 16738,
  "liner": 14928,
  "lines": 6962,
  "ling": 1850,
  "links": 14929,
  "linson": 14930,
  "lipping": 11753,
  "lish": 2275,
  "lished": 8845,
  "list": 6506,
  "lists": 8279,
  "lit": 10813,
  "literally": 10824,
  "lithium": 13223,
  "ll": 283,
  "lla": 9420,
  "llage": 11012,
  "lle": 11010,
  "llect": 13549,
  "lled": 11011,
  "llent": 2281,
  "llison": 13550,
  "llow": 7629,
  "lm": 13213,
  "ln": 13214,
  "lo": 466,
  "load": 1224,
  "loan": 14237,
  "lobal": 7774,
  "lobe": 14238,
  "locity": 2738,
  "lock": 1986,
  "locks": 11916,
  "log": 2328,
  "logical": 6361,
  "logies": 5641,
  "logy": 1513,
  "loki": 7776,
  "lol": 7773,
  "lon": 7560,
  "long": 10817,
  "loo": 5399,
  "looking": 6886,
  "looks": 15893,
  "loop": 2769,
  "loor": 11412,
  "lor": 2098,
  "loration": 15195,
  "lorida": 4360,
  "loroqu": 10074,
  "loroquine": 10585,
  "los": 14235,
  "lose": 6230,
  "losed": 7775,
  "lot": 7561,
  "love": 9686,
  "low": 888,
  "lowing": 7191,
  "lox": 14236,
  "loy": 1899,
  "loying": 14239,
  "loyment": 10045,
  "lq": 13215,
  "lsc": 13225,
  "lso": 928,
  "lt": 1411,
  "lu": 4558,
  "lud": 6107,
  "luded": 10383,
  "luding": 12395,
  "lus": 5747,
  "lusion": 13224,
  "ly": 307,
  "lying": 5797,
  "lymp": 13697,
  "lyss": 13698,
  "m": 82,
  "mT": 13227,
  "ma": 5400,
  "mable": 13235,
  "major": 15894,
  "mak": 3209,
  "maker": 12104,
  "makers": 12105,
  "mal": 13231,
  "man": 5401,
  "mand": 13234,
  "mandering": 16832,
  "many": 13237,
  "map": 7563,
  "mar": 13230,
  "mare": 6508,
  "mark": 6113,
  "market": 15989,
  "mas": 4191,
  "mass": 10831,
  "mate": 13233,
  "material": 13247,
  "materials": 16836,
  "matic": 8285,
  "matter": 9304,
  "max": 13244,
  "may": 10829,
  "maybe": 8284,
  "mb": 1706,
  "mber": 6112,
  "me": 2986,
  "meaning": 15450,
  "means": 15449,
  "meant": 12080,
  "med": 1550,
  "mede": 15027,
  "media": 15028,
  "ment": 518,
  "mented": 8585,
  "ments": 989,
  "mer": 1001,
  "mercial": 3266,
  "mercially": 14769,
  "mere": 13232,
  "meric": 1760,
  "mers": 10830,
  "mes": 10828,
  "met": 4872,
  "meth": 2494,
  "methane": 15318,
  "methrow": 2612,
  "methrower": 3054,
  "methrowers": 6806,
  "metry": 7421,
  "mg": 13228,
  "mi": 6109,
  "might": 9302,
  "mile": 13240,
  "million": 13242,
  "min": 6110,
  "mind": 10832,
  "ming": 3208,
  "mins": 6114,
  "minutes": 10384,
  "miology": 13248,
  "mis": 13229,
  "miss": 10833,
  "missing": 16831,
  "mission": 8286,
  "mit": 3889,
  "mk": 4190,
  "mm": 2929,
  "mmetry": 8894,
  "mo": 581,
  "mod": 9303,
  "model": 13236,
  "modified": 16450,
  "moidal": 14468,
  "moj": 4311,
  "mon": 1203,
  "money": 13241,
  "month": 6310,
  "months": 9062,
  "mony": 14873,
  "moon": 14465,
  "moons": 14467,
  "mor": 1425,
  "more": 6111,
  "mored": 13245,
  "morous": 14989,
  "mos": 2225,
  "mosis": 15231,
  "mosph": 2419,
  "most": 821,
  "mostly": 7857,
  "mount": 13238,
  "mounted": 16833,
  "mous": 6963,
  "moving": 14466,
  "mp": 295,
  "mpath": 11065,
  "mpe": 9452,
  "mph": 5790,
  "mple": 13651,
  "mployment": 11066,
  "mpor": 13650,
  "mpt": 1572,
  "mpting": 9453,
  "mptote": 15030,
  "mpts": 11064,
  "mr": 4871,
  "ms": 3305,
  "mt": 10827,
  "much": 8283,
  "muff": 9305,
  "muffin": 16451,
  "muffled": 16452,
  "mult": 13239,
  "multiple": 16834,
  "mund": 13243,
  "munds": 16835,
  "music": 13246,
  "my": 8282,
  "n": 83,
  "na": 2206,
  "nacks": 13252,
  "nado": 13254,
  "nage": 6115,
  "nal": 1426,
  "name": 10836,
  "nament": 13251,
  "nas": 6965,
  "nd": 407,
  "nder": 766,
  "ndical": 9609,
  "ne": 867,
  "near": 7863,
  "nect": 2307,
  "nected": 15261,
  "ned": 4873,
  "nedy": 15798,
  "nee": 14680,
  "needs": 14681,
  "nel": 7564,
  "ner": 2930,
  "ners": 5402,
  "nes": 4391,
  "nesota": 10295,
  "ness": 1476,
  "nesses": 7289,
  "netic": 7565,
  "nets": 10838,
  "neum": 6701,
  "neurs": 11638,
  "nevit": 11639,
  "nevitably": 12750,
  "new": 4475,
  "next": 7864,
  "ney": 3261,
  "neys": 11637,
  "ng": 1466,
  "ngth": 3274,
  "nhe": 13253,
  "nically": 2623,
  "nice": 10835,
  "nicious": 10840,
  "night": 3477,
  "nik": 10839,
  "ning": 2099,
  "nm": 13249,
  "nnt": 13250,
  "no": 1008,
  "nology": 7892,
  "non": 10834,
  "nor": 6964,
  "nos": 10837,
  "not": 1811,
  "note": 15090,
  "novation": 5587,
  "now": 4874,
  "nox": 14771,
  "noying": 4772,
  "nozzle": 14772,
  "nt": 421,
  "ntax": 14075,
  "ntil": 9625,
  "ntown": 7744,
  "ny": 2136,
  "o": 84,
  "ob": 1934,
  "obahn": 7309,
  "ober": 13260,
  "obomb": 11911,
  "obv": 6342,
  "obviously": 16024,
  "oc": 822,
  "oca": 2199,
  "ocado": 14656,
  "ocal": 3703,
  "ocally": 7858,
  "och": 9306,
  "oci": 13258,
  "ock": 1084,
  "ocket": 2369,
  "ockh": 5270,
  "ockheed": 6060,
  "ockholm": 15886,
  "oco": 7180,
  "ocr": 5009,
  "ocracy": 7424,
  "ocris": 14655,
  "ocritical": 11621,
  "ocurrency": 6698,
  "ocus": 2114,
  "od": 452,
  "oda": 11377,
  "odd": 11378,
  "ode": 1897,
  "oded": 14172,
  "odel": 543,
  "odes": 7759,
  "odity": 14173,
  "ods": 3412,
  "odspeed": 8039,
  "ody": 1407,
  "oe": 7566,
  "oem": 13257,
  "oes": 7567,
  "of": 1240,
  "off": 7568,
  "oft": 13259,
  "og": 2931,
  "ogy": 10843,
  "oh": 6966,
  "oice": 2586,
  "oid": 1935,
  "oids": 6510,
  "oil": 9307,
  "oint": 5149,
  "ointed": 15855,
  "ok": 5148,
  "oke": 2536,
  "oked": 9310,
  "oks": 10841,
  "ol": 520,
  "ola": 6509,
  "olar": 1493,
  "olarship": 11495,
  "old": 1020,
  "olden": 14782,
  "ole": 2666,
  "olences": 14423,
  "oles": 11493,
  "olic": 11494,
  "olies": 6673,
  "oline": 3103,
  "olist": 9747,
  "olition": 14422,
  "oll": 1439,
  "ollow": 2069,
  "ollower": 9995,
  "olly": 7280,
  "ollywood": 8164,
  "olm": 8587,
  "olo": 13256,
  "olume": 8588,
  "olut": 1191,
  "olutely": 1607,
  "olution": 2904,
  "olving": 9748,
  "oly": 3562,
  "olytopia": 6843,
  "om": 326,
  "omad": 13792,
  "omal": 11162,
  "omb": 3670,
  "omberg": 8445,
  "ome": 428,
  "omes": 2834,
  "omet": 2510,
  "ometer": 8444,
  "ometh": 1144,
  "omething": 1174,
  "omethings": 8719,
  "ometime": 15326,
  "ometimes": 2708,
  "omination": 13793,
  "oming": 1187,
  "omm": 1525,
  "ommend": 1847,
  "ommended": 15112,
  "ommod": 10005,
  "omo": 6598,
  "omp": 3210,
  "oms": 2509,
  "omstick": 13794,
  "omy": 11161,
  "on": 266,
  "ona": 6125,
  "onav": 5760,
  "ond": 1442,
  "onda": 14996,
  "ondon": 4493,
  "onds": 14997,
  "one": 476,
  "onel": 13404,
  "onent": 13403,
  "ones": 1936,
  "onest": 7593,
  "onestly": 9104,
  "oney": 1166,
  "ong": 490,
  "onge": 7594,
  "onges": 14328,
  "onglass": 14329,
  "ongr": 1372,
  "onia": 13405,
  "onic": 5159,
  "onious": 9369,
  "onizing": 9370,
  "onk": 10920,
  "only": 8315,
  "onn": 13402,
  "onna": 3379,
  "onnage": 13407,
  "onoke": 13406,
  "onom": 2344,
  "onomous": 10114,
  "onomy": 8860,
  "onored": 6524,
  "ons": 807,
  "onship": 11613,
  "onsible": 14640,
  "ont": 549,
  "ontent": 14449,
  "onus": 10921,
  "ony": 2000,
  "onymous": 7311,
  "oo": 344,
  "ood": 457,
  "oody": 9671,
  "oof": 4922,
  "oogle": 4236,
  "ooh": 7067,
  "oohoo": 8158,
  "ook": 2782,
  "ool": 743,
  "ooled": 11597,
  "ooling": 7847,
  "oon": 2987,
  "ooo": 7068,
  "oooo": 13845,
  "oop": 2162,
  "oor": 13255,
  "oost": 11190,
  "ooster": 2945,
  "ooth": 9309,
  "ooting": 13262,
  "op": 376,
  "opark": 8486,
  "ope": 1274,
  "opef": 992,
  "opefully": 1005,
  "opes": 8485,
  "opez": 11772,
  "oph": 6620,
  "opia": 5200,
  "opian": 13931,
  "opify": 11258,
  "opilot": 972,
  "oping": 2397,
  "oplas": 13932,
  "oplasmosis": 16939,
  "ople": 13930,
  "opods": 13933,
  "opolies": 8487,
  "opoly": 13934,
  "opp": 11257,
  "opper": 1860,
  "ops": 3679,
  "opt": 4442,
  "opter": 6199,
  "optim": 5114,
  "optimized": 8108,
  "opulation": 7716,
  "opump": 3680,
  "oqu": 9308,
  "or": 272,
  "ora": 9388,
  "oral": 13447,
  "orant": 13448,
  "orating": 13450,
  "orbit": 6994,
  "orbital": 6134,
  "orch": 8326,
  "ord": 870,
  "order": 5258,
  "orders": 8678,
  "ordinary": 9859,
  "ording": 3706,
  "ords": 6287,
  "ore": 563,
  "ored": 2440,
  "ores": 9765,
  "orf": 13446,
  "ori": 8325,
  "orial": 13449,
  "orical": 7604,
  "orient": 13451,
  "ories": 7603,
  "oring": 1163,
  "orists": 10948,
  "ork": 4565,
  "orm": 860,
  "orn": 1011,
  "orne": 3310,
  "orole": 9389,
  "orolev": 10546,
  "orp": 10946,
  "orporate": 8327,
  "orre": 1283,
  "orrect": 1436,
  "orrow": 7605,
  "orry": 1312,
  "ors": 698,
  "orse": 5768,
  "orses": 7165,
  "orship": 14581,
  "ort": 446,
  "ortant": 1050,
  "orted": 9664,
  "orter": 4009,
  "orters": 4010,
  "orth": 1677,
  "orts": 2291,
  "ortun": 2259,
  "ortunately": 2973,
  "orus": 10947,
  "orway": 2715,
  "ory": 667,
  "os": 842,
  "osal": 11625,
  "osaurs": 11628,
  "ose": 823,
  "osed": 6284,
  "osen": 14666,
  "osene": 11627,
  "oses": 7183,
  "osh": 14664,
  "osing": 11624,
  "osis": 14665,
  "osite": 3345,
  "osph": 11626,
  "ospital": 3521,
  "oss": 10842,
  "ossible": 2667,
  "ossibly": 5403,
  "ossil": 10844,
  "ost": 1055,
  "ostationary": 9913,
  "osteer": 9912,
  "osting": 7234,
  "ot": 316,
  "ota": 5803,
  "otainment": 8430,
  "ote": 2355,
  "otech": 9491,
  "oted": 8426,
  "otely": 8428,
  "oters": 11126,
  "otes": 6583,
  "oth": 681,
  "other": 1688,
  "othermal": 14563,
  "othing": 2569,
  "oths": 9810,
  "otic": 8427,
  "otine": 11127,
  "oting": 9490,
  "otional": 13733,
  "otive": 3577,
  "otomy": 13734,
  "otor": 6584,
  "otos": 8429,
  "ots": 1857,
  "ott": 11125,
  "oty": 2393,
  "ou": 279,
  "oub": 3226,
  "ouble": 2004,
  "ouch": 2141,
  "ouche": 11934,
  "ouched": 8353,
  "oud": 1893,
  "ouder": 10996,
  "oufla": 13515,
  "oug": 6141,
  "ough": 474,
  "oughly": 2127,
  "ought": 1698,
  "ouis": 10995,
  "ouken": 13514,
  "oul": 6142,
  "ould": 378,
  "oun": 1385,
  "ounce": 2373,
  "ounced": 9980,
  "ouncing": 9981,
  "ound": 517,
  "ounds": 1190,
  "ouns": 14962,
  "ount": 704,
  "ounter": 3042,
  "oup": 3485,
  "ouple": 6406,
  "oups": 10997,
  "our": 453,
  "ourage": 7621,
  "ource": 14175,
  "ources": 3510,
  "oured": 8352,
  "ouri": 9668,
  "ournal": 9669,
  "ournalist": 12628,
  "ourse": 1581,
  "ourth": 14174,
  "ous": 576,
  "ouse": 1854,
  "ousines": 14461,
  "ously": 3024,
  "out": 382,
  "outer": 4566,
  "outh": 2828,
  "outs": 3405,
  "ov": 3998,
  "ove": 1135,
  "over": 1501,
  "overpaid": 15023,
  "ovie": 10262,
  "oving": 4559,
  "ow": 327,
  "owea": 9524,
  "oweapon": 10555,
  "ower": 565,
  "owers": 8446,
  "own": 714,
  "owned": 14595,
  "owner": 7169,
  "ows": 5455,
  "ox": 4192,
  "oxide": 15697,
  "oy": 2382,
  "oying": 13261,
  "oys": 5748,
  "p": 85,
  "pa": 8287,
  "pace": 494,
  "paceX": 670,
  "pack": 5404,
  "packed": 13269,
  "packs": 10852,
  "pad": 9312,
  "paid": 13266,
  "pan": 8288,
  "par": 2341,
  "parachute": 15269,
  "parent": 10853,
  "parents": 13270,
  "paring": 6362,
  "parks": 15268,
  "part": 6511,
  "partially": 16055,
  "particle": 16056,
  "pass": 7571,
  "password": 12510,
  "pay": 4560,
  "payers": 15759,
  "pe": 447,
  "pecially": 1580,
  "pect": 1009,
  "pected": 3947,
  "pective": 8699,
  "pector": 11697,
  "pects": 9901,
  "peed": 3509,
  "pell": 1481,
  "pellant": 1518,
  "pen": 1089,
  "pending": 13265,
  "pension": 3267,
  "people": 14164,
  "per": 468,
  "perate": 11413,
  "performance": 14241,
  "periment": 14242,
  "pers": 10847,
  "person": 2712,
  "personic": 2864,
  "pert": 14240,
  "pes": 3999,
  "pet": 10845,
  "ph": 982,
  "pha": 3757,
  "phere": 11686,
  "phic": 9316,
  "philosoph": 14755,
  "philosophically": 17041,
  "phob": 7205,
  "phone": 14753,
  "phot": 11685,
  "physics": 14754,
  "pic": 9311,
  "pick": 10851,
  "picked": 16620,
  "pie": 10848,
  "piece": 12691,
  "ping": 7569,
  "pir": 10846,
  "piration": 9318,
  "pital": 3478,
  "pite": 3130,
  "pl": 2383,
  "place": 7988,
  "plan": 6116,
  "plane": 8862,
  "planet": 9317,
  "planetary": 5151,
  "play": 5317,
  "plus": 7333,
  "pm": 4193,
  "po": 2276,
  "pod": 13264,
  "point": 5994,
  "points": 11968,
  "poke": 10096,
  "pol": 10849,
  "poll": 4561,
  "pollo": 4848,
  "pologies": 7324,
  "pon": 2770,
  "pone": 9314,
  "poned": 6383,
  "poning": 15387,
  "ponse": 4163,
  "por": 3651,
  "porate": 5101,
  "port": 1628,
  "porter": 12166,
  "pose": 10850,
  "power": 4194,
  "powered": 12235,
  "pp": 399,
  "pped": 2400,
  "pper": 2166,
  "ppiness": 13996,
  "pping": 2218,
  "pportun": 13995,
  "pposite": 8503,
  "ppy": 2125,
  "pr": 1627,
  "pre": 5150,
  "pread": 12309,
  "pressurized": 13271,
  "pri": 9315,
  "pril": 3046,
  "primarily": 11847,
  "print": 15043,
  "prise": 15044,
  "prising": 11846,
  "pro": 2822,
  "prob": 15404,
  "probably": 8887,
  "production": 8011,
  "productive": 12054,
  "proof": 7355,
  "propellant": 15405,
  "prot": 13267,
  "protest": 16837,
  "ps": 1477,
  "pt": 595,
  "ptember": 14481,
  "ption": 8611,
  "pts": 7570,
  "public": 10854,
  "puff": 13268,
  "pul": 9313,
  "punk": 4875,
  "pure": 13263,
  "put": 2155,
  "q": 86,
  "qu": 475,
  "quake": 8557,
  "quakes": 11439,
  "quality": 11438,
  "que": 2277,
  "quence": 14288,
  "quer": 14287,
  "ques": 8556,
  "quid": 2086,
  "quila": 8558,
  "quis": 11437,
  "quiv": 6238,
  "r": 87,
  "ra": 448,
  "rac": 8289,
  "ract": 2100,
  "rad": 13274,
  "raform": 14166,
  "raft": 1633,
  "rag": 877,
  "rage": 5868,
  "ragon": 1047,
  "rain": 3691,
  "rained": 9666,
  "rains": 11371,
  "raint": 14165,
  "raisin": 14168,
  "raising": 11372,
  "ral": 2236,
  "ram": 13275,
  "ramp": 9319,
  "rance": 9322,
  "range": 3563,
  "rangers": 13278,
  "rant": 6512,
  "raordinary": 14167,
  "rap": 4045,
  "raph": 5219,
  "raphic": 7403,
  "raphy": 6440,
  "rapid": 15678,
  "rapped": 6222,
  "rapt": 9665,
  "rary": 10856,
  "rason": 10857,
  "rass": 2988,
  "rasshopper": 5330,
  "rast": 11370,
  "rastructure": 7758,
  "rate": 5152,
  "rated": 6967,
  "ration": 3653,
  "rational": 9323,
  "ratr": 9325,
  "ratracheal": 10539,
  "raud": 7757,
  "raul": 4951,
  "rav": 5867,
  "ravit": 6648,
  "ravitas": 6906,
  "ravity": 11373,
  "raw": 4046,
  "ray": 7572,
  "rayed": 12511,
  "raz": 1871,
  "razy": 2019,
  "rbur": 4876,
  "rding": 5405,
  "rdinger": 5708,
  "re": 268,
  "read": 7597,
  "ready": 1159,
  "reak": 13423,
  "real": 4207,
  "really": 9383,
  "ream": 2995,
  "reaming": 12082,
  "reased": 13425,
  "reasing": 6988,
  "reat": 460,
  "reating": 4453,
  "reation": 10929,
  "reci": 1136,
  "reciate": 11732,
  "reciated": 4776,
  "red": 932,
  "redibly": 9880,
  "redict": 14722,
  "redient": 11663,
  "redit": 7881,
  "redu": 13422,
  "reducing": 16852,
  "ree": 753,
  "reed": 1540,
  "reedom": 4141,
  "reen": 1891,
  "rees": 3141,
  "reet": 9382,
  "reg": 9379,
  "reh": 9380,
  "rej": 8319,
  "rek": 9381,
  "rel": 3075,
  "related": 12092,
  "rella": 13426,
  "rem": 1057,
  "remont": 3613,
  "ren": 3219,
  "rench": 7375,
  "rend": 2874,
  "rep": 13421,
  "repre": 10931,
  "res": 2826,
  "resh": 8320,
  "ress": 788,
  "ressed": 6696,
  "ressing": 5919,
  "ression": 3606,
  "ressive": 2846,
  "ressively": 9843,
  "ressure": 8668,
  "ressurized": 7177,
  "rest": 6526,
  "restr": 10930,
  "ret": 2626,
  "retamine": 15357,
  "rete": 6128,
  "retired": 15356,
  "rets": 6987,
  "return": 15355,
  "review": 13424,
  "rew": 3220,
  "rewed": 15506,
  "rey": 5420,
  "ri": 885,
  "rial": 13276,
  "rian": 7868,
  "rib": 2572,
  "ribe": 6705,
  "ribed": 6003,
  "ric": 727,
  "ricane": 14604,
  "riced": 11592,
  "rices": 9832,
  "rich": 7573,
  "rick": 7171,
  "ricks": 5898,
  "ricky": 9833,
  "rict": 6276,
  "ricted": 14605,
  "riction": 11593,
  "rid": 4195,
  "ridge": 15698,
  "ried": 4476,
  "rier": 5931,
  "riers": 14695,
  "ries": 2137,
  "rification": 13277,
  "rify": 9324,
  "right": 8290,
  "rin": 13273,
  "ring": 3131,
  "rior": 7867,
  "riority": 10493,
  "ris": 3306,
  "rist": 4196,
  "rit": 2668,
  "rite": 10855,
  "ritical": 4161,
  "ritten": 8877,
  "riving": 1376,
  "ro": 296,
  "roach": 11067,
  "roat": 6569,
  "robability": 11070,
  "rock": 6570,
  "rodded": 13657,
  "rode": 11069,
  "rog": 13652,
  "rogen": 4907,
  "rohm": 13656,
  "roid": 8399,
  "roids": 13655,
  "roisie": 13658,
  "rol": 8396,
  "roll": 2504,
  "rolled": 12011,
  "rom": 467,
  "rome": 8552,
  "ron": 1293,
  "roneship": 8735,
  "rong": 6117,
  "ronic": 4135,
  "ronistic": 14924,
  "room": 8398,
  "rooms": 11071,
  "rop": 4224,
  "roph": 11068,
  "rophic": 15711,
  "ropped": 9454,
  "ropy": 8078,
  "ror": 5749,
  "rors": 8291,
  "ross": 2007,
  "rost": 8397,
  "rot": 2352,
  "rote": 3083,
  "rottling": 15274,
  "round": 3654,
  "rous": 4562,
  "rout": 9320,
  "rove": 7652,
  "roved": 4225,
  "roving": 13653,
  "row": 884,
  "rown": 7033,
  "rowser": 6704,
  "rox": 5791,
  "roy": 4418,
  "roying": 13654,
  "rs": 3652,
  "rsly": 6027,
  "ru": 745,
  "rub": 11598,
  "ruciating": 14611,
  "ruck": 1463,
  "ruction": 3427,
  "ructions": 8658,
  "rufrock": 11599,
  "rum": 9321,
  "rump": 8657,
  "rup": 14610,
  "rupt": 2525,
  "ruption": 6374,
  "rust": 5750,
  "rv": 13272,
  "ry": 538,
  "rypt": 4608,
  "rypton": 7418,
  "rys": 6251,
  "s": 88,
  "same": 7576,
  "sars": 13280,
  "satell": 6515,
  "satellite": 9068,
  "satellites": 12425,
  "sc": 3890,
  "scale": 12198,
  "sch": 9327,
  "scheduled": 13290,
  "school": 16454,
  "science": 10864,
  "scientists": 10865,
  "scope": 12197,
  "se": 360,
  "sea": 9562,
  "sec": 6188,
  "section": 11225,
  "sectional": 16661,
  "sections": 8466,
  "secure": 10391,
  "sed": 4000,
  "see": 13885,
  "seem": 11226,
  "seeming": 16662,
  "self": 2989,
  "sell": 4586,
  "seller": 8089,
  "sellers": 12264,
  "selling": 12263,
  "selves": 3069,
  "semb": 3496,
  "sens": 13283,
  "sentation": 9330,
  "sequ": 7705,
  "sequences": 12525,
  "ser": 3758,
  "seriously": 15608,
  "service": 15607,
  "serving": 15606,
  "ses": 5153,
  "set": 4197,
  "sey": 11224,
  "sh": 1707,
  "sha": 9328,
  "shadow": 15071,
  "shadowed": 17061,
  "shakes": 16456,
  "shapes": 15072,
  "shaw": 16455,
  "shell": 15070,
  "ship": 10862,
  "shirt": 5050,
  "shirts": 15073,
  "shold": 5289,
  "should": 8798,
  "si": 6513,
  "side": 2342,
  "sides": 13288,
  "sigh": 2823,
  "sight": 7575,
  "silicon": 10867,
  "similar": 13292,
  "sin": 13279,
  "sing": 2537,
  "sion": 657,
  "siq": 16057,
  "sistent": 10866,
  "site": 10860,
  "sives": 13286,
  "size": 8293,
  "sized": 10863,
  "sland": 13289,
  "slanted": 13291,
  "slo": 10859,
  "slow": 13284,
  "sm": 9326,
  "smol": 16453,
  "snacks": 13293,
  "so": 603,
  "soever": 11531,
  "soft": 8615,
  "software": 14494,
  "some": 13281,
  "sometimes": 13287,
  "son": 4877,
  "soon": 14493,
  "sounds": 7577,
  "sour": 6968,
  "source": 12462,
  "sourced": 12463,
  "sp": 1826,
  "space": 6514,
  "spacex": 16058,
  "spect": 6969,
  "speed": 8294,
  "spine": 15097,
  "spirationally": 6337,
  "spond": 15098,
  "squ": 13282,
  "srsly": 9329,
  "ss": 450,
  "ssentially": 6223,
  "ssible": 1111,
  "ssibly": 2556,
  "ssil": 4259,
  "ssue": 14170,
  "st": 297,
  "stable": 13661,
  "staire": 11081,
  "stamp": 13659,
  "stamped": 16898,
  "stances": 13666,
  "stand": 1856,
  "standard": 15115,
  "standing": 5979,
  "standings": 15116,
  "star": 11072,
  "starter": 11079,
  "state": 13660,
  "static": 13664,
  "station": 11075,
  "ste": 4908,
  "steel": 13663,
  "stein": 6875,
  "stem": 946,
  "step": 9455,
  "ster": 833,
  "sterdam": 11622,
  "sters": 7653,
  "stic": 6572,
  "stick": 8402,
  "stics": 13662,
  "still": 11073,
  "stock": 11078,
  "ston": 8400,
  "stone": 11076,
  "stood": 4909,
  "stop": 11074,
  "stopper": 13665,
  "storm": 11077,
  "story": 8401,
  "str": 4018,
  "stration": 11080,
  "stream": 6158,
  "stron": 2545,
  "strong": 15669,
  "stru": 4019,
  "structed": 15670,
  "struction": 9456,
  "structure": 7401,
  "sts": 6571,
  "su": 8292,
  "sub": 6970,
  "such": 10861,
  "sufficient": 16321,
  "sum": 10858,
  "sure": 2538,
  "suring": 13285,
  "sustain": 4392,
  "sustaining": 5113,
  "sw": 7574,
  "swer": 2421,
  "swers": 12512,
  "sy": 5406,
  "syndical": 10343,
  "syndicalism": 12667,
  "t": 89,
  "ta": 2422,
  "tag": 9332,
  "tage": 6118,
  "tags": 16457,
  "tainment": 9334,
  "taire": 15301,
  "taken": 13308,
  "tal": 9331,
  "tank": 13302,
  "tau": 15300,
  "tax": 10874,
  "taxi": 16622,
  "tbd": 13307,
  "te": 950,
  "tech": 8691,
  "technically": 16400,
  "ted": 1746,
  "tell": 14735,
  "tely": 3133,
  "tempting": 11673,
  "ten": 1538,
  "tent": 13296,
  "ter": 349,
  "tercup": 13853,
  "terday": 4025,
  "terdays": 13852,
  "tered": 7693,
  "teria": 9539,
  "tering": 11197,
  "term": 1714,
  "tern": 1883,
  "ternal": 3395,
  "ternally": 8818,
  "ters": 2031,
  "tertainment": 9540,
  "tes": 10869,
  "test": 6971,
  "tf": 10868,
  "th": 351,
  "thanks": 5818,
  "that": 9547,
  "thats": 13866,
  "the": 2887,
  "themed": 13868,
  "then": 13864,
  "theon": 15418,
  "ther": 684,
  "there": 7074,
  "thereum": 9090,
  "thern": 7163,
  "thers": 2059,
  "they": 15417,
  "thing": 1059,
  "things": 9548,
  "think": 11208,
  "this": 8460,
  "thly": 13865,
  "tho": 13863,
  "thora": 9549,
  "thorne": 3788,
  "those": 13867,
  "though": 1815,
  "thr": 4924,
  "throp": 11209,
  "thropic": 16659,
  "through": 5356,
  "tical": 2495,
  "tically": 13301,
  "ticle": 10876,
  "tien": 13305,
  "tility": 10872,
  "time": 2771,
  "tine": 13298,
  "ting": 805,
  "tings": 4198,
  "tion": 3132,
  "tires": 13304,
  "titude": 3211,
  "tle": 895,
  "tled": 13303,
  "tles": 6516,
  "tlich": 13306,
  "tling": 7579,
  "to": 2624,
  "toff": 5649,
  "tok": 15354,
  "tol": 13300,
  "tom": 4393,
  "ton": 2120,
  "tons": 10873,
  "too": 7578,
  "topia": 6517,
  "tor": 13295,
  "toty": 5751,
  "totypes": 6451,
  "tough": 13299,
  "tower": 10870,
  "tr": 3564,
  "tra": 8295,
  "traffic": 16322,
  "train": 10875,
  "trivial": 15565,
  "tronic": 5752,
  "truck": 1522,
  "true": 6844,
  "ts": 471,
  "tsley": 14263,
  "tsy": 14262,
  "tt": 13294,
  "tte": 9333,
  "ttos": 16838,
  "tty": 983,
  "tun": 13297,
  "turn": 10871,
  "turns": 16621,
  "tw": 1642,
  "ty": 816,
  "u": 90,
  "uably": 4394,
  "ual": 930,
  "uality": 14717,
  "ually": 661,
  "uated": 10878,
  "uating": 10879,
  "uation": 3134,
  "uations": 5753,
  "ub": 2075,
  "ube": 2870,
  "ublic": 6782,
  "uc": 8296,
  "uce": 13311,
  "uced": 13314,
  "uch": 536,
  "uck": 1294,
  "ucky": 11777,
  "uclear": 13317,
  "ucr": 13316,
  "uct": 7581,
  "ud": 696,
  "ude": 1277,
  "uded": 14580,
  "udes": 14579,
  "udge": 11569,
  "udi": 7164,
  "udicrous": 4991,
  "uding": 9816,
  "udo": 11568,
  "ue": 455,
  "ued": 4879,
  "uel": 1747,
  "uerto": 9340,
  "ues": 1502,
  "uet": 9337,
  "uf": 10877,
  "ufact": 2051,
  "uff": 2423,
  "uffeur": 15302,
  "ug": 1907,
  "uge": 2669,
  "ugg": 5754,
  "uggestions": 15943,
  "uggy": 10046,
  "ugh": 2539,
  "ught": 3640,
  "ughty": 7343,
  "ugpl": 15139,
  "ugs": 9338,
  "uh": 7580,
  "uice": 13312,
  "uild": 4001,
  "uilt": 7582,
  "uin": 13309,
  "uing": 9336,
  "uis": 13310,
  "uish": 5407,
  "uit": 4878,
  "uition": 13315,
  "uitive": 6518,
  "uits": 9339,
  "uj": 8297,
  "uk": 9335,
  "ul": 408,
  "ula": 4563,
  "ulah": 8989,
  "ulance": 14030,
  "ular": 4593,
  "ularity": 12265,
  "ulas": 14029,
  "ulate": 6208,
  "ulated": 6209,
  "ulating": 7096,
  "ulation": 1603,
  "ulations": 1757,
  "ulator": 8509,
  "ulators": 14032,
  "ulatory": 14033,
  "ule": 2772,
  "uled": 4446,
  "ules": 2402,
  "ulf": 9610,
  "ulitzer": 14034,
  "ull": 542,
  "ully": 734,
  "ulner": 7735,
  "ulous": 11313,
  "ulpt": 7734,
  "ulse": 7095,
  "ult": 750,
  "ultane": 4472,
  "ultrac": 14615,
  "ultracaps": 17026,
  "ults": 2219,
  "ulture": 7849,
  "ulved": 14031,
  "uly": 1997,
  "um": 423,
  "uman": 3409,
  "umans": 5861,
  "umb": 2732,
  "umber": 7108,
  "umbers": 15380,
  "ume": 1371,
  "ument": 4040,
  "umentary": 12219,
  "uments": 9626,
  "umer": 3687,
  "umers": 4942,
  "umes": 6638,
  "umetric": 11331,
  "umina": 14076,
  "uminaughty": 16953,
  "uming": 4039,
  "uminum": 3923,
  "ummon": 2470,
  "ump": 2384,
  "umpt": 4002,
  "umption": 4837,
  "umul": 3922,
  "umulative": 6861,
  "un": 381,
  "una": 13943,
  "unar": 8488,
  "uncan": 13951,
  "unch": 618,
  "unct": 13946,
  "unction": 9586,
  "und": 1511,
  "undament": 6758,
  "undamental": 7465,
  "unded": 15025,
  "under": 6623,
  "unders": 11832,
  "undersupply": 16736,
  "undred": 2970,
  "undreds": 12078,
  "une": 2686,
  "unelected": 15374,
  "unes": 13945,
  "unft": 13948,
  "ung": 6622,
  "unication": 11266,
  "unin": 13944,
  "union": 7718,
  "unior": 13950,
  "unire": 11265,
  "unk": 2254,
  "unkel": 15236,
  "unless": 13949,
  "unn": 940,
  "unner": 11668,
  "unning": 3035,
  "unno": 14727,
  "unny": 14728,
  "uns": 11264,
  "unt": 7717,
  "unts": 13947,
  "uous": 13313,
  "up": 883,
  "uper": 878,
  "uperson": 14693,
  "upersonic": 17036,
  "upgrading": 14694,
  "uphead": 6703,
  "upid": 9863,
  "upiter": 5576,
  "upp": 3759,
  "upply": 10240,
  "upport": 5345,
  "ups": 14692,
  "ur": 380,
  "urable": 13939,
  "urai": 13942,
  "ural": 1330,
  "uralink": 2855,
  "uralinks": 9971,
  "urally": 6200,
  "urance": 3404,
  "urant": 11260,
  "urate": 1982,
  "uration": 3917,
  "urative": 13941,
  "uratively": 9585,
  "urb": 1950,
  "urbo": 6777,
  "urch": 9584,
  "urchill": 12626,
  "urd": 3681,
  "urday": 11262,
  "ure": 402,
  "ureVac": 7091,
  "ureau": 7092,
  "ured": 3016,
  "ures": 2837,
  "urf": 13937,
  "uries": 4246,
  "uring": 1430,
  "urious": 13940,
  "urity": 3403,
  "urized": 6621,
  "urn": 773,
  "uro": 1908,
  "urpose": 11263,
  "urre": 1116,
  "urren": 3715,
  "urrency": 4173,
  "urrent": 1268,
  "urry": 11261,
  "urs": 2729,
  "urst": 13938,
  "urther": 4247,
  "ury": 2950,
  "us": 495,
  "usable": 7795,
  "use": 901,
  "used": 5878,
  "uses": 11452,
  "usetts": 14333,
  "useum": 6708,
  "ush": 1921,
  "ushing": 3512,
  "usic": 2955,
  "using": 7135,
  "usion": 2956,
  "usive": 11453,
  "usk": 6244,
  "uss": 1783,
  "ust": 369,
  "ustain": 1446,
  "ustainable": 8765,
  "usted": 5496,
  "ustin": 8469,
  "ustion": 11232,
  "ustom": 1715,
  "usty": 13899,
  "usually": 11454,
  "ut": 312,
  "utal": 8422,
  "ute": 1867,
  "uted": 9480,
  "uter": 4577,
  "uters": 9481,
  "utes": 2721,
  "uth": 2680,
  "ution": 1773,
  "utional": 10027,
  "utions": 5801,
  "utive": 11115,
  "uto": 11114,
  "uts": 4022,
  "utsch": 10264,
  "utschland": 16572,
  "uttle": 11116,
  "utur": 7049,
  "uture": 914,
  "uum": 2101,
  "ux": 3891,
  "uz": 8298,
  "v": 91,
  "va": 13318,
  "vable": 4880,
  "vac": 9341,
  "vada": 5408,
  "vak": 13323,
  "vakia": 16839,
  "val": 1405,
  "valtine": 14977,
  "vance": 6972,
  "vanced": 6519,
  "vant": 4003,
  "vantage": 13328,
  "vantaged": 15663,
  "vard": 13321,
  "vasive": 10885,
  "vation": 3565,
  "vations": 13322,
  "vative": 13324,
  "vator": 13326,
  "vd": 10880,
  "ve": 309,
  "veal": 7662,
  "ved": 996,
  "veil": 2213,
  "vel": 715,
  "velength": 9827,
  "velop": 1674,
  "velope": 7170,
  "vember": 13705,
  "ven": 634,
  "venge": 14516,
  "venience": 8628,
  "vent": 1079,
  "vention": 5598,
  "ventions": 6730,
  "venue": 4982,
  "ver": 331,
  "verage": 4434,
  "veral": 1064,
  "vern": 2434,
  "vers": 2722,
  "verse": 3909,
  "versing": 13799,
  "vert": 2253,
  "verted": 13798,
  "verts": 13797,
  "very": 515,
  "ves": 1003,
  "vest": 4199,
  "vestigating": 8075,
  "vestor": 15699,
  "vey": 6165,
  "vian": 13325,
  "vice": 1158,
  "vices": 3307,
  "vicing": 10884,
  "vid": 1347,
  "vide": 3071,
  "vidence": 4348,
  "vides": 14943,
  "vidia": 8745,
  "viet": 10883,
  "view": 1235,
  "vil": 9342,
  "ville": 4004,
  "vin": 2990,
  "vince": 13327,
  "ving": 802,
  "vior": 5755,
  "vir": 2824,
  "viron": 2979,
  "vision": 8299,
  "vit": 3070,
  "vitt": 15477,
  "vity": 2625,
  "vival": 13329,
  "volume": 10886,
  "volut": 9343,
  "volution": 10882,
  "volutions": 10540,
  "voted": 13330,
  "vs": 13319,
  "vt": 2237,
  "vts": 10881,
  "vy": 13320,
  "w": 92,
  "wagon": 13337,
  "wall": 1851,
  "war": 13333,
  "ward": 997,
  "wards": 2483,
  "ware": 651,
  "warming": 10891,
  "was": 7583,
  "watch": 10889,
  "watched": 13336,
  "water": 10888,
  "watt": 7586,
  "way": 831,
  "ways": 1090,
  "wd": 5409,
  "we": 781,
  "wear": 5000,
  "weather": 11608,
  "wee": 3260,
  "week": 3869,
  "weeks": 15511,
  "ween": 1653,
  "weet": 4326,
  "weets": 11607,
  "wegian": 14633,
  "weight": 5254,
  "weirdly": 14634,
  "well": 5917,
  "wer": 1768,
  "wes": 1260,
  "wesome": 1298,
  "wh": 1392,
  "what": 14968,
  "wheel": 8757,
  "whelming": 7925,
  "where": 1962,
  "which": 5957,
  "while": 7274,
  "white": 11800,
  "wich": 10887,
  "wide": 2871,
  "width": 3892,
  "will": 5410,
  "win": 13331,
  "wind": 13334,
  "wing": 9344,
  "wise": 2121,
  "wit": 1478,
  "with": 5411,
  "without": 15895,
  "witter": 1964,
  "wn": 787,
  "wns": 4327,
  "wnsville": 4842,
  "wo": 3760,
  "won": 13332,
  "wood": 7584,
  "wor": 1879,
  "word": 4881,
  "work": 2971,
  "worked": 15124,
  "working": 15123,
  "works": 15122,
  "world": 3358,
  "worth": 13335,
  "wrapped": 10890,
  "written": 10892,
  "wtf": 13338,
  "wthorne": 8300,
  "wyn": 7585,
  "x": 93,
  "xiety": 13340,
  "xim": 9345,
  "ximity": 10541,
  "xon": 13339,
  "xt": 553,
  "xtrem": 3698,
  "xtremely": 4172,
  "xture": 9763,
  "xtures": 11512,
  "y": 94,
  "yQuil": 9346,
  "yTorch": 13353,
  "yal": 13343,
  "yard": 5412,
  "yards": 13351,
  "yaw": 13349,
  "yay": 13344,
  "yber": 1306,
  "ybertruck": 1564,
  "yc": 2138,
  "ycling": 5635,
  "yd": 4882,
  "ydrogen": 8096,
  "ye": 4395,
  "yeah": 7587,
  "year": 3213,
  "years": 4883,
  "yers": 10893,
  "yes": 1794,
  "ygen": 1998,
  "yi": 6973,
  "ying": 1056,
  "yn": 3135,
  "ynam": 6395,
  "ynd": 13345,
  "yond": 2156,
  "you": 6520,
  "your": 13346,
  "yp": 3655,
  "ype": 4396,
  "yper": 2713,
  "yperloop": 2865,
  "ypo": 13350,
  "ypse": 6415,
  "ypt": 13347,
  "yptic": 16840,
  "yr": 3212,
  "yram": 5668,
  "yre": 13342,
  "yric": 13348,
  "yrus": 12106,
  "ys": 909,
  "yscra": 11650,
  "ysical": 14709,
  "ysics": 2067,
  "ysis": 2411,
  "ystem": 5154,
  "yth": 3893,
  "ython": 3982,
  "yup": 10894,
  "yuz": 13352,
  "yz": 13341,
  "z": 95,
  "za": 13354,
  "ze": 4884,
  "zeal": 10896,
  "zen": 5413,
  "zens": 9347,
  "zer": 6974,
  "zerland": 16140,
  "zero": 8301,
  "zilla": 10897,
  "zing": 10895,
  "zlich": 13356,
  "zos": 13355,
  "zz": 1966,
  "zzle": 7963,
  "zzy": 11914,
  "{": 96,
  "|": 97,
  "}": 98,
  "~": 99,
  "¡": 100,
  "¢": 101,
  "£": 102,
  "¤": 103,
  "¥": 104,
  "¦": 105,
  "§": 106,
  "¨": 107,
  "©": 108,
  "ª": 109,
  "«": 110,
  "¬": 111,
  "®": 112,
  "¯": 113,
  "°": 114,
  "±": 115,
  "²": 116,
  "³": 117,
  "´": 118,
  "µ": 119,
  "¶": 120,
  "·": 121,
  "¸": 122,
  "¹": 123,
  "º": 124,
  "»": 125,
  "¼": 126,
  "½": 127,
  "¾": 128,
  "¿": 129,
  "À": 130,
  "Á": 131,
  "Â": 132,
  "Ã": 133,
  "Ä": 134,
  "Å": 135,
  "Æ": 136,
  "Ç": 137,
  "È": 138,
  "É": 139,
  "Ê": 140,
  "Ë": 141,
  "Ì": 142,
  "Í": 143,
  "Î": 144,
  "Ï": 145,
  "Ð": 146,
  "Ñ": 147,
  "Ò": 148,
  "Ó": 149,
  "Ô": 150,
  "Õ": 151,
  "Ö": 152,
  "×": 153,
  "Ø": 154,
  "Ù": 155,
  "Ú": 156,
  "Û": 157,
  "Ü": 158,
  "Ý": 159,
  "Þ": 160,
  "ß": 161,
  "à": 162,
  "á": 163,
  "â": 164,
  "ã": 165,
  "ä": 166,
  "å": 167,
  "æ": 168,
  "ç": 169,
  "è": 170,
  "é": 171,
  "ê": 172,
  "ë": 173,
  "ì": 174,
  "í": 175,
  "î": 176,
  "ï": 177,
  "ð": 178,
  "ñ": 179,
  "ò": 180,
  "ó": 181,
  "ô": 182,
  "õ": 183,
  "ö": 184,
  "÷": 185,
  "ø": 186,
  "ù": 187,
  "ú": 188,
  "û": 189,
  "ü": 190,
  "ý": 191,
  "þ": 192,
  "ÿ": 193,
  "Ā": 194,
  "ā": 195,
  "Ă": 196,
  "ă": 197,
  "Ą": 198,
  "ą": 199,
  "Ć": 200,
  "ć": 201,
  "Ĉ": 202,
  "ĉ": 203,
  "Ċ": 204,
  "ċ": 205,
  "Č": 206,
  "č": 207,
  "Ď": 208,
  "ď": 209,
  "Đ": 210,
  "đ": 211,
  "Ē": 212,
  "ē": 213,
  "Ĕ": 214,
  "ĕ": 215,
  "Ė": 216,
  "ė": 217,
  "Ę": 218,
  "ę": 219,
  "Ě": 220,
  "ě": 221,
  "Ĝ": 222,
  "ĝ": 223,
  "Ğ": 224,
  "ğ": 225,
  "Ġ": 226,
  "Ġ!": 2278,
  "Ġ!!": 10898,
  "Ġ!\"": 8303,
  "Ġ\"\"": 1349,
  "Ġ\"\"\"": 8746,
  "Ġ\"\":": 14944,
  "Ġ$": 869,
  "Ġ$$$": 9858,
  "Ġ$$$$": 10578,
  "Ġ$/": 14682,
  "Ġ%": 716,
  "Ġ%\"": 11585,
  "Ġ%),": 14597,
  "Ġ%+": 14596,
  "Ġ%,": 4749,
  "Ġ%.": 5249,
  "Ġ%.\"": 6274,
  "Ġ&": 318,
  "Ġ'": 5155,
  "Ġ(": 449,
  "Ġ($": 14169,
  "Ġ(&": 11374,
  "Ġ()": 11375,
  "Ġ(~": 5220,
  "Ġ)": 6975,
  "Ġ)\"": 9352,
  "Ġ*": 955,
  "Ġ+": 1596,
  "Ġ++,": 15036,
  "Ġ+.": 15035,
  "Ġ,": 1080,
  "Ġ-": 1193,
  "Ġ-&": 5948,
  "Ġ--": 4133,
  "Ġ.": 675,
  "Ġ.\"": 2076,
  "Ġ..": 3424,
  "Ġ...": 1721,
  "Ġ...\"": 3552,
  "Ġ/": 1106,
  "Ġ:": 1909,
  "Ġ=": 5414,
  "Ġ==": 15896,
  "Ġ?": 6119,
  "Ġ?\"": 9351,
  "ĠA": 375,
  "ĠAC": 4440,
  "ĠACS": 10299,
  "ĠAF": 8478,
  "ĠAGI": 6198,
  "ĠAI": 1188,
  "ĠAMA": 6619,
  "ĠAP": 7081,
  "ĠAPCs": 13928,
  "ĠAPJ": 16163,
  "ĠASIC": 11255,
  "ĠATV": 8484,
  "ĠAWD": 4441,
  "ĠAb": 5199,
  "ĠAborted": 15870,
  "ĠAbout": 7432,
  "ĠAbove": 15869,
  "ĠAc": 13919,
  "ĠAcc": 8479,
  "ĠAcceleration": 16351,
  "ĠAccess": 13921,
  "ĠAct": 5498,
  "ĠActive": 15914,
  "ĠActual": 12351,
  "ĠActually": 10345,
  "ĠAd": 3583,
  "ĠAdam": 12160,
  "ĠAdams": 8940,
  "ĠAdd": 8482,
  "ĠAdding": 5843,
  "ĠAdela": 12161,
  "ĠAdelaide": 12768,
  "ĠAdjusting": 15570,
  "ĠAdvanced": 8941,
  "ĠAero": 13920,
  "ĠAfrica": 7084,
  "ĠAfter": 6617,
  "ĠAgreed": 13922,
  "ĠAh": 11254,
  "ĠAiming": 3154,
  "ĠAir": 3092,
  "ĠAirborne": 10186,
  "ĠAircraft": 15482,
  "ĠAirport": 15481,
  "ĠAl": 2285,
  "ĠAlamed": 7715,
  "ĠAlameda": 8175,
  "ĠAlas": 13923,
  "ĠAlaska": 16936,
  "ĠAlchem": 11969,
  "ĠAlchemy": 16745,
  "ĠAll": 2217,
  "ĠAlmost": 4509,
  "ĠAlpha": 5995,
  "ĠAlready": 10100,
  "ĠAlso": 1242,
  "ĠAlt": 5841,
  "ĠAlthough": 10101,
  "ĠAltitude": 10367,
  "ĠAlto": 8124,
  "ĠAlways": 10099,
  "ĠAlyss": 13929,
  "ĠAlyssa": 16938,
  "ĠAm": 2396,
  "ĠAmazing": 10119,
  "ĠAmazon": 11988,
  "ĠAmb": 9581,
  "ĠAmbien": 10562,
  "ĠAmeric": 1801,
  "ĠAmerica": 2450,
  "ĠAmerican": 3355,
  "ĠAmish": 11986,
  "ĠAmsterdam": 11987,
  "ĠAn": 3584,
  "ĠAnd": 2684,
  "ĠAndrej": 10144,
  "ĠAndroid": 15373,
  "ĠAng": 5842,
  "ĠAngeles": 9044,
  "ĠAnswer": 12162,
  "ĠAnt": 9580,
  "ĠAny": 3324,
  "ĠAnyone": 8922,
  "ĠAnything": 6835,
  "ĠApart": 13926,
  "ĠApollo": 5844,
  "ĠApp": 2891,
  "ĠApparently": 15420,
  "ĠApple": 4374,
  "ĠApprox": 15419,
  "ĠApril": 3325,
  "ĠAr": 2789,
  "ĠArabia": 15394,
  "ĠArctic": 12049,
  "ĠAre": 2728,
  "ĠArea": 3458,
  "ĠArguably": 15393,
  "ĠAri": 7083,
  "ĠAriane": 10456,
  "ĠAriel": 12474,
  "ĠArizona": 15395,
  "ĠArm": 10153,
  "ĠArs": 15392,
  "ĠArt": 6384,
  "ĠArtists": 16026,
  "ĠArtstation": 16027,
  "ĠAs": 2438,
  "ĠAsh": 6618,
  "ĠAshlee": 9074,
  "ĠAshok": 12430,
  "ĠAsia": 6369,
  "ĠAsimov": 7336,
  "ĠAsimovs": 16214,
  "ĠAsk": 10122,
  "ĠAspirationally": 13925,
  "ĠAss": 7082,
  "ĠAssuming": 16164,
  "ĠAstaire": 11256,
  "ĠAster": 8480,
  "ĠAsterix": 16352,
  "ĠAsteroid": 16353,
  "ĠAston": 13927,
  "ĠAstron": 13924,
  "ĠAstronauts": 16937,
  "ĠAt": 2164,
  "ĠAtlantic": 6349,
  "ĠAtlas": 5636,
  "ĠAtmosph": 10080,
  "ĠAtmospheric": 12659,
  "ĠAudi": 8483,
  "ĠAug": 3402,
  "ĠAugust": 3871,
  "ĠAust": 2642,
  "ĠAustin": 4372,
  "ĠAustral": 3864,
  "ĠAustralia": 4382,
  "ĠAustralian": 15633,
  "ĠAut": 999,
  "ĠAuto": 11690,
  "ĠAutobahn": 7890,
  "ĠAutom": 8697,
  "ĠAutomation": 12584,
  "ĠAutonomy": 11692,
  "ĠAutopark": 11691,
  "ĠAutopilot": 1098,
  "ĠAv": 9579,
  "ĠAvg": 16495,
  "ĠAwesome": 8481,
  "ĠB": 440,
  "ĠBBC": 8535,
  "ĠBBQ": 14146,
  "ĠBD": 14125,
  "ĠBER": 14142,
  "ĠBERLIN": 16966,
  "ĠBFR": 5515,
  "ĠBK": 14126,
  "ĠBMW": 8537,
  "ĠBN": 14127,
  "ĠBO": 11354,
  "ĠBRO": 14141,
  "ĠBS": 9650,
  "ĠBTC": 7115,
  "ĠBaby": 6645,
  "ĠBach": 14132,
  "ĠBack": 7753,
  "ĠBackgam": 16261,
  "ĠBackgammon": 17101,
  "ĠBad": 14128,
  "ĠBak": 14137,
  "ĠBakunin": 16963,
  "ĠBalrog": 14153,
  "ĠBandwidth": 11364,
  "ĠBang": 14134,
  "ĠBank": 14136,
  "ĠBanks": 6644,
  "ĠBar": 5863,
  "ĠBarking": 15959,
  "ĠBase": 4601,
  "ĠBaseball": 15773,
  "ĠBased": 11360,
  "ĠBasically": 9659,
  "ĠBasilisk": 11363,
  "ĠBatt": 14138,
  "ĠBatteries": 14144,
  "ĠBattery": 9658,
  "ĠBattlestar": 16964,
  "ĠBay": 4043,
  "ĠBe": 3805,
  "ĠBeach": 15625,
  "ĠBeans": 15624,
  "ĠBeaut": 14140,
  "ĠBeauty": 16965,
  "ĠBecause": 7114,
  "ĠBeen": 12187,
  "ĠBeij": 12188,
  "ĠBeijing": 12769,
  "ĠBeing": 11361,
  "ĠBel": 9654,
  "ĠBelt": 14139,
  "ĠBen": 9653,
  "ĠBerlin": 2555,
  "ĠBern": 9657,
  "ĠBernie": 16504,
  "ĠBesos": 14152,
  "ĠBest": 4600,
  "ĠBet": 2168,
  "ĠBeta": 2863,
  "ĠBetter": 4507,
  "ĠBeyond": 8953,
  "ĠBezos": 15626,
  "ĠBig": 3507,
  "ĠBiggest": 10221,
  "ĠBill": 8533,
  "ĠBinance": 14148,
  "ĠBioweapon": 14147,
  "ĠBit": 9652,
  "ĠBitcoin": 3330,
  "ĠBl": 3329,
  "ĠBlack": 7382,
  "ĠBlackrock": 12494,
  "ĠBlade": 8536,
  "ĠBlo": 8534,
  "ĠBlock": 5865,
  "ĠBlood": 10206,
  "ĠBloomberg": 12568,
  "ĠBlue": 10205,
  "ĠBluet": 10207,
  "ĠBluetooth": 10589,
  "ĠBlvd": 12128,
  "ĠBo": 3506,
  "ĠBob": 7754,
  "ĠBoca": 2221,
  "ĠBody": 11358,
  "ĠBoeing": 4832,
  "ĠBol": 11357,
  "ĠBoliv": 16681,
  "ĠBond": 11359,
  "ĠBong": 14130,
  "ĠBonus": 14149,
  "ĠBoost": 14150,
  "ĠBooster": 3588,
  "ĠBoring": 2061,
  "ĠBos": 14135,
  "ĠBosch": 16962,
  "ĠBost": 9655,
  "ĠBoston": 12627,
  "ĠBot": 8532,
  "ĠBoth": 5864,
  "ĠBow": 11355,
  "ĠBowie": 16679,
  "ĠBox": 12149,
  "ĠBr": 4599,
  "ĠBrandenburg": 8992,
  "ĠBraz": 9656,
  "ĠBrazil": 10568,
  "ĠBreak": 14151,
  "ĠBrian": 9661,
  "ĠBricks": 9660,
  "ĠBright": 15771,
  "ĠBrilliant": 15772,
  "ĠBring": 11362,
  "ĠBringing": 16682,
  "ĠBrit": 6646,
  "ĠBritain": 12435,
  "ĠBritish": 10425,
  "ĠBro": 3410,
  "ĠBrook": 15529,
  "ĠBrooks": 12137,
  "ĠBroomstick": 15530,
  "ĠBrownsville": 5100,
  "ĠBtw": 4451,
  "ĠBu": 9651,
  "ĠBuff": 7113,
  "ĠBuffett": 8160,
  "ĠBuggy": 14145,
  "ĠBuild": 7755,
  "ĠBuilding": 12527,
  "ĠBuilt": 14143,
  "ĠBunch": 14131,
  "ĠBur": 14129,
  "ĠBurn": 14133,
  "ĠBus": 11356,
  "ĠBusiness": 16680,
  "ĠBut": 2471,
  "ĠButt": 15313,
  "ĠBuy": 16502,
  "ĠBuzz": 16503,
  "ĠBy": 5217,
  "ĠC": 395,
  "ĠCA": 6202,
  "ĠCDC": 9595,
  "ĠCEO": 4934,
  "ĠCH": 2357,
  "ĠCJ": 13965,
  "ĠCNN": 13987,
  "ĠCO": 3159,
  "ĠCOPV": 10192,
  "ĠCPAP": 13990,
  "ĠCPU": 8500,
  "ĠCR": 11283,
  "ĠCab": 11287,
  "ĠCabin": 16666,
  "ĠCal": 11284,
  "ĠCaliforn": 13975,
  "ĠCalifornia": 1756,
  "ĠCalifornians": 16942,
  "ĠCall": 11286,
  "ĠCallisto": 16665,
  "ĠCam": 13968,
  "ĠCamer": 11291,
  "ĠCameron": 12724,
  "ĠCan": 1431,
  "ĠCanada": 2969,
  "ĠCanadian": 7278,
  "ĠCanal": 14990,
  "ĠCanaveral": 2909,
  "ĠCandy": 13979,
  "ĠCant": 4443,
  "ĠCap": 8497,
  "ĠCape": 1816,
  "ĠCapitol": 16354,
  "ĠCapt": 13973,
  "ĠCaptain": 16940,
  "ĠCar": 3093,
  "ĠCaraoke": 15484,
  "ĠCargo": 13989,
  "ĠCaribbean": 15486,
  "ĠCarlo": 15483,
  "ĠCarm": 13977,
  "ĠCarrier": 15485,
  "ĠCars": 8496,
  "ĠCash": 11289,
  "ĠCat": 13967,
  "ĠCath": 13972,
  "ĠCather": 13974,
  "ĠCatherine": 16941,
  "ĠCats": 9591,
  "ĠCav": 13976,
  "ĠCavill": 16943,
  "ĠCent": 8495,
  "ĠCenter": 5204,
  "ĠCenters": 10519,
  "ĠCentral": 13985,
  "ĠCertainly": 13983,
  "ĠCh": 1044,
  "ĠCha": 13970,
  "ĠChad": 9911,
  "ĠChano": 14804,
  "ĠChanos": 7895,
  "ĠChanoss": 17051,
  "ĠChe": 14801,
  "ĠCheck": 7222,
  "ĠChecking": 14803,
  "ĠChic": 3160,
  "ĠChica": 3550,
  "ĠChicago": 10193,
  "ĠChief": 14802,
  "ĠChina": 1495,
  "ĠChinese": 11712,
  "ĠChris": 11711,
  "ĠChrist": 4774,
  "ĠChristie": 15780,
  "ĠChristmas": 5355,
  "ĠChrys": 7223,
  "ĠChrysler": 7475,
  "ĠChurchill": 14805,
  "ĠCirc": 13978,
  "ĠCity": 7087,
  "ĠCivilization": 11293,
  "ĠCl": 4248,
  "ĠClarke": 12242,
  "ĠClass": 9592,
  "ĠCle": 11285,
  "ĠClearly": 16664,
  "ĠClimate": 15719,
  "ĠCloth": 15717,
  "ĠCloud": 15718,
  "ĠClub": 10282,
  "ĠClubhouse": 12663,
  "ĠCo": 1255,
  "ĠCoachella": 14910,
  "ĠCoast": 6738,
  "ĠCobra": 14909,
  "ĠCoking": 14908,
  "ĠCol": 6625,
  "ĠCollect": 14911,
  "ĠColor": 10422,
  "ĠColorado": 12669,
  "ĠCom": 7724,
  "ĠComing": 8498,
  "ĠComm": 5505,
  "ĠCommand": 15915,
  "ĠComments": 10482,
  "ĠCommission": 10346,
  "ĠCommissioner": 16577,
  "ĠCommitte": 15916,
  "ĠCommittee": 17088,
  "ĠComp": 1888,
  "ĠCompany": 2301,
  "ĠCompatible": 15132,
  "ĠComplex": 11895,
  "ĠComputer": 15130,
  "ĠComputers": 15131,
  "ĠCon": 3919,
  "ĠConc": 10255,
  "ĠConcrete": 16568,
  "ĠConf": 15651,
  "ĠCongr": 6203,
  "ĠCongrats": 10393,
  "ĠCongratulations": 9060,
  "ĠCons": 4590,
  "ĠConsider": 15767,
  "ĠConsumer": 6870,
  "ĠConsumers": 15768,
  "ĠCont": 6626,
  "ĠContin": 12431,
  "ĠContinued": 16757,
  "ĠControl": 12432,
  "ĠControls": 16758,
  "ĠConvention": 8960,
  "ĠCook": 9593,
  "ĠCool": 13971,
  "ĠCorre": 8499,
  "ĠCorrell": 16355,
  "ĠCost": 7088,
  "ĠCosts": 16165,
  "ĠCould": 3684,
  "ĠCouldn": 15587,
  "ĠCouldnt": 12171,
  "ĠCount": 5504,
  "ĠCountdown": 12352,
  "ĠCounty": 7439,
  "ĠCouple": 13982,
  "ĠCourse": 7725,
  "ĠCovers": 11770,
  "ĠCovid": 5605,
  "ĠCr": 13966,
  "ĠCreat": 13969,
  "ĠCreating": 8501,
  "ĠCredit": 13986,
  "ĠCren": 13980,
  "ĠCrenshaw": 16944,
  "ĠCrew": 4935,
  "ĠCritical": 5852,
  "ĠCroat": 11292,
  "ĠCroatia": 12725,
  "ĠCt": 8494,
  "ĠCulture": 9596,
  "ĠCumulative": 13984,
  "ĠCup": 11288,
  "ĠCuphead": 9594,
  "ĠCureVac": 7726,
  "ĠCurrent": 4444,
  "ĠCurrently": 10300,
  "ĠCurry": 13988,
  "ĠCustom": 11290,
  "ĠCyber": 4445,
  "ĠCyberdyne": 15744,
  "ĠCyberpunk": 5354,
  "ĠCybertruck": 2034,
  "ĠCycling": 13981,
  "ĠD": 470,
  "ĠDA": 14243,
  "ĠDC": 5872,
  "ĠDJ": 11414,
  "ĠDLC": 14257,
  "ĠDM": 6232,
  "ĠDMV": 10396,
  "ĠDNA": 11420,
  "ĠDOE": 14258,
  "ĠDa": 3809,
  "ĠDad": 7777,
  "ĠDaimler": 6034,
  "ĠDam": 14244,
  "ĠDamn": 7779,
  "ĠDan": 6233,
  "ĠDance": 14248,
  "ĠDane": 9689,
  "ĠDarcy": 14260,
  "ĠDark": 11418,
  "ĠData": 9690,
  "ĠDave": 11419,
  "ĠDavid": 12189,
  "ĠDawn": 10247,
  "ĠDay": 3332,
  "ĠDayQuil": 12129,
  "ĠDe": 2261,
  "ĠDealer": 11962,
  "ĠDeath": 11960,
  "ĠDeb": 15239,
  "ĠDec": 3810,
  "ĠDecember": 11963,
  "ĠDecentralized": 12190,
  "ĠDeep": 6356,
  "ĠDeepaks": 16025,
  "ĠDef": 6656,
  "ĠDefense": 12437,
  "ĠDefinitely": 4454,
  "ĠDel": 4603,
  "ĠDeliveries": 15774,
  "ĠDelta": 6054,
  "ĠDep": 8553,
  "ĠDepending": 16368,
  "ĠDepends": 8554,
  "ĠDesign": 6234,
  "ĠDesigned": 16011,
  "ĠDespite": 14259,
  "ĠDest": 14245,
  "ĠDetail": 6235,
  "ĠDetails": 10397,
  "ĠDeus": 7980,
  "ĠDeutsch": 15241,
  "ĠDev": 10095,
  "ĠDevelop": 11961,
  "ĠDeveloper": 16744,
  "ĠDevice": 15240,
  "ĠDick": 9688,
  "ĠDid": 4958,
  "ĠDidn": 10323,
  "ĠDidnt": 9002,
  "ĠDie": 9687,
  "ĠDiess": 14254,
  "ĠDiff": 6657,
  "ĠDifficult": 7464,
  "ĠDifficulty": 10471,
  "ĠDilbert": 11422,
  "ĠDis": 5226,
  "ĠDisassembly": 15877,
  "ĠDisaster": 15876,
  "ĠDiscord": 10335,
  "ĠDisneys": 15878,
  "ĠDist": 11415,
  "ĠDistances": 16689,
  "ĠDo": 1231,
  "ĠDoD": 8731,
  "ĠDodd": 14256,
  "ĠDoes": 3722,
  "ĠDoesn": 10236,
  "ĠDoesnt": 5344,
  "ĠDoge": 1959,
  "ĠDogecoin": 4797,
  "ĠDogs": 14897,
  "ĠDoing": 7913,
  "ĠDojo": 6311,
  "ĠDon": 5873,
  "ĠDone": 14247,
  "ĠDont": 3415,
  "ĠDoom": 14896,
  "ĠDoub": 9691,
  "ĠDoubt": 12632,
  "ĠDoug": 6658,
  "ĠDouglas": 9076,
  "ĠDown": 14249,
  "ĠDr": 4047,
  "ĠDraco": 15679,
  "ĠDrag": 7778,
  "ĠDragon": 1264,
  "ĠDragonglass": 16267,
  "ĠDramatically": 15681,
  "ĠDri": 11416,
  "ĠDrive": 7404,
  "ĠDriver": 16690,
  "ĠDriving": 14251,
  "ĠDroneship": 11421,
  "ĠDropped": 14255,
  "ĠDrori": 15680,
  "ĠDual": 11417,
  "ĠDue": 14246,
  "ĠDumb": 14252,
  "ĠDumber": 14253,
  "ĠDuncan": 14261,
  "ĠDurant": 11423,
  "ĠDys": 14250,
  "ĠDyson": 16981,
  "ĠE": 472,
  "ĠEAP": 6660,
  "ĠEFF": 14275,
  "ĠEPA": 7128,
  "ĠESL": 14273,
  "ĠEST": 14271,
  "ĠETH": 8555,
  "ĠEU": 3811,
  "ĠEV": 2473,
  "ĠEVs": 3738,
  "ĠEach": 14268,
  "ĠEarly": 11428,
  "ĠEarth": 899,
  "ĠEarthquake": 14702,
  "ĠEarths": 6707,
  "ĠEast": 5227,
  "ĠEaster": 4455,
  "ĠEastern": 7433,
  "ĠEasy": 9699,
  "ĠEber": 7780,
  "ĠEberhard": 10486,
  "ĠEberhards": 16268,
  "ĠEconom": 9697,
  "ĠEconomist": 10572,
  "ĠEd": 9692,
  "ĠEffect": 7127,
  "ĠEg": 9693,
  "ĠEggs": 12633,
  "ĠEgy": 9694,
  "ĠEgypt": 10571,
  "ĠEinstein": 14274,
  "ĠEither": 9696,
  "ĠEl": 4048,
  "ĠElect": 11427,
  "ĠElectrek": 12734,
  "ĠElectric": 5875,
  "ĠElectricity": 15961,
  "ĠElise": 7405,
  "ĠElite": 15682,
  "ĠEllison": 14277,
  "ĠElon": 8971,
  "ĠEmo": 14267,
  "ĠEmp": 11424,
  "ĠEmpire": 16691,
  "ĠEn": 3333,
  "ĠEnd": 5874,
  "ĠEnds": 10369,
  "ĠEnergy": 8923,
  "ĠEng": 3163,
  "ĠEngine": 5667,
  "ĠEngineering": 10354,
  "ĠEngines": 10194,
  "ĠEnglish": 6833,
  "ĠEnhanced": 5673,
  "ĠEnough": 15521,
  "ĠEnrich": 15522,
  "ĠEnrichment": 17081,
  "ĠEnt": 14264,
  "ĠEpic": 14272,
  "ĠEqu": 14266,
  "ĠEric": 9695,
  "ĠEs": 6659,
  "ĠEscobar": 12438,
  "ĠEspecially": 16099,
  "ĠEss": 14265,
  "ĠEssentially": 9698,
  "ĠEthereum": 11429,
  "ĠEtien": 14276,
  "ĠEtienne": 16984,
  "ĠEtsy": 14278,
  "ĠEup": 14269,
  "ĠEuphoria": 16982,
  "ĠEuro": 2194,
  "ĠEuropa": 11946,
  "ĠEurope": 2418,
  "ĠEve": 11425,
  "ĠEven": 2558,
  "ĠEvent": 14270,
  "ĠEventually": 16983,
  "ĠEvery": 3334,
  "ĠEveryone": 8924,
  "ĠEverything": 6022,
  "ĠEvil": 11430,
  "ĠEx": 2403,
  "ĠExactly": 15292,
  "ĠExc": 6798,
  "ĠExcellent": 11991,
  "ĠExcession": 15294,
  "ĠExcited": 12453,
  "ĠExciting": 10438,
  "ĠExcl": 11990,
  "ĠExclude": 12765,
  "ĠExisting": 15295,
  "ĠExpect": 10120,
  "ĠExperiment": 15297,
  "ĠExt": 11426,
  "ĠExternal": 15293,
  "ĠExtraordinary": 16692,
  "ĠExtremely": 6236,
  "ĠExxon": 15296,
  "ĠF": 427,
  "ĠFA": 14080,
  "ĠFAA": 3689,
  "ĠFB": 9631,
  "ĠFDA": 8524,
  "ĠFFSC": 14101,
  "ĠFH": 7109,
  "ĠFP": 6216,
  "ĠFPS": 14095,
  "ĠFSD": 1082,
  "ĠFSW": 14098,
  "ĠFTW": 5862,
  "ĠFUD": 9637,
  "ĠFaberg": 14104,
  "ĠFacebook": 8525,
  "ĠFact": 9632,
  "ĠFair": 6217,
  "ĠFairing": 16010,
  "ĠFalcon": 960,
  "ĠFalcons": 9891,
  "ĠFallout": 8523,
  "ĠFalse": 14102,
  "ĠFaraday": 8526,
  "ĠFart": 14082,
  "ĠFate": 6641,
  "ĠFault": 14096,
  "ĠFe": 4594,
  "ĠFear": 14088,
  "ĠFeature": 12266,
  "ĠFeb": 6052,
  "ĠFederal": 9638,
  "ĠFeels": 6642,
  "ĠFermi": 7112,
  "ĠField": 9636,
  "ĠFields": 16499,
  "ĠFil": 8521,
  "ĠFilter": 16359,
  "ĠFilters": 16360,
  "ĠFinal": 11336,
  "ĠFinally": 14094,
  "ĠFinnish": 14100,
  "ĠFire": 9633,
  "ĠFirst": 3925,
  "ĠFish": 14086,
  "ĠFit": 14081,
  "ĠFix": 9635,
  "ĠFl": 6640,
  "ĠFla": 4595,
  "ĠFlag": 15769,
  "ĠFlamethrower": 6053,
  "ĠFlamethrowers": 15770,
  "ĠFlex": 11337,
  "ĠFlexible": 16676,
  "ĠFlext": 14103,
  "ĠFlextape": 16958,
  "ĠFlight": 14084,
  "ĠFlint": 9075,
  "ĠFlock": 14091,
  "ĠFloki": 11338,
  "ĠFlorida": 4449,
  "ĠFlow": 14087,
  "ĠFlugpl": 16095,
  "ĠFlugplatz": 17095,
  "ĠFocus": 8522,
  "ĠFocused": 16361,
  "ĠFollow": 14092,
  "ĠFool": 14085,
  "ĠFor": 1803,
  "ĠForb": 15089,
  "ĠForce": 3964,
  "ĠFord": 4596,
  "ĠFore": 14083,
  "ĠForever": 16955,
  "ĠForm": 7110,
  "ĠFormer": 16168,
  "ĠFormula": 9093,
  "ĠFortunately": 14093,
  "ĠFound": 3688,
  "ĠFoundation": 6029,
  "ĠFoundry": 10233,
  "ĠFr": 2289,
  "ĠFrame": 11971,
  "ĠFran": 10102,
  "ĠFrancisco": 12660,
  "ĠFrank": 6793,
  "ĠFranklin": 16124,
  "ĠFrankly": 16123,
  "ĠFraz": 14090,
  "ĠFrazetta": 16956,
  "ĠFred": 11335,
  "ĠFree": 7748,
  "ĠFreeway": 12526,
  "ĠFremont": 3799,
  "ĠFrench": 9639,
  "ĠFri": 11334,
  "ĠFriday": 3543,
  "ĠFridman": 15250,
  "ĠFrom": 7747,
  "ĠFront": 15249,
  "ĠFrost": 11339,
  "ĠFull": 3328,
  "ĠFully": 9634,
  "ĠFunction": 14099,
  "ĠFunctionality": 16957,
  "ĠFund": 14089,
  "ĠFundamental": 14097,
  "ĠFuture": 7111,
  "ĠG": 512,
  "ĠGA": 11473,
  "ĠGAA": 14381,
  "ĠGAAP": 16997,
  "ĠGF": 14368,
  "ĠGG": 14369,
  "ĠGM": 4052,
  "ĠGPT": 9734,
  "ĠGPU": 4268,
  "ĠGPUs": 12243,
  "ĠGTO": 8579,
  "ĠGWh": 8577,
  "ĠGalact": 14387,
  "ĠGalactica": 16998,
  "ĠGame": 11475,
  "ĠGames": 11478,
  "ĠGand": 11474,
  "ĠGandalf": 16699,
  "ĠGany": 14373,
  "ĠGanymede": 16994,
  "ĠGarf": 14389,
  "ĠGarfunkel": 16999,
  "ĠGary": 5528,
  "ĠGas": 14371,
  "ĠGates": 14376,
  "ĠGats": 11476,
  "ĠGatsby": 12736,
  "ĠGear": 6666,
  "ĠGen": 5234,
  "ĠGene": 14383,
  "ĠGeneral": 9017,
  "ĠGeor": 6668,
  "ĠGeorge": 8149,
  "ĠGeorges": 16104,
  "ĠGerm": 5235,
  "ĠGerman": 12328,
  "ĠGermany": 6441,
  "ĠGes": 14370,
  "ĠGet": 8576,
  "ĠGets": 14375,
  "ĠGetting": 6667,
  "ĠGhis": 11482,
  "ĠGhislaine": 12737,
  "ĠGhost": 14388,
  "ĠGiant": 14378,
  "ĠGiga": 1400,
  "ĠGigafactories": 11807,
  "ĠGigafactory": 2908,
  "ĠGigawatt": 14976,
  "ĠGinger": 14390,
  "ĠGirl": 11480,
  "ĠGitHub": 14394,
  "ĠGive": 14372,
  "ĠGiven": 7138,
  "ĠGives": 14379,
  "ĠGiving": 11477,
  "ĠGlad": 11479,
  "ĠGlass": 14380,
  "ĠGlenn": 14393,
  "ĠGlobe": 14396,
  "ĠGo": 2520,
  "ĠGoT": 12015,
  "ĠGoal": 6373,
  "ĠGod": 4605,
  "ĠGoddard": 15776,
  "ĠGodfather": 12268,
  "ĠGodot": 7417,
  "ĠGodspeed": 11481,
  "ĠGodzilla": 15775,
  "ĠGoes": 15333,
  "ĠGoing": 6002,
  "ĠGold": 9733,
  "ĠGonna": 14382,
  "ĠGood": 2742,
  "ĠGoogle": 6249,
  "ĠGot": 6248,
  "ĠGov": 15332,
  "ĠGover": 7801,
  "ĠGovernor": 9114,
  "ĠGovt": 15334,
  "ĠGr": 9732,
  "ĠGrasshopper": 5529,
  "ĠGravitas": 8580,
  "ĠGravity": 14392,
  "ĠGreat": 2521,
  "ĠGree": 14374,
  "ĠGreece": 16995,
  "ĠGreen": 8578,
  "ĠGreg": 9735,
  "ĠGrey": 14386,
  "ĠGrid": 14385,
  "ĠGrnhe": 16511,
  "ĠGrnheide": 17103,
  "ĠGrohm": 14395,
  "ĠGrohmann": 17000,
  "ĠGround": 14384,
  "ĠGu": 6247,
  "ĠGuaranteed": 12408,
  "ĠGuess": 10398,
  "ĠGulf": 11483,
  "ĠGulfstream": 12738,
  "ĠGulfstreams": 16770,
  "ĠGund": 14377,
  "ĠGundam": 16996,
  "ĠGuns": 14391,
  "ĠH": 458,
  "ĠHAL": 14193,
  "ĠHEPA": 5518,
  "ĠHHS": 11390,
  "ĠHP": 11380,
  "ĠHQ": 7762,
  "ĠHVAC": 6650,
  "ĠHW": 2894,
  "ĠHa": 3591,
  "ĠHack": 14184,
  "ĠHad": 6226,
  "ĠHaha": 15573,
  "ĠHaiti": 12164,
  "ĠHalf": 11385,
  "ĠHallow": 9673,
  "ĠHalloween": 10569,
  "ĠHalo": 11387,
  "ĠHam": 7119,
  "ĠHamlet": 10462,
  "ĠHank": 14185,
  "ĠHappy": 5342,
  "ĠHar": 7763,
  "ĠHard": 3413,
  "ĠHardcore": 12138,
  "ĠHardest": 15531,
  "ĠHardware": 15532,
  "ĠHarris": 16262,
  "ĠHarvard": 16264,
  "ĠHarvest": 16263,
  "ĠHas": 6225,
  "ĠHat": 9672,
  "ĠHav": 14187,
  "ĠHavanese": 16970,
  "ĠHave": 3930,
  "ĠHaving": 12163,
  "ĠHaw": 4260,
  "ĠHawking": 15722,
  "ĠHawthorne": 4840,
  "ĠHe": 2085,
  "ĠHead": 8543,
  "ĠHeaded": 16365,
  "ĠHeader": 16364,
  "ĠHealth": 15193,
  "ĠHear": 7764,
  "ĠHeard": 15192,
  "ĠHearing": 10485,
  "ĠHeart": 10073,
  "ĠHeat": 11930,
  "ĠHeavy": 1263,
  "ĠHel": 6649,
  "ĠHell": 7120,
  "ĠHello": 12479,
  "ĠHelp": 12436,
  "ĠHeltsley": 16096,
  "ĠHer": 5222,
  "ĠHerbert": 10334,
  "ĠHere": 11383,
  "ĠHert": 8542,
  "ĠHertz": 9136,
  "ĠHerz": 12324,
  "ĠHes": 14180,
  "ĠHidden": 14191,
  "ĠHigh": 2602,
  "ĠHigher": 12029,
  "ĠHighest": 12030,
  "ĠHighly": 7345,
  "ĠHill": 14182,
  "ĠHills": 14192,
  "ĠHis": 7118,
  "ĠHistory": 14188,
  "ĠHit": 8541,
  "ĠHitch": 14189,
  "ĠHitler": 12570,
  "ĠHitlers": 16363,
  "ĠHo": 11381,
  "ĠHold": 14186,
  "ĠHolding": 16969,
  "ĠHollywood": 11389,
  "ĠHome": 11384,
  "ĠHong": 14183,
  "ĠHonored": 7766,
  "ĠHop": 11382,
  "ĠHope": 3693,
  "ĠHopefully": 2518,
  "ĠHoping": 5224,
  "ĠHopper": 3806,
  "ĠHor": 14181,
  "ĠHouse": 5223,
  "ĠHow": 2170,
  "ĠHowever": 3051,
  "ĠHub": 11386,
  "ĠHubble": 16684,
  "ĠHuman": 7121,
  "ĠHumans": 7765,
  "ĠHundreds": 14194,
  "ĠHung": 14190,
  "ĠHungry": 16971,
  "ĠHydrogen": 11388,
  "ĠHyperloop": 3098,
  "ĠHz": 14179,
  "ĠI": 339,
  "ĠIAC": 13830,
  "ĠIC": 5189,
  "ĠICBM": 15863,
  "ĠICE": 12320,
  "ĠICU": 12321,
  "ĠICUs": 15862,
  "ĠIHOP": 13833,
  "ĠII": 7063,
  "ĠIM": 6600,
  "ĠIMF": 10419,
  "ĠIP": 5190,
  "ĠIPO": 8114,
  "ĠIR": 7685,
  "ĠIRS": 12523,
  "ĠIS": 8453,
  "ĠISS": 16346,
  "ĠITA": 11184,
  "ĠITAR": 12714,
  "ĠIV": 5459,
  "ĠIago": 13831,
  "ĠIain": 13828,
  "ĠIce": 11182,
  "ĠId": 3322,
  "ĠIde": 13829,
  "ĠIdeas": 16925,
  "ĠIf": 1152,
  "ĠIll": 11181,
  "ĠIm": 1247,
  "ĠImagine": 14906,
  "ĠImp": 2886,
  "ĠImpact": 7360,
  "ĠImportant": 6012,
  "ĠImpressive": 15416,
  "ĠImprobability": 12071,
  "ĠImprove": 12070,
  "ĠImproved": 12069,
  "ĠIn": 939,
  "ĠInc": 8689,
  "ĠIncent": 11665,
  "ĠInco": 14723,
  "ĠInconel": 11667,
  "ĠIncredibly": 16398,
  "ĠInd": 3010,
  "ĠIndeed": 15466,
  "ĠIndia": 3868,
  "ĠIndias": 15467,
  "ĠInevitably": 13832,
  "ĠInf": 6713,
  "ĠInfinite": 9078,
  "ĠInfinity": 16111,
  "ĠInformation": 14726,
  "ĠInitially": 11666,
  "ĠIns": 5937,
  "ĠInsp": 9882,
  "ĠInspector": 15966,
  "ĠInspiration": 16537,
  "ĠInst": 5938,
  "ĠInsta": 12384,
  "ĠInstead": 10373,
  "ĠInstitute": 15967,
  "ĠInstru": 7198,
  "ĠInstructions": 7474,
  "ĠInsurance": 9048,
  "ĠInt": 7064,
  "ĠIntense": 12472,
  "ĠInter": 7197,
  "ĠInteresting": 16187,
  "ĠIntern": 2264,
  "ĠInternal": 14724,
  "ĠInternational": 6790,
  "ĠInternet": 2582,
  "ĠInterplanetary": 12487,
  "ĠInu": 11664,
  "ĠInvestigating": 14725,
  "ĠIrel": 9533,
  "ĠIreland": 10556,
  "ĠIrid": 8454,
  "ĠIridium": 9132,
  "ĠIron": 5191,
  "ĠIronic": 11183,
  "ĠIronically": 9015,
  "ĠIrony": 8115,
  "ĠIrv": 13834,
  "ĠIrvine": 16926,
  "ĠIs": 3673,
  "ĠIsaac": 15584,
  "ĠIsnt": 10232,
  "ĠIsp": 2724,
  "ĠIt": 998,
  "ĠItal": 7889,
  "ĠItalian": 16282,
  "ĠItaly": 12535,
  "ĠIts": 1102,
  "ĠIve": 2322,
  "ĠJ": 691,
  "ĠJB": 14564,
  "ĠJD": 11565,
  "ĠJJ": 14565,
  "ĠJack": 9813,
  "ĠJam": 6269,
  "ĠJames": 9814,
  "ĠJamming": 16016,
  "ĠJan": 5247,
  "ĠJapan": 4319,
  "ĠJapanese": 15731,
  "ĠJared": 9815,
  "ĠJason": 14571,
  "ĠJava": 14574,
  "ĠJee": 14573,
  "ĠJeez": 17022,
  "ĠJeff": 7841,
  "ĠJeffrey": 16279,
  "ĠJen": 14566,
  "ĠJens": 14569,
  "ĠJensen": 17019,
  "ĠJer": 9811,
  "ĠJersey": 12643,
  "ĠJesus": 14575,
  "ĠJim": 9812,
  "ĠJo": 3258,
  "ĠJoaqu": 12113,
  "ĠJoaquin": 12767,
  "ĠJoe": 8031,
  "ĠJohn": 4828,
  "ĠJohnny": 12276,
  "ĠJohnson": 8996,
  "ĠJon": 7840,
  "ĠJonah": 12533,
  "ĠJord": 14570,
  "ĠJordan": 17020,
  "ĠJour": 14568,
  "ĠJul": 14567,
  "ĠJuly": 3027,
  "ĠJune": 4469,
  "ĠJunk": 14572,
  "ĠJunkyard": 17021,
  "ĠJupiter": 5894,
  "ĠJust": 1334,
  "ĠJustice": 14937,
  "ĠK": 1207,
  "ĠKSC": 14883,
  "ĠKWM": 14887,
  "ĠKai": 11759,
  "ĠKapital": 14886,
  "ĠKara": 14882,
  "ĠKaren": 14881,
  "ĠKathy": 11762,
  "ĠKazak": 14888,
  "ĠKazakhstan": 17056,
  "ĠKe": 9950,
  "ĠKeep": 16548,
  "ĠKelvin": 9953,
  "ĠKen": 11756,
  "ĠKennedy": 16730,
  "ĠKerbal": 11761,
  "ĠKestrel": 9954,
  "ĠKev": 9952,
  "ĠKevlar": 10581,
  "ĠKh": 14877,
  "ĠKim": 14879,
  "ĠKind": 11758,
  "ĠKinda": 11760,
  "ĠKing": 9951,
  "ĠKingdom": 16549,
  "ĠKnight": 8727,
  "ĠKnow": 14880,
  "ĠKoch": 14884,
  "ĠKong": 11757,
  "ĠKore": 7910,
  "ĠKorea": 9119,
  "ĠKorolev": 11763,
  "ĠKouri": 14885,
  "ĠKu": 14878,
  "ĠL": 514,
  "ĠLA": 1606,
  "ĠLASIK": 15038,
  "ĠLAX": 6760,
  "ĠLC": 14397,
  "ĠLEG": 14420,
  "ĠLEGO": 17006,
  "ĠLEO": 7139,
  "ĠLGBT": 14416,
  "ĠLGBTQ": 17005,
  "ĠLJ": 14398,
  "ĠLOX": 9745,
  "ĠLR": 14399,
  "ĠLTE": 14413,
  "ĠLZ": 6669,
  "ĠLag": 14404,
  "ĠLaguna": 17002,
  "ĠLake": 9739,
  "ĠLand": 14400,
  "ĠLander": 14415,
  "ĠLanding": 14408,
  "ĠLarg": 9738,
  "ĠLarger": 10574,
  "ĠLarry": 7142,
  "ĠLaser": 11489,
  "ĠLast": 7803,
  "ĠLater": 11486,
  "ĠLateral": 16701,
  "ĠLatest": 14412,
  "ĠLatter": 5531,
  "ĠLaunch": 4966,
  "ĠLaw": 7806,
  "ĠLe": 8581,
  "ĠLea": 11484,
  "ĠLeak": 14407,
  "ĠLeaving": 16700,
  "ĠLee": 9742,
  "ĠLeg": 9740,
  "ĠLegendary": 16514,
  "ĠLength": 14410,
  "ĠLess": 6671,
  "ĠLet": 6670,
  "ĠLets": 14406,
  "ĠLex": 14405,
  "ĠLi": 5530,
  "ĠLicense": 11492,
  "ĠLife": 6672,
  "ĠLiftoff": 14417,
  "ĠLight": 9736,
  "ĠLightning": 16512,
  "ĠLike": 3816,
  "ĠLikely": 10248,
  "ĠLimit": 7804,
  "ĠLimited": 16272,
  "ĠLimiting": 12531,
  "ĠLine": 14401,
  "ĠLink": 9737,
  "ĠLinked": 16513,
  "ĠLinux": 7141,
  "ĠLiquid": 9027,
  "ĠLiterally": 9743,
  "ĠLithium": 14409,
  "ĠLittle": 11488,
  "ĠLive": 8583,
  "ĠLiving": 14403,
  "ĠLivingstone": 17001,
  "ĠLmk": 7807,
  "ĠLo": 4053,
  "ĠLoan": 12220,
  "ĠLockheed": 9744,
  "ĠLogs": 15683,
  "ĠLoki": 15684,
  "ĠLondon": 4967,
  "ĠLong": 4606,
  "ĠLoo": 2564,
  "ĠLook": 10135,
  "ĠLooking": 4812,
  "ĠLooks": 4515,
  "ĠLoop": 9741,
  "ĠLooper": 15336,
  "ĠLopez": 14418,
  "ĠLord": 14402,
  "ĠLos": 8584,
  "ĠLost": 11487,
  "ĠLot": 3023,
  "ĠLots": 7805,
  "ĠLotus": 8907,
  "ĠLouis": 11491,
  "ĠLove": 3416,
  "ĠLoved": 7406,
  "ĠLow": 8582,
  "ĠLower": 11485,
  "ĠLuc": 14414,
  "ĠLucid": 17004,
  "ĠLucky": 14419,
  "ĠLudicrous": 7140,
  "ĠLued": 14411,
  "ĠLueders": 17003,
  "ĠLunar": 11490,
  "ĠM": 355,
  "ĠMIT": 13880,
  "ĠMN": 13869,
  "ĠMRI": 9559,
  "ĠMSRP": 13881,
  "ĠMT": 7698,
  "ĠMW": 7699,
  "ĠMa": 3912,
  "ĠMac": 11212,
  "ĠMach": 2947,
  "ĠMachine": 8897,
  "ĠMad": 8461,
  "ĠMade": 8462,
  "ĠMagic": 11221,
  "ĠMagnetic": 13879,
  "ĠMain": 7076,
  "ĠMajor": 5685,
  "ĠMakes": 6185,
  "ĠMaking": 10254,
  "ĠMan": 5481,
  "ĠManaging": 12349,
  "ĠMany": 4241,
  "ĠMar": 3789,
  "ĠMarch": 4929,
  "ĠMark": 7703,
  "ĠMarket": 16251,
  "ĠMarketing": 16252,
  "ĠMarks": 15621,
  "ĠMarques": 12183,
  "ĠMars": 786,
  "ĠMarshm": 14638,
  "ĠMarshmellow": 17028,
  "ĠMart": 4028,
  "ĠMartian": 7402,
  "ĠMartians": 10266,
  "ĠMartin": 8071,
  "ĠMarvin": 10245,
  "ĠMarx": 8951,
  "ĠMary": 13873,
  "ĠMass": 5483,
  "ĠMassachusetts": 15913,
  "ĠMassie": 15912,
  "ĠMassive": 12350,
  "ĠMaster": 9556,
  "ĠMatrix": 13878,
  "ĠMatter": 13872,
  "ĠMatters": 16930,
  "ĠMax": 4029,
  "ĠMaximizing": 12216,
  "ĠMaxwell": 12215,
  "ĠMay": 2515,
  "ĠMayans": 15331,
  "ĠMaybe": 1859,
  "ĠMayor": 10132,
  "ĠMc": 5825,
  "ĠMcGregor": 9040,
  "ĠMe": 4239,
  "ĠMead": 11215,
  "ĠMeant": 10281,
  "ĠMechazilla": 8463,
  "ĠMed": 5482,
  "ĠMedtronic": 6064,
  "ĠMeeting": 15716,
  "ĠMegap": 5827,
  "ĠMegapack": 9042,
  "ĠMegapacks": 9043,
  "ĠMel": 9552,
  "ĠMem": 13871,
  "ĠMemor": 16929,
  "ĠMer": 11211,
  "ĠMerc": 11222,
  "ĠMerlin": 2888,
  "ĠMerry": 11220,
  "ĠMet": 7075,
  "ĠMetal": 9091,
  "ĠMex": 6609,
  "ĠMexico": 6904,
  "ĠMiam": 13875,
  "ĠMiami": 16931,
  "ĠMich": 9553,
  "ĠMichael": 12624,
  "ĠMicro": 9557,
  "ĠMicrosoft": 10559,
  "ĠMight": 4927,
  "ĠMin": 5195,
  "ĠMinecraft": 7704,
  "ĠMini": 15866,
  "ĠMinimizing": 15867,
  "ĠMinnesota": 12322,
  "ĠMir": 13870,
  "ĠMirror": 16928,
  "ĠMiss": 11219,
  "ĠMission": 11216,
  "ĠMissouri": 16660,
  "ĠMitch": 9555,
  "ĠMitchell": 10558,
  "ĠMk": 3011,
  "ĠMob": 6610,
  "ĠMobi": 16085,
  "ĠMobilEye": 16086,
  "ĠMobile": 10420,
  "ĠMobileye": 16581,
  "ĠMod": 11214,
  "ĠMode": 3012,
  "ĠModel": 616,
  "ĠModern": 12718,
  "ĠModerna": 16769,
  "ĠMom": 4027,
  "ĠMoms": 11217,
  "ĠMon": 2683,
  "ĠMonday": 4162,
  "ĠMoney": 13874,
  "ĠMonica": 12035,
  "ĠMononoke": 15372,
  "ĠMonopolies": 12036,
  "ĠMont": 4928,
  "ĠMonte": 15804,
  "ĠMonth": 15371,
  "ĠMontreal": 12287,
  "ĠMonty": 6876,
  "ĠMoo": 11213,
  "ĠMoon": 7078,
  "ĠMoonbase": 16162,
  "ĠMord": 9554,
  "ĠMordor": 10557,
  "ĠMore": 2436,
  "ĠMoreover": 5999,
  "ĠMost": 2466,
  "ĠMostly": 6371,
  "ĠMot": 3913,
  "ĠMoth": 7077,
  "ĠMothers": 9092,
  "ĠMotor": 6858,
  "ĠMotors": 6859,
  "ĠMount": 7701,
  "ĠMountain": 9109,
  "ĠMovie": 11223,
  "ĠMoving": 9558,
  "ĠMr": 4926,
  "ĠMs": 7700,
  "ĠMt": 11210,
  "ĠMuch": 4240,
  "ĠMult": 7702,
  "ĠMulti": 12524,
  "ĠMun": 5826,
  "ĠMunger": 12377,
  "ĠMunro": 9041,
  "ĠMuseum": 13877,
  "ĠMusic": 11218,
  "ĠMusk": 13876,
  "ĠMust": 4585,
  "ĠMy": 2465,
  "ĠN": 463,
  "ĠNASA": 3592,
  "ĠNC": 11391,
  "ĠNCAP": 16685,
  "ĠNDA": 14203,
  "ĠNFT": 14205,
  "ĠNG": 14198,
  "ĠNHTSA": 6654,
  "ĠNN": 3331,
  "ĠNNs": 8034,
  "ĠNO": 14199,
  "ĠNPC": 8548,
  "ĠNPCs": 16367,
  "ĠNTS": 11398,
  "ĠNTSB": 12731,
  "ĠNV": 11392,
  "ĠNY": 2557,
  "ĠNYC": 12020,
  "ĠNYT": 5648,
  "ĠNYTimes": 12358,
  "ĠNZ": 14200,
  "ĠName": 11394,
  "ĠNana": 14204,
  "ĠNapoleon": 8550,
  "ĠNational": 9676,
  "ĠNature": 11395,
  "ĠNav": 7124,
  "ĠNavigate": 9094,
  "ĠNavigation": 16170,
  "ĠNe": 915,
  "ĠNecessary": 11656,
  "ĠNeed": 3346,
  "ĠNeeded": 10208,
  "ĠNeeds": 5581,
  "ĠNeil": 11654,
  "ĠNeither": 11655,
  "ĠNerd": 14206,
  "ĠNerdburgering": 16973,
  "ĠNet": 8547,
  "ĠNetflix": 10523,
  "ĠNether": 11396,
  "ĠNetherlands": 12730,
  "ĠNeuman": 14713,
  "ĠNeumann": 17038,
  "ĠNeuralink": 3434,
  "ĠNeuralinks": 11657,
  "ĠNevada": 5934,
  "ĠNever": 7195,
  "ĠNew": 1792,
  "ĠNews": 5974,
  "ĠNewton": 8805,
  "ĠNext": 3347,
  "ĠNice": 6653,
  "ĠNick": 14201,
  "ĠNickel": 11397,
  "ĠNickname": 16972,
  "ĠNight": 7123,
  "ĠNikola": 8549,
  "ĠNo": 1250,
  "ĠNobel": 14907,
  "ĠNobody": 11769,
  "ĠNon": 9674,
  "ĠNonetheless": 12630,
  "ĠNor": 7767,
  "ĠNorth": 3414,
  "ĠNorway": 3807,
  "ĠNorwegian": 16265,
  "ĠNot": 1529,
  "ĠNote": 4139,
  "ĠNothing": 4261,
  "ĠNov": 5031,
  "ĠNove": 9675,
  "ĠNovember": 10570,
  "ĠNow": 2645,
  "ĠNrbur": 4952,
  "ĠNrburgring": 5118,
  "ĠNude": 14202,
  "ĠNut": 11393,
  "ĠNutcracker": 16686,
  "ĠNvidia": 9677,
  "ĠNyQuil": 9678,
  "ĠO": 620,
  "ĠOCIS": 14507,
  "ĠOCISLY": 17012,
  "ĠOG": 8619,
  "ĠOS": 8620,
  "ĠOTA": 5891,
  "ĠOb": 11536,
  "ĠObama": 16706,
  "ĠObel": 14506,
  "ĠObelix": 17011,
  "ĠObs": 11538,
  "ĠObservatory": 16707,
  "ĠObv": 11539,
  "ĠObviously": 8624,
  "ĠOcean": 14504,
  "ĠOct": 4316,
  "ĠOctober": 15730,
  "ĠOdd": 8623,
  "ĠOdds": 16385,
  "ĠOf": 8621,
  "ĠOff": 9787,
  "ĠOffic": 8622,
  "ĠOfficer": 12579,
  "ĠOh": 11537,
  "ĠOk": 5535,
  "ĠOn": 1989,
  "ĠOnce": 10060,
  "ĠOne": 3171,
  "ĠOnion": 6780,
  "ĠOnly": 2660,
  "ĠOp": 14503,
  "ĠOpen": 7828,
  "ĠOpenAI": 8179,
  "ĠOper": 7826,
  "ĠOpera": 16278,
  "ĠOperating": 12532,
  "ĠOpportun": 14508,
  "ĠOpportunity": 17013,
  "ĠOpposite": 11541,
  "ĠOpt": 7827,
  "ĠOptimus": 9116,
  "ĠOr": 2568,
  "ĠOrbit": 10136,
  "ĠOrbital": 7994,
  "ĠOrder": 4813,
  "ĠOrders": 15338,
  "ĠOrig": 15337,
  "ĠOsc": 11540,
  "ĠOscar": 12742,
  "ĠOslo": 11542,
  "ĠOther": 3422,
  "ĠOtherwise": 6405,
  "ĠOur": 2648,
  "ĠOut": 9786,
  "ĠOuter": 14505,
  "ĠOver": 4736,
  "ĠOverarching": 15777,
  "ĠOverheat": 15778,
  "ĠOwn": 9788,
  "ĠOwner": 16525,
  "ĠOwners": 16526,
  "ĠOx": 7825,
  "ĠOxford": 10490,
  "ĠP": 464,
  "ĠPC": 3099,
  "ĠPCR": 4824,
  "ĠPDT": 11408,
  "ĠPPE": 14232,
  "ĠPR": 7768,
  "ĠPU": 9679,
  "ĠPUC": 12631,
  "ĠPac": 4955,
  "ĠPacific": 5703,
  "ĠPadre": 7126,
  "ĠPage": 11400,
  "ĠPaid": 14216,
  "ĠPain": 14211,
  "ĠPaine": 14230,
  "ĠPaint": 14225,
  "ĠPalo": 7771,
  "ĠPan": 4954,
  "ĠPana": 12292,
  "ĠPanama": 15815,
  "ĠPanasonic": 12293,
  "ĠPanels": 15814,
  "ĠPar": 3808,
  "ĠParad": 6033,
  "ĠParadise": 12388,
  "ĠParadox": 7450,
  "ĠParis": 8059,
  "ĠPart": 4956,
  "ĠPartially": 15816,
  "ĠPasad": 11411,
  "ĠPasadena": 12733,
  "ĠPasc": 14228,
  "ĠPascal": 16980,
  "ĠPat": 14207,
  "ĠPay": 4602,
  "ĠPayPal": 7416,
  "ĠPeace": 11409,
  "ĠPegas": 14220,
  "ĠPegasus": 16977,
  "ĠPending": 14215,
  "ĠPenn": 8551,
  "ĠPeople": 5522,
  "ĠPer": 2895,
  "ĠPerformance": 3548,
  "ĠPerhaps": 8893,
  "ĠPerm": 11402,
  "ĠPermian": 16687,
  "ĠPerson": 9683,
  "ĠPersonnel": 16507,
  "ĠPete": 14227,
  "ĠPeter": 14217,
  "ĠPeters": 14226,
  "ĠPetersen": 16979,
  "ĠPh": 2953,
  "ĠPhD": 6389,
  "ĠPhil": 7365,
  "ĠPhilips": 10469,
  "ĠPhilly": 15441,
  "ĠPhotos": 12077,
  "ĠPhysics": 8899,
  "ĠPic": 9680,
  "ĠPics": 11401,
  "ĠPik": 14219,
  "ĠPiketty": 16976,
  "ĠPink": 14213,
  "ĠPinker": 16974,
  "ĠPitch": 11404,
  "ĠPl": 3694,
  "ĠPlace": 12173,
  "ĠPlaced": 15590,
  "ĠPlaid": 2794,
  "ĠPlan": 6655,
  "ĠPlanck": 16097,
  "ĠPlane": 15589,
  "ĠPlanet": 11403,
  "ĠPlanning": 16098,
  "ĠPlayer": 15591,
  "ĠPlease": 2737,
  "ĠPlenty": 15592,
  "ĠPlum": 15588,
  "ĠPoint": 14222,
  "ĠPok": 11405,
  "ĠPokmon": 12732,
  "ĠPol": 7770,
  "ĠPoland": 16266,
  "ĠPolicy": 12529,
  "ĠPolytopia": 7772,
  "ĠPong": 14212,
  "ĠPors": 7125,
  "ĠPorsche": 7473,
  "ĠPort": 14210,
  "ĠPos": 14214,
  "ĠPositive": 16975,
  "ĠPossibly": 14223,
  "ĠPost": 9682,
  "ĠPot": 7769,
  "ĠPotentially": 12528,
  "ĠPower": 1898,
  "ĠPowergl": 10044,
  "ĠPowerglide": 10584,
  "ĠPowerpack": 11898,
  "ĠPowerpacks": 11899,
  "ĠPowerwall": 2302,
  "ĠPowerwalls": 11972,
  "ĠPr": 4953,
  "ĠPrav": 11406,
  "ĠPravda": 16688,
  "ĠPre": 5521,
  "ĠPreparing": 15921,
  "ĠPres": 4957,
  "ĠPresident": 6057,
  "ĠPressure": 14229,
  "ĠPressurized": 11407,
  "ĠPretty": 9025,
  "ĠPri": 9681,
  "ĠPrices": 11410,
  "ĠPriest": 16505,
  "ĠPrimary": 15813,
  "ĠPrincess": 12291,
  "ĠPrius": 16506,
  "ĠPrize": 15812,
  "ĠPro": 1390,
  "ĠProb": 8755,
  "ĠProbable": 16404,
  "ĠProbably": 2701,
  "ĠProblem": 7923,
  "ĠProduct": 11798,
  "ĠProduction": 4349,
  "ĠProgram": 14964,
  "ĠProgress": 9982,
  "ĠProject": 14963,
  "ĠPropellant": 8756,
  "ĠPropul": 9983,
  "ĠPropulsion": 10582,
  "ĠPrototypes": 11799,
  "ĠProvides": 14965,
  "ĠPrufrock": 14231,
  "ĠPublic": 9684,
  "ĠPuerto": 9685,
  "ĠPulitzer": 14233,
  "ĠPump": 14218,
  "ĠPun": 14209,
  "ĠPure": 11399,
  "ĠPushing": 14221,
  "ĠPut": 14208,
  "ĠPyram": 14224,
  "ĠPyramid": 16978,
  "ĠPython": 4262,
  "ĠQ": 1551,
  "ĠQA": 3849,
  "ĠQD": 15029,
  "ĠQu": 7940,
  "ĠQue": 7941,
  "ĠQueen": 16287,
  "ĠQueens": 12537,
  "ĠQuite": 16286,
  "ĠR": 480,
  "ĠRD": 7131,
  "ĠRDW": 16172,
  "ĠRHD": 7787,
  "ĠRIP": 7785,
  "ĠRNA": 7786,
  "ĠRO": 14291,
  "ĠRP": 8560,
  "ĠRT": 14292,
  "ĠRUD": 4960,
  "ĠRUDs": 12294,
  "ĠRV": 14293,
  "ĠRVac": 14305,
  "ĠRWD": 7784,
  "ĠRace": 14297,
  "ĠRad": 6663,
  "ĠRadar": 12440,
  "ĠRadio": 16102,
  "ĠRain": 14298,
  "ĠRamanuj": 14314,
  "ĠRamanujan": 16988,
  "ĠRamses": 14312,
  "ĠRand": 9707,
  "ĠRanders": 16508,
  "ĠRandom": 14306,
  "ĠRange": 8564,
  "ĠRangers": 14307,
  "ĠRapid": 11441,
  "ĠRaptor": 1265,
  "ĠRaptors": 2739,
  "ĠRat": 14294,
  "ĠRated": 14302,
  "ĠRaven": 14313,
  "ĠRazor": 14310,
  "ĠRe": 1398,
  "ĠRead": 6240,
  "ĠReal": 7926,
  "ĠReality": 8759,
  "ĠReally": 3957,
  "ĠReason": 11806,
  "ĠRec": 7276,
  "ĠRecommend": 16206,
  "ĠRecords": 12490,
  "ĠRed": 4456,
  "ĠReddit": 7415,
  "ĠReg": 8758,
  "ĠRelease": 14970,
  "ĠReleasing": 14971,
  "ĠRem": 8563,
  "ĠReminds": 16370,
  "ĠRen": 8561,
  "ĠReno": 12572,
  "ĠRep": 4457,
  "ĠReport": 10301,
  "ĠReports": 6431,
  "ĠRequ": 4786,
  "ĠRequired": 15782,
  "ĠRequires": 5701,
  "ĠRes": 4263,
  "ĠResMed": 15726,
  "ĠResearch": 14311,
  "ĠResmed": 15724,
  "ĠResorts": 15725,
  "ĠRespect": 15723,
  "ĠRest": 8562,
  "ĠRestoring": 16369,
  "ĠResults": 10285,
  "ĠReturn": 14308,
  "ĠReusable": 14972,
  "ĠReveal": 9989,
  "ĠReversing": 14975,
  "ĠReview": 11805,
  "ĠRevolution": 14974,
  "ĠRevolutions": 14973,
  "ĠRich": 14300,
  "ĠRico": 9708,
  "ĠRight": 6239,
  "ĠRising": 11442,
  "ĠRive": 14296,
  "ĠRiver": 14303,
  "ĠRo": 1730,
  "ĠRoad": 10022,
  "ĠRoadster": 2178,
  "ĠRoadsters": 12655,
  "ĠRob": 7299,
  "ĠRobin": 12491,
  "ĠRobinhood": 16760,
  "ĠRoblox": 16208,
  "ĠRock": 5877,
  "ĠRocket": 5524,
  "ĠRockets": 8125,
  "ĠRocks": 12379,
  "ĠRogan": 11868,
  "ĠRogers": 15081,
  "ĠRoll": 11440,
  "ĠRom": 7132,
  "ĠRomance": 12480,
  "ĠRomania": 16174,
  "ĠRomans": 16173,
  "ĠRoof": 5525,
  "ĠRors": 14301,
  "ĠRorschach": 16986,
  "ĠRow": 7783,
  "ĠRoyal": 15082,
  "ĠRunner": 14309,
  "ĠRus": 14299,
  "ĠRush": 14304,
  "ĠRushmore": 16987,
  "ĠRuss": 3164,
  "ĠRussell": 16985,
  "ĠRussia": 6020,
  "ĠRussian": 5091,
  "ĠRust": 14295,
  "ĠS": 324,
  "ĠSA": 9510,
  "ĠSAE": 16487,
  "ĠSCU": 13788,
  "ĠSCUBA": 16921,
  "ĠSEO": 13781,
  "ĠSF": 5808,
  "ĠSK": 11148,
  "ĠSL": 9511,
  "ĠSN": 1386,
  "ĠSNL": 8754,
  "ĠSPAC": 9520,
  "ĠSPACs": 16489,
  "ĠSQL": 13790,
  "ĠSS": 8436,
  "ĠSSTO": 10516,
  "ĠSUV": 4432,
  "ĠSX": 6595,
  "ĠSXSW": 16082,
  "ĠSad": 11151,
  "ĠSafety": 8443,
  "ĠSaid": 11155,
  "ĠSaints": 13786,
  "ĠSam": 9514,
  "ĠSame": 4919,
  "ĠSan": 6597,
  "ĠSandy": 13782,
  "ĠSant": 8438,
  "ĠSanta": 9131,
  "ĠSaskatch": 9521,
  "ĠSaskatchewan": 10554,
  "ĠSat": 3784,
  "ĠSaturday": 15620,
  "ĠSaturn": 6418,
  "ĠSay": 9513,
  "ĠSc": 5451,
  "ĠSch": 5452,
  "ĠSchrdinger": 6447,
  "ĠScience": 8440,
  "ĠScient": 11156,
  "ĠScientist": 16656,
  "ĠScorp": 15906,
  "ĠScorpio": 17087,
  "ĠScott": 15907,
  "ĠSe": 1915,
  "ĠSea": 13769,
  "ĠSeason": 11905,
  "ĠSeat": 15145,
  "ĠSeattle": 15148,
  "ĠSec": 6174,
  "ĠSeca": 16007,
  "ĠSecond": 7961,
  "ĠSecret": 9059,
  "ĠSeeing": 15147,
  "ĠSeemed": 11906,
  "ĠSeems": 5629,
  "ĠSeg": 13777,
  "ĠSelf": 3785,
  "ĠSem": 13772,
  "ĠSemester": 16918,
  "ĠSemi": 3786,
  "ĠSen": 6596,
  "ĠSenate": 9073,
  "ĠSend": 13773,
  "ĠSending": 13778,
  "ĠSens": 13774,
  "ĠSentry": 8441,
  "ĠSep": 11153,
  "ĠSept": 3857,
  "ĠSeptember": 6419,
  "ĠSepulved": 16654,
  "ĠSepulveda": 17107,
  "ĠSer": 3492,
  "ĠSerb": 10220,
  "ĠSerbia": 12662,
  "ĠSeries": 8042,
  "ĠSeriously": 12147,
  "ĠService": 7386,
  "ĠSet": 11150,
  "ĠSettings": 16653,
  "ĠSeveral": 15146,
  "ĠSh": 1160,
  "ĠShanghai": 3617,
  "ĠSharehold": 14847,
  "ĠShareholder": 17054,
  "ĠShark": 9929,
  "ĠShe": 11737,
  "ĠShell": 11738,
  "ĠSher": 14845,
  "ĠShiba": 11739,
  "ĠShinse": 11740,
  "ĠShinseki": 12755,
  "ĠShip": 5186,
  "ĠShoem": 14848,
  "ĠShoemaker": 17055,
  "ĠShopify": 14846,
  "ĠShort": 3718,
  "ĠShortfall": 8948,
  "ĠShortseller": 15595,
  "ĠShortville": 15594,
  "ĠShould": 2574,
  "ĠShow": 7906,
  "ĠShuttle": 11741,
  "ĠSide": 13771,
  "ĠSign": 5454,
  "ĠSignal": 8119,
  "ĠSignificant": 12346,
  "ĠSil": 5185,
  "ĠSilicon": 6882,
  "ĠSilver": 15861,
  "ĠSim": 7674,
  "ĠSimilar": 12520,
  "ĠSimp": 9516,
  "ĠSimpler": 12621,
  "ĠSinc": 11157,
  "ĠSince": 6175,
  "ĠSinclair": 12711,
  "ĠSing": 13767,
  "ĠSingapore": 13789,
  "ĠSingle": 9518,
  "ĠSir": 13768,
  "ĠSkyn": 11158,
  "ĠSkynet": 12712,
  "ĠSl": 11149,
  "ĠSlacker": 16652,
  "ĠSledgehammer": 13787,
  "ĠSlo": 13770,
  "ĠSlovakia": 16917,
  "ĠSm": 2884,
  "ĠSmall": 10162,
  "ĠSmart": 3744,
  "ĠSmartwatch": 15602,
  "ĠSmith": 10163,
  "ĠSmo": 11152,
  "ĠSmoking": 12710,
  "ĠSmurf": 15415,
  "ĠSn": 8437,
  "ĠSnake": 16344,
  "ĠSo": 1800,
  "ĠSoC": 6771,
  "ĠSoCs": 16119,
  "ĠSoci": 11876,
  "ĠSociety": 16739,
  "ĠSoftware": 5977,
  "ĠSol": 4431,
  "ĠSolar": 2029,
  "ĠSolarCity": 6347,
  "ĠSolarGlass": 8828,
  "ĠSolarglass": 6047,
  "ĠSolaris": 15177,
  "ĠSolvable": 15743,
  "ĠSome": 2633,
  "ĠSomething": 4580,
  "ĠSometimes": 13780,
  "ĠSon": 9512,
  "ĠSonata": 12620,
  "ĠSoon": 11875,
  "ĠSorry": 3237,
  "ĠSoul": 13785,
  "ĠSound": 7675,
  "ĠSoundcloud": 12521,
  "ĠSounds": 8439,
  "ĠSouth": 3493,
  "ĠSoviet": 11877,
  "ĠSp": 2943,
  "ĠSpa": 15429,
  "ĠSpace": 1713,
  "ĠSpaceX": 767,
  "ĠSpaceXs": 8665,
  "ĠSpaceballs": 7949,
  "ĠSpacecraft": 15074,
  "ĠSpaceship": 10168,
  "ĠSpain": 15431,
  "ĠSpect": 13775,
  "ĠSpeed": 7056,
  "ĠSpeedrapt": 10454,
  "ĠSpeedraptor": 10590,
  "ĠSpent": 15430,
  "ĠSpice": 15432,
  "ĠSpiderwee": 15433,
  "ĠSpirit": 10167,
  "ĠSpl": 13779,
  "ĠSplitting": 16920,
  "ĠSpr": 9517,
  "ĠSpring": 16488,
  "ĠSpy": 12076,
  "ĠSt": 497,
  "ĠStainless": 9721,
  "ĠStalin": 14344,
  "ĠStan": 5879,
  "ĠStandard": 11464,
  "ĠStanford": 6454,
  "ĠStanton": 14345,
  "ĠStar": 2407,
  "ĠStarbase": 4158,
  "ĠStardew": 14346,
  "ĠStarfleet": 11992,
  "ĠStarhopper": 6367,
  "ĠStarlink": 1530,
  "ĠStarlinks": 9722,
  "ĠStarman": 9723,
  "ĠStars": 9717,
  "ĠStarship": 756,
  "ĠStarships": 3939,
  "ĠStarted": 8569,
  "ĠStarting": 11462,
  "ĠStarts": 15298,
  "ĠState": 11458,
  "ĠStates": 9720,
  "ĠStation": 2329,
  "ĠStay": 11457,
  "ĠSte": 4962,
  "ĠSteam": 11460,
  "ĠSteel": 11459,
  "ĠSteph": 11463,
  "ĠStephen": 16697,
  "ĠSteve": 9003,
  "ĠSteven": 8103,
  "ĠStill": 2897,
  "ĠStock": 14339,
  "ĠStone": 9718,
  "ĠStonecut": 12634,
  "ĠStonecutters": 12773,
  "ĠStops": 14340,
  "ĠStore": 14337,
  "ĠStorm": 9719,
  "ĠStory": 14338,
  "ĠStr": 7797,
  "ĠStrange": 11461,
  "ĠStraw": 14341,
  "ĠStrawberry": 16991,
  "ĠStreet": 14343,
  "ĠStrip": 16270,
  "ĠStrong": 14342,
  "ĠStu": 11456,
  "ĠStuart": 16696,
  "ĠStud": 8568,
  "ĠStudies": 16372,
  "ĠStudio": 16373,
  "ĠSub": 7055,
  "ĠSuborbital": 16159,
  "ĠSubway": 16158,
  "ĠSuch": 7676,
  "ĠSummon": 2634,
  "ĠSun": 3089,
  "ĠSunday": 3747,
  "ĠSuper": 1031,
  "ĠSuperDraco": 11704,
  "ĠSupercharg": 1383,
  "ĠSupercharger": 1961,
  "ĠSuperchargers": 3183,
  "ĠSupercharging": 5279,
  "ĠSuperdr": 8705,
  "ĠSuperdraco": 9139,
  "ĠSuperintelligence": 14790,
  "ĠSupport": 7677,
  "ĠSur": 5453,
  "ĠSure": 9515,
  "ĠSurface": 9023,
  "ĠSurfaces": 15908,
  "ĠSurre": 13776,
  "ĠSurrealism": 16919,
  "ĠSurvival": 15909,
  "ĠSustainable": 9519,
  "ĠSw": 6173,
  "ĠSwan": 16004,
  "ĠSwear": 13784,
  "ĠSweden": 12403,
  "ĠSwift": 16006,
  "ĠSwiss": 16005,
  "ĠSwit": 11154,
  "ĠSwitzerland": 16655,
  "ĠSyd": 13783,
  "ĠSystem": 8442,
  "ĠSystems": 16345,
  "ĠT": 319,
  "ĠTBC": 6590,
  "ĠTED": 9502,
  "ĠTI": 13742,
  "ĠTO": 7052,
  "ĠTOPS": 8157,
  "ĠTSLA": 13755,
  "ĠTV": 6170,
  "ĠTVC": 8133,
  "ĠTWh": 11134,
  "ĠTX": 6171,
  "ĠTach": 11133,
  "ĠTacheles": 12709,
  "ĠTakes": 7053,
  "ĠTaking": 13752,
  "ĠTal": 7668,
  "ĠTalulah": 10480,
  "ĠTank": 13748,
  "ĠTarget": 8433,
  "ĠTatoo": 13756,
  "ĠTatooine": 16914,
  "ĠTax": 11137,
  "ĠTaxes": 16650,
  "ĠTay": 6587,
  "ĠTaycan": 8146,
  "ĠTe": 9496,
  "ĠTeam": 3392,
  "ĠTech": 4024,
  "ĠTechn": 8965,
  "ĠTechnica": 16418,
  "ĠTechnically": 8966,
  "ĠTechnocracy": 12593,
  "ĠTechnology": 10265,
  "ĠTef": 13747,
  "ĠTeflon": 16911,
  "ĠTequila": 16486,
  "ĠTerm": 11136,
  "ĠTerminal": 16649,
  "ĠTesla": 396,
  "ĠTeslaquila": 13991,
  "ĠTeslas": 3236,
  "ĠTest": 8432,
  "ĠTesting": 13749,
  "ĠTexas": 1554,
  "ĠTh": 418,
  "ĠThai": 14062,
  "ĠThaic": 14065,
  "ĠThaicom": 16951,
  "ĠThail": 6634,
  "ĠThailand": 6905,
  "ĠThames": 14063,
  "ĠThank": 7104,
  "ĠThanks": 2288,
  "ĠThanksgiving": 8850,
  "ĠThanos": 11325,
  "ĠThat": 1321,
  "ĠThats": 2287,
  "ĠThe": 673,
  "ĠTheir": 7162,
  "ĠThen": 4252,
  "ĠThere": 1604,
  "ĠTherefore": 15037,
  "ĠTheres": 7743,
  "ĠThermal": 11324,
  "ĠThese": 4938,
  "ĠThey": 1472,
  "ĠTheyre": 5284,
  "ĠThinking": 14064,
  "ĠThird": 9619,
  "ĠThis": 834,
  "ĠThose": 3248,
  "ĠThought": 11322,
  "ĠThous": 14061,
  "ĠThree": 7742,
  "ĠThrust": 11323,
  "ĠThurs": 4253,
  "ĠThursday": 5691,
  "ĠTight": 9497,
  "ĠTil": 11131,
  "ĠTilburg": 12708,
  "ĠTile": 7670,
  "ĠTillerson": 13753,
  "ĠTim": 11130,
  "ĠTime": 9498,
  "ĠTimes": 5804,
  "ĠTintin": 9503,
  "ĠTit": 11129,
  "ĠTitan": 16647,
  "ĠTo": 2780,
  "ĠTom": 13745,
  "ĠTong": 7669,
  "ĠTonga": 8172,
  "ĠToo": 4229,
  "ĠToof": 15714,
  "ĠTook": 9501,
  "ĠTop": 4230,
  "ĠTot": 6586,
  "ĠTotal": 8145,
  "ĠTotally": 16077,
  "ĠTough": 11132,
  "ĠToy": 9500,
  "ĠToyota": 10553,
  "ĠTr": 3007,
  "ĠTra": 6588,
  "ĠTrack": 8904,
  "ĠTract": 13751,
  "ĠTraction": 16913,
  "ĠTraining": 16078,
  "ĠTrans": 8023,
  "ĠTransfer": 16292,
  "ĠTravel": 10418,
  "ĠTravels": 16580,
  "ĠTree": 5450,
  "ĠTreebeard": 15905,
  "ĠTrend": 4916,
  "ĠTrendline": 15802,
  "ĠTri": 11135,
  "ĠTrip": 15462,
  "ĠTripp": 16648,
  "ĠTruck": 9499,
  "ĠTrue": 6825,
  "ĠTrump": 11139,
  "ĠTruth": 15463,
  "ĠTry": 5449,
  "ĠTrying": 9022,
  "ĠTues": 4578,
  "ĠTuesday": 8991,
  "ĠTur": 13746,
  "ĠTurb": 13750,
  "ĠTurbine": 16912,
  "ĠTurbo": 8434,
  "ĠTurkey": 16910,
  "ĠTurn": 6589,
  "ĠTurning": 16079,
  "ĠTurns": 9072,
  "ĠTw": 13743,
  "ĠTweet": 11138,
  "ĠTweets": 13754,
  "ĠTwitter": 2160,
  "ĠTwo": 5805,
  "ĠTy": 13744,
  "ĠU": 615,
  "ĠUAW": 2800,
  "ĠUFO": 7824,
  "ĠUFOs": 16277,
  "ĠUI": 6260,
  "ĠUK": 7157,
  "ĠULA": 6261,
  "ĠUN": 7158,
  "ĠUNICEF": 16182,
  "ĠUPenn": 14501,
  "ĠURO": 14500,
  "ĠUS": 993,
  "ĠUSA": 4130,
  "ĠUSB": 8696,
  "ĠUkraine": 5534,
  "ĠUlt": 6681,
  "ĠUltima": 16105,
  "ĠUltimate": 12442,
  "ĠUltra": 12441,
  "ĠUm": 14498,
  "ĠUn": 1861,
  "ĠUnbound": 15120,
  "ĠUnclear": 15118,
  "ĠUnder": 7823,
  "ĠUndergoing": 16276,
  "ĠUnfortunately": 8815,
  "ĠUnited": 10040,
  "ĠUnity": 15117,
  "ĠUniv": 10038,
  "ĠUnivers": 10041,
  "ĠUniverse": 4358,
  "ĠUniversitt": 16561,
  "ĠUniversity": 16560,
  "ĠUnless": 10039,
  "ĠUnlike": 7958,
  "ĠUnlikely": 10496,
  "ĠUnreal": 11893,
  "ĠUnscheduled": 15121,
  "ĠUnsw": 15119,
  "ĠUnsworth": 17063,
  "ĠUntil": 11533,
  "ĠUp": 8616,
  "ĠUpd": 10524,
  "ĠUpdate": 16589,
  "ĠUpper": 9784,
  "ĠUr": 8617,
  "ĠUranus": 16384,
  "ĠUs": 9783,
  "ĠUsable": 16524,
  "ĠUsed": 14499,
  "ĠUsing": 8618,
  "ĠUta": 9785,
  "ĠUtah": 10577,
  "ĠUtility": 11534,
  "ĠV": 648,
  "ĠVAT": 11556,
  "ĠVF": 9798,
  "ĠVFX": 16530,
  "ĠVP": 14535,
  "ĠVR": 8637,
  "ĠVRML": 16390,
  "ĠVTO": 8639,
  "ĠVTOL": 9137,
  "ĠVW": 14536,
  "ĠVac": 5244,
  "ĠVacuum": 9019,
  "ĠVader": 14543,
  "ĠVal": 7161,
  "ĠValhall": 16183,
  "ĠValhalla": 17098,
  "ĠValley": 4747,
  "ĠValue": 10464,
  "ĠVan": 5893,
  "ĠVance": 9800,
  "ĠVancou": 12381,
  "ĠVancouver": 12771,
  "ĠVandenberg": 6266,
  "ĠVang": 11555,
  "ĠVangelis": 12744,
  "ĠVanity": 10371,
  "ĠVast": 8638,
  "ĠVastly": 16391,
  "ĠVegas": 3340,
  "ĠVeloc": 8640,
  "ĠVelociraptor": 12581,
  "ĠVelocity": 16392,
  "ĠVengeance": 14544,
  "ĠVentil": 14545,
  "ĠVentilators": 17018,
  "ĠVersion": 5245,
  "ĠVery": 2842,
  "ĠVi": 9799,
  "ĠVias": 14541,
  "ĠViasat": 17017,
  "ĠVibe": 16531,
  "ĠVirgin": 9801,
  "ĠVirginia": 12640,
  "ĠVision": 14539,
  "ĠVoice": 14540,
  "ĠVol": 11554,
  "ĠVoltaire": 16711,
  "ĠVolume": 14542,
  "ĠVon": 14537,
  "ĠVos": 14538,
  "ĠVosges": 17016,
  "ĠW": 410,
  "ĠWARR": 14055,
  "ĠWSJ": 5857,
  "ĠWW": 5511,
  "ĠWait": 14052,
  "ĠWaiting": 8515,
  "ĠWall": 14045,
  "ĠWang": 14047,
  "ĠWant": 7737,
  "ĠWar": 6211,
  "ĠWarning": 14050,
  "ĠWarnings": 14054,
  "ĠWarren": 12405,
  "ĠWars": 8512,
  "ĠWarth": 14046,
  "ĠWarthog": 16950,
  "ĠWas": 3162,
  "ĠWash": 11318,
  "ĠWashington": 16674,
  "ĠWatch": 6213,
  "ĠWater": 5855,
  "ĠWay": 14044,
  "ĠWe": 797,
  "ĠWed": 4251,
  "ĠWednes": 6866,
  "ĠWednesday": 6908,
  "ĠWell": 3830,
  "ĠWent": 11316,
  "ĠWere": 2220,
  "ĠWest": 7099,
  "ĠWestworld": 12478,
  "ĠWeve": 7854,
  "ĠWh": 1094,
  "ĠWhat": 2230,
  "ĠWhatevers": 14824,
  "ĠWhats": 6304,
  "ĠWhen": 4340,
  "ĠWhere": 5944,
  "ĠWheres": 11723,
  "ĠWhich": 9915,
  "ĠWhite": 8713,
  "ĠWho": 5271,
  "ĠWhoop": 14823,
  "ĠWhy": 3838,
  "ĠWiFi": 7739,
  "ĠWider": 14048,
  "ĠWik": 7738,
  "ĠWikipedia": 8177,
  "ĠWild": 8514,
  "ĠWildlife": 16358,
  "ĠWill": 758,
  "ĠWind": 9614,
  "ĠWing": 14043,
  "ĠWings": 11317,
  "ĠWired": 14049,
  "ĠWish": 6212,
  "ĠWitch": 9615,
  "ĠWitcher": 10565,
  "ĠWith": 3408,
  "ĠWithout": 8930,
  "ĠWo": 11315,
  "ĠWoW": 16673,
  "ĠWon": 7098,
  "ĠWonder": 12477,
  "ĠWont": 8513,
  "ĠWoody": 14053,
  "ĠWor": 2952,
  "ĠWords": 14051,
  "ĠWork": 8898,
  "ĠWorked": 15440,
  "ĠWorking": 5660,
  "ĠWorks": 15439,
  "ĠWorld": 7364,
  "ĠWorst": 15438,
  "ĠWorth": 5856,
  "ĠWould": 2256,
  "ĠWouldn": 11958,
  "ĠWouldnt": 8843,
  "ĠWouldve": 15237,
  "ĠWow": 9613,
  "ĠWuh": 11319,
  "ĠWuhan": 12728,
  "ĠX": 925,
  "ĠXBox": 14716,
  "ĠXav": 8687,
  "ĠXavier": 9138,
  "ĠXmas": 14715,
  "ĠY": 1440,
  "ĠYang": 14993,
  "ĠYay": 14992,
  "ĠYeah": 6121,
  "ĠYear": 7931,
  "ĠYelp": 11819,
  "ĠYes": 5415,
  "ĠYet": 14991,
  "ĠYoda": 14994,
  "ĠYork": 5039,
  "ĠYou": 1339,
  "ĠYouTube": 7262,
  "ĠYour": 5959,
  "ĠYoure": 5956,
  "ĠZ": 1910,
  "ĠZeal": 8821,
  "ĠZealand": 9140,
  "ĠZee": 8820,
  "ĠZeebrugge": 16409,
  "ĠZeev": 12588,
  "ĠZen": 11901,
  "ĠZenit": 16741,
  "ĠZero": 5980,
  "ĠZeroth": 15141,
  "ĠZillow": 10047,
  "ĠZip": 5626,
  "ĠZone": 15140,
  "ĠZuk": 15142,
  "ĠZukunft": 17064,
  "Ġ[": 6120,
  "Ġa": 264,
  "Ġaaargh": 13391,
  "Ġab": 442,
  "Ġabandon": 11366,
  "Ġabandoned": 16683,
  "Ġabdom": 14156,
  "Ġabdomen": 16967,
  "Ġabide": 14154,
  "Ġability": 3928,
  "Ġablate": 14157,
  "Ġablative": 11365,
  "Ġable": 1685,
  "Ġabomination": 14158,
  "Ġabort": 3411,
  "Ġaborted": 8931,
  "Ġaborts": 14155,
  "Ġabout": 508,
  "Ġabove": 1870,
  "Ġabs": 2110,
  "Ġabsolut": 7315,
  "Ġabsolute": 9098,
  "Ġabsolutely": 5988,
  "Ġabsolutist": 16211,
  "Ġabsor": 4802,
  "Ġabsorb": 10314,
  "Ġabsorbed": 12275,
  "Ġabsorption": 10315,
  "Ġabsurd": 4156,
  "Ġabsurdly": 6425,
  "Ġabt": 9662,
  "Ġac": 1676,
  "Ġacadem": 11857,
  "Ġacademia": 12761,
  "Ġacc": 742,
  "Ġaccel": 11595,
  "Ġacceler": 1886,
  "Ġaccelerate": 4148,
  "Ġaccelerates": 10043,
  "Ġaccelerating": 4149,
  "Ġacceleration": 3966,
  "Ġaccelerator": 15128,
  "Ġaccelerators": 15129,
  "Ġaccent": 14607,
  "Ġaccept": 4146,
  "Ġacceptable": 8074,
  "Ġaccepted": 12227,
  "Ġaccepts": 15061,
  "Ġaccess": 2065,
  "Ġaccessible": 11927,
  "Ġaccident": 3259,
  "Ġaccidental": 12114,
  "Ġaccidentally": 12115,
  "Ġaccidents": 10204,
  "Ġaccommod": 11596,
  "Ġaccommodate": 16714,
  "Ġaccomp": 9834,
  "Ġaccomplished": 16533,
  "Ġaccording": 4997,
  "Ġaccount": 2650,
  "Ġaccounting": 8003,
  "Ġaccounts": 5650,
  "Ġaccumul": 6277,
  "Ġaccumulate": 16018,
  "Ġaccumulating": 12412,
  "Ġaccumulator": 12413,
  "Ġaccur": 5899,
  "Ġaccuracy": 7448,
  "Ġaccurate": 2479,
  "Ġaccurately": 12382,
  "Ġaccus": 14608,
  "Ġace": 13386,
  "Ġach": 1598,
  "Ġachie": 2448,
  "Ġachievable": 7992,
  "Ġachieve": 2579,
  "Ġachieved": 5320,
  "Ġachievement": 12023,
  "Ġachieves": 7338,
  "Ġachieving": 4512,
  "Ġacid": 7946,
  "Ġacou": 10018,
  "Ġacoustic": 16558,
  "Ġacoustics": 16559,
  "Ġacqu": 7947,
  "Ġacquired": 12538,
  "Ġacross": 2858,
  "Ġact": 629,
  "Ġacting": 8626,
  "Ġaction": 2672,
  "Ġactions": 3896,
  "Ġactiv": 6684,
  "Ġactivate": 4746,
  "Ġactivated": 12443,
  "Ġactivation": 10428,
  "Ġactive": 2746,
  "Ġactivity": 7831,
  "Ġacts": 8625,
  "Ġactu": 5242,
  "Ġactual": 2148,
  "Ġactually": 829,
  "Ġactuated": 15881,
  "Ġactuation": 14514,
  "Ġactuator": 9018,
  "Ġactuators": 15882,
  "Ġad": 585,
  "Ġadap": 14471,
  "Ġadapt": 9775,
  "Ġadaptive": 16522,
  "Ġadd": 981,
  "Ġadded": 4129,
  "Ġadding": 3038,
  "Ġaddition": 9898,
  "Ġadditional": 6721,
  "Ġaddress": 2445,
  "Ġaddressed": 5072,
  "Ġaddresses": 11998,
  "Ġadds": 8694,
  "Ġadhes": 14473,
  "Ġadhesive": 17007,
  "Ġadjust": 3421,
  "Ġadjusted": 8933,
  "Ġadjusting": 8932,
  "Ġadjustment": 15535,
  "Ġadjusts": 12140,
  "Ġadm": 7151,
  "Ġadmin": 14472,
  "Ġadmiration": 12484,
  "Ġadmired": 12483,
  "Ġadmit": 8608,
  "Ġadmitted": 12575,
  "Ġads": 11522,
  "Ġadult": 8607,
  "Ġadults": 7819,
  "Ġadv": 1225,
  "Ġadvance": 4484,
  "Ġadvanced": 1992,
  "Ġadvancements": 12257,
  "Ġadvances": 14890,
  "Ġadvancing": 14891,
  "Ġadvantage": 3844,
  "Ġadvent": 4972,
  "Ġadventure": 10324,
  "Ġadvert": 3170,
  "Ġadvertise": 8914,
  "Ġadvertised": 12100,
  "Ġadvertisers": 12101,
  "Ġadvertising": 4527,
  "Ġadvice": 5887,
  "Ġadvis": 7250,
  "Ġadvise": 9956,
  "Ġadvisor": 12489,
  "Ġadvisors": 16201,
  "Ġadvisory": 16200,
  "Ġadvoc": 7251,
  "Ġadvocate": 16202,
  "Ġadvocates": 10466,
  "Ġaer": 13385,
  "Ġaerial": 16848,
  "Ġaero": 3217,
  "Ġaeros": 8312,
  "Ġaerospace": 9126,
  "Ġaf": 10914,
  "Ġaff": 13388,
  "Ġaffect": 2139,
  "Ġaffected": 5304,
  "Ġaffecting": 8834,
  "Ġaffects": 4506,
  "Ġafford": 2994,
  "Ġaffordability": 8902,
  "Ġaffordable": 4524,
  "Ġaficion": 16625,
  "Ġaficionados": 17105,
  "Ġaft": 10916,
  "Ġafter": 1002,
  "Ġafterno": 7209,
  "Ġafternoon": 8163,
  "Ġafterwards": 11693,
  "Ġag": 706,
  "Ġagain": 1226,
  "Ġagainst": 1763,
  "Ġage": 3308,
  "Ġagencies": 11574,
  "Ġagenda": 11575,
  "Ġages": 11572,
  "Ġaging": 11573,
  "Ġago": 1409,
  "Ġagree": 2088,
  "Ġagreed": 7168,
  "Ġagreement": 15194,
  "Ġahaha": 13390,
  "Ġahead": 3480,
  "Ġaim": 4564,
  "Ġaimed": 15760,
  "Ġaiming": 3895,
  "Ġair": 951,
  "Ġaircraft": 2961,
  "Ġairflow": 14739,
  "Ġairframe": 3945,
  "Ġairlin": 9887,
  "Ġairline": 14736,
  "Ġairliners": 12647,
  "Ġairlines": 14738,
  "Ġairplan": 7884,
  "Ġairplane": 9888,
  "Ġairplanes": 8180,
  "Ġairport": 7202,
  "Ġairtime": 14737,
  "Ġaka": 7590,
  "Ġal": 444,
  "Ġalarm": 14159,
  "Ġalarming": 11368,
  "Ġalbedo": 14162,
  "Ġalbeit": 14161,
  "Ġalbum": 9663,
  "Ġalco": 11367,
  "Ġalcohol": 12729,
  "Ġalert": 5517,
  "Ġalgo": 14160,
  "Ġalgor": 6221,
  "Ġalgorithm": 8135,
  "Ġalgorithms": 12406,
  "Ġalien": 5218,
  "Ġaliens": 3590,
  "Ġalign": 5866,
  "Ġaligned": 15960,
  "Ġalive": 5516,
  "Ġalkal": 14163,
  "Ġalkaline": 16968,
  "Ġall": 456,
  "Ġalleg": 14177,
  "Ġallev": 9670,
  "Ġalleviate": 12629,
  "Ġalloc": 3929,
  "Ġallocating": 15652,
  "Ġallocation": 4538,
  "Ġallow": 1362,
  "Ġallowed": 3847,
  "Ġallowing": 4137,
  "Ġallows": 3846,
  "Ġalloy": 6224,
  "Ġalloying": 14178,
  "Ġalloys": 7761,
  "Ġalmost": 1028,
  "Ġalone": 3589,
  "Ġalong": 3508,
  "Ġalpha": 6220,
  "Ġalready": 1288,
  "Ġalso": 962,
  "Ġaltern": 7116,
  "Ġalternate": 16169,
  "Ġalternative": 10461,
  "Ġalthough": 1985,
  "Ġaltitude": 3249,
  "Ġaluminum": 4044,
  "Ġalways": 1262,
  "Ġam": 725,
  "Ġamaz": 11590,
  "Ġamaze": 16713,
  "Ġamazing": 1363,
  "Ġamazingly": 7271,
  "Ġamb": 4996,
  "Ġambient": 6879,
  "Ġambulance": 15821,
  "Ġamend": 11589,
  "Ġamendment": 16712,
  "Ġammo": 14603,
  "Ġamong": 6694,
  "Ġamount": 1990,
  "Ġamounts": 4798,
  "Ġamp": 5419,
  "Ġampl": 6446,
  "Ġamplification": 16035,
  "Ġamplified": 16034,
  "Ġan": 337,
  "Ġanach": 13816,
  "Ġanachronistic": 16923,
  "Ġanal": 2030,
  "Ġanalog": 11918,
  "Ġanaly": 5986,
  "Ġanalysis": 2451,
  "Ġanalysts": 8129,
  "Ġanalytical": 15970,
  "Ġanalyze": 15971,
  "Ġancient": 5457,
  "Ġand": 465,
  "Ġandroids": 14234,
  "Ġanec": 11174,
  "Ġanecd": 12713,
  "Ġanecdotes": 16768,
  "Ġang": 4582,
  "Ġangel": 12261,
  "Ġangels": 10311,
  "Ġanger": 13818,
  "Ġangle": 3394,
  "Ġangles": 12262,
  "Ġangry": 10310,
  "Ġanim": 11173,
  "Ġanimals": 16657,
  "Ġanimation": 13819,
  "Ġanime": 13817,
  "Ġankle": 13822,
  "Ġann": 2109,
  "Ġannivers": 15196,
  "Ġanniversary": 17070,
  "Ġannounce": 2861,
  "Ġannounced": 11931,
  "Ġannouncement": 3743,
  "Ġannouncements": 12064,
  "Ġannoying": 4921,
  "Ġannual": 5059,
  "Ġanode": 11175,
  "Ġanomal": 13820,
  "Ġanomalies": 16924,
  "Ġanon": 13814,
  "Ġanonymous": 11176,
  "Ġanother": 2082,
  "Ġanswer": 2635,
  "Ġanswered": 7349,
  "Ġanswers": 13821,
  "Ġant": 2944,
  "Ġanten": 4234,
  "Ġantenna": 5111,
  "Ġantennas": 12240,
  "Ġanti": 4376,
  "Ġantibody": 15436,
  "Ġanticip": 10169,
  "Ġanticipate": 16565,
  "Ġanticipated": 16566,
  "Ġantifree": 15437,
  "Ġantifreeze": 17078,
  "Ġantigen": 15434,
  "Ġantimatter": 15435,
  "Ġants": 13815,
  "Ġany": 582,
  "Ġanymore": 11521,
  "Ġanyone": 1955,
  "Ġanyplace": 14469,
  "Ġanything": 1515,
  "Ġanytime": 9774,
  "Ġanyway": 3169,
  "Ġanywhere": 3256,
  "Ġap": 3378,
  "Ġapart": 5338,
  "Ġapo": 5158,
  "Ġapocal": 6404,
  "Ġapocalypse": 7456,
  "Ġapogee": 8111,
  "Ġapolog": 10330,
  "Ġapologize": 16576,
  "Ġapp": 602,
  "Ġapparent": 14491,
  "Ġapparently": 14492,
  "Ġappeal": 9780,
  "Ġappealing": 10576,
  "Ġappear": 4116,
  "Ġappearance": 15685,
  "Ġappears": 4117,
  "Ġapples": 11530,
  "Ġapplications": 7156,
  "Ġapplied": 4667,
  "Ġapplies": 7822,
  "Ġapply": 3517,
  "Ġapplying": 6408,
  "Ġappoint": 7155,
  "Ġappointment": 16180,
  "Ġappointments": 16181,
  "Ġappreci": 1244,
  "Ġappreciate": 2966,
  "Ġappreciated": 1823,
  "Ġappreciating": 14900,
  "Ġappreciation": 4782,
  "Ġappreciative": 14901,
  "Ġappro": 1169,
  "Ġapproach": 3531,
  "Ġapproaches": 15555,
  "Ġapproaching": 8043,
  "Ġappropri": 9933,
  "Ġappropriate": 12649,
  "Ġapproval": 1887,
  "Ġapprovals": 4150,
  "Ġapproved": 5028,
  "Ġapproving": 11750,
  "Ġapprox": 3843,
  "Ġapproximate": 12193,
  "Ġapproximately": 10251,
  "Ġapproximation": 7394,
  "Ġapps": 14490,
  "Ġaqu": 13387,
  "Ġar": 567,
  "Ġarbit": 9767,
  "Ġarbiter": 12636,
  "Ġarc": 9766,
  "Ġarchite": 3516,
  "Ġarchitectural": 10222,
  "Ġarchitecture": 3979,
  "Ġare": 384,
  "Ġarea": 2084,
  "Ġareas": 3682,
  "Ġaren": 11267,
  "Ġarenas": 9587,
  "Ġarent": 2790,
  "Ġarg": 2958,
  "Ġargon": 15442,
  "Ġarguably": 5086,
  "Ġargue": 15443,
  "Ġarguing": 15444,
  "Ġargument": 6823,
  "Ġarguments": 15445,
  "Ġarm": 6255,
  "Ġarmor": 11514,
  "Ġarmored": 16014,
  "Ġarms": 4970,
  "Ġaround": 1156,
  "Ġarr": 2223,
  "Ġarrange": 15229,
  "Ġarray": 5066,
  "Ġarrays": 7977,
  "Ġarrest": 9768,
  "Ġarrested": 16520,
  "Ġarrival": 15230,
  "Ġarrive": 7976,
  "Ġarrived": 6786,
  "Ġarrives": 6785,
  "Ġarriving": 7817,
  "Ġarrow": 11513,
  "Ġart": 1038,
  "Ġartic": 1279,
  "Ġarticle": 1589,
  "Ġarticles": 3181,
  "Ġartific": 5268,
  "Ġartificial": 6059,
  "Ġartificially": 15885,
  "Ġartists": 9907,
  "Ġas": 406,
  "Ġascent": 6207,
  "Ġascribed": 14026,
  "Ġask": 2793,
  "Ġasked": 3161,
  "Ġasking": 5509,
  "Ġasks": 11311,
  "Ġasleep": 14028,
  "Ġasp": 4036,
  "Ġaspects": 14027,
  "Ġasph": 11312,
  "Ġasphalt": 16671,
  "Ġaspir": 15674,
  "Ġaspiration": 15675,
  "Ġaspirationally": 15676,
  "Ġaspire": 8969,
  "Ġaspires": 10267,
  "Ġass": 2600,
  "Ġassemb": 4037,
  "Ġassembled": 10268,
  "Ġassembly": 5110,
  "Ġassess": 7999,
  "Ġassessment": 16291,
  "Ġassets": 12028,
  "Ġassign": 15345,
  "Ġassistant": 15347,
  "Ġasso": 14025,
  "Ġassociates": 16948,
  "Ġassume": 15346,
  "Ġassuming": 6005,
  "Ġaster": 6124,
  "Ġasteroid": 10386,
  "Ġasteroids": 9053,
  "Ġastron": 3218,
  "Ġastronauts": 5093,
  "Ġastronom": 5669,
  "Ġastronomical": 15930,
  "Ġastronomy": 7442,
  "Ġasy": 7733,
  "Ġasymmetry": 10483,
  "Ġasymptote": 16260,
  "Ġat": 398,
  "Ġate": 11296,
  "Ġatmosph": 2598,
  "Ġatmosphere": 3287,
  "Ġatmospheres": 15344,
  "Ġatmospheric": 6379,
  "Ġatoms": 9599,
  "Ġatt": 1651,
  "Ġattach": 3962,
  "Ġattached": 6038,
  "Ġattachment": 10258,
  "Ġattachments": 12209,
  "Ġattack": 3186,
  "Ġattacked": 7373,
  "Ġattacking": 7294,
  "Ġattacks": 8788,
  "Ġatte": 2552,
  "Ġattempt": 2765,
  "Ġattempted": 15385,
  "Ġattempts": 12019,
  "Ġatten": 13994,
  "Ġattend": 11852,
  "Ġattention": 5971,
  "Ġattenuation": 16945,
  "Ġattitude": 11853,
  "Ġaud": 4205,
  "Ġaudience": 8973,
  "Ġaudiences": 15701,
  "Ġaudio": 8076,
  "Ġauf": 10918,
  "Ġaug": 13389,
  "Ġaut": 784,
  "Ġauth": 11609,
  "Ġauthent": 16717,
  "Ġauthor": 4122,
  "Ġauthorities": 5350,
  "Ġauthority": 10270,
  "Ġauto": 1862,
  "Ġautoc": 8667,
  "Ġautocorrect": 10525,
  "Ġautocorrected": 16590,
  "Ġautogen": 10042,
  "Ġautogenous": 12657,
  "Ġautom": 1435,
  "Ġautomak": 7279,
  "Ġautomaker": 16207,
  "Ġautomakers": 9097,
  "Ġautomated": 11817,
  "Ġautomatic": 7930,
  "Ġautomatically": 2297,
  "Ġautomation": 9994,
  "Ġautomob": 11818,
  "Ġautomobiles": 12759,
  "Ġautomotive": 3626,
  "Ġautonav": 7853,
  "Ġautonavigate": 16280,
  "Ġautonom": 2753,
  "Ġautonomous": 3865,
  "Ġautonomy": 4815,
  "Ġautopark": 14636,
  "Ġautopilot": 5918,
  "Ġautopods": 14637,
  "Ġautose": 14635,
  "Ġautosequence": 17027,
  "Ġautosteer": 11610,
  "Ġav": 1282,
  "Ġavail": 14914,
  "Ġavaila": 2484,
  "Ġavailability": 15314,
  "Ġavailable": 2583,
  "Ġaverage": 4888,
  "Ġavg": 4783,
  "Ġavionics": 6739,
  "Ġavoid": 2576,
  "Ġavoidance": 7996,
  "Ġavoided": 12022,
  "Ġavoiding": 15339,
  "Ġavoids": 14915,
  "Ġaw": 5418,
  "Ġawaiting": 15899,
  "Ġaward": 8311,
  "Ġawards": 10917,
  "Ġaware": 4204,
  "Ġawareness": 12238,
  "Ġaway": 1644,
  "Ġawe": 8310,
  "Ġawesome": 1427,
  "Ġawful": 9020,
  "Ġax": 10915,
  "Ġaxis": 16626,
  "Ġb": 273,
  "Ġbab": 6995,
  "Ġbabe": 10449,
  "Ġbabies": 16143,
  "Ġbaby": 3662,
  "Ġbac": 8328,
  "Ġback": 840,
  "Ġbackdro": 14663,
  "Ġbackdrops": 17032,
  "Ġbacked": 11623,
  "Ġbackfl": 14662,
  "Ġbackflips": 17031,
  "Ġbackground": 5256,
  "Ġbacking": 13460,
  "Ġbackpack": 7860,
  "Ġbackup": 5255,
  "Ġbackwards": 9850,
  "Ġbacteria": 10507,
  "Ġbad": 1541,
  "Ġbadass": 15026,
  "Ġbadly": 11835,
  "Ġbaff": 10968,
  "Ġbaffles": 12695,
  "Ġbag": 10959,
  "Ġbake": 10964,
  "Ġbal": 5769,
  "Ġbalance": 6452,
  "Ġball": 3482,
  "Ġballistic": 15544,
  "Ġballoon": 12146,
  "Ġballs": 10218,
  "Ġban": 5424,
  "Ġbanana": 15902,
  "Ġband": 3380,
  "Ġbandwagon": 15526,
  "Ġbandwidth": 4531,
  "Ġbang": 10958,
  "Ġbank": 2934,
  "Ġbankrupt": 3291,
  "Ġbankruptcy": 6400,
  "Ġbanks": 10956,
  "Ġbanner": 15901,
  "Ġbar": 1828,
  "Ġbare": 7607,
  "Ġbarely": 12515,
  "Ġbarg": 8330,
  "Ġbargaining": 10508,
  "Ġbark": 13458,
  "Ġbarn": 10963,
  "Ġbarrel": 7302,
  "Ġbarrier": 11884,
  "Ġbars": 10950,
  "Ġbas": 1350,
  "Ġbase": 2459,
  "Ġbaseball": 12000,
  "Ġbased": 2529,
  "Ġbases": 11788,
  "Ġbasic": 5036,
  "Ġbasically": 2654,
  "Ġbasilisk": 14945,
  "Ġbasis": 7266,
  "Ġbast": 13454,
  "Ġbastards": 16858,
  "Ġbatch": 9394,
  "Ġbatt": 10966,
  "Ġbatter": 1107,
  "Ġbatteries": 2370,
  "Ġbattery": 1402,
  "Ġbattle": 5426,
  "Ġbattling": 16632,
  "Ġbay": 3143,
  "Ġbays": 10954,
  "Ġbday": 7608,
  "Ġbe": 308,
  "Ġbeach": 11099,
  "Ġbeam": 8418,
  "Ġbear": 6162,
  "Ġbearings": 10389,
  "Ġbeast": 6163,
  "Ġbeat": 4425,
  "Ġbeaten": 15742,
  "Ġbeating": 9473,
  "Ġbeats": 6164,
  "Ġbeaut": 2632,
  "Ġbeautiful": 3055,
  "Ġbeauty": 8000,
  "Ġbec": 1069,
  "Ġbecame": 6729,
  "Ġbecause": 1588,
  "Ġbecome": 2652,
  "Ġbecomes": 6301,
  "Ġbecoming": 4481,
  "Ġbed": 9390,
  "Ġbedanken": 16460,
  "Ġbee": 11098,
  "Ġbeen": 934,
  "Ġbeeping": 13702,
  "Ġbeeps": 13703,
  "Ġbeer": 7044,
  "Ġbees": 13699,
  "Ġbefore": 1099,
  "Ġbeforehand": 14825,
  "Ġbeg": 2353,
  "Ġbegg": 13701,
  "Ġbeggin": 16901,
  "Ġbegging": 7661,
  "Ġbegin": 3637,
  "Ġbeginning": 5679,
  "Ġbegins": 6364,
  "Ġbegun": 8861,
  "Ġbeh": 2506,
  "Ġbeha": 3906,
  "Ġbehalf": 4369,
  "Ġbehave": 12201,
  "Ġbehaving": 12202,
  "Ġbehavior": 6036,
  "Ġbehind": 3639,
  "Ġbeing": 987,
  "Ġbeings": 11100,
  "Ġbejewel": 13704,
  "Ġbejeweled": 16902,
  "Ġbel": 1616,
  "Ġbelie": 5615,
  "Ġbelieve": 1965,
  "Ġbelieved": 12356,
  "Ġbelieves": 15926,
  "Ġbelieving": 9031,
  "Ġbell": 6161,
  "Ġbellows": 15998,
  "Ġbelly": 15997,
  "Ġbelong": 10013,
  "Ġbelongs": 16557,
  "Ġbelow": 2546,
  "Ġbelt": 13700,
  "Ġbelts": 10012,
  "Ġben": 4011,
  "Ġbench": 10263,
  "Ġbenchmark": 16571,
  "Ġbend": 13456,
  "Ġbending": 10965,
  "Ġbenef": 5349,
  "Ġbenefit": 6445,
  "Ġbenefits": 15891,
  "Ġber": 10949,
  "Ġbeside": 13466,
  "Ġbesides": 6998,
  "Ġbest": 963,
  "Ġbet": 578,
  "Ġbeta": 1720,
  "Ġbetrayed": 14462,
  "Ġbets": 9472,
  "Ġbetter": 759,
  "Ġbetting": 9772,
  "Ġbetween": 1778,
  "Ġbeyond": 2463,
  "Ġbi": 3899,
  "Ġbias": 8958,
  "Ġbiased": 15643,
  "Ġbiases": 15642,
  "Ġbic": 13452,
  "Ġbicyc": 16857,
  "Ġbig": 832,
  "Ġbigger": 2409,
  "Ġbiggest": 2847,
  "Ġbike": 13461,
  "Ġbikes": 7396,
  "Ġbill": 3077,
  "Ġbillboard": 15479,
  "Ġbillion": 2999,
  "Ġbillionaire": 15457,
  "Ġbillionaires": 15458,
  "Ġbillions": 6829,
  "Ġbills": 12093,
  "Ġbinary": 10967,
  "Ġbind": 10955,
  "Ġbio": 4404,
  "Ġbiography": 7411,
  "Ġbiological": 8981,
  "Ġbios": 13462,
  "Ġbiosphere": 16860,
  "Ġbirds": 10969,
  "Ġbirth": 2936,
  "Ġbirthday": 4375,
  "Ġbirths": 10165,
  "Ġbit": 1937,
  "Ġbite": 10953,
  "Ġbits": 6996,
  "Ġbitstream": 15161,
  "Ġbitte": 15160,
  "Ġbiz": 5771,
  "Ġbizarre": 7444,
  "Ġbl": 1646,
  "Ġbla": 4891,
  "Ġblack": 2487,
  "Ġblackout": 10130,
  "Ġblackouts": 4367,
  "Ġblad": 9396,
  "Ġblade": 8098,
  "Ġblades": 10548,
  "Ġblame": 15799,
  "Ġblanket": 15054,
  "Ġblast": 12284,
  "Ġble": 7606,
  "Ġbleak": 16240,
  "Ġbleed": 10476,
  "Ġblend": 15052,
  "Ġbless": 13459,
  "Ġblo": 10951,
  "Ġbloatware": 16631,
  "Ġblock": 2935,
  "Ġblocked": 8896,
  "Ġblocks": 8895,
  "Ġblog": 5773,
  "Ġblood": 7944,
  "Ġblow": 2998,
  "Ġblower": 11851,
  "Ġblowing": 8903,
  "Ġblown": 8787,
  "Ġblows": 6390,
  "Ġblue": 7293,
  "Ġblush": 15053,
  "Ġbo": 1418,
  "Ġboard": 4352,
  "Ġboat": 5610,
  "Ġboats": 7929,
  "Ġbod": 9392,
  "Ġbodies": 10547,
  "Ġbody": 1749,
  "Ġbogus": 6749,
  "Ġbol": 9393,
  "Ġbold": 10960,
  "Ġbolt": 16461,
  "Ġbomb": 8332,
  "Ġbombarded": 16327,
  "Ġbond": 9395,
  "Ġbonded": 16462,
  "Ġbone": 10952,
  "Ġboo": 978,
  "Ġbook": 2900,
  "Ġbooks": 4128,
  "Ġboom": 8762,
  "Ġbooms": 11813,
  "Ġboost": 3349,
  "Ġboostback": 15523,
  "Ġbooster": 1382,
  "Ġboosters": 6402,
  "Ġborder": 8333,
  "Ġbore": 13457,
  "Ġbored": 8331,
  "Ġboredom": 16326,
  "Ġborescope": 16859,
  "Ġboring": 2627,
  "Ġboringly": 15358,
  "Ġborn": 5425,
  "Ġborrow": 13465,
  "Ġboss": 7928,
  "Ġbot": 2997,
  "Ġbotanical": 15456,
  "Ġboth": 1301,
  "Ġbother": 6318,
  "Ġbothered": 10403,
  "Ġbotnets": 15455,
  "Ġbots": 6533,
  "Ġbottle": 15453,
  "Ġbottles": 15454,
  "Ġbottom": 5661,
  "Ġbought": 2588,
  "Ġboun": 6532,
  "Ġbounce": 6997,
  "Ġbounced": 16062,
  "Ġbouncing": 16063,
  "Ġbouncy": 10413,
  "Ġbound": 13455,
  "Ġbounds": 10961,
  "Ġbow": 13453,
  "Ġbox": 5281,
  "Ġboys": 5038,
  "Ġboyz": 14985,
  "Ġbr": 1377,
  "Ġbra": 1647,
  "Ġbrag": 7609,
  "Ġbrain": 3047,
  "Ġbrains": 15055,
  "Ġbrake": 5616,
  "Ġbrakes": 6767,
  "Ġbraking": 3627,
  "Ġbran": 6747,
  "Ġbranch": 8152,
  "Ġbranches": 16114,
  "Ġbrand": 11796,
  "Ġbranding": 7273,
  "Ġbrave": 10016,
  "Ġbre": 2385,
  "Ġbreached": 15283,
  "Ġbreak": 3361,
  "Ġbreakfast": 12130,
  "Ġbreaking": 11983,
  "Ġbreaks": 6797,
  "Ġbreakthrough": 6023,
  "Ġbreat": 5770,
  "Ġbreathe": 10359,
  "Ġbreathing": 9038,
  "Ġbrennt": 15284,
  "Ġbrick": 13464,
  "Ġbricks": 8334,
  "Ġbrid": 14956,
  "Ġbrief": 6324,
  "Ġbriefly": 10404,
  "Ġbright": 5037,
  "Ġbrightness": 9007,
  "Ġbrilliant": 9979,
  "Ġbring": 2857,
  "Ġbringing": 8015,
  "Ġbrings": 11797,
  "Ġbro": 2140,
  "Ġbroad": 5305,
  "Ġbroader": 12336,
  "Ġbroadly": 10340,
  "Ġbroke": 7319,
  "Ġbroken": 5306,
  "Ġbrother": 8835,
  "Ġbrought": 7272,
  "Ġbrowser": 6999,
  "Ġbrutal": 8752,
  "Ġbs": 3142,
  "Ġbtw": 3223,
  "Ġbu": 591,
  "Ġbub": 8609,
  "Ġbubble": 12576,
  "Ġbubbles": 16379,
  "Ġbuckling": 14480,
  "Ġbud": 8610,
  "Ġbudg": 16380,
  "Ġbudget": 12577,
  "Ġbuff": 5533,
  "Ġbuffer": 10349,
  "Ġbug": 4312,
  "Ġbuggy": 10291,
  "Ġbugs": 5890,
  "Ġbuild": 912,
  "Ġbuilding": 1779,
  "Ġbuildings": 7877,
  "Ġbuilds": 7876,
  "Ġbuilt": 2038,
  "Ġbul": 9391,
  "Ġbulk": 12615,
  "Ġbulkhead": 16766,
  "Ġbull": 5772,
  "Ġbullet": 6453,
  "Ġbulletproof": 12419,
  "Ġbully": 10957,
  "Ġbump": 5889,
  "Ġbumper": 9046,
  "Ġbumpy": 15963,
  "Ġbunch": 8329,
  "Ġbund": 10962,
  "Ġbundled": 12694,
  "Ġbuoy": 14479,
  "Ġbur": 6135,
  "Ġburd": 13463,
  "Ġburdened": 16861,
  "Ġbureau": 7610,
  "Ġbureaucr": 12516,
  "Ġbureaucracy": 12517,
  "Ġbureaucrats": 16762,
  "Ġburn": 2183,
  "Ġburning": 10082,
  "Ġburns": 15215,
  "Ġburst": 8131,
  "Ġbus": 4210,
  "Ġbuses": 15702,
  "Ġbusiness": 8974,
  "Ġbut": 366,
  "Ġbutt": 4438,
  "Ġbutton": 3013,
  "Ġbuttons": 6048,
  "Ġbuy": 1738,
  "Ġbuyable": 11869,
  "Ġbuyer": 7950,
  "Ġbuyers": 5973,
  "Ġbuying": 3819,
  "Ġbuys": 14478,
  "Ġbuzz": 11525,
  "Ġbuzzword": 16704,
  "Ġby": 438,
  "Ġbypass": 11350,
  "Ġbypasses": 16678,
  "Ġc": 275,
  "Ġca": 2077,
  "Ġcab": 6538,
  "Ġcabin": 9069,
  "Ġcabins": 16065,
  "Ġcable": 10978,
  "Ġcake": 8343,
  "Ġcal": 2460,
  "Ġcalamity": 15312,
  "Ġcalc": 4514,
  "Ġcalcs": 10304,
  "Ġcalculation": 15750,
  "Ġcalculations": 10305,
  "Ġcalculator": 15751,
  "Ġcalendar": 5321,
  "Ġcaliber": 15311,
  "Ġcalibration": 10126,
  "Ġcall": 1124,
  "Ġcalled": 1638,
  "Ġcalling": 7241,
  "Ġcalls": 7901,
  "Ġcam": 6537,
  "Ġcame": 3663,
  "Ġcamer": 2002,
  "Ġcamera": 3281,
  "Ġcameras": 2913,
  "Ġcamoufla": 16064,
  "Ġcamouflage": 17093,
  "Ġcamp": 4212,
  "Ġcampaign": 6041,
  "Ġcamping": 15703,
  "Ġcan": 537,
  "Ġcancel": 8598,
  "Ġcanceled": 16376,
  "Ġcancell": 9758,
  "Ġcancellation": 16519,
  "Ġcancelled": 16518,
  "Ġcancer": 9757,
  "Ġcand": 6539,
  "Ġcandid": 8141,
  "Ġcandidate": 10502,
  "Ġcandidates": 16295,
  "Ġcandy": 4013,
  "Ġcannot": 3817,
  "Ġcant": 1648,
  "Ġcap": 1284,
  "Ġcapabilities": 11773,
  "Ġcapability": 3533,
  "Ġcapable": 4346,
  "Ġcapac": 2906,
  "Ġcapacitor": 15422,
  "Ġcapacitors": 15421,
  "Ġcapacity": 3197,
  "Ġcape": 9400,
  "Ġcapex": 16465,
  "Ġcapita": 14917,
  "Ġcapital": 3723,
  "Ġcapitalist": 15597,
  "Ġcaps": 14916,
  "Ġcapt": 5162,
  "Ġcapture": 9013,
  "Ġcaptured": 9014,
  "Ġcar": 510,
  "Ġcaraoke": 9728,
  "Ġcarbon": 2563,
  "Ġcard": 7613,
  "Ġcards": 8345,
  "Ġcare": 1567,
  "Ġcareer": 8781,
  "Ġcareful": 5043,
  "Ġcarefully": 8782,
  "Ġcareless": 11838,
  "Ġcares": 11837,
  "Ġcargo": 3932,
  "Ġcarmak": 3815,
  "Ġcarmaker": 8954,
  "Ġcarmakers": 4836,
  "Ġcarried": 8572,
  "Ġcarrier": 9729,
  "Ġcarrot": 11472,
  "Ġcarry": 3336,
  "Ġcarrying": 8925,
  "Ġcars": 668,
  "Ġcart": 8339,
  "Ġcartoon": 10509,
  "Ġcartoonist": 16587,
  "Ġcase": 1649,
  "Ġcases": 2876,
  "Ġcash": 2938,
  "Ġcashmere": 15426,
  "Ġcast": 3224,
  "Ġcasting": 6398,
  "Ġcastings": 8919,
  "Ġcastle": 8918,
  "Ġcat": 2937,
  "Ġcatalog": 15425,
  "Ġcatast": 12072,
  "Ġcatastrophic": 16750,
  "Ġcatch": 2498,
  "Ġcatchers": 15322,
  "Ġcatches": 15321,
  "Ġcatching": 6372,
  "Ġcate": 10975,
  "Ġcatgirl": 12073,
  "Ġcatgirls": 16751,
  "Ġcath": 4892,
  "Ġcathode": 5117,
  "Ġcats": 10979,
  "Ġcaught": 4505,
  "Ġcaus": 2703,
  "Ġcausality": 15377,
  "Ġcausation": 15376,
  "Ġcause": 2386,
  "Ġcaused": 6382,
  "Ġcauses": 5652,
  "Ġcauseway": 11984,
  "Ġcausing": 6008,
  "Ġcaut": 5163,
  "Ġcaution": 12311,
  "Ġcautious": 7429,
  "Ġcautiously": 15856,
  "Ġcave": 5428,
  "Ġcd": 10973,
  "Ġce": 9399,
  "Ġcease": 16463,
  "Ġceiling": 16464,
  "Ġcell": 1853,
  "Ġcells": 3278,
  "Ġcent": 1241,
  "Ġcenter": 1701,
  "Ġcenters": 4781,
  "Ġcentral": 6313,
  "Ġcents": 14899,
  "Ġcentury": 6314,
  "Ġceramic": 13489,
  "Ġcere": 13478,
  "Ġcert": 7004,
  "Ġcertain": 2102,
  "Ġcertainly": 2860,
  "Ġcertification": 10450,
  "Ġch": 473,
  "Ġcha": 11431,
  "Ġchain": 3695,
  "Ġchains": 14283,
  "Ġchak": 14281,
  "Ġchall": 2404,
  "Ġchalleng": 3546,
  "Ġchallenge": 3861,
  "Ġchallenges": 4170,
  "Ġchallenging": 8938,
  "Ġchamber": 2519,
  "Ġchamp": 7781,
  "Ġchampion": 12530,
  "Ġchampions": 16269,
  "Ġchance": 2292,
  "Ġchang": 1380,
  "Ġchange": 1256,
  "Ġchanged": 3956,
  "Ġchanges": 1960,
  "Ġchanging": 3727,
  "Ġchann": 7130,
  "Ġchannels": 8161,
  "Ġchar": 3100,
  "Ġcharac": 4526,
  "Ġcharacter": 6050,
  "Ġcharacterized": 15975,
  "Ġcharacters": 8988,
  "Ġcharg": 3020,
  "Ġcharge": 2954,
  "Ġcharged": 10179,
  "Ġcharger": 7368,
  "Ġchargers": 15468,
  "Ġcharges": 12088,
  "Ġcharging": 5333,
  "Ġchariot": 12095,
  "Ġcharity": 12094,
  "Ġchars": 14280,
  "Ġchart": 5876,
  "Ġcharts": 15489,
  "Ġchassis": 11435,
  "Ġchauffeur": 16693,
  "Ġche": 5228,
  "Ġchea": 6662,
  "Ġcheap": 10426,
  "Ġcheaper": 10427,
  "Ġcheat": 15879,
  "Ġcheck": 2222,
  "Ġcheckbox": 15228,
  "Ġchecked": 11950,
  "Ġchecking": 11949,
  "Ġcheckouts": 15227,
  "Ġchecks": 10090,
  "Ġcheeks": 14286,
  "Ġcheese": 6884,
  "Ġchem": 7129,
  "Ġchemical": 10463,
  "Ġchemtra": 16171,
  "Ġchemtrails": 17097,
  "Ġcherry": 9705,
  "Ġchess": 9700,
  "Ġchest": 11432,
  "Ġchew": 14284,
  "Ġchick": 9702,
  "Ġchicken": 10573,
  "Ġchief": 9704,
  "Ġchild": 4959,
  "Ġchildren": 6878,
  "Ġchimes": 14282,
  "Ġchip": 3812,
  "Ġchips": 6854,
  "Ġchloroquine": 11436,
  "Ġcho": 6661,
  "Ġchoc": 9701,
  "Ġchoice": 3511,
  "Ġchoices": 16100,
  "Ġchoked": 12439,
  "Ġchoker": 16101,
  "Ġchoo": 6237,
  "Ġchoose": 12407,
  "Ġchoosing": 9061,
  "Ġchop": 14279,
  "Ġchose": 11433,
  "Ġchuggy": 14285,
  "Ġchute": 11434,
  "Ġchutes": 9703,
  "Ġcig": 7612,
  "Ġcigarette": 12518,
  "Ġcigars": 16241,
  "Ġcinematic": 13487,
  "Ġcirc": 3767,
  "Ġcircle": 8055,
  "Ġcircuit": 15614,
  "Ġcirculating": 15615,
  "Ġcircum": 8056,
  "Ġcircumferential": 10500,
  "Ġcit": 6536,
  "Ġcities": 5164,
  "Ġcitiz": 7460,
  "Ġcitizen": 10470,
  "Ġcitizens": 12498,
  "Ġcity": 2055,
  "Ġciv": 13480,
  "Ġcivil": 2184,
  "Ġcivilian": 10083,
  "Ġcivilization": 2581,
  "Ġcivilizations": 10084,
  "Ġcl": 1246,
  "Ġcla": 4012,
  "Ġclaim": 5109,
  "Ġclaimed": 15839,
  "Ġclaiming": 12213,
  "Ġclaims": 10329,
  "Ġclar": 3620,
  "Ġclarification": 10229,
  "Ġclarify": 4534,
  "Ġclarity": 15578,
  "Ġclass": 3441,
  "Ġclasses": 15538,
  "Ġclassic": 10215,
  "Ġclassified": 15539,
  "Ġcle": 1114,
  "Ġclean": 2653,
  "Ġcleans": 14829,
  "Ġclear": 1498,
  "Ġclearance": 11830,
  "Ġclearing": 8778,
  "Ġclearly": 5945,
  "Ġclears": 14828,
  "Ġcli": 13482,
  "Ġclic": 4213,
  "Ġclick": 15704,
  "Ġclicked": 10278,
  "Ġclicking": 15705,
  "Ġclicks": 6865,
  "Ġclient": 16863,
  "Ġclimate": 2854,
  "Ġclimates": 14905,
  "Ġclimb": 8733,
  "Ġclin": 14902,
  "Ġclip": 14903,
  "Ġclo": 1035,
  "Ġclock": 9906,
  "Ġclos": 1843,
  "Ġclose": 1473,
  "Ġclosed": 4147,
  "Ġclosely": 7937,
  "Ġcloser": 2760,
  "Ġclosest": 11891,
  "Ġclosing": 6339,
  "Ġcloth": 14904,
  "Ġclothing": 11768,
  "Ġcloud": 6315,
  "Ġcloudy": 16022,
  "Ġclust": 9959,
  "Ġcluster": 16551,
  "Ġclusters": 16552,
  "Ġcm": 6535,
  "Ġco": 389,
  "Ġcoach": 11278,
  "Ġcoal": 6201,
  "Ġcoast": 5202,
  "Ġcoaster": 8491,
  "Ġcoat": 11276,
  "Ġcoating": 5850,
  "Ġcoax": 11279,
  "Ġcoaxial": 12722,
  "Ġcobal": 7721,
  "Ġcobalt": 8176,
  "Ġcode": 2791,
  "Ġcodec": 12050,
  "Ġcoding": 13961,
  "Ġcoefficient": 8492,
  "Ġcoff": 7085,
  "Ġcoffee": 8159,
  "Ġcofound": 11280,
  "Ġcofounder": 12723,
  "Ġcoil": 11277,
  "Ġcoin": 9589,
  "Ġcoinc": 5851,
  "Ġcoincidence": 7446,
  "Ġcoincident": 15957,
  "Ġcoins": 13960,
  "Ġcol": 3918,
  "Ġcold": 2255,
  "Ġcolder": 11957,
  "Ġcoll": 1895,
  "Ġcollapse": 5295,
  "Ġcolle": 3732,
  "Ġcollect": 4794,
  "Ġcollection": 10237,
  "Ġcollective": 8995,
  "Ġcollector": 15784,
  "Ġcollectors": 12274,
  "Ġcollege": 4381,
  "Ġcollet": 15133,
  "Ġcolliding": 15134,
  "Ġcollision": 6774,
  "Ġcolon": 15650,
  "Ġcolony": 8959,
  "Ġcolor": 3157,
  "Ġcolors": 6037,
  "Ġcom": 535,
  "Ġcomb": 1634,
  "Ġcombat": 15045,
  "Ġcombination": 11849,
  "Ġcombine": 6764,
  "Ġcombined": 4499,
  "Ġcombining": 15046,
  "Ġcombust": 2298,
  "Ġcombusted": 15258,
  "Ġcombustion": 2489,
  "Ġcome": 1711,
  "Ġcomedy": 8597,
  "Ġcomes": 2605,
  "Ġcomet": 8596,
  "Ġcomets": 11503,
  "Ġcomf": 4270,
  "Ġcomfort": 4841,
  "Ġcomfortable": 10318,
  "Ġcomfy": 15729,
  "Ġcomic": 14443,
  "Ġcoming": 868,
  "Ġcomm": 1840,
  "Ġcommand": 6772,
  "Ġcommanded": 16120,
  "Ġcommands": 11890,
  "Ġcomment": 4459,
  "Ġcomments": 3697,
  "Ġcommercial": 3419,
  "Ġcommission": 8814,
  "Ġcommissioners": 16408,
  "Ġcommit": 5623,
  "Ġcommitment": 12357,
  "Ġcommitte": 15927,
  "Ġcommitted": 8121,
  "Ġcommodity": 15109,
  "Ġcommon": 3418,
  "Ġcomms": 15108,
  "Ġcommun": 3188,
  "Ġcommunic": 4826,
  "Ġcommunication": 7420,
  "Ġcommunications": 10316,
  "Ġcommunities": 10195,
  "Ġcommunity": 8026,
  "Ġcomp": 487,
  "Ġcompanies": 1514,
  "Ġcompany": 1399,
  "Ġcompar": 7790,
  "Ġcomparable": 10487,
  "Ġcompare": 14320,
  "Ġcompared": 3813,
  "Ġcompart": 14321,
  "Ġcompelling": 7134,
  "Ġcompens": 5526,
  "Ġcompensate": 9026,
  "Ġcompensation": 8120,
  "Ġcompet": 1584,
  "Ġcompete": 7291,
  "Ġcompeted": 15031,
  "Ġcompeting": 6759,
  "Ġcompetition": 3276,
  "Ġcompetitive": 4144,
  "Ġcompetitor": 8783,
  "Ġcompetitors": 5044,
  "Ġcompiler": 8567,
  "Ġcompl": 7789,
  "Ġcompla": 7133,
  "Ġcomplac": 9112,
  "Ġcomplacency": 12598,
  "Ġcomplacent": 16424,
  "Ġcomplaining": 12481,
  "Ġcomplaints": 16175,
  "Ġcomple": 1029,
  "Ġcomplete": 2368,
  "Ġcompleted": 3950,
  "Ġcompletely": 3524,
  "Ġcompleting": 5595,
  "Ġcompletion": 14789,
  "Ġcomplex": 1902,
  "Ġcomplexities": 15138,
  "Ġcomplexity": 3967,
  "Ġcomplic": 7791,
  "Ġcomplicated": 9113,
  "Ġcompos": 14323,
  "Ġcomposite": 8566,
  "Ġcomposites": 16989,
  "Ġcompreh": 11447,
  "Ġcomprehensive": 16695,
  "Ġcompress": 14322,
  "Ġcompressing": 14324,
  "Ġcompression": 5231,
  "Ġcomput": 1315,
  "Ġcomputation": 9963,
  "Ġcompute": 4784,
  "Ġcomputer": 1876,
  "Ġcomputers": 5033,
  "Ġcomputing": 5954,
  "Ġcon": 431,
  "Ġconc": 2733,
  "Ġconcent": 9642,
  "Ġconcentration": 16501,
  "Ġconcept": 7750,
  "Ġconcepts": 9644,
  "Ġconcern": 3739,
  "Ġconcerned": 10238,
  "Ġconcerns": 6417,
  "Ġconcert": 15381,
  "Ġconcluded": 15383,
  "Ġconclus": 15382,
  "Ġconclusions": 17077,
  "Ġconcrete": 8006,
  "Ġcond": 5513,
  "Ġcondensation": 15920,
  "Ġcondit": 3926,
  "Ġcondition": 7441,
  "Ġconditions": 3983,
  "Ġconductive": 14107,
  "Ġcones": 9640,
  "Ġconf": 1120,
  "Ġconference": 8528,
  "Ġconfidence": 11728,
  "Ġconfident": 4775,
  "Ġconfig": 2446,
  "Ġconfigs": 11999,
  "Ġconfigur": 6799,
  "Ġconfigurable": 12454,
  "Ġconfiguration": 6800,
  "Ġconfigurator": 9081,
  "Ġconfined": 9921,
  "Ġconfirm": 3526,
  "Ġconfirmation": 7388,
  "Ġconfirmed": 4341,
  "Ġconfirming": 15554,
  "Ġconflates": 14837,
  "Ġconflation": 14835,
  "Ġconflic": 9920,
  "Ġconflict": 16544,
  "Ġconfuse": 14834,
  "Ġconfused": 14836,
  "Ġconfusing": 8717,
  "Ġconfusion": 6305,
  "Ġcongr": 9641,
  "Ġcongratulate": 16500,
  "Ġconne": 7749,
  "Ġconnect": 2687,
  "Ġconnected": 6007,
  "Ġconnecting": 10145,
  "Ġconnection": 9111,
  "Ġconnectivity": 7351,
  "Ġconnector": 12038,
  "Ġconnectors": 12039,
  "Ġconnects": 12037,
  "Ġcons": 1015,
  "Ġconscious": 3949,
  "Ġconsciousness": 4384,
  "Ġconsensus": 11698,
  "Ġconsequences": 14108,
  "Ġconserv": 8702,
  "Ġconservative": 10528,
  "Ġconsider": 1822,
  "Ġconsiderable": 15096,
  "Ġconsiderably": 8809,
  "Ġconsideration": 15095,
  "Ġconsidered": 3854,
  "Ġconsidering": 6297,
  "Ġconsiders": 14780,
  "Ġconsist": 5018,
  "Ġconsistency": 10326,
  "Ġconsistent": 9006,
  "Ġconsistently": 12301,
  "Ġconso": 14105,
  "Ġconsole": 16959,
  "Ġconspir": 11699,
  "Ġconspiracy": 12752,
  "Ġconst": 1838,
  "Ġconstant": 3965,
  "Ġconstantly": 5108,
  "Ġconstellation": 10035,
  "Ġconstit": 7305,
  "Ġconstitu": 12492,
  "Ġconstituents": 16761,
  "Ġconstitutional": 16209,
  "Ġconstra": 3855,
  "Ġconstrained": 8956,
  "Ġconstraint": 8061,
  "Ġconstraints": 6857,
  "Ġconstru": 15107,
  "Ġconstruction": 5055,
  "Ġconsume": 14779,
  "Ġconsumer": 7210,
  "Ġconsumers": 5590,
  "Ġconsumption": 5267,
  "Ġcont": 710,
  "Ġcontact": 6272,
  "Ġcontacts": 16017,
  "Ġcontain": 9821,
  "Ġcontainer": 16532,
  "Ġcontainment": 14585,
  "Ġcontains": 14584,
  "Ġcontamination": 14586,
  "Ġconte": 5561,
  "Ġcontempt": 12354,
  "Ġcontent": 8648,
  "Ġcontest": 8649,
  "Ġcontext": 6889,
  "Ġcontextual": 16129,
  "Ġcontin": 1885,
  "Ġcontinent": 7306,
  "Ġconting": 7844,
  "Ġcontingent": 10491,
  "Ġcontinu": 3449,
  "Ġcontinuance": 10216,
  "Ġcontinue": 3631,
  "Ġcontinued": 8936,
  "Ġcontinues": 6773,
  "Ġcontinuing": 15541,
  "Ġcontinuous": 6838,
  "Ġcontinuously": 10217,
  "Ġcontour": 11576,
  "Ġcontract": 3029,
  "Ġcontracting": 12089,
  "Ġcontraction": 15470,
  "Ġcontractors": 7369,
  "Ġcontracts": 10181,
  "Ġcontrast": 11577,
  "Ġcontrib": 4748,
  "Ġcontribute": 12270,
  "Ġcontributed": 12271,
  "Ġcontribution": 8090,
  "Ġcontributions": 15779,
  "Ġcontro": 1133,
  "Ġcontrol": 1297,
  "Ġcontroll": 3616,
  "Ġcontrolled": 5343,
  "Ġcontroller": 15576,
  "Ġcontrollers": 15577,
  "Ġcontrolling": 8944,
  "Ġcontrols": 6317,
  "Ġcontrovers": 11729,
  "Ġcontroversial": 12753,
  "Ġconven": 5216,
  "Ġconvenience": 8117,
  "Ġconvenient": 8116,
  "Ġconveniently": 12542,
  "Ġconvention": 14106,
  "Ġconver": 4258,
  "Ġconvers": 4946,
  "Ġconversation": 6437,
  "Ġconversations": 10322,
  "Ġconversion": 15720,
  "Ġconvert": 4945,
  "Ġconverted": 8080,
  "Ġconvertible": 15808,
  "Ġconverting": 15721,
  "Ġconverts": 10284,
  "Ġconvey": 9643,
  "Ġconvin": 4041,
  "Ġconvince": 14109,
  "Ġconvinced": 6039,
  "Ġconvinces": 15677,
  "Ġconvincing": 8970,
  "Ġcoo": 10974,
  "Ġcook": 6138,
  "Ġcookie": 9055,
  "Ġcookies": 12399,
  "Ġcool": 1137,
  "Ġcooled": 9924,
  "Ġcooling": 3716,
  "Ġcools": 14841,
  "Ġcop": 5774,
  "Ġcopies": 15948,
  "Ġcopper": 6137,
  "Ġcopy": 10360,
  "Ġcopyc": 15949,
  "Ġcor": 2675,
  "Ġcord": 8340,
  "Ġcore": 2192,
  "Ġcores": 5991,
  "Ġcorn": 3312,
  "Ġcorner": 3870,
  "Ġcornering": 15519,
  "Ġcorners": 12122,
  "Ġcorona": 8004,
  "Ġcoronav": 10142,
  "Ġcoronavirus": 10587,
  "Ġcorpor": 12032,
  "Ġcorporate": 6810,
  "Ġcorporation": 12766,
  "Ġcorre": 6541,
  "Ġcorrect": 2057,
  "Ġcorrecting": 10071,
  "Ġcorrections": 16067,
  "Ġcorrective": 15185,
  "Ġcorrectly": 10072,
  "Ġcorrelation": 16068,
  "Ġcorrespond": 16069,
  "Ġcorrid": 15364,
  "Ġcorridor": 17075,
  "Ġcorro": 15363,
  "Ġcorruption": 8881,
  "Ġcort": 10976,
  "Ġcortisol": 16633,
  "Ġcos": 13959,
  "Ġcost": 889,
  "Ġcostly": 11641,
  "Ġcosts": 2228,
  "Ġcostume": 14696,
  "Ġcough": 10977,
  "Ġcould": 861,
  "Ġcouldnt": 4125,
  "Ġcouldve": 9855,
  "Ġcoun": 8342,
  "Ġcounc": 9127,
  "Ġcouncil": 16426,
  "Ġcouncils": 12599,
  "Ġcount": 1176,
  "Ġcountdown": 9937,
  "Ġcounted": 9936,
  "Ġcounter": 3901,
  "Ġcounteract": 12199,
  "Ġcounterintuitive": 15645,
  "Ġcounterpoint": 15644,
  "Ġcounterproductive": 15646,
  "Ġcountries": 2371,
  "Ġcountry": 2965,
  "Ġcounts": 9935,
  "Ġcounty": 6735,
  "Ġcoup": 13485,
  "Ġcouple": 9401,
  "Ġcour": 6540,
  "Ġcourse": 1726,
  "Ġcourses": 10414,
  "Ġcourtes": 16066,
  "Ġcourtesy": 17094,
  "Ġcous": 7614,
  "Ġcousin": 16242,
  "Ġcousins": 10477,
  "Ġcov": 5503,
  "Ġcover": 1837,
  "Ġcoverage": 4357,
  "Ġcovered": 7304,
  "Ġcovering": 15106,
  "Ġcovers": 7956,
  "Ġcovid": 3683,
  "Ġcow": 7002,
  "Ġcowbell": 12465,
  "Ġcowboy": 16144,
  "Ġcows": 10981,
  "Ġcr": 910,
  "Ġcrack": 11651,
  "Ġcracked": 9870,
  "Ġcracking": 14710,
  "Ġcrane": 7873,
  "Ġcranes": 14711,
  "Ġcranking": 14712,
  "Ġcrash": 2527,
  "Ġcrashed": 12017,
  "Ġcrashes": 12016,
  "Ġcrashing": 15335,
  "Ġcrater": 9869,
  "Ġcraters": 8685,
  "Ġcrazy": 2078,
  "Ġcre": 1661,
  "Ġcreat": 1812,
  "Ġcreate": 2449,
  "Ġcreated": 3540,
  "Ġcreates": 15091,
  "Ġcreating": 3446,
  "Ġcreation": 6768,
  "Ġcreative": 8808,
  "Ġcreativity": 15092,
  "Ġcreator": 11879,
  "Ġcreators": 11880,
  "Ġcreatures": 15093,
  "Ġcred": 2056,
  "Ġcredibility": 4801,
  "Ġcredit": 2762,
  "Ġcredits": 10070,
  "Ġcrew": 3628,
  "Ġcrewed": 6414,
  "Ġcrisis": 9871,
  "Ġcrit": 1464,
  "Ġcritic": 3273,
  "Ġcritical": 2044,
  "Ġcriticality": 15178,
  "Ġcriticism": 3976,
  "Ġcriticisms": 12210,
  "Ġcriticizes": 15514,
  "Ġcritique": 8771,
  "Ġcross": 3900,
  "Ġcrow": 13481,
  "Ġcrowd": 16862,
  "Ġcrown": 13486,
  "Ġcru": 5775,
  "Ġcrucial": 15951,
  "Ġcruise": 15950,
  "Ġcrumple": 15952,
  "Ġcrunch": 11652,
  "Ġcrush": 4477,
  "Ġcrushed": 8983,
  "Ġcrushes": 10302,
  "Ġcrushing": 7874,
  "Ġcry": 2022,
  "Ġcryo": 3049,
  "Ġcryogen": 6828,
  "Ġcryogenic": 7466,
  "Ġcrypt": 3282,
  "Ġcrypto": 3748,
  "Ġcryptocurrency": 8920,
  "Ġcub": 10980,
  "Ġcubic": 12696,
  "Ġcuff": 13483,
  "Ġcuis": 13488,
  "Ġcuisine": 16865,
  "Ġcult": 7003,
  "Ġcultural": 16145,
  "Ġcultures": 16146,
  "Ġcumulative": 10982,
  "Ġcup": 8341,
  "Ġcur": 3000,
  "Ġcurated": 10176,
  "Ġcurbs": 12084,
  "Ġcure": 13479,
  "Ġcures": 8344,
  "Ġcurious": 6824,
  "Ġcurrency": 6542,
  "Ġcurrent": 1568,
  "Ġcurrently": 2657,
  "Ġcurve": 6391,
  "Ġcustom": 1829,
  "Ġcustomer": 3629,
  "Ġcustomers": 3187,
  "Ġcustomize": 15100,
  "Ġcustomized": 10029,
  "Ġcustoms": 15099,
  "Ġcut": 3311,
  "Ġcute": 5429,
  "Ġcutlery": 15518,
  "Ġcuts": 12120,
  "Ġcutting": 12121,
  "Ġcy": 8338,
  "Ġcyber": 7005,
  "Ġcyberattack": 16148,
  "Ġcybernetic": 16147,
  "Ġcyborg": 16328,
  "Ġcyc": 2716,
  "Ġcycle": 5080,
  "Ġcycles": 5653,
  "Ġcyclist": 12041,
  "Ġcyclists": 8884,
  "Ġcylinder": 12558,
  "Ġcyn": 13484,
  "Ġcynics": 16864,
  "Ġd": 291,
  "Ġda": 5169,
  "Ġdab": 13595,
  "Ġdabbing": 16886,
  "Ġdaily": 6439,
  "Ġdain": 9436,
  "Ġdainty": 10550,
  "Ġdairy": 11047,
  "Ġdam": 2879,
  "Ġdamage": 5084,
  "Ġdamaged": 8017,
  "Ġdamn": 6387,
  "Ġdamp": 11042,
  "Ġdamping": 7031,
  "Ġdancing": 13608,
  "Ġdanger": 2940,
  "Ġdangerous": 4821,
  "Ġdangerously": 12075,
  "Ġdank": 13599,
  "Ġdankest": 16888,
  "Ġdare": 7640,
  "Ġdark": 3146,
  "Ġdarkest": 15497,
  "Ġdarkness": 10191,
  "Ġdash": 7641,
  "Ġdashingly": 16244,
  "Ġdat": 6561,
  "Ġdata": 1787,
  "Ġdatab": 8143,
  "Ġdatabase": 10503,
  "Ġdatabases": 16296,
  "Ġdataset": 16074,
  "Ġdate": 2429,
  "Ġdated": 13597,
  "Ġdates": 13601,
  "Ġdawn": 12314,
  "Ġday": 1037,
  "Ġdaylight": 14792,
  "Ġdays": 1085,
  "Ġde": 435,
  "Ġdead": 3505,
  "Ġdeadly": 12148,
  "Ġdeal": 1920,
  "Ġdealer": 7962,
  "Ġdealers": 5983,
  "Ġdealing": 8824,
  "Ġdeals": 15153,
  "Ġdeath": 2167,
  "Ġdeaths": 3453,
  "Ġdeb": 2290,
  "Ġdebatable": 15254,
  "Ġdebate": 5310,
  "Ġdebated": 15252,
  "Ġdebris": 7982,
  "Ġdebt": 4363,
  "Ġdebts": 15251,
  "Ġdebug": 15253,
  "Ġdec": 1460,
  "Ġdecade": 5611,
  "Ġdecades": 5963,
  "Ġdecent": 8769,
  "Ġdecentralized": 15010,
  "Ġdeception": 14118,
  "Ġdecide": 6329,
  "Ġdecided": 8770,
  "Ġdecides": 11825,
  "Ġdecision": 5962,
  "Ġdeck": 9646,
  "Ġdeclin": 6330,
  "Ġdecline": 10002,
  "Ġdeclined": 9064,
  "Ġdeclining": 10405,
  "Ġdecomp": 14116,
  "Ġdecompress": 16961,
  "Ġdecontent": 15012,
  "Ġdecorating": 15011,
  "Ġdecreasing": 10003,
  "Ġdedic": 4414,
  "Ġdedicated": 4844,
  "Ġdeeds": 14115,
  "Ġdeep": 1869,
  "Ġdeeper": 11347,
  "Ġdeeply": 7959,
  "Ġdef": 1074,
  "Ġdefault": 7897,
  "Ġdefe": 7238,
  "Ġdefeat": 16196,
  "Ġdefeated": 16198,
  "Ġdefeats": 16197,
  "Ġdefend": 14813,
  "Ġdefense": 5597,
  "Ġdefinitely": 2092,
  "Ġdefinition": 14814,
  "Ġdefy": 14812,
  "Ġdeg": 2734,
  "Ġdegree": 5655,
  "Ġdegrees": 5324,
  "Ġdel": 1077,
  "Ġdelay": 3525,
  "Ġdelayed": 15553,
  "Ġdelays": 7239,
  "Ġdele": 4949,
  "Ġdelete": 8102,
  "Ġdeleted": 15809,
  "Ġdeleting": 12290,
  "Ġdeletion": 15810,
  "Ġdelicious": 14821,
  "Ġdelight": 8712,
  "Ġdelightful": 12585,
  "Ġdeliver": 1924,
  "Ġdelivered": 3450,
  "Ġdeliveries": 5297,
  "Ġdelivering": 5631,
  "Ġdelivery": 2610,
  "Ġdelta": 5024,
  "Ġdem": 2840,
  "Ġdemand": 3056,
  "Ġdemands": 15410,
  "Ġdemented": 14117,
  "Ġdemo": 2735,
  "Ġdemocr": 12044,
  "Ġdemocracy": 6814,
  "Ġdemocratic": 16749,
  "Ġdemographic": 8885,
  "Ġdemographics": 16413,
  "Ġdemon": 4450,
  "Ġdemonstr": 5696,
  "Ġdemonstrate": 10355,
  "Ġdemonstrated": 10356,
  "Ġdemonstrating": 15935,
  "Ġdemonstration": 15745,
  "Ġden": 4412,
  "Ġdenial": 10298,
  "Ġdens": 2246,
  "Ġdense": 5786,
  "Ġdensely": 15953,
  "Ġdenser": 15234,
  "Ġdensity": 2488,
  "Ġdeny": 10297,
  "Ġdenying": 12253,
  "Ġdeorbit": 9647,
  "Ġdep": 1345,
  "Ġdepart": 6322,
  "Ġdeparted": 14940,
  "Ġdeparture": 12416,
  "Ġdependent": 8744,
  "Ġdepending": 5035,
  "Ġdepends": 6744,
  "Ġdepiction": 14941,
  "Ġdeploy": 2577,
  "Ġdeployable": 15340,
  "Ġdeployed": 4371,
  "Ġdeploying": 14942,
  "Ġdeployment": 6803,
  "Ġdeployments": 15341,
  "Ġdepos": 11786,
  "Ġdeposits": 16734,
  "Ġdepot": 11785,
  "Ġdepressing": 11787,
  "Ġdepth": 7265,
  "Ġder": 8377,
  "Ġdes": 679,
  "Ġdesaturation": 14562,
  "Ġdesc": 4318,
  "Ġdescent": 7839,
  "Ġdescrib": 10292,
  "Ġdescribe": 7409,
  "Ġdescribed": 8979,
  "Ġdescribes": 16574,
  "Ġdescribing": 16575,
  "Ġdescription": 8644,
  "Ġdeser": 3824,
  "Ġdesert": 9809,
  "Ġdeserted": 12642,
  "Ġdeserve": 7392,
  "Ġdeserves": 6035,
  "Ġdeserving": 15629,
  "Ġdesign": 817,
  "Ġdesigned": 1922,
  "Ġdesigners": 14652,
  "Ġdesigning": 9848,
  "Ġdesigns": 9847,
  "Ġdesk": 14560,
  "Ġdesperate": 14561,
  "Ġdespite": 3342,
  "Ġdest": 2159,
  "Ġdestination": 3452,
  "Ġdestinations": 10079,
  "Ġdestiny": 15208,
  "Ġdestroy": 5062,
  "Ġdestroyed": 8105,
  "Ġdestroying": 15209,
  "Ġdestruction": 11939,
  "Ġdet": 1678,
  "Ġdetail": 2134,
  "Ġdetailed": 7318,
  "Ġdetails": 2862,
  "Ġdetect": 5619,
  "Ġdetected": 9032,
  "Ġdetection": 8793,
  "Ġdeterm": 11858,
  "Ġdetermine": 16737,
  "Ġdetour": 15062,
  "Ġdev": 4948,
  "Ġdeval": 14114,
  "Ġdevalue": 16960,
  "Ġdevelop": 1718,
  "Ġdeveloped": 5051,
  "Ġdeveloping": 4791,
  "Ġdevelopment": 3118,
  "Ġdevelopments": 15075,
  "Ġdevice": 6643,
  "Ġdevices": 7751,
  "Ġdevil": 9001,
  "Ġdi": 9433,
  "Ġdia": 8381,
  "Ġdiagnosis": 16335,
  "Ġdial": 6562,
  "Ġdialog": 7462,
  "Ġdialogue": 9101,
  "Ġdiam": 2717,
  "Ġdiameter": 2866,
  "Ġdiaper": 16334,
  "Ġdiapers": 12618,
  "Ġdice": 8380,
  "Ġdicey": 10512,
  "Ġdid": 896,
  "Ġdidn": 3610,
  "Ġdidnt": 1874,
  "Ġdie": 3145,
  "Ġdied": 3770,
  "Ġdies": 11043,
  "Ġdiesel": 11045,
  "Ġdif": 844,
  "Ġdiff": 1482,
  "Ġdiffer": 1147,
  "Ġdifference": 2043,
  "Ġdifferences": 5273,
  "Ġdifferent": 2131,
  "Ġdifferential": 6733,
  "Ġdifferently": 11933,
  "Ġdifficult": 1723,
  "Ġdifficulties": 11863,
  "Ġdifficulty": 7296,
  "Ġdig": 2832,
  "Ġdigging": 5656,
  "Ġdigital": 7357,
  "Ġdigits": 12057,
  "Ġdign": 7028,
  "Ġdignity": 7471,
  "Ġdigs": 15409,
  "Ġdil": 9435,
  "Ġdilution": 16473,
  "Ġdim": 8378,
  "Ġdimension": 12560,
  "Ġdimensions": 16763,
  "Ġdin": 5785,
  "Ġdiner": 12372,
  "Ġdinner": 10363,
  "Ġdinosaurs": 12373,
  "Ġdire": 1420,
  "Ġdirect": 1904,
  "Ġdirection": 3184,
  "Ġdirections": 11814,
  "Ġdirective": 11900,
  "Ġdirectly": 3280,
  "Ġdirt": 8383,
  "Ġdis": 1043,
  "Ġdisable": 11706,
  "Ġdisabled": 11710,
  "Ġdisad": 9909,
  "Ġdisadvantage": 16542,
  "Ġdisadvantaged": 16543,
  "Ġdisagree": 5269,
  "Ġdisapp": 14796,
  "Ġdisappointed": 17050,
  "Ġdisassembly": 14797,
  "Ġdisaster": 8707,
  "Ġdisasters": 11709,
  "Ġdisbur": 14795,
  "Ġdisburse": 17049,
  "Ġdisc": 1923,
  "Ġdiscern": 15154,
  "Ġdiscernible": 17065,
  "Ġdischarge": 14800,
  "Ġdisclo": 10052,
  "Ġdisclosed": 15156,
  "Ġdisclosure": 12658,
  "Ġdiscord": 11909,
  "Ġdiscount": 5630,
  "Ġdiscounts": 10353,
  "Ġdiscourse": 11910,
  "Ġdiscover": 5020,
  "Ġdiscovered": 7425,
  "Ġdiscoveries": 12302,
  "Ġdiscovering": 15826,
  "Ġdiscreet": 15157,
  "Ġdiscret": 15155,
  "Ġdiscretion": 17066,
  "Ġdiscuss": 3189,
  "Ġdiscussed": 15500,
  "Ġdiscussion": 6834,
  "Ġdiscussions": 10196,
  "Ġdise": 8382,
  "Ġdisease": 16336,
  "Ġdiseases": 12561,
  "Ġdisgust": 14798,
  "Ġdish": 9437,
  "Ġdisk": 14794,
  "Ġdislike": 9910,
  "Ġdisorder": 11707,
  "Ġdisp": 7221,
  "Ġdispenser": 16195,
  "Ġdispensing": 16194,
  "Ġdisplay": 6299,
  "Ġdisruption": 11708,
  "Ġdissimilar": 14799,
  "Ġdist": 2006,
  "Ġdistance": 3632,
  "Ġdistances": 10062,
  "Ġdistant": 15169,
  "Ġdistillation": 15171,
  "Ġdistinction": 15170,
  "Ġdistinguish": 10063,
  "Ġdistract": 5985,
  "Ġdistracted": 8128,
  "Ġdistrib": 6345,
  "Ġdistribution": 6900,
  "Ġdiv": 5170,
  "Ġdive": 7027,
  "Ġdiver": 6153,
  "Ġdiverge": 15994,
  "Ġdivers": 7030,
  "Ġdiverting": 15995,
  "Ġdivide": 10331,
  "Ġdivided": 15859,
  "Ġdiving": 13598,
  "Ġdivision": 12315,
  "Ġdo": 414,
  "Ġdoable": 11320,
  "Ġdoc": 8516,
  "Ġdoci": 9616,
  "Ġdocile": 10566,
  "Ġdock": 3247,
  "Ġdocked": 10202,
  "Ġdocking": 5671,
  "Ġdocks": 12110,
  "Ġdoctors": 11321,
  "Ġdocumentary": 12567,
  "Ġdoes": 838,
  "Ġdoesn": 3704,
  "Ġdoesnt": 1373,
  "Ġdog": 4448,
  "Ġdoge": 14058,
  "Ġdogs": 8517,
  "Ġdoing": 1261,
  "Ġdoll": 3921,
  "Ġdollar": 6420,
  "Ġdollars": 6860,
  "Ġdom": 7026,
  "Ġdomain": 12470,
  "Ġdome": 4413,
  "Ġdomes": 7642,
  "Ġdomestic": 16157,
  "Ġdon": 1663,
  "Ġdonate": 6769,
  "Ġdonated": 8791,
  "Ġdonating": 8792,
  "Ġdonations": 11856,
  "Ġdone": 1067,
  "Ġdonor": 11855,
[...]
