{
  "version": "1.0",
  "truncation": null,
  "padding": null,
  "added_tokens": [
    {
      "id": 0,
      "content": "<s>",
      "single_word": false,
      "lstrip": false,
      "rstrip": false,
      "normalized": false,
      "special": true
    },
    {
      "id": 1,
      "content": "<pad>",
      "single_word": false,
      "lstrip": false,
      "rstrip": false,
      "normalized": false,
      "special": true
    },
    {
      "id": 2,
      "content": "</s>",
      "single_word": false,
      "lstrip": false,
      "rstrip": false,
      "normalized": false,
      "special": true
    },
    {
      "id": 3,
      "content": "<unk>",
      "single_word": false,
      "lstrip": false,
      "rstrip": false,
      "normalized": false,
      "special": true
    },
    {
      "id": 4,
      "content": "<mask>",
      "single_word": false,
      "lstrip": false,
      "rstrip": false,
      "normalized": false,
      "special": true
    }
  ],
  "normalizer": {
    "type": "BertNormalizer",
    "clean_text": true,
    "handle_chinese_chars": true,
    "strip_accents": null,
    "lowercase": true
  },
  "pre_tokenizer": {
    "type": "BertPreTokenizer"
  },
  "post_processor": null,
  "decoder": {
    "type": "WordPiece",
    "prefix": "##",
    "cleanup": true
  },
  "model": {
    "type": "WordPiece",
    "unk_token": "[UNK]",
    "continuing_subword_prefix": "##",
    "max_input_chars_per_word": 100,
    "vocab": {
      "<s>": 0,
      "<pad>": 1,
      "</s>": 2,
      "<unk>": 3,
      "<mask>": 4,
      "!": 5,
      "\"": 6,
      "$": 7,
      "%": 8,
      "&": 9,
      "'": 10,
      "(": 11,
      ")": 12,
      "*": 13,
      "+": 14,
      ",": 15,
      "-": 16,
      ".": 17,
      "/": 18,
      "0": 19,
      "1": 20,
      "2": 21,
      "3": 22,
      "4": 23,
      "5": 24,
      "6": 25,
      "7": 26,
      "8": 27,
      "9": 28,
      ":": 29,
      ";": 30,
      "=": 31,
      "?": 32,
      "[": 33,
      "]": 34,
      "^": 35,
      "_": 36,
      "a": 37,
      "b": 38,
      "c": 39,
      "d": 40,
      "e": 41,
      "f": 42,
      "g": 43,
      "h": 44,
      "i": 45,
      "j": 46,
      "k": 47,
      "l": 48,
      "m": 49,
      "n": 50,
      "o": 51,
      "p": 52,
      "q": 53,
      "r": 54,
      "s": 55,
      "t": 56,
      "u": 57,
      "v": 58,
      "w": 59,
      "x": 60,
      "y": 61,
      "z": 62,
      "{": 63,
      "|": 64,
      "}": 65,
      "~": 66,
      "##h": 67,
      "##i": 68,
      "##c": 69,
      "##k": 70,
      "##e": 71,
      "##n": 72,
      "##t": 73,
      "##a": 74,
      "##u": 75,
      "##r": 76,
      "##y": 77,
      "##d": 78,
      "##l": 79,
      "##p": 80,
      "##s": 81,
      "##o": 82,
      "##b": 83,
      "##j": 84,
      "##v": 85,
      "##m": 86,
      "##f": 87,
      "##g": 88,
      "##5": 89,
      "##w": 90,
      "##x": 91,
      "##0": 92,
      "##z": 93,
      "##6": 94,
      "##q": 95,
      "##1": 96,
      "##4": 97,
      "##2": 98,
      "##7": 99,
      "##9": 100,
      "##3": 101,
      "##8": 102,
      "##er": 103,
      "th": 104,
      "##in": 105,
      "##es": 106,
      "##on": 107,
      "##or": 108,
      "##at": 109,
      "##ing": 110,
      "##ar": 111,
      "##ll": 112,
      "to": 113,
      "##an": 114,
      "the": 115,
      "##ou": 116,
      "##ed": 117,
      "##en": 118,
      "##it": 119,
      "##st": 120,
      "##re": 121,
      "in": 122,
      "##al": 123,
      "##mp": 124,
      "of": 125,
      "is": 126,
      "##et": 127,
      "##ic": 128,
      "##el": 129,
      "##ro": 130,
      "##ut": 131,
      "##as": 132,
      "##ion": 133,
      "##ac": 134,
      "##le": 135,
      "##is": 136,
      "##ig": 137,
      "an": 138,
      "##ot": 139,
      "for": 140,
      "on": 141,
      "be": 142,
      "re": 143,
      "##ve": 144,
      "so": 145,
      "##ow": 146,
      "##ill": 147,
      "##ly": 148,
      "##ay": 149,
      "co": 150,
      "st": 151,
      "it": 152,
      "amp": 153,
      "##ent": 154,
      "##ct": 155,
      "we": 156,
      "##la": 157,
      "##ld": 158,
      "tes": 159,
      "##id": 160,
      "##od": 161,
      "##ch": 162,
      "##me": 163,
      "that": 164,
      "##ad": 165,
      "will": 166,
      "##igh": 167,
      "wh": 168,
      "##all": 169,
      "##ver": 170,
      "ne": 171,
      "su": 172,
      "##ter": 173,
      "##ir": 174,
      "tesla": 175,
      "##ur": 176,
      "pro": 177,
      "##ust": 178,
      "you": 179,
      "##ith": 180,
      "##il": 181,
      "go": 182,
      "but": 183,
      "##op": 184,
      "##th": 185,
      "##se": 186,
      "and": 187,
      "with": 188,
      "sh": 189,
      "tr": 190,
      "this": 191,
      "ha": 192,
      "##ce": 193,
      "sp": 194,
      "##un": 195,
      "ex": 196,
      "at": 197,
      "li": 198,
      "en": 199,
      "##ke": 200,
      "##ould": 201,
      "not": 202,
      "##ight": 203,
      "do": 204,
      "##ers": 205,
      "are": 206,
      "de": 207,
      "##ck": 208,
      "##ally": 209,
      "ro": 210,
      "##est": 211,
      "##ere": 212,
      "car": 213,
      "##ea": 214,
      "##pp": 215,
      "##ation": 216,
      "or": 217,
      "al": 218,
      "as": 219,
      "se": 220,
      "lo": 221,
      "##ate": 222,
      "con": 223,
      "##ab": 224,
      "ch": 225,
      "wor": 226,
      "ma": 227,
      "##ra": 228,
      "ab": 229,
      "##ess": 230,
      "##ul": 231,
      "##ge": 232,
      "##ri": 233,
      "by": 234,
      "##oun": 235,
      "all": 236,
      "##and": 237,
      "##ant": 238,
      "than": 239,
      "##ost": 240,
      "just": 241,
      "##ity": 242,
      "##ear": 243,
      "##out": 244,
      "##ace": 245,
      "##ks": 246,
      "la": 247,
      "mod": 248,
      "##ore": 249,
      "##ort": 250,
      "un": 251,
      "no": 252,
      "##ol": 253,
      "##im": 254,
      "was": 255,
      "##act": 256,
      "fro": 257,
      "##per": 258,
      "have": 259,
      "from": 260,
      "good": 261,
      "me": 262,
      "model": 263,
      "##ip": 264,
      "comp": 265,
      "##om": 266,
      "##gh": 267,
      "yes": 268,
      "##ine": 269,
      "##ack": 270,
      "##um": 271,
      "##ue": 272,
      "about": 273,
      "##us": 274,
      "##one": 275,
      "##reat": 276,
      "space": 277,
      "##ap": 278,
      "##ure": 279,
      "can": 280,
      "##lo": 281,
      "up": 282,
      "##ard": 283,
      "if": 284,
      "rock": 285,
      "##ain": 286,
      "##ie": 287,
      "##am": 288,
      "com": 289,
      "##art": 290,
      "##if": 291,
      "##ough": 292,
      "##ely": 293,
      "like": 294,
      "my": 295,
      "##ction": 296,
      "##king": 297,
      "sa": 298,
      "ar": 299,
      "need": 300,
      "us": 301,
      "rocket": 302,
      "am": 303,
      "would": 304,
      "more": 305,
      "year": 306,
      "high": 307,
      "great": 308,
      "##ive": 309,
      "##end": 310,
      "imp": 311,
      "out": 312,
      "fe": 313,
      "he": 314,
      "##ound": 315,
      "##ong": 316,
      "##ies": 317,
      "##ide": 318,
      "prob": 319,
      "pl": 320,
      "##ment": 321,
      "##os": 322,
      "there": 323,
      "##ect": 324,
      "##con": 325,
      "fa": 326,
      "pr": 327,
      "##ime": 328,
      "##ist": 329,
      "##ars": 330,
      "its": 331,
      "##ry": 332,
      "ad": 333,
      "##unch": 334,
      "they": 335,
      "##ci": 336,
      "##du": 337,
      "should": 338,
      "launch": 339,
      "has": 340,
      "time": 341,
      "##ase": 342,
      "any": 343,
      "aut": 344,
      "eng": 345,
      "##em": 346,
      "##ull": 347,
      "bet": 348,
      "fir": 349,
      "some": 350,
      "our": 351,
      "##xt": 352,
      "##ia": 353,
      "##any": 354,
      "produ": 355,
      "##ft": 356,
      "ta": 357,
      "app": 358,
      "over": 359,
      "##iv": 360,
      "##uch": 361,
      "what": 362,
      "new": 363,
      "bu": 364,
      "act": 365,
      "##iz": 366,
      "ev": 367,
      "pe": 368,
      "##our": 369,
      "te": 370,
      "##ass": 371,
      "next": 372,
      "##able": 373,
      "one": 374,
      "now": 375,
      "too": 376,
      "##der": 377,
      "##qu": 378,
      "super": 379,
      "fal": 380,
      "le": 381,
      "fl": 382,
      "##ign": 383,
      "get": 384,
      "##ous": 385,
      "land": 386,
      "##ower": 387,
      "##are": 388,
      "peop": 389,
      "much": 390,
      "most": 391,
      "people": 392,
      "##ire": 393,
      "thr": 394,
      "##ans": 395,
      "##ays": 396,
      "may": 397,
      "##ving": 398,
      "##pt": 399,
      "dri": 400,
      "sol": 401,
      "##ice": 402,
      "ever": 403,
      "test": 404,
      "##ont": 405,
      "wee": 406,
      "bo": 407,
      "only": 408,
      "##so": 409,
      "##ff": 410,
      "cars": 411,
      "##arg": 412,
      "##ite": 413,
      "ag": 414,
      "##ib": 415,
      "##ud": 416,
      "first": 417,
      "##int": 418,
      "des": 419,
      "##cc": 420,
      "loo": 421,
      "spacex": 422,
      "##ually": 423,
      "mon": 424,
      "##ome": 425,
      "##age": 426,
      "also": 427,
      "mo": 428,
      "##ink": 429,
      "##hip": 430,
      "falcon": 431,
      "##ind": 432,
      "soon": 433,
      "inc": 434,
      "pre": 435,
      "##atter": 436,
      "thanks": 437,
      "##ory": 438,
      "##gr": 439,
      "work": 440,
      "ear": 441,
      "make": 442,
      "##hing": 443,
      "inter": 444,
      "hard": 445,
      "ver": 446,
      "long": 447,
      "per": 448,
      "##be": 449,
      "oth": 450,
      "right": 451,
      "tw": 452,
      "engine": 453,
      "yea": 454,
      "yeah": 455,
      "dra": 456,
      "##ens": 457,
      "##day": 458,
      "true": 459,
      "##ich": 460,
      "cont": 461,
      "##own": 462,
      "##ably": 463,
      "who": 464,
      "your": 465,
      "##ence": 466,
      "##ated": 467,
      "##ach": 468,
      "when": 469,
      "##ree": 470,
      "hop": 471,
      "cr": 472,
      "exp": 473,
      "were": 474,
      "part": 475,
      "im": 476,
      "##ance": 477,
      "res": 478,
      "##ange": 479,
      "##ware": 480,
      "better": 481,
      "##eam": 482,
      "po": 483,
      "kn": 484,
      "power": 485,
      "int": 486,
      "##ount": 487,
      "##her": 488,
      "##ions": 489,
      "##ast": 490,
      "way": 491,
      "production": 492,
      "rec": 493,
      "exact": 494,
      "even": 495,
      "##bit": 496,
      "##ors": 497,
      "team": 498,
      "lot": 499,
      "ser": 500,
      "min": 501,
      "actually": 502,
      "drag": 503,
      "which": 504,
      "back": 505,
      "week": 506,
      "##gy": 507,
      "many": 508,
      "month": 509,
      "##ber": 510,
      "real": 511,
      "very": 512,
      "##urn": 513,
      "coming": 514,
      "probably": 515,
      "##ater": 516,
      "sure": 517,
      "exactly": 518,
      "##ade": 519,
      "landing": 520,
      "sm": 521,
      "##ult": 522,
      "qu": 523,
      "really": 524,
      "fun": 525,
      "aw": 526,
      "af": 527,
      "##vel": 528,
      "def": 529,
      "pu": 530,
      "does": 531,
      "rep": 532,
      "spe": 533,
      "##ric": 534,
      "acc": 535,
      "##wn": 536,
      "maybe": 537,
      "how": 538,
      "mars": 539,
      "full": 540,
      "sy": 541,
      "##ep": 542,
      "impro": 543,
      "dragon": 544,
      "##ary": 545,
      "##kes": 546,
      "then": 547,
      "did": 548,
      "big": 549,
      "other": 550,
      "##iss": 551,
      "orbit": 552,
      "love": 553,
      "##ating": 554,
      "##icle": 555,
      "flight": 556,
      "solar": 557,
      "##iew": 558,
      "##nt": 559,
      "every": 560,
      "few": 561,
      "##met": 562,
      "art": 563,
      "years": 564,
      "##00": 565,
      "##ical": 566,
      "happ": 567,
      "after": 568,
      "cap": 569,
      "design": 570,
      "##fer": 571,
      "##ha": 572,
      "gr": 573,
      "##pe": 574,
      "could": 575,
      "air": 576,
      "ele": 577,
      "##ial": 578,
      "still": 579,
      "ve": 580,
      "hope": 581,
      "point": 582,
      "##ild": 583,
      "under": 584,
      "rel": 585,
      "##row": 586,
      "know": 587,
      "supp": 588,
      "##ting": 589,
      "think": 590,
      "##orn": 591,
      "their": 592,
      "best": 593,
      "##ility": 594,
      "hel": 595,
      "##ose": 596,
      "soft": 597,
      "use": 598,
      "cool": 599,
      "world": 600,
      "##ish": 601,
      "ph": 602,
      "##ick": 603,
      "own": 604,
      "##orm": 605,
      "##ile": 606,
      "##oc": 607,
      "ext": 608,
      "want": 609,
      "well": 610,
      "##ph": 611,
      "ca": 612,
      "thrust": 613,
      "##ord": 614,
      "cl": 615,
      "going": 616,
      "gen": 617,
      "thing": 618,
      "see": 619,
      "##ron": 620,
      "stars": 621,
      "##ang": 622,
      "##most": 623,
      "##ible": 624,
      "lit": 625,
      "almost": 626,
      "##bl": 627,
      "software": 628,
      "pos": 629,
      "##ilot": 630,
      "end": 631,
      "##use": 632,
      "##ys": 633,
      "fin": 634,
      "sc": 635,
      "read": 636,
      "add": 637,
      "del": 638,
      "##ru": 639,
      "off": 640,
      "down": 641,
      "##fe": 642,
      "dont": 643,
      "##ious": 644,
      "elect": 645,
      "them": 646,
      "autop": 647,
      "miss": 648,
      "same": 649,
      "fut": 650,
      "##stem": 651,
      "##ations": 652,
      "hum": 653,
      "##ves": 654,
      "system": 655,
      "##ise": 656,
      "being": 657,
      "starship": 658,
      "##ically": 659,
      "##ful": 660,
      "though": 661,
      "##elf": 662,
      "cons": 663,
      "tech": 664,
      "somet": 665,
      "id": 666,
      "##ark": 667,
      "autopilot": 668,
      "fact": 669,
      "reg": 670,
      "earth": 671,
      "ho": 672,
      "sl": 673,
      "##iver": 674,
      "cost": 675,
      "##ons": 676,
      "future": 677,
      "##tle": 678,
      "ind": 679,
      "##oth": 680,
      "##ual": 681,
      "dif": 682,
      "pri": 683,
      "batter": 684,
      "build": 685,
      "say": 686,
      "##ty": 687,
      "short": 688,
      "those": 689,
      "##unn": 690,
      "electric": 691,
      "dis": 692,
      "##up": 693,
      "day": 694,
      "help": 695,
      "don": 696,
      "publ": 697,
      "##erm": 698,
      "##ved": 699,
      "start": 700,
      "##eav": 701,
      "try": 702,
      "been": 703,
      "heav": 704,
      "op": 705,
      "##ering": 706,
      "why": 707,
      "today": 708,
      "##ize": 709,
      "ob": 710,
      "trans": 711,
      "##veral": 712,
      "needed": 713,
      "##ag": 714,
      "rev": 715,
      "thats": 716,
      "haha": 717,
      "call": 718,
      "bec": 719,
      "ok": 720,
      "##ced": 721,
      "##ail": 722,
      "sub": 723,
      "working": 724,
      "had": 725,
      "jo": 726,
      "##les": 727,
      "##ense": 728,
      "##ines": 729,
      "##erson": 730,
      "made": 731,
      "##charg": 732,
      "done": 733,
      "##ments": 734,
      "improve": 735,
      "ins": 736,
      "rap": 737,
      "##els": 738,
      "company": 739,
      "fast": 740,
      "import": 741,
      "vide": 742,
      "gu": 743,
      "##ics": 744,
      "requ": 745,
      "ener": 746,
      "clo": 747,
      "dep": 748,
      "##fore": 749,
      "##ully": 750,
      "support": 751,
      "opt": 752,
      "##ats": 753,
      "##imes": 754,
      "sound": 755,
      "##read": 756,
      "drive": 757,
      "mass": 758,
      "press": 759,
      "##way": 760,
      "road": 761,
      "adv": 762,
      "heavy": 763,
      "##ways": 764,
      "conf": 765,
      "something": 766,
      "show": 767,
      "comm": 768,
      "into": 769,
      "gas": 770,
      "##fully": 771,
      "br": 772,
      "wr": 773,
      "##ward": 774,
      "last": 775,
      "ret": 776,
      "before": 777,
      "far": 778,
      "##te": 779,
      "bor": 780,
      "fr": 781,
      "plan": 782,
      "hear": 783,
      "energy": 784,
      "again": 785,
      "##reci": 786,
      "cal": 787,
      "supercharg": 788,
      "##ix": 789,
      "months": 790,
      "##ell": 791,
      "##ert": 792,
      "seem": 793,
      "speed": 794,
      "##az": 795,
      "##form": 796,
      "through": 797,
      "hy": 798,
      "video": 799,
      "boost": 800,
      "small": 801,
      "techn": 802,
      "change": 803,
      "human": 804,
      "cur": 805,
      "count": 806,
      "looks": 807,
      "cent": 808,
      "tunn": 809,
      "##let": 810,
      "str": 811,
      "exce": 812,
      "life": 813,
      "veh": 814,
      "gener": 815,
      "rele": 816,
      "article": 817,
      "cle": 818,
      "sn": 819,
      "take": 820,
      "##thing": 821,
      "doing": 822,
      "driving": 823,
      "bel": 824,
      "sign": 825,
      "##ition": 826,
      "##lem": 827,
      "problem": 828,
      "fair": 829,
      "appreci": 830,
      "important": 831,
      "days": 832,
      "##iles": 833,
      "met": 834,
      "vers": 835,
      "always": 836,
      "awes": 837,
      "public": 838,
      "sec": 839,
      "hopefully": 840,
      "low": 841,
      "less": 842,
      "around": 843,
      "ship": 844,
      "max": 845,
      "upd": 846,
      "saf": 847,
      "leg": 848,
      "battery": 849,
      "##init": 850,
      "##atch": 851,
      "inv": 852,
      "##initely": 853,
      "##ero": 854,
      "##ety": 855,
      "definitely": 856,
      "cor": 857,
      "es": 858,
      "##iting": 859,
      "red": 860,
      "fo": 861,
      "awesome": 862,
      "par": 863,
      "mot": 864,
      "amaz": 865,
      "boring": 866,
      "appro": 867,
      "youre": 868,
      "alread": 869,
      "already": 870,
      "ap": 871,
      "##mm": 872,
      "##eship": 873,
      "star": 874,
      "tax": 875,
      "pret": 876,
      "contro": 877,
      "poss": 878,
      "##ability": 879,
      "val": 880,
      "sur": 881,
      "interest": 882,
      "bl": 883,
      "ann": 884,
      "enough": 885,
      "complet": 886,
      "open": 887,
      "ai": 888,
      "pay": 889,
      "ra": 890,
      "##ame": 891,
      "makes": 892,
      "lea": 893,
      "little": 894,
      "tal": 895,
      "##mit": 896,
      "##gg": 897,
      "exc": 898,
      "##ific": 899,
      "av": 900,
      "ple": 901,
      "term": 902,
      "##ath": 903,
      "amazing": 904,
      "hour": 905,
      "man": 906,
      "med": 907,
      "nor": 908,
      "serv": 909,
      "please": 910,
      "station": 911,
      "##ets": 912,
      "upgr": 913,
      "due": 914,
      "##mor": 915,
      "roll": 916,
      "##olo": 917,
      "##ress": 918,
      "where": 919,
      "safety": 920,
      "his": 921,
      "##ied": 922,
      "##cy": 923,
      "review": 924,
      "mer": 925,
      "pass": 926,
      "worth": 927,
      "extre": 928,
      "kid": 929,
      "order": 930,
      "post": 931,
      "sk": 932,
      "deliver": 933,
      "pretty": 934,
      "both": 935,
      "gig": 936,
      "sw": 937,
      "ste": 938,
      "range": 939,
      "bas": 940,
      "eff": 941,
      "##ts": 942,
      "allow": 943,
      "level": 944,
      "later": 945,
      "person": 946,
      "##ese": 947,
      "tra": 948,
      "product": 949,
      "##ude": 950,
      "incre": 951,
      "obv": 952,
      "##ak": 953,
      "turn": 954,
      "look": 955,
      "fire": 956,
      "##ather": 957,
      "fix": 958,
      "##oney": 959,
      "engines": 960,
      "crit": 961,
      "free": 962,
      "##ution": 963,
      "stop": 964,
      "dec": 965,
      "two": 966,
      "things": 967,
      "##ank": 968,
      "stage": 969,
      "che": 970,
      "ke": 971,
      "##uck": 972,
      "inst": 973,
      "maj": 974,
      "said": 975,
      "version": 976,
      "might": 977,
      "miles": 978,
      "##ature": 979,
      "hold": 980,
      "sor": 981,
      "##cial": 982,
      "auto": 983,
      "matter": 984,
      "live": 985,
      "blo": 986,
      "##tw": 987,
      "##ason": 988,
      "##ently": 989,
      "##ane": 990,
      "major": 991,
      "dire": 992,
      "must": 993,
      "rem": 994,
      "control": 995,
      "side": 996,
      "tomor": 997,
      "several": 998,
      "head": 999,
      "mission": 1000,
      "tomorrow": 1001,
      "creat": 1002,
      "det": 1003,
      "ris": 1004,
      "sim": 1005,
      "##come": 1006,
      "happen": 1007,
      "bra": 1008,
      "weeks": 1009,
      "##kely": 1010,
      "##ause": 1011,
      "##ina": 1012,
      "never": 1013,
      "giga": 1014,
      "dem": 1015,
      "engineering": 1016,
      "booster": 1017,
      "got": 1018,
      "##ash": 1019,
      "##iforn": 1020,
      "californ": 1021,
      "curr": 1022,
      "vs": 1023,
      "##fact": 1024,
      "because": 1025,
      "pressure": 1026,
      "water": 1027,
      "sun": 1028,
      "sorry": 1029,
      "california": 1030,
      "##ily": 1031,
      "##ces": 1032,
      "money": 1033,
      "night": 1034,
      "##ond": 1035,
      "needs": 1036,
      "pack": 1037,
      "war": 1038,
      "##ble": 1039,
      "##ates": 1040,
      "differ": 1041,
      "called": 1042,
      "rapt": 1043,
      "release": 1044,
      "service": 1045,
      "##load": 1046,
      "##ieve": 1047,
      "self": 1048,
      "##alf": 1049,
      "without": 1050,
      "vehicle": 1051,
      "oper": 1052,
      "##ster": 1053,
      "while": 1054,
      "moon": 1055,
      "mach": 1056,
      "sate": 1057,
      "##ian": 1058,
      "deal": 1059,
      "##imate": 1060,
      "buy": 1061,
      "perform": 1062,
      "satell": 1063,
      "##red": 1064,
      "##ents": 1065,
      "tunnel": 1066,
      "cour": 1067,
      "times": 1068,
      "play": 1069,
      "eas": 1070,
      "ent": 1071,
      "using": 1072,
      "clear": 1073,
      "cy": 1074,
      "wind": 1075,
      "##ds": 1076,
      "##less": 1077,
      "possible": 1078,
      "##imp": 1079,
      "china": 1080,
      "early": 1081,
      "against": 1082,
      "let": 1083,
      "vol": 1084,
      "##wh": 1085,
      "ref": 1086,
      "factory": 1087,
      "fly": 1088,
      "fla": 1089,
      "cape": 1090,
      "update": 1091,
      "bad": 1092,
      "top": 1093,
      "iss": 1094,
      "##ody": 1095,
      "making": 1096,
      "comput": 1097,
      "btw": 1098,
      "via": 1099,
      "##ning": 1100,
      "##ict": 1101,
      "deep": 1102,
      "compet": 1103,
      "set": 1104,
      "looking": 1105,
      "mins": 1106,
      "##illion": 1107,
      "anything": 1108,
      "hand": 1109,
      "vis": 1110,
      "##arge": 1111,
      "unt": 1112,
      "incl": 1113,
      "interesting": 1114,
      "performance": 1115,
      "##ier": 1116,
      "congr": 1117,
      "thought": 1118,
      "sounds": 1119,
      "ac": 1120,
      "cust": 1121,
      "giv": 1122,
      "these": 1123,
      "higher": 1124,
      "invest": 1125,
      "##ject": 1126,
      "##mpt": 1127,
      "goes": 1128,
      "used": 1129,
      "supercharger": 1130,
      "custom": 1131,
      "cre": 1132,
      "vac": 1133,
      "wel": 1134,
      "##lin": 1135,
      "quest": 1136,
      "kids": 1137,
      "##co": 1138,
      "light": 1139,
      "sing": 1140,
      "fav": 1141,
      "announ": 1142,
      "sal": 1143,
      "##ired": 1144,
      "loc": 1145,
      "idea": 1146,
      "##ugh": 1147,
      "##ss": 1148,
      "##gen": 1149,
      "##other": 1150,
      "yet": 1151,
      "##ok": 1152,
      "rear": 1153,
      "abs": 1154,
      "news": 1155,
      "tex": 1156,
      "bit": 1157,
      "##loy": 1158,
      "##ctions": 1159,
      "nothing": 1160,
      "media": 1161,
      "risk": 1162,
      "texas": 1163,
      "cant": 1164,
      "##of": 1165,
      "cover": 1166,
      "likely": 1167,
      "##ists": 1168,
      "center": 1169,
      "corre": 1170,
      "##ology": 1171,
      "##aut": 1172,
      "##veil": 1173,
      "unveil": 1174,
      "orbital": 1175,
      "extrem": 1176,
      "simp": 1177,
      "##anced": 1178,
      "##ilt": 1179,
      "##iming": 1180,
      "regul": 1181,
      "hours": 1182,
      "rest": 1183,
      "sci": 1184,
      "ton": 1185,
      "##lan": 1186,
      "limit": 1187,
      "##omm": 1188,
      "owners": 1189,
      "##ever": 1190,
      "##ative": 1191,
      "here": 1192,
      "num": 1193,
      "wow": 1194,
      "feel": 1195,
      "found": 1196,
      "##ium": 1197,
      "##sd": 1198,
      "##uring": 1199,
      "exper": 1200,
      "att": 1201,
      "intern": 1202,
      "##velop": 1203,
      "cam": 1204,
      "ago": 1205,
      "twe": 1206,
      "doesnt": 1207,
      "happy": 1208,
      "check": 1209,
      "direct": 1210,
      "dat": 1211,
      "spac": 1212,
      "care": 1213,
      "##ized": 1214,
      "fsd": 1215,
      "net": 1216,
      "view": 1217,
      "zero": 1218,
      "##gn": 1219,
      "raptor": 1220,
      "em": 1221,
      "##iant": 1222,
      "##ator": 1223,
      "##ational": 1224,
      "##ending": 1225,
      "fully": 1226,
      "course": 1227,
      "aff": 1228,
      "##we": 1229,
      "diff": 1230,
      "ach": 1231,
      "put": 1232,
      "reus": 1233,
      "secon": 1234,
      "##orts": 1235,
      "building": 1236,
      "bar": 1237,
      "half": 1238,
      "##io": 1239,
      "pie": 1240,
      "rad": 1241,
      "wa": 1242,
      "##ock": 1243,
      "return": 1244,
      "mph": 1245,
      "form": 1246,
      "##ention": 1247,
      "##uss": 1248,
      "getting": 1249,
      "technology": 1250,
      "until": 1251,
      "kind": 1252,
      "ny": 1253,
      "##pper": 1254,
      "motor": 1255,
      "lat": 1256,
      "three": 1257,
      "##anies": 1258,
      "prov": 1259,
      "ask": 1260,
      "chang": 1261,
      "companies": 1262,
      "temp": 1263,
      "recomm": 1264,
      "close": 1265,
      "extremely": 1266,
      "recommend": 1267,
      "eu": 1268,
      "mark": 1269,
      "##cess": 1270,
      "##bs": 1271,
      "prop": 1272,
      "const": 1273,
      "##ertain": 1274,
      "seems": 1275,
      "detail": 1276,
      "lower": 1277,
      "ox": 1278,
      "sense": 1279,
      "testing": 1280,
      "others": 1281,
      "phys": 1282,
      "trying": 1283,
      "welcome": 1284,
      "##ten": 1285,
      "##gra": 1286,
      "track": 1287,
      "pres": 1288,
      "prior": 1289,
      "bro": 1290,
      "##ues": 1291,
      "##eric": 1292,
      "anyone": 1293,
      "move": 1294,
      "climate": 1295,
      "iron": 1296,
      "##cra": 1297,
      "summ": 1298,
      "##ected": 1299,
      "announce": 1300,
      "data": 1301,
      "won": 1302,
      "develop": 1303,
      "autom": 1304,
      "beta": 1305,
      "##ourn": 1306,
      "non": 1307,
      "##ger": 1308,
      "##inal": 1309,
      "inf": 1310,
      "##icles": 1311,
      "##lad": 1312,
      "size": 1313,
      "##ately": 1314,
      "##ures": 1315,
      "##ural": 1316,
      "americ": 1317,
      "fund": 1318,
      "obvious": 1319,
      "##ency": 1320,
      "slight": 1321,
      "clos": 1322,
      "least": 1323,
      "cra": 1324,
      "##ai": 1325,
      "##zy": 1326,
      "##itive": 1327,
      "reason": 1328,
      "thank": 1329,
      "cred": 1330,
      "deploy": 1331,
      "rate": 1332,
      "##ume": 1333,
      "##oud": 1334,
      "wrong": 1335,
      "gra": 1336,
      "twit": 1337,
      "camer": 1338,
      "##he": 1339,
      "##wer": 1340,
      "whe": 1341,
      "mean": 1342,
      "hardware": 1343,
      "accel": 1344,
      "favor": 1345,
      "case": 1346,
      "find": 1347,
      "##ho": 1348,
      "##ern": 1349,
      "stud": 1350,
      "##ider": 1351,
      "##med": 1352,
      "##its": 1353,
      "truck": 1354,
      "resp": 1355,
      "liter": 1356,
      "humanity": 1357,
      "##craft": 1358,
      "journ": 1359,
      "upper": 1360,
      "##stain": 1361,
      "another": 1362,
      "come": 1363,
      "sustain": 1364,
      "##iel": 1365,
      "##atic": 1366,
      "##ouse": 1367,
      "##itch": 1368,
      "##ote": 1369,
      "sell": 1370,
      "price": 1371,
      "advanced": 1372,
      "value": 1373,
      "body": 1374,
      "name": 1375,
      "##ale": 1376,
      "##lex": 1377,
      "##cially": 1378,
      "critical": 1379,
      "certain": 1380,
      "yup": 1381,
      "death": 1382,
      "roof": 1383,
      "means": 1384,
      "mult": 1385,
      "tot": 1386,
      "forward": 1387,
      "near": 1388,
      "rockets": 1389,
      "away": 1390,
      "single": 1391,
      "option": 1392,
      "aiming": 1393,
      "hot": 1394,
      "##ying": 1395,
      "##port": 1396,
      "##val": 1397,
      "sales": 1398,
      "fri": 1399,
      "##ities": 1400,
      "gov": 1401,
      "dro": 1402,
      "gt": 1403,
      "home": 1404,
      "targ": 1405,
      "##reen": 1406,
      "##ases": 1407,
      "built": 1408,
      "repl": 1409,
      "keep": 1410,
      "spaceship": 1411,
      "crazy": 1412,
      "twitter": 1413,
      "##ven": 1414,
      "##eng": 1415,
      "##ality": 1416,
      "##ential": 1417,
      "##ires": 1418,
      "front": 1419,
      "acceler": 1420,
      "km": 1421,
      "sin": 1422,
      "##ness": 1423,
      "##bal": 1424,
      "##ites": 1425,
      "stand": 1426,
      "goal": 1427,
      "meant": 1428,
      "hyper": 1429,
      "believe": 1430,
      "appreciated": 1431,
      "##ield": 1432,
      "target": 1433,
      "equ": 1434,
      "place": 1435,
      "euro": 1436,
      "pod": 1437,
      "wish": 1438,
      "##ulation": 1439,
      "literally": 1440,
      "bring": 1441,
      "dron": 1442,
      "her": 1443,
      "##llow": 1444,
      "##ising": 1445,
      "able": 1446,
      "mostly": 1447,
      "roadster": 1448,
      "dou": 1449,
      "old": 1450,
      "##averal": 1451,
      "##dit": 1452,
      "having": 1453,
      "canaveral": 1454,
      "upgrad": 1455,
      "second": 1456,
      "base": 1457,
      "fu": 1458,
      "nice": 1459,
      "pol": 1460,
      "law": 1461,
      "mode": 1462,
      "agree": 1463,
      "question": 1464,
      "correct": 1465,
      "tons": 1466,
      "ul": 1467,
      "##av": 1468,
      "##line": 1469,
      "##over": 1470,
      "col": 1471,
      "##ither": 1472,
      "##und": 1473,
      "##ames": 1474,
      "betwe": 1475,
      "##ively": 1476,
      "longer": 1477,
      "ground": 1478,
      "general": 1479,
      "piece": 1480,
      "between": 1481,
      "100": 1482,
      "dist": 1483,
      "##ident": 1484,
      "##olut": 1485,
      "comb": 1486,
      "someone": 1487,
      "##pecially": 1488,
      "prim": 1489,
      "especially": 1490,
      "govt": 1491,
      "sch": 1492,
      "coll": 1493,
      "stor": 1494,
      "false": 1495,
      "##ffic": 1496,
      "imo": 1497,
      "optim": 1498,
      "fairing": 1499,
      "talk": 1500,
      "market": 1501,
      "droneship": 1502,
      "watch": 1503,
      "##itude": 1504,
      "force": 1505,
      "##loop": 1506,
      "cause": 1507,
      "disc": 1508,
      "easy": 1509,
      "hyperloop": 1510,
      "gl": 1511,
      "##ially": 1512,
      "##aw": 1513,
      "reach": 1514,
      "succ": 1515,
      "parts": 1516,
      "slow": 1517,
      "volume": 1518,
      "success": 1519,
      "bre": 1520,
      "glad": 1521,
      "house": 1522,
      "##down": 1523,
      "##ove": 1524,
      "##icult": 1525,
      "heat": 1526,
      "contin": 1527,
      "consider": 1528,
      "saying": 1529,
      "difficult": 1530,
      "slightly": 1531,
      "city": 1532,
      "fine": 1533,
      "##ps": 1534,
      "works": 1535,
      "##ulations": 1536,
      "##ush": 1537,
      "##gress": 1538,
      "current": 1539,
      "##hop": 1540,
      "##ient": 1541,
      "stock": 1542,
      "everyone": 1543,
      "##ism": 1544,
      "record": 1545,
      "doesn": 1546,
      "announcement": 1547,
      "wont": 1548,
      "##mb": 1549,
      "prot": 1550,
      "complex": 1551,
      "##bert": 1552,
      "didnt": 1553,
      "subs": 1554,
      "upgrade": 1555,
      "since": 1556,
      "ult": 1557,
      "give": 1558,
      "giant": 1559,
      "story": 1560,
      "sugg": 1561,
      "excell": 1562,
      "europe": 1563,
      "suggest": 1564,
      "el": 1565,
      "##ling": 1566,
      "##reed": 1567,
      "##ream": 1568,
      "atte": 1569,
      "didn": 1570,
      "absolut": 1571,
      "##lanet": 1572,
      "pic": 1573,
      "run": 1574,
      "tough": 1575,
      "##ether": 1576,
      "##ters": 1577,
      "regulat": 1578,
      "friend": 1579,
      "burn": 1580,
      "hist": 1581,
      "pa": 1582,
      "##ience": 1583,
      "##link": 1584,
      "##bo": 1585,
      "##entry": 1586,
      "exist": 1587,
      "chance": 1588,
      "main": 1589,
      "heard": 1590,
      "10": 1591,
      "larg": 1592,
      "vel": 1593,
      "##ral": 1594,
      "##ygen": 1595,
      "##ork": 1596,
      "##ital": 1597,
      "##eter": 1598,
      "##ross": 1599,
      "above": 1600,
      "##ought": 1601,
      "taking": 1602,
      "took": 1603,
      "spec": 1604,
      "starlink": 1605,
      "oxygen": 1606,
      "dam": 1607,
      "ge": 1608,
      "win": 1609,
      "thin": 1610,
      "init": 1611,
      "##asing": 1612,
      "progress": 1613,
      "she": 1614,
      "feed": 1615,
      "rapid": 1616,
      "effect": 1617,
      "wheel": 1618,
      "hu": 1619,
      "hor": 1620,
      "##que": 1621,
      "lift": 1622,
      "note": 1623,
      "log": 1624,
      "serious": 1625,
      "exciting": 1626,
      "reusable": 1627,
      "30": 1628,
      "ast": 1629,
      "ft": 1630,
      "pain": 1631,
      "sens": 1632,
      "##ta": 1633,
      "##stand": 1634,
      "ans": 1635,
      "beaut": 1636,
      "state": 1637,
      "hell": 1638,
      "actual": 1639,
      "improvements": 1640,
      "computer": 1641,
      "physics": 1642,
      "##icul": 1643,
      "area": 1644,
      "deb": 1645,
      "impact": 1646,
      "takes": 1647,
      "follow": 1648,
      "veloc": 1649,
      "mid": 1650,
      "##ract": 1651,
      "##atically": 1652,
      "coast": 1653,
      "rob": 1654,
      "load": 1655,
      "conc": 1656,
      "plus": 1657,
      "##oss": 1658,
      "left": 1659,
      "prec": 1660,
      "whole": 1661,
      "payload": 1662,
      "given": 1663,
      "excellent": 1664,
      "line": 1665,
      "pad": 1666,
      "##uly": 1667,
      "##light": 1668,
      "##ute": 1669,
      "##ization": 1670,
      "##ibly": 1671,
      "multip": 1672,
      "glo": 1673,
      "mar": 1674,
      "##cing": 1675,
      "##bon": 1676,
      "##ices": 1677,
      "mov": 1678,
      "##where": 1679,
      "sustainable": 1680,
      "velocity": 1681,
      "cry": 1682,
      "fil": 1683,
      "##yn": 1684,
      "##mi": 1685,
      "##ming": 1686,
      "##ene": 1687,
      "bey": 1688,
      "trip": 1689,
      "number": 1690,
      "tweet": 1691,
      "##hopper": 1692,
      "##lanetary": 1693,
      "##ken": 1694,
      "##ption": 1695,
      "however": 1696,
      "thrusters": 1697,
      "legs": 1698,
      "gigafact": 1699,
      "either": 1700,
      "mom": 1701,
      "pan": 1702,
      "##city": 1703,
      "##rac": 1704,
      "##oid": 1705,
      "##ined": 1706,
      "prope": 1707,
      "##eak": 1708,
      "fail": 1709,
      "complete": 1710,
      "remain": 1711,
      "satellites": 1712,
      "propell": 1713,
      "cell": 1714,
      "mis": 1715,
      "##eed": 1716,
      "weather": 1717,
      "such": 1718,
      "charge": 1719,
      "consum": 1720,
      "fixed": 1721,
      "beyond": 1722,
      "fle": 1723,
      "carbon": 1724,
      "amount": 1725,
      "incred": 1726,
      "solarcity": 1727,
      "strong": 1728,
      "ramp": 1729,
      "block": 1730,
      "fuel": 1731,
      "attempt": 1732,
      "absolutely": 1733,
      "gigafactory": 1734,
      "each": 1735,
      "##ey": 1736,
      "##uum": 1737,
      "##ada": 1738,
      "##oming": 1739,
      "##conom": 1740,
      "weekend": 1741,
      "travel": 1742,
      "matters": 1743,
      "vacuum": 1744,
      "tonight": 1745,
      "dest": 1746,
      "emp": 1747,
      "econom": 1748,
      "##par": 1749,
      "##eres": 1750,
      "room": 1751,
      "reality": 1752,
      "designed": 1753,
      "owner": 1754,
      "ready": 1755,
      "faster": 1756,
      "increase": 1757,
      "difference": 1758,
      "congrat": 1759,
      "di": 1760,
      "games": 1761,
      "went": 1762,
      "once": 1763,
      "reentry": 1764,
      "white": 1765,
      "meet": 1766,
      "result": 1767,
      "smo": 1768,
      "final": 1769,
      "confir": 1770,
      "country": 1771,
      "steel": 1772,
      "traffic": 1773,
      "satellite": 1774,
      "credit": 1775,
      "dr": 1776,
      "game": 1777,
      "##ug": 1778,
      "##wall": 1779,
      "trick": 1780,
      "systems": 1781,
      "signific": 1782,
      "black": 1783,
      "limited": 1784,
      "propellant": 1785,
      "significant": 1786,
      "date": 1787,
      "pur": 1788,
      "russ": 1789,
      "##las": 1790,
      "##ited": 1791,
      "progra": 1792,
      "liqu": 1793,
      "ass": 1794,
      "arg": 1795,
      "itself": 1796,
      "event": 1797,
      "lead": 1798,
      "flow": 1799,
      "function": 1800,
      "entire": 1801,
      "latest": 1802,
      "mile": 1803,
      "##bc": 1804,
      "##back": 1805,
      "##vent": 1806,
      "##mos": 1807,
      "##ision": 1808,
      "neural": 1809,
      "ali": 1810,
      "batteries": 1811,
      "huge": 1812,
      "movie": 1813,
      "bab": 1814,
      "da": 1815,
      "east": 1816,
      "oh": 1817,
      "##fort": 1818,
      "##gin": 1819,
      "alth": 1820,
      "issue": 1821,
      "achie": 1822,
      "radar": 1823,
      "answer": 1824,
      "liquid": 1825,
      "action": 1826,
      "civ": 1827,
      "dual": 1828,
      "hon": 1829,
      "pm": 1830,
      "##just": 1831,
      "##ms": 1832,
      "neg": 1833,
      "unless": 1834,
      "feature": 1835,
      "tell": 1836,
      "##ruck": 1837,
      "##wards": 1838,
      "approval": 1839,
      "beautif": 1840,
      "dig": 1841,
      "sigh": 1842,
      "##hrow": 1843,
      "##ump": 1844,
      "##vers": 1845,
      "##ify": 1846,
      "proud": 1847,
      "solution": 1848,
      "everything": 1849,
      "##methrow": 1850,
      "address": 1851,
      "costs": 1852,
      "machine": 1853,
      "flamethrow": 1854,
      "details": 1855,
      "history": 1856,
      "congratulations": 1857,
      "during": 1858,
      "late": 1859,
      "mention": 1860,
      "pot": 1861,
      "pure": 1862,
      "rough": 1863,
      "##put": 1864,
      "rece": 1865,
      "##ird": 1866,
      "butt": 1867,
      "atmos": 1868,
      "orig": 1869,
      "cham": 1870,
      "##rib": 1871,
      "safe": 1872,
      "moving": 1873,
      "repa": 1874,
      "ice": 1875,
      "sour": 1876,
      "tur": 1877,
      "##li": 1878,
      "##iny": 1879,
      "ang": 1880,
      "##irc": 1881,
      "theyre": 1882,
      "##ives": 1883,
      "##ension": 1884,
      "series": 1885,
      "finish": 1886,
      "reading": 1887,
      "appreciate": 1888,
      "issues": 1889,
      "break": 1890,
      "foc": 1891,
      "pick": 1892,
      "sent": 1893,
      "tank": 1894,
      "##de": 1895,
      "ant": 1896,
      "##ots": 1897,
      "transport": 1898,
      "tunnels": 1899,
      "based": 1900,
      "hw": 1901,
      "mind": 1902,
      "##sp": 1903,
      "probability": 1904,
      "special": 1905,
      "phone": 1906,
      "factor": 1907,
      "creating": 1908,
      "local": 1909,
      "fleet": 1910,
      "beautiful": 1911,
      "focus": 1912,
      "##person": 1913,
      "##oice": 1914,
      "##jur": 1915,
      "##face": 1916,
      "##wise": 1917,
      "##ings": 1918,
      "dock": 1919,
      "semi": 1920,
      "auton": 1921,
      "job": 1922,
      "customers": 1923,
      "science": 1924,
      "certainly": 1925,
      "##personic": 1926,
      "mount": 1927,
      "ut": 1928,
      "uaw": 1929,
      "##ake": 1930,
      "##view": 1931,
      "theres": 1932,
      "injur": 1933,
      "isn": 1934,
      "##pping": 1935,
      "alt": 1936,
      "##aps": 1937,
      "arri": 1938,
      "adjust": 1939,
      "access": 1940,
      "north": 1941,
      "basically": 1942,
      "civil": 1943,
      "chamber": 1944,
      "aust": 1945,
      "lin": 1946,
      "million": 1947,
      "od": 1948,
      "rid": 1949,
      "ride": 1950,
      "sat": 1951,
      "##ler": 1952,
      "##og": 1953,
      "##vert": 1954,
      "lost": 1955,
      "##asshopper": 1956,
      "gets": 1957,
      "grasshopper": 1958,
      "caus": 1959,
      "adding": 1960,
      "norway": 1961,
      "install": 1962,
      "congrats": 1963,
      "priority": 1964,
      "grav": 1965,
      "ir": 1966,
      "online": 1967,
      "agreed": 1968,
      "perf": 1969,
      "quite": 1970,
      "required": 1971,
      "vehicles": 1972,
      "cat": 1973,
      "flo": 1974,
      "ive": 1975,
      "large": 1976,
      "ur": 1977,
      "##ior": 1978,
      "##ufact": 1979,
      "##atures": 1980,
      "##acing": 1981,
      "static": 1982,
      "##urs": 1983,
      "list": 1984,
      "dead": 1985,
      "manufact": 1986,
      "merlin": 1987,
      "changes": 1988,
      "irony": 1989,
      "total": 1990,
      "jud": 1991,
      "mus": 1992,
      "##ders": 1993,
      "##urate": 1994,
      "within": 1995,
      "char": 1996,
      "abort": 1997,
      "firing": 1998,
      "incent": 1999,
      "expect": 2000,
      "party": 2001,
      "smart": 2002,
      "grid": 2003,
      "fins": 2004,
      "hyd": 2005,
      "scient": 2006,
      "kinda": 2007,
      "although": 2008,
      "core": 2009,
      "f9": 2010,
      "fall": 2011,
      "four": 2012,
      "him": 2013,
      "morn": 2014,
      "pop": 2015,
      "##led": 2016,
      "spacecraft": 2017,
      "usually": 2018,
      "launches": 2019,
      "particul": 2020,
      "report": 2021,
      "##ruct": 2022,
      "turns": 2023,
      "crew": 2024,
      "##hold": 2025,
      "global": 2026,
      "autonom": 2027,
      "morning": 2028,
      "dark": 2029,
      "wide": 2030,
      "##ik": 2031,
      "##side": 2032,
      "anal": 2033,
      "cold": 2034,
      "##unk": 2035,
      "highly": 2036,
      "pred": 2037,
      "book": 2038,
      "positive": 2039,
      "require": 2040,
      "config": 2041,
      "exceed": 2042,
      "metal": 2043,
      "wait": 2044,
      "standard": 2045,
      "perfect": 2046,
      "tiny": 2047,
      "##ov": 2048,
      "isnt": 2049,
      "ens": 2050,
      "conn": 2051,
      "##ries": 2052,
      "feels": 2053,
      "desc": 2054,
      "powerwall": 2055,
      "useful": 2056,
      "indust": 2057,
      "redu": 2058,
      "avai": 2059,
      "investig": 2060,
      "provid": 2061,
      "##ength": 2062,
      "availa": 2063,
      "nav": 2064,
      "past": 2065,
      "sil": 2066,
      "co2": 2067,
      "##iday": 2068,
      "hoping": 2069,
      "understand": 2070,
      "request": 2071,
      "requires": 2072,
      "completed": 2073,
      "delivery": 2074,
      "cybert": 2075,
      "attack": 2076,
      "regulatory": 2077,
      "cybertruck": 2078,
      "dens": 2079,
      "fig": 2080,
      "kill": 2081,
      "lear": 2082,
      "##ype": 2083,
      "##pr": 2084,
      "##gest": 2085,
      "##zz": 2086,
      "##arily": 2087,
      "##rote": 2088,
      "code": 2089,
      "doge": 2090,
      "orders": 2091,
      "##istic": 2092,
      "bigger": 2093,
      "scale": 2094,
      "guess": 2095,
      "america": 2096,
      "diam": 2097,
      "repair": 2098,
      "bill": 2099,
      "fra": 2100,
      "hat": 2101,
      "oce": 2102,
      "site": 2103,
      "wrote": 2104,
      "##tical": 2105,
      "touch": 2106,
      "seats": 2107,
      "##izing": 2108,
      "improvement": 2109,
      "currently": 2110,
      "create": 2111,
      "camera": 2112,
      "ign": 2113,
      "##ny": 2114,
      "##lic": 2115,
      "##self": 2116,
      "##fit": 2117,
      "##work": 2118,
      "##ination": 2119,
      "prom": 2120,
      "##une": 2121,
      "charg": 2122,
      "univer": 2123,
      "comes": 2124,
      "clar": 2125,
      "offic": 2126,
      "hover": 2127,
      "clean": 2128,
      "snow": 2129,
      "avoid": 2130,
      "sky": 2131,
      "swap": 2132,
      "affect": 2133,
      "primary": 2134,
      "ocean": 2135,
      "pat": 2136,
      "park": 2137,
      "tu": 2138,
      "##ins": 2139,
      "##outh": 2140,
      "##alth": 2141,
      "offer": 2142,
      "shield": 2143,
      "##oline": 2144,
      "saw": 2145,
      "taken": 2146,
      "otherwise": 2147,
      "screen": 2148,
      "insp": 2149,
      "cyc": 2150,
      "automatically": 2151,
      "glass": 2152,
      "available": 2153,
      "ed": 2154,
      "latter": 2155,
      "##ril": 2156,
      "towards": 2157,
      "##utes": 2158,
      "necess": 2159,
      "share": 2160,
      "##uls": 2161,
      "interview": 2162,
      "seeing": 2163,
      "ide": 2164,
      "april": 2165,
      "operating": 2166,
      "flying": 2167,
      "favorite": 2168,
      "journal": 2169,
      "baby": 2170,
      "industry": 2171,
      "bought": 2172,
      "est": 2173,
      "fre": 2174,
      "song": 2175,
      "v1": 2176,
      "wd": 2177,
      "##ted": 2178,
      "##go": 2179,
      "##ored": 2180,
      "##ici": 2181,
      "##rot": 2182,
      "##acks": 2183,
      "##ape": 2184,
      "##ament": 2185,
      "##ends": 2186,
      "tests": 2187,
      "vertical": 2188,
      "reports": 2189,
      "happens": 2190,
      "points": 2191,
      "missions": 2192,
      "created": 2193,
      "afford": 2194,
      "tracking": 2195,
      "summon": 2196,
      "fundament": 2197,
      "feedback": 2198,
      "60": 2199,
      "ber": 2200,
      "lab": 2201,
      "rd": 2202,
      "vote": 2203,
      "##na": 2204,
      "##anks": 2205,
      "beh": 2206,
      "weight": 2207,
      "loop": 2208,
      "##ules": 2209,
      "account": 2210,
      "superchargers": 2211,
      "rolling": 2212,
      "demand": 2213,
      "includ": 2214,
      "foundation": 2215,
      "propuls": 2216,
      "successful": 2217,
      "roughly": 2218,
      "altitude": 2219,
      "den": 2220,
      "mt": 2221,
      "mill": 2222,
      "mess": 2223,
      "##hn": 2224,
      "##ides": 2225,
      "enable": 2226,
      "comments": 2227,
      "active": 2228,
      "recover": 2229,
      "lots": 2230,
      "pump": 2231,
      "publish": 2232,
      "simple": 2233,
      "subsid": 2234,
      "multiplanetary": 2235,
      "particular": 2236,
      "diameter": 2237,
      "bs": 2238,
      "july": 2239,
      "nam": 2240,
      "opp": 2241,
      "tor": 2242,
      "wal": 2243,
      "##vir": 2244,
      "##ised": 2245,
      "shot": 2246,
      "envir": 2247,
      "chall": 2248,
      "##ounter": 2249,
      "anyway": 2250,
      "worked": 2251,
      "expected": 2252,
      "biggest": 2253,
      "countries": 2254,
      "opening": 2255,
      "sunday": 2256,
      "present": 2257,
      "##head": 2258,
      "paid": 2259,
      "original": 2260,
      "environ": 2261,
      "send": 2262,
      "##amp": 2263,
      "often": 2264,
      "##vern": 2265,
      "govern": 2266,
      "##pped": 2267,
      "##phere": 2268,
      "##ellig": 2269,
      "except": 2270,
      "critic": 2271,
      "network": 2272,
      "achieve": 2273,
      "asked": 2274,
      "cameras": 2275,
      "combust": 2276,
      "seriously": 2277,
      "astron": 2278,
      "ensure": 2279,
      "bot": 2280,
      "cash": 2281,
      "lt": 2282,
      "nu": 2283,
      "py": 2284,
      "pla": 2285,
      "tel": 2286,
      "vast": 2287,
      "##po": 2288,
      "##ret": 2289,
      "##idual": 2290,
      "##ured": 2291,
      "train": 2292,
      "highest": 2293,
      "features": 2294,
      "##ground": 2295,
      "crash": 2296,
      "class": 2297,
      "shows": 2298,
      "commer": 2299,
      "writ": 2300,
      "happened": 2301,
      "customer": 2302,
      "experience": 2303,
      "american": 2304,
      "source": 2305,
      "bus": 2306,
      "har": 2307,
      "hate": 2308,
      "pict": 2309,
      "sit": 2310,
      "var": 2311,
      "##ner": 2312,
      "refer": 2313,
      "susp": 2314,
      "process": 2315,
      "##olution": 2316,
      "##ector": 2317,
      "appear": 2318,
      "##ibility": 2319,
      "accurate": 2320,
      "improved": 2321,
      "articles": 2322,
      "humans": 2323,
      "sometimes": 2324,
      "electricity": 2325,
      "become": 2326,
      "technically": 2327,
      "ess": 2328,
      "blow": 2329,
      "increasing": 2330,
      "different": 2331,
      "include": 2332,
      "across": 2333,
      "program": 2334,
      "flamethrower": 2335,
      "gravity": 2336,
      "bank": 2337,
      "vir": 2338,
      "##vin": 2339,
      "##man": 2340,
      "##ased": 2341,
      "begin": 2342,
      "dev": 2343,
      "seen": 2344,
      "##berg": 2345,
      "flights": 2346,
      "indeed": 2347,
      "massive": 2348,
      "gasoline": 2349,
      "dealers": 2350,
      "continu": 2351,
      "thinking": 2352,
      "initial": 2353,
      "results": 2354,
      "atmosphere": 2355,
      "bi": 2356,
      "bay": 2357,
      "cand": 2358,
      "ga": 2359,
      "##ead": 2360,
      "##ned": 2361,
      "##bers": 2362,
      "##ilar": 2363,
      "tried": 2364,
      "carry": 2365,
      "harder": 2366,
      "planet": 2367,
      "competition": 2368,
      "provide": 2369,
      "obviously": 2370,
      "consumer": 2371,
      "turb": 2372,
      "cut": 2373,
      "god": 2374,
      "##ule": 2375,
      "##ris": 2376,
      "##mber": 2377,
      "##gs": 2378,
      "##ared": 2379,
      "tow": 2380,
      "##roll": 2381,
      "forg": 2382,
      "enter": 2383,
      "word": 2384,
      "union": 2385,
      "nose": 2386,
      "canada": 2387,
      "##ived": 2388,
      "whats": 2389,
      "flu": 2390,
      "powered": 2391,
      "below": 2392,
      "surface": 2393,
      "extreme": 2394,
      "delivered": 2395,
      "closer": 2396,
      "meeting": 2397,
      "commercial": 2398,
      "picture": 2399,
      "25": 2400,
      "egg": 2401,
      "mist": 2402,
      "rain": 2403,
      "##ka": 2404,
      "##ee": 2405,
      "##tc": 2406,
      "##lier": 2407,
      "##arter": 2408,
      "told": 2409,
      "##rel": 2410,
      "##entially": 2411,
      "##idence": 2412,
      "##action": 2413,
      "prices": 2414,
      "contract": 2415,
      "wanted": 2416,
      "##anger": 2417,
      "protot": 2418,
      "music": 2419,
      "torque": 2420,
      "##elligence": 2421,
      "bir": 2422,
      "billion": 2423,
      "catch": 2424,
      "die": 2425,
      "fit": 2426,
      "hit": 2427,
      "las": 2428,
      "south": 2429,
      "vid": 2430,
      "##cent": 2431,
      "##ators": 2432,
      "##uth": 2433,
      "##aced": 2434,
      "stay": 2435,
      "##ading": 2436,
      "deg": 2437,
      "alone": 2438,
      "mag": 2439,
      "##ands": 2440,
      "impress": 2441,
      "##ission": 2442,
      "passed": 2443,
      "internet": 2444,
      "hw2": 2445,
      "density": 2446,
      "combustion": 2447,
      "actions": 2448,
      "dut": 2449,
      "nas": 2450,
      "norm": 2451,
      "rand": 2452,
      "runn": 2453,
      "##haps": 2454,
      "##rw": 2455,
      "##gether": 2456,
      "together": 2457,
      "weve": 2458,
      "lock": 2459,
      "ch4": 2460,
      "##umb": 2461,
      "##usion": 2462,
      "outside": 2463,
      "perhaps": 2464,
      "minor": 2465,
      "##orne": 2466,
      "raise": 2467,
      "similar": 2468,
      "deaths": 2469,
      "rapidly": 2470,
      "navig": 2471,
      "nasa": 2472,
      "vent": 2473,
      "##sel": 2474,
      "##arant": 2475,
      "##aces": 2476,
      "struct": 2477,
      "greater": 2478,
      "demo": 2479,
      "entry": 2480,
      "numbers": 2481,
      "anti": 2482,
      "tube": 2483,
      "named": 2484,
      "##selves": 2485,
      "grow": 2486,
      "hol": 2487,
      "ill": 2488,
      "occ": 2489,
      "tight": 2490,
      "thurs": 2491,
      "##acity": 2492,
      "trend": 2493,
      "asse": 2494,
      "yester": 2495,
      "engineers": 2496,
      "regard": 2497,
      "hearing": 2498,
      "strange": 2499,
      "personally": 2500,
      "respect": 2501,
      "drone": 2502,
      "predict": 2503,
      "jack": 2504,
      "link": 2505,
      "says": 2506,
      "wo": 2507,
      "##mes": 2508,
      "throt": 2509,
      "step": 2510,
      "haw": 2511,
      "door": 2512,
      "##ushing": 2513,
      "arr": 2514,
      "anywhere": 2515,
      "landed": 2516,
      "earlier": 2517,
      "phot": 2518,
      "##rupt": 2519,
      "approx": 2520,
      "simulation": 2521,
      "1000": 2522,
      "discuss": 2523,
      "civilization": 2524,
      "er": 2525,
      "ep": 2526,
      "lay": 2527,
      "pet": 2528,
      "##ne": 2529,
      "##pm": 2530,
      "##ze": 2531,
      "##iness": 2532,
      "##asons": 2533,
      "reasons": 2534,
      "storm": 2535,
      "truth": 2536,
      "##cept": 2537,
      "##unately": 2538,
      "launching": 2539,
      "quality": 2540,
      "shorts": 2541,
      "starting": 2542,
      "guys": 2543,
      "guarant": 2544,
      "commun": 2545,
      "avg": 2546,
      "steering": 2547,
      "instead": 2548,
      "window": 2549,
      "investors": 2550,
      "questions": 2551,
      "##coin": 2552,
      "tweets": 2553,
      "deployed": 2554,
      "totally": 2555,
      "pods": 2556,
      "else": 2557,
      "cow": 2558,
      "mk": 2559,
      "mater": 2560,
      "oil": 2561,
      "squ": 2562,
      "ter": 2563,
      "##ca": 2564,
      "##uff": 2565,
      "sept": 2566,
      "prin": 2567,
      "landings": 2568,
      "##ruction": 2569,
      "##ages": 2570,
      "motors": 2571,
      "vision": 2572,
      "color": 2573,
      "sched": 2574,
      "incredibly": 2575,
      "environment": 2576,
      "situ": 2577,
      "suspension": 2578,
      "running": 2579,
      "yesterday": 2580,
      "material": 2581,
      "hund": 2582,
      "jap": 2583,
      "nd": 2584,
      "sad": 2585,
      "tm": 2586,
      "wed": 2587,
      "##ians": 2588,
      "tho": 2589,
      "##onse": 2590,
      "suck": 2591,
      "spo": 2592,
      "role": 2593,
      "los": 2594,
      "##rist": 2595,
      "unfort": 2596,
      "height": 2597,
      "intense": 2598,
      "underway": 2599,
      "indiv": 2600,
      "depends": 2601,
      "versions": 2602,
      "surpr": 2603,
      "effici": 2604,
      "braking": 2605,
      "visit": 2606,
      "internal": 2607,
      "response": 2608,
      "upgrades": 2609,
      "distance": 2610,
      "cryo": 2611,
      "tricky": 2612,
      "birth": 2613,
      "hundred": 2614,
      "japan": 2615,
      "unfortunately": 2616,
      "aero": 2617,
      "counter": 2618,
      "fam": 2619,
      "green": 2620,
      "national": 2621,
      "rules": 2622,
      "##core": 2623,
      "##coming": 2624,
      "##erv": 2625,
      "social": 2626,
      "stream": 2627,
      "##thorne": 2628,
      "magn": 2629,
      "unli": 2630,
      "health": 2631,
      "apply": 2632,
      "desp": 2633,
      "##ensive": 2634,
      "delta": 2635,
      "supporting": 2636,
      "talent": 2637,
      "blog": 2638,
      "letter": 2639,
      "double": 2640,
      "aliens": 2641,
      "scientists": 2642,
      "universe": 2643,
      "berlin": 2644,
      "normal": 2645,
      "hawthorne": 2646,
      "20": 2647,
      "50": 2648,
      "circ": 2649,
      "fan": 2650,
      "hi": 2651,
      "port": 2652,
      "ten": 2653,
      "##cape": 2654,
      "inform": 2655,
      "stra": 2656,
      "##ode": 2657,
      "spl": 2658,
      "sequ": 2659,
      "separ": 2660,
      "##antic": 2661,
      "prevent": 2662,
      "expla": 2663,
      "realize": 2664,
      "capacity": 2665,
      "thruster": 2666,
      "##ysis": 2667,
      "insane": 2668,
      "apo": 2669,
      "holding": 2670,
      "dealer": 2671,
      "simply": 2672,
      "nyt": 2673,
      "##mbly": 2674,
      "horse": 2675,
      "received": 2676,
      "odd": 2677,
      "lic": 2678,
      "lond": 2679,
      "mart": 2680,
      "push": 2681,
      "sf": 2682,
      "tx": 2683,
      "##eing": 2684,
      "##oy": 2685,
      "##atively": 2686,
      "##ica": 2687,
      "##ther": 2688,
      "spend": 2689,
      "enab": 2690,
      "mech": 2691,
      "cann": 2692,
      "##los": 2693,
      "activ": 2694,
      "boca": 2695,
      "mob": 2696,
      "immed": 2697,
      "extend": 2698,
      "object": 2699,
      "inside": 2700,
      "guy": 2701,
      "approach": 2702,
      "##olog": 2703,
      "turned": 2704,
      "setting": 2705,
      "##auts": 2706,
      "infl": 2707,
      "larger": 2708,
      "manufacturing": 2709,
      "analysis": 2710,
      "##zzle": 2711,
      "particularly": 2712,
      "tmrw": 2713,
      "london": 2714,
      "immedi": 2715,
      "page": 2716,
      "tap": 2717,
      "um": 2718,
      "##ked": 2719,
      "##res": 2720,
      "##oup": 2721,
      "wasn": 2722,
      "##ously": 2723,
      "thru": 2724,
      "prem": 2725,
      "hardcore": 2726,
      "veg": 2727,
      "started": 2728,
      "##aged": 2729,
      "subject": 2730,
      "products": 2731,
      "buying": 2732,
      "ultra": 2733,
      "concern": 2734,
      "argu": 2735,
      "easter": 2736,
      "negative": 2737,
      "##ogle": 2738,
      "sharehold": 2739,
      "including": 2740,
      "criticism": 2741,
      "despite": 2742,
      "edit": 2743,
      "marg": 2744,
      "pushing": 2745,
      "tit": 2746,
      "##mas": 2747,
      "##ony": 2748,
      "google": 2749,
      "solve": 2750,
      "deser": 2751,
      "incor": 2752,
      "interior": 2753,
      "expend": 2754,
      "starts": 2755,
      "heart": 2756,
      "smaller": 2757,
      "parking": 2758,
      "taxes": 2759,
      "surv": 2760,
      "headed": 2761,
      "winds": 2762,
      "directly": 2763,
      "acceleration": 2764,
      "upgraded": 2765,
      "paint": 2766,
      "confirmed": 2767,
      "provided": 2768,
      "affordable": 2769,
      "fundamental": 2770,
      "challeng": 2771,
      "written": 2772,
      "bankrupt": 2773,
      "efficiency": 2774,
      "cases": 2775,
      "gear": 2776,
      "rail": 2777,
      "son": 2778,
      "sea": 2779,
      "##hor": 2780,
      "##rs": 2781,
      "##ano": 2782,
      "isp": 2783,
      "webc": 2784,
      "##tern": 2785,
      "project": 2786,
      "meas": 2787,
      "hex": 2788,
      "##ective": 2789,
      "advert": 2790,
      "driver": 2791,
      "quarter": 2792,
      "aircraft": 2793,
      "india": 2794,
      "john": 2795,
      "options": 2796,
      "retro": 2797,
      "key": 2798,
      "##graph": 2799,
      "laws": 2800,
      "stores": 2801,
      "considered": 2802,
      "damn": 2803,
      "filter": 2804,
      "potential": 2805,
      "button": 2806,
      "utility": 2807,
      "cannot": 2808,
      "webcast": 2809,
      "age": 2810,
      "cla": 2811,
      "danger": 2812,
      "fight": 2813,
      "hang": 2814,
      "rat": 2815,
      "rating": 2816,
      "wom": 2817,
      "##ec": 2818,
      "##yp": 2819,
      "##att": 2820,
      "store": 2821,
      "teslas": 2822,
      "##ope": 2823,
      "shut": 2824,
      "##key": 2825,
      "map": 2826,
      "imposs": 2827,
      "output": 2828,
      "plant": 2829,
      "superd": 2830,
      "sooner": 2831,
      "accord": 2832,
      "supply": 2833,
      "camp": 2834,
      "came": 2835,
      "transfer": 2836,
      "valid": 2837,
      "stopp": 2838,
      "competit": 2839,
      "##cover": 2840,
      "closed": 2841,
      "largest": 2842,
      "misle": 2843,
      "injuries": 2844,
      "ideas": 2845,
      "millions": 2846,
      "government": 2847,
      "plaid": 2848,
      "aud": 2849,
      "peak": 2850,
      "uh": 2851,
      "##rect": 2852,
      "sold": 2853,
      "stain": 2854,
      "##ades": 2855,
      "##iring": 2856,
      "doors": 2857,
      "##uled": 2858,
      "compell": 2859,
      "##oms": 2860,
      "rocks": 2861,
      "heating": 2862,
      "expans": 2863,
      "improving": 2864,
      "extra": 2865,
      "shortly": 2866,
      "friday": 2867,
      "belie": 2868,
      "maxim": 2869,
      "warming": 2870,
      "playing": 2871,
      "storage": 2872,
      "horiz": 2873,
      "##racy": 2874,
      "individual": 2875,
      "bf": 2876,
      "dumb": 2877,
      "hes": 2878,
      "mr": 2879,
      "pitch": 2880,
      "rout": 2881,
      "voice": 2882,
      "ways": 2883,
      "##ding": 2884,
      "##arch": 2885,
      "##ishing": 2886,
      "##ota": 2887,
      "cov": 2888,
      "##opter": 2889,
      "seat": 2890,
      "##anden": 2891,
      "##earch": 2892,
      "moder": 2893,
      "##ains": 2894,
      "outcome": 2895,
      "##istics": 2896,
      "tested": 2897,
      "boeing": 2898,
      "monop": 2899,
      "resour": 2900,
      "research": 2901,
      "serve": 2902,
      "minim": 2903,
      "syn": 2904,
      "secret": 2905,
      "possibly": 2906,
      "excited": 2907,
      "handle": 2908,
      "precision": 2909,
      "moment": 2910,
      "autonomous": 2911,
      "astronauts": 2912,
      "gave": 2913,
      "magic": 2914,
      "throttle": 2915,
      "err": 2916,
      "impossible": 2917,
      "ah": 2918,
      "etc": 2919,
      "##ration": 2920,
      "##pl": 2921,
      "##ool": 2922,
      "##by": 2923,
      "##ery": 2924,
      "thous": 2925,
      "tower": 2926,
      "##iter": 2927,
      "states": 2928,
      "weap": 2929,
      "weird": 2930,
      "asp": 2931,
      "##rie": 2932,
      "myself": 2933,
      "appl": 2934,
      "##ival": 2935,
      "##epend": 2936,
      "reli": 2937,
      "delay": 2938,
      "independ": 2939,
      "hypersonic": 2940,
      "secur": 2941,
      "operation": 2942,
      "meaning": 2943,
      "suggestions": 2944,
      "existing": 2945,
      "incredible": 2946,
      "finished": 2947,
      "necessary": 2948,
      "prototype": 2949,
      "mobile": 2950,
      "vegas": 2951,
      "aug": 2952,
      "ahead": 2953,
      "fate": 2954,
      "germ": 2955,
      "lith": 2956,
      "none": 2957,
      "path": 2958,
      "rend": 2959,
      "tues": 2960,
      "yay": 2961,
      "##cr": 2962,
      "##uit": 2963,
      "##pon": 2964,
      "##ging": 2965,
      "third": 2966,
      "##orter": 2967,
      "##ico": 2968,
      "stack": 2969,
      "##iration": 2970,
      "##ceed": 2971,
      "words": 2972,
      "plans": 2973,
      "##osp": 2974,
      "bug": 2975,
      "known": 2976,
      "position": 2977,
      "themselves": 2978,
      "appreciation": 2979,
      "reddit": 2980,
      "apart": 2981,
      "terminal": 2982,
      "swe": 2983,
      "happening": 2984,
      "lights": 2985,
      "construction": 2986,
      "summer": 2987,
      "primarily": 2988,
      "school": 2989,
      "panels": 2990,
      "##raco": 2991,
      "russian": 2992,
      "austin": 2993,
      "turbop": 2994,
      "ratio": 2995,
      "misleading": 2996,
      "lithium": 2997,
      "aka": 2998,
      "cross": 2999,
      "fear": 3000,
      "gm": 3001,
      "hur": 3002,
      "round": 3003,
      "rare": 3004,
      "wing": 3005,
      "##hib": 3006,
      "##egr": 3007,
      "##oks": 3008,
      "##bt": 3009,
      "##mont": 3010,
      "##wd": 3011,
      "##aching": 3012,
      "##idth": 3013,
      "prof": 3014,
      "loved": 3015,
      "worse": 3016,
      "nozzle": 3017,
      "##iment": 3018,
      "wouldn": 3019,
      "highway": 3020,
      "faith": 3021,
      "fired": 3022,
      "produced": 3023,
      "##ivity": 3024,
      "driven": 3025,
      "dram": 3026,
      "expon": 3027,
      "intelligence": 3028,
      "integr": 3029,
      "recall": 3030,
      "teams": 3031,
      "accident": 3032,
      "problems": 3033,
      "warr": 3034,
      "thoughtful": 3035,
      "development": 3036,
      "polic": 3037,
      "charac": 3038,
      "official": 3039,
      "fremont": 3040,
      "random": 3041,
      "challenges": 3042,
      "bfr": 3043,
      "resources": 3044,
      "turbopump": 3045,
      "corn": 3046,
      "din": 3047,
      "diver": 3048,
      "rather": 3049,
      "tun": 3050,
      "tanks": 3051,
      "wall": 3052,
      "##ipping": 3053,
      "##set": 3054,
      "##ball": 3055,
      "##ford": 3056,
      "##wide": 3057,
      "##orbit": 3058,
      "##enge": 3059,
      "##icing": 3060,
      "reb": 3061,
      "reme": 3062,
      "suv": 3063,
      "supersonic": 3064,
      "##ury": 3065,
      "youd": 3066,
      "child": 3067,
      "meg": 3068,
      "fake": 3069,
      "expand": 3070,
      "mini": 3071,
      "minus": 3072,
      "improves": 3073,
      "disag": 3074,
      "planning": 3075,
      "strength": 3076,
      "escape": 3077,
      "foot": 3078,
      "completely": 3079,
      "rollout": 3080,
      "brain": 3081,
      "democ": 3082,
      "reusability": 3083,
      "returned": 3084,
      "study": 3085,
      "march": 3086,
      "incentives": 3087,
      "hydro": 3088,
      "investigate": 3089,
      "candy": 3090,
      "assembly": 3091,
      "hundreds": 3092,
      "security": 3093,
      "remember": 3094,
      "disagree": 3095,
      "15": 3096,
      "cult": 3097,
      "ped": 3098,
      "tall": 3099,
      "tip": 3100,
      "tiles": 3101,
      "##nes": 3102,
      "##ula": 3103,
      "##ob": 3104,
      "##ences": 3105,
      "##rees": 3106,
      "ones": 3107,
      "webs": 3108,
      "##ighter": 3109,
      "whether": 3110,
      "##abil": 3111,
      "choice": 3112,
      "monday": 3113,
      "contrib": 3114,
      "powerful": 3115,
      "awd": 3116,
      "grand": 3117,
      "worldwide": 3118,
      "meth": 3119,
      "parad": 3120,
      "annual": 3121,
      "levels": 3122,
      "gives": 3123,
      "changing": 3124,
      "wonder": 3125,
      "replace": 3126,
      "colle": 3127,
      "geo": 3128,
      "alien": 3129,
      "austral": 3130,
      "figure": 3131,
      "charging": 3132,
      "arguably": 3133,
      "superdraco": 3134,
      "according": 3135,
      "bric": 3136,
      "cast": 3137,
      "face": 3138,
      "foss": 3139,
      "gone": 3140,
      "lbs": 3141,
      "mont": 3142,
      "nature": 3143,
      "rot": 3144,
      "tb": 3145,
      "wild": 3146,
      "##ux": 3147,
      "##pha": 3148,
      "##gor": 3149,
      "thread": 3150,
      "cook": 3151,
      "stre": 3152,
      "spent": 3153,
      "alpha": 3154,
      "##raul": 3155,
      "ability": 3156,
      "##ument": 3157,
      "upload": 3158,
      "upcoming": 3159,
      "##ified": 3160,
      "arent": 3161,
      "amb": 3162,
      "evidence": 3163,
      "peace": 3164,
      "explan": 3165,
      "capital": 3166,
      "elev": 3167,
      "knows": 3168,
      "added": 3169,
      "write": 3170,
      "generated": 3171,
      "interested": 3172,
      "allowed": 3173,
      "##iction": 3174,
      "##ught": 3175,
      "constra": 3176,
      "president": 3177,
      "infin": 3178,
      "journey": 3179,
      "cells": 3180,
      "purp": 3181,
      "hydraul": 3182,
      "propulsion": 3183,
      "subsidies": 3184,
      "license": 3185,
      "immediately": 3186,
      "incorrect": 3187,
      "stainless": 3188,
      "fossil": 3189,
      "500": 3190,
      "ari": 3191,
      "ey": 3192,
      "ie": 3193,
      "kwh": 3194,
      "lm": 3195,
      "row": 3196,
      "tires": 3197,
      "west": 3198,
      "##af": 3199,
      "##ring": 3200,
      "##bur": 3201,
      "beha": 3202,
      "whate": 3203,
      "##alley": 3204,
      "##urance": 3205,
      "sports": 3206,
      "enh": 3207,
      "alum": 3208,
      "asim": 3209,
      "loss": 3210,
      "##rian": 3211,
      "##uming": 3212,
      "books": 3213,
      "recent": 3214,
      "minutes": 3215,
      "grad": 3216,
      "extending": 3217,
      "priv": 3218,
      "join": 3219,
      "jobs": 3220,
      "commit": 3221,
      "central": 3222,
      "generator": 3223,
      "talking": 3224,
      "excl": 3225,
      "##ification": 3226,
      "posted": 3227,
      "switch": 3228,
      "allows": 3229,
      "constant": 3230,
      "crypt": 3231,
      "destro": 3232,
      "confirm": 3233,
      "russia": 3234,
      "achieved": 3235,
      "docking": 3236,
      "patents": 3237,
      "messed": 3238,
      "magnitude": 3239,
      "information": 3240,
      "expendable": 3241,
      "compelling": 3242,
      "expansion": 3243,
      "alumin": 3244,
      "ban": 3245,
      "dying": 3246,
      "dyn": 3247,
      "fac": 3248,
      "fiction": 3249,
      "gim": 3250,
      "hal": 3251,
      "mic": 3252,
      "pen": 3253,
      "pull": 3254,
      "race": 3255,
      "sam": 3256,
      "vanden": 3257,
      "##tain": 3258,
      "##oon": 3259,
      "##off": 3260,
      "##inder": 3261,
      "##acy": 3262,
      "beer": 3263,
      "enc": 3264,
      "dog": 3265,
      "section": 3266,
      "lose": 3267,
      "convin": 3268,
      "maint": 3269,
      "##omb": 3270,
      "##omes": 3271,
      "##osite": 3272,
      "print": 3273,
      "buff": 3274,
      "imag": 3275,
      "poll": 3276,
      "background": 3277,
      "funny": 3278,
      "capable": 3279,
      "capability": 3280,
      "cooling": 3281,
      "helpful": 3282,
      "plane": 3283,
      "updated": 3284,
      "legal": 3285,
      "fool": 3286,
      "valve": 3287,
      "allowing": 3288,
      "direction": 3289,
      "operational": 3290,
      "flaps": 3291,
      "giving": 3292,
      "locations": 3293,
      "feeling": 3294,
      "equal": 3295,
      "polit": 3296,
      "complexity": 3297,
      "logistics": 3298,
      "sensible": 3299,
      "smoking": 3300,
      "smooth": 3301,
      "functionality": 3302,
      "judge": 3303,
      "population": 3304,
      "forgot": 3305,
      "regarding": 3306,
      "situation": 3307,
      "##rief": 3308,
      "website": 3309,
      "asimov": 3310,
      "vandenberg": 3311,
      "dc": 3312,
      "dry": 3313,
      "eve": 3314,
      "fed": 3315,
      "gon": 3316,
      "gre": 3317,
      "mil": 3318,
      "mine": 3319,
      "nat": 3320,
      "pac": 3321,
      "pun": 3322,
      "sla": 3323,
      "v2": 3324,
      "v9": 3325,
      "valley": 3326,
      "##iod": 3327,
      "##umpt": 3328,
      "##lantic": 3329,
      "##pa": 3330,
      "##etic": 3331,
      "coating": 3332,
      "sty": 3333,
      "##thon": 3334,
      "truly": 3335,
      "atlantic": 3336,
      "conven": 3337,
      "christ": 3338,
      "worry": 3339,
      "probable": 3340,
      "flies": 3341,
      "period": 3342,
      "helium": 3343,
      "region": 3344,
      "regions": 3345,
      "common": 3346,
      "metric": 3347,
      "excess": 3348,
      "raptors": 3349,
      "easier": 3350,
      "waiting": 3351,
      "accelerate": 3352,
      "accelerating": 3353,
      "optimistic": 3354,
      "mounted": 3355,
      "floor": 3356,
      "python": 3357,
      "appears": 3358,
      "communic": 3359,
      "birthday": 3360,
      "policy": 3361,
      "college": 3362,
      "whatever": 3363,
      "bla": 3364,
      "fur": 3365,
      "racing": 3366,
      "vector": 3367,
      "ww": 3368,
      "york": 3369,
      "##ev": 3370,
      "##body": 3371,
      "##vill": 3372,
      "##mak": 3373,
      "##orid": 3374,
      "##aring": 3375,
      "##elt": 3376,
      "##vey": 3377,
      "trou": 3378,
      "extern": 3379,
      "ascent": 3380,
      "loan": 3381,
      "##rif": 3382,
      "comfort": 3383,
      "appar": 3384,
      "florid": 3385,
      "lands": 3386,
      "solid": 3387,
      "interp": 3388,
      "expensive": 3389,
      "depart": 3390,
      "advent": 3391,
      "signal": 3392,
      "demon": 3393,
      "refund": 3394,
      "international": 3395,
      "careful": 3396,
      "seconds": 3397,
      "developing": 3398,
      "drops": 3399,
      "regulators": 3400,
      "neuralink": 3401,
      "honor": 3402,
      "honored": 3403,
      "addressed": 3404,
      "exceeds": 3405,
      "reduce": 3406,
      "recovery": 3407,
      "family": 3408,
      "unlikely": 3409,
      "mechan": 3410,
      "ahem": 3411,
      "sweet": 3412,
      "micro": 3413,
      "florida": 3414,
      "bur": 3415,
      "dan": 3416,
      "div": 3417,
      "hous": 3418,
      "lud": 3419,
      "o2": 3420,
      "pics": 3421,
      "sen": 3422,
      "##ien": 3423,
      "##cle": 3424,
      "##akes": 3425,
      "##rous": 3426,
      "##den": 3427,
      "##ood": 3428,
      "##mission": 3429,
      "##100": 3430,
      "##ones": 3431,
      "##arr": 3432,
      "##anium": 3433,
      "incon": 3434,
      "cop": 3435,
      "tri": 3436,
      "spir": 3437,
      "examp": 3438,
      "exec": 3439,
      "along": 3440,
      "##ram": 3441,
      "##ular": 3442,
      "justice": 3443,
      "une": 3444,
      "compared": 3445,
      "##acked": 3446,
      "canc": 3447,
      "arch": 3448,
      "contact": 3449,
      "image": 3450,
      "resale": 3451,
      "qui": 3452,
      "couldnt": 3453,
      "confident": 3454,
      "approved": 3455,
      "merch": 3456,
      "lateral": 3457,
      "package": 3458,
      "unveiling": 3459,
      "credibility": 3460,
      "student": 3461,
      "selling": 3462,
      "replaced": 3463,
      "logs": 3464,
      "debate": 3465,
      "consumers": 3466,
      "angle": 3467,
      "autonomy": 3468,
      "descri": 3469,
      "journalists": 3470,
      "impressive": 3471,
      "claim": 3472,
      "weapons": 3473,
      "infinite": 3474,
      "private": 3475,
      "aluminum": 3476,
      "dm": 3477,
      "eg": 3478,
      "gal": 3479,
      "ion": 3480,
      "jup": 3481,
      "nut": 3482,
      "nick": 3483,
      "pending": 3484,
      "p100": 3485,
      "ren": 3486,
      "rud": 3487,
      "troll": 3488,
      "##km": 3489,
      "##ection": 3490,
      "##ox": 3491,
      "##bor": 3492,
      "##for": 3493,
      "##father": 3494,
      "##ged": 3495,
      "##enue": 3496,
      "##etch": 3497,
      "##otive": 3498,
      "coal": 3499,
      "stuff": 3500,
      "##thr": 3501,
      "shop": 3502,
      "shif": 3503,
      "trust": 3504,
      "cargo": 3505,
      "convers": 3506,
      "uns": 3507,
      "units": 3508,
      "##umul": 3509,
      "faa": 3510,
      "##cient": 3511,
      "overr": 3512,
      "board": 3513,
      "hardest": 3514,
      "twice": 3515,
      "minute": 3516,
      "quick": 3517,
      "fewer": 3518,
      "finan": 3519,
      "transit": 3520,
      "command": 3521,
      "writing": 3522,
      "supercharging": 3523,
      "ships": 3524,
      "controll": 3525,
      "basic": 3526,
      "increases": 3527,
      "easily": 3528,
      "email": 3529,
      "changed": 3530,
      "automotive": 3531,
      "optimized": 3532,
      "friends": 3533,
      "eventually": 3534,
      "pickup": 3535,
      "injury": 3536,
      "aborted": 3537,
      "connect": 3538,
      "silic": 3539,
      "learn": 3540,
      "clarify": 3541,
      "behind": 3542,
      "behalf": 3543,
      "training": 3544,
      "ventil": 3545,
      "structure": 3546,
      "guaranteed": 3547,
      "surprising": 3548,
      "margin": 3549,
      "survival": 3550,
      "australia": 3551,
      "explanation": 3552,
      "hydraulic": 3553,
      "ariane": 3554,
      "destroy": 3555,
      "gonna": 3556,
      "slam": 3557,
      "further": 3558,
      "##ville": 3559,
      "interplanetary": 3560,
      "jupiter": 3561,
      "p100d": 3562,
      "june": 3563,
      "lane": 3564,
      "ps": 3565,
      "rip": 3566,
      "tree": 3567,
      "van": 3568,
      "zip": 3569,
      "##oh": 3570,
      "##fra": 3571,
      "ancient": 3572,
      "reaching": 3573,
      "##uration": 3574,
      "youll": 3575,
      "chan": 3576,
      "##imately": 3577,
      "outer": 3578,
      "places": 3579,
      "fault": 3580,
      "##cious": 3581,
      "author": 3582,
      "backup": 3583,
      "##rows": 3584,
      "cave": 3585,
      "download": 3586,
      "discover": 3587,
      "##itional": 3588,
      "fixing": 3589,
      "brakes": 3590,
      "bitcoin": 3591,
      "covered": 3592,
      "emo": 3593,
      "pieces": 3594,
      "drop": 3595,
      "doubt": 3596,
      "destination": 3597,
      "purch": 3598,
      "frame": 3599,
      "thursday": 3600,
      "layer": 3601,
      "splash": 3602,
      "measure": 3603,
      "lmk": 3604,
      "cu": 3605,
      "dies": 3606,
      "eat": 3607,
      "iv": 3608,
      "ms": 3609,
      "mad": 3610,
      "nn": 3611,
      "san": 3612,
      "type": 3613,
      "uk": 3614,
      "##ew": 3615,
      "##por": 3616,
      "##gan": 3617,
      "##85": 3618,
      "##eral": 3619,
      "##itect": 3620,
      "##icrous": 3621,
      "##rop": 3622,
      "react": 3623,
      "stone": 3624,
      "stations": 3625,
      "##ids": 3626,
      "trad": 3627,
      "lives": 3628,
      "worst": 3629,
      "alloc": 3630,
      "meme": 3631,
      "comment": 3632,
      "save": 3633,
      "ama": 3634,
      "wouldnt": 3635,
      "feb": 3636,
      "adult": 3637,
      "fires": 3638,
      "drives": 3639,
      "boat": 3640,
      "resc": 3641,
      "##ference": 3642,
      "missed": 3643,
      "consumpt": 3644,
      "revolution": 3645,
      "becoming": 3646,
      "countdown": 3647,
      "brake": 3648,
      "warm": 3649,
      "clearly": 3650,
      "accept": 3651,
      "temper": 3652,
      "recommended": 3653,
      "propag": 3654,
      "summary": 3655,
      "continue": 3656,
      "significantly": 3657,
      "assuming": 3658,
      "affects": 3659,
      "eggs": 3660,
      "duty": 3661,
      "covid": 3662,
      "pacific": 3663,
      "ludicrous": 3664,
      "architect": 3665,
      "##frame": 3666,
      "splashdown": 3667,
      "consumption": 3668,
      "ben": 3669,
      "bust": 3670,
      "field": 3671,
      "freed": 3672,
      "gar": 3673,
      "hosp": 3674,
      "lz": 3675,
      "lar": 3676,
      "lines": 3677,
      "mal": 3678,
      "oct": 3679,
      "sel": 3680,
      "ui": 3681,
      "##iation": 3682,
      "##son": 3683,
      "##oo": 3684,
      "##oes": 3685,
      "##xico": 3686,
      "therm": 3687,
      "##angh": 3688,
      "##acopter": 3689,
      "forever": 3690,
      "##irt": 3691,
      "shangh": 3692,
      "alert": 3693,
      "condit": 3694,
      "##anda": 3695,
      "unre": 3696,
      "mexico": 3697,
      "##ams": 3698,
      "moreover": 3699,
      "resist": 3700,
      "recirc": 3701,
      "##ultane": 3702,
      "##ocal": 3703,
      "cloud": 3704,
      "helps": 3705,
      "helping": 3706,
      "showing": 3707,
      "technical": 3708,
      "sn1": 3709,
      "updates": 3710,
      "postpon": 3711,
      "deliveries": 3712,
      "simultane": 3713,
      "computing": 3714,
      "restart": 3715,
      "graph": 3716,
      "wheels": 3717,
      "studio": 3718,
      "discount": 3719,
      "thinks": 3720,
      "30pm": 3721,
      "filters": 3722,
      "failure": 3723,
      "leader": 3724,
      "breakthr": 3725,
      "focused": 3726,
      "telem": 3727,
      "beginning": 3728,
      "mistake": 3729,
      "laser": 3730,
      "navigation": 3731,
      "holiday": 3732,
      "hexacopter": 3733,
      "gimbal": 3734,
      "trouble": 3735,
      "silicon": 3736,
      "propaganda": 3737,
      "hospital": 3738,
      "larry": 3739,
      "shanghai": 3740,
      "conditions": 3741,
      "breakthrough": 3742,
      "5k": 3743,
      "ball": 3744,
      "band": 3745,
      "ded": 3746,
      "fusion": 3747,
      "jer": 3748,
      "jam": 3749,
      "lu": 3750,
      "rh": 3751,
      "##round": 3752,
      "##oying": 3753,
      "##ba": 3754,
      "##word": 3755,
      "##orters": 3756,
      "##ares": 3757,
      "##edge": 3758,
      "##iti": 3759,
      "input": 3760,
      "inhib": 3761,
      "beat": 3762,
      "##che": 3763,
      "suit": 3764,
      "spin": 3765,
      "lif": 3766,
      "enem": 3767,
      "sever": 3768,
      "chip": 3769,
      "master": 3770,
      "##acker": 3771,
      "uses": 3772,
      "firm": 3773,
      "actu": 3774,
      "##iber": 3775,
      "prepar": 3776,
      "knight": 3777,
      "recently": 3778,
      "artific": 3779,
      "##000": 3780,
      "capit": 3781,
      "thoughts": 3782,
      "ident": 3783,
      "bright": 3784,
      "frank": 3785,
      "calc": 3786,
      "surround": 3787,
      "services": 3788,
      "merry": 3789,
      "ordered": 3790,
      "played": 3791,
      "competitive": 3792,
      "limits": 3793,
      "emb": 3794,
      "putting": 3795,
      "latency": 3796,
      "info": 3797,
      "funding": 3798,
      "doug": 3799,
      "damage": 3800,
      "liftoff": 3801,
      "robots": 3802,
      "achieving": 3803,
      "odds": 3804,
      "opposite": 3805,
      "essentially": 3806,
      "schedule": 3807,
      "stopped": 3808,
      "moderate": 3809,
      "dramatically": 3810,
      "pedest": 3811,
      "dynam": 3812,
      "maintain": 3813,
      "demonst": 3814,
      "##clear": 3815,
      "example": 3816,
      "dedic": 3817,
      "35": 3818,
      "bio": 3819,
      "banks": 3820,
      "ce": 3821,
      "luck": 3822,
      "os": 3823,
      "ota": 3824,
      "pc": 3825,
      "p85": 3826,
      "sed": 3827,
      "wise": 3828,
      "##lation": 3829,
      "##oke": 3830,
      "##ining": 3831,
      "##ances": 3832,
      "##stop": 3833,
      "ford": 3834,
      "weigh": 3835,
      "##irrel": 3836,
      "gold": 3837,
      "trunk": 3838,
      "traction": 3839,
      "speak": 3840,
      "doll": 3841,
      "cond": 3842,
      "##anty": 3843,
      "##antage": 3844,
      "unc": 3845,
      "spacef": 3846,
      "user": 3847,
      "ours": 3848,
      "produce": 3849,
      "monkey": 3850,
      "yourself": 3851,
      "hopper": 3852,
      "airframe": 3853,
      "transition": 3854,
      "brit": 3855,
      "leak": 3856,
      "effort": 3857,
      "turning": 3858,
      "experts": 3859,
      "experiment": 3860,
      "##heed": 3861,
      "watched": 3862,
      "precise": 3863,
      "economy": 3864,
      "causing": 3865,
      "caused": 3866,
      "promising": 3867,
      "presentation": 3868,
      "fluid": 3869,
      "lockheed": 3870,
      "squirrel": 3871,
      "competitors": 3872,
      "horizont": 3873,
      "footage": 3874,
      "tbh": 3875,
      "apparently": 3876,
      "busted": 3877,
      "freedom": 3878,
      "fill": 3879,
      "kor": 3880,
      "nh": 3881,
      "nar": 3882,
      "rich": 3883,
      "sill": 3884,
      "tv": 3885,
      "timing": 3886,
      "vi": 3887,
      "v8": 3888,
      "##ners": 3889,
      "##rate": 3890,
      "##dle": 3891,
      "##pu": 3892,
      "##base": 3893,
      "##vac": 3894,
      "##llo": 3895,
      "inn": 3896,
      "##urd": 3897,
      "havent": 3898,
      "exit": 3899,
      "areas": 3900,
      "carri": 3901,
      "sections": 3902,
      "search": 3903,
      "##rain": 3904,
      "##ants": 3905,
      "boys": 3906,
      "engineer": 3907,
      "crush": 3908,
      "expl": 3909,
      "imm": 3910,
      "funds": 3911,
      "repe": 3912,
      "reply": 3913,
      "artists": 3914,
      "capt": 3915,
      "phil": 3916,
      "score": 3917,
      "delet": 3918,
      "##ruption": 3919,
      "hole": 3920,
      "opin": 3921,
      "opens": 3922,
      "revenue": 3923,
      "joke": 3924,
      "curious": 3925,
      "releases": 3926,
      "legis": 3927,
      "skill": 3928,
      "sketch": 3929,
      "delivering": 3930,
      "stops": 3931,
      "absurd": 3932,
      "broad": 3933,
      "deployment": 3934,
      "watching": 3935,
      "listen": 3936,
      "ignition": 3937,
      "##point": 3938,
      "godot": 3939,
      "occup": 3940,
      "apollo": 3941,
      "nytimes": 3942,
      "advertising": 3943,
      "route": 3944,
      "thousands": 3945,
      "independent": 3946,
      "august": 3947,
      "warranty": 3948,
      "corner": 3949,
      "grandfather": 3950,
      "constantly": 3951,
      "style": 3952,
      "emoj": 3953,
      "architecture": 3954,
      "artificial": 3955,
      "nhts": 3956,
      "cute": 3957,
      "gary": 3958,
      "ic": 3959,
      "je": 3960,
      "length": 3961,
      "pne": 3962,
      "##night": 3963,
      "##app": 3964,
      "##ola": 3965,
      "##xy": 3966,
      "##onic": 3967,
      "##ara": 3968,
      "##ented": 3969,
      "##ppy": 3970,
      "lov": 3971,
      "chart": 3972,
      "chick": 3973,
      "chica": 3974,
      "saving": 3975,
      "adm": 3976,
      "apple": 3977,
      "##izes": 3978,
      "evol": 3979,
      "events": 3980,
      "moves": 3981,
      "draw": 3982,
      "explos": 3983,
      "defe": 3984,
      "repres": 3985,
      "everywhere": 3986,
      "wants": 3987,
      "##ructions": 3988,
      "videos": 3989,
      "amazingly": 3990,
      "cheese": 3991,
      "instructions": 3992,
      "letting": 3993,
      "computers": 3994,
      "deeply": 3995,
      "checking": 3996,
      "radio": 3997,
      "keeps": 3998,
      "wishes": 3999,
      "bringing": 4000,
      "entirely": 4001,
      "digging": 4002,
      "describ": 4003,
      "necessarily": 4004,
      "labor": 4005,
      "propulsive": 4006,
      "vastly": 4007,
      "business": 4008,
      "lasers": 4009,
      "array": 4010,
      "discussion": 4011,
      "martin": 4012,
      "shareholders": 4013,
      "titanium": 4014,
      "##graphy": 4015,
      "validation": 4016,
      "german": 4017,
      "exponential": 4018,
      "integrated": 4019,
      "enhanced": 4020,
      "zip2": 4021,
      "discovered": 4022,
      "dedicated": 4023,
      "pneum": 4024,
      "chicken": 4025,
      "55": 4026,
      "bal": 4027,
      "biz": 4028,
      "died": 4029,
      "dream": 4030,
      "gro": 4031,
      "ker": 4032,
      "men": 4033,
      "mir": 4034,
      "match": 4035,
      "ooh": 4036,
      "rene": 4037,
      "six": 4038,
      "##ren": 4039,
      "##lish": 4040,
      "##vada": 4041,
      "##fl": 4042,
      "##inc": 4043,
      "##esc": 4044,
      "##arks": 4045,
      "tour": 4046,
      "##etry": 4047,
      "##eling": 4048,
      "reuse": 4049,
      "soci": 4050,
      "steam": 4051,
      "nevada": 4052,
      "profit": 4053,
      "shipping": 4054,
      "liber": 4055,
      "liked": 4056,
      "algor": 4057,
      "chris": 4058,
      "lame": 4059,
      "nom": 4060,
      "##amm": 4061,
      "##iff": 4062,
      "greatest": 4063,
      "##oses": 4064,
      "##osed": 4065,
      "expos": 4066,
      "defense": 4067,
      "underground": 4068,
      "relative": 4069,
      "starships": 4070,
      "obs": 4071,
      "inspe": 4072,
      "insurance": 4073,
      "advantage": 4074,
      "seemed": 4075,
      "hyp": 4076,
      "centers": 4077,
      "secs": 4078,
      "parach": 4079,
      "motion": 4080,
      "remo": 4081,
      "packet": 4082,
      "warning": 4083,
      "reflight": 4084,
      "simpl": 4085,
      "attention": 4086,
      "spaces": 4087,
      "##hood": 4088,
      "reached": 4089,
      "effective": 4090,
      "loads": 4091,
      "remains": 4092,
      "digital": 4093,
      "satis": 4094,
      "installed": 4095,
      "v10": 4096,
      "opport": 4097,
      "bott": 4098,
      "nuclear": 4099,
      "jacket": 4100,
      "cowbo": 4101,
      "environmental": 4102,
      "activate": 4103,
      "women": 4104,
      "reliability": 4105,
      "character": 4106,
      "tuned": 4107,
      "constraint": 4108,
      "federal": 4109,
      "christmas": 4110,
      "ventilators": 4111,
      "preparing": 4112,
      "renew": 4113,
      "algorith": 4114,
      "cab": 4115,
      "pal": 4116,
      "pers": 4117,
      "pilot": 4118,
      "tim": 4119,
      "v3": 4120,
      "vib": 4121,
      "wif": 4122,
      "wings": 4123,
      "##cip": 4124,
      "##cone": 4125,
      "##kn": 4126,
      "##aks": 4127,
      "##lass": 4128,
      "thus": 4129,
      "##ana": 4130,
      "inert": 4131,
      "stri": 4132,
      "iter": 4133,
      "##ided": 4134,
      "##ched": 4135,
      "##irl": 4136,
      "ham": 4137,
      "##ested": 4138,
      "lol": 4139,
      "##ulated": 4140,
      "##gee": 4141,
      "##ipment": 4142,
      "compress": 4143,
      "users": 4144,
      "greatly": 4145,
      "##ended": 4146,
      "placed": 4147,
      "bump": 4148,
      "solving": 4149,
      "solved": 4150,
      "happiness": 4151,
      "supporters": 4152,
      "worlds": 4153,
      "phd": 4154,
      "##oths": 4155,
      "calling": 4156,
      "guard": 4157,
      "released": 4158,
      "password": 4159,
      "ordering": 4160,
      "decades": 4161,
      "reminder": 4162,
      "refine": 4163,
      "untr": 4164,
      "location": 4165,
      "absor": 4166,
      "restored": 4167,
      "tempor": 4168,
      "##hoo": 4169,
      "equipment": 4170,
      "species": 4171,
      "specific": 4172,
      "winter": 4173,
      "initially": 4174,
      "midnight": 4175,
      "amounts": 4176,
      "flamethrowers": 4177,
      "arrives": 4178,
      "linux": 4179,
      "repairs": 4180,
      "walk": 4181,
      "pyram": 4182,
      "virus": 4183,
      "navigate": 4184,
      "straight": 4185,
      "separate": 4186,
      "dangerous": 4187,
      "applied": 4188,
      "render": 4189,
      "monty": 4190,
      "purple": 4191,
      "imagine": 4192,
      "##makers": 4193,
      "quiet": 4194,
      "nickel": 4195,
      "conversation": 4196,
      "temperature": 4197,
      "postponed": 4198,
      "firmware": 4199,
      "horizontal": 4200,
      "narrow": 4201,
      "opinion": 4202,
      "nhtsa": 4203,
      "11": 4204,
      "bon": 4205,
      "bod": 4206,
      "bday": 4207,
      "born": 4208,
      "ferm": 4209,
      "iph": 4210,
      "ipo": 4211,
      "jon": 4212,
      "jump": 4213,
      "mun": 4214,
      "rum": 4215,
      "rise": 4216,
      "ts": 4217,
      "ws": 4218,
      "##has": 4219,
      "##here": 4220,
      "##iot": 4221,
      "##time": 4222,
      "##ole": 4223,
      "##19": 4224,
      "theme": 4225,
      "##eness": 4226,
      "##eless": 4227,
      "##otes": 4228,
      "reve": 4229,
      "recharg": 4230,
      "##illiant": 4231,
      "##allel": 4232,
      "pros": 4233,
      "proceed": 4234,
      "haiti": 4235,
      "likes": 4236,
      "dom": 4237,
      "convert": 4238,
      "memes": 4239,
      "##aming": 4240,
      "safer": 4241,
      "usa": 4242,
      "##ounds": 4243,
      "evs": 4244,
      "lee": 4245,
      "permission": 4246,
      "twea": 4247,
      "award": 4248,
      "puck": 4249,
      "couldn": 4250,
      "finally": 4251,
      "consid": 4252,
      "fastest": 4253,
      "roads": 4254,
      "advice": 4255,
      "advance": 4256,
      "commission": 4257,
      "brilliant": 4258,
      "boosters": 4259,
      "meter": 4260,
      "survey": 4261,
      "completing": 4262,
      "rais": 4263,
      "leave": 4264,
      "header": 4265,
      "operate": 4266,
      "cyber": 4267,
      "hands": 4268,
      "formula": 4269,
      "detailed": 4270,
      "oxford": 4271,
      "protect": 4272,
      "subsonic": 4273,
      "sensors": 4274,
      "hello": 4275,
      "debt": 4276,
      "robot": 4277,
      "remaining": 4278,
      "strongly": 4279,
      "employ": 4280,
      "daily": 4281,
      "approvals": 4282,
      "mentioned": 4283,
      "arrived": 4284,
      "adjusting": 4285,
      "falling": 4286,
      "esth": 4287,
      "variant": 4288,
      "virgin": 4289,
      "nosecone": 4290,
      "princip": 4291,
      "separation": 4292,
      "apogee": 4293,
      "errors": 4294,
      "democracy": 4295,
      "grey": 4296,
      "spirit": 4297,
      "reactor": 4298,
      "p85d": 4299,
      "silly": 4300,
      "innov": 4301,
      "savings": 4302,
      "exposure": 4303,
      "fermi": 4304,
      "wsj": 4305,
      "reveal": 4306,
      "000": 4307,
      "12": 4308,
      "aim": 4309,
      "bes": 4310,
      "bat": 4311,
      "bene": 4312,
      "dial": 4313,
      "fi": 4314,
      "five": 4315,
      "gun": 4316,
      "hence": 4317,
      "junk": 4318,
      "lets": 4319,
      "rig": 4320,
      "sort": 4321,
      "tea": 4322,
      "tire": 4323,
      "tick": 4324,
      "vt": 4325,
      "wer": 4326,
      "wast": 4327,
      "##how": 4328,
      "##cano": 4329,
      "##ror": 4330,
      "##yc": 4331,
      "##pay": 4332,
      "##oly": 4333,
      "##erved": 4334,
      "thail": 4335,
      "##eshold": 4336,
      "##ancy": 4337,
      "##stic": 4338,
      "neigh": 4339,
      "neither": 4340,
      "cho": 4341,
      "chain": 4342,
      "##rible": 4343,
      "##outs": 4344,
      "meal": 4345,
      "##amb": 4346,
      "somehow": 4347,
      "threshold": 4348,
      "prev": 4349,
      "parties": 4350,
      "##wns": 4351,
      "indic": 4352,
      "transl": 4353,
      "becomes": 4354,
      "curve": 4355,
      "publicly": 4356,
      "cores": 4357,
      "parallel": 4358,
      "raised": 4359,
      "manip": 4360,
      "majority": 4361,
      "machines": 4362,
      "volcano": 4363,
      "competing": 4364,
      "handling": 4365,
      "visible": 4366,
      "vacc": 4367,
      "lightning": 4368,
      "coverage": 4369,
      "attach": 4370,
      "sellers": 4371,
      "dropped": 4372,
      "following": 4373,
      "followed": 4374,
      "emphas": 4375,
      "links": 4376,
      "riding": 4377,
      "ridicul": 4378,
      "investigating": 4379,
      "silver": 4380,
      "killing": 4381,
      "##lications": 4382,
      "inspiring": 4383,
      "frequ": 4384,
      "essential": 4385,
      "duties": 4386,
      "terrible": 4387,
      "shareholder": 4388,
      "deserves": 4389,
      "bankruptcy": 4390,
      "##ypes": 4391,
      "dinner": 4392,
      "expanding": 4393,
      "paradox": 4394,
      "bricks": 4395,
      "senate": 4396,
      "##arrass": 4397,
      "dmv": 4398,
      "rescue": 4399,
      "telemetry": 4400,
      "bandw": 4401,
      "lifet": 4402,
      "embarrass": 4403,
      "douglas": 4404,
      "spaceflight": 4405,
      "korea": 4406,
      "lovely": 4407,
      "inspection": 4408,
      "battle": 4409,
      "thailand": 4410,
      "75": 4411,
      "aer": 4412,
      "brief": 4413,
      "brows": 4414,
      "cats": 4415,
      "c19": 4416,
      "eth": 4417,
      "ftw": 4418,
      "facing": 4419,
      "hr": 4420,
      "hrs": 4421,
      "tint": 4422,
      "vary": 4423,
      "zone": 4424,
      "##cs": 4425,
      "##eu": 4426,
      "##ded": 4427,
      "##pack": 4428,
      "##ges": 4429,
      "##atable": 4430,
      "tool": 4431,
      "theory": 4432,
      "##oted": 4433,
      "coff": 4434,
      "##ods": 4435,
      "##verse": 4436,
      "shown": 4437,
      "atlas": 4438,
      "##estone": 4439,
      "asia": 4440,
      "seal": 4441,
      "loves": 4442,
      "nobody": 4443,
      "##actic": 4444,
      "##omberg": 4445,
      "##lock": 4446,
      "upon": 4447,
      "##ift": 4448,
      "##ifically": 4449,
      "plate": 4450,
      "pricing": 4451,
      "##ems": 4452,
      "overall": 4453,
      "text": 4454,
      "drivers": 4455,
      "earning": 4456,
      "express": 4457,
      "##orders": 4458,
      "ends": 4459,
      "humor": 4460,
      "conscious": 4461,
      "suborbit": 4462,
      "fran": 4463,
      "planned": 4464,
      "strate": 4465,
      "exception": 4466,
      "corpor": 4467,
      "apocal": 4468,
      "annoying": 4469,
      "bloomberg": 4470,
      "visiting": 4471,
      "acid": 4472,
      "creation": 4473,
      "expert": 4474,
      "former": 4475,
      "physical": 4476,
      "multi": 4477,
      "colors": 4478,
      "distract": 4479,
      "talked": 4480,
      "ultimately": 4481,
      "##board": 4482,
      "specifically": 4483,
      "failed": 4484,
      "ramping": 4485,
      "argument": 4486,
      "receive": 4487,
      "angel": 4488,
      "installation": 4489,
      "shielding": 4490,
      "fundamentally": 4491,
      "processing": 4492,
      "entertain": 4493,
      "250": 4494,
      "mistakes": 4495,
      "degrees": 4496,
      "epic": 4497,
      "sucks": 4498,
      "##ological": 4499,
      "settings": 4500,
      "concerns": 4501,
      "individuals": 4502,
      "monopoly": 4503,
      "aspiration": 4504,
      "hurt": 4505,
      "elevator": 4506,
      "crypto": 4507,
      "external": 4508,
      "##force": 4509,
      "adults": 4510,
      "sedan": 4511,
      "viol": 4512,
      "persp": 4513,
      "untrue": 4514,
      "considering": 4515,
      "emphasize": 4516,
      "lifetime": 4517,
      "browser": 4518,
      "suborbital": 4519,
      "cm": 4520,
      "fiber": 4521,
      "hq": 4522,
      "kick": 4523,
      "mit": 4524,
      "muse": 4525,
      "nons": 4526,
      "nik": 4527,
      "qa": 4528,
      "sx": 4529,
      "sending": 4530,
      "ted": 4531,
      "ula": 4532,
      "wik": 4533,
      "width": 4534,
      "##cp": 4535,
      "##ker": 4536,
      "##dom": 4537,
      "##list": 4538,
      "##pher": 4539,
      "##ohoo": 4540,
      "##ban": 4541,
      "##vant": 4542,
      "##fast": 4543,
      "##wor": 4544,
      "##zen": 4545,
      "##inary": 4546,
      "##edy": 4547,
      "##ste": 4548,
      "##stood": 4549,
      "indu": 4550,
      "##isis": 4551,
      "anom": 4552,
      "bear": 4553,
      "beats": 4554,
      "sock": 4555,
      "stan": 4556,
      "stuck": 4557,
      "weak": 4558,
      "##ady": 4559,
      "prote": 4560,
      "proof": 4561,
      "season": 4562,
      "unkn": 4563,
      "goodness": 4564,
      "##usive": 4565,
      "##ief": 4566,
      "arms": 4567,
      "plat": 4568,
      "##osh": 4569,
      "pract": 4570,
      "overhe": 4571,
      "superall": 4572,
      "box": 4573,
      "crisis": 4574,
      "partial": 4575,
      "resolution": 4576,
      "intent": 4577,
      "sympt": 4578,
      "group": 4579,
      "underapp": 4580,
      "scal": 4581,
      "missing": 4582,
      "depth": 4583,
      "##reciated": 4584,
      "century": 4585,
      "signed": 4586,
      "fairly": 4587,
      "apolog": 4588,
      "taxpay": 4589,
      "blue": 4590,
      "leaving": 4591,
      "##gging": 4592,
      "maneu": 4593,
      "rolls": 4594,
      "increased": 4595,
      "decade": 4596,
      "creative": 4597,
      "simulations": 4598,
      "entr": 4599,
      "windward": 4600,
      "##lessly": 4601,
      "refle": 4602,
      "##comp": 4603,
      "regular": 4604,
      "emer": 4605,
      "constit": 4606,
      "broke": 4607,
      "browns": 4608,
      "respons": 4609,
      "optional": 4610,
      "drove": 4611,
      "combine": 4612,
      "ultimate": 4613,
      "histor": 4614,
      "##box": 4615,
      "loaded": 4616,
      "multiple": 4617,
      "economic": 4618,
      "atmospher": 4619,
      "origin": 4620,
      "urban": 4621,
      "fallout": 4622,
      "popular": 4623,
      "reporting": 4624,
      "connected": 4625,
      "learning": 4626,
      "learned": 4627,
      "dogecoin": 4628,
      "charger": 4629,
      "univers": 4630,
      "offering": 4631,
      "cycling": 4632,
      "recovered": 4633,
      "forget": 4634,
      "woohoo": 4635,
      "talented": 4636,
      "sequence": 4637,
      "woman": 4638,
      "children": 4639,
      "mega": 4640,
      "##burg": 4641,
      "purchase": 4642,
      "allocation": 4643,
      "severe": 4644,
      "ceo": 4645,
      "jeff": 4646,
      "society": 4647,
      "opportun": 4648,
      "wifi": 4649,
      "iphone": 4650,
      "bandwidth": 4651,
      "embarrassing": 4652,
      "museum": 4653,
      "nikola": 4654,
      "anomal": 4655,
      "unknown": 4656,
      "underappreciated": 4657,
      "brownsville": 4658,
      "300": 4659,
      "40": 4660,
      "boun": 4661,
      "coup": 4662,
      "dive": 4663,
      "fat": 4664,
      "girl": 4665,
      "kg": 4666,
      "lb": 4667,
      "lou": 4668,
      "lun": 4669,
      "nets": 4670,
      "ow": 4671,
      "rule": 4672,
      "rwd": 4673,
      "sig": 4674,
      "yaw": 4675,
      "##ios": 4676,
      "##ique": 4677,
      "##nn": 4678,
      "##yal": 4679,
      "##land": 4680,
      "##vl": 4681,
      "##fall": 4682,
      "##faces": 4683,
      "##gar": 4684,
      "##rete": 4685,
      "inev": 4686,
      "##icious": 4687,
      "##utious": 4688,
      "forum": 4689,
      "##owers": 4690,
      "stat": 4691,
      "stabil": 4692,
      "wealth": 4693,
      "neut": 4694,
      "##ilities": 4695,
      "shorter": 4696,
      "triv": 4697,
      "trillion": 4698,
      "lie": 4699,
      "doom": 4700,
      "##ationary": 4701,
      "unit": 4702,
      "nov": 4703,
      "noise": 4704,
      "wasnt": 4705,
      "spaceport": 4706,
      "##ifies": 4707,
      "pls": 4708,
      "##osene": 4709,
      "produces": 4710,
      "evil": 4711,
      "flat": 4712,
      "##udes": 4713,
      "conte": 4714,
      "hops": 4715,
      "residual": 4716,
      "##rict": 4717,
      "symb": 4718,
      "extension": 4719,
      "cautious": 4720,
      "missile": 4721,
      "conserv": 4722,
      "idiot": 4723,
      "##ups": 4724,
      "donate": 4725,
      "subtle": 4726,
      "insert": 4727,
      "brand": 4728,
      "retired": 4729,
      "generation": 4730,
      "starbase": 4731,
      "terms": 4732,
      "roller": 4733,
      "holds": 4734,
      "##faction": 4735,
      "buyers": 4736,
      "compute": 4737,
      "investor": 4738,
      "physically": 4739,
      "keeping": 4740,
      "standing": 4741,
      "colon": 4742,
      "combined": 4743,
      "suggests": 4744,
      "astero": 4745,
      "tweeting": 4746,
      "empty": 4747,
      "understanding": 4748,
      "reference": 4749,
      "structural": 4750,
      "photo": 4751,
      "petition": 4752,
      "guarantee": 4753,
      "circle": 4754,
      "pushed": 4755,
      "enables": 4756,
      "johnny": 4757,
      "uhh": 4758,
      "error": 4759,
      "divers": 4760,
      "streets": 4761,
      "committe": 4762,
      "facility": 4763,
      "political": 4764,
      "inconel": 4765,
      "override": 4766,
      "inhibit": 4767,
      "biography": 4768,
      "kerosene": 4769,
      "menu": 4770,
      "bumper": 4771,
      "domain": 4772,
      "innovation": 4773,
      "perspective": 4774,
      "inevit": 4775,
      "bm": 4776,
      "cit": 4777,
      "cities": 4778,
      "cumul": 4779,
      "dod": 4780,
      "fh": 4781,
      "fish": 4782,
      "fwd": 4783,
      "gwh": 4784,
      "h2": 4785,
      "hitch": 4786,
      "hvac": 4787,
      "ip": 4788,
      "lord": 4789,
      "loud": 4790,
      "lighter": 4791,
      "mix": 4792,
      "packs": 4793,
      "pounds": 4794,
      "rated": 4795,
      "sand": 4796,
      "sides": 4797,
      "ti": 4798,
      "treat": 4799,
      "yell": 4800,
      "##cceed": 4801,
      "##aur": 4802,
      "##rid": 4803,
      "##pre": 4804,
      "##pal": 4805,
      "##pro": 4806,
      "##pected": 4807,
      "##sc": 4808,
      "##bability": 4809,
      "##vior": 4810,
      "##fo": 4811,
      "##gun": 4812,
      "##xpected": 4813,
      "##zard": 4814,
      "##erve": 4815,
      "threat": 4816,
      "##orse": 4817,
      "##roph": 4818,
      "##lee": 4819,
      "reel": 4820,
      "ampl": 4821,
      "succeed": 4822,
      "##urally": 4823,
      "trail": 4824,
      "living": 4825,
      "enj": 4826,
      "noting": 4827,
      "deorbit": 4828,
      "rom": 4829,
      "organ": 4830,
      "abt": 4831,
      "##ulating": 4832,
      "modern": 4833,
      "memb": 4834,
      "compla": 4835,
      "compens": 4836,
      "arm": 4837,
      "highlight": 4838,
      "##endar": 4839,
      "launched": 4840,
      "somewhere": 4841,
      "applications": 4842,
      "superint": 4843,
      "drift": 4844,
      "bob": 4845,
      "whenever": 4846,
      "resol": 4847,
      "reserv": 4848,
      "powert": 4849,
      "intro": 4850,
      "intention": 4851,
      "quote": 4852,
      "improbability": 4853,
      "airport": 4854,
      "endorse": 4855,
      "calls": 4856,
      "insight": 4857,
      "guide": 4858,
      "depending": 4859,
      "brought": 4860,
      "planets": 4861,
      "calendar": 4862,
      "generate": 4863,
      "signature": 4864,
      "fold": 4865,
      "paris": 4866,
      "starhopper": 4867,
      "valu": 4868,
      "paypal": 4869,
      "personal": 4870,
      "simpler": 4871,
      "ironically": 4872,
      "collective": 4873,
      "elon": 4874,
      "geor": 4875,
      "winning": 4876,
      "initi": 4877,
      "##standing": 4878,
      "middle": 4879,
      "answered": 4880,
      "negatively": 4881,
      "##liers": 4882,
      "arriving": 4883,
      "irl": 4884,
      "scientific": 4885,
      "analy": 4886,
      "attacked": 4887,
      "ignore": 4888,
      "inspired": 4889,
      "cycles": 4890,
      "edge": 4891,
      "accounts": 4892,
      "challenge": 4893,
      "arrays": 4894,
      "stormy": 4895,
      "healthy": 4896,
      "editor": 4897,
      "sonic": 4898,
      "applies": 4899,
      "hydrogen": 4900,
      "methane": 4901,
      "eye": 4902,
      "behavior": 4903,
      "milestone": 4904,
      "naturally": 4905,
      "adventure": 4906,
      "unexpected": 4907,
      "galactic": 4908,
      "quickly": 4909,
      "destroyed": 4910,
      "authorities": 4911,
      "simultaneously": 4912,
      "weighs": 4913,
      "explode": 4914,
      "represent": 4915,
      "balance": 4916,
      "satisfaction": 4917,
      "tsla": 4918,
      "besides": 4919,
      "ridiculous": 4920,
      "coffee": 4921,
      "reflect": 4922,
      "committee": 4923,
      "bmw": 4924,
      "superintelligence": 4925,
      "400": 4926,
      "bother": 4927,
      "blad": 4928,
      "gpu": 4929,
      "hide": 4930,
      "jan": 4931,
      "jim": 4932,
      "led": 4933,
      "lid": 4934,
      "mand": 4935,
      "mich": 4936,
      "melt": 4937,
      "nv": 4938,
      "nested": 4939,
      "pra": 4940,
      "pist": 4941,
      "patter": 4942,
      "ran": 4943,
      "sir": 4944,
      "umm": 4945,
      "yep": 4946,
      "zer": 4947,
      "##hen": 4948,
      "##iently": 4949,
      "##cri": 4950,
      "##ton": 4951,
      "##rit": 4952,
      "##da": 4953,
      "##dden": 4954,
      "##bow": 4955,
      "##jo": 4956,
      "##ma": 4957,
      "##gment": 4958,
      "##gian": 4959,
      "##zil": 4960,
      "##inge": 4961,
      "##arre": 4962,
      "theor": 4963,
      "##rew": 4964,
      "inac": 4965,
      "##rock": 4966,
      "##room": 4967,
      "##ionics": 4968,
      "onion": 4969,
      "beach": 4970,
      "coinc": 4971,
      "##chang": 4972,
      "sus": 4973,
      "suffic": 4974,
      "sudden": 4975,
      "##sequ": 4976,
      "spring": 4977,
      "sphere": 4978,
      "enr": 4979,
      "noted": 4980,
      "dojo": 4981,
      "deus": 4982,
      "ash": 4983,
      "asking": 4984,
      "chem": 4985,
      "##rast": 4986,
      "##ostationary": 4987,
      "lake": 4988,
      "##imler": 4989,
      "mem": 4990,
      "usable": 4991,
      "english": 4992,
      "##iving": 4993,
      "acts": 4994,
      "##izations": 4995,
      "##igned": 4996,
      "prefer": 4997,
      "twist": 4998,
      "minnes": 4999,
      "orbits": 5000,
      "understood": 5001,
      "phones": 5002,
      "##bled": 5003,
      "scor": 5004,
      "consist": 5005,
      "heavily": 5006,
      "transmit": 5007,
      "joy": 5008,
      "energ": 5009,
      "##atsh": 5010,
      "farm": 5011,
      "signs": 5012,
      "surfaces": 5013,
      "avionics": 5014,
      "manag": 5015,
      "merger": 5016,
      "passing": 5017,
      "kidding": 5018,
      "posting": 5019,
      "decide": 5020,
      "remind": 5021,
      "brazil": 5022,
      "refill": 5023,
      "flame": 5024,
      "announcing": 5025,
      "checked": 5026,
      "developed": 5027,
      "baseball": 5028,
      "colony": 5029,
      "geostationary": 5030,
      "statement": 5031,
      "impacts": 5032,
      "daimler": 5033,
      "telling": 5034,
      "picked": 5035,
      "sentient": 5036,
      "mountain": 5037,
      "providing": 5038,
      "touchdown": 5039,
      "officer": 5040,
      "blowing": 5041,
      "increasingly": 5042,
      "continued": 5043,
      "entering": 5044,
      "epis": 5045,
      "scheduled": 5046,
      "spoke": 5047,
      "50k": 5048,
      "sequel": 5049,
      "explain": 5050,
      "deserve": 5051,
      "believing": 5052,
      "maximum": 5053,
      "monopol": 5054,
      "minimize": 5055,
      "housing": 5056,
      "trippy": 5057,
      "diesel": 5058,
      "traditional": 5059,
      "dynamic": 5060,
      "listening": 5061,
      "bizarre": 5062,
      "cowboy": 5063,
      "algorithm": 5064,
      "cabin": 5065,
      "tweaks": 5066,
      "pucker": 5067,
      "virginia": 5068,
      "benefit": 5069,
      "consciousness": 5070,
      "aspirationally": 5071,
      "violence": 5072,
      "nonsense": 5073,
      "protection": 5074,
      "platform": 5075,
      "symptoms": 5076,
      "citiz": 5077,
      "lidar": 5078,
      "pattern": 5079,
      "inacc": 5080,
      "minnesota": 5081,
      "brian": 5082,
      "cd": 5083,
      "cg": 5084,
      "dw": 5085,
      "dare": 5086,
      "dru": 5087,
      "dude": 5088,
      "duration": 5089,
      "felt": 5090,
      "gh": 5091,
      "gw": 5092,
      "gain": 5093,
      "hull": 5094,
      "hats": 5095,
      "hacked": 5096,
      "kany": 5097,
      "mc": 5098,
      "math": 5099,
      "q4": 5100,
      "que": 5101,
      "ty": 5102,
      "table": 5103,
      "tile": 5104,
      "trees": 5105,
      "v7": 5106,
      "##eer": 5107,
      "##ees": 5108,
      "##uitive": 5109,
      "##power": 5110,
      "##plan": 5111,
      "toast": 5112,
      "reverse": 5113,
      "stick": 5114,
      "ital": 5115,
      "##sey": 5116,
      "shear": 5117,
      "trig": 5118,
      "trim": 5119,
      "span": 5120,
      "spot": 5121,
      "notice": 5122,
      "doo": 5123,
      "chass": 5124,
      "chose": 5125,
      "##rage": 5126,
      "unus": 5127,
      "##amination": 5128,
      "comet": 5129,
      "##ife": 5130,
      "##ifying": 5131,
      "samp": 5132,
      "usage": 5133,
      "autost": 5134,
      "##ember": 5135,
      "lev": 5136,
      "lease": 5137,
      "flint": 5138,
      "bog": 5139,
      "moons": 5140,
      "interface": 5141,
      "permit": 5142,
      "##ensus": 5143,
      "content": 5144,
      "partners": 5145,
      "quotes": 5146,
      "elements": 5147,
      "phase": 5148,
      "owned": 5149,
      "caught": 5150,
      "##angu": 5151,
      "ended": 5152,
      "readers": 5153,
      "facto": 5154,
      "regen": 5155,
      "earths": 5156,
      "slower": 5157,
      "inde": 5158,
      "joined": 5159,
      "insan": 5160,
      "advoc": 5161,
      "throughout": 5162,
      "stress": 5163,
      "snake": 5164,
      "safest": 5165,
      "rolled": 5166,
      "whereas": 5167,
      "merc": 5168,
      "steven": 5169,
      "decision": 5170,
      "decided": 5171,
      "headline": 5172,
      "sunset": 5173,
      "volta": 5174,
      "singing": 5175,
      "corrections": 5176,
      "unveiled": 5177,
      "experien": 5178,
      "views": 5179,
      "reasonable": 5180,
      "journo": 5181,
      "optimization": 5182,
      "suggesting": 5183,
      "sheer": 5184,
      "lifting": 5185,
      "robust": 5186,
      "robota": 5187,
      "concrete": 5188,
      "breakfast": 5189,
      "saturn": 5190,
      "causes": 5191,
      "floating": 5192,
      "manufactur": 5193,
      "reduction": 5194,
      "clarke": 5195,
      "journalist": 5196,
      "deny": 5197,
      "trains": 5198,
      "harris": 5199,
      "photos": 5200,
      "september": 5201,
      "situations": 5202,
      "unlike": 5203,
      "premise": 5204,
      "projects": 5205,
      "stopping": 5206,
      "audi": 5207,
      "reliable": 5208,
      "democr": 5209,
      "contribution": 5210,
      "printing": 5211,
      "describe": 5212,
      "description": 5213,
      "financing": 5214,
      "thermal": 5215,
      "35k": 5216,
      "uncertain": 5217,
      "evolving": 5218,
      "hypoc": 5219,
      "spacesuit": 5220,
      "bottom": 5221,
      "inertia": 5222,
      "guardians": 5223,
      "recharging": 5224,
      "earnings": 5225,
      "historical": 5226,
      "atmospheric": 5227,
      "couple": 5228,
      "members": 5229,
      "zeroth": 5230,
      "gwyn": 5231,
      "kanye": 5232,
      "chassis": 5233,
      "voltaire": 5234,
      "robotax": 5235,
      "breat": 5236,
      "bunch": 5237,
      "bomb": 5238,
      "der": 5239,
      "dav": 5240,
      "gall": 5241,
      "hen": 5242,
      "host": 5243,
      "hits": 5244,
      "ich": 5245,
      "kw": 5246,
      "kim": 5247,
      "ring": 5248,
      "tent": 5249,
      "tbc": 5250,
      "xmas": 5251,
      "zillion": 5252,
      "##ault": 5253,
      "##ub": 5254,
      "##uz": 5255,
      "##uilt": 5256,
      "##days": 5257,
      "##pri": 5258,
      "##ogn": 5259,
      "##bed": 5260,
      "##vable": 5261,
      "##mate": 5262,
      "##mbled": 5263,
      "##wear": 5264,
      "##watt": 5265,
      "##80": 5266,
      "##erry": 5267,
      "thick": 5268,
      "##inction": 5269,
      "##lla": 5270,
      "toy": 5271,
      "##enc": 5272,
      "##enger": 5273,
      "##sters": 5274,
      "##rele": 5275,
      "inference": 5276,
      "##mph": 5277,
      "##iced": 5278,
      "##lement": 5279,
      "##ison": 5280,
      "beast": 5281,
      "stamp": 5282,
      "##enty": 5283,
      "##tered": 5284,
      "##iler": 5285,
      "shirt": 5286,
      "trial": 5287,
      "exting": 5288,
      "envelop": 5289,
      "dome": 5290,
      "choc": 5291,
      "mamm": 5292,
      "##raine": 5293,
      "aband": 5294,
      "##ortion": 5295,
      "unice": 5296,
      "##imation": 5297,
      "goods": 5298,
      "##ipe": 5299,
      "compl": 5300,
      "##uman": 5301,
      "##apers": 5302,
      "comedy": 5303,
      "saved": 5304,
      "outfit": 5305,
      "hey": 5306,
      "plum": 5307,
      "plenty": 5308,
      "shouldnt": 5309,
      "acting": 5310,
      "leasing": 5311,
      "rights": 5312,
      "conting": 5313,
      "partly": 5314,
      "partially": 5315,
      "recogn": 5316,
      "aftern": 5317,
      "designing": 5318,
      "related": 5319,
      "relatively": 5320,
      "suppliers": 5321,
      "click": 5322,
      "posit": 5323,
      "finishing": 5324,
      "scam": 5325,
      "prize": 5326,
      "donating": 5327,
      "transp": 5328,
      "transaction": 5329,
      "advis": 5330,
      "planes": 5331,
      "redes": 5332,
      "apj": 5333,
      "taxing": 5334,
      "paying": 5335,
      "raising": 5336,
      "talula": 5337,
      "norwe": 5338,
      "reviewing": 5339,
      "passive": 5340,
      "passenger": 5341,
      "autoba": 5342,
      "blood": 5343,
      "gigawatt": 5344,
      "volt": 5345,
      "compete": 5346,
      "vacation": 5347,
      "checks": 5348,
      "proportion": 5349,
      "broken": 5350,
      "funded": 5351,
      "sustaining": 5352,
      "upgrading": 5353,
      "police": 5354,
      "collision": 5355,
      "slowly": 5356,
      "protest": 5357,
      "suggested": 5358,
      "##book": 5359,
      "sensitive": 5360,
      "beauty": 5361,
      "blocked": 5362,
      "economist": 5363,
      "economics": 5364,
      "assess": 5365,
      "leading": 5366,
      "leaders": 5367,
      "dawn": 5368,
      "achieves": 5369,
      "potentially": 5370,
      "docks": 5371,
      "linear": 5372,
      "irrele": 5373,
      "descent": 5374,
      "attacking": 5375,
      "frames": 5376,
      "parked": 5377,
      "cycle": 5378,
      "walking": 5379,
      "prototypes": 5380,
      "growth": 5381,
      "assembled": 5382,
      "wood": 5383,
      "windows": 5384,
      "applying": 5385,
      "influ": 5386,
      "thousand": 5387,
      "germany": 5388,
      "##cracker": 5389,
      "characters": 5390,
      "replacement": 5391,
      "switched": 5392,
      "cryptoc": 5393,
      "buffer": 5394,
      "communication": 5395,
      "houses": 5396,
      "cancer": 5397,
      "nuts": 5398,
      "##borhood": 5399,
      "surprisingly": 5400,
      "psy": 5401,
      "ukraine": 5402,
      "jersey": 5403,
      "rhd": 5404,
      "enemies": 5405,
      "capita": 5406,
      "condition": 5407,
      "captured": 5408,
      "emoji": 5409,
      "liberty": 5410,
      "nominal": 5411,
      "parachutes": 5412,
      "compression": 5413,
      "pyramids": 5414,
      "leeward": 5415,
      "principle": 5416,
      "neighborhood": 5417,
      "stanford": 5418,
      "superalloy": 5419,
      "neutral": 5420,
      "inevitable": 5421,
      "cumulative": 5422,
      "powertrain": 5423,
      "george": 5424,
      "memory": 5425,
      "bogus": 5426,
      "extingu": 5427,
      "envelope": 5428,
      "abandon": 5429,
      "unicef": 5430,
      "talulah": 5431,
      "autobahn": 5432,
      "bb": 5433,
      "bang": 5434,
      "bbc": 5435,
      "ct": 5436,
      "cather": 5437,
      "ein": 5438,
      "father": 5439,
      "fought": 5440,
      "grief": 5441,
      "hero": 5442,
      "kit": 5443,
      "mat": 5444,
      "mcc": 5445,
      "n2": 5446,
      "pace": 5447,
      "powers": 5448,
      "rn": 5449,
      "rt": 5450,
      "rang": 5451,
      "sentry": 5452,
      "tar": 5453,
      "vot": 5454,
      "ya": 5455,
      "yo": 5456,
      "##ius": 5457,
      "##tr": 5458,
      "##tor": 5459,
      "##ued": 5460,
      "##yuz": 5461,
      "##do": 5462,
      "##ses": 5463,
      "##esis": 5464,
      "##onge": 5465,
      "##lly": 5466,
      "tox": 5467,
      "##enn": 5468,
      "##sts": 5469,
      "##ett": 5470,
      "##icient": 5471,
      "##ela": 5472,
      "##utions": 5473,
      "##asion": 5474,
      "anten": 5475,
      "soyuz": 5476,
      "##owed": 5477,
      "stable": 5478,
      "##adian": 5479,
      "willing": 5480,
      "##verage": 5481,
      "##urr": 5482,
      "##throp": 5483,
      "##unt": 5484,
      "roc": 5485,
      "carmakers": 5486,
      "alive": 5487,
      "concept": 5488,
      "##ables": 5489,
      "##rapped": 5490,
      "##oute": 5491,
      "lax": 5492,
      "unf": 5493,
      "memor": 5494,
      "##used": 5495,
      "canadian": 5496,
      "##ama": 5497,
      "saves": 5498,
      "aren": 5499,
      "##cont": 5500,
      "adams": 5501,
      "ourselves": 5502,
      "tail": 5503,
      "superh": 5504,
      "mayans": 5505,
      "moved": 5506,
      "interse": 5507,
      "imf": 5508,
      "knew": 5509,
      "quant": 5510,
      "pupp": 5511,
      "grade": 5512,
      "held": 5513,
      "clic": 5514,
      "gen3": 5515,
      "displ": 5516,
      "massie": 5517,
      "confusion": 5518,
      "sn2": 5519,
      "snail": 5520,
      "signing": 5521,
      "metap": 5522,
      "safely": 5523,
      "invited": 5524,
      "food": 5525,
      "pretending": 5526,
      "openai": 5527,
      "efficient": 5528,
      "##aker": 5529,
      "courses": 5530,
      "refu": 5531,
      "sale": 5532,
      "affected": 5533,
      "wave": 5534,
      "nonstop": 5535,
      "glitch": 5536,
      "breaks": 5537,
      "10m": 5538,
      "moments": 5539,
      "blackouts": 5540,
      "programs": 5541,
      "flows": 5542,
      "turbo": 5543,
      "northern": 5544,
      "civilizations": 5545,
      "lining": 5546,
      "incentive": 5547,
      "predic": 5548,
      "killed": 5549,
      "journalism": 5550,
      "pumps": 5551,
      "astronom": 5552,
      "telesc": 5553,
      "various": 5554,
      "growing": 5555,
      "layers": 5556,
      "wednes": 5557,
      "losing": 5558,
      "prevented": 5559,
      "horsef": 5560,
      "enabling": 5561,
      "enabled": 5562,
      "rails": 5563,
      "audience": 5564,
      "maximize": 5565,
      "exponentially": 5566,
      "miniature": 5567,
      "culture": 5568,
      "paradise": 5569,
      "cookies": 5570,
      "ambient": 5571,
      "500m": 5572,
      "encounter": 5573,
      "convinced": 5574,
      "controlled": 5575,
      "unreason": 5576,
      "pedestrian": 5577,
      "britain": 5578,
      "explosion": 5579,
      "fiat": 5580,
      "vtol": 5581,
      "corporate": 5582,
      "angeles": 5583,
      "practical": 5584,
      "owed": 5585,
      "##iosis": 5586,
      "symbiosis": 5587,
      "conservative": 5588,
      "yellow": 5589,
      "analysts": 5590,
      "meltdown": 5591,
      "inaccurate": 5592,
      "trigger": 5593,
      "##encies": 5594,
      "afternoon": 5595,
      "bbq": 5596,
      "catherine": 5597,
      "display": 5598,
      "wednesday": 5599,
      "average": 5600,
      "b4": 5601,
      "btc": 5602,
      "cro": 5603,
      "coun": 5604,
      "cup": 5605,
      "cath": 5606,
      "dj": 5607,
      "dust": 5608,
      "dim": 5609,
      "gest": 5610,
      "gather": 5611,
      "hp": 5612,
      "hid": 5613,
      "jun": 5614,
      "kern": 5615,
      "mi": 5616,
      "mel": 5617,
      "mac": 5618,
      "nic": 5619,
      "pd": 5620,
      "pink": 5621,
      "q1": 5622,
      "sight": 5623,
      "vents": 5624,
      "wis": 5625,
      "##cil": 5626,
      "##eal": 5627,
      "##ech": 5628,
      "##ney": 5629,
      "##awn": 5630,
      "##lim": 5631,
      "##pad": 5632,
      "##oint": 5633,
      "##ogy": 5634,
      "##oys": 5635,
      "##bac": 5636,
      "##burn": 5637,
      "##more": 5638,
      "##mous": 5639,
      "##miss": 5640,
      "##12": 5641,
      "##oring": 5642,
      "##atics": 5643,
      "##inger": 5644,
      "tobac": 5645,
      "##ench": 5646,
      "##stream": 5647,
      "##als": 5648,
      "##eted": 5649,
      "##icopter": 5650,
      "##uts": 5651,
      "##isher": 5652,
      "##igs": 5653,
      "##otic": 5654,
      "stup": 5655,
      "stag": 5656,
      "wear": 5657,
      "wearing": 5658,
      "##idium": 5659,
      "##ili": 5660,
      "butter": 5661,
      "##oph": 5662,
      "##opia": 5663,
      "sho": 5664,
      "shape": 5665,
      "shades": 5666,
      "trag": 5667,
      "sponge": 5668,
      "doe": 5669,
      "doct": 5670,
      "orgs": 5671,
      "asks": 5672,
      "lob": 5673,
      "chief": 5674,
      "cherry": 5675,
      "##rians": 5676,
      "laugh": 5677,
      "##acking": 5678,
      "myster": 5679,
      "arc": 5680,
      "among": 5681,
      "fees": 5682,
      "hepa": 5683,
      "##rys": 5684,
      "adap": 5685,
      "shouldn": 5686,
      "launchpad": 5687,
      "autose": 5688,
      "##quence": 5689,
      "leo": 5690,
      "##pton": 5691,
      "solarg": 5692,
      "bold": 5693,
      "desire": 5694,
      "income": 5695,
      "preburn": 5696,
      "perman": 5697,
      "##bell": 5698,
      "cru": 5699,
      "crane": 5700,
      "poor": 5701,
      "powerpack": 5702,
      "intended": 5703,
      "recyc": 5704,
      "accumul": 5705,
      "helicopter": 5706,
      "##ocracy": 5707,
      "scen": 5708,
      "additional": 5709,
      "facts": 5710,
      "shortfall": 5711,
      "disp": 5712,
      "dismiss": 5713,
      "french": 5714,
      "county": 5715,
      "fog": 5716,
      "param": 5717,
      "parents": 5718,
      "starman": 5719,
      "##ggage": 5720,
      "manage": 5721,
      "reviews": 5722,
      "ski": 5723,
      "skit": 5724,
      "##aken": 5725,
      "decent": 5726,
      "instant": 5727,
      "controls": 5728,
      "##gency": 5729,
      "unveils": 5730,
      "regulations": 5731,
      "foundry": 5732,
      "putin": 5733,
      "brother": 5734,
      "movement": 5735,
      "nearby": 5736,
      "meantime": 5737,
      "equator": 5738,
      "secondary": 5739,
      "100k": 5740,
      "collect": 5741,
      "stories": 5742,
      "attemp": 5743,
      "toughest": 5744,
      "specs": 5745,
      "logo": 5746,
      "30k": 5747,
      "aston": 5748,
      "painted": 5749,
      "concl": 5750,
      "angels": 5751,
      "hw1": 5752,
      "alto": 5753,
      "adjusted": 5754,
      "iridium": 5755,
      "deadly": 5756,
      "##ructure": 5757,
      "configur": 5758,
      "reduced": 5759,
      "fraud": 5760,
      "clarification": 5761,
      "estate": 5762,
      "writer": 5763,
      "harness": 5764,
      "continuous": 5765,
      "2500": 5766,
      "degree": 5767,
      "illust": 5768,
      "prediction": 5769,
      "split": 5770,
      "preventing": 5771,
      "explains": 5772,
      "inflatable": 5773,
      "criticisms": 5774,
      "hanging": 5775,
      "##ypse": 5776,
      "shuttle": 5777,
      "researchers": 5778,
      "ambien": 5779,
      "eyes": 5780,
      "convinces": 5781,
      "foolish": 5782,
      "garage": 5783,
      "luggage": 5784,
      "actuator": 5785,
      "pedestrians": 5786,
      "carried": 5787,
      "legislation": 5788,
      "defeated": 5789,
      "profitable": 5790,
      "renewable": 5791,
      "palo": 5792,
      "vibe": 5793,
      "viruses": 5794,
      "rumor": 5795,
      "strategy": 5796,
      "exceptional": 5797,
      "insertion": 5798,
      "blade": 5799,
      "prav": 5800,
      "coincidence": 5801,
      "enroute": 5802,
      "ghost": 5803,
      "sample": 5804,
      "insanely": 5805,
      "uncertainty": 5806,
      "voltage": 5807,
      "superhuman": 5808,
      "council": 5809,
      "gestures": 5810,
      "hidden": 5811,
      "kernel": 5812,
      "pdt": 5813,
      "wisdom": 5814,
      "tobacco": 5815,
      "stupid": 5816,
      "mystery": 5817,
      "autosequence": 5818,
      "solarglass": 5819,
      "16": 5820,
      "14": 5821,
      "2k": 5822,
      "bol": 5823,
      "bars": 5824,
      "bots": 5825,
      "cert": 5826,
      "cnn": 5827,
      "dick": 5828,
      "dense": 5829,
      "fart": 5830,
      "hors": 5831,
      "holo": 5832,
      "hond": 5833,
      "jury": 5834,
      "kale": 5835,
      "moth": 5836,
      "na": 5837,
      "names": 5838,
      "pcr": 5839,
      "rally": 5840,
      "sac": 5841,
      "seam": 5842,
      "till": 5843,
      "tcp": 5844,
      "vat": 5845,
      "vict": 5846,
      "wider": 5847,
      "##hamm": 5848,
      "##ki": 5849,
      "##ections": 5850,
      "##aft": 5851,
      "##aign": 5852,
      "##uct": 5853,
      "##uish": 5854,
      "##ugg": 5855,
      "##rite": 5856,
      "##yard": 5857,
      "##punk": 5858,
      "##sight": 5859,
      "##och": 5860,
      "##bes": 5861,
      "thor": 5862,
      "##inguish": 5863,
      "##arian": 5864,
      "tom": 5865,
      "##oul": 5866,
      "##ouri": 5867,
      "##ete": 5868,
      "##ros": 5869,
      "rew": 5870,
      "rein": 5871,
      "sole": 5872,
      "std": 5873,
      "stole": 5874,
      "web": 5875,
      "prod": 5876,
      "proper": 5877,
      "##ilogy": 5878,
      "shd": 5879,
      "shes": 5880,
      "shade": 5881,
      "trilogy": 5882,
      "hazard": 5883,
      "##under": 5884,
      "exists": 5885,
      "alar": 5886,
      "sex": 5887,
      "chutes": 5888,
      "aborts": 5889,
      "una": 5890,
      "uncover": 5891,
      "##ometer": 5892,
      "##apse": 5893,
      "ars": 5894,
      "amish": 5895,
      "plot": 5896,
      "tast": 5897,
      "taught": 5898,
      "overl": 5899,
      "flush": 5900,
      "desert": 5901,
      "prep": 5902,
      "##gring": 5903,
      "##ensing": 5904,
      "whoa": 5905,
      "reson": 5906,
      "server": 5907,
      "afric": 5908,
      "airplan": 5909,
      "underwear": 5910,
      "##oco": 5911,
      "regime": 5912,
      "slacker": 5913,
      "obama": 5914,
      "##ago": 5915,
      "jokes": 5916,
      "bored": 5917,
      "strang": 5918,
      "releasing": 5919,
      "sn5": 5920,
      "redund": 5921,
      "meds": 5922,
      "medium": 5923,
      "reviewed": 5924,
      "detour": 5925,
      "rises": 5926,
      "rising": 5927,
      "differences": 5928,
      "court": 5929,
      "weld": 5930,
      "salt": 5931,
      "located": 5932,
      "ownership": 5933,
      "emiss": 5934,
      "buildings": 5935,
      "barrel": 5936,
      "automation": 5937,
      "closest": 5938,
      "seller": 5939,
      "dropping": 5940,
      "replies": 5941,
      "fuels": 5942,
      "polar": 5943,
      "generalized": 5944,
      "collapse": 5945,
      "stored": 5946,
      "glenn": 5947,
      "slowed": 5948,
      "difficulty": 5949,
      "pair": 5950,
      "paper": 5951,
      "damaged": 5952,
      "sheep": 5953,
      "sensor": 5954,
      "stronger": 5955,
      "programm": 5956,
      "##ventions": 5957,
      "honest": 5958,
      "purely": 5959,
      "factories": 5960,
      "charl": 5961,
      "figured": 5962,
      "##licit": 5963,
      "offered": 5964,
      "ideally": 5965,
      "##going": 5966,
      "environments": 5967,
      "governor": 5968,
      "plastic": 5969,
      "telep": 5970,
      "blows": 5971,
      "carrying": 5972,
      "occur": 5973,
      "cows": 5974,
      "counteract": 5975,
      "streaming": 5976,
      "circum": 5977,
      "oddly": 5978,
      "objects": 5979,
      "objective": 5980,
      "campaign": 5981,
      "cov2": 5982,
      "minimizing": 5983,
      "synch": 5984,
      "independently": 5985,
      "meaningful": 5986,
      "turbopumps": 5987,
      "dinos": 5988,
      "walls": 5989,
      "facebook": 5990,
      "street": 5991,
      "constrained": 5992,
      "purpose": 5993,
      "##burgring": 5994,
      "committed": 5995,
      "convenient": 5996,
      "convenience": 5997,
      "reno": 5998,
      "psi": 5999,
      "chanos": 6000,
      "cuph": 6001,
      "unreal": 6002,
      "resistance": 6003,
      "enemy": 6004,
      "capitol": 6005,
      "lucky": 6006,
      "dollar": 6007,
      "squirrels": 6008,
      "legisl": 6009,
      "occupant": 6010,
      "described": 6011,
      "mirror": 6012,
      "commissioner": 6013,
      "cyberpunk": 6014,
      "junkyard": 6015,
      "vaccines": 6016,
      "anomalies": 6017,
      "stabilize": 6018,
      "enjoy": 6019,
      "initiated": 6020,
      "ashlee": 6021,
      "autosteer": 6022,
      "democratic": 6023,
      "norwegian": 6024,
      "cryptocurr": 6025,
      "abandoned": 6026,
      "clicks": 6027,
      "tragic": 6028,
      "recycling": 6029,
      "horses": 6030,
      "honda": 6031,
      "sacrif": 6032,
      "##hammer": 6033,
      "thorough": 6034,
      "africa": 6035,
      "airplanes": 6036,
      "cryptocurrency": 6037,
      "200": 6038,
      "45": 6039,
      "78": 6040,
      "800": 6041,
      "90": 6042,
      "aware": 6043,
      "ble": 6044,
      "bost": 6045,
      "bull": 6046,
      "bond": 6047,
      "borders": 6048,
      "cord": 6049,
      "dank": 6050,
      "et": 6051,
      "gend": 6052,
      "hh": 6053,
      "hmm": 6054,
      "homes": 6055,
      "jet": 6056,
      "mas": 6057,
      "mouth": 6058,
      "nr": 6059,
      "nin": 6060,
      "pour": 6061,
      "pors": 6062,
      "rates": 6063,
      "sick": 6064,
      "srs": 6065,
      "sara": 6066,
      "tied": 6067,
      "wired": 6068,
      "yrs": 6069,
      "##house": 6070,
      "##test": 6071,
      "##au": 6072,
      "##aic": 6073,
      "##axy": 6074,
      "##rated": 6075,
      "##rding": 6076,
      "##lines": 6077,
      "##press": 6078,
      "##ju": 6079,
      "##gering": 6080,
      "##za": 6081,
      "##zes": 6082,
      "##ingly": 6083,
      "##anch": 6084,
      "##anoid": 6085,
      "##itas": 6086,
      "inver": 6087,
      "##ication": 6088,
      "##icking": 6089,
      "##leep": 6090,
      "##otely": 6091,
      "##owea": 6092,
      "coat": 6093,
      "coach": 6094,
      "##ctim": 6095,
      "##idia": 6096,
      "##change": 6097,
      "##allow": 6098,
      "neil": 6099,
      "prove": 6100,
      "shares": 6101,
      "haven": 6102,
      "##ception": 6103,
      "##unds": 6104,
      "dozen": 6105,
      "deck": 6106,
      "royal": 6107,
      "##estream": 6108,
      "altern": 6109,
      "seas": 6110,
      "consequ": 6111,
      "chea": 6112,
      "chrys": 6113,
      "##ession": 6114,
      "##ulate": 6115,
      "##anted": 6116,
      "univ": 6117,
      "uncomp": 6118,
      "noon": 6119,
      "##imated": 6120,
      "compar": 6121,
      "amend": 6122,
      "highways": 6123,
      "##endent": 6124,
      "fee": 6125,
      "plays": 6126,
      "plug": 6127,
      "##osal": 6128,
      "##duct": 6129,
      "overse": 6130,
      "overha": 6131,
      "oversight": 6132,
      "bud": 6133,
      "evolution": 6134,
      "##quis": 6135,
      "flare": 6136,
      "boom": 6137,
      "premi": 6138,
      "earn": 6139,
      "verb": 6140,
      "verify": 6141,
      "rightly": 6142,
      "contour": 6143,
      "contains": 6144,
      "explicit": 6145,
      "images": 6146,
      "pock": 6147,
      "knife": 6148,
      "##astroph": 6149,
      "qual": 6150,
      "awe": 6151,
      "awa": 6152,
      "puff": 6153,
      "reporter": 6154,
      "grind": 6155,
      "supposed": 6156,
      "##phob": 6157,
      "ending": 6158,
      "endurance": 6159,
      "delight": 6160,
      "sledge": 6161,
      "startups": 6162,
      "heavier": 6163,
      "ops": 6164,
      "transpar": 6165,
      "subst": 6166,
      "supports": 6167,
      "showed": 6168,
      "retire": 6169,
      "retract": 6170,
      "##ella": 6171,
      "##erto": 6172,
      "throughput": 6173,
      "sn4": 6174,
      "importantly": 6175,
      "secured": 6176,
      "##atched": 6177,
      "invent": 6178,
      "paranoid": 6179,
      "manual": 6180,
      "servicing": 6181,
      "passage": 6182,
      "swift": 6183,
      "##utional": 6184,
      "declin": 6185,
      "remotely": 6186,
      "buyer": 6187,
      "handed": 6188,
      "locally": 6189,
      "##ilton": 6190,
      "internally": 6191,
      "barri": 6192,
      "credits": 6193,
      "trucks": 6194,
      "roofs": 6195,
      "replacing": 6196,
      "herbert": 6197,
      "distrib": 6198,
      "schrding": 6199,
      "optimal": 6200,
      "subscri": 6201,
      "absolute": 6202,
      "runs": 6203,
      "largely": 6204,
      "speculation": 6205,
      "strongest": 6206,
      "traveling": 6207,
      "functional": 6208,
      "buttons": 6209,
      "sources": 6210,
      "utter": 6211,
      "catastroph": 6212,
      "expecting": 6213,
      "f9r": 6214,
      "crewed": 6215,
      "perfectly": 6216,
      "connector": 6217,
      "promote": 6218,
      "inspector": 6219,
      "loops": 6220,
      "includes": 6221,
      "walked": 6222,
      "exceptions": 6223,
      "begins": 6224,
      "continuance": 6225,
      "biowea": 6226,
      "towel": 6227,
      "impression": 6228,
      "locked": 6229,
      "illusion": 6230,
      "mkt": 6231,
      "square": 6232,
      "loses": 6233,
      "streams": 6234,
      "strain": 6235,
      "explained": 6236,
      "##resp": 6237,
      "concerned": 6238,
      "##onymous": 6239,
      "retrofit": 6240,
      "shutdown": 6241,
      "tuesday": 6242,
      "stacking": 6243,
      "##ospace": 6244,
      "hydrophob": 6245,
      "##abilities": 6246,
      "elevators": 6247,
      "confirmation": 6248,
      "facilities": 6249,
      "fictional": 6250,
      "printed": 6251,
      "mechanical": 6252,
      "copv": 6253,
      "cancel": 6254,
      "galaxy": 6255,
      "shops": 6256,
      "sanctim": 6257,
      "discounts": 6258,
      "dollars": 6259,
      "british": 6260,
      "repeated": 6261,
      "absurdly": 6262,
      "pneumatic": 6263,
      "temporary": 6264,
      "bodies": 6265,
      "raises": 6266,
      "esthetic": 6267,
      "dialog": 6268,
      "ticket": 6269,
      "werent": 6270,
      "aerospace": 6271,
      "tintin": 6272,
      "apocalypse": 6273,
      "induction": 6274,
      "maneuver": 6275,
      "entrance": 6276,
      "reservation": 6277,
      "nvidia": 6278,
      "energized": 6279,
      "unusually": 6280,
      "redesign": 6281,
      "irrelevant": 6282,
      "extinguisher": 6283,
      "antenna": 6284,
      "rococo": 6285,
      "telescop": 6286,
      "cathode": 6287,
      "lobby": 6288,
      "nrburgring": 6289,
      "porsche": 6290,
      "srsly": 6291,
      "sarah": 6292,
      "consequences": 6293,
      "chrysler": 6294,
      "uncompeted": 6295,
      "overhaul": 6296,
      "sledgehammer": 6297,
      "schrdinger": 6298,
      "subscription": 6299,
      "bioweapon": 6300,
      "hydrophobic": 6301,
      "01": 6302,
      "alex": 6303,
      "bed": 6304,
      "bake": 6305,
      "batt": 6306,
      "cate": 6307,
      "cous": 6308,
      "egy": 6309,
      "eating": 6310,
      "hom": 6311,
      "horn": 6312,
      "koch": 6313,
      "lte": 6314,
      "mor": 6315,
      "mall": 6316,
      "nano": 6317,
      "nope": 6318,
      "oat": 6319,
      "pill": 6320,
      "q3": 6321,
      "rive": 6322,
      "rush": 6323,
      "rico": 6324,
      "sats": 6325,
      "til": 6326,
      "tear": 6327,
      "v6": 6328,
      "vig": 6329,
      "wine": 6330,
      "wire": 6331,
      "zomb": 6332,
      "##ias": 6333,
      "##ients": 6334,
      "##cis": 6335,
      "##kind": 6336,
      "##tal": 6337,
      "##ah": 6338,
      "##aac": 6339,
      "##ube": 6340,
      "##ray": 6341,
      "##dp": 6342,
      "##lich": 6343,
      "##sw": 6344,
      "##oil": 6345,
      "##mod": 6346,
      "##munds": 6347,
      "##get": 6348,
      "##gers": 6349,
      "##50": 6350,
      "thaic": 6351,
      "##inent": 6352,
      "##inter": 6353,
      "##inks": 6354,
      "##inist": 6355,
      "##esy": 6356,
      "##ona": 6357,
      "##orious": 6358,
      "##atory": 6359,
      "##lled": 6360,
      "##anes": 6361,
      "##ourage": 6362,
      "##itud": 6363,
      "##reh": 6364,
      "isaac": 6365,
      "##eters": 6366,
      "##icago": 6367,
      "##uttal": 6368,
      "##ashing": 6369,
      "##acit": 6370,
      "##isely": 6371,
      "##othing": 6372,
      "forced": 6373,
      "onboard": 6374,
      "beam": 6375,
      "##illa": 6376,
      "copper": 6377,
      "stro": 6378,
      "stowed": 6379,
      "sticking": 6380,
      "items": 6381,
      "##iden": 6382,
      "##odes": 6383,
      "##meal": 6384,
      "##ader": 6385,
      "whom": 6386,
      "##urized": 6387,
      "prohib": 6388,
      "##opt": 6389,
      "sher": 6390,
      "shill": 6391,
      "shall": 6392,
      "shell": 6393,
      "shots": 6394,
      "shoes": 6395,
      "spea": 6396,
      "examination": 6397,
      "limb": 6398,
      "enorm": 6399,
      "##keys": 6400,
      "dear": 6401,
      "cards": 6402,
      "##abled": 6403,
      "chicago": 6404,
      "worri": 6405,
      "alloy": 6406,
      "mods": 6407,
      "und": 6408,
      "unb": 6409,
      "unique": 6410,
      "compreh": 6411,
      "##usk": 6412,
      "sae": 6413,
      "wouldve": 6414,
      "imped": 6415,
      "heatsh": 6416,
      "therefore": 6417,
      "##ects": 6418,
      "bugs": 6419,
      "##quil": 6420,
      "##quiv": 6421,
      "##quire": 6422,
      "##irect": 6423,
      "##ints": 6424,
      "monkeys": 6425,
      "moo": 6426,
      "workers": 6427,
      "longitud": 6428,
      "draft": 6429,
      "whoop": 6430,
      "knock": 6431,
      "intuitive": 6432,
      "served": 6433,
      "default": 6434,
      "puerto": 6435,
      "underest": 6436,
      "relent": 6437,
      "helo": 6438,
      "scroll": 6439,
      "screw": 6440,
      "adds": 6441,
      "office": 6442,
      "autopark": 6443,
      "factors": 6444,
      "earthqu": 6445,
      "sloths": 6446,
      "indirect": 6447,
      "builds": 6448,
      "disast": 6449,
      "disruption": 6450,
      "disabled": 6451,
      "donated": 6452,
      "subt": 6453,
      "subway": 6454,
      "roadsters": 6455,
      "advise": 6456,
      "branch": 6457,
      "retains": 6458,
      "snap": 6459,
      "sneak": 6460,
      "belts": 6461,
      "awesom": 6462,
      "paraf": 6463,
      "possibility": 6464,
      "steer": 6465,
      "traject": 6466,
      "increment": 6467,
      "decides": 6468,
      "instr": 6469,
      "holders": 6470,
      "creator": 6471,
      "detect": 6472,
      "brave": 6473,
      "sung": 6474,
      "sunlight": 6475,
      "player": 6476,
      "flaming": 6477,
      "visual": 6478,
      "risky": 6479,
      "covers": 6480,
      "correll": 6481,
      "radi": 6482,
      "temps": 6483,
      "tempting": 6484,
      "markets": 6485,
      "priorities": 6486,
      "infrast": 6487,
      "closing": 6488,
      "##otech": 6489,
      "hottest": 6490,
      "replied": 6491,
      "targeted": 6492,
      "older": 6493,
      "watcht": 6494,
      "disclos": 6495,
      "reaches": 6496,
      "continent": 6497,
      "continues": 6498,
      "picking": 6499,
      "follows": 6500,
      "coaster": 6501,
      "precisely": 6502,
      "marks": 6503,
      "panel": 6504,
      "blocks": 6505,
      "empire": 6506,
      "economies": 6507,
      "trickery": 6508,
      "damp": 6509,
      "altho": 6510,
      "potat": 6511,
      "receives": 6512,
      "docked": 6513,
      "arrive": 6514,
      "judgment": 6515,
      "requirements": 6516,
      "##prise": 6517,
      "billions": 6518,
      "promised": 6519,
      "patent": 6520,
      "patients": 6521,
      "edmunds": 6522,
      "ideal": 6523,
      "##icians": 6524,
      "labeling": 6525,
      "accounting": 6526,
      "denying": 6527,
      "message": 6528,
      "varies": 6529,
      "device": 6530,
      "biosh": 6531,
      "candid": 6532,
      "enterprise": 6533,
      "catching": 6534,
      "thrott": 6535,
      "photon": 6536,
      "cowbell": 6537,
      "mk1": 6538,
      "printer": 6539,
      "surprised": 6540,
      "horsepower": 6541,
      "immediate": 6542,
      "edited": 6543,
      "title": 6544,
      "##graphic": 6545,
      "lawsuit": 6546,
      "hangar": 6547,
      "plants": 6548,
      "competitor": 6549,
      "sync": 6550,
      "rendering": 6551,
      "terminals": 6552,
      "hurts": 6553,
      "drama": 6554,
      "tuning": 6555,
      "rebuttal": 6556,
      "megap": 6557,
      "casting": 6558,
      "castle": 6559,
      "cookie": 6560,
      "enhance": 6561,
      "exclusive": 6562,
      "penn": 6563,
      "penal": 6564,
      "pulling": 6565,
      "encourage": 6566,
      "minecraft": 6567,
      "excessive": 6568,
      "blast": 6569,
      "unequiv": 6570,
      "tradem": 6571,
      "bench": 6572,
      "graphite": 6573,
      "identical": 6574,
      "oslo": 6575,
      "administ": 6576,
      "drawing": 6577,
      "pneumatics": 6578,
      "removed": 6579,
      "simplify": 6580,
      "renewables": 6581,
      "iteration": 6582,
      "bodes": 6583,
      "raisin": 6584,
      "employee": 6585,
      "employees": 6586,
      "esthet": 6587,
      "variants": 6588,
      "entertaining": 6589,
      "##stein": 6590,
      "apologies": 6591,
      "responsible": 6592,
      "originally": 6593,
      "opportunity": 6594,
      "lbf": 6595,
      "lung": 6596,
      "context": 6597,
      "h2o": 6598,
      "sandy": 6599,
      "compensate": 6600,
      "theoret": 6601,
      "scorch": 6602,
      "monopolies": 6603,
      "citizen": 6604,
      "index": 6605,
      "manufacturers": 6606,
      "gwynne": 6607,
      "david": 6608,
      "psych": 6609,
      "toxic": 6610,
      "staggering": 6611,
      "doctors": 6612,
      "attempting": 6613,
      "illustrate": 6614,
      "tillerson": 6615,
      "distribution": 6616,
      "egypt": 6617,
      "oatmeal": 6618,
      "rushmore": 6619,
      "tilburg": 6620,
      "tears": 6621,
      "thaicom": 6622,
      "limbic": 6623,
      "enormous": 6624,
      "worried": 6625,
      "heatshield": 6626,
      "longitudinal": 6627,
      "parafoil": 6628,
      "trajectory": 6629,
      "infrastructure": 6630,
      "bioshock": 6631,
      "5b": 6632,
      "70": 6633,
      "bac": 6634,
      "bure": 6635,
      "boss": 6636,
      "bik": 6637,
      "cuff": 6638,
      "du": 6639,
      "dar": 6640,
      "dad": 6641,
      "dys": 6642,
      "edu": 6643,
      "fp": 6644,
      "fost": 6645,
      "finger": 6646,
      "gaps": 6647,
      "honey": 6648,
      "jes": 6649,
      "kara": 6650,
      "lions": 6651,
      "mn": 6652,
      "ment": 6653,
      "mason": 6654,
      "nk": 6655,
      "nan": 6656,
      "null": 6657,
      "nighter": 6658,
      "og": 6659,
      "oly": 6660,
      "rar": 6661,
      "ram": 6662,
      "ruled": 6663,
      "sq": 6664,
      "sain": 6665,
      "soul": 6666,
      "sleep": 6667,
      "tay": 6668,
      "tether": 6669,
      "tune": 6670,
      "vance": 6671,
      "vader": 6672,
      "wang": 6673,
      "yr": 6674,
      "yel": 6675,
      "zo": 6676,
      "##hm": 6677,
      "##can": 6678,
      "##cast": 6679,
      "##nage": 6680,
      "##aire": 6681,
      "##uations": 6682,
      "##rason": 6683,
      "##dy": 6684,
      "##lands": 6685,
      "##ship": 6686,
      "##spe": 6687,
      "##bia": 6688,
      "##bble": 6689,
      "##vet": 6690,
      "##my": 6691,
      "##gal": 6692,
      "##zzy": 6693,
      "##esh": 6694,
      "token": 6695,
      "todays": 6696,
      "##itating": 6697,
      "inher": 6698,
      "##eland": 6699,
      "##elming": 6700,
      "##utal": 6701,
      "##asse": 6702,
      "##asive": 6703,
      "fort": 6704,
      "forcing": 6705,
      "beg": 6706,
      "soc": 6707,
      "stal": 6708,
      "stats": 6709,
      "staged": 6710,
      "##ctuations": 6711,
      "##iding": 6712,
      "suff": 6713,
      "sugar": 6714,
      "prox": 6715,
      "##the": 6716,
      "shad": 6717,
      "shock": 6718,
      "exha": 6719,
      "exiting": 6720,
      "notes": 6721,
      "dogs": 6722,
      "root": 6723,
      "rose": 6724,
      "align": 6725,
      "convey": 6726,
      "cha": 6727,
      "chimp": 6728,
      "maker": 6729,
      "##rap": 6730,
      "unw": 6731,
      "unable": 6732,
      "##apore": 6733,
      "cance": 6734,
      "upset": 6735,
      "##amine": 6736,
      "usual": 6737,
      "imply": 6738,
      "outstanding": 6739,
      "fellow": 6740,
      "##osing": 6741,
      "admit": 6742,
      "engaged": 6743,
      "somebody": 6744,
      "someones": 6745,
      "overload": 6746,
      "newton": 6747,
      "##ques": 6748,
      "drivet": 6749,
      "boy": 6750,
      "boats": 6751,
      "agency": 6752,
      "##ibration": 6753,
      "##uded": 6754,
      "contain": 6755,
      "whose": 6756,
      "reserved": 6757,
      "lotus": 6758,
      "serving": 6759,
      "mining": 6760,
      "monthly": 6761,
      "smith": 6762,
      "smarter": 6763,
      "defend": 6764,
      "afterwards": 6765,
      "pointing": 6766,
      "knowled": 6767,
      "##ishes": 6768,
      "phr": 6769,
      "genius": 6770,
      "##ronic": 6771,
      "consensus": 6772,
      "primit": 6773,
      "disasse": 6774,
      "helped": 6775,
      "transmission": 6776,
      "supported": 6777,
      "supportive": 6778,
      "massively": 6779,
      "confined": 6780,
      "brutal": 6781,
      "border": 6782,
      "boresc": 6783,
      "calibration": 6784,
      "technica": 6785,
      "publications": 6786,
      "invasive": 6787,
      "paywall": 6788,
      "##gged": 6789,
      "medical": 6790,
      "wherever": 6791,
      "merits": 6792,
      "gigantic": 6793,
      "swim": 6794,
      "steve": 6795,
      "basis": 6796,
      "efforts": 6797,
      "looked": 6798,
      "freeway": 6799,
      "decline": 6800,
      "holder": 6801,
      "detection": 6802,
      "machete": 6803,
      "tunneling": 6804,
      "##whelming": 6805,
      "##jected": 6806,
      "customs": 6807,
      "##cool": 6808,
      "singapore": 6809,
      "##ughty": 6810,
      "##oked": 6811,
      "feelings": 6812,
      "datab": 6813,
      "viewed": 6814,
      "radiation": 6815,
      "proven": 6816,
      "recommendation": 6817,
      "ironic": 6818,
      "announcements": 6819,
      "closely": 6820,
      "deployable": 6821,
      "grain": 6822,
      "fried": 6823,
      "equity": 6824,
      "equival": 6825,
      "podcast": 6826,
      "fuzzy": 6827,
      "correctly": 6828,
      "causeway": 6829,
      "ultrason": 6830,
      "elise": 6831,
      "tougher": 6832,
      "existential": 6833,
      "geological": 6834,
      "painting": 6835,
      "multiplanet": 6836,
      "marx": 6837,
      "filed": 6838,
      "pana": 6839,
      "panic": 6840,
      "destruction": 6841,
      "argue": 6842,
      "leads": 6843,
      "angles": 6844,
      "silence": 6845,
      "requesting": 6846,
      "promise": 6847,
      "cleaning": 6848,
      "affordability": 6849,
      "subsidy": 6850,
      "walks": 6851,
      "classic": 6852,
      "harm": 6853,
      "referral": 6854,
      "bikes": 6855,
      "turbine": 6856,
      "godspe": 6857,
      "fluctuations": 6858,
      "venting": 6859,
      "stephen": 6860,
      "approximately": 6861,
      "approximation": 6862,
      "cryogen": 6863,
      "straw": 6864,
      "licensing": 6865,
      "martian": 6866,
      "premier": 6867,
      "johnson": 6868,
      "fighting": 6869,
      "150": 6870,
      "rotation": 6871,
      "rotate": 6872,
      "tbd": 6873,
      "buffett": 6874,
      "christie": 6875,
      "regional": 6876,
      "##maker": 6877,
      "comfortable": 6878,
      "departed": 6879,
      "trolls": 6880,
      "unsched": 6881,
      "connects": 6882,
      "chann": 6883,
      "downloading": 6884,
      "maligned": 6885,
      "thermometer": 6886,
      "jamming": 6887,
      "surrounded": 6888,
      "dynamically": 6889,
      "demonstration": 6890,
      "speaker": 6891,
      "carrier": 6892,
      "emojis": 6893,
      "iceland": 6894,
      "describing": 6895,
      "observ": 6896,
      "constraints": 6897,
      "refinement": 6898,
      "refinements": 6899,
      "prevail": 6900,
      "7500": 6901,
      "taxpayer": 6902,
      "taxpayers": 6903,
      "regularly": 6904,
      "louder": 6905,
      "doomed": 6906,
      "branding": 6907,
      "asteroid": 6908,
      "trailers": 6909,
      "endorsements": 6910,
      "valuable": 6911,
      "mandate": 6912,
      "chemical": 6913,
      "refilling": 6914,
      "episode": 6915,
      "cgi": 6916,
      "queen": 6917,
      "experienced": 6918,
      "robotaxi": 6919,
      "breathe": 6920,
      "mammoths": 6921,
      "positives": 6922,
      "tariff": 6923,
      "quantum": 6924,
      "puppet": 6925,
      "predicting": 6926,
      "triggered": 6927,
      "pinker": 6928,
      "scenar": 6929,
      "parameters": 6930,
      "seamlessly": 6931,
      "pairs": 6932,
      "teleport": 6933,
      "bullet": 6934,
      "comparable": 6935,
      "dialogue": 6936,
      "telescoping": 6937,
      "comprehensive": 6938,
      "instrument": 6939,
      "theoretical": 6940,
      "bureau": 6941,
      "educ": 6942,
      "jesus": 6943,
      "olymp": 6944,
      "saints": 6945,
      "yelp": 6946,
      "exhaust": 6947,
      "drivetrain": 6948,
      "knowledge": 6949,
      "primitive": 6950,
      "disassembly": 6951,
      "borescope": 6952,
      "equivalent": 6953,
      "godspeed": 6954,
      "unscheduled": 6955,
      "39": 6956,
      "600": 6957,
      "a4": 6958,
      "bow": 6959,
      "cig": 6960,
      "crow": 6961,
      "dre": 6962,
      "dir": 6963,
      "dop": 6964,
      "dune": 6965,
      "dirt": 6966,
      "fb": 6967,
      "fid": 6968,
      "fab": 6969,
      "fant": 6970,
      "gent": 6971,
      "gift": 6972,
      "king": 6973,
      "lunch": 6974,
      "langu": 6975,
      "lanes": 6976,
      "mm": 6977,
      "nts": 6978,
      "nana": 6979,
      "pays": 6980,
      "pets": 6981,
      "rude": 6982,
      "rural": 6983,
      "ss": 6984,
      "s3": 6985,
      "sorts": 6986,
      "sites": 6987,
      "sque": 6988,
      "torn": 6989,
      "von": 6990,
      "vul": 6991,
      "yard": 6992,
      "yoke": 6993,
      "##iest": 6994,
      "##car": 6995,
      "##cla": 6996,
      "##kins": 6997,
      "##eor": 6998,
      "##eze": 6999,
      "##town": 7000,
      "##tronic": 7001,
      "##ael": 7002,
      "##aution": 7003,
      "##uf": 7004,
      "##lar": 7005,
      "##lied": 7006,
      "##pers": 7007,
      "##old": 7008,
      "##oft": 7009,
      "##ja": 7010,
      "##vance": 7011,
      "##vention": 7012,
      "##mare": 7013,
      "##miting": 7014,
      "##fire": 7015,
      "##funk": 7016,
      "##giving": 7017,
      "##well": 7018,
      "##zer": 7019,
      "##onious": 7020,
      "##atr": 7021,
      "##aret": 7022,
      "##llower": 7023,
      "toil": 7024,
      "toss": 7025,
      "##ani": 7026,
      "##stone": 7027,
      "inject": 7028,
      "inner": 7029,
      "##etr": 7030,
      "##rogen": 7031,
      "##ley": 7032,
      "anec": 7033,
      "anonymous": 7034,
      "##oto": 7035,
      "begging": 7036,
      "reward": 7037,
      "coking": 7038,
      "stated": 7039,
      "item": 7040,
      "##idays": 7041,
      "##idential": 7042,
      "##oded": 7043,
      "wheres": 7044,
      "neck": 7045,
      "##usters": 7046,
      "shaft": 7047,
      "trash": 7048,
      "trump": 7049,
      "trading": 7050,
      "spi": 7051,
      "spam": 7052,
      "exchange": 7053,
      "limiting": 7054,
      "dece": 7055,
      "rover": 7056,
      "cares": 7057,
      "orient": 7058,
      "seated": 7059,
      "conver": 7060,
      "mail": 7061,
      "##ulse": 7062,
      "##ulpt": 7063,
      "alloys": 7064,
      "lap": 7065,
      "module": 7066,
      "##imal": 7067,
      "complic": 7068,
      "##umes": 7069,
      "##uments": 7070,
      "upside": 7071,
      "##amed": 7072,
      "comic": 7073,
      "##ifts": 7074,
      "feet": 7075,
      "heh": 7076,
      "placing": 7077,
      "pledge": 7078,
      "##osoph": 7079,
      "##cond": 7080,
      "##istinguish": 7081,
      "theyd": 7082,
      "hasnt": 7083,
      "overhead": 7084,
      "overpress": 7085,
      "overwhelming": 7086,
      "boot": 7087,
      "##uding": 7088,
      "preview": 7089,
      "preorders": 7090,
      "thanksgiving": 7091,
      "interventions": 7092,
      "percent": 7093,
      "yours": 7094,
      "crater": 7095,
      "reserve": 7096,
      "poly": 7097,
      "recap": 7098,
      "serbia": 7099,
      "##velength": 7100,
      "speech": 7101,
      "accur": 7102,
      "airpl": 7103,
      "cooled": 7104,
      "phased": 7105,
      "extinction": 7106,
      "##bles": 7107,
      "##yscra": 7108,
      "scene": 7109,
      "sculpt": 7110,
      "addition": 7111,
      "offset": 7112,
      "downtown": 7113,
      "futur": 7114,
      "regimes": 7115,
      "indistinguish": 7116,
      "prizes": 7117,
      "shortville": 7118,
      "disin": 7119,
      "disney": 7120,
      "daylight": 7121,
      "publishing": 7122,
      "##agon": 7123,
      "##cedes": 7124,
      "joe": 7125,
      "insult": 7126,
      "guest": 7127,
      "depress": 7128,
      "dependent": 7129,
      "conflic": 7130,
      "counted": 7131,
      "generators": 7132,
      "sn8": 7133,
      "snugg": 7134,
      "metall": 7135,
      "lego": 7136,
      "legally": 7137,
      "corresp": 7138,
      "follower": 7139,
      "amazon": 7140,
      "approaching": 7141,
      "appropri": 7142,
      "interests": 7143,
      "blown": 7144,
      "openly": 7145,
      "payment": 7146,
      "leaked": 7147,
      "manually": 7148,
      "medtronic": 7149,
      "mercedes": 7150,
      "skyscra": 7151,
      "steady": 7152,
      "fireball": 7153,
      "fixes": 7154,
      "decel": 7155,
      "kept": 7156,
      "kevl": 7157,
      "insta": 7158,
      "headlines": 7159,
      "brag": 7160,
      "nightmare": 7161,
      "refers": 7162,
      "regulator": 7163,
      "restrict": 7164,
      "attacks": 7165,
      "carefully": 7166,
      "wavelength": 7167,
      "returning": 7168,
      "formally": 7169,
      "nyc": 7170,
      "priorit": 7171,
      "brook": 7172,
      "finds": 7173,
      "trucking": 7174,
      "europa": 7175,
      "correcting": 7176,
      "corrective": 7177,
      "distances": 7178,
      "##olutions": 7179,
      "optimize": 7180,
      "considerably": 7181,
      "records": 7182,
      "ultrac": 7183,
      "burning": 7184,
      "10b": 7185,
      "precaution": 7186,
      "glove": 7187,
      "misunder": 7188,
      "flew": 7189,
      "diapers": 7190,
      "drink": 7191,
      "eastern": 7192,
      "tells": 7193,
      "##ribed": 7194,
      "repaid": 7195,
      "sourced": 7196,
      "transporting": 7197,
      "focusing": 7198,
      "adjusts": 7199,
      "gravitas": 7200,
      "manufacture": 7201,
      "muslim": 7202,
      "configuration": 7203,
      "understands": 7204,
      "figur": 7205,
      "figuring": 7206,
      "touched": 7207,
      "ignite": 7208,
      "tubes": 7209,
      "estab": 7210,
      "songs": 7211,
      "60mph": 7212,
      "millise": 7213,
      "referred": 7214,
      "processes": 7215,
      "biological": 7216,
      "godd": 7217,
      "towing": 7218,
      "towers": 7219,
      "25k": 7220,
      "contracts": 7221,
      "magical": 7222,
      "impressed": 7223,
      "holes": 7224,
      "holidays": 7225,
      "woz": 7226,
      "discussions": 7227,
      "princess": 7228,
      "materials": 7229,
      "japanese": 7230,
      "circuit": 7231,
      "martians": 7232,
      "extended": 7233,
      "inflation": 7234,
      "arguing": 7235,
      "incorpor": 7236,
      "camping": 7237,
      "belief": 7238,
      "horizon": 7239,
      "synd": 7240,
      "##place": 7241,
      "weapon": 7242,
      "paths": 7243,
      "profound": 7244,
      "recalls": 7245,
      "randomly": 7246,
      "corners": 7247,
      "rebate": 7248,
      "cultural": 7249,
      "contribute": 7250,
      "brick": 7251,
      "500k": 7252,
      "westwor": 7253,
      "gradually": 7254,
      "exclude": 7255,
      "halt": 7256,
      "halves": 7257,
      "natural": 7258,
      "puny": 7259,
      "conveniently": 7260,
      "dancing": 7261,
      "quieter": 7262,
      "merchants": 7263,
      "renaming": 7264,
      "shifting": 7265,
      "financial": 7266,
      "revolutionary": 7267,
      "garfunk": 7268,
      "hospitals": 7269,
      "brightness": 7270,
      "franklin": 7271,
      "philosoph": 7272,
      "deleting": 7273,
      "skills": 7274,
      "occupy": 7275,
      "admired": 7276,
      "explosives": 7277,
      "550": 7278,
      "parachute": 7279,
      "timel": 7280,
      "rumors": 7281,
      "prosper": 7282,
      "sorted": 7283,
      "manipulated": 7284,
      "attached": 7285,
      "apocaly": 7286,
      "entertainment": 7287,
      "emergency": 7288,
      "opportunities": 7289,
      "bouncy": 7290,
      "louis": 7291,
      "trivia": 7292,
      "colonizing": 7293,
      "asteroids": 7294,
      "organization": 7295,
      "intentionally": 7296,
      "reflective": 7297,
      "michael": 7298,
      "piston": 7299,
      "dwar": 7300,
      "hosting": 7301,
      "linearities": 7302,
      "influence": 7303,
      "##controll": 7304,
      "permanent": 7305,
      "splitting": 7306,
      "tastes": 7307,
      "strangely": 7308,
      "emissions": 7309,
      "inverter": 7310,
      "coachella": 7311,
      "amendment": 7312,
      "premiere": 7313,
      "barrier": 7314,
      "catastrophic": 7315,
      "sanctimonious": 7316,
      "##acitors": 7317,
      "candidate": 7318,
      "trademark": 7319,
      "esthetics": 7320,
      "##cooled": 7321,
      "cryogenic": 7322,
      "channels": 7323,
      "tariffs": 7324,
      "ntsb": 7325,
      "squeeze": 7326,
      "vulner": 7327,
      "anecd": 7328,
      "overpressure": 7329,
      "airplane": 7330,
      "indistinguishable": 7331,
      "correspond": 7332,
      "skyscraper": 7333,
      "kevlar": 7334,
      "precautionary": 7335,
      "westworld": 7336,
      "garfunkel": 7337,
      "27": 7338,
      "2000": 7339,
      "42": 7340,
      "80": 7341,
      "aly": 7342,
      "bul": 7343,
      "batch": 7344,
      "bern": 7345,
      "cure": 7346,
      "das": 7347,
      "dil": 7348,
      "dia": 7349,
      "dign": 7350,
      "dusk": 7351,
      "fru": 7352,
      "flex": 7353,
      "fps": 7354,
      "hill": 7355,
      "il": 7356,
      "iain": 7357,
      "irel": 7358,
      "jaz": 7359,
      "kc": 7360,
      "kry": 7361,
      "ll": 7362,
      "latch": 7363,
      "lying": 7364,
      "lope": 7365,
      "lady": 7366,
      "mort": 7367,
      "mary": 7368,
      "mouse": 7369,
      "mush": 7370,
      "moses": 7371,
      "nc": 7372,
      "np": 7373,
      "nail": 7374,
      "ocis": 7375,
      "pv": 7376,
      "pit": 7377,
      "pong": 7378,
      "pix": 7379,
      "rent": 7380,
      "rere": 7381,
      "rink": 7382,
      "river": 7383,
      "tin": 7384,
      "tend": 7385,
      "taps": 7386,
      "typ": 7387,
      "umb": 7388,
      "vlad": 7389,
      "wan": 7390,
      "wit": 7391,
      "wars": 7392,
      "yum": 7393,
      "##henge": 7394,
      "##heless": 7395,
      "##ila": 7396,
      "##iots": 7397,
      "##cl": 7398,
      "##cou": 7399,
      "##cut": 7400,
      "##ek": 7401,
      "##to": 7402,
      "##truck": 7403,
      "##ax": 7404,
      "##aking": 7405,
      "##aunch": 7406,
      "##aque": 7407,
      "##yr": 7408,
      "##lists": 7409,
      "##pone": 7410,
      "##bot": 7411,
      "##backs": 7412,
      "##vestream": 7413,
      "##mal": 7414,
      "##mmet": 7415,
      "##mark": 7416,
      "##mob": 7417,
      "##gbt": 7418,
      "##wers": 7419,
      "##wart": 7420,
      "##zero": 7421,
      "##750": 7422,
      "throw": 7423,
      "##onoun": 7424,
      "##ori": 7425,
      "##aters": 7426,
      "##arp": 7427,
      "##anage": 7428,
      "##oust": 7429,
      "##itur": 7430,
      "##itmate": 7431,
      "##rella": 7432,
      "##alu": 7433,
      "##mpoline": 7434,
      "##etts": 7435,
      "##etheless": 7436,
      "##icip": 7437,
      "##icial": 7438,
      "##rom": 7439,
      "##rooms": 7440,
      "##utive": 7441,
      "##isk": 7442,
      "anarch": 7443,
      "begun": 7444,
      "rex": 7445,
      "##vember": 7446,
      "stability": 7447,
      "stiff": 7448,
      "##idents": 7449,
      "##meme": 7450,
      "##ado": 7451,
      "##adily": 7452,
      "sue": 7453,
      "##irical": 7454,
      "youve": 7455,
      "##ilies": 7456,
      "##ilisk": 7457,
      "##opian": 7458,
      "##sell": 7459,
      "andro": 7460,
      "shin": 7461,
      "shark": 7462,
      "trade": 7463,
      "hamm": 7464,
      "sport": 7465,
      "spain": 7466,
      "spect": 7467,
      "spice": 7468,
      "spending": 7469,
      "exits": 7470,
      "livestream": 7471,
      "enforce": 7472,
      "doc": 7473,
      "dee": 7474,
      "card": 7475,
      "carlo": 7476,
      "orph": 7477,
      "asso": 7478,
      "seater": 7479,
      "conference": 7480,
      "conduct": 7481,
      "chat": 7482,
      "wore": 7483,
      "##geon": 7484,
      "##ria": 7485,
      "alle": 7486,
      "##ander": 7487,
      "justify": 7488,
      "unse": 7489,
      "united": 7490,
      "november": 7491,
      "frost": 7492,
      "frodo": 7493,
      "models": 7494,
      "##ipl": 7495,
      "##inem": 7496,
      "##usetts": 7497,
      "upr": 7498,
      "##kings": 7499,
      "armor": 7500,
      "outlet": 7501,
      "prone": 7502,
      "pronoun": 7503,
      "##istent": 7504,
      "adela": 7505,
      "theyve": 7506,
      "anytime": 7507,
      "producing": 7508,
      "appoint": 7509,
      "overla": 7510,
      "overcome": 7511,
      "overcoming": 7512,
      "buoy": 7513,
      "bubble": 7514,
      "evalu": 7515,
      "##quila": 7516,
      "flip": 7517,
      "solves": 7518,
      "booms": 7519,
      "##soft": 7520,
      "agi": 7521,
      "##hips": 7522,
      "twain": 7523,
      "tweak": 7524,
      "##achusetts": 7525,
      "crack": 7526,
      "expense": 7527,
      "pose": 7528,
      "pool": 7529,
      "poison": 7530,
      "intact": 7531,
      "##astic": 7532,
      "mined": 7533,
      "backed": 7534,
      "##berh": 7535,
      "smash": 7536,
      "puzzle": 7537,
      "##ricane": 7538,
      "capabilities": 7539,
      "grace": 7540,
      "underp": 7541,
      "relaunch": 7542,
      "knowing": 7543,
      "supplement": 7544,
      "gene": 7545,
      "delicious": 7546,
      "missives": 7547,
      "missouri": 7548,
      "regret": 7549,
      "sled": 7550,
      "costly": 7551,
      "shortage": 7552,
      "opaque": 7553,
      "revolutions": 7554,
      "became": 7555,
      "massachusetts": 7556,
      "confused": 7557,
      "showers": 7558,
      "commands": 7559,
      "fred": 7560,
      "string": 7561,
      "signatures": 7562,
      "appreciative": 7563,
      "meteor": 7564,
      "updating": 7565,
      "invite": 7566,
      "invention": 7567,
      "invented": 7568,
      "corruption": 7569,
      "controvers": 7570,
      "raul": 7571,
      "talents": 7572,
      "termin": 7573,
      "hourly": 7574,
      "stationary": 7575,
      "mercy": 7576,
      "passes": 7577,
      "postpone": 7578,
      "skip": 7579,
      "swear": 7580,
      "steadily": 7581,
      "basilisk": 7582,
      "trampoline": 7583,
      "productive": 7584,
      "critique": 7585,
      "sorely": 7586,
      "##asonic": 7587,
      "remark": 7588,
      "remove": 7589,
      "heads": 7590,
      "currency": 7591,
      "differently": 7592,
      "operations": 7593,
      "dealing": 7594,
      "clearance": 7595,
      "cybor": 7596,
      "badly": 7597,
      "investing": 7598,
      "announced": 7599,
      "##ssa": 7600,
      "correlation": 7601,
      "restore": 7602,
      "foundational": 7603,
      "##iums": 7604,
      "attest": 7605,
      "attend": 7606,
      "##weight": 7607,
      "halfway": 7608,
      "radically": 7609,
      "wake": 7610,
      "forms": 7611,
      "proposed": 7612,
      "presents": 7613,
      "movements": 7614,
      "automatic": 7615,
      "nonetheless": 7616,
      "twitmeme": 7617,
      "studied": 7618,
      "##meda": 7619,
      "journos": 7620,
      "##ields": 7621,
      "hotel": 7622,
      "gto": 7623,
      "replic": 7624,
      "spaceships": 7625,
      "##nesses": 7626,
      "equally": 7627,
      "heres": 7628,
      "polite": 7629,
      "ulitmate": 7630,
      "glorious": 7631,
      "##awatt": 7632,
      "stocks": 7633,
      "10k": 7634,
      "wins": 7635,
      "sheet": 7636,
      "lifts": 7637,
      "answers": 7638,
      "debris": 7639,
      "concent": 7640,
      "movies": 7641,
      "panasonic": 7642,
      "destiny": 7643,
      "empirical": 7644,
      "confirming": 7645,
      "blackrock": 7646,
      "russians": 7647,
      "assets": 7648,
      "arguments": 7649,
      "everythings": 7650,
      "mentioning": 7651,
      "hw3": 7652,
      "utopian": 7653,
      "civilian": 7654,
      "installers": 7655,
      "judging": 7656,
      "judicial": 7657,
      "scientist": 7658,
      "populated": 7659,
      "requirement": 7660,
      "metals": 7661,
      "ensuring": 7662,
      "investigated": 7663,
      "prominent": 7664,
      "officially": 7665,
      "avoiding": 7666,
      "affecting": 7667,
      "cyclists": 7668,
      "edition": 7669,
      "published": 7670,
      "nuke": 7671,
      "nuys": 7672,
      "nuances": 7673,
      "suspect": 7674,
      "essay": 7675,
      "continuing": 7676,
      "turbines": 7677,
      "contracting": 7678,
      "ille": 7679,
      "illiter": 7680,
      "spool": 7681,
      "surprise": 7682,
      "counterpoint": 7683,
      "families": 7684,
      "socialist": 7685,
      "sequitur": 7686,
      "premature": 7687,
      "premiums": 7688,
      "subjects": 7689,
      "editors": 7690,
      "expended": 7691,
      "survive": 7692,
      "advertise": 7693,
      "filtering": 7694,
      "campos": 7695,
      "##crative": 7696,
      "crossing": 7697,
      "hurricane": 7698,
      "integrity": 7699,
      "warren": 7700,
      "rebuilt": 7701,
      "methods": 7702,
      "monte": 7703,
      "capitalist": 7704,
      "losses": 7705,
      "polls": 7706,
      "smoothly": 7707,
      "excession": 7708,
      "communications": 7709,
      "externality": 7710,
      "departing": 7711,
      "signals": 7712,
      "mechanics": 7713,
      "microsoft": 7714,
      "division": 7715,
      "execs": 7716,
      "executive": 7717,
      "##ularity": 7718,
      "claimed": 7719,
      "nutcracker": 7720,
      "shifts": 7721,
      "controlling": 7722,
      "vancou": 7723,
      "authority": 7724,
      "purchases": 7725,
      "stonehenge": 7726,
      "stonecut": 7727,
      "selections": 7728,
      "sn10": 7729,
      "simultaneous": 7730,
      "lucrative": 7731,
      "surrounding": 7732,
      "demonstrate": 7733,
      "transitioning": 7734,
      "immune": 7735,
      "deleted": 7736,
      "skillz": 7737,
      "icb": 7738,
      "groan": 7739,
      "grown": 7740,
      "##ammers": 7741,
      "removing": 7742,
      "hamilton": 7743,
      "pyramid": 7744,
      "bonus": 7745,
      "jonah": 7746,
      "proceeding": 7747,
      "weren": 7748,
      "waste": 7749,
      "choosing": 7750,
      "frequency": 7751,
      "sxsw": 7752,
      "intentions": 7753,
      "maneuvers": 7754,
      "constitu": 7755,
      "constitutional": 7756,
      "responsibility": 7757,
      "lunar": 7758,
      "status": 7759,
      "trivial": 7760,
      "contempt": 7761,
      "hitchens": 7762,
      "treating": 7763,
      "##fold": 7764,
      "complaining": 7765,
      "resolved": 7766,
      "insightful": 7767,
      "pistons": 7768,
      "sufficiently": 7769,
      "preferred": 7770,
      "consistent": 7771,
      "transmitting": 7772,
      "managers": 7773,
      "reminded": 7774,
      "gained": 7775,
      "mcu": 7776,
      "advocates": 7777,
      "henry": 7778,
      "complac": 7779,
      "transporter": 7780,
      "proportionately": 7781,
      "assessment": 7782,
      "matri": 7783,
      "ranging": 7784,
      "metaphor": 7785,
      "unreasonably": 7786,
      "crown": 7787,
      "preburner": 7788,
      "configurator": 7789,
      "pravda": 7790,
      "councils": 7791,
      "victory": 7792,
      "reinforce": 7793,
      "redundant": 7794,
      "gender": 7795,
      "cheaper": 7796,
      "pockets": 7797,
      "maneuvering": 7798,
      "alexander": 7799,
      "pillar": 7800,
      "zombie": 7801,
      "isaacson": 7802,
      "speaking": 7803,
      "disaster": 7804,
      "awesomeness": 7805,
      "watchtower": 7806,
      "potatoes": 7807,
      "dyson": 7808,
      "inherently": 7809,
      "scenario": 7810,
      "bureauc": 7811,
      "crowd": 7812,
      "fantastic": 7813,
      "language": 7814,
      "complicated": 7815,
      "appropriate": 7816,
      "alyssa": 7817,
      "dignity": 7818,
      "ireland": 7819,
      "jazz": 7820,
      "kcrw": 7821,
      "krypton": 7822,
      "lopez": 7823,
      "mushroom": 7824,
      "ocisly": 7825,
      "umbrella": 7826,
      "wanna": 7827,
      "orphanage": 7828,
      "associ": 7829,
      "adelaide": 7830,
      "controversial": 7831,
      "cyborg": 7832,
      "illiteracy": 7833,
      "vancouver": 7834,
      "stonecutters": 7835,
      "3k": 7836,
      "33": 7837,
      "47": 7838,
      "5t": 7839,
      "ax": 7840,
      "aft": 7841,
      "apt": 7842,
      "ayn": 7843,
      "arist": 7844,
      "ba": 7845,
      "bound": 7846,
      "bays": 7847,
      "cable": 7848,
      "cpu": 7849,
      "dy": 7850,
      "dain": 7851,
      "dice": 7852,
      "doth": 7853,
      "duck": 7854,
      "dash": 7855,
      "dict": 7856,
      "dipl": 7857,
      "era": 7858,
      "eap": 7859,
      "eph": 7860,
      "eruption": 7861,
      "fy": 7862,
      "gg": 7863,
      "ges": 7864,
      "gang": 7865,
      "gaming": 7866,
      "hire": 7867,
      "hedge": 7868,
      "jong": 7869,
      "jars": 7870,
      "jord": 7871,
      "jcs": 7872,
      "ken": 7873,
      "kel": 7874,
      "lh": 7875,
      "lars": 7876,
      "lined": 7877,
      "mw": 7878,
      "mur": 7879,
      "mere": 7880,
      "mull": 7881,
      "mia": 7882,
      "mild": 7883,
      "mimes": 7884,
      "mourn": 7885,
      "nit": 7886,
      "ol": 7887,
      "ore": 7888,
      "ouch": 7889,
      "ought": 7890,
      "p3": 7891,
      "pin": 7892,
      "por": 7893,
      "peter": 7894,
      "q2": 7895,
      "qwer": 7896,
      "rg": 7897,
      "rut": 7898,
      "rac": 7899,
      "rab": 7900,
      "sr": 7901,
      "sade": 7902,
      "tks": 7903,
      "tides": 7904,
      "uz": 7905,
      "ufo": 7906,
      "vr": 7907,
      "vap": 7908,
      "vect": 7909,
      "vinge": 7910,
      "wut": 7911,
      "wid": 7912,
      "wme": 7913,
      "wound": 7914,
      "witch": 7915,
      "wiring": 7916,
      "wipe": 7917,
      "wrapped": 7918,
      "yield": 7919,
      "##iate": 7920,
      "##iam": 7921,
      "##cer": 7922,
      "##kist": 7923,
      "##empt": 7924,
      "##effic": 7925,
      "##ng": 7926,
      "##namb": 7927,
      "##topia": 7928,
      "##ui": 7929,
      "##rong": 7930,
      "##rator": 7931,
      "##dyn": 7932,
      "##ports": 7933,
      "##sistent": 7934,
      "##oor": 7935,
      "##omp": 7936,
      "##bing": 7937,
      "##biz": 7938,
      "##built": 7939,
      "##busters": 7940,
      "##mo": 7941,
      "##mnamb": 7942,
      "##gic": 7943,
      "##gel": 7944,
      "##500": 7945,
      "##zel": 7946,
      "##zens": 7947,
      "##9000": 7948,
      "##era": 7949,
      "thro": 7950,
      "##inle": 7951,
      "##inery": 7952,
      "##eson": 7953,
      "##onaut": 7954,
      "##ores": 7955,
      "##ata": 7956,
      "##aria": 7957,
      "##llum": 7958,
      "##anze": 7959,
      "##anthrop": 7960,
      "##edia": 7961,
      "##ened": 7962,
      "##itation": 7963,
      "##itary": 7964,
      "##itute": 7965,
      "##itudes": 7966,
      "##star": 7967,
      "##strong": 7968,
      "##real": 7969,
      "##rets": 7970,
      "ing": 7971,
      "inch": 7972,
      "##ali": 7973,
      "##alop": 7974,
      "##mpath": 7975,
      "island": 7976,
      "##icine": 7977,
      "##elis": 7978,
      "anthrop": 7979,
      "forth": 7980,
      "forgo": 7981,
      "bell": 7982,
      "beep": 7983,
      "regress": 7984,
      "reaction": 7985,
      "sooo": 7986,
      "somnamb": 7987,
      "coord": 7988,
      "cobal": 7989,
      "stem": 7990,
      "stret": 7991,
      "##ctic": 7992,
      "##laut": 7993,
      "##cher": 7994,
      "##aday": 7995,
      "##adoes": 7996,
      "whos": 7997,
      "##alli": 7998,
      "neeson": 7999,
      "sued": 8000,
      "supers": 8001,
      "##teria": 8002,
      "##urai": 8003,
      "proving": 8004,
      "young": 8005,
      "gollum": 8006,
      "##thur": 8007,
      "shack": 8008,
      "shred": 8009,
      "shakes": 8010,
      "sharks": 8011,
      "trace": 8012,
      "trier": 8013,
      "trending": 8014,
      "hail": 8015,
      "spy": 8016,
      "spread": 8017,
      "spok": 8018,
      "sparks": 8019,
      "exempt": 8020,
      "lies": 8021,
      "liam": 8022,
      "libert": 8023,
      "livin": 8024,
      "dozens": 8025,
      "robert": 8026,
      "cart": 8027,
      "carmaker": 8028,
      "##eable": 8029,
      "sew": 8030,
      "sees": 8031,
      "seven": 8032,
      "loyal": 8033,
      "chol": 8034,
      "chasing": 8035,
      "maps": 8036,
      "maui": 8037,
      "##rait": 8038,
      "abl": 8039,
      "##ulistic": 8040,
      "##ulators": 8041,
      "allev": 8042,
      "##ante": 8043,
      "lamp": 8044,
      "laid": 8045,
      "lair": 8046,
      "unne": 8047,
      "uncontroll": 8048,
      "nois": 8049,
      "noir": 8050,
      "##actively": 8051,
      "frozen": 8052,
      "##ipedia": 8053,
      "composite": 8054,
      "compares": 8055,
      "##omats": 8056,
      "spaceball": 8057,
      "##apacitors": 8058,
      "ups": 8059,
      "rockstar": 8060,
      "##aint": 8061,
      "arcing": 8062,
      "arctic": 8063,
      "arthur": 8064,
      "usgs": 8065,
      "amos": 8066,
      "ambit": 8067,
      "impulse": 8068,
      "outs": 8069,
      "hegel": 8070,
      "heinle": 8071,
      "##ectic": 8072,
      "##conn": 8073,
      "adbusters": 8074,
      "hash": 8075,
      "##emaker": 8076,
      "bets": 8077,
      "apples": 8078,
      "overbuilt": 8079,
      "buzz": 8080,
      "##dera": 8081,
      "##quoted": 8082,
      "supertruck": 8083,
      "flown": 8084,
      "flash": 8085,
      "peoples": 8086,
      "solutions": 8087,
      "booth": 8088,
      "carsby": 8089,
      "##ibus": 8090,
      "spacexs": 8091,
      "mood": 8092,
      "precious": 8093,
      "##bekist": 8094,
      "drain": 8095,
      "whoever": 8096,
      "crushing": 8097,
      "cracked": 8098,
      "imho": 8099,
      "intl": 8100,
      "minibus": 8101,
      "backpack": 8102,
      "realtime": 8103,
      "repay": 8104,
      "syria": 8105,
      "sympath": 8106,
      "captain": 8107,
      "designs": 8108,
      "pointy": 8109,
      "underrated": 8110,
      "owns": 8111,
      "##ocene": 8112,
      "clim": 8113,
      "genev": 8114,
      "##bling": 8115,
      "finite": 8116,
      "scr": 8117,
      "scream": 8118,
      "scented": 8119,
      "reads": 8120,
      "downward": 8121,
      "downside": 8122,
      "elected": 8123,
      "##arketer": 8124,
      "holy": 8125,
      "hoover": 8126,
      "##iverse": 8127,
      "indoor": 8128,
      "shorting": 8129,
      "dayquil": 8130,
      "donkey": 8131,
      "startup": 8132,
      "transc": 8133,
      "transform": 8134,
      "hahaha": 8135,
      "caller": 8136,
      "jolly": 8137,
      "insinc": 8138,
      "soundtr": 8139,
      "pressurized": 8140,
      "confl": 8141,
      "confidence": 8142,
      "showbiz": 8143,
      "branden": 8144,
      "faraday": 8145,
      "fraction": 8146,
      "fresh": 8147,
      "caldera": 8148,
      "supercharged": 8149,
      "##ellation": 8150,
      "sn6": 8151,
      "problemo": 8152,
      "lesson": 8153,
      "shipment": 8154,
      "parano": 8155,
      "motav": 8156,
      "apology": 8157,
      "surgeon": 8158,
      "talks": 8159,
      "medicine": 8160,
      "nora": 8161,
      "passion": 8162,
      "poster": 8163,
      "skin": 8164,
      "sword": 8165,
      "swamp": 8166,
      "stewart": 8167,
      "trait": 8168,
      "decre": 8169,
      "chef": 8170,
      "instag": 8171,
      "mightier": 8172,
      "detected": 8173,
      "simul": 8174,
      "differential": 8175,
      "moonbow": 8176,
      "##iana": 8177,
      "dealt": 8178,
      "letters": 8179,
      "##while": 8180,
      "refres": 8181,
      "flamed": 8182,
      "tops": 8183,
      "setbacks": 8184,
      "handles": 8185,
      "visually": 8186,
      "acqu": 8187,
      "favs": 8188,
      "##othermal": 8189,
      "newsstand": 8190,
      "correction": 8191,
      "extremism": 8192,
      "regulated": 8193,
      "restaur": 8194,
      "founded": 8195,
      "camus": 8196,
      "tweed": 8197,
      "checkmate": 8198,
      "viewing": 8199,
      "barely": 8200,
      "barry": 8201,
      "##cessary": 8202,
      "constellation": 8203,
      "##gram": 8204,
      "tracker": 8205,
      "presum": 8206,
      "automob": 8207,
      "favorites": 8208,
      "studying": 8209,
      "sustained": 8210,
      "nearly": 8211,
      "optioned": 8212,
      "hotsp": 8213,
      "equus": 8214,
      "herding": 8215,
      "collet": 8216,
      "fairings": 8217,
      "##pses": 8218,
      "proton": 8219,
      "excellently": 8220,
      "picante": 8221,
      "dams": 8222,
      "dammit": 8223,
      "geothermal": 8224,
      "winner": 8225,
      "effectively": 8226,
      "huzel": 8227,
      "logic": 8228,
      "sensational": 8229,
      "debated": 8230,
      "debating": 8231,
      "debatable": 8232,
      "pads": 8233,
      "marquis": 8234,
      "film": 8235,
      "triple": 8236,
      "panthe": 8237,
      "fails": 8238,
      "remained": 8239,
      "misery": 8240,
      "misquoted": 8241,
      "ramps": 8242,
      "blocking": 8243,
      "attempted": 8244,
      "trickier": 8245,
      "purity": 8246,
      "purged": 8247,
      "assist": 8248,
      "achievable": 8249,
      "buttcracker": 8250,
      "picker": 8251,
      "##spect": 8252,
      "mounting": 8253,
      "mountains": 8254,
      "rides": 8255,
      "iran": 8256,
      "uranium": 8257,
      "expects": 8258,
      "expectations": 8259,
      "smartest": 8260,
      "reported": 8261,
      "analog": 8262,
      "configs": 8263,
      "##ovar": 8264,
      "connection": 8265,
      "kills": 8266,
      "##gestion": 8267,
      "guessing": 8268,
      "touchsc": 8269,
      "patient": 8270,
      "screening": 8271,
      "cyclist": 8272,
      "edt": 8273,
      "estimate": 8274,
      "included": 8275,
      "denies": 8276,
      "denali": 8277,
      "presenting": 8278,
      "classified": 8279,
      "harbor": 8280,
      "vari": 8281,
      "devices": 8282,
      "continuously": 8283,
      "candles": 8284,
      "rainbow": 8285,
      "diego": 8286,
      "hitler": 8287,
      "lockout": 8288,
      "occasion": 8289,
      "respectfully": 8290,
      "linked": 8291,
      "epa": 8292,
      "##ceptible": 8293,
      "communities": 8294,
      "terawatt": 8295,
      "spoon": 8296,
      "spoiler": 8297,
      "magnet": 8298,
      "2012": 8299,
      "portal": 8300,
      "portrait": 8301,
      "informed": 8302,
      "activity": 8303,
      "umlaut": 8304,
      "sonar": 8305,
      "measured": 8306,
      "retroactively": 8307,
      "retrospect": 8308,
      "claiming": 8309,
      "cameo": 8310,
      "compelled": 8311,
      "expansive": 8312,
      "believer": 8313,
      "maximizing": 8314,
      "horizons": 8315,
      "hesitation": 8316,
      "moderated": 8317,
      "synth": 8318,
      "weirdly": 8319,
      "recalling": 8320,
      "childhood": 8321,
      "cultures": 8322,
      "contributions": 8323,
      "method": 8324,
      "uploading": 8325,
      "uploaded": 8326,
      "sportsman": 8327,
      "graders": 8328,
      "exclus": 8329,
      "dyno": 8330,
      "halo": 8331,
      "hal9000": 8332,
      "samurai": 8333,
      "samovar": 8334,
      "dogkind": 8335,
      "politicians": 8336,
      "smoothness": 8337,
      "greg": 8338,
      "military": 8339,
      "punishes": 8340,
      "communicate": 8341,
      "blah": 8342,
      "loaner": 8343,
      "##rification": 8344,
      "landscape": 8345,
      "microsc": 8346,
      "burgers": 8347,
      "divide": 8348,
      "inconsistent": 8349,
      "execution": 8350,
      "shift": 8351,
      "controller": 8352,
      "connecting": 8353,
      "connectivity": 8354,
      "ventilator": 8355,
      "treehouse": 8356,
      "downloaded": 8357,
      "ivo": 8358,
      "msf": 8359,
      "##ropy": 8360,
      "accepted": 8361,
      "malaria": 8362,
      "selection": 8363,
      "telemarketer": 8364,
      "gimbals": 8365,
      "rhcp": 8366,
      "chips": 8367,
      "35pm": 8368,
      "##stopia": 8369,
      "tvc": 8370,
      "searched": 8371,
      "delete": 8372,
      "curiousity": 8373,
      "broadly": 8374,
      "matches": 8375,
      "liberal": 8376,
      "hypoth": 8377,
      "cowboys": 8378,
      "algorithms": 8379,
      "passwords": 8380,
      "narrowly": 8381,
      "munro": 8382,
      "converted": 8383,
      "awards": 8384,
      "principles": 8385,
      "dialectic": 8386,
      "tickets": 8387,
      "vtvl": 8388,
      "indicate": 8389,
      "indicates": 8390,
      "translated": 8391,
      "translating": 8392,
      "manipulators": 8393,
      "volcanoes": 8394,
      "aeronaut": 8395,
      "tools": 8396,
      "sealed": 8397,
      "franco": 8398,
      "distracted": 8399,
      "wikipedia": 8400,
      "##worth": 8401,
      "overheat": 8402,
      "scaling": 8403,
      "anomaly": 8404,
      "fatality": 8405,
      "statistics": 8406,
      "##ridge": 8407,
      "##proof": 8408,
      "reelection": 8409,
      "romance": 8410,
      "compensation": 8411,
      "armstrong": 8412,
      "highlighted": 8413,
      "intentional": 8414,
      "bothered": 8415,
      "ummm": 8416,
      "##changed": 8417,
      "susceptible": 8418,
      "sufficient": 8419,
      "brazilian": 8420,
      "episodes": 8421,
      "dwb": 8422,
      "italian": 8423,
      "levy": 8424,
      "##anguy": 8425,
      "advocate": 8426,
      "henri": 8427,
      "compliment": 8428,
      "contingent": 8429,
      "transpiration": 8430,
      "ctg": 8431,
      "kitten": 8432,
      "voters": 8433,
      "memoriam": 8434,
      "tailor": 8435,
      "yellowstone": 8436,
      "nicer": 8437,
      "##iliar": 8438,
      "shoemaker": 8439,
      "adapt": 8440,
      "bolden": 8441,
      "accumulate": 8442,
      "dismisses": 8443,
      "bolts": 8444,
      "dickens": 8445,
      "mothers": 8446,
      "naughty": 8447,
      "alarm": 8448,
      "unaware": 8449,
      "resonated": 8450,
      "charlie": 8451,
      "circumst": 8452,
      "cuphead": 8453,
      "thoroughly": 8454,
      "bleed": 8455,
      "poured": 8456,
      "retirement": 8457,
      "battles": 8458,
      "shervin": 8459,
      "incremental": 8460,
      "penalty": 8461,
      "blasting": 8462,
      "administrator": 8463,
      "staggeringly": 8464,
      "bacteria": 8465,
      "biked": 8466,
      "darth": 8467,
      "foster": 8468,
      "stalin": 8469,
      "shadow": 8470,
      "chimpanze": 8471,
      "phrase": 8472,
      "database": 8473,
      "podcasts": 8474,
      "prevails": 8475,
      "olympics": 8476,
      "tornadoes": 8477,
      "##laren": 8478,
      "tossing": 8479,
      "lapse": 8480,
      "polytopia": 8481,
      "ultracapacitors": 8482,
      "glovebox": 8483,
      "figuratively": 8484,
      "goddess": 8485,
      "apocalypses": 8486,
      "louisiana": 8487,
      "fruit": 8488,
      "pitanguy": 8489,
      "stiffness": 8490,
      "deeper": 8491,
      "alleged": 8492,
      "unseat": 8493,
      "uprising": 8494,
      "overlapping": 8495,
      "illegal": 8496,
      "constituents": 8497,
      "bureaucracy": 8498,
      "aristocracy": 8499,
      "dystopia": 8500,
      "dainty": 8501,
      "dictator": 8502,
      "diplomats": 8503,
      "ephron": 8504,
      "fyi": 8505,
      "jordan": 8506,
      "jcsat": 8507,
      "kelvin": 8508,
      "murder": 8509,
      "muller": 8510,
      "miahm": 8511,
      "mourners": 8512,
      "nitrogen": 8513,
      "qwerty": 8514,
      "uzbekist": 8515,
      "vapor": 8516,
      "vectors": 8517,
      "widely": 8518,
      "##dyne": 8519,
      "##anthropic": 8520,
      "anthropocene": 8521,
      "somnambulistic": 8522,
      "coordination": 8523,
      "cobalt": 8524,
      "supersized": 8525,
      "spoken": 8526,
      "loyalty": 8527,
      "cholera": 8528,
      "unnecessary": 8529,
      "uncontrolled": 8530,
      "spaceballs": 8531,
      "ambitious": 8532,
      "hegelian": 8533,
      "heinlein": 8534,
      "sympathies": 8535,
      "geneva": 8536,
      "screaming": 8537,
      "insincere": 8538,
      "soundtrack": 8539,
      "brandenburg": 8540,
      "paranoia": 8541,
      "motavalli": 8542,
      "refresh": 8543,
      "automobiles": 8544,
      "pantheon": 8545,
      "touchscreen": 8546,
      "microscope": 8547,
      "aeronautical": 8548,
      "chimpanzees": 8549,
      "uzbekistan": 8550,
      "07": 8551,
      "19": 8552,
      "180": 8553,
      "3b": 8554,
      "6000": 8555,
      "aper": 8556,
      "a12": 8557,
      "bil": 8558,
      "bone": 8559,
      "bans": 8560,
      "batsh": 8561,
      "cere": 8562,
      "cind": 8563,
      "cory": 8564,
      "cree": 8565,
      "census": 8566,
      "dish": 8567,
      "dress": 8568,
      "dug": 8569,
      "ee": 8570,
      "e2": 8571,
      "ell": 8572,
      "eos": 8573,
      "fad": 8574,
      "fif": 8575,
      "file": 8576,
      "fda": 8577,
      "gad": 8578,
      "gates": 8579,
      "hack": 8580,
      "henge": 8581,
      "hunt": 8582,
      "houst": 8583,
      "ii": 8584,
      "io": 8585,
      "iac": 8586,
      "ibs": 8587,
      "ihop": 8588,
      "ju": 8589,
      "jf": 8590,
      "jere": 8591,
      "jens": 8592,
      "jag": 8593,
      "kh": 8594,
      "kinder": 8595,
      "lil": 8596,
      "lack": 8597,
      "lyn": 8598,
      "lori": 8599,
      "m5": 8600,
      "mied": 8601,
      "mature": 8602,
      "mug": 8603,
      "nz": 8604,
      "nels": 8605,
      "naz": 8606,
      "nak": 8607,
      "pear": 8608,
      "patch": 8609,
      "ports": 8610,
      "pigs": 8611,
      "qtr": 8612,
      "ru": 8613,
      "rp": 8614,
      "rage": 8615,
      "rors": 8616,
      "rational": 8617,
      "rna": 8618,
      "sb": 8619,
      "s7": 8620,
      "ses": 8621,
      "sme": 8622,
      "sip": 8623,
      "tn": 8624,
      "tong": 8625,
      "tense": 8626,
      "tends": 8627,
      "types": 8628,
      "udp": 8629,
      "vp": 8630,
      "vod": 8631,
      "vess": 8632,
      "vine": 8633,
      "ward": 8634,
      "wiz": 8635,
      "wade": 8636,
      "wag": 8637,
      "xx": 8638,
      "xav": 8639,
      "xpri": 8640,
      "yank": 8641,
      "zee": 8642,
      "zoo": 8643,
      "##hol": 8644,
      "##hys": 8645,
      "##iers": 8646,
      "##iper": 8647,
      "##iary": 8648,
      "##cules": 8649,
      "##comb": 8650,
      "##kill": 8651,
      "##kers": 8652,
      "##nets": 8653,
      "##tuse": 8654,
      "##tube": 8655,
      "##away": 8656,
      "##aurs": 8657,
      "##rent": 8658,
      "##rary": 8659,
      "##ye": 8660,
      "##don": 8661,
      "##dles": 8662,
      "##ping": 8663,
      "##pie": 8664,
      "##sely": 8665,
      "##bors": 8666,
      "##bons": 8667,
      "##borne": 8668,
      "##vd": 8669,
      "##vity": 8670,
      "##voted": 8671,
      "##mind": 8672,
      "##mick": 8673,
      "##macy": 8674,
      "##fits": 8675,
      "##gart": 8676,
      "##56": 8677,
      "##will": 8678,
      "##zhen": 8679,
      "##10": 8680,
      "##32": 8681,
      "##erling": 8682,
      "thigh": 8683,
      "thesis": 8684,
      "##inally": 8685,
      "##atz": 8686,
      "##inging": 8687,
      "##lle": 8688,
      "##anza": 8689,
      "##enance": 8690,
      "##enote": 8691,
      "##itzer": 8692,
      "##state": 8693,
      "##eto": 8694,
      "##etric": 8695,
      "##rome": 8696,
      "##uter": 8697,
      "##uted": 8698,
      "##aska": 8699,
      "##acenote": 8700,
      "##igan": 8701,
      "##igible": 8702,
      "ante": 8703,
      "##ott": 8704,
      "##otain": 8705,
      "forem": 8706,
      "ongoing": 8707,
      "rech": 8708,
      "reag": 8709,
      "revers": 8710,
      "revert": 8711,
      "reche": 8712,
      "solo": 8713,
      "soph": 8714,
      "cob": 8715,
      "coeffic": 8716,
      "stern": 8717,
      "stages": 8718,
      "sterling": 8719,
      "##launch": 8720,
      "##idic": 8721,
      "##chach": 8722,
      "##chised": 8723,
      "thatcher": 8724,
      "##allan": 8725,
      "neat": 8726,
      "sums": 8727,
      "supre": 8728,
      "##urb": 8729,
      "proves": 8730,
      "youtube": 8731,
      "##ilize": 8732,
      "##ilani": 8733,
      "##ops": 8734,
      "##opol": 8735,
      "anda": 8736,
      "shr": 8737,
      "shed": 8738,
      "shap": 8739,
      "shai": 8740,
      "sharing": 8741,
      "trill": 8742,
      "trun": 8743,
      "hah": 8744,
      "##ceived": 8745,
      "spun": 8746,
      "spark": 8747,
      "spinal": 8748,
      "notion": 8749,
      "notable": 8750,
      "dex": 8751,
      "##cking": 8752,
      "##ckling": 8753,
      "roaming": 8754,
      "rooft": 8755,
      "##erella": 8756,
      "org": 8757,
      "alaska": 8758,
      "segment": 8759,
      "logging": 8760,
      "convention": 8761,
      "chars": 8762,
      "chron": 8763,
      "makers": 8764,
      "##gey": 8765,
      "justifies": 8766,
      "##kson": 8767,
      "##ksha": 8768,
      "modules": 8769,
      "unjust": 8770,
      "unpre": 8771,
      "novel": 8772,
      "nozz": 8773,
      "##olate": 8774,
      "##olist": 8775,
      "##imity": 8776,
      "goodwill": 8777,
      "member": 8778,
      "##ips": 8779,
      "comparing": 8780,
      "##using": 8781,
      "upvoted": 8782,
      "##ieval": 8783,
      "##ielle": 8784,
      "myth": 8785,
      "sail": 8786,
      "##enda": 8787,
      "implement": 8788,
      "thereaf": 8789,
      "priced": 8790,
      "pruf": 8791,
      "auth": 8792,
      "autolist": 8793,
      "betting": 8794,
      "taste": 8795,
      "overt": 8796,
      "##ivative": 8797,
      "##iveness": 8798,
      "buckling": 8799,
      "teb": 8800,
      "supercomp": 8801,
      "falsely": 8802,
      "leilani": 8803,
      "lander": 8804,
      "solely": 8805,
      "solzhen": 8806,
      "testifying": 8807,
      "agenda": 8808,
      "##inton": 8809,
      "desk": 8810,
      "desired": 8811,
      "preference": 8812,
      "prelaunch": 8813,
      "earned": 8814,
      "perm": 8815,
      "##icht": 8816,
      "contest": 8817,
      "contrast": 8818,
      "exped": 8819,
      "resuming": 8820,
      "knits": 8821,
      "powering": 8822,
      "recip": 8823,
      "sergey": 8824,
      "backwards": 8825,
      "quarks": 8826,
      "quaint": 8827,
      "functions": 8828,
      "defects": 8829,
      "syd": 8830,
      "gracenote": 8831,
      "election": 8832,
      "element": 8833,
      "pointless": 8834,
      "undergoing": 8835,
      "relit": 8836,
      "relight": 8837,
      "relations": 8838,
      "supplied": 8839,
      "coolest": 8840,
      "clinton": 8841,
      "seek": 8842,
      "##anged": 8843,
      "littered": 8844,
      "reader": 8845,
      "delays": 8846,
      "offers": 8847,
      "electron": 8848,
      "electrification": 8849,
      "beings": 8850,
      "regs": 8851,
      "regist": 8852,
      "costume": 8853,
      "shortsell": 8854,
      "disg": 8855,
      "donor": 8856,
      "obtuse": 8857,
      "##cedented": 8858,
      "insulation": 8859,
      "rapide": 8860,
      "clooney": 8861,
      "pressing": 8862,
      "confusing": 8863,
      "somethings": 8864,
      "wringing": 8865,
      "retwe": 8866,
      "hears": 8867,
      "##formed": 8868,
      "hype": 8869,
      "technolog": 8870,
      "humanities": 8871,
      "curves": 8872,
      "counts": 8873,
      "centrist": 8874,
      "centrif": 8875,
      "##lety": 8876,
      "generally": 8877,
      "relevant": 8878,
      "clears": 8879,
      "belt": 8880,
      "##itioning": 8881,
      "metro": 8882,
      "publication": 8883,
      "publicist": 8884,
      "secure": 8885,
      "legacy": 8886,
      "esc": 8887,
      "esquire": 8888,
      "redo": 8889,
      "foods": 8890,
      "taxi": 8891,
      "pretended": 8892,
      "blind": 8893,
      "blvd": 8894,
      "anne": 8895,
      "avail": 8896,
      "medieval": 8897,
      "skins": 8898,
      "steal": 8899,
      "productivity": 8900,
      "keyn": 8901,
      "bloody": 8902,
      "blogs": 8903,
      "directions": 8904,
      "remote": 8905,
      "creators": 8906,
      "moonlight": 8907,
      "machina": 8908,
      "entropy": 8909,
      "volumes": 8910,
      "flap": 8911,
      "topiary": 8912,
      "welded": 8913,
      "##liner": 8914,
      "##links": 8915,
      "bits": 8916,
      "bittor": 8917,
      "restating": 8918,
      "attending": 8919,
      "emotic": 8920,
      "barn": 8921,
      "barack": 8922,
      "barman": 8923,
      "formal": 8924,
      "formation": 8925,
      "latitudes": 8926,
      "detailing": 8927,
      "preserve": 8928,
      "presidential": 8929,
      "broder": 8930,
      "infotain": 8931,
      "americans": 8932,
      "craig": 8933,
      "reasonably": 8934,
      "graves": 8935,
      "##heit": 8936,
      "##itsyn": 8937,
      "humanitys": 8938,
      "certainty": 8939,
      "hotter": 8940,
      "sincla": 8941,
      "stands": 8942,
      "standpoint": 8943,
      "goals": 8944,
      "equation": 8945,
      "hercules": 8946,
      "lawmakers": 8947,
      "columb": 8948,
      "##undheit": 8949,
      "distinction": 8950,
      "colliding": 8951,
      "marketing": 8952,
      "causeways": 8953,
      "discord": 8954,
      "slowing": 8955,
      "breach": 8956,
      "gladly": 8957,
      "suggestion": 8958,
      "mainstream": 8959,
      "10th": 8960,
      "painful": 8961,
      "ansys": 8962,
      "impacted": 8963,
      "followers": 8964,
      "coasting": 8965,
      "padre": 8966,
      "globe": 8967,
      "markings": 8968,
      "traveled": 8969,
      "congratulate": 8970,
      "smoother": 8971,
      "##uged": 8972,
      "assume": 8973,
      "babies": 8974,
      "honing": 8975,
      "negot": 8976,
      "digit": 8977,
      "buttload": 8978,
      "sentience": 8979,
      "antares": 8980,
      "anticip": 8981,
      "specialize": 8982,
      "utilize": 8983,
      "##lery": 8984,
      "floats": 8985,
      "musk": 8986,
      "fourth": 8987,
      "particulate": 8988,
      "standards": 8989,
      "##ovic": 8990,
      "powerwalls": 8991,
      "diamond": 8992,
      "clarkson": 8993,
      "cleanly": 8994,
      "snowy": 8995,
      "inspire": 8996,
      "interviews": 8997,
      "denial": 8998,
      "denied": 8999,
      "deniers": 9000,
      "millinery": 9001,
      "subsidized": 9002,
      "subsidizing": 9003,
      "naming": 9004,
      "bottle": 9005,
      "variation": 9006,
      "referring": 9007,
      "virt": 9008,
      "viral": 9009,
      "devil": 9010,
      "deviation": 9011,
      "initializing": 9012,
      "cutlery": 9013,
      "flux": 9014,
      "contractors": 9015,
      "birds": 9016,
      "normally": 9017,
      "venter": 9018,
      "antique": 9019,
      "grows": 9020,
      "regardless": 9021,
      "predictor": 9022,
      "petting": 9023,
      "terror": 9024,
      "septum": 9025,
      "prince": 9026,
      "loser": 9027,
      "magnetic": 9028,
      "50b": 9029,
      "explaining": 9030,
      "margaret": 9031,
      "titles": 9032,
      "challenging": 9033,
      "advertised": 9034,
      "quarterly": 9035,
      "hangout": 9036,
      "shutting": 9037,
      "superdome": 9038,
      "competitions": 9039,
      "minimizes": 9040,
      "secretly": 9041,
      "aspire": 9042,
      "mobileye": 9043,
      "profess": 9044,
      "profits": 9045,
      "rebates": 9046,
      "hydrocar": 9047,
      "##abilia": 9048,
      "bricking": 9049,
      "##umentary": 9050,
      "behaving": 9051,
      "behaves": 9052,
      "joining": 9053,
      "gimmick": 9054,
      "pulled": 9055,
      "maintenance": 9056,
      "fools": 9057,
      "politics": 9058,
      "asimovs": 9059,
      "milksha": 9060,
      "styel": 9061,
      "periods": 9062,
      "apparent": 9063,
      "burst": 9064,
      "burro": 9065,
      "senior": 9066,
      "spiral": 9067,
      "renames": 9068,
      "ruds": 9069,
      "conversations": 9070,
      "unsu": 9071,
      "overruled": 9072,
      "financially": 9073,
      "learns": 9074,
      "p100dl": 9075,
      "measurement": 9076,
      "acceptable": 9077,
      "fielding": 9078,
      "garages": 9079,
      "resistant": 9080,
      "##bao": 9081,
      "inhibiting": 9082,
      "lifes": 9083,
      "severely": 9084,
      "identified": 9085,
      "frankly": 9086,
      "calculations": 9087,
      "maintained": 9088,
      "demonstr": 9089,
      "transitioned": 9090,
      "crushed": 9091,
      "repeal": 9092,
      "capture": 9093,
      "dreams": 9094,
      "mirac": 9095,
      "nominally": 9096,
      "satisf": 9097,
      "palin": 9098,
      "guardian": 9099,
      "absorb": 9100,
      "absorption": 9101,
      "absorbed": 9102,
      "temporal": 9103,
      "quietly": 9104,
      "bonanza": 9105,
      "munter": 9106,
      "recharged": 9107,
      "wastes": 9108,
      "neighbors": 9109,
      "prevents": 9110,
      "textured": 9111,
      "franchised": 9112,
      "strategic": 9113,
      "corporation": 9114,
      "distractions": 9115,
      "sx500": 9116,
      "wiki": 9117,
      "overheated": 9118,
      "overheating": 9119,
      "emerges": 9120,
      "universal": 9121,
      "university": 9122,
[...]
