{
  "version": "1.0",
  "truncation": null,
  "padding": null,
  "added_tokens": [
    {
      "id": 0,
      "content": "<s>",
      "single_word": false,
      "lstrip": false,
      "rstrip": false,
      "normalized": false,
      "special": true
    },
    {
      "id": 1,
      "content": "<pad>",
      "single_word": false,
      "lstrip": false,
      "rstrip": false,
      "normalized": false,
      "special": true
    },
    {
      "id": 2,
      "content": "</s>",
      "single_word": false,
      "lstrip": false,
      "rstrip": false,
      "normalized": false,
      "special": true
    },
    {
      "id": 3,
      "content": "<unk>",
      "single_word": false,
      "lstrip": false,
      "rstrip": false,
      "normalized": false,
      "special": true
    },
    {
      "id": 4,
      "content": "<mask>",
      "single_word": false,
      "lstrip": false,
      "rstrip": false,
      "normalized": false,
      "special": true
    }
  ],
  "normalizer": {
    "type": "BertNormalizer",
    "clean_text": true,
    "handle_chinese_chars": true,
    "strip_accents": null,
    "lowercase": true
  },
  "pre_tokenizer": {
    "type": "BertPreTokenizer"
  },
  "post_processor": null,
  "decoder": {
    "type": "WordPiece",
    "prefix": "##",
    "cleanup": true
  },
  "model": {
    "type": "WordPiece",
    "unk_token": "[UNK]",
    "continuing_subword_prefix": "##",
    "max_input_chars_per_word": 100,
    "vocab": {
      "<s>": 0,
      "<pad>": 1,
      "</s>": 2,
      "<unk>": 3,
      "<mask>": 4,
      "!": 5,
      "\"": 6,
      "$": 7,
      "%": 8,
      "&": 9,
      "'": 10,
      "(": 11,
      ")": 12,
      "*": 13,
      "+": 14,
      ",": 15,
      "-": 16,
      ".": 17,
      "/": 18,
      "0": 19,
      "1": 20,
      "2": 21,
      "3": 22,
      "4": 23,
      "5": 24,
      "6": 25,
      "7": 26,
      "8": 27,
      "9": 28,
      ":": 29,
      ";": 30,
      "=": 31,
      "?": 32,
      "[": 33,
      "]": 34,
      "^": 35,
      "_": 36,
      "a": 37,
      "b": 38,
      "c": 39,
      "d": 40,
      "e": 41,
      "f": 42,
      "g": 43,
      "h": 44,
      "i": 45,
      "j": 46,
      "k": 47,
      "l": 48,
      "m": 49,
      "n": 50,
      "o": 51,
      "p": 52,
      "q": 53,
      "r": 54,
      "s": 55,
      "t": 56,
      "u": 57,
      "v": 58,
      "w": 59,
      "x": 60,
      "y": 61,
      "z": 62,
      "{": 63,
      "|": 64,
      "}": 65,
      "~": 66,
      "##d": 67,
      "##v": 68,
      "##e": 69,
      "##r": 70,
      "##t": 71,
      "##i": 72,
      "##s": 73,
      "##p": 74,
      "##u": 75,
      "##n": 76,
      "##g": 77,
      "##l": 78,
      "##b": 79,
      "##o": 80,
      "##m": 81,
      "##a": 82,
      "##h": 83,
      "##z": 84,
      "##y": 85,
      "##f": 86,
      "##c": 87,
      "##q": 88,
      "##k": 89,
      "##x": 90,
      "##w": 91,
      "##j": 92,
      "##4": 93,
      "##0": 94,
      "##5": 95,
      "##6": 96,
      "##1": 97,
      "##9": 98,
      "##2": 99,
      "##3": 100,
      "##7": 101,
      "##8": 102,
      "##er": 103,
      "th": 104,
      "##in": 105,
      "##es": 106,
      "##on": 107,
      "##or": 108,
      "##at": 109,
      "##ing": 110,
      "##ar": 111,
      "##ll": 112,
      "##an": 113,
      "to": 114,
      "##ou": 115,
      "##en": 116,
      "##ed": 117,
      "the": 118,
      "##it": 119,
      "##re": 120,
      "##st": 121,
      "in": 122,
      "##mp": 123,
      "is": 124,
      "##al": 125,
      "of": 126,
      "##ro": 127,
      "##ic": 128,
      "##le": 129,
      "##ut": 130,
      "be": 131,
      "##as": 132,
      "##ion": 133,
      "##ly": 134,
      "##ig": 135,
      "##ac": 136,
      "##ve": 137,
      "##is": 138,
      "re": 139,
      "##ot": 140,
      "for": 141,
      "amp": 142,
      "##et": 143,
      "so": 144,
      "on": 145,
      "##ill": 146,
      "st": 147,
      "it": 148,
      "##ow": 149,
      "##ay": 150,
      "co": 151,
      "an": 152,
      "##ld": 153,
      "##ct": 154,
      "we": 155,
      "##ent": 156,
      "##me": 157,
      "will": 158,
      "##el": 159,
      "##id": 160,
      "##ch": 161,
      "##igh": 162,
      "wh": 163,
      "that": 164,
      "##la": 165,
      "##all": 166,
      "tes": 167,
      "##ad": 168,
      "##ur": 169,
      "ne": 170,
      "##ver": 171,
      "pro": 172,
      "##oo": 173,
      "su": 174,
      "##ith": 175,
      "##ter": 176,
      "but": 177,
      "##ir": 178,
      "you": 179,
      "##th": 180,
      "tesla": 181,
      "ha": 182,
      "with": 183,
      "##se": 184,
      "this": 185,
      "mo": 186,
      "##ke": 187,
      "tr": 188,
      "##il": 189,
      "en": 190,
      "sh": 191,
      "##ust": 192,
      "##ould": 193,
      "ex": 194,
      "##op": 195,
      "are": 196,
      "##ars": 197,
      "not": 198,
      "li": 199,
      "##ce": 200,
      "##ab": 201,
      "at": 202,
      "##ere": 203,
      "##un": 204,
      "##ight": 205,
      "do": 206,
      "##ea": 207,
      "or": 208,
      "sp": 209,
      "as": 210,
      "##ally": 211,
      "##ers": 212,
      "##pp": 213,
      "al": 214,
      "##ation": 215,
      "##ess": 216,
      "##est": 217,
      "se": 218,
      "##ate": 219,
      "de": 220,
      "ma": 221,
      "wor": 222,
      "con": 223,
      "##ul": 224,
      "##ge": 225,
      "##ant": 226,
      "ch": 227,
      "##ck": 228,
      "ab": 229,
      "##im": 230,
      "##oun": 231,
      "##ra": 232,
      "##ip": 233,
      "##ity": 234,
      "than": 235,
      "all": 236,
      "##ore": 237,
      "and": 238,
      "no": 239,
      "ro": 240,
      "by": 241,
      "un": 242,
      "##ks": 243,
      "have": 244,
      "##ard": 245,
      "##and": 246,
      "##out": 247,
      "##ri": 248,
      "##act": 249,
      "##ace": 250,
      "##ine": 251,
      "##ol": 252,
      "##ort": 253,
      "yes": 254,
      "just": 255,
      "was": 256,
      "##ue": 257,
      "##ood": 258,
      "##gh": 259,
      "##ap": 260,
      "##reat": 261,
      "me": 262,
      "##um": 263,
      "comp": 264,
      "fro": 265,
      "go": 266,
      "from": 267,
      "##os": 268,
      "car": 269,
      "good": 270,
      "la": 271,
      "he": 272,
      "##art": 273,
      "##per": 274,
      "##one": 275,
      "##us": 276,
      "its": 277,
      "##ive": 278,
      "like": 279,
      "##if": 280,
      "##ure": 281,
      "if": 282,
      "##king": 283,
      "ye": 284,
      "up": 285,
      "great": 286,
      "##ction": 287,
      "imp": 288,
      "high": 289,
      "##ough": 290,
      "need": 291,
      "##ment": 292,
      "com": 293,
      "##ain": 294,
      "can": 295,
      "prob": 296,
      "more": 297,
      "about": 298,
      "mod": 299,
      "would": 300,
      "us": 301,
      "space": 302,
      "##ie": 303,
      "sa": 304,
      "##ack": 305,
      "fe": 306,
      "##om": 307,
      "pr": 308,
      "fa": 309,
      "eng": 310,
      "there": 311,
      "lo": 312,
      "##ound": 313,
      "out": 314,
      "my": 315,
      "##am": 316,
      "##ect": 317,
      "##uch": 318,
      "##du": 319,
      "##ong": 320,
      "ar": 321,
      "##end": 322,
      "##ase": 323,
      "##ide": 324,
      "has": 325,
      "should": 326,
      "##ies": 327,
      "bet": 328,
      "pl": 329,
      "##ime": 330,
      "they": 331,
      "produ": 332,
      "model": 333,
      "##able": 334,
      "##ite": 335,
      "##ull": 336,
      "much": 337,
      "##ist": 338,
      "##iz": 339,
      "ad": 340,
      "am": 341,
      "##any": 342,
      "rock": 343,
      "##ry": 344,
      "any": 345,
      "##lo": 346,
      "##are": 347,
      "##ci": 348,
      "##ft": 349,
      "time": 350,
      "some": 351,
      "app": 352,
      "aut": 353,
      "one": 354,
      "##ont": 355,
      "bu": 356,
      "##ving": 357,
      "##ven": 358,
      "act": 359,
      "##ign": 360,
      "te": 361,
      "what": 362,
      "le": 363,
      "##mo": 364,
      "too": 365,
      "our": 366,
      "##hip": 367,
      "po": 368,
      "##ower": 369,
      "##em": 370,
      "##xt": 371,
      "get": 372,
      "hard": 373,
      "##ass": 374,
      "most": 375,
      "##der": 376,
      "##ous": 377,
      "##pt": 378,
      "##qu": 379,
      "over": 380,
      "may": 381,
      "pe": 382,
      "##ff": 383,
      "fl": 384,
      "next": 385,
      "##ice": 386,
      "##con": 387,
      "ac": 388,
      "ta": 389,
      "ever": 390,
      "rocket": 391,
      "new": 392,
      "##ib": 393,
      "only": 394,
      "##ably": 395,
      "work": 396,
      "##gr": 397,
      "##ink": 398,
      "engine": 399,
      "true": 400,
      "ear": 401,
      "##so": 402,
      "##ire": 403,
      "##ays": 404,
      "sol": 405,
      "##ich": 406,
      "##unch": 407,
      "fir": 408,
      "ver": 409,
      "peop": 410,
      "wee": 411,
      "dri": 412,
      "##ia": 413,
      "##ans": 414,
      "super": 415,
      "people": 416,
      "pre": 417,
      "##int": 418,
      "soon": 419,
      "##our": 420,
      "make": 421,
      "were": 422,
      "also": 423,
      "ag": 424,
      "##age": 425,
      "inc": 426,
      "##ha": 427,
      "year": 428,
      "yea": 429,
      "stars": 430,
      "loo": 431,
      "yeah": 432,
      "launch": 433,
      "mon": 434,
      "des": 435,
      "actu": 436,
      "now": 437,
      "##ware": 438,
      "##ach": 439,
      "##ind": 440,
      "cars": 441,
      "##ome": 442,
      "inter": 443,
      "starship": 444,
      "thr": 445,
      "##nt": 446,
      "probably": 447,
      "oth": 448,
      "##be": 449,
      "##atter": 450,
      "spacex": 451,
      "##ory": 452,
      "##ting": 453,
      "exact": 454,
      "hop": 455,
      "sure": 456,
      "which": 457,
      "your": 458,
      "production": 459,
      "##ster": 460,
      "per": 461,
      "##ud": 462,
      "very": 463,
      "long": 464,
      "##eam": 465,
      "tw": 466,
      "##ber": 467,
      "int": 468,
      "##bit": 469,
      "exactly": 470,
      "many": 471,
      "fal": 472,
      "##iv": 473,
      "part": 474,
      "##00": 475,
      "##ult": 476,
      "first": 477,
      "##ors": 478,
      "who": 479,
      "cont": 480,
      "##ence": 481,
      "even": 482,
      "team": 483,
      "acc": 484,
      "lot": 485,
      "real": 486,
      "power": 487,
      "when": 488,
      "qu": 489,
      "right": 490,
      "##ens": 491,
      "impro": 492,
      "land": 493,
      "haha": 494,
      "orbit": 495,
      "res": 496,
      "##ance": 497,
      "thanks": 498,
      "exp": 499,
      "better": 500,
      "##pe": 501,
      "##oth": 502,
      "cr": 503,
      "##ated": 504,
      "month": 505,
      "other": 506,
      "##ount": 507,
      "coming": 508,
      "##vel": 509,
      "im": 510,
      "ser": 511,
      "##ange": 512,
      "how": 513,
      "way": 514,
      "##fer": 515,
      "##arg": 516,
      "##hing": 517,
      "##ions": 518,
      "##own": 519,
      "fun": 520,
      "##gy": 521,
      "actually": 522,
      "##ully": 523,
      "maybe": 524,
      "kn": 525,
      "years": 526,
      "mars": 527,
      "##ree": 528,
      "##ater": 529,
      "big": 530,
      "every": 531,
      "##ric": 532,
      "rap": 533,
      "does": 534,
      "week": 535,
      "##ary": 536,
      "##ild": 537,
      "sy": 538,
      "test": 539,
      "few": 540,
      "bo": 541,
      "design": 542,
      "##day": 543,
      "##ru": 544,
      "##urn": 545,
      "spe": 546,
      "hope": 547,
      "##wn": 548,
      "then": 549,
      "thats": 550,
      "could": 551,
      "min": 552,
      "use": 553,
      "still": 554,
      "##ade": 555,
      "sm": 556,
      "dont": 557,
      "point": 558,
      "##ial": 559,
      "##oss": 560,
      "##kes": 561,
      "soft": 562,
      "def": 563,
      "back": 564,
      "well": 565,
      "cl": 566,
      "aw": 567,
      "ele": 568,
      "##lease": 569,
      "##ility": 570,
      "##ical": 571,
      "falcon": 572,
      "flight": 573,
      "##ible": 574,
      "pu": 575,
      "##ath": 576,
      "supp": 577,
      "dra": 578,
      "##ings": 579,
      "##ty": 580,
      "rec": 581,
      "dif": 582,
      "ph": 583,
      "under": 584,
      "##ile": 585,
      "##met": 586,
      "##ep": 587,
      "software": 588,
      "##ating": 589,
      "##ically": 590,
      "##ise": 591,
      "happ": 592,
      "did": 593,
      "##ang": 594,
      "##fe": 595,
      "ext": 596,
      "solar": 597,
      "##ose": 598,
      "##most": 599,
      "earth": 600,
      "air": 601,
      "lit": 602,
      "almost": 603,
      "##ast": 604,
      "best": 605,
      "boo": 606,
      "##ations": 607,
      "sc": 608,
      "cost": 609,
      "af": 610,
      "##ines": 611,
      "their": 612,
      "world": 613,
      "##ons": 614,
      "think": 615,
      "know": 616,
      "cap": 617,
      "reg": 618,
      "build": 619,
      "ve": 620,
      "own": 621,
      "##te": 622,
      "fin": 623,
      "add": 624,
      "##ering": 625,
      "star": 626,
      "cool": 627,
      "elect": 628,
      "##row": 629,
      "improve": 630,
      "love": 631,
      "##ful": 632,
      "##elf": 633,
      "want": 634,
      "##oc": 635,
      "really": 636,
      "fut": 637,
      "hum": 638,
      "##ph": 639,
      "##orm": 640,
      "needed": 641,
      "rep": 642,
      "see": 643,
      "##ron": 644,
      "##tle": 645,
      "##ick": 646,
      "fact": 647,
      "##les": 648,
      "start": 649,
      "been": 650,
      "##iss": 651,
      "##ves": 652,
      "those": 653,
      "cons": 654,
      "sl": 655,
      "##use": 656,
      "##ys": 657,
      "same": 658,
      "after": 659,
      "##ious": 660,
      "day": 661,
      "hel": 662,
      "ob": 663,
      "sn": 664,
      "working": 665,
      "going": 666,
      "##orn": 667,
      "gen": 668,
      "ok": 669,
      "##ady": 670,
      "them": 671,
      "future": 672,
      "opt": 673,
      "ins": 674,
      "##ish": 675,
      "end": 676,
      "rapt": 677,
      "ca": 678,
      "##iver": 679,
      "drag": 680,
      "electric": 681,
      "##fully": 682,
      "requ": 683,
      "##els": 684,
      "##ilot": 685,
      "##iew": 686,
      "id": 687,
      "mass": 688,
      "##icle": 689,
      "thrust": 690,
      "##ics": 691,
      "autop": 692,
      "##erm": 693,
      "##stem": 694,
      "ind": 695,
      "##unn": 696,
      "tech": 697,
      "off": 698,
      "bec": 699,
      "##imes": 700,
      "system": 701,
      "##up": 702,
      "##ments": 703,
      "full": 704,
      "##ved": 705,
      "##ag": 706,
      "##ense": 707,
      "import": 708,
      "landing": 709,
      "gr": 710,
      "being": 711,
      "pret": 712,
      "down": 713,
      "sound": 714,
      "##ord": 715,
      "into": 716,
      "far": 717,
      "autopilot": 718,
      "##bl": 719,
      "##lem": 720,
      "##eav": 721,
      "art": 722,
      "dis": 723,
      "comple": 724,
      "problem": 725,
      "##ize": 726,
      "cur": 727,
      "pretty": 728,
      "fs": 729,
      "somet": 730,
      "del": 731,
      "heav": 732,
      "press": 733,
      "though": 734,
      "##enc": 735,
      "ener": 736,
      "fsd": 737,
      "##ying": 738,
      "hopefully": 739,
      "done": 740,
      "##ix": 741,
      "##mit": 742,
      "driving": 743,
      "months": 744,
      "made": 745,
      "pay": 746,
      "##ute": 747,
      "help": 748,
      "trans": 749,
      "energy": 750,
      "batter": 751,
      "had": 752,
      "jo": 753,
      "es": 754,
      "say": 755,
      "bl": 756,
      "##ward": 757,
      "max": 758,
      "why": 759,
      "##fore": 760,
      "##ark": 761,
      "fair": 762,
      "##ced": 763,
      "dragon": 764,
      "poss": 765,
      "##ats": 766,
      "str": 767,
      "ship": 768,
      "short": 769,
      "small": 770,
      "fr": 771,
      "##atch": 772,
      "##thing": 773,
      "seem": 774,
      "support": 775,
      "cy": 776,
      "ho": 777,
      "sign": 778,
      "##veral": 779,
      "life": 780,
      "last": 781,
      "important": 782,
      "heavy": 783,
      "less": 784,
      "adv": 785,
      "cle": 786,
      "low": 787,
      "wr": 788,
      "##ane": 789,
      "engines": 790,
      "publ": 791,
      "op": 792,
      "##mm": 793,
      "road": 794,
      "human": 795,
      "days": 796,
      "vers": 797,
      "##az": 798,
      "raptor": 799,
      "call": 800,
      "gu": 801,
      "##ame": 802,
      "##cess": 803,
      "before": 804,
      "sub": 805,
      "##ability": 806,
      "veh": 807,
      "techn": 808,
      "lea": 809,
      "tunn": 810,
      "cent": 811,
      "eff": 812,
      "miss": 813,
      "youre": 814,
      "##erson": 815,
      "both": 816,
      "ev": 817,
      "##ways": 818,
      "company": 819,
      "appro": 820,
      "bas": 821,
      "##ese": 822,
      "tra": 823,
      "conf": 824,
      "speed": 825,
      "gener": 826,
      "met": 827,
      "roo": 828,
      "##way": 829,
      "ste": 830,
      "count": 831,
      "vide": 832,
      "##ell": 833,
      "ai": 834,
      "sur": 835,
      "dep": 836,
      "incre": 837,
      "##inite": 838,
      "##ific": 839,
      "take": 840,
      "contro": 841,
      "##ress": 842,
      "##ert": 843,
      "enough": 844,
      "through": 845,
      "gig": 846,
      "##li": 847,
      "ret": 848,
      "val": 849,
      "where": 850,
      "around": 851,
      "product": 852,
      "drive": 853,
      "##fet": 854,
      "inv": 855,
      "level": 856,
      "bor": 857,
      "later": 858,
      "red": 859,
      "term": 860,
      "##reci": 861,
      "bel": 862,
      "differ": 863,
      "exce": 864,
      "extre": 865,
      "something": 866,
      "br": 867,
      "cor": 868,
      "gi": 869,
      "times": 870,
      "today": 871,
      "##ready": 872,
      "##ets": 873,
      "already": 874,
      "serv": 875,
      "little": 876,
      "##form": 877,
      "##ition": 878,
      "sec": 879,
      "##oney": 880,
      "upd": 881,
      "amaz": 882,
      "booster": 883,
      "might": 884,
      "par": 885,
      "ra": 886,
      "always": 887,
      "cal": 888,
      "gas": 889,
      "##ative": 890,
      "##ank": 891,
      "two": 892,
      "##initely": 893,
      "##we": 894,
      "makes": 895,
      "abs": 896,
      "definitely": 897,
      "public": 898,
      "things": 899,
      "extreme": 900,
      "hy": 901,
      "self": 902,
      "doing": 903,
      "order": 904,
      "upgr": 905,
      "video": 906,
      "giga": 907,
      "man": 908,
      "money": 909,
      "##ual": 910,
      "these": 911,
      "release": 912,
      "several": 913,
      "curr": 914,
      "amazing": 915,
      "##imp": 916,
      "##ero": 917,
      "maj": 918,
      "engineering": 919,
      "looks": 920,
      "obv": 921,
      "av": 922,
      "med": 923,
      "safet": 924,
      "beta": 925,
      "leg": 926,
      "safety": 927,
      "sim": 928,
      "rev": 929,
      "ref": 930,
      "plan": 931,
      "appreci": 932,
      "tax": 933,
      "again": 934,
      "matter": 935,
      "tal": 936,
      "limit": 937,
      "change": 938,
      "##olo": 939,
      "needs": 940,
      "fast": 941,
      "##load": 942,
      "doesnt": 943,
      "open": 944,
      "version": 945,
      "major": 946,
      "fix": 947,
      "please": 948,
      "##ble": 949,
      "##iles": 950,
      "dec": 951,
      "comm": 952,
      "turn": 953,
      "##ates": 954,
      "inst": 955,
      "early": 956,
      "pressure": 957,
      "##ency": 958,
      "never": 959,
      "happen": 960,
      "starl": 961,
      "boring": 962,
      "range": 963,
      "sk": 964,
      "show": 965,
      "weeks": 966,
      "cant": 967,
      "due": 968,
      "eas": 969,
      "fla": 970,
      "##less": 971,
      "##iting": 972,
      "##charg": 973,
      "roll": 974,
      "interest": 975,
      "battery": 976,
      "control": 977,
      "stop": 978,
      "said": 979,
      "current": 980,
      "##ds": 981,
      "##ts": 982,
      "##uck": 983,
      "##ak": 984,
      "##alf": 985,
      "##ude": 986,
      "awes": 987,
      "regul": 988,
      "lower": 989,
      "oper": 990,
      "iss": 991,
      "mot": 992,
      "##ause": 993,
      "##ason": 994,
      "worth": 995,
      "sounds": 996,
      "possible": 997,
      "starlink": 998,
      "awesome": 999,
      "pri": 1000,
      "simp": 1001,
      "##lin": 1002,
      "##ution": 1003,
      "read": 1004,
      "service": 1005,
      "bit": 1006,
      "##ail": 1007,
      "##cial": 1008,
      "orbital": 1009,
      "because": 1010,
      "cyber": 1011,
      "bra": 1012,
      "ke": 1013,
      "person": 1014,
      "sor": 1015,
      "vis": 1016,
      "##dy": 1017,
      "##co": 1018,
      "summ": 1019,
      "ent": 1020,
      "chang": 1021,
      "higher": 1022,
      "supercharg": 1023,
      "crit": 1024,
      "ap": 1025,
      "dire": 1026,
      "vol": 1027,
      "##ash": 1028,
      "congr": 1029,
      "intern": 1030,
      "sorry": 1031,
      "hour": 1032,
      "##gg": 1033,
      "##gen": 1034,
      "##ina": 1035,
      "reus": 1036,
      "##ural": 1037,
      "moon": 1038,
      "allow": 1039,
      "##ieve": 1040,
      "##ized": 1041,
      "look": 1042,
      "clear": 1043,
      "clo": 1044,
      "mer": 1045,
      "##mor": 1046,
      "##illion": 1047,
      "making": 1048,
      "deliver": 1049,
      "light": 1050,
      "pass": 1051,
      "##ily": 1052,
      "100": 1053,
      "his": 1054,
      "##ume": 1055,
      "##come": 1056,
      "thing": 1057,
      "unt": 1058,
      "factory": 1059,
      "fo": 1060,
      "free": 1061,
      "set": 1062,
      "side": 1063,
      "wind": 1064,
      "##red": 1065,
      "##fact": 1066,
      "##itive": 1067,
      "without": 1068,
      "using": 1069,
      "anything": 1070,
      "autom": 1071,
      "fire": 1072,
      "mach": 1073,
      "ris": 1074,
      "ton": 1075,
      "vs": 1076,
      "war": 1077,
      "while": 1078,
      "che": 1079,
      "comput": 1080,
      "likely": 1081,
      "diff": 1082,
      "close": 1083,
      "don": 1084,
      "nor": 1085,
      "##ps": 1086,
      "##ature": 1087,
      "play": 1088,
      "quest": 1089,
      "requir": 1090,
      "##io": 1091,
      "exc": 1092,
      "china": 1093,
      "goes": 1094,
      "ago": 1095,
      "cre": 1096,
      "mult": 1097,
      "num": 1098,
      "rate": 1099,
      "sate": 1100,
      "##lan": 1101,
      "head": 1102,
      "satell": 1103,
      "must": 1104,
      "wow": 1105,
      "##ugh": 1106,
      "##wh": 1107,
      "##rect": 1108,
      "try": 1109,
      "##iming": 1110,
      "looking": 1111,
      "center": 1112,
      "extremely": 1113,
      "det": 1114,
      "night": 1115,
      "##val": 1116,
      "##uring": 1117,
      "##ately": 1118,
      "loc": 1119,
      "fly": 1120,
      "half": 1121,
      "vac": 1122,
      "##ever": 1123,
      "##ially": 1124,
      "##ject": 1125,
      "##ider": 1126,
      "used": 1127,
      "post": 1128,
      "incl": 1129,
      "##ather": 1130,
      "vehicle": 1131,
      "nice": 1132,
      "##tw": 1133,
      "##stain": 1134,
      "rem": 1135,
      "sustain": 1136,
      "feel": 1137,
      "##cially": 1138,
      "temp": 1139,
      "owners": 1140,
      "least": 1141,
      "update": 1142,
      "bad": 1143,
      "sw": 1144,
      "sense": 1145,
      "yet": 1146,
      "yup": 1147,
      "##ient": 1148,
      "##gn": 1149,
      "tomor": 1150,
      "stand": 1151,
      "compet": 1152,
      "tomorrow": 1153,
      "cour": 1154,
      "fully": 1155,
      "sing": 1156,
      "tons": 1157,
      "##de": 1158,
      "##vid": 1159,
      "##ied": 1160,
      "##ai": 1161,
      "sun": 1162,
      "auto": 1163,
      "##gress": 1164,
      "##pell": 1165,
      "tunnel": 1166,
      "absol": 1167,
      "bar": 1168,
      "got": 1169,
      "pos": 1170,
      "##eric": 1171,
      "##anced": 1172,
      "##eng": 1173,
      "nothing": 1174,
      "deep": 1175,
      "hardware": 1176,
      "roof": 1177,
      "until": 1178,
      "gt": 1179,
      "home": 1180,
      "##ues": 1181,
      "##arge": 1182,
      "##anies": 1183,
      "propell": 1184,
      "##ational": 1185,
      "companies": 1186,
      "tex": 1187,
      "##ruck": 1188,
      "article": 1189,
      "##ology": 1190,
      "absolute": 1191,
      "iron": 1192,
      "let": 1193,
      "water": 1194,
      "zero": 1195,
      "##ten": 1196,
      "##truck": 1197,
      "##ness": 1198,
      "##inal": 1199,
      "##ond": 1200,
      "##reed": 1201,
      "##icles": 1202,
      "##ential": 1203,
      "comb": 1204,
      "getting": 1205,
      "bigg": 1206,
      "texas": 1207,
      "dat": 1208,
      "put": 1209,
      "wa": 1210,
      "##ids": 1211,
      "##velop": 1212,
      "idea": 1213,
      "called": 1214,
      "review": 1215,
      "propellant": 1216,
      "ach": 1217,
      "aff": 1218,
      "##ian": 1219,
      "##ium": 1220,
      "reach": 1221,
      "##ield": 1222,
      "perform": 1223,
      "liter": 1224,
      "regulat": 1225,
      "cybertruck": 1226,
      "wont": 1227,
      "##pect": 1228,
      "##med": 1229,
      "##mpt": 1230,
      "##ict": 1231,
      "##icult": 1232,
      "progress": 1233,
      "##pecially": 1234,
      "fund": 1235,
      "slight": 1236,
      "especially": 1237,
      "difficult": 1238,
      "gra": 1239,
      "imo": 1240,
      "stage": 1241,
      "move": 1242,
      "##ulation": 1243,
      "fav": 1244,
      "mostly": 1245,
      "expect": 1246,
      "invest": 1247,
      "volume": 1248,
      "absolutely": 1249,
      "case": 1250,
      "lat": 1251,
      "##eed": 1252,
      "##ases": 1253,
      "##aces": 1254,
      "rear": 1255,
      "area": 1256,
      "secon": 1257,
      "##iforn": 1258,
      "optim": 1259,
      "seems": 1260,
      "hold": 1261,
      "californ": 1262,
      "bro": 1263,
      "creat": 1264,
      "top": 1265,
      "##ites": 1266,
      "reason": 1267,
      "come": 1268,
      "exper": 1269,
      "att": 1270,
      "doge": 1271,
      "##ization": 1272,
      "away": 1273,
      "phys": 1274,
      "building": 1275,
      "thought": 1276,
      "course": 1277,
      "net": 1278,
      "##ning": 1279,
      "##cra": 1280,
      "##eres": 1281,
      "ann": 1282,
      "##ention": 1283,
      "##eak": 1284,
      "betwe": 1285,
      "rapid": 1286,
      "mins": 1287,
      "##iously": 1288,
      "technology": 1289,
      "california": 1290,
      "between": 1291,
      "eu": 1292,
      "hot": 1293,
      "kind": 1294,
      "miles": 1295,
      "pack": 1296,
      "rest": 1297,
      "##bal": 1298,
      "##itter": 1299,
      "develop": 1300,
      "able": 1301,
      "care": 1302,
      "option": 1303,
      "payload": 1304,
      "interesting": 1305,
      "risk": 1306,
      "found": 1307,
      "##port": 1308,
      "##ock": 1309,
      "live": 1310,
      "##ctions": 1311,
      "##ending": 1312,
      "rockets": 1313,
      "parts": 1314,
      "##other": 1315,
      "body": 1316,
      "value": 1317,
      "check": 1318,
      "question": 1319,
      "multip": 1320,
      "data": 1321,
      "performance": 1322,
      "aiming": 1323,
      "cust": 1324,
      "ox": 1325,
      "old": 1326,
      "rad": 1327,
      "via": 1328,
      "##gra": 1329,
      "##ces": 1330,
      "##itch": 1331,
      "##ros": 1332,
      "form": 1333,
      "anyone": 1334,
      "buy": 1335,
      "##ffic": 1336,
      "mission": 1337,
      "##craft": 1338,
      "cam": 1339,
      "dou": 1340,
      "sch": 1341,
      "##line": 1342,
      "##wer": 1343,
      "##ator": 1344,
      "cover": 1345,
      "##ures": 1346,
      "sell": 1347,
      "goal": 1348,
      "price": 1349,
      "general": 1350,
      "easy": 1351,
      "hours": 1352,
      "custom": 1353,
      "dro": 1354,
      "em": 1355,
      "##aut": 1356,
      "testing": 1357,
      "neural": 1358,
      "const": 1359,
      "pres": 1360,
      "didnt": 1361,
      "wrong": 1362,
      "upgrad": 1363,
      "single": 1364,
      "literally": 1365,
      "cert": 1366,
      "##ead": 1367,
      "##uel": 1368,
      "##ked": 1369,
      "##ality": 1370,
      "forward": 1371,
      "wel": 1372,
      "whe": 1373,
      "americ": 1374,
      "accel": 1375,
      "happy": 1376,
      "cape": 1377,
      "consider": 1378,
      "steel": 1379,
      "sin": 1380,
      "##ins": 1381,
      "##ale": 1382,
      "trying": 1383,
      "heat": 1384,
      "twitter": 1385,
      "improvements": 1386,
      "complete": 1387,
      "media": 1388,
      "against": 1389,
      "critical": 1390,
      "btw": 1391,
      "##ities": 1392,
      "station": 1393,
      "##ident": 1394,
      "suc": 1395,
      "##ilt": 1396,
      "##und": 1397,
      "##ulations": 1398,
      "rob": 1399,
      "mean": 1400,
      "means": 1401,
      "place": 1402,
      "false": 1403,
      "prior": 1404,
      "direct": 1405,
      "reusable": 1406,
      "##lanet": 1407,
      "welcome": 1408,
      "here": 1409,
      "km": 1410,
      "##ted": 1411,
      "##ually": 1412,
      "##atic": 1413,
      "##atically": 1414,
      "##llow": 1415,
      "another": 1416,
      "alth": 1417,
      "##uss": 1418,
      "##omm": 1419,
      "##ists": 1420,
      "quite": 1421,
      "acceler": 1422,
      "cell": 1423,
      "hand": 1424,
      "sci": 1425,
      "##ital": 1426,
      "##itude": 1427,
      "##ising": 1428,
      "prot": 1429,
      "##ool": 1430,
      "main": 1431,
      "abo": 1432,
      "clos": 1433,
      "signific": 1434,
      "appreciated": 1435,
      "second": 1436,
      "significant": 1437,
      "name": 1438,
      "view": 1439,
      "##ho": 1440,
      "##ern": 1441,
      "##ices": 1442,
      "deal": 1443,
      "mode": 1444,
      "news": 1445,
      "contin": 1446,
      "fairing": 1447,
      "advanced": 1448,
      "correct": 1449,
      "computer": 1450,
      "detail": 1451,
      "above": 1452,
      "cry": 1453,
      "game": 1454,
      "three": 1455,
      "##asing": 1456,
      "##ither": 1457,
      "recomm": 1458,
      "disc": 1459,
      "complex": 1460,
      "although": 1461,
      "recommend": 1462,
      "city": 1463,
      "dist": 1464,
      "non": 1465,
      "size": 1466,
      "##her": 1467,
      "##wall": 1468,
      "##ouse": 1469,
      "inf": 1470,
      "agreed": 1471,
      "slow": 1472,
      "increase": 1473,
      "return": 1474,
      "limited": 1475,
      "slightly": 1476,
      "el": 1477,
      "gam": 1478,
      "mid": 1479,
      "pol": 1480,
      "sigh": 1481,
      "wide": 1482,
      "##ear": 1483,
      "##ms": 1484,
      "##av": 1485,
      "tot": 1486,
      "coll": 1487,
      "truck": 1488,
      "thank": 1489,
      "##mental": 1490,
      "prim": 1491,
      "theyre": 1492,
      "accur": 1493,
      "designed": 1494,
      "effect": 1495,
      "approval": 1496,
      "believe": 1497,
      "motor": 1498,
      "camer": 1499,
      "certain": 1500,
      "cra": 1501,
      "##its": 1502,
      "##stand": 1503,
      "init": 1504,
      "##ourn": 1505,
      "everyone": 1506,
      "given": 1507,
      "supercharger": 1508,
      "number": 1509,
      "sustainable": 1510,
      "each": 1511,
      "find": 1512,
      "fuel": 1513,
      "mph": 1514,
      "pan": 1515,
      "run": 1516,
      "##na": 1517,
      "##zy": 1518,
      "##reen": 1519,
      "such": 1520,
      "note": 1521,
      "safe": 1522,
      "##loy": 1523,
      "actual": 1524,
      "twe": 1525,
      "cred": 1526,
      "favor": 1527,
      "since": 1528,
      "fle": 1529,
      "fine": 1530,
      "##cr": 1531,
      "theres": 1532,
      "near": 1533,
      "moving": 1534,
      "built": 1535,
      "prec": 1536,
      "traffic": 1537,
      "##lanetary": 1538,
      "10": 1539,
      "da": 1540,
      "dest": 1541,
      "journ": 1542,
      "tur": 1543,
      "##ier": 1544,
      "##ling": 1545,
      "##oid": 1546,
      "isnt": 1547,
      "once": 1548,
      "##lad": 1549,
      "neg": 1550,
      "##pper": 1551,
      "death": 1552,
      "works": 1553,
      "##imate": 1554,
      "meant": 1555,
      "##ought": 1556,
      "##aining": 1557,
      "amount": 1558,
      "flights": 1559,
      "humanity": 1560,
      "based": 1561,
      "redu": 1562,
      "keep": 1563,
      "changes": 1564,
      "congrat": 1565,
      "satellites": 1566,
      "base": 1567,
      "blo": 1568,
      "kids": 1569,
      "mind": 1570,
      "mark": 1571,
      "##pir": 1572,
      "##uly": 1573,
      "##bo": 1574,
      "##ined": 1575,
      "rel": 1576,
      "col": 1577,
      "##ush": 1578,
      "fail": 1579,
      "##ends": 1580,
      "##ibly": 1581,
      "##ives": 1582,
      "front": 1583,
      "travel": 1584,
      "##where": 1585,
      "civ": 1586,
      "give": 1587,
      "ive": 1588,
      "pie": 1589,
      "sal": 1590,
      "win": 1591,
      "##lass": 1592,
      "##ygen": 1593,
      "##oud": 1594,
      "stor": 1595,
      "stock": 1596,
      "##ters": 1597,
      "longer": 1598,
      "access": 1599,
      "reality": 1600,
      "ground": 1601,
      "tunnels": 1602,
      "effic": 1603,
      "difference": 1604,
      "oxygen": 1605,
      "##ross": 1606,
      "success": 1607,
      "crazy": 1608,
      "congratulations": 1609,
      "house": 1610,
      "pain": 1611,
      "rough": 1612,
      "##ug": 1613,
      "##bs": 1614,
      "##ene": 1615,
      "rele": 1616,
      "anal": 1617,
      "faster": 1618,
      "log": 1619,
      "load": 1620,
      "vehicles": 1621,
      "regulatory": 1622,
      "ed": 1623,
      "sent": 1624,
      "sens": 1625,
      "tank": 1626,
      "ul": 1627,
      "v1": 1628,
      "won": 1629,
      "##ufact": 1630,
      "##air": 1631,
      "##zz": 1632,
      "##acking": 1633,
      "##ote": 1634,
      "##ents": 1635,
      "dem": 1636,
      "hell": 1637,
      "someone": 1638,
      "whole": 1639,
      "everything": 1640,
      "black": 1641,
      "giant": 1642,
      "manufact": 1643,
      "##coin": 1644,
      "summon": 1645,
      "standard": 1646,
      "physics": 1647,
      "civil": 1648,
      "bot": 1649,
      "either": 1650,
      "foc": 1651,
      "pot": 1652,
      "pla": 1653,
      "##ience": 1654,
      "##cing": 1655,
      "tough": 1656,
      "prop": 1657,
      "##ird": 1658,
      "liqu": 1659,
      "plus": 1660,
      "agree": 1661,
      "others": 1662,
      "however": 1663,
      "repl": 1664,
      "roadster": 1665,
      "issues": 1666,
      "positive": 1667,
      "funda": 1668,
      "ult": 1669,
      "di": 1670,
      "dam": 1671,
      "fil": 1672,
      "hist": 1673,
      "watch": 1674,
      "##uum": 1675,
      "##ca": 1676,
      "##ries": 1677,
      "law": 1678,
      "flow": 1679,
      "powerwall": 1680,
      "result": 1681,
      "spec": 1682,
      "insane": 1683,
      "legs": 1684,
      "matters": 1685,
      "1000": 1686,
      "required": 1687,
      "vacuum": 1688,
      "euro": 1689,
      "accurate": 1690,
      "focus": 1691,
      "emp": 1692,
      "glad": 1693,
      "larg": 1694,
      "mar": 1695,
      "wish": 1696,
      "##par": 1697,
      "##over": 1698,
      "##wise": 1699,
      "##ism": 1700,
      "force": 1701,
      "##ether": 1702,
      "cold": 1703,
      "progra": 1704,
      "orig": 1705,
      "gov": 1706,
      "left": 1707,
      "##conom": 1708,
      "smart": 1709,
      "report": 1710,
      "ess": 1711,
      "different": 1712,
      "fixed": 1713,
      "follow": 1714,
      "liquid": 1715,
      "burn": 1716,
      "econom": 1717,
      "large": 1718,
      "million": 1719,
      "pad": 1720,
      "ut": 1721,
      "##light": 1722,
      "bey": 1723,
      "ang": 1724,
      "##vers": 1725,
      "exist": 1726,
      "ass": 1727,
      "require": 1728,
      "room": 1729,
      "upgrade": 1730,
      "entire": 1731,
      "machine": 1732,
      "affect": 1733,
      "wheel": 1734,
      "ber": 1735,
      "bab": 1736,
      "glo": 1737,
      "ny": 1738,
      "oh": 1739,
      "##put": 1740,
      "##las": 1741,
      "##ming": 1742,
      "##aw": 1743,
      "##anks": 1744,
      "##ream": 1745,
      "##ision": 1746,
      "##eter": 1747,
      "##ada": 1748,
      "sugg": 1749,
      "she": 1750,
      "deb": 1751,
      "##aps": 1752,
      "auton": 1753,
      "takes": 1754,
      "incred": 1755,
      "function": 1756,
      "##ruct": 1757,
      "costs": 1758,
      "improvement": 1759,
      "strong": 1760,
      "hyd": 1761,
      "fleet": 1762,
      "beyond": 1763,
      "suggest": 1764,
      "ah": 1765,
      "dens": 1766,
      "fri": 1767,
      "ir": 1768,
      "lab": 1769,
      "line": 1770,
      "##vent": 1771,
      "##ract": 1772,
      "##mb": 1773,
      "##face": 1774,
      "##ited": 1775,
      "butt": 1776,
      "lift": 1777,
      "unless": 1778,
      "boca": 1779,
      "factor": 1780,
      "batteries": 1781,
      "basically": 1782,
      "install": 1783,
      "issue": 1784,
      "combust": 1785,
      "rapidly": 1786,
      "games": 1787,
      "roughly": 1788,
      "##led": 1789,
      "##mos": 1790,
      "##aid": 1791,
      "##iny": 1792,
      "touch": 1793,
      "##veil": 1794,
      "rece": 1795,
      "ready": 1796,
      "online": 1797,
      "stud": 1798,
      "##vern": 1799,
      "having": 1800,
      "##pping": 1801,
      "ch4": 1802,
      "unveil": 1803,
      "govern": 1804,
      "itself": 1805,
      "probability": 1806,
      "took": 1807,
      "understand": 1808,
      "saying": 1809,
      "vision": 1810,
      "automatically": 1811,
      "##ength": 1812,
      "multiplanetary": 1813,
      "robot": 1814,
      "history": 1815,
      "bre": 1816,
      "during": 1817,
      "equ": 1818,
      "hon": 1819,
      "ur": 1820,
      "upper": 1821,
      "##ral": 1822,
      "##pr": 1823,
      "##ler": 1824,
      "##vert": 1825,
      "mov": 1826,
      "##unk": 1827,
      "conn": 1828,
      "##ify": 1829,
      "impact": 1830,
      "feed": 1831,
      "record": 1832,
      "adding": 1833,
      "subs": 1834,
      "excell": 1835,
      "except": 1836,
      "local": 1837,
      "negative": 1838,
      "govt": 1839,
      "ast": 1840,
      "las": 1841,
      "pure": 1842,
      "##amp": 1843,
      "##ake": 1844,
      "##ken": 1845,
      "##ination": 1846,
      "beaut": 1847,
      "ans": 1848,
      "chance": 1849,
      "hear": 1850,
      "impress": 1851,
      "useful": 1852,
      "phone": 1853,
      "cause": 1854,
      "indeed": 1855,
      "currently": 1856,
      "bigger": 1857,
      "europe": 1858,
      "excellent": 1859,
      "bay": 1860,
      "fre": 1861,
      "opp": 1862,
      "past": 1863,
      "##ta": 1864,
      "##ump": 1865,
      "thin": 1866,
      "##ork": 1867,
      "##entially": 1868,
      "##urs": 1869,
      "##oop": 1870,
      "##cept": 1871,
      "spaces": 1872,
      "conc": 1873,
      "univer": 1874,
      "feature": 1875,
      "worked": 1876,
      "party": 1877,
      "otherwise": 1878,
      "weekend": 1879,
      "special": 1880,
      "turns": 1881,
      "sky": 1882,
      "congrats": 1883,
      "exciting": 1884,
      "grav": 1885,
      "total": 1886,
      "plaid": 1887,
      "bought": 1888,
      "mess": 1889,
      "pop": 1890,
      "##dd": 1891,
      "##ey": 1892,
      "##mes": 1893,
      "##fort": 1894,
      "##rot": 1895,
      "beg": 1896,
      "##acks": 1897,
      "shield": 1898,
      "atmos": 1899,
      "cham": 1900,
      "##ounce": 1901,
      "final": 1902,
      "address": 1903,
      "guess": 1904,
      "event": 1905,
      "countries": 1906,
      "ramp": 1907,
      "tonight": 1908,
      "radar": 1909,
      "turb": 1910,
      "market": 1911,
      "sales": 1912,
      "civilization": 1913,
      "fundamental": 1914,
      "berlin": 1915,
      "autonom": 1916,
      "combustion": 1917,
      "catch": 1918,
      "fall": 1919,
      "her": 1920,
      "pic": 1921,
      "sour": 1922,
      "tb": 1923,
      "tiny": 1924,
      "vent": 1925,
      "##oke": 1926,
      "offer": 1927,
      "##acing": 1928,
      "##oty": 1929,
      "state": 1930,
      "provid": 1931,
      "sus": 1932,
      "##ilar": 1933,
      "list": 1934,
      "##pped": 1935,
      "##ules": 1936,
      "chall": 1937,
      "carb": 1938,
      "comes": 1939,
      "##ains": 1940,
      "##oming": 1941,
      "whats": 1942,
      "tests": 1943,
      "##ysis": 1944,
      "maxim": 1945,
      "avai": 1946,
      "talk": 1947,
      "requires": 1948,
      "create": 1949,
      "includ": 1950,
      "achie": 1951,
      "america": 1952,
      "science": 1953,
      "tweet": 1954,
      "piece": 1955,
      "atmosph": 1956,
      "chamber": 1957,
      "availa": 1958,
      "date": 1959,
      "ep": 1960,
      "fra": 1961,
      "hu": 1962,
      "him": 1963,
      "late": 1964,
      "var": 1965,
      "vel": 1966,
      "##que": 1967,
      "##acy": 1968,
      "story": 1969,
      "##ently": 1970,
      "atte": 1971,
      "taking": 1972,
      "##ension": 1973,
      "improved": 1974,
      "scale": 1975,
      "ide": 1976,
      "config": 1977,
      "confir": 1978,
      "metal": 1979,
      "bring": 1980,
      "irony": 1981,
      "prototy": 1982,
      "block": 1983,
      "analysis": 1984,
      "answer": 1985,
      "aust": 1986,
      "core": 1987,
      "dr": 1988,
      "ge": 1989,
      "mis": 1990,
      "mus": 1991,
      "mile": 1992,
      "sou": 1993,
      "##ik": 1994,
      "##back": 1995,
      "##mi": 1996,
      "##ators": 1997,
      "##iday": 1998,
      "within": 1999,
      "nozz": 2000,
      "meet": 2001,
      "##istic": 2002,
      "##izing": 2003,
      "active": 2004,
      "gets": 2005,
      "harder": 2006,
      "solution": 2007,
      "hoping": 2008,
      "##ference": 2009,
      "##rupt": 2010,
      "fins": 2011,
      "massive": 2012,
      "clean": 2013,
      "deploy": 2014,
      "##like": 2015,
      "below": 2016,
      "obvious": 2017,
      "wait": 2018,
      "double": 2019,
      "priority": 2020,
      "certainly": 2021,
      "credit": 2022,
      "baby": 2023,
      "density": 2024,
      "connect": 2025,
      "carbon": 2026,
      "dron": 2027,
      "latter": 2028,
      "mk": 2029,
      "mention": 2030,
      "pm": 2031,
      "paid": 2032,
      "sil": 2033,
      "smo": 2034,
      "went": 2035,
      "##ior": 2036,
      "##iency": 2037,
      "##cle": 2038,
      "beh": 2039,
      "static": 2040,
      "ant": 2041,
      "white": 2042,
      "nose": 2043,
      "heard": 2044,
      "pred": 2045,
      "lead": 2046,
      "launches": 2047,
      "##meth": 2048,
      "strange": 2049,
      "avoid": 2050,
      "happened": 2051,
      "internal": 2052,
      "delivery": 2053,
      "crew": 2054,
      "biggest": 2055,
      "details": 2056,
      "original": 2057,
      "available": 2058,
      "veloc": 2059,
      "drones": 2060,
      "20": 2061,
      "fig": 2062,
      "mount": 2063,
      "nav": 2064,
      "tanks": 2065,
      "##ders": 2066,
      "##tc": 2067,
      "##cy": 2068,
      "##read": 2069,
      "struct": 2070,
      "trip": 2071,
      "trick": 2072,
      "ask": 2073,
      "seen": 2074,
      "##rib": 2075,
      "mech": 2076,
      "##iful": 2077,
      "feels": 2078,
      "prices": 2079,
      "quar": 2080,
      "##anger": 2081,
      "repair": 2082,
      "thrusters": 2083,
      "##wards": 2084,
      "increasing": 2085,
      "exceed": 2086,
      "similar": 2087,
      "flaps": 2088,
      "rolling": 2089,
      "internet": 2090,
      "merlin": 2091,
      "achieve": 2092,
      "results": 2093,
      "astron": 2094,
      "droneship": 2095,
      "action": 2096,
      "bir": 2097,
      "dual": 2098,
      "flo": 2099,
      "grow": 2100,
      "hor": 2101,
      "norm": 2102,
      "pur": 2103,
      "peak": 2104,
      "uaw": 2105,
      "##side": 2106,
      "##go": 2107,
      "##oice": 2108,
      "##aster": 2109,
      "##icul": 2110,
      "##igate": 2111,
      "##idual": 2112,
      "prof": 2113,
      "enable": 2114,
      "ali": 2115,
      "word": 2116,
      "engineers": 2117,
      "lots": 2118,
      "crash": 2119,
      "class": 2120,
      "climate": 2121,
      "finish": 2122,
      "raptors": 2123,
      "indust": 2124,
      "gigafact": 2125,
      "obviously": 2126,
      "flameth": 2127,
      "operating": 2128,
      "simple": 2129,
      "latest": 2130,
      "kinda": 2131,
      "primary": 2132,
      "favorite": 2133,
      "efficiency": 2134,
      "diam": 2135,
      "global": 2136,
      "honor": 2137,
      "movie": 2138,
      "flamethrow": 2139,
      "cat": 2140,
      "dig": 2141,
      "glass": 2142,
      "hat": 2143,
      "lin": 2144,
      "lay": 2145,
      "nam": 2146,
      "russ": 2147,
      "sat": 2148,
      "targ": 2149,
      "vast": 2150,
      "##ule": 2151,
      "##hop": 2152,
      "##cc": 2153,
      "##ared": 2154,
      "##ret": 2155,
      "##ased": 2156,
      "weve": 2157,
      "weather": 2158,
      "track": 2159,
      "alt": 2160,
      "deg": 2161,
      "magn": 2162,
      "unlike": 2163,
      "##ands": 2164,
      "highly": 2165,
      "proud": 2166,
      "tell": 2167,
      "incent": 2168,
      "respect": 2169,
      "humans": 2170,
      "caus": 2171,
      "request": 2172,
      "become": 2173,
      "blow": 2174,
      "possibly": 2175,
      "technically": 2176,
      "surface": 2177,
      "surpr": 2178,
      "hyper": 2179,
      "simply": 2180,
      "north": 2181,
      "announce": 2182,
      "##hold": 2183,
      "manufacturing": 2184,
      "hydro": 2185,
      "government": 2186,
      "beautiful": 2187,
      "ventil": 2188,
      "velocity": 2189,
      "bi": 2190,
      "hw": 2191,
      "ice": 2192,
      "rules": 2193,
      "site": 2194,
      "##dit": 2195,
      "##50": 2196,
      "##atures": 2197,
      "##arily": 2198,
      "isp": 2199,
      "often": 2200,
      "##ica": 2201,
      "enter": 2202,
      "enab": 2203,
      "shot": 2204,
      "##une": 2205,
      "orders": 2206,
      "dev": 2207,
      "##action": 2208,
      "canada": 2209,
      "arent": 2210,
      "activ": 2211,
      "seriously": 2212,
      "minim": 2213,
      "pump": 2214,
      "sometimes": 2215,
      "transport": 2216,
      "products": 2217,
      "satellite": 2218,
      "else": 2219,
      "impressive": 2220,
      "target": 2221,
      "bill": 2222,
      "est": 2223,
      "rend": 2224,
      "tiles": 2225,
      "##person": 2226,
      "##lic": 2227,
      "##haps": 2228,
      "##uth": 2229,
      "##utes": 2230,
      "step": 2231,
      "covid": 2232,
      "prom": 2233,
      "##tern": 2234,
      "demo": 2235,
      "une": 2236,
      "arg": 2237,
      "perhaps": 2238,
      "resp": 2239,
      "phot": 2240,
      "consum": 2241,
      "object": 2242,
      "job": 2243,
      "country": 2244,
      "simulation": 2245,
      "norway": 2246,
      "creating": 2247,
      "sched": 2248,
      "present": 2249,
      "closer": 2250,
      "demand": 2251,
      "universe": 2252,
      "huge": 2253,
      "attempt": 2254,
      "gigafactory": 2255,
      "diameter": 2256,
      "##personic": 2257,
      "cash": 2258,
      "dark": 2259,
      "er": 2260,
      "ft": 2261,
      "ign": 2262,
      "july": 2263,
      "py": 2264,
      "rat": 2265,
      "vir": 2266,
      "##down": 2267,
      "##tical": 2268,
      "##cent": 2269,
      "throt": 2270,
      "##roll": 2271,
      "code": 2272,
      "mob": 2273,
      "seats": 2274,
      "semi": 2275,
      "##umb": 2276,
      "height": 2277,
      "usually": 2278,
      "##istics": 2279,
      "across": 2280,
      "perf": 2281,
      "screen": 2282,
      "starting": 2283,
      "systems": 2284,
      "##ages": 2285,
      "grid": 2286,
      "missions": 2287,
      "appreciate": 2288,
      "bitcoin": 2289,
      "upgrades": 2290,
      "larger": 2291,
      "gravity": 2292,
      "nozzle": 2293,
      "normal": 2294,
      "industry": 2295,
      "30": 2296,
      "bs": 2297,
      "bank": 2298,
      "die": 2299,
      "jam": 2300,
      "lith": 2301,
      "mill": 2302,
      "ty": 2303,
      "##vin": 2304,
      "##view": 2305,
      "##ians": 2306,
      "##ned": 2307,
      "##gs": 2308,
      "##loop": 2309,
      "##jo": 2310,
      "##just": 2311,
      "reent": 2312,
      "weird": 2313,
      "heart": 2314,
      "heating": 2315,
      "imposs": 2316,
      "##oms": 2317,
      "prin": 2318,
      "arri": 2319,
      "lear": 2320,
      "realize": 2321,
      "minor": 2322,
      "aircraft": 2323,
      "book": 2324,
      "inside": 2325,
      "talent": 2326,
      "brain": 2327,
      "entry": 2328,
      "setting": 2329,
      "neuralink": 2330,
      "cryo": 2331,
      "cameras": 2332,
      "panels": 2333,
      "potential": 2334,
      "feedback": 2335,
      "predict": 2336,
      "birth": 2337,
      "hyperloop": 2338,
      "lithium": 2339,
      "cases": 2340,
      "ill": 2341,
      "lt": 2342,
      "sit": 2343,
      "send": 2344,
      "tight": 2345,
      "wild": 2346,
      "##uff": 2347,
      "##ube": 2348,
      "##ner": 2349,
      "##bers": 2350,
      "##man": 2351,
      "##mber": 2352,
      "##ax": 2353,
      "##averal": 2354,
      "tower": 2355,
      "##idth": 2356,
      "##ured": 2357,
      "necess": 2358,
      "training": 2359,
      "truth": 2360,
      "ens": 2361,
      "share": 2362,
      "charge": 2363,
      "abort": 2364,
      "##olution": 2365,
      "canaveral": 2366,
      "spacecraft": 2367,
      "lost": 2368,
      "adjust": 2369,
      "account": 2370,
      "extra": 2371,
      "capac": 2372,
      "owner": 2373,
      "sn1": 2374,
      "flying": 2375,
      "experience": 2376,
      "precise": 2377,
      "color": 2378,
      "successful": 2379,
      "program": 2380,
      "utility": 2381,
      "incredible": 2382,
      "spaceship": 2383,
      "south": 2384,
      "perfect": 2385,
      "age": 2386,
      "billion": 2387,
      "cand": 2388,
      "dut": 2389,
      "danger": 2390,
      "ga": 2391,
      "hes": 2392,
      "hund": 2393,
      "occ": 2394,
      "pat": 2395,
      "path": 2396,
      "wed": 2397,
      "wal": 2398,
      "##vir": 2399,
      "##egr": 2400,
      "##ror": 2401,
      "##bur": 2402,
      "##work": 2403,
      "##rel": 2404,
      "##alth": 2405,
      "##lect": 2406,
      "teslas": 2407,
      "##ury": 2408,
      "process": 2409,
      "envir": 2410,
      "##unately": 2411,
      "char": 2412,
      "##usion": 2413,
      "greater": 2414,
      "anywhere": 2415,
      "solve": 2416,
      "vertical": 2417,
      "contract": 2418,
      "expend": 2419,
      "immed": 2420,
      "serve": 2421,
      "supply": 2422,
      "veg": 2423,
      "seeing": 2424,
      "started": 2425,
      "problems": 2426,
      "versions": 2427,
      "depends": 2428,
      "reading": 2429,
      "key": 2430,
      "superchargers": 2431,
      "window": 2432,
      "competition": 2433,
      "afford": 2434,
      "crypt": 2435,
      "initial": 2436,
      "journal": 2437,
      "button": 2438,
      "music": 2439,
      "mechan": 2440,
      "##hopper": 2441,
      "altitude": 2442,
      "ratio": 2443,
      "reentry": 2444,
      "impossible": 2445,
      "hundred": 2446,
      "environ": 2447,
      "immedi": 2448,
      "hol": 2449,
      "o2": 2450,
      "pick": 2451,
      "push": 2452,
      "rd": 2453,
      "rid": 2454,
      "rain": 2455,
      "sad": 2456,
      "uk": 2457,
      "##ril": 2458,
      "##tion": 2459,
      "##sel": 2460,
      "##self": 2461,
      "thread": 2462,
      "towards": 2463,
      "inj": 2464,
      "##ional": 2465,
      "stra": 2466,
      "prov": 2467,
      "door": 2468,
      "separ": 2469,
      "##uls": 2470,
      "charg": 2471,
      "##ounter": 2472,
      "features": 2473,
      "anyway": 2474,
      "appe": 2475,
      "##ously": 2476,
      "earli": 2477,
      "integr": 2478,
      "##ived": 2479,
      "##ivity": 2480,
      "syn": 2481,
      "recover": 2482,
      "starts": 2483,
      "electricity": 2484,
      "##unning": 2485,
      "signal": 2486,
      "approx": 2487,
      "steering": 2488,
      "planet": 2489,
      "april": 2490,
      "direction": 2491,
      "numbers": 2492,
      "development": 2493,
      "##piration": 2494,
      "break": 2495,
      "source": 2496,
      "including": 2497,
      "flamethrower": 2498,
      "##selves": 2499,
      "aero": 2500,
      "aug": 2501,
      "cut": 2502,
      "f9": 2503,
      "hit": 2504,
      "oce": 2505,
      "odd": 2506,
      "rare": 2507,
      "sea": 2508,
      "ter": 2509,
      "##pl": 2510,
      "##ny": 2511,
      "##hor": 2512,
      "##ze": 2513,
      "thous": 2514,
      "told": 2515,
      "##rote": 2516,
      "##ised": 2517,
      "stack": 2518,
      "weld": 2519,
      "##idence": 2520,
      "tried": 2521,
      "tracking": 2522,
      "unfort": 2523,
      "##oline": 2524,
      "##osp": 2525,
      "output": 2526,
      "outside": 2527,
      "arr": 2528,
      "advert": 2529,
      "rocks": 2530,
      "desp": 2531,
      "accident": 2532,
      "points": 2533,
      "didn": 2534,
      "boost": 2535,
      "indiv": 2536,
      "offic": 2537,
      "##aged": 2538,
      "##olog": 2539,
      "commer": 2540,
      "common": 2541,
      "commun": 2542,
      "happening": 2543,
      "motors": 2544,
      "reusability": 2545,
      "playing": 2546,
      "include": 2547,
      "expected": 2548,
      "optimized": 2549,
      "american": 2550,
      "directly": 2551,
      "continu": 2552,
      "discuss": 2553,
      "camera": 2554,
      "tbh": 2555,
      "vari": 2556,
      "quarter": 2557,
      "named": 2558,
      "magnitude": 2559,
      "ventilators": 2560,
      "mobile": 2561,
      "unfortunately": 2562,
      "band": 2563,
      "cast": 2564,
      "doo": 2565,
      "etc": 2566,
      "four": 2567,
      "gim": 2568,
      "jack": 2569,
      "mist": 2570,
      "mater": 2571,
      "nd": 2572,
      "nu": 2573,
      "oil": 2574,
      "round": 2575,
      "son": 2576,
      "song": 2577,
      "wrote": 2578,
      "##ub": 2579,
      "##ka": 2580,
      "##wide": 2581,
      "##iness": 2582,
      "##aced": 2583,
      "stain": 2584,
      "##irt": 2585,
      "moment": 2586,
      "trend": 2587,
      "extern": 2588,
      "dock": 2589,
      "asked": 2590,
      "dead": 2591,
      "meg": 2592,
      "meme": 2593,
      "##ively": 2594,
      "apply": 2595,
      "##ground": 2596,
      "launching": 2597,
      "interview": 2598,
      "powered": 2599,
      "quality": 2600,
      "series": 2601,
      "doesn": 2602,
      "dram": 2603,
      "extend": 2604,
      "articles": 2605,
      "smaller": 2606,
      "hover": 2607,
      "terminal": 2608,
      "parking": 2609,
      "raise": 2610,
      "opening": 2611,
      "instead": 2612,
      "shows": 2613,
      "operational": 2614,
      "lights": 2615,
      "latency": 2616,
      "attack": 2617,
      "customers": 2618,
      "completely": 2619,
      "cells": 2620,
      "reduce": 2621,
      "propuls": 2622,
      "essentially": 2623,
      "laser": 2624,
      "susp": 2625,
      "atmosphere": 2626,
      "ideas": 2627,
      "bankrupt": 2628,
      "ensure": 2629,
      "capacity": 2630,
      "provide": 2631,
      "ocean": 2632,
      "despite": 2633,
      "material": 2634,
      "60": 2635,
      "fit": 2636,
      "gone": 2637,
      "har": 2638,
      "mt": 2639,
      "morn": 2640,
      "national": 2641,
      "rout": 2642,
      "rather": 2643,
      "tip": 2644,
      "ways": 2645,
      "##ding": 2646,
      "##ne": 2647,
      "##base": 2648,
      "##cast": 2649,
      "##19": 2650,
      "##orrect": 2651,
      "##arant": 2652,
      "##angh": 2653,
      "inform": 2654,
      "##asons": 2655,
      "reasons": 2656,
      "weight": 2657,
      "##ading": 2658,
      "shangh": 2659,
      "meas": 2660,
      "carry": 2661,
      "highest": 2662,
      "comments": 2663,
      "fam": 2664,
      "arch": 2665,
      "plant": 2666,
      "pod": 2667,
      "##ibility": 2668,
      "sooner": 2669,
      "loop": 2670,
      "particul": 2671,
      "clar": 2672,
      "worldwide": 2673,
      "snow": 2674,
      "delta": 2675,
      "helpful": 2676,
      "strength": 2677,
      "ships": 2678,
      "writ": 2679,
      "guarant": 2680,
      "gasoline": 2681,
      "personally": 2682,
      "summer": 2683,
      "changing": 2684,
      "critic": 2685,
      "header": 2686,
      "deaths": 2687,
      "storage": 2688,
      "paint": 2689,
      "logistics": 2690,
      "v10": 2691,
      "damn": 2692,
      "filter": 2693,
      "friend": 2694,
      "thinking": 2695,
      "population": 2696,
      "expendable": 2697,
      "vegas": 2698,
      "individual": 2699,
      "commercial": 2700,
      "gimbal": 2701,
      "suspension": 2702,
      "morning": 2703,
      "shanghai": 2704,
      "bla": 2705,
      "corn": 2706,
      "dumb": 2707,
      "ey": 2708,
      "fan": 2709,
      "gon": 2710,
      "hate": 2711,
      "kill": 2712,
      "loss": 2713,
      "ms": 2714,
      "marg": 2715,
      "nn": 2716,
      "nick": 2717,
      "running": 2718,
      "##po": 2719,
      "##no": 2720,
      "##ger": 2721,
      "##ode": 2722,
      "##hn": 2723,
      "##fit": 2724,
      "##core": 2725,
      "##ony": 2726,
      "##ones": 2727,
      "##enge": 2728,
      "##rees": 2729,
      "remo": 2730,
      "stay": 2731,
      "co2": 2732,
      "##ides": 2733,
      "whether": 2734,
      "##ires": 2735,
      "youd": 2736,
      "truly": 2737,
      "speak": 2738,
      "worse": 2739,
      "words": 2740,
      "##orts": 2741,
      "##ape": 2742,
      "##osite": 2743,
      "outcome": 2744,
      "hardest": 2745,
      "flu": 2746,
      "improves": 2747,
      "expla": 2748,
      "serious": 2749,
      "couldnt": 2750,
      "regard": 2751,
      "##ission": 2752,
      "##orne": 2753,
      "##ences": 2754,
      "helping": 2755,
      "join": 2756,
      "write": 2757,
      "##ellig": 2758,
      "secur": 2759,
      "braking": 2760,
      "visit": 2761,
      "switch": 2762,
      "regulators": 2763,
      "network": 2764,
      "distance": 2765,
      "destination": 2766,
      "received": 2767,
      "subsid": 2768,
      "astronaut": 2769,
      "hw2": 2770,
      "hundreds": 2771,
      "earlier": 2772,
      "stainless": 2773,
      "500": 2774,
      "aud": 2775,
      "ball": 2776,
      "c19": 2777,
      "easter": 2778,
      "fool": 2779,
      "jud": 2780,
      "mine": 2781,
      "ped": 2782,
      "park": 2783,
      "rot": 2784,
      "ride": 2785,
      "tor": 2786,
      "vote": 2787,
      "##ee": 2788,
      "##uation": 2789,
      "##ok": 2790,
      "##ole": 2791,
      "##mak": 2792,
      "##city": 2793,
      "reli": 2794,
      "##etic": 2795,
      "social": 2796,
      "web": 2797,
      "##urance": 2798,
      "##ceed": 2799,
      "along": 2800,
      "chip": 2801,
      "##outs": 2802,
      "health": 2803,
      "##ified": 2804,
      "hardcore": 2805,
      "intense": 2806,
      "improving": 2807,
      "resour": 2808,
      "##ruction": 2809,
      "happens": 2810,
      "capital": 2811,
      "finan": 2812,
      "cooling": 2813,
      "shorts": 2814,
      "friday": 2815,
      "approach": 2816,
      "taxes": 2817,
      "delivered": 2818,
      "sunday": 2819,
      "investors": 2820,
      "created": 2821,
      "relative": 2822,
      "replace": 2823,
      "angle": 2824,
      "existing": 2825,
      "autonomous": 2826,
      "provided": 2827,
      "prototype": 2828,
      "structure": 2829,
      "throttle": 2830,
      "immediately": 2831,
      "appears": 2832,
      "gonna": 2833,
      "security": 2834,
      "50": 2835,
      "fate": 2836,
      "green": 2837,
      "hosp": 2838,
      "kid": 2839,
      "lic": 2840,
      "nas": 2841,
      "page": 2842,
      "tap": 2843,
      "um": 2844,
      "##res": 2845,
      "##ris": 2846,
      "##ging": 2847,
      "##gether": 2848,
      "##los": 2849,
      "tho": 2850,
      "##arch": 2851,
      "together": 2852,
      "##itect": 2853,
      "forg": 2854,
      "##irc": 2855,
      "##ther": 2856,
      "enh": 2857,
      "examp": 2858,
      "##abil": 2859,
      "section": 2860,
      "sept": 2861,
      "mag": 2862,
      "maint": 2863,
      "choice": 2864,
      "chica": 2865,
      "ability": 2866,
      "##imately": 2867,
      "union": 2868,
      "memes": 2869,
      "##ushing": 2870,
      "highway": 2871,
      "uses": 2872,
      "faa": 2873,
      "##cient": 2874,
      "driver": 2875,
      "starships": 2876,
      "hopper": 2877,
      "teams": 2878,
      "expans": 2879,
      "known": 2880,
      "underway": 2881,
      "capability": 2882,
      "themselves": 2883,
      "delay": 2884,
      "cyc": 2885,
      "surv": 2886,
      "talking": 2887,
      "winds": 2888,
      "##ught": 2889,
      "feeling": 2890,
      "customer": 2891,
      "upgraded": 2892,
      "scient": 2893,
      "continue": 2894,
      "initially": 2895,
      "ahead": 2896,
      "challeng": 2897,
      "meeting": 2898,
      "figure": 2899,
      "aliens": 2900,
      "links": 2901,
      "unlikely": 2902,
      "surprising": 2903,
      "announcement": 2904,
      "render": 2905,
      "architect": 2906,
      "##elligence": 2907,
      "resources": 2908,
      "hospital": 2909,
      "nasa": 2910,
      "ce": 2911,
      "gear": 2912,
      "los": 2913,
      "mart": 2914,
      "tit": 2915,
      "tree": 2916,
      "tube": 2917,
      "uh": 2918,
      "##vac": 2919,
      "##vation": 2920,
      "##ipping": 2921,
      "##ball": 2922,
      "##mont": 2923,
      "##yn": 2924,
      "##wd": 2925,
      "##att": 2926,
      "##oup": 2927,
      "##itors": 2928,
      "##otive": 2929,
      "sold": 2930,
      "stations": 2931,
      "stream": 2932,
      "ancient": 2933,
      "haw": 2934,
      "trad": 2935,
      "##ope": 2936,
      "alone": 2937,
      "##estri": 2938,
      "seat": 2939,
      "##antage": 2940,
      "wouldnt": 2941,
      "user": 2942,
      "saw": 2943,
      "lock": 2944,
      "##cious": 2945,
      "author": 2946,
      "buying": 2947,
      "tele": 2948,
      "accept": 2949,
      "taken": 2950,
      "incorrect": 2951,
      "accord": 2952,
      "expand": 2953,
      "solarcity": 2954,
      "starbase": 2955,
      "wanted": 2956,
      "options": 2957,
      "transfer": 2958,
      "guy": 2959,
      "metric": 2960,
      "##ification": 2961,
      "controll": 2962,
      "fixing": 2963,
      "turned": 2964,
      "easily": 2965,
      "allows": 2966,
      "automotive": 2967,
      "putting": 2968,
      "waiting": 2969,
      "meaning": 2970,
      "acceleration": 2971,
      "significantly": 2972,
      "infl": 2973,
      "precision": 2974,
      "fremont": 2975,
      "messed": 2976,
      "begin": 2977,
      "turbop": 2978,
      "behind": 2979,
      "layer": 2980,
      "schedule": 2981,
      "candy": 2982,
      "august": 2983,
      "astronauts": 2984,
      "expansion": 2985,
      "12": 2986,
      "cross": 2987,
      "dying": 2988,
      "egg": 2989,
      "fed": 2990,
      "freed": 2991,
      "link": 2992,
      "luck": 2993,
      "mr": 2994,
      "pet": 2995,
      "port": 2996,
      "squ": 2997,
      "swe": 2998,
      "v9": 2999,
      "v2": 3000,
      "wise": 3001,
      "##rs": 3002,
      "##ration": 3003,
      "##iet": 3004,
      "##por": 3005,
      "##not": 3006,
      "##oy": 3007,
      "##of": 3008,
      "##fra": 3009,
      "##cs": 3010,
      "##500": 3011,
      "##ery": 3012,
      "##eral": 3013,
      "thurs": 3014,
      "##inder": 3015,
      "tow": 3016,
      "isn": 3017,
      "storm": 3018,
      "coast": 3019,
      "wear": 3020,
      "##urd": 3021,
      "project": 3022,
      "suck": 3023,
      "##ired": 3024,
      "excess": 3025,
      "areas": 3026,
      "spent": 3027,
      "convin": 3028,
      "chain": 3029,
      "##ards": 3030,
      "compared": 3031,
      "cargo": 3032,
      "carmak": 3033,
      "upload": 3034,
      "users": 3035,
      "##omes": 3036,
      "outer": 3037,
      "##izes": 3038,
      "overall": 3039,
      "fires": 3040,
      "prevent": 3041,
      "deser": 3042,
      "interior": 3043,
      "sympt": 3044,
      "knows": 3045,
      "regions": 3046,
      "insurance": 3047,
      "came": 3048,
      "india": 3049,
      "frank": 3050,
      "supporting": 3051,
      "publish": 3052,
      "evs": 3053,
      "valid": 3054,
      "levels": 3055,
      "secret": 3056,
      "updates": 3057,
      "apo": 3058,
      "allowed": 3059,
      "passed": 3060,
      "excited": 3061,
      "temper": 3062,
      "swap": 3063,
      "thoughtful": 3064,
      "foundation": 3065,
      "constra": 3066,
      "considered": 3067,
      "accelerating": 3068,
      "colle": 3069,
      "ultra": 3070,
      "essential": 3071,
      "ahem": 3072,
      "concern": 3073,
      "frame": 3074,
      "confirm": 3075,
      "austin": 3076,
      "silic": 3077,
      "anti": 3078,
      "hydrogen": 3079,
      "sharehold": 3080,
      "gave": 3081,
      "crypto": 3082,
      "integrated": 3083,
      "bandw": 3084,
      "guaranteed": 3085,
      "nickel": 3086,
      "turbopump": 3087,
      "aka": 3088,
      "bus": 3089,
      "cla": 3090,
      "counter": 3091,
      "diver": 3092,
      "died": 3093,
      "eg": 3094,
      "emo": 3095,
      "fight": 3096,
      "gm": 3097,
      "lm": 3098,
      "nat": 3099,
      "nets": 3100,
      "qa": 3101,
      "race": 3102,
      "rise": 3103,
      "says": 3104,
      "tues": 3105,
      "troll": 3106,
      "wall": 3107,
      "##vill": 3108,
      "##sc": 3109,
      "##ser": 3110,
      "##set": 3111,
      "##pu": 3112,
      "##pes": 3113,
      "##pha": 3114,
      "##by": 3115,
      "##af": 3116,
      "##he": 3117,
      "##cip": 3118,
      "##cone": 3119,
      "##coming": 3120,
      "##km": 3121,
      "third": 3122,
      "##inum": 3123,
      "##arly": 3124,
      "##ste": 3125,
      "##ishing": 3126,
      "##illy": 3127,
      "store": 3128,
      "##ighter": 3129,
      "##thorne": 3130,
      "havent": 3131,
      "trou": 3132,
      "enc": 3133,
      "shut": 3134,
      "dog": 3135,
      "dojo": 3136,
      "spend": 3137,
      "alum": 3138,
      "alpha": 3139,
      "sequ": 3140,
      "worst": 3141,
      "alloc": 3142,
      "role": 3143,
      "unc": 3144,
      "units": 3145,
      "##anden": 3146,
      "yester": 3147,
      "cannot": 3148,
      "fear": 3149,
      "fake": 3150,
      "loan": 3151,
      "loved": 3152,
      "amb": 3153,
      "bug": 3154,
      "solving": 3155,
      "firing": 3156,
      "##ensive": 3157,
      "imm": 3158,
      "tested": 3159,
      "capable": 3160,
      "conscious": 3161,
      "completed": 3162,
      "shortly": 3163,
      "advantage": 3164,
      "increases": 3165,
      "##itional": 3166,
      "rail": 3167,
      "avg": 3168,
      "changed": 3169,
      "questions": 3170,
      "attach": 3171,
      "dogecoin": 3172,
      "school": 3173,
      "selling": 3174,
      "drops": 3175,
      "emb": 3176,
      "wheels": 3177,
      "complexity": 3178,
      "recommended": 3179,
      "polit": 3180,
      "polic": 3181,
      "primarily": 3182,
      "##crip": 3183,
      "wonder": 3184,
      "bott": 3185,
      "laws": 3186,
      "march": 3187,
      "functionality": 3188,
      "opposite": 3189,
      "autonomy": 3190,
      "challenge": 3191,
      "austral": 3192,
      "misle": 3193,
      "smooth": 3194,
      "navigate": 3195,
      "horiz": 3196,
      "entert": 3197,
      "variant": 3198,
      "dramatically": 3199,
      "written": 3200,
      "corner": 3201,
      "example": 3202,
      "hawthorne": 3203,
      "according": 3204,
      "##frame": 3205,
      "symptoms": 3206,
      "silicon": 3207,
      "actions": 3208,
      "den": 3209,
      "dry": 3210,
      "ftw": 3211,
      "field": 3212,
      "gary": 3213,
      "germ": 3214,
      "hi": 3215,
      "h2": 3216,
      "hur": 3217,
      "ion": 3218,
      "mic": 3219,
      "none": 3220,
      "oct": 3221,
      "pen": 3222,
      "pict": 3223,
      "tires": 3224,
      "##ev": 3225,
      "##gor": 3226,
      "##og": 3227,
      "##arr": 3228,
      "theory": 3229,
      "##uts": 3230,
      "beha": 3231,
      "reuse": 3232,
      "stre": 3233,
      "##uration": 3234,
      "##verse": 3235,
      "##thon": 3236,
      "trust": 3237,
      "shif": 3238,
      "doll": 3239,
      "asse": 3240,
      "condit": 3241,
      "##umul": 3242,
      "god": 3243,
      "##ainment": 3244,
      "moder": 3245,
      "##endent": 3246,
      "appear": 3247,
      "buff": 3248,
      "lee": 3249,
      "firm": 3250,
      "##ints": 3251,
      "monop": 3252,
      "monday": 3253,
      "intelligence": 3254,
      "expon": 3255,
      "imag": 3256,
      "fewer": 3257,
      "minute": 3258,
      "minutes": 3259,
      "suppli": 3260,
      "airframe": 3261,
      "scal": 3262,
      "added": 3263,
      "camp": 3264,
      "becoming": 3265,
      "joke": 3266,
      "writing": 3267,
      "guys": 3268,
      "centers": 3269,
      "basic": 3270,
      "services": 3271,
      "absurd": 3272,
      "refund": 3273,
      "planning": 3274,
      "priv": 3275,
      "simpl": 3276,
      "##cover": 3277,
      "summary": 3278,
      "location": 3279,
      "vacc": 3280,
      "competitive": 3281,
      "##pected": 3282,
      "package": 3283,
      "##graph": 3284,
      "constant": 3285,
      "closed": 3286,
      "totally": 3287,
      "approvals": 3288,
      "tweets": 3289,
      "destro": 3290,
      "journey": 3291,
      "efficient": 3292,
      "filters": 3293,
      "largest": 3294,
      "incredibly": 3295,
      "suggestions": 3296,
      "installed": 3297,
      "robots": 3298,
      "robotax": 3299,
      "frequ": 3300,
      "epic": 3301,
      "confirmed": 3302,
      "geo": 3303,
      "nosecone": 3304,
      "consumer": 3305,
      "python": 3306,
      "princip": 3307,
      "external": 3308,
      "pedestri": 3309,
      "torque": 3310,
      "enhanced": 3311,
      "architecture": 3312,
      "freedom": 3313,
      "bandwidth": 3314,
      "aluminum": 3315,
      "conditions": 3316,
      "aster": 3317,
      "dies": 3318,
      "eth": 3319,
      "fur": 3320,
      "fict": 3321,
      "gives": 3322,
      "hal": 3323,
      "length": 3324,
      "pc": 3325,
      "pitch": 3326,
      "row": 3327,
      "rand": 3328,
      "rating": 3329,
      "rene": 3330,
      "tall": 3331,
      "wd": 3332,
      "##vant": 3333,
      "##ew": 3334,
      "##pm": 3335,
      "##pa": 3336,
      "##gi": 3337,
      "##gle": 3338,
      "##bt": 3339,
      "##ob": 3340,
      "##onse": 3341,
      "##orter": 3342,
      "##orters": 3343,
      "tool": 3344,
      "inference": 3345,
      "##aly": 3346,
      "beat": 3347,
      "forever": 3348,
      "iter": 3349,
      "supersonic": 3350,
      "mom": 3351,
      "shop": 3352,
      "dome": 3353,
      "spl": 3354,
      "dele": 3355,
      "##antic": 3356,
      "##rie": 3357,
      "##rist": 3358,
      "##uming": 3359,
      "##ument": 3360,
      "compress": 3361,
      "##iff": 3362,
      "usa": 3363,
      "fault": 3364,
      "apple": 3365,
      "##iber": 3366,
      "desc": 3367,
      "twice": 3368,
      "powerful": 3369,
      "quick": 3370,
      "explan": 3371,
      "board": 3372,
      "books": 3373,
      "starhopper": 3374,
      "helps": 3375,
      "effort": 3376,
      "approved": 3377,
      "##lied": 3378,
      "parach": 3379,
      "legal": 3380,
      "refill": 3381,
      "reflight": 3382,
      "interested": 3383,
      "allowing": 3384,
      "foot": 3385,
      "remain": 3386,
      "position": 3387,
      "letter": 3388,
      "combined": 3389,
      "graph": 3390,
      "former": 3391,
      "construction": 3392,
      "accelerate": 3393,
      "reports": 3394,
      "debt": 3395,
      "friends": 3396,
      "##mbly": 3397,
      "maximum": 3398,
      "tricky": 3399,
      "russian": 3400,
      "incentives": 3401,
      "argu": 3402,
      "response": 3403,
      "error": 3404,
      "birthday": 3405,
      "necessary": 3406,
      "thousands": 3407,
      "official": 3408,
      "information": 3409,
      "magic": 3410,
      "challenges": 3411,
      "##ville": 3412,
      "yesterday": 3413,
      "consciousness": 3414,
      "##cription": 3415,
      "misleading": 3416,
      "renew": 3417,
      "200": 3418,
      "aim": 3419,
      "bf": 3420,
      "fat": 3421,
      "foss": 3422,
      "gre": 3423,
      "goo": 3424,
      "ie": 3425,
      "jap": 3426,
      "lets": 3427,
      "mel": 3428,
      "mir": 3429,
      "mil": 3430,
      "mont": 3431,
      "math": 3432,
      "match": 3433,
      "pap": 3434,
      "pics": 3435,
      "v3": 3436,
      "vib": 3437,
      "wer": 3438,
      "zip": 3439,
      "##dle": 3440,
      "##eing": 3441,
      "##ring": 3442,
      "##tra": 3443,
      "##umpt": 3444,
      "##night": 3445,
      "##oying": 3446,
      "##mas": 3447,
      "##xic": 3448,
      "##ining": 3449,
      "##orid": 3450,
      "##itable": 3451,
      "inert": 3452,
      "refer": 3453,
      "##ots": 3454,
      "ford": 3455,
      "ones": 3456,
      "states": 3457,
      "stuff": 3458,
      "cop": 3459,
      "coin": 3460,
      "cook": 3461,
      "anten": 3462,
      "webs": 3463,
      "whate": 3464,
      "##alley": 3465,
      "##ades": 3466,
      "##uries": 3467,
      "suv": 3468,
      "youll": 3469,
      "sections": 3470,
      "conver": 3471,
      "convers": 3472,
      "chan": 3473,
      "unre": 3474,
      "greatly": 3475,
      "comment": 3476,
      "moreover": 3477,
      "lose": 3478,
      "myself": 3479,
      "##amm": 3480,
      "places": 3481,
      "florid": 3482,
      "solved": 3483,
      "landed": 3484,
      "resist": 3485,
      "crush": 3486,
      "##wns": 3487,
      "awd": 3488,
      "startup": 3489,
      "thruster": 3490,
      "curve": 3491,
      "transit": 3492,
      "transition": 3493,
      "metho": 3494,
      "videos": 3495,
      "depending": 3496,
      "retro": 3497,
      "hyp": 3498,
      "hypersonic": 3499,
      "easier": 3500,
      "rollout": 3501,
      "operation": 3502,
      "apart": 3503,
      "clearly": 3504,
      "warm": 3505,
      "computers": 3506,
      "headed": 3507,
      "locations": 3508,
      "reaching": 3509,
      "holding": 3510,
      "coverage": 3511,
      "collect": 3512,
      "effective": 3513,
      "failure": 3514,
      "stores": 3515,
      "sensible": 3516,
      "demon": 3517,
      "blackouts": 3518,
      "employ": 3519,
      "assuming": 3520,
      "irl": 3521,
      "achieving": 3522,
      "prototypes": 3523,
      "deployed": 3524,
      "behalf": 3525,
      "mounted": 3526,
      "purch": 3527,
      "activate": 3528,
      "presentation": 3529,
      "virus": 3530,
      "millions": 3531,
      "duty": 3532,
      "affordable": 3533,
      "holiday": 3534,
      "advertising": 3535,
      "family": 3536,
      "margin": 3537,
      "subsidies": 3538,
      "license": 3539,
      "temperature": 3540,
      "college": 3541,
      "emoj": 3542,
      "lmk": 3543,
      "trouble": 3544,
      "australia": 3545,
      "destroy": 3546,
      "further": 3547,
      "fossil": 3548,
      "japan": 3549,
      "florida": 3550,
      "000": 3551,
      "aver": 3552,
      "bric": 3553,
      "cath": 3554,
      "cute": 3555,
      "dan": 3556,
      "ded": 3557,
      "face": 3558,
      "fusion": 3559,
      "gl": 3560,
      "hous": 3561,
      "hang": 3562,
      "junk": 3563,
      "june": 3564,
      "ker": 3565,
      "lol": 3566,
      "lines": 3567,
      "lane": 3568,
      "lond": 3569,
      "mad": 3570,
      "mun": 3571,
      "nature": 3572,
      "ps": 3573,
      "pushing": 3574,
      "rud": 3575,
      "racing": 3576,
      "san": 3577,
      "sen": 3578,
      "silly": 3579,
      "ten": 3580,
      "timing": 3581,
      "vot": 3582,
      "wif": 3583,
      "wik": 3584,
      "##vable": 3585,
      "##round": 3586,
      "##rors": 3587,
      "##ios": 3588,
      "##pon": 3589,
      "##nes": 3590,
      "##gan": 3591,
      "##ah": 3592,
      "##app": 3593,
      "##for": 3594,
      "thus": 3595,
      "##ances": 3596,
      "##iter": 3597,
      "input": 3598,
      "##icing": 3599,
      "##icated": 3600,
      "reme": 3601,
      "react": 3602,
      "stri": 3603,
      "weak": 3604,
      "##eles": 3605,
      "##eling": 3606,
      "##che": 3607,
      "##ado": 3608,
      "prote": 3609,
      "sha": 3610,
      "shirt": 3611,
      "exe": 3612,
      "spir": 3613,
      "ascent": 3614,
      "map": 3615,
      "##uled": 3616,
      "##ram": 3617,
      "nov": 3618,
      "unit": 3619,
      "mem": 3620,
      "hex": 3621,
      "probable": 3622,
      "usage": 3623,
      "fees": 3624,
      "##ams": 3625,
      "plate": 3626,
      "plans": 3627,
      "plane": 3628,
      "produced": 3629,
      "earn": 3630,
      "solarg": 3631,
      "driven": 3632,
      "drives": 3633,
      "drivers": 3634,
      "##bert": 3635,
      "##ival": 3636,
      "##ultane": 3637,
      "landings": 3638,
      "resear": 3639,
      "image": 3640,
      "funny": 3641,
      "box": 3642,
      "background": 3643,
      "elev": 3644,
      "recent": 3645,
      "phil": 3646,
      "happiness": 3647,
      "score": 3648,
      "worlds": 3649,
      "##ocr": 3650,
      "facto": 3651,
      "consid": 3652,
      "sn2": 3653,
      "inspir": 3654,
      "caught": 3655,
      "jobs": 3656,
      "advance": 3657,
      "subject": 3658,
      "leak": 3659,
      "evol": 3660,
      "evidence": 3661,
      "confident": 3662,
      "county": 3663,
      "surround": 3664,
      "reddit": 3665,
      "bright": 3666,
      "secs": 3667,
      "simultane": 3668,
      "reflect": 3669,
      "skill": 3670,
      "stopp": 3671,
      "merch": 3672,
      "excl": 3673,
      "annual": 3674,
      "drop": 3675,
      "president": 3676,
      "releases": 3677,
      "propag": 3678,
      "insanely": 3679,
      "affects": 3680,
      "lasers": 3681,
      "hearing": 3682,
      "opport": 3683,
      "eventually": 3684,
      "drone": 3685,
      "##clear": 3686,
      "leader": 3687,
      "exceeds": 3688,
      "floor": 3689,
      "honored": 3690,
      "esth": 3691,
      "settings": 3692,
      "situation": 3693,
      "walk": 3694,
      "charac": 3695,
      "ukra": 3696,
      "injuries": 3697,
      "mistake": 3698,
      "propulsion": 3699,
      "clarify": 3700,
      "criticism": 3701,
      "regarding": 3702,
      "webcast": 3703,
      "ceo": 3704,
      "thursday": 3705,
      "carmakers": 3706,
      "allocation": 3707,
      "embarr": 3708,
      "policy": 3709,
      "bottom": 3710,
      "micro": 3711,
      "picture": 3712,
      "firmware": 3713,
      "explanation": 3714,
      "arguably": 3715,
      "bfr": 3716,
      "google": 3717,
      "website": 3718,
      "london": 3719,
      "remember": 3720,
      "solarglass": 3721,
      "research": 3722,
      "embarrass": 3723,
      "ban": 3724,
      "bal": 3725,
      "cu": 3726,
      "cult": 3727,
      "circ": 3728,
      "facing": 3729,
      "fiber": 3730,
      "jump": 3731,
      "lud": 3732,
      "mc": 3733,
      "pac": 3734,
      "pcr": 3735,
      "tm": 3736,
      "treat": 3737,
      "tile": 3738,
      "vect": 3739,
      "voice": 3740,
      "valley": 3741,
      "##v2": 3742,
      "##ees": 3743,
      "##ren": 3744,
      "##rate": 3745,
      "##rous": 3746,
      "##rated": 3747,
      "##ique": 3748,
      "##ux": 3749,
      "##ula": 3750,
      "##lish": 3751,
      "##off": 3752,
      "##yc": 3753,
      "##ford": 3754,
      "##faces": 3755,
      "##ki": 3756,
      "##kn": 3757,
      "##xpected": 3758,
      "##5k": 3759,
      "##llo": 3760,
      "##itor": 3761,
      "incon": 3762,
      "##rop": 3763,
      "##utions": 3764,
      "##igation": 3765,
      "sty": 3766,
      "cov2": 3767,
      "proof": 3768,
      "##key": 3769,
      "trillion": 3770,
      "shipping": 3771,
      "exit": 3772,
      "spin": 3773,
      "aspiration": 3774,
      "seal": 3775,
      "cond": 3776,
      "christ": 3777,
      "##iment": 3778,
      "##anda": 3779,
      "compute": 3780,
      "gold": 3781,
      "upcoming": 3782,
      "commit": 3783,
      "comfort": 3784,
      "canc": 3785,
      "usable": 3786,
      "save": 3787,
      "##omb": 3788,
      "print": 3789,
      "arms": 3790,
      "##lock": 3791,
      "somewhere": 3792,
      "applied": 3793,
      "flat": 3794,
      "##gring": 3795,
      "engineer": 3796,
      "solid": 3797,
      "##berg": 3798,
      "contrib": 3799,
      "quiet": 3800,
      "boys": 3801,
      "boeing": 3802,
      "defense": 3803,
      "supporters": 3804,
      "finally": 3805,
      "repres": 3806,
      "indep": 3807,
      "grad": 3808,
      "transaction": 3809,
      "john": 3810,
      "subtle": 3811,
      "technical": 3812,
      "generate": 3813,
      "valve": 3814,
      "whereas": 3815,
      "invas": 3816,
      "invent": 3817,
      "corpor": 3818,
      "absor": 3819,
      "appreciation": 3820,
      "majority": 3821,
      "deliveries": 3822,
      "warning": 3823,
      "competitors": 3824,
      "browns": 3825,
      "annoying": 3826,
      "developing": 3827,
      "checking": 3828,
      "multiple": 3829,
      "radio": 3830,
      "dropped": 3831,
      "protect": 3832,
      "midnight": 3833,
      "credibility": 3834,
      "amounts": 3835,
      "##body": 3836,
      "releasing": 3837,
      "replaced": 3838,
      "species": 3839,
      "focused": 3840,
      "receive": 3841,
      "student": 3842,
      "ramping": 3843,
      "listen": 3844,
      "increasingly": 3845,
      "purp": 3846,
      "alien": 3847,
      "finished": 3848,
      "enabled": 3849,
      "minimize": 3850,
      "promising": 3851,
      "unexpected": 3852,
      "type": 3853,
      "talented": 3854,
      "dangerous": 3855,
      "patient": 3856,
      "##burgring": 3857,
      "journalists": 3858,
      "environment": 3859,
      "separate": 3860,
      "array": 3861,
      "communic": 3862,
      "particularly": 3863,
      "relatively": 3864,
      "maintain": 3865,
      "authorities": 3866,
      "federal": 3867,
      "apollo": 3868,
      "horizont": 3869,
      "leeward": 3870,
      "suppliers": 3871,
      "private": 3872,
      "##rief": 3873,
      "zip2": 3874,
      "whatever": 3875,
      "demonst": 3876,
      "average": 3877,
      "dedicated": 3878,
      "propaganda": 3879,
      "opportun": 3880,
      "ukraine": 3881,
      "brownsville": 3882,
      "aware": 3883,
      "bes": 3884,
      "bat": 3885,
      "bur": 3886,
      "bust": 3887,
      "biz": 3888,
      "dc": 3889,
      "din": 3890,
      "east": 3891,
      "fi": 3892,
      "gar": 3893,
      "gpu": 3894,
      "je": 3895,
      "kar": 3896,
      "moth": 3897,
      "mix": 3898,
      "nr": 3899,
      "od": 3900,
      "patter": 3901,
      "q4": 3902,
      "rh": 3903,
      "sf": 3904,
      "sort": 3905,
      "sending": 3906,
      "ww": 3907,
      "york": 3908,
      "##rw": 3909,
      "##rac": 3910,
      "##top": 3911,
      "##iot": 3912,
      "##son": 3913,
      "##pay": 3914,
      "##punk": 3915,
      "##mission": 3916,
      "##aks": 3917,
      "##head": 3918,
      "##fl": 3919,
      "##can": 3920,
      "##word": 3921,
      "##80": 3922,
      "therm": 3923,
      "##inks": 3924,
      "##orbit": 3925,
      "##ancy": 3926,
      "##edge": 3927,
      "##itud": 3928,
      "##stood": 3929,
      "indu": 3930,
      "inev": 3931,
      "##icrous": 3932,
      "reven": 3933,
      "repe": 3934,
      "steam": 3935,
      "stabil": 3936,
      "##irl": 3937,
      "triv": 3938,
      "shown": 3939,
      "spo": 3940,
      "mak": 3941,
      "master": 3942,
      "conven": 3943,
      "convert": 3944,
      "concept": 3945,
      "##ular": 3946,
      "chart": 3947,
      "child": 3948,
      "##raul": 3949,
      "##ipe": 3950,
      "noise": 3951,
      "##rif": 3952,
      "wasnt": 3953,
      "##apse": 3954,
      "hepa": 3955,
      "greatest": 3956,
      "spacef": 3957,
      "##ief": 3958,
      "##endar": 3959,
      "poll": 3960,
      "flies": 3961,
      "prem": 3962,
      "prefer": 3963,
      "interp": 3964,
      "partially": 3965,
      "whoa": 3966,
      "reser": 3967,
      "expensive": 3968,
      "backup": 3969,
      "pupp": 3970,
      "phones": 3971,
      "underapp": 3972,
      "capt": 3973,
      "wants": 3974,
      "consist": 3975,
      "consumpt": 3976,
      "sn4": 3977,
      "sn5": 3978,
      "download": 3979,
      "artific": 3980,
      "discover": 3981,
      "esc": 3982,
      "cycle": 3983,
      "advent": 3984,
      "opin": 3985,
      "guide": 3986,
      "generator": 3987,
      "depart": 3988,
      "##reciated": 3989,
      "giving": 3990,
      "calendar": 3991,
      "manage": 3992,
      "revolution": 3993,
      "cyberpunk": 3994,
      "passeng": 3995,
      "windward": 3996,
      "warming": 3997,
      "posted": 3998,
      "reminder": 3999,
      "sustaining": 4000,
      "tempor": 4001,
      "roofs": 4002,
      "letting": 4003,
      "investigate": 4004,
      "optimistic": 4005,
      "broad": 4006,
      "expert": 4007,
      "developed": 4008,
      "careful": 4009,
      "doubt": 4010,
      "middle": 4011,
      "released": 4012,
      "sensors": 4013,
      "ultimately": 4014,
      "damage": 4015,
      "specific": 4016,
      "empty": 4017,
      "followed": 4018,
      "entirely": 4019,
      "hydraul": 4020,
      "study": 4021,
      "understanding": 4022,
      "shielding": 4023,
      "addressed": 4024,
      "falling": 4025,
      "atmospheric": 4026,
      "russia": 4027,
      "degrees": 4028,
      "consumers": 4029,
      "##burg": 4030,
      "straight": 4031,
      "route": 4032,
      "measure": 4033,
      "reliability": 4034,
      "replacement": 4035,
      "forgot": 4036,
      "claim": 4037,
      "hurt": 4038,
      "assembly": 4039,
      "moderate": 4040,
      "constantly": 4041,
      "diesel": 4042,
      "random": 4043,
      "antenna": 4044,
      "cathode": 4045,
      "wifi": 4046,
      "memory": 4047,
      "considering": 4048,
      "embarrassing": 4049,
      "ludicrous": 4050,
      "tmrw": 4051,
      "battle": 4052,
      "nrburgring": 4053,
      "pattern": 4054,
      "underappreciated": 4055,
      "consumption": 4056,
      "15": 4057,
      "300": 4058,
      "bene": 4059,
      "cab": 4060,
      "cities": 4061,
      "div": 4062,
      "eat": 4063,
      "gro": 4064,
      "gun": 4065,
      "horn": 4066,
      "hvac": 4067,
      "iv": 4068,
      "ic": 4069,
      "jan": 4070,
      "kw": 4071,
      "kwh": 4072,
      "led": 4073,
      "lighter": 4074,
      "mane": 4075,
      "pending": 4076,
      "que": 4077,
      "rip": 4078,
      "six": 4079,
      "sats": 4080,
      "tv": 4081,
      "tun": 4082,
      "table": 4083,
      "vi": 4084,
      "van": 4085,
      "vary": 4086,
      "wing": 4087,
      "wings": 4088,
      "wider": 4089,
      "width": 4090,
      "zone": 4091,
      "##vention": 4092,
      "##time": 4093,
      "##uit": 4094,
      "##ges": 4095,
      "##inary": 4096,
      "##eshold": 4097,
      "theor": 4098,
      "inno": 4099,
      "rew": 4100,
      "stick": 4101,
      "stamp": 4102,
      "stole": 4103,
      "##ches": 4104,
      "##iring": 4105,
      "##thr": 4106,
      "ham": 4107,
      "tri": 4108,
      "##iler": 4109,
      "enjo": 4110,
      "exch": 4111,
      "notice": 4112,
      "lives": 4113,
      "lifet": 4114,
      "doz": 4115,
      "spoke": 4116,
      "alert": 4117,
      "sever": 4118,
      "##ants": 4119,
      "##ipment": 4120,
      "uns": 4121,
      "unkn": 4122,
      "##ried": 4123,
      "##rible": 4124,
      "##osene": 4125,
      "##ift": 4126,
      "spaceport": 4127,
      "feb": 4128,
      "faith": 4129,
      "produce": 4130,
      "adult": 4131,
      "lease": 4132,
      "##mod": 4133,
      "pods": 4134,
      "##asshopper": 4135,
      "peace": 4136,
      "interse": 4137,
      "threshold": 4138,
      "perio": 4139,
      "twea": 4140,
      "orbits": 4141,
      "everywhere": 4142,
      "symb": 4143,
      "##ructions": 4144,
      "draw": 4145,
      "understood": 4146,
      "##metry": 4147,
      "region": 4148,
      "##ocaly": 4149,
      "insight": 4150,
      "ended": 4151,
      "cave": 4152,
      "indic": 4153,
      "##agree": 4154,
      "grand": 4155,
      "grasshopper": 4156,
      "disagree": 4157,
      "completing": 4158,
      "blue": 4159,
      "blood": 4160,
      "fairly": 4161,
      "century": 4162,
      "missed": 4163,
      "meth": 4164,
      "surfaces": 4165,
      "terms": 4166,
      "differences": 4167,
      "updated": 4168,
      "calc": 4169,
      "medium": 4170,
      "talked": 4171,
      "turning": 4172,
      "instructions": 4173,
      "stops": 4174,
      "brake": 4175,
      "supercharging": 4176,
      "apolog": 4177,
      "100k": 4178,
      "fold": 4179,
      "multi": 4180,
      "remains": 4181,
      "posit": 4182,
      "ironically": 4183,
      "funding": 4184,
      "seconds": 4185,
      "optimization": 4186,
      "broken": 4187,
      "physical": 4188,
      "##fficient": 4189,
      "emiss": 4190,
      "succeed": 4191,
      "collapse": 4192,
      "##cracy": 4193,
      "reduction": 4194,
      "keeps": 4195,
      "##box": 4196,
      "##board": 4197,
      "failed": 4198,
      "pieces": 4199,
      "hello": 4200,
      "origin": 4201,
      "economy": 4202,
      "economics": 4203,
      "affected": 4204,
      "nyt": 4205,
      "debate": 4206,
      "labor": 4207,
      "labeling": 4208,
      "equipment": 4209,
      "subscription": 4210,
      "fallout": 4211,
      "achieved": 4212,
      "connected": 4213,
      "mk1": 4214,
      "mentioned": 4215,
      "astronom": 4216,
      "growth": 4217,
      "layers": 4218,
      "vastly": 4219,
      "objects": 4220,
      "learn": 4221,
      "necessarily": 4222,
      "accounts": 4223,
      "duties": 4224,
      "occup": 4225,
      "pushed": 4226,
      "injury": 4227,
      "charging": 4228,
      "recovery": 4229,
      "recovered": 4230,
      "terrible": 4231,
      "docking": 4232,
      "megap": 4233,
      "terminals": 4234,
      "blade": 4235,
      "survival": 4236,
      "scientists": 4237,
      "titan": 4238,
      "controlled": 4239,
      "validation": 4240,
      "principle": 4241,
      "fiction": 4242,
      "compression": 4243,
      "werent": 4244,
      "junky": 4245,
      "kerosene": 4246,
      "protection": 4247,
      "pacific": 4248,
      "vector": 4249,
      "aspirationally": 4250,
      "christmas": 4251,
      "revenue": 4252,
      "interplanetary": 4253,
      "opinion": 4254,
      "maneu": 4255,
      "unknown": 4256,
      "11": 4257,
      "2k": 4258,
      "5k": 4259,
      "78": 4260,
      "ben": 4261,
      "bull": 4262,
      "born": 4263,
      "banks": 4264,
      "cow": 4265,
      "dm": 4266,
      "fp": 4267,
      "fac": 4268,
      "fill": 4269,
      "fwd": 4270,
      "hence": 4271,
      "jet": 4272,
      "jup": 4273,
      "mas": 4274,
      "nh": 4275,
      "n2": 4276,
      "nons": 4277,
      "og": 4278,
      "ota": 4279,
      "pal": 4280,
      "pull": 4281,
      "ring": 4282,
      "rum": 4283,
      "sle": 4284,
      "sand": 4285,
      "sick": 4286,
      "v8": 4287,
      "vid": 4288,
      "vanden": 4289,
      "ws": 4290,
      "west": 4291,
      "wire": 4292,
      "##da": 4293,
      "##dom": 4294,
      "##vada": 4295,
      "##rding": 4296,
      "##to": 4297,
      "##ton": 4298,
      "##pro": 4299,
      "##pack": 4300,
      "##ued": 4301,
      "##burn": 4302,
      "##ov": 4303,
      "##ogn": 4304,
      "##ma": 4305,
      "##aoke": 4306,
      "##has": 4307,
      "##how": 4308,
      "##wor": 4309,
      "##inge": 4310,
      "tour": 4311,
      "##rele": 4312,
      "bear": 4313,
      "reb": 4314,
      "reference": 4315,
      "reverse": 4316,
      "stat": 4317,
      "stan": 4318,
      "item": 4319,
      "coal": 4320,
      "##eless": 4321,
      "##ided": 4322,
      "##allel": 4323,
      "neither": 4324,
      "nevada": 4325,
      "proceed": 4326,
      "suit": 4327,
      "trunk": 4328,
      "shorter": 4329,
      "lie": 4330,
      "living": 4331,
      "##ables": 4332,
      "atlas": 4333,
      "doors": 4334,
      "sports": 4335,
      "asim": 4336,
      "asking": 4337,
      "alive": 4338,
      "worry": 4339,
      "##ounting": 4340,
      "nobody": 4341,
      "wasn": 4342,
      "compens": 4343,
      "lame": 4344,
      "##ifically": 4345,
      "upon": 4346,
      "##mentally": 4347,
      "modern": 4348,
      "##acked": 4349,
      "loves": 4350,
      "##ounds": 4351,
      "arm": 4352,
      "##ended": 4353,
      "somehow": 4354,
      "##ember": 4355,
      "##pton": 4356,
      "prepar": 4357,
      "preburn": 4358,
      "thru": 4359,
      "yourself": 4360,
      "perman": 4361,
      "intention": 4362,
      "conte": 4363,
      "powertra": 4364,
      "lands": 4365,
      "resale": 4366,
      "residual": 4367,
      "resolution": 4368,
      "explos": 4369,
      "knight": 4370,
      "boat": 4371,
      "mini": 4372,
      "click": 4373,
      "puck": 4374,
      "recogn": 4375,
      "underground": 4376,
      "extending": 4377,
      "scor": 4378,
      "##ronic": 4379,
      "helium": 4380,
      "obser": 4381,
      "signs": 4382,
      "roads": 4383,
      "leave": 4384,
      "central": 4385,
      "depth": 4386,
      "belie": 4387,
      "brand": 4388,
      "publicly": 4389,
      "ordered": 4390,
      "planets": 4391,
      "planned": 4392,
      "taxpay": 4393,
      "decade": 4394,
      "command": 4395,
      "rolls": 4396,
      "controls": 4397,
      "operate": 4398,
      "motion": 4399,
      "internally": 4400,
      "international": 4401,
      "##gging": 4402,
      "delivering": 4403,
      "played": 4404,
      "detect": 4405,
      "postpon": 4406,
      "remaining": 4407,
      "reached": 4408,
      "difficulty": 4409,
      "investor": 4410,
      "optimal": 4411,
      "experts": 4412,
      "optional": 4413,
      "schrding": 4414,
      "upgrading": 4415,
      "handle": 4416,
      "discount": 4417,
      "daily": 4418,
      "reduced": 4419,
      "blog": 4420,
      "winter": 4421,
      "watching": 4422,
      "specifically": 4423,
      "economic": 4424,
      "irrele": 4425,
      "liftoff": 4426,
      "turbine": 4427,
      "offering": 4428,
      "providing": 4429,
      "maximize": 4430,
      "structural": 4431,
      "digging": 4432,
      "degree": 4433,
      "incentive": 4434,
      "causes": 4435,
      "##lications": 4436,
      "pyram": 4437,
      "mechanical": 4438,
      "environmental": 4439,
      "separation": 4440,
      "breakthr": 4441,
      "jacket": 4442,
      "nuclear": 4443,
      "applying": 4444,
      "eyes": 4445,
      "speaker": 4446,
      "september": 4447,
      "cycles": 4448,
      "beginning": 4449,
      "eggs": 4450,
      "lucky": 4451,
      "shareholder": 4452,
      "exponential": 4453,
      "robotaxi": 4454,
      "quickly": 4455,
      "refilling": 4456,
      "coinc": 4457,
      "purchase": 4458,
      "reactor": 4459,
      "exec": 4460,
      "style": 4461,
      "represent": 4462,
      "invasive": 4463,
      "corporate": 4464,
      "horizontal": 4465,
      "busted": 4466,
      "odds": 4467,
      "artificial": 4468,
      "hydraulic": 4469,
      "lifetime": 4470,
      "jupiter": 4471,
      "nhts": 4472,
      "vandenberg": 4473,
      "wsj": 4474,
      "schrdinger": 4475,
      "breakthrough": 4476,
      "25": 4477,
      "250": 4478,
      "40": 4479,
      "ari": 4480,
      "breat": 4481,
      "bio": 4482,
      "coup": 4483,
      "dense": 4484,
      "fh": 4485,
      "food": 4486,
      "fart": 4487,
      "gal": 4488,
      "jer": 4489,
      "kg": 4490,
      "mi": 4491,
      "mor": 4492,
      "men": 4493,
      "mit": 4494,
      "mal": 4495,
      "nar": 4496,
      "p1": 4497,
      "pers": 4498,
      "rn": 4499,
      "ren": 4500,
      "rig": 4501,
      "rent": 4502,
      "rich": 4503,
      "sed": 4504,
      "sir": 4505,
      "srs": 4506,
      "tire": 4507,
      "trees": 4508,
      "ula": 4509,
      "wast": 4510,
      "yay": 4511,
      "yoke": 4512,
      "##vior": 4513,
      "##ection": 4514,
      "##tronic": 4515,
      "##pal": 4516,
      "##uations": 4517,
      "##uish": 4518,
      "##ners": 4519,
      "##ged": 4520,
      "##gering": 4521,
      "##lies": 4522,
      "##oids": 4523,
      "##aign": 4524,
      "##ault": 4525,
      "##akes": 4526,
      "##hib": 4527,
      "##heed": 4528,
      "##fall": 4529,
      "##father": 4530,
      "##xy": 4531,
      "##erg": 4532,
      "throw": 4533,
      "thick": 4534,
      "##ona": 4535,
      "##oring": 4536,
      "##orse": 4537,
      "##edy": 4538,
      "##als": 4539,
      "##icks": 4540,
      "##icians": 4541,
      "beast": 4542,
      "##vey": 4543,
      "##ison": 4544,
      "##ota": 4545,
      "onion": 4546,
      "##illa": 4547,
      "stag": 4548,
      "stuck": 4549,
      "coating": 4550,
      "weap": 4551,
      "##ched": 4552,
      "##urr": 4553,
      "moons": 4554,
      "moves": 4555,
      "moved": 4556,
      "trial": 4557,
      "trains": 4558,
      "traction": 4559,
      "exists": 4560,
      "spot": 4561,
      "align": 4562,
      "season": 4563,
      "search": 4564,
      "##imler": 4565,
      "##rage": 4566,
      "nom": 4567,
      "rom": 4568,
      "unus": 4569,
      "##uman": 4570,
      "goodness": 4571,
      "hey": 4572,
      "heats": 4573,
      "wouldn": 4574,
      "wouldve": 4575,
      "safer": 4576,
      "fee": 4577,
      "therefore": 4578,
      "shouldnt": 4579,
      "plat": 4580,
      "placed": 4581,
      "adm": 4582,
      "applies": 4583,
      "bump": 4584,
      "bugs": 4585,
      "poly": 4586,
      "##quil": 4587,
      "fired": 4588,
      "superd": 4589,
      "superall": 4590,
      "permit": 4591,
      "intent": 4592,
      "##00d": 4593,
      "contact": 4594,
      "whenever": 4595,
      "quant": 4596,
      "resc": 4597,
      "express": 4598,
      "recall": 4599,
      "recyc": 4600,
      "earths": 4601,
      "scam": 4602,
      "additional": 4603,
      "sn8": 4604,
      "endorse": 4605,
      "caut": 4606,
      "displ": 4607,
      "curious": 4608,
      "##encies": 4609,
      "paypal": 4610,
      "transl": 4611,
      "jokes": 4612,
      "fran": 4613,
      "advice": 4614,
      "events": 4615,
      "increased": 4616,
      "cores": 4617,
      "parallel": 4618,
      "amazingly": 4619,
      "medtronic": 4620,
      "decent": 4621,
      "decision": 4622,
      "decades": 4623,
      "flame": 4624,
      "##lessly": 4625,
      "rolled": 4626,
      "simpler": 4627,
      "brakes": 4628,
      "apocaly": 4629,
      "volt": 4630,
      "merk": 4631,
      "password": 4632,
      "untr": 4633,
      "machines": 4634,
      "computing": 4635,
      "creation": 4636,
      "posting": 4637,
      "remind": 4638,
      "remote": 4639,
      "investig": 4640,
      "reasonable": 4641,
      "experi": 4642,
      "experiment": 4643,
      "attention": 4644,
      "risky": 4645,
      "foundry": 4646,
      "buyers": 4647,
      "dropping": 4648,
      "email": 4649,
      "hands": 4650,
      "handling": 4651,
      "views": 4652,
      "dealer": 4653,
      "dealers": 4654,
      "distract": 4655,
      "info": 4656,
      "infinite": 4657,
      "damp": 4658,
      "daimler": 4659,
      "colors": 4660,
      "winning": 4661,
      "analy": 4662,
      "logs": 4663,
      "loads": 4664,
      "edge": 4665,
      "sentient": 4666,
      "manufactur": 4667,
      "potentially": 4668,
      "fundamentally": 4669,
      "ultimate": 4670,
      "watched": 4671,
      "emphas": 4672,
      "programm": 4673,
      "programs": 4674,
      "sheep": 4675,
      "strongly": 4676,
      "buttons": 4677,
      "negatively": 4678,
      "univers": 4679,
      "catching": 4680,
      "tweeting": 4681,
      "geor": 4682,
      "##ruption": 4683,
      "navigation": 4684,
      "##ribed": 4685,
      "repairs": 4686,
      "horse": 4687,
      "digital": 4688,
      "causing": 4689,
      "caused": 4690,
      "blowing": 4691,
      "enables": 4692,
      "enabling": 4693,
      "device": 4694,
      "respons": 4695,
      "photon": 4696,
      "errors": 4697,
      "learned": 4698,
      "patents": 4699,
      "processing": 4700,
      "pickup": 4701,
      "thousand": 4702,
      "eye": 4703,
      "##point": 4704,
      "financing": 4705,
      "surprisingly": 4706,
      "hospitals": 4707,
      "lockheed": 4708,
      "expanding": 4709,
      "sucks": 4710,
      "convinced": 4711,
      "deserves": 4712,
      "attached": 4713,
      "entertainment": 4714,
      "germany": 4715,
      "h2o": 4716,
      "behavior": 4717,
      "campaign": 4718,
      "footage": 4719,
      "monty": 4720,
      "paper": 4721,
      "inertia": 4722,
      "startups": 4723,
      "employees": 4724,
      "emoji": 4725,
      "bricks": 4726,
      "##iosis": 4727,
      "elevator": 4728,
      "evolving": 4729,
      "stopped": 4730,
      "esthet": 4731,
      "character": 4732,
      "cuph": 4733,
      "independent": 4734,
      "patients": 4735,
      "escape": 4736,
      "passenger": 4737,
      "innovation": 4738,
      "severe": 4739,
      "period": 4740,
      "symbiosis": 4741,
      "positives": 4742,
      "titanium": 4743,
      "junkyard": 4744,
      "nonsense": 4745,
      "asimov": 4746,
      "nhtsa": 4747,
      "p100d": 4748,
      "srsly": 4749,
      "display": 4750,
      "150": 4751,
      "bb": 4752,
      "btc": 4753,
      "brief": 4754,
      "cit": 4755,
      "cro": 4756,
      "cure": 4757,
      "cats": 4758,
      "cumul": 4759,
      "cgi": 4760,
      "dial": 4761,
      "dyn": 4762,
      "eve": 4763,
      "five": 4764,
      "fish": 4765,
      "gain": 4766,
      "homes": 4767,
      "ich": 4768,
      "kor": 4769,
      "lun": 4770,
      "lbs": 4771,
      "mere": 4772,
      "mort": 4773,
      "nan": 4774,
      "nuts": 4775,
      "os": 4776,
      "packs": 4777,
      "rates": 4778,
      "rule": 4779,
      "rwd": 4780,
      "sx": 4781,
      "tx": 4782,
      "tar": 4783,
      "tint": 4784,
      "ui": 4785,
      "vat": 4786,
      "wra": 4787,
      "wood": 4788,
      "wins": 4789,
      "ya": 4790,
      "##eal": 4791,
      "##ech": 4792,
      "##ping": 4793,
      "##pse": 4794,
      "##power": 4795,
      "##nage": 4796,
      "##list": 4797,
      "##lantic": 4798,
      "##ba": 4799,
      "##bing": 4800,
      "##bed": 4801,
      "##oint": 4802,
      "##oys": 4803,
      "##mous": 4804,
      "##au": 4805,
      "##aur": 4806,
      "##aff": 4807,
      "##hield": 4808,
      "##fest": 4809,
      "##well": 4810,
      "##85": 4811,
      "threat": 4812,
      "##aring": 4813,
      "##arre": 4814,
      "##lly": 4815,
      "toy": 4816,
      "toast": 4817,
      "##itas": 4818,
      "##rete": 4819,
      "##stream": 4820,
      "##struct": 4821,
      "inject": 4822,
      "##rock": 4823,
      "##iced": 4824,
      "##let": 4825,
      "beats": 4826,
      "##ionics": 4827,
      "ampl": 4828,
      "stability": 4829,
      "stacking": 4830,
      "copper": 4831,
      "##adian": 4832,
      "##urally": 4833,
      "pros": 4834,
      "proport": 4835,
      "##ithm": 4836,
      "trig": 4837,
      "enem": 4838,
      "shape": 4839,
      "##opter": 4840,
      "likes": 4841,
      "atlantic": 4842,
      "dogs": 4843,
      "spending": 4844,
      "aspir": 4845,
      "algor": 4846,
      "##ested": 4847,
      "##estone": 4848,
      "##estream": 4849,
      "deus": 4850,
      "##ulated": 4851,
      "choo": 4852,
      "##imation": 4853,
      "alloy": 4854,
      "unable": 4855,
      "unique": 4856,
      "##rier": 4857,
      "memb": 4858,
      "compell": 4859,
      "##osed": 4860,
      "lake": 4861,
      "laugh": 4862,
      "##ifying": 4863,
      "##ainty": 4864,
      "canadian": 4865,
      "saves": 4866,
      "safest": 4867,
      "pract": 4868,
      "pricing": 4869,
      "lob": 4870,
      "##amine": 4871,
      "ama": 4872,
      "among": 4873,
      "##rys": 4874,
      "appar": 4875,
      "text": 4876,
      "leo": 4877,
      "##quiv": 4878,
      "solves": 4879,
      "superh": 4880,
      "agi": 4881,
      "income": 4882,
      "launched": 4883,
      "interface": 4884,
      "accumul": 4885,
      "resol": 4886,
      "server": 4887,
      "##rict": 4888,
      "recently": 4889,
      "phd": 4890,
      "airport": 4891,
      "##oco": 4892,
      "conser": 4893,
      "gene": 4894,
      "ends": 4895,
      "idiot": 4896,
      "becomes": 4897,
      "farm": 4898,
      "joe": 4899,
      "joy": 4900,
      "##atched": 4901,
      "hole": 4902,
      "leaving": 4903,
      "missing": 4904,
      "bother": 4905,
      "confusion": 4906,
      "valu": 4907,
      "lateral": 4908,
      "redund": 4909,
      "ordering": 4910,
      "manag": 4911,
      "currency": 4912,
      "avionics": 4913,
      "medical": 4914,
      "limits": 4915,
      "limiting": 4916,
      "openai": 4917,
      "decide": 4918,
      "declin": 4919,
      "commission": 4920,
      "showing": 4921,
      "regular": 4922,
      "regulations": 4923,
      "personal": 4924,
      "visiting": 4925,
      "##comp": 4926,
      "merry": 4927,
      "passing": 4928,
      "passive": 4929,
      "rising": 4930,
      "cheese": 4931,
      "remark": 4932,
      "competing": 4933,
      "combine": 4934,
      "wave": 4935,
      "movement": 4936,
      "multiplanet": 4937,
      "radi": 4938,
      "formula": 4939,
      "doug": 4940,
      "covers": 4941,
      "covered": 4942,
      "robust": 4943,
      "closing": 4944,
      "detailed": 4945,
      "distrib": 4946,
      "returned": 4947,
      "##standing": 4948,
      "turbo": 4949,
      "keeping": 4950,
      "traveling": 4951,
      "sentry": 4952,
      "sensitive": 4953,
      "bots": 4954,
      "focusing": 4955,
      "wishes": 4956,
      "reporting": 4957,
      "following": 4958,
      "sheer": 4959,
      "suggests": 4960,
      "factories": 4961,
      "begins": 4962,
      "turbines": 4963,
      "sources": 4964,
      "tbc": 4965,
      "statement": 4966,
      "includes": 4967,
      "epis": 4968,
      "bringing": 4969,
      "deployment": 4970,
      "silver": 4971,
      "crewed": 4972,
      "saturn": 4973,
      "blows": 4974,
      "unequiv": 4975,
      "photos": 4976,
      "thrott": 4977,
      "jamming": 4978,
      "arrived": 4979,
      "learning": 4980,
      "adjusting": 4981,
      "sn10": 4982,
      "precisely": 4983,
      "cryptoc": 4984,
      "ridicul": 4985,
      "straw": 4986,
      "approximately": 4987,
      "boosters": 4988,
      "##ological": 4989,
      "continuous": 4990,
      "casting": 4991,
      "propulsive": 4992,
      "bankruptcy": 4993,
      "podcast": 4994,
      "explain": 4995,
      "foolish": 4996,
      "reliable": 4997,
      "kidding": 4998,
      "traditional": 4999,
      "sweet": 5000,
      "concerns": 5001,
      "shareholders": 5002,
      "naturally": 5003,
      "encounter": 5004,
      "sequence": 5005,
      "political": 5006,
      "streets": 5007,
      "dollar": 5008,
      "godot": 5009,
      "monopol": 5010,
      "imagine": 5011,
      "absurdly": 5012,
      "##graphy": 5013,
      "pedestrian": 5014,
      "pedestrians": 5015,
      "iteration": 5016,
      "parachutes": 5017,
      "renewable": 5018,
      "grey": 5019,
      "conversation": 5020,
      "resistance": 5021,
      "methods": 5022,
      "houses": 5023,
      "##force": 5024,
      "shaft": 5025,
      "spirit": 5026,
      "simultaneously": 5027,
      "balance": 5028,
      "cancel": 5029,
      "besides": 5030,
      "bizarre": 5031,
      "##raco": 5032,
      "thermal": 5033,
      "inevitable": 5034,
      "trivial": 5035,
      "spaceflight": 5036,
      "puppet": 5037,
      "benefit": 5038,
      "tweaks": 5039,
      "methane": 5040,
      "maneuver": 5041,
      "bullet": 5042,
      "stanford": 5043,
      "preparing": 5044,
      "postponed": 5045,
      "narrow": 5046,
      "staggering": 5047,
      "superdraco": 5048,
      "recycling": 5049,
      "voltage": 5050,
      "untrue": 5051,
      "emphasize": 5052,
      "cumulative": 5053,
      "dynam": 5054,
      "unequivoc": 5055,
      "400": 5056,
      "90": 5057,
      "aer": 5058,
      "boun": 5059,
      "bare": 5060,
      "brow": 5061,
      "cd": 5062,
      "cm": 5063,
      "dream": 5064,
      "ein": 5065,
      "eap": 5066,
      "fel": 5067,
      "ferm": 5068,
      "gent": 5069,
      "girl": 5070,
      "hr": 5071,
      "ip": 5072,
      "king": 5073,
      "lu": 5074,
      "lz": 5075,
      "lan": 5076,
      "lord": 5077,
      "ment": 5078,
      "mich": 5079,
      "muse": 5080,
      "nvid": 5081,
      "nope": 5082,
      "pun": 5083,
      "pair": 5084,
      "pne": 5085,
      "pounds": 5086,
      "q1": 5087,
      "q2": 5088,
      "q3": 5089,
      "sig": 5090,
      "tay": 5091,
      "tim": 5092,
      "vt": 5093,
      "wom": 5094,
      "witch": 5095,
      "yaw": 5096,
      "##do": 5097,
      "##des": 5098,
      "##days": 5099,
      "##rant": 5100,
      "##ius": 5101,
      "##pire": 5102,
      "##uitive": 5103,
      "##ng": 5104,
      "##gus": 5105,
      "##land": 5106,
      "##lich": 5107,
      "##lines": 5108,
      "##bor": 5109,
      "##ban": 5110,
      "##bel": 5111,
      "##oh": 5112,
      "##old": 5113,
      "##ola": 5114,
      "##mare": 5115,
      "thail": 5116,
      "toile": 5117,
      "tops": 5118,
      "##rew": 5119,
      "##rets": 5120,
      "##sters": 5121,
      "##alty": 5122,
      "##rogen": 5123,
      "##icine": 5124,
      "##isl": 5125,
      "##otes": 5126,
      "forced": 5127,
      "forcing": 5128,
      "##eth": 5129,
      "##etch": 5130,
      "sole": 5131,
      "stable": 5132,
      "weigh": 5133,
      "##idd": 5134,
      "wheres": 5135,
      "whoop": 5136,
      "##allow": 5137,
      "##urized": 5138,
      "proven": 5139,
      "trag": 5140,
      "##ili": 5141,
      "##ilities": 5142,
      "shar": 5143,
      "##oph": 5144,
      "liked": 5145,
      "dom": 5146,
      "organ": 5147,
      "asia": 5148,
      "sees": 5149,
      "select": 5150,
      "##ulate": 5151,
      "chea": 5152,
      "##ips": 5153,
      "roc": 5154,
      "##ribe": 5155,
      "justice": 5156,
      "mexic": 5157,
      "goods": 5158,
      "lax": 5159,
      "held": 5160,
      "spaceball": 5161,
      "sam": 5162,
      "saving": 5163,
      "english": 5164,
      "##aming": 5165,
      "##duct": 5166,
      "aren": 5167,
      "hash": 5168,
      "hasnt": 5169,
      "plug": 5170,
      "theyd": 5171,
      "produces": 5172,
      "applications": 5173,
      "poor": 5174,
      "overr": 5175,
      "acid": 5176,
      "solutions": 5177,
      "hops": 5178,
      "permission": 5179,
      "twist": 5180,
      "tweak": 5181,
      "intro": 5182,
      "intended": 5183,
      "##ensing": 5184,
      "monthly": 5185,
      "funds": 5186,
      "##rica": 5187,
      "bogus": 5188,
      "mining": 5189,
      "smith": 5190,
      "defe": 5191,
      "cloud": 5192,
      "clicks": 5193,
      "elements": 5194,
      "phased": 5195,
      "earthqu": 5196,
      "scr": 5197,
      "scen": 5198,
      "scra": 5199,
      "africa": 5200,
      "finishing": 5201,
      "afterno": 5202,
      "sn6": 5203,
      "inspe": 5204,
      "ending": 5205,
      "ident": 5206,
      "office": 5207,
      "became": 5208,
      "grade": 5209,
      "##enced": 5210,
      "paywall": 5211,
      "transpar": 5212,
      "joined": 5213,
      "fred": 5214,
      "seemed": 5215,
      "opens": 5216,
      "calling": 5217,
      "guard": 5218,
      "subst": 5219,
      "subway": 5220,
      "confl": 5221,
      "throughout": 5222,
      "differential": 5223,
      "bran": 5224,
      "brit": 5225,
      "brought": 5226,
      "branden": 5227,
      "param": 5228,
      "raised": 5229,
      "manip": 5230,
      "medicine": 5231,
      "legisl": 5232,
      "simulations": 5233,
      "refine": 5234,
      "fastest": 5235,
      "instant": 5236,
      "roller": 5237,
      "interests": 5238,
      "visible": 5239,
      "donate": 5240,
      "nightmare": 5241,
      "swift": 5242,
      "barrel": 5243,
      "deeply": 5244,
      "expecting": 5245,
      "broke": 5246,
      "physically": 5247,
      "restart": 5248,
      "generalized": 5249,
      "constit": 5250,
      "protest": 5251,
      "continues": 5252,
      "polar": 5253,
      "widely": 5254,
      "collision": 5255,
      "trucks": 5256,
      "initi": 5257,
      "safely": 5258,
      "dawn": 5259,
      "stories": 5260,
      "sensor": 5261,
      "suggested": 5262,
      "##ventions": 5263,
      "lifting": 5264,
      "installation": 5265,
      "understands": 5266,
      "breaks": 5267,
      "equal": 5268,
      "honest": 5269,
      "urban": 5270,
      "exceptional": 5271,
      "beauty": 5272,
      "thinks": 5273,
      "concrete": 5274,
      "gravitas": 5275,
      "message": 5276,
      "maximizing": 5277,
      "ideal": 5278,
      "configur": 5279,
      "configuration": 5280,
      "soul": 5281,
      "growing": 5282,
      "profound": 5283,
      "flamethrowers": 5284,
      "linux": 5285,
      "satis": 5286,
      "ventilator": 5287,
      "minimizing": 5288,
      "billions": 5289,
      "rendering": 5290,
      "democracy": 5291,
      "argument": 5292,
      "photo": 5293,
      "scheduled": 5294,
      "30pm": 5295,
      "arrives": 5296,
      "cryogen": 5297,
      "illust": 5298,
      "situations": 5299,
      "aborted": 5300,
      "wednes": 5301,
      "windows": 5302,
      "synth": 5303,
      "discussion": 5304,
      "sonic": 5305,
      "materials": 5306,
      "killing": 5307,
      "fluid": 5308,
      "switched": 5309,
      "eastern": 5310,
      "judge": 5311,
      "minecraft": 5312,
      "chips": 5313,
      "financial": 5314,
      "losing": 5315,
      "tradem": 5316,
      "constraints": 5317,
      "tuesday": 5318,
      "##stein": 5319,
      "uncert": 5320,
      "ambient": 5321,
      "entertaining": 5322,
      "german": 5323,
      "dollars": 5324,
      "buffet": 5325,
      "monopo": 5326,
      "scaling": 5327,
      "vaccines": 5328,
      "asteroids": 5329,
      "parachute": 5330,
      "renewables": 5331,
      "mirror": 5332,
      "milestone": 5333,
      "unreal": 5334,
      "retrofit": 5335,
      "hypocr": 5336,
      "destroyed": 5337,
      "munro": 5338,
      "inspired": 5339,
      "condition": 5340,
      "listening": 5341,
      "purpose": 5342,
      "communication": 5343,
      "opportunity": 5344,
      "fiat": 5345,
      "garage": 5346,
      "##topia": 5347,
      "##itudes": 5348,
      "stabilize": 5349,
      "maker": 5350,
      "theoret": 5351,
      "enjoy": 5352,
      "dozen": 5353,
      "apologies": 5354,
      "emissions": 5355,
      "context": 5356,
      "powertrain": 5357,
      "irrelevant": 5358,
      "coincidence": 5359,
      "couple": 5360,
      "##urrency": 5361,
      "heatshield": 5362,
      "polytopia": 5363,
      "quantum": 5364,
      "esthetics": 5365,
      "cuphead": 5366,
      "citiz": 5367,
      "proportion": 5368,
      "members": 5369,
      "compelling": 5370,
      "superhuman": 5371,
      "valuable": 5372,
      "distribution": 5373,
      "cryptocurrency": 5374,
      "browser": 5375,
      "fermi": 5376,
      "museum": 5377,
      "nvidia": 5378,
      "pneum": 5379,
      "thailand": 5380,
      "mexico": 5381,
      "spaceballs": 5382,
      "brandenburg": 5383,
      "wednesday": 5384,
      "14": 5385,
      "19": 5386,
      "35k": 5387,
      "80": 5388,
      "800": 5389,
      "bon": 5390,
      "ble": 5391,
      "bol": 5392,
      "bure": 5393,
      "bunch": 5394,
      "boss": 5395,
      "bond": 5396,
      "bern": 5397,
      "bounce": 5398,
      "cir": 5399,
      "card": 5400,
      "das": 5401,
      "dad": 5402,
      "dil": 5403,
      "dim": 5404,
      "dive": 5405,
      "dare": 5406,
      "dign": 5407,
      "dia": 5408,
      "fu": 5409,
      "fy": 5410,
      "fru": 5411,
      "father": 5412,
      "gather": 5413,
      "hq": 5414,
      "hull": 5415,
      "hors": 5416,
      "hidd": 5417,
      "ii": 5418,
      "jim": 5419,
      "kry": 5420,
      "kick": 5421,
      "lar": 5422,
      "lid": 5423,
      "lil": 5424,
      "lack": 5425,
      "mm": 5426,
      "mat": 5427,
      "moo": 5428,
      "mand": 5429,
      "np": 5430,
      "na": 5431,
      "nit": 5432,
      "nut": 5433,
      "pill": 5434,
      "pra": 5435,
      "pors": 5436,
      "pilot": 5437,
      "pix": 5438,
      "patch": 5439,
      "rage": 5440,
      "rated": 5441,
      "river": 5442,
      "rna": 5443,
      "sla": 5444,
      "seam": 5445,
      "sites": 5446,
      "ted": 5447,
      "tent": 5448,
      "tong": 5449,
      "tune": 5450,
      "teles": 5451,
      "vict": 5452,
      "wis": 5453,
      "woo": 5454,
      "yo": 5455,
      "##ded": 5456,
      "##vance": 5457,
      "##eor": 5458,
      "##tor": 5459,
      "##tim": 5460,
      "##tube": 5461,
      "##ien": 5462,
      "##iest": 5463,
      "##iving": 5464,
      "##ss": 5465,
      "##sh": 5466,
      "##plan": 5467,
      "##nel": 5468,
      "##ney": 5469,
      "##lor": 5470,
      "##lar": 5471,
      "##boo": 5472,
      "##bles": 5473,
      "##omp": 5474,
      "##oked": 5475,
      "##aire": 5476,
      "##awn": 5477,
      "##hamm": 5478,
      "##zer": 5479,
      "##yr": 5480,
      "##cl": 5481,
      "##cur": 5482,
      "##32": 5483,
      "thro": 5484,
      "##inction": 5485,
      "##esis": 5486,
      "##esign": 5487,
      "##ored": 5488,
      "##aters": 5489,
      "##atable": 5490,
      "##inguish": 5491,
      "##arter": 5492,
      "tom": 5493,
      "toxic": 5494,
      "##ened": 5495,
      "##ench": 5496,
      "##iti": 5497,
      "##stic": 5498,
      "inhib": 5499,
      "##mph": 5500,
      "##aling": 5501,
      "##icking": 5502,
      "##icious": 5503,
      "beer": 5504,
      "reve": 5505,
      "sock": 5506,
      "soci": 5507,
      "stone": 5508,
      "coff": 5509,
      "##enty": 5510,
      "##iden": 5511,
      "neut": 5512,
      "sufficient": 5513,
      "young": 5514,
      "youtube": 5515,
      "haz": 5516,
      "##ils": 5517,
      "##iling": 5518,
      "enorm": 5519,
      "envelop": 5520,
      "shr": 5521,
      "sho": 5522,
      "shall": 5523,
      "shark": 5524,
      "shock": 5525,
      "notes": 5526,
      "##under": 5527,
      "span": 5528,
      "spool": 5529,
      "ash": 5530,
      "##ppy": 5531,
      "altern": 5532,
      "##ationary": 5533,
      "worried": 5534,
      "convention": 5535,
      "##ulse": 5536,
      "##ulating": 5537,
      "##gee": 5538,
      "##anted": 5539,
      "chem": 5540,
      "chass": 5541,
      "chris": 5542,
      "chrys": 5543,
      "##imated": 5544,
      "unf": 5545,
      "##umes": 5546,
      "compl": 5547,
      "compar": 5548,
      "compla": 5549,
      "##osh": 5550,
      "##used": 5551,
      "##ife": 5552,
      "yep": 5553,
      "upside": 5554,
      "imply": 5555,
      "comedy": 5556,
      "thereaf": 5557,
      "##amb": 5558,
      "armor": 5559,
      "plot": 5560,
      "plays": 5561,
      "plenty": 5562,
      "someones": 5563,
      "appoint": 5564,
      "acqu": 5565,
      "tast": 5566,
      "monkey": 5567,
      "interventions": 5568,
      "spacexs": 5569,
      "partly": 5570,
      "parties": 5571,
      "partial": 5572,
      "partners": 5573,
      "reson": 5574,
      "expos": 5575,
      "explo": 5576,
      "cru": 5577,
      "crushing": 5578,
      "images": 5579,
      "serving": 5580,
      "bold": 5581,
      "minus": 5582,
      "pointy": 5583,
      "default": 5584,
      "clim": 5585,
      "cloth": 5586,
      "puff": 5587,
      "recirc": 5588,
      "phase": 5589,
      "##angu": 5590,
      "extension": 5591,
      "knowled": 5592,
      "regen": 5593,
      "regret": 5594,
      "futur": 5595,
      "humor": 5596,
      "##phone": 5597,
      "##phob": 5598,
      "reply": 5599,
      "facts": 5600,
      "factors": 5601,
      "snake": 5602,
      "##agon": 5603,
      "group": 5604,
      "##bled": 5605,
      "disp": 5606,
      "disaster": 5607,
      "delays": 5608,
      "heavier": 5609,
      "thoughts": 5610,
      "stress": 5611,
      "shortfall": 5612,
      "french": 5613,
      "signed": 5614,
      "advis": 5615,
      "advoc": 5616,
      "subc": 5617,
      "suborbit": 5618,
      "basis": 5619,
      "traject": 5620,
      "generation": 5621,
      "generated": 5622,
      "meter": 5623,
      "steer": 5624,
      "countdown": 5625,
      "dependent": 5626,
      "gigantic": 5627,
      "retros": 5628,
      "redesign": 5629,
      "extrem": 5630,
      "corre": 5631,
      "parad": 5632,
      "parents": 5633,
      "parado": 5634,
      "raising": 5635,
      "publications": 5636,
      "openly": 5637,
      "decided": 5638,
      "instr": 5639,
      "flap": 5640,
      "operations": 5641,
      "prize": 5642,
      "readers": 5643,
      "bits": 5644,
      "visual": 5645,
      "##ashed": 5646,
      "looked": 5647,
      "lightning": 5648,
      "passes": 5649,
      "automation": 5650,
      "automak": 5651,
      "automatic": 5652,
      "##ughty": 5653,
      "standing": 5654,
      "compete": 5655,
      "autoba": 5656,
      "##nesses": 5657,
      "##meda": 5658,
      "investing": 5659,
      "latitudes": 5660,
      "attacking": 5661,
      "announ": 5662,
      "hotel": 5663,
      "packet": 5664,
      "foundational": 5665,
      "checked": 5666,
      "sellers": 5667,
      "emerg": 5668,
      "stationary": 5669,
      "##ooled": 5670,
      "secondary": 5671,
      "continent": 5672,
      "discord": 5673,
      "noneth": 5674,
      "slowed": 5675,
      "slowly": 5676,
      "elon": 5677,
      "elise": 5678,
      "gaming": 5679,
      "police": 5680,
      "accuracy": 5681,
      "effectively": 5682,
      "panic": 5683,
      "humanitys": 5684,
      "relent": 5685,
      "colon": 5686,
      "relevant": 5687,
      "loaded": 5688,
      "edit": 5689,
      "standards": 5690,
      "replacing": 5691,
      "marx": 5692,
      "economies": 5693,
      "padre": 5694,
      "utter": 5695,
      "requirement": 5696,
      "stronger": 5697,
      "touchdown": 5698,
      "studio": 5699,
      "movies": 5700,
      "impacts": 5701,
      "offered": 5702,
      "suspect": 5703,
      "achieves": 5704,
      "epa": 5705,
      "frames": 5706,
      "varies": 5707,
      "attemp": 5708,
      "answered": 5709,
      "nozzles": 5710,
      "connectivity": 5711,
      "smoking": 5712,
      "leaders": 5713,
      "floating": 5714,
      "##going": 5715,
      "surprise": 5716,
      "hydrophob": 5717,
      "bikes": 5718,
      "minimizes": 5719,
      "objective": 5720,
      "ignore": 5721,
      "viral": 5722,
      "adjusted": 5723,
      "walking": 5724,
      "contractors": 5725,
      "journalist": 5726,
      "charger": 5727,
      "sync": 5728,
      "approximation": 5729,
      "continued": 5730,
      "mistakes": 5731,
      "attacked": 5732,
      "measured": 5733,
      "##onymous": 5734,
      "remove": 5735,
      "500k": 5736,
      "audi": 5737,
      "forget": 5738,
      "##abilities": 5739,
      "martian": 5740,
      "streaming": 5741,
      "telemetry": 5742,
      "acceptable": 5743,
      "meaningful": 5744,
      "influ": 5745,
      "square": 5746,
      "swear": 5747,
      "wearing": 5748,
      "deserve": 5749,
      "confirmation": 5750,
      "business": 5751,
      "divers": 5752,
      "trolls": 5753,
      "rails": 5754,
      "exponentially": 5755,
      "simplify": 5756,
      "robotaxis": 5757,
      "asteroid": 5758,
      "halves": 5759,
      "split": 5760,
      "splash": 5761,
      "describe": 5762,
      "cookie": 5763,
      "viruses": 5764,
      "wiki": 5765,
      "earnings": 5766,
      "##ocracy": 5767,
      "inspiring": 5768,
      "exclus": 5769,
      "culture": 5770,
      "circum": 5771,
      "mcu": 5772,
      "invented": 5773,
      "burst": 5774,
      "jeff": 5775,
      "repeated": 5776,
      "convenience": 5777,
      "children": 5778,
      "discovered": 5779,
      "cabin": 5780,
      "exchang": 5781,
      "originally": 5782,
      "astronomy": 5783,
      "occupant": 5784,
      "rumor": 5785,
      "sleep": 5786,
      "statistics": 5787,
      "preburner": 5788,
      "explosion": 5789,
      "branding": 5790,
      "taxpayers": 5791,
      "biography": 5792,
      "menu": 5793,
      "platform": 5794,
      "superalloy": 5795,
      "rescue": 5796,
      "cautious": 5797,
      "apocalypse": 5798,
      "investigating": 5799,
      "damping": 5800,
      "george": 5801,
      "responsible": 5802,
      "curevac": 5803,
      "dialog": 5804,
      "mortality": 5805,
      "##structure": 5806,
      "trigger": 5807,
      "lobby": 5808,
      "apparently": 5809,
      "episode": 5810,
      "ridiculous": 5811,
      "felt": 5812,
      "vtol": 5813,
      "tragic": 5814,
      "rococo": 5815,
      "afternoon": 5816,
      "cryogenic": 5817,
      "synthetic": 5818,
      "theoretical": 5819,
      "bureau": 5820,
      "circle": 5821,
      "dignity": 5822,
      "fyi": 5823,
      "horses": 5824,
      "hidden": 5825,
      "krypton": 5826,
      "larry": 5827,
      "lidar": 5828,
      "nitrogen": 5829,
      "porsche": 5830,
      "telesc": 5831,
      "wisdom": 5832,
      "##hammer": 5833,
      "enormous": 5834,
      "envelope": 5835,
      "chassis": 5836,
      "chrysler": 5837,
      "thereafter": 5838,
      "knowledge": 5839,
      "suborbital": 5840,
      "trajectory": 5841,
      "retrospect": 5842,
      "paradox": 5843,
      "autobahn": 5844,
      "nonetheless": 5845,
      "hydrophobic": 5846,
      "16": 5847,
      "2500": 5848,
      "39": 5849,
      "37": 5850,
      "ala": 5851,
      "bday": 5852,
      "bang": 5853,
      "cn": 5854,
      "cig": 5855,
      "cous": 5856,
      "cup": 5857,
      "der": 5858,
      "dow": 5859,
      "dust": 5860,
      "dru": 5861,
      "dirt": 5862,
      "et": 5863,
      "eber": 5864,
      "fab": 5865,
      "fud": 5866,
      "fps": 5867,
      "gw": 5868,
      "gard": 5869,
      "gho": 5870,
      "hh": 5871,
      "hide": 5872,
      "hats": 5873,
      "hrs": 5874,
      "ipo": 5875,
      "jon": 5876,
      "jun": 5877,
      "lb": 5878,
      "lou": 5879,
      "lap": 5880,
      "loud": 5881,
      "langu": 5882,
      "mw": 5883,
      "mild": 5884,
      "nap": 5885,
      "nich": 5886,
      "nik": 5887,
      "pace": 5888,
      "pink": 5889,
      "pour": 5890,
      "p85": 5891,
      "ram": 5892,
      "sain": 5893,
      "ts": 5894,
      "till": 5895,
      "tend": 5896,
      "tick": 5897,
      "uf": 5898,
      "vr": 5899,
      "vul": 5900,
      "wip": 5901,
      "wiring": 5902,
      "yield": 5903,
      "zer": 5904,
      "##vative": 5905,
      "##eg": 5906,
      "##ray": 5907,
      "##iant": 5908,
      "##ses": 5909,
      "##sight": 5910,
      "##pri": 5911,
      "##uf": 5912,
      "##uct": 5913,
      "##nels": 5914,
      "##gon": 5915,
      "##gre": 5916,
      "##gment": 5917,
      "##lig": 5918,
      "##backs": 5919,
      "##oon": 5920,
      "##mark": 5921,
      "##hoo": 5922,
      "##here": 5923,
      "##hood": 5924,
      "##house": 5925,
      "##fire": 5926,
      "##finder": 5927,
      "##war": 5928,
      "##wood": 5929,
      "##watt": 5930,
      "##30": 5931,
      "##erry": 5932,
      "##inery": 5933,
      "##esp": 5934,
      "##onic": 5935,
      "##onge": 5936,
      "##orical": 5937,
      "##atr": 5938,
      "##atory": 5939,
      "##anese": 5940,
      "tours": 5941,
      "##ourage": 5942,
      "##eden": 5943,
      "##edia": 5944,
      "##real": 5945,
      "##sts": 5946,
      "inac": 5947,
      "inher": 5948,
      "inner": 5949,
      "inches": 5950,
      "##icip": 5951,
      "##lee": 5952,
      "##ley": 5953,
      "##leet": 5954,
      "begging": 5955,
      "##vember": 5956,
      "rein": 5957,
      "fort": 5958,
      "soc": 5959,
      "sooo": 5960,
      "##illiant": 5961,
      "stro": 5962,
      "staged": 5963,
      "stiff": 5964,
      "coat": 5965,
      "coach": 5966,
      "cobal": 5967,
      "anonymous": 5968,
      "wealth": 5969,
      "##elming": 5970,
      "whos": 5971,
      "##adow": 5972,
      "##aday": 5973,
      "##adily": 5974,
      "##urative": 5975,
      "neur": 5976,
      "prove": 5977,
      "proper": 5978,
      "sudd": 5979,
      "moments": 5980,
      "trim": 5981,
      "trash": 5982,
      "shes": 5983,
      "shell": 5984,
      "shear": 5985,
      "shadow": 5986,
      "##optim": 5987,
      "noting": 5988,
      "notable": 5989,
      "lies": 5990,
      "liber": 5991,
      "##ereum": 5992,
      "##unt": 5993,
      "dod": 5994,
      "domes": 5995,
      "orient": 5996,
      "orgs": 5997,
      "spi": 5998,
      "spring": 5999,
      "asy": 6000,
      "alar": 6001,
      "##ession": 6002,
      "deorbit": 6003,
      "conting": 6004,
      "##ulpt": 6005,
      "chad": 6006,
      "champ": 6007,
      "chief": 6008,
      "abl": 6009,
      "##rastructure": 6010,
      "##ipedia": 6011,
      "alloys": 6012,
      "november": 6013,
      "unp": 6014,
      "unw": 6015,
      "##rian": 6016,
      "complic": 6017,
      "compiler": 6018,
      "gods": 6019,
      "##oses": 6020,
      "##osoph": 6021,
      "caraoke": 6022,
      "carrier": 6023,
      "heh": 6024,
      "##ifies": 6025,
      "highways": 6026,
      "comet": 6027,
      "sail": 6028,
      "saved": 6029,
      "lox": 6030,
      "outages": 6031,
      "outfit": 6032,
      "outstanding": 6033,
      "myth": 6034,
      "##amination": 6035,
      "##izations": 6036,
      "adap": 6037,
      "bud": 6038,
      "buzz": 6039,
      "acts": 6040,
      "tears": 6041,
      "lev": 6042,
      "ourselves": 6043,
      "overp": 6044,
      "overhe": 6045,
      "flip": 6046,
      "flint": 6047,
      "workers": 6048,
      "peoples": 6049,
      "prev": 6050,
      "preference": 6051,
      "loose": 6052,
      "descent": 6053,
      "##ntown": 6054,
      "yours": 6055,
      "percent": 6056,
      "##uded": 6057,
      "intuitive": 6058,
      "accounting": 6059,
      "resume": 6060,
      "thanksgi": 6061,
      "##peed": 6062,
      "crane": 6063,
      "served": 6064,
      "##owner": 6065,
      "knock": 6066,
      "knew": 6067,
      "bob": 6068,
      "boats": 6069,
      "speech": 6070,
      "smarter": 6071,
      "backpack": 6072,
      "awe": 6073,
      "award": 6074,
      "recru": 6075,
      "underwe": 6076,
      "underrated": 6077,
      "##angel": 6078,
      "##angers": 6079,
      "airplan": 6080,
      "sculpt": 6081,
      "regional": 6082,
      "builds": 6083,
      "buildings": 6084,
      "adds": 6085,
      "lovely": 6086,
      "sledge": 6087,
      "dayquil": 6088,
      "obt": 6089,
      "snl": 6090,
      "sn9": 6091,
      "snail": 6092,
      "insert": 6093,
      "inspiration": 6094,
      "electrical": 6095,
      "inde": 6096,
      "offset": 6097,
      "##ago": 6098,
      "downward": 6099,
      "faraday": 6100,
      "artists": 6101,
      "delight": 6102,
      "heavily": 6103,
      "pressurized": 6104,
      "paying": 6105,
      "transmit": 6106,
      "transpiration": 6107,
      "bloo": 6108,
      "possibility": 6109,
      "strate": 6110,
      "shortages": 6111,
      "hod": 6112,
      "host": 6113,
      "holly": 6114,
      "signature": 6115,
      "##azilla": 6116,
      "calls": 6117,
      "suboptim": 6118,
      "leaked": 6119,
      "missile": 6120,
      "evolution": 6121,
      "generates": 6122,
      "metap": 6123,
      "meteor": 6124,
      "steven": 6125,
      "steadily": 6126,
      "##ressing": 6127,
      "throughput": 6128,
      "retire": 6129,
      "retired": 6130,
      "wherever": 6131,
      "invited": 6132,
      "bored": 6133,
      "brilliant": 6134,
      "corona": 6135,
      "paran": 6136,
      "paris": 6137,
      "gigawatt": 6138,
      "refers": 6139,
      "refuel": 6140,
      "planes": 6141,
      "decre": 6142,
      "starlinks": 6143,
      "skins": 6144,
      "sketch": 6145,
      "lowering": 6146,
      "brag": 6147,
      "brave": 6148,
      "personnel": 6149,
      "merc": 6150,
      "fog": 6151,
      "tonnage": 6152,
      "warrant": 6153,
      "closely": 6154,
      "player": 6155,
      "headline": 6156,
      "##while": 6157,
      "##whelming": 6158,
      "sustained": 6159,
      "tempting": 6160,
      "ownership": 6161,
      "swipe": 6162,
      "sweden": 6163,
      "homeowner": 6164,
      "ironic": 6165,
      "datab": 6166,
      "reviews": 6167,
      "reviewed": 6168,
      "reaches": 6169,
      "literal": 6170,
      "holders": 6171,
      "creative": 6172,
      "restaur": 6173,
      "restrict": 6174,
      "carefully": 6175,
      "buyer": 6176,
      "customized": 6177,
      "drove": 6178,
      "emeral": 6179,
      "presum": 6180,
      "considerably": 6181,
      "priorit": 6182,
      "disclos": 6183,
      "distances": 6184,
      "infrastructure": 6185,
      "journo": 6186,
      "markets": 6187,
      "related": 6188,
      "colony": 6189,
      "fails": 6190,
      "salt": 6191,
      "stored": 6192,
      "logic": 6193,
      "manufacture": 6194,
      "toughest": 6195,
      "damaged": 6196,
      "assess": 6197,
      "requirements": 6198,
      "glove": 6199,
      "debris": 6200,
      "autonav": 6201,
      "strongest": 6202,
      "linear": 6203,
      "unveiling": 6204,
      "governor": 6205,
      "records": 6206,
      "impression": 6207,
      "spacesuit": 6208,
      "herbert": 6209,
      "achievable": 6210,
      "fraud": 6211,
      "various": 6212,
      "ideally": 6213,
      "connector": 6214,
      "mk3": 6215,
      "predic": 6216,
      "avoidance": 6217,
      "figurative": 6218,
      "mountain": 6219,
      "mechazilla": 6220,
      "quarks": 6221,
      "floki": 6222,
      "profit": 6223,
      "alto": 6224,
      "tells": 6225,
      "telling": 6226,
      "surprised": 6227,
      "shots": 6228,
      "devices": 6229,
      "activity": 6230,
      "pumps": 6231,
      "steps": 6232,
      "unelect": 6233,
      "ignite": 6234,
      "ignition": 6235,
      "weirdly": 6236,
      "printer": 6237,
      "arrive": 6238,
      "arriving": 6239,
      "candid": 6240,
      "occur": 6241,
      "pathfinder": 6242,
      "journalism": 6243,
      "mechanically": 6244,
      "mechanics": 6245,
      "immediate": 6246,
      "picked": 6247,
      "riding": 6248,
      "synd": 6249,
      "synch": 6250,
      "signals": 6251,
      "##place": 6252,
      "welded": 6253,
      "arrays": 6254,
      "community": 6255,
      "castle": 6256,
      "momentum": 6257,
      "drama": 6258,
      "extended": 6259,
      "routing": 6260,
      "carrying": 6261,
      "plants": 6262,
      "nns": 6263,
      "removed": 6264,
      "removal": 6265,
      "explained": 6266,
      "switching": 6267,
      "audio": 6268,
      "audience": 6269,
      "parked": 6270,
      "rotor": 6271,
      "rotation": 6272,
      "##oleon": 6273,
      "approaching": 6274,
      "50k": 6275,
      "martin": 6276,
      "martians": 6277,
      "uhh": 6278,
      "projects": 6279,
      "excessive": 6280,
      "convincing": 6281,
      "prevented": 6282,
      "frankly": 6283,
      "apogee": 6284,
      "constraint": 6285,
      "constrained": 6286,
      "turbopumps": 6287,
      "natural": 6288,
      "walls": 6289,
      "encourage": 6290,
      "shutdown": 6291,
      "buggy": 6292,
      "politicians": 6293,
      "variants": 6294,
      "penn": 6295,
      "penalty": 6296,
      "street": 6297,
      "shifting": 6298,
      "vaccine": 6299,
      "frequency": 6300,
      "principles": 6301,
      "ethereum": 6302,
      "halo": 6303,
      "tools": 6304,
      "deleting": 6305,
      "delete": 6306,
      "described": 6307,
      "fatal": 6308,
      "fatig": 6309,
      "vibe": 6310,
      "converts": 6311,
      "converted": 6312,
      "chanos": 6313,
      "channels": 6314,
      "unreason": 6315,
      "method": 6316,
      "collective": 6317,
      "faceboo": 6318,
      "housing": 6319,
      "psi": 6320,
      "psy": 6321,
      "wikipedia": 6322,
      "philosoph": 6323,
      "brightness": 6324,
      "mcgre": 6325,
      "inconel": 6326,
      "##ropy": 6327,
      "committed": 6328,
      "printing": 6329,
      "contribution": 6330,
      "opportunities": 6331,
      "mothers": 6332,
      "rhd": 6333,
      "induction": 6334,
      "spoken": 6335,
      "convenient": 6336,
      "temporary": 6337,
      "tvc": 6338,
      "tuned": 6339,
      "adults": 6340,
      "drawing": 6341,
      "grandfather": 6342,
      "megapack": 6343,
      "megapacks": 6344,
      "fp32": 6345,
      "palo": 6346,
      "compensation": 6347,
      "permanent": 6348,
      "intentionally": 6349,
      "pyramid": 6350,
      "execution": 6351,
      "galact": 6352,
      "sedan": 6353,
      "weapons": 6354,
      "trials": 6355,
      "nominal": 6356,
      "romance": 6357,
      "merkin": 6358,
      "distracted": 6359,
      "analysts": 6360,
      "manufacturers": 6361,
      "tariff": 6362,
      "tintin": 6363,
      "enemy": 6364,
      "algorithm": 6365,
      "practical": 6366,
      "douglas": 6367,
      "throttling": 6368,
      "podcasts": 6369,
      "monopolies": 6370,
      "unequivocally": 6371,
      "lanes": 6372,
      "taycan": 6373,
      "##iliar": 6374,
      "scratch": 6375,
      "scenar": 6376,
      "transparent": 6377,
      "branch": 6378,
      "illustrate": 6379,
      "trademark": 6380,
      "buffett": 6381,
      "monopoly": 6382,
      "fruit": 6383,
      "slam": 6384,
      "tonga": 6385,
      "woohoo": 6386,
      "coffee": 6387,
      "ashlee": 6388,
      "exposure": 6389,
      "futuristic": 6390,
      "instrument": 6391,
      "emergency": 6392,
      "splashdown": 6393,
      "alameda": 6394,
      "downtown": 6395,
      "eberh": 6396,
      "gwyn": 6397,
      "ghost": 6398,
      "napoleon": 6399,
      "nikola": 6400,
      "saints": 6401,
      "vulner": 6402,
      "inaccur": 6403,
      "cobalt": 6404,
      "sudden": 6405,
      "godspeed": 6406,
      "thanksgiving": 6407,
      "airplanes": 6408,
      "sledgehammer": 6409,
      "hollywood": 6410,
      "suboptimal": 6411,
      "warranty": 6412,
      "unelected": 6413,
      "facebook": 6414,
      "mcgregor": 6415,
      "1k": 6416,
      "18": 6417,
      "22": 6418,
      "3k": 6419,
      "380": 6420,
      "70": 6421,
      "7500": 6422,
      "bm": 6423,
      "bed": 6424,
      "bac": 6425,
      "bow": 6426,
      "bul": 6427,
      "barg": 6428,
      "batch": 6429,
      "batt": 6430,
      "bomb": 6431,
      "biden": 6432,
      "ct": 6433,
      "coun": 6434,
      "cord": 6435,
      "cards": 6436,
      "dice": 6437,
      "dance": 6438,
      "dise": 6439,
      "dick": 6440,
      "dank": 6441,
      "duration": 6442,
      "fought": 6443,
      "fda": 6444,
      "gap": 6445,
      "gend": 6446,
      "gpt": 6447,
      "gates": 6448,
      "gwh": 6449,
      "grief": 6450,
      "hill": 6451,
      "hack": 6452,
      "hert": 6453,
      "hitch": 6454,
      "hallow": 6455,
      "iphone": 6456,
      "jay": 6457,
      "jaz": 6458,
      "kern": 6459,
      "ly": 6460,
      "mac": 6461,
      "mang": 6462,
      "mason": 6463,
      "mature": 6464,
      "mug": 6465,
      "muff": 6466,
      "n1": 6467,
      "nail": 6468,
      "ow": 6469,
      "pin": 6470,
      "ple": 6471,
      "pas": 6472,
      "pist": 6473,
      "pays": 6474,
      "pool": 6475,
      "rp": 6476,
      "ran": 6477,
      "rpm": 6478,
      "sars": 6479,
      "sant": 6480,
      "sale": 6481,
      "sides": 6482,
      "tern": 6483,
      "tik": 6484,
      "umm": 6485,
      "vig": 6486,
      "vance": 6487,
      "vital": 6488,
      "wan": 6489,
      "wars": 6490,
      "xav": 6491,
      "yer": 6492,
      "zillion": 6493,
      "zee": 6494,
      "zeal": 6495,
      "##dam": 6496,
      "##vestream": 6497,
      "##efficient": 6498,
      "##rit": 6499,
      "##rid": 6500,
      "##rating": 6501,
      "##tes": 6502,
      "##test": 6503,
      "##ias": 6504,
      "##ila": 6505,
      "##sing": 6506,
      "##pap": 6507,
      "##uh": 6508,
      "##gu": 6509,
      "##gin": 6510,
      "##get": 6511,
      "##gun": 6512,
      "##lists": 6513,
      "##lands": 6514,
      "##bons": 6515,
      "##bble": 6516,
      "##borne": 6517,
      "##od": 6518,
      "##ox": 6519,
      "##mer": 6520,
      "##more": 6521,
      "##map": 6522,
      "##matic": 6523,
      "##mmetry": 6524,
      "##mbled": 6525,
      "##aking": 6526,
      "##hol": 6527,
      "##za": 6528,
      "##ye": 6529,
      "##fast": 6530,
      "##fleet": 6531,
      "##cer": 6532,
      "##car": 6533,
      "##cis": 6534,
      "##ky": 6535,
      "thor": 6536,
      "##inj": 6537,
      "##esh": 6538,
      "##ori": 6539,
      "##ata": 6540,
      "##atz": 6541,
      "##atics": 6542,
      "##arl": 6543,
      "##arks": 6544,
      "##argh": 6545,
      "##arian": 6546,
      "##lled": 6547,
      "todays": 6548,
      "##ouri": 6549,
      "##eness": 6550,
      "##enance": 6551,
      "theater": 6552,
      "##iters": 6553,
      "##itute": 6554,
      "##rej": 6555,
      "##ston": 6556,
      "##stop": 6557,
      "##alop": 6558,
      "##rome": 6559,
      "##room": 6560,
      "##roph": 6561,
      "##ico": 6562,
      "##ication": 6563,
      "##lex": 6564,
      "##lection": 6565,
      "##lement": 6566,
      "##lets": 6567,
      "##utal": 6568,
      "bell": 6569,
      "beam": 6570,
      "beach": 6571,
      "##ionally": 6572,
      "##igs": 6573,
      "##acopter": 6574,
      "##isk": 6575,
      "##isms": 6576,
      "rech": 6577,
      "recharg": 6578,
      "regress": 6579,
      "revers": 6580,
      "reaction": 6581,
      "##oted": 6582,
      "##otic": 6583,
      "##otainment": 6584,
      "forum": 6585,
      "##eto": 6586,
      "##ety": 6587,
      "##eted": 6588,
      "##eters": 6589,
      "##etric": 6590,
      "##ette": 6591,
      "soph": 6592,
      "onboard": 6593,
      "stal": 6594,
      "stow": 6595,
      "##owers": 6596,
      "cob": 6597,
      "coaster": 6598,
      "coefficient": 6599,
      "anarch": 6600,
      "##ctim": 6601,
      "willing": 6602,
      "##ela": 6603,
      "##idays": 6604,
      "##idium": 6605,
      "whist": 6606,
      "##launch": 6607,
      "neu": 6608,
      "prox": 6609,
      "proving": 6610,
      "suff": 6611,
      "##irrel": 6612,
      "youve": 6613,
      "hamm": 6614,
      "##sell": 6615,
      "trun": 6616,
      "train": 6617,
      "trade": 6618,
      "##ilers": 6619,
      "##ilisk": 6620,
      "enr": 6621,
      "shed": 6622,
      "shap": 6623,
      "exha": 6624,
      "##opes": 6625,
      "noted": 6626,
      "lif": 6627,
      "limb": 6628,
      "livestream": 6629,
      "##abit": 6630,
      "atv": 6631,
      "doc": 6632,
      "doct": 6633,
      "##eaking": 6634,
      "spect": 6635,
      "sponge": 6636,
      "aspire": 6637,
      "sex": 6638,
      "seater": 6639,
      "sexy": 6640,
      "conference": 6641,
      "##ulator": 6642,
      "choc": 6643,
      "andro": 6644,
      "andrej": 6645,
      "root": 6646,
      "roaming": 6647,
      "unimp": 6648,
      "unbel": 6649,
      "##rix": 6650,
      "meal": 6651,
      "##umber": 6652,
      "composite": 6653,
      "##osph": 6654,
      "carried": 6655,
      "##using": 6656,
      "yellow": 6657,
      "imped": 6658,
      "impulse": 6659,
      "highlight": 6660,
      "modes": 6661,
      "usb": 6662,
      "samp": 6663,
      "##acker": 6664,
      "##omo": 6665,
      "##ometer": 6666,
      "outdo": 6667,
      "outlets": 6668,
      "hashing": 6669,
      "betting": 6670,
      "pls": 6671,
      "theyve": 6672,
      "producing": 6673,
      "##itement": 6674,
      "admit": 6675,
      "adams": 6676,
      "anytime": 6677,
      "timeline": 6678,
      "autoc": 6679,
      "acting": 6680,
      "ours": 6681,
      "pose": 6682,
      "pock": 6683,
      "poem": 6684,
      "##ption": 6685,
      "##ques": 6686,
      "##quila": 6687,
      "overse": 6688,
      "overarch": 6689,
      "oversight": 6690,
      "overwhelming": 6691,
      "pearl": 6692,
      "flown": 6693,
      "flush": 6694,
      "##cond": 6695,
      "tail": 6696,
      "taught": 6697,
      "newton": 6698,
      "##ibration": 6699,
      "verb": 6700,
      "superpower": 6701,
      "preval": 6702,
      "description": 6703,
      "actuator": 6704,
      "interst": 6705,
      "longitud": 6706,
      "intact": 6707,
      "intub": 6708,
      "##00km": 6709,
      "content": 6710,
      "contest": 6711,
      "lotus": 6712,
      "powerpack": 6713,
      "quote": 6714,
      "quotes": 6715,
      "rights": 6716,
      "expense": 6717,
      "craters": 6718,
      "serves": 6719,
      "functions": 6720,
      "syd": 6721,
      "designing": 6722,
      "couldn": 6723,
      "smashed": 6724,
      "pointless": 6725,
      "club": 6726,
      "awa": 6727,
      "awful": 6728,
      "election": 6729,
      "element": 6730,
      "underest": 6731,
      "extinction": 6732,
      "airpl": 6733,
      "boom": 6734,
      "scar": 6735,
      "scroll": 6736,
      "knowing": 6737,
      "capit": 6738,
      "regime": 6739,
      "owns": 6740,
      "owned": 6741,
      "finest": 6742,
      "starman": 6743,
      "starfleet": 6744,
      "cooled": 6745,
      "electron": 6746,
      "sneak": 6747,
      "insulation": 6748,
      "cake": 6749,
      "##iverse": 6750,
      "autopark": 6751,
      "offers": 6752,
      "##orders": 6753,
      "##bling": 6754,
      "cures": 6755,
      "##encing": 6756,
      "payments": 6757,
      "helped": 6758,
      "transmission": 6759,
      "joints": 6760,
      "blown": 6761,
      "maxwell": 6762,
      "shortage": 6763,
      "supportive": 6764,
      "holy": 6765,
      "signing": 6766,
      "roadmap": 6767,
      "technolog": 6768,
      "evil": 6769,
      "basilisk": 6770,
      "trapped": 6771,
      "confusing": 6772,
      "generally": 6773,
      "metall": 6774,
      "steal": 6775,
      "steve": 6776,
      "steady": 6777,
      "survey": 6778,
      "depot": 6779,
      "incremental": 6780,
      "##erto": 6781,
      "retest": 6782,
      "retwe": 6783,
      "retains": 6784,
      "productive": 6785,
      "invite": 6786,
      "border": 6787,
      "somethings": 6788,
      "brutal": 6789,
      "correl": 6790,
      "corruption": 6791,
      "secure": 6792,
      "calibration": 6793,
      "##wee": 6794,
      "manual": 6795,
      "manually": 6796,
      "taxi": 6797,
      "taxing": 6798,
      "talula": 6799,
      "limitation": 6800,
      "fixes": 6801,
      "skip": 6802,
      "skirt": 6803,
      "flag": 6804,
      "##aken": 6805,
      "operates": 6806,
      "prime": 6807,
      "simplic": 6808,
      "summar": 6809,
      "entr": 6810,
      "entropy": 6811,
      "critique": 6812,
      "##gged": 6813,
      "##ggle": 6814,
      "clearing": 6815,
      "merger": 6816,
      "setbacks": 6817,
      "##faction": 6818,
      "rises": 6819,
      "warren": 6820,
      "donated": 6821,
      "donating": 6822,
      "excitement": 6823,
      "heads": 6824,
      "headlight": 6825,
      "detection": 6826,
      "locally": 6827,
      "sustainability": 6828,
      "temps": 6829,
      "stands": 6830,
      "competitor": 6831,
      "sunset": 6832,
      "autoste": 6833,
      "tunneling": 6834,
      "gto": 6835,
      "wake": 6836,
      "reviewing": 6837,
      "##pective": 6838,
      "expects": 6839,
      "expectancy": 6840,
      "optimus": 6841,
      "holds": 6842,
      "holder": 6843,
      "brother": 6844,
      "reasoning": 6845,
      "reasonably": 6846,
      "attacks": 6847,
      "restored": 6848,
      "career": 6849,
      "payloads": 6850,
      "questionable": 6851,
      "forms": 6852,
      "seller": 6853,
      "goals": 6854,
      "customs": 6855,
      "upgradable": 6856,
      "handful": 6857,
      "dealing": 6858,
      "correctly": 6859,
      "recommendation": 6860,
      "infotainment": 6861,
      "returning": 6862,
      "##avir": 6863,
      "panel": 6864,
      "runs": 6865,
      "10m": 6866,
      "dave": 6867,
      "destruction": 6868,
      "reducing": 6869,
      "baseball": 6870,
      "painful": 6871,
      "painted": 6872,
      "logo": 6873,
      "edgy": 6874,
      "edition": 6875,
      "editor": 6876,
      "civilian": 6877,
      "diap": 6878,
      "specs": 6879,
      "burning": 6880,
      "angels": 6881,
      "angeles": 6882,
      "affecting": 6883,
      "sheet": 6884,
      "sheets": 6885,
      "suggesting": 6886,
      "iridium": 6887,
      "labs": 6888,
      "touching": 6889,
      "touched": 6890,
      "touchsc": 6891,
      "unveiled": 6892,
      "equally": 6893,
      "equation": 6894,
      "##ralized": 6895,
      "connection": 6896,
      "subsonic": 6897,
      "##ception": 6898,
      "concl": 6899,
      "concent": 6900,
      "popular": 6901,
      "begun": 6902,
      "marketing": 6903,
      "herz": 6904,
      "tbd": 6905,
      "provides": 6906,
      "blocks": 6907,
      "blocked": 6908,
      "misunder": 6909,
      "musk": 6910,
      "cleaning": 6911,
      "mentioning": 6912,
      "smoother": 6913,
      "leading": 6914,
      "triple": 6915,
      "trickier": 6916,
      "trickery": 6917,
      "birds": 6918,
      "grows": 6919,
      "profess": 6920,
      "profitable": 6921,
      "classic": 6922,
      "names": 6923,
      "magnetic": 6924,
      "requests": 6925,
      "announcements": 6926,
      "hydrocar": 6927,
      "bias": 6928,
      "biological": 6929,
      "hw1": 6930,
      "entering": 6931,
      "devil": 6932,
      "##licit": 6933,
      "promin": 6934,
      "promise": 6935,
      "promote": 6936,
      "demograph": 6937,
      "igniters": 6938,
      "jammed": 6939,
      "millinery": 6940,
      "illeg": 6941,
      "##mberg": 6942,
      "occas": 6943,
      "processes": 6944,
      "affordability": 6945,
      "holidays": 6946,
      "rarely": 6947,
      "##ospace": 6948,
      "advertise": 6949,
      "castings": 6950,
      "doom": 6951,
      "nuke": 6952,
      "externally": 6953,
      "mega": 6954,
      "megat": 6955,
      "interviews": 6956,
      "harm": 6957,
      "harness": 6958,
      "particular": 6959,
      "particulate": 6960,
      "individuals": 6961,
      "killed": 6962,
      "removing": 6963,
      "flux": 6964,
      "explains": 6965,
      "joining": 6966,
      "5000": 6967,
      "fools": 6968,
      "judic": 6969,
      "rotate": 6970,
      "healthy": 6971,
      "financially": 6972,
      "licensing": 6973,
      "maintenance": 6974,
      "cyclists": 6975,
      "survive": 6976,
      "scientist": 6977,
      "scientific": 6978,
      "challenging": 6979,
      "loses": 6980,
      "title": 6981,
      "authority": 6982,
      "teleport": 6983,
      "controlling": 6984,
      "inflatable": 6985,
      "120": 6986,
      "squirrel": 6987,
      "excession": 6988,
      "carmaker": 6989,
      "sequel": 6990,
      "ambien": 6991,
      "immense": 6992,
      "immune": 6993,
      "shifts": 6994,
      "assembled": 6995,
      "frequently": 6996,
      "fictional": 6997,
      "shops": 6998,
      "2000": 6999,
      "melt": 7000,
      "melting": 7001,
      "matches": 7002,
      "referral": 7003,
      "copv": 7004,
      "conversations": 7005,
      "##ammers": 7006,
      "crushed": 7007,
      "hypoth": 7008,
      "employee": 7009,
      "emojis": 7010,
      "glitch": 7011,
      "sanctim": 7012,
      "senate": 7013,
      "senior": 7014,
      "voting": 7015,
      "voters": 7016,
      "hexacopter": 7017,
      "elevators": 7018,
      "simultaneous": 7019,
      "reflective": 7020,
      "skillz": 7021,
      "stopping": 7022,
      "esthetic": 7023,
      "characters": 7024,
      "treating": 7025,
      "johnson": 7026,
      "purple": 7027,
      "dinner": 7028,
      "karaoke": 7029,
      "makers": 7030,
      "preferred": 7031,
      "capture": 7032,
      "captured": 7033,
      "consistent": 7034,
      "queen": 7035,
      "tuning": 7036,
      "viol": 7037,
      "spaceports": 7038,
      "intersect": 7039,
      "intersections": 7040,
      "insightful": 7041,
      "masks": 7042,
      "sandy": 7043,
      "items": 7044,
      "compensate": 7045,
      "pucker": 7046,
      "recognition": 7047,
      "scores": 7048,
      "believing": 7049,
      "detected": 7050,
      "pyramids": 7051,
      "ariane": 7052,
      "breathing": 7053,
      "moral": 7054,
      "perspective": 7055,
      "waste": 7056,
      "thickness": 7057,
      "unusually": 7058,
      "bumper": 7059,
      "endorsements": 7060,
      "franz": 7061,
      "decentralized": 7062,
      "remotely": 7063,
      "experienced": 7064,
      "programmed": 7065,
      "bbc": 7066,
      "korea": 7067,
      "lunar": 7068,
      "merely": 7069,
      "sx500": 7070,
      "wrapped": 7071,
      "toyota": 7072,
      "injector": 7073,
      "choosing": 7074,
      "conservative": 7075,
      "redundant": 7076,
      "declined": 7077,
      "remarkable": 7078,
      "maneuvering": 7079,
      "staggeringly": 7080,
      "aerospace": 7081,
      "barely": 7082,
      "gentrif": 7083,
      "mentions": 7084,
      "toilet": 7085,
      "savings": 7086,
      "override": 7087,
      "introdu": 7088,
      "earthquake": 7089,
      "inspection": 7090,
      "guardians": 7091,
      "substant": 7092,
      "honestly": 7093,
      "configurator": 7094,
      "uncertainty": 7095,
      "citizen": 7096,
      "proportionate": 7097,
      "diagon": 7098,
      "gatherings": 7099,
      "mandate": 7100,
      "prav": 7101,
      "pixels": 7102,
      "throat": 7103,
      "inhibit": 7104,
      "reveal": 7105,
      "neutral": 7106,
      "spooling": 7107,
      "complac": 7108,
      "explode": 7109,
      "paradise": 7110,
      "automakers": 7111,
      "splitting": 7112,
      "dialogue": 7113,
      "language": 7114,
      "p85d": 7115,
      "zeroth": 7116,
      "stiffness": 7117,
      "neurons": 7118,
      "complicated": 7119,
      "bloomberg": 7120,
      "metaphor": 7121,
      "paranoid": 7122,
      "restaurant": 7123,
      "restrictions": 7124,
      "emerald": 7125,
      "presumably": 7126,
      "fatigue": 7127,
      "tariffs": 7128,
      "inaccurate": 7129,
      "bmw": 7130,
      "counc": 7131,
      "hertz": 7132,
      "jazz": 7133,
      "kernel": 7134,
      "santa": 7135,
      "ternary": 7136,
      "wanna": 7137,
      "xavier": 7138,
      "zealand": 7139,
      "thorough": 7140,
      "whistle": 7141,
      "exhaust": 7142,
      "limbic": 7143,
      "overarching": 7144,
      "longitudinal": 7145,
      "airplane": 7146,
      "talulah": 7147,
      "touchscreen": 7148,
      "hydrocarbons": 7149,
      "1m": 7150,
      "17": 7151,
      "180": 7152,
      "21": 7153,
      "27": 7154,
      "230": 7155,
      "45": 7156,
      "42": 7157,
      "5b": 7158,
      "550": 7159,
      "600": 7160,
      "ax": 7161,
      "a3": 7162,
      "aft": 7163,
      "bound": 7164,
      "bach": 7165,
      "bind": 7166,
      "bak": 7167,
      "blad": 7168,
      "brian": 7169,
      "cort": 7170,
      "cpu": 7171,
      "dar": 7172,
      "dot": 7173,
      "dur": 7174,
      "dish": 7175,
      "dane": 7176,
      "duck": 7177,
      "dude": 7178,
      "dash": 7179,
      "dainty": 7180,
      "ell": 7181,
      "eld": 7182,
      "era": 7183,
      "edu": 7184,
      "ease": 7185,
      "egy": 7186,
      "eric": 7187,
      "ego": 7188,
      "fb": 7189,
      "fid": 7190,
      "fist": 7191,
      "fry": 7192,
      "fans": 7193,
      "gp": 7194,
      "gate": 7195,
      "gant": 7196,
      "gaps": 7197,
      "gift": 7198,
      "hp": 7199,
      "hen": 7200,
      "hip": 7201,
      "hire": 7202,
      "hmm": 7203,
      "honey": 7204,
      "heres": 7205,
      "hedge": 7206,
      "hinge": 7207,
      "hacked": 7208,
      "irel": 7209,
      "jars": 7210,
      "jared": 7211,
      "kit": 7212,
      "kel": 7213,
      "kest": 7214,
      "kong": 7215,
      "kath": 7216,
      "lh": 7217,
      "lmp": 7218,
      "lunch": 7219,
      "laps": 7220,
      "mut": 7221,
      "mall": 7222,
      "mri": 7223,
      "mord": 7224,
      "mitch": 7225,
      "nk": 7226,
      "nested": 7227,
      "ooh": 7228,
      "pa": 7229,
      "pip": 7230,
      "purs": 7231,
      "rust": 7232,
      "rings": 7233,
      "raz": 7234,
      "rural": 7235,
      "rico": 7236,
      "si": 7237,
      "sq": 7238,
      "s3": 7239,
      "sst": 7240,
      "sas": 7241,
      "sac": 7242,
      "sight": 7243,
      "slo": 7244,
      "sque": 7245,
      "ti": 7246,
      "tin": 7247,
      "tea": 7248,
      "tied": 7249,
      "tends": 7250,
      "tension": 7251,
      "tub": 7252,
      "vf": 7253,
      "v7": 7254,
      "vess": 7255,
      "vap": 7256,
      "vents": 7257,
      "wine": 7258,
      "zen": 7259,
      "zill": 7260,
      "zoo": 7261,
      "zomb": 7262,
      "##dp": 7263,
      "##dies": 7264,
      "##diver": 7265,
      "##vo": 7266,
      "##vision": 7267,
      "##vlar": 7268,
      "##een": 7269,
      "##eks": 7270,
      "##eper": 7271,
      "##eze": 7272,
      "##ran": 7273,
      "##rum": 7274,
      "##rite": 7275,
      "##rational": 7276,
      "##ratr": 7277,
      "##tag": 7278,
      "##iation": 7279,
      "##iate": 7280,
      "##ieter": 7281,
      "##sp": 7282,
      "##ship": 7283,
      "##pad": 7284,
      "##pone": 7285,
      "##uk": 7286,
      "##uj": 7287,
      "##uits": 7288,
      "##ueto": 7289,
      "##nect": 7290,
      "##nish": 7291,
      "##gl": 7292,
      "##g2": 7293,
      "##gar": 7294,
      "##gers": 7295,
      "##lay": 7296,
      "##bc": 7297,
      "##bum": 7298,
      "##bia": 7299,
      "##bability": 7300,
      "##oes": 7301,
      "##och": 7302,
      "##oil": 7303,
      "##oks": 7304,
      "##oqu": 7305,
      "##ods": 7306,
      "##ody": 7307,
      "##ael": 7308,
      "##aware": 7309,
      "##hen": 7310,
      "##hill": 7311,
      "##zil": 7312,
      "##fa": 7313,
      "##fers": 7314,
      "##fits": 7315,
      "##cd": 7316,
      "##cla": 7317,
      "##cure": 7318,
      "##case": 7319,
      "##kk": 7320,
      "##ker": 7321,
      "##katch": 7322,
      "##will": 7323,
      "##erly": 7324,
      "##inter": 7325,
      "##inations": 7326,
      "##onious": 7327,
      "##onavir": 7328,
      "##ora": 7329,
      "##ores": 7330,
      "##ories": 7331,
      "##order": 7332,
      "##ativity": 7333,
      "##inger": 7334,
      "##lla": 7335,
      "##llower": 7336,
      "##ana": 7337,
      "##ancing": 7338,
      "tox": 7339,
      "##ouch": 7340,
      "##enn": 7341,
      "##ena": 7342,
      "theme": 7343,
      "##itt": 7344,
      "##itably": 7345,
      "##itary": 7346,
      "##itzer": 7347,
      "##reh": 7348,
      "##rek": 7349,
      "##repr": 7350,
      "##step": 7351,
      "##stick": 7352,
      "##stationary": 7353,
      "ine": 7354,
      "inver": 7355,
      "##rode": 7356,
      "##icide": 7357,
      "##icopter": 7358,
      "##icago": 7359,
      "##uter": 7360,
      "##uted": 7361,
      "bee": 7362,
      "bei": 7363,
      "beep": 7364,
      "beating": 7365,
      "##asse": 7366,
      "##ashing": 7367,
      "##asma": 7368,
      "##ises": 7369,
      "##isis": 7370,
      "rect": 7371,
      "reel": 7372,
      "reward": 7373,
      "revert": 7374,
      "relaunch": 7375,
      "##oting": 7376,
      "formed": 7377,
      "##ete": 7378,
      "ongoing": 7379,
      "stays": 7380,
      "stance": 7381,
      "stated": 7382,
      "stru": 7383,
      "stup": 7384,
      "stake": 7385,
      "stret": 7386,
      "sticking": 7387,
      "italy": 7388,
      "##owea": 7389,
      "##elter": 7390,
      "##iding": 7391,
      "##idity": 7392,
      "##chem": 7393,
      "whom": 7394,
      "whimp": 7395,
      "##adem": 7396,
      "##urch": 7397,
      "neigh": 7398,
      "neil": 7399,
      "sued": 7400,
      "##ithms": 7401,
      "##tered": 7402,
      "##teria": 7403,
      "##iry": 7404,
      "##iration": 7405,
      "##irical": 7406,
      "##thora": 7407,
      "haven": 7408,
      "##sequ": 7409,
      "##secure": 7410,
      "trace": 7411,
      "traged": 7412,
      "trading": 7413,
      "shd": 7414,
      "shill": 7415,
      "shib": 7416,
      "shade": 7417,
      "shared": 7418,
      "shades": 7419,
      "shelter": 7420,
      "exting": 7421,
      "examine": 7422,
      "examination": 7423,
      "##arship": 7424,
      "noticed": 7425,
      "atoms": 7426,
      "doci": 7427,
      "spy": 7428,
      "spine": 7429,
      "spam": 7430,
      "spare": 7431,
      "spread": 7432,
      "sphere": 7433,
      "speaking": 7434,
      "asho": 7435,
      "album": 7436,
      "##essed": 7437,
      "seated": 7438,
      "dece": 7439,
      "deck": 7440,
      "deuts": 7441,
      "maps": 7442,
      "cones": 7443,
      "convey": 7444,
      "conduct": 7445,
      "##ulf": 7446,
      "cha": 7447,
      "chess": 7448,
      "chose": 7449,
      "chick": 7450,
      "chutes": 7451,
      "choms": 7452,
      "cherry": 7453,
      "chicago": 7454,
      "abt": 7455,
      "aband": 7456,
      "##imity": 7457,
      "##rapt": 7458,
      "allev": 7459,
      "rose": 7460,
      "unity": 7461,
      "univ": 7462,
      "united": 7463,
      "unne": 7464,
      "uncover": 7465,
      "unlock": 7466,
      "unaware": 7467,
      "##oute": 7468,
      "##actions": 7469,
      "##olutions": 7470,
      "##apore": 7471,
      "##uments": 7472,
      "compreh": 7473,
      "carto": 7474,
      "goodwill": 7475,
      "##usk": 7476,
      "##usive": 7477,
      "##kings": 7478,
      "upset": 7479,
      "impell": 7480,
      "highs": 7481,
      "##mented": 7482,
      "comets": 7483,
      "##aint": 7484,
      "cance": 7485,
      "module": 7486,
      "fellow": 7487,
      "##ommod": 7488,
      "engage": 7489,
      "engaged": 7490,
      "##ama": 7491,
      "arc": 7492,
      "arbit": 7493,
      "bets": 7494,
      "plumb": 7495,
      "plasma": 7496,
      "models": 7497,
      "##istent": 7498,
      "##izer": 7499,
      "##fts": 7500,
      "apples": 7501,
      "##venience": 7502,
      "leasing": 7503,
      "poison": 7504,
      "##xture": 7505,
      "hardly": 7506,
      "overst": 7507,
      "overha": 7508,
      "overcome": 7509,
      "mayor": 7510,
      "flood": 7511,
      "flare": 7512,
      "##connect": 7513,
      "acs": 7514,
      "acou": 7515,
      "academ": 7516,
      "##some": 7517,
      "##soft": 7518,
      "##irect": 7519,
      "verify": 7520,
      "drift": 7521,
      "superint": 7522,
      "supercomp": 7523,
      "premi": 7524,
      "preview": 7525,
      "incoming": 7526,
      "launchpad": 7527,
      "desper": 7528,
      "desert": 7529,
      "##acheal": 7530,
      "interact": 7531,
      "##bell": 7532,
      "##beit": 7533,
      "twin": 7534,
      "intake": 7535,
      "intratr": 7536,
      "particle": 7537,
      "whose": 7538,
      "contain": 7539,
      "contour": 7540,
      "evening": 7541,
      "accomp": 7542,
      "accommod": 7543,
      "powergl": 7544,
      "qual": 7545,
      "quieter": 7546,
      "##ensus": 7547,
      "improbability": 7548,
      "hahaha": 7549,
      "resmed": 7550,
      "export": 7551,
      "explicit": 7552,
      "##oths": 7553,
      "cran": 7554,
      "crater": 7555,
      "cracked": 7556,
      "crisis": 7557,
      "##velength": 7558,
      "imf": 7559,
      "serial": 7560,
      "##ferential": 7561,
      "knuck": 7562,
      "knife": 7563,
      "boy": 7564,
      "bodies": 7565,
      "designs": 7566,
      "couldve": 7567,
      "miners": 7568,
      "minnes": 7569,
      "sml": 7570,
      "backwards": 7571,
      "clou": 7572,
      "clust": 7573,
      "falcons": 7574,
      "puerto": 7575,
      "drain": 7576,
      "recession": 7577,
      "airlin": 7578,
      "airborne": 7579,
      "scene": 7580,
      "scammers": 7581,
      "regrets": 7582,
      "finance": 7583,
      "finale": 7584,
      "finnish": 7585,
      "addition": 7586,
      "elected": 7587,
      "wanting": 7588,
      "futures": 7589,
      "repaid": 7590,
      "reporter": 7591,
      "##icker": 7592,
      "slower": 7593,
      "helmet": 7594,
      "helicopter": 7595,
      "sn3": 7596,
      "snap": 7597,
      "snacks": 7598,
      "insult": 7599,
      "inspect": 7600,
      "##ished": 7601,
      "endeav": 7602,
      "caution": 7603,
      "indirect": 7604,
      "##aging": 7605,
      "##ordinary": 7606,
      "disad": 7607,
      "dislike": 7608,
      "disruption": 7609,
      "disney": 7610,
      "disasse": 7611,
      "curated": 7612,
      "pressing": 7613,
      "energ": 7614,
      "payment": 7615,
      "payroll": 7616,
      "transform": 7617,
      "blueto": 7618,
      "fairings": 7619,
      "string": 7620,
      "stranger": 7621,
      "strangers": 7622,
      "shipment": 7623,
      "shorting": 7624,
      "fraction": 7625,
      "fringe": 7626,
      "fresh": 7627,
      "supports": 7628,
      "supported": 7629,
      "lasting": 7630,
      "lesson": 7631,
      "advise": 7632,
      "publishing": 7633,
      "##cessary": 7634,
      "leaf": 7635,
      "efforts": 7636,
      "eval": 7637,
      "appropri": 7638,
      "confined": 7639,
      "confidence": 7640,
      "speeds": 7641,
      "speedrapt": 7642,
      "meters": 7643,
      "counts": 7644,
      "counted": 7645,
      "##ella": 7646,
      "##ellation": 7647,
      "retract": 7648,
      "valves": 7649,
      "valuation": 7650,
      "invol": 7651,
      "termin": 7652,
      "belong": 7653,
      "belts": 7654,
      "coronavir": 7655,
      "updating": 7656,
      "paras": 7657,
      "paraf": 7658,
      "raw": 7659,
      "calcs": 7660,
      "legit": 7661,
      "legacy": 7662,
      "revoked": 7663,
      "refres": 7664,
      "refused": 7665,
      "limitations": 7666,
      "opened": 7667,
      "decline": 7668,
      "skin": 7669,
      "skit": 7670,
      "skull": 7671,
      "showed": 7672,
      "flaming": 7673,
      "regulated": 7674,
      "motiv": 7675,
      "worthless": 7676,
      "worthwhile": 7677,
      "##utional": 7678,
      "brains": 7679,
      "bravo": 7680,
      "brazil": 7681,
      "kept": 7682,
      "kevlar": 7683,
      "volcan": 7684,
      "clock": 7685,
      "merit": 7686,
      "passage": 7687,
      "100b": 7688,
      "follower": 7689,
      "freeway": 7690,
      "fireball": 7691,
      "warp": 7692,
      "warn": 7693,
      "warned": 7694,
      "computation": 7695,
      "excuse": 7696,
      "headlines": 7697,
      "postpone": 7698,
      "feelings": 7699,
      "sword": 7700,
      "courses": 7701,
      "singapore": 7702,
      "suns": 7703,
      "autogen": 7704,
      "wavelength": 7705,
      "##iums": 7706,
      "##ieldy": 7707,
      "funded": 7708,
      "grave": 7709,
      "investment": 7710,
      "latitude": 7711,
      "netfl": 7712,
      "hottest": 7713,
      "hotsp": 7714,
      "restoring": 7715,
      "checks": 7716,
      "oxford": 7717,
      "older": 7718,
      "schol": 7719,
      "neuralinks": 7720,
      "constellation": 7721,
      "preser": 7722,
      "certification": 7723,
      "##ilton": 7724,
      "accelerates": 7725,
      "handed": 7726,
      "handles": 7727,
      "closest": 7728,
      "viewing": 7729,
      "correcting": 7730,
      "distinguish": 7731,
      "infect": 7732,
      "returns": 7733,
      "trucking": 7734,
      "primitive": 7735,
      "finding": 7736,
      "pana": 7737,
      "credits": 7738,
      "favorites": 7739,
      "flex": 7740,
      "nearby": 7741,
      "dairy": 7742,
      "destinations": 7743,
      "negot": 7744,
      "negativity": 7745,
      "meantime": 7746,
      "##boy": 7747,
      "relight": 7748,
      "relief": 7749,
      "travels": 7750,
      "relevance": 7751,
      "logar": 7752,
      "edits": 7753,
      "edited": 7754,
      "##otech": 7755,
      "blackout": 7756,
      "civilizations": 7757,
      "ultrac": 7758,
      "diess": 7759,
      "filing": 7760,
      "historical": 7761,
      "watcht": 7762,
      "flows": 7763,
      "speculation": 7764,
      "empirical": 7765,
      "marks": 7766,
      "marvin": 7767,
      "reported": 7768,
      "follows": 7769,
      "liquidity": 7770,
      "economist": 7771,
      "pads": 7772,
      "utah": 7773,
      "angel": 7774,
      "angry": 7775,
      "existential": 7776,
      "assist": 7777,
      "babe": 7778,
      "nyquil": 7779,
      "irrational": 7780,
      "lifts": 7781,
      "installing": 7782,
      "receives": 7783,
      "governments": 7784,
      "breaking": 7785,
      "equity": 7786,
      "exceptions": 7787,
      "impressed": 7788,
      "specialized": 7789,
      "skydiver": 7790,
      "guesses": 7791,
      "ramps": 7792,
      "picking": 7793,
      "sourced": 7794,
      "included": 7795,
      "metals": 7796,
      "drink": 7797,
      "##isticated": 7798,
      "connecting": 7799,
      "mk2": 7800,
      "smoke": 7801,
      "anticip": 7802,
      "strangely": 7803,
      "figuring": 7804,
      "figured": 7805,
      "mountains": 7806,
      "normally": 7807,
      "classified": 7808,
      "glasses": 7809,
      "hatestream": 7810,
      "northern": 7811,
      "biowea": 7812,
      "hw3": 7813,
      "activation": 7814,
      "activated": 7815,
      "impressively": 7816,
      "targeted": 7817,
      "estab": 7818,
      "estate": 7819,
      "estimate": 7820,
      "promised": 7821,
      "darkness": 7822,
      "ignoring": 7823,
      "virgin": 7824,
      "heights": 7825,
      "james": 7826,
      "millise": 7827,
      "tyran": 7828,
      "prediction": 7829,
      "predictable": 7830,
      "predictions": 7831,
      "births": 7832,
      "illnesses": 7833,
      "##axy": 7834,
      "extraordinary": 7835,
      "sn15": 7836,
      "perfectly": 7837,
      "occl": 7838,
      "contracts": 7839,
      "contracting": 7840,
      "mechanism": 7841,
      "environments": 7842,
      "holes": 7843,
      "strain": 7844,
      "doorstep": 7845,
      "charged": 7846,
      "appealing": 7847,
      "earliest": 7848,
      "integrity": 7849,
      "cutting": 7850,
      "oddly": 7851,
      "welds": 7852,
      "accidents": 7853,
      "officer": 7854,
      "communities": 7855,
      "continuance": 7856,
      "continuously": 7857,
      "discussions": 7858,
      "variation": 7859,
      "mobileye": 7860,
      "doomed": 7861,
      "sonar": 7862,
      "sonata": 7863,
      "songs": 7864,
      "docked": 7865,
      "60mph": 7866,
      "harv": 7867,
      "informed": 7868,
      "measures": 7869,
      "familiar": 7870,
      "clarification": 7871,
      "blame": 7872,
      "lossy": 7873,
      "explaining": 7874,
      "balls": 7875,
      "##olev": 7876,
      "enhance": 7877,
      "architectural": 7878,
      "titles": 7879,
      "locked": 7880,
      "inflation": 7881,
      "linked": 7882,
      "porting": 7883,
      "portal": 7884,
      "stormy": 7885,
      "uploading": 7886,
      "preventing": 7887,
      "collection": 7888,
      "concerned": 7889,
      "loaner": 7890,
      "immers": 7891,
      "attachment": 7892,
      "policies": 7893,
      "smoothly": 7894,
      "horizon": 7895,
      "deny": 7896,
      "denial": 7897,
      "buffer": 7898,
      "privile": 7899,
      "simplifying": 7900,
      "vaccination": 7901,
      "efficiently": 7902,
      "frequent": 7903,
      "geostationary": 7904,
      "##ewan": 7905,
      "describ": 7906,
      "graphics": 7907,
      "200k": 7908,
      "fatality": 7909,
      "greg": 7910,
      "mirrors": 7911,
      "military": 7912,
      "vibes": 7913,
      "vibration": 7914,
      "referring": 7915,
      "copy": 7916,
      "crushes": 7917,
      "transitioning": 7918,
      "brick": 7919,
      "hanging": 7920,
      "munger": 7921,
      "voted": 7922,
      "stripped": 7923,
      "shakes": 7924,
      "spiral": 7925,
      "philips": 7926,
      "sn20": 7927,
      "surrounding": 7928,
      "skills": 7929,
      "exclude": 7930,
      "microsoft": 7931,
      "researchers": 7932,
      "treatment": 7933,
      "inconvenience": 7934,
      "committe": 7935,
      "comfortable": 7936,
      "cancer": 7937,
      "independ": 7938,
      "gradually": 7939,
      "absorb": 7940,
      "absorption": 7941,
      "protecting": 7942,
      "communications": 7943,
      "demonstrate": 7944,
      "demonstrated": 7945,
      "dinos": 7946,
      "mixed": 7947,
      "inducer": 7948,
      "inevitably": 7949,
      "concepts": 7950,
      "premise": 7951,
      "premiums": 7952,
      "reservation": 7953,
      "consistency": 7954,
      "adventure": 7955,
      "temporal": 7956,
      "broader": 7957,
      "broadly": 7958,
      "claims": 7959,
      "divide": 7960,
      "vanity": 7961,
      "rewatched": 7962,
      "stamped": 7963,
      "hamlet": 7964,
      "trippy": 7965,
      "enjoying": 7966,
      "exchange": 7967,
      "dozens": 7968,
      "unsched": 7969,
      "insights": 7970,
      "indicates": 7971,
      "calculations": 7972,
      "emissivity": 7973,
      "nytimes": 7974,
      "bench": 7975,
      "dmv": 7976,
      "facility": 7977,
      "facilities": 7978,
      "mask": 7979,
      "rumors": 7980,
      "##proof": 7981,
      "##worth": 7982,
      "bearings": 7983,
      "proceeds": 7984,
      "suitcase": 7985,
      "preburners": 7986,
      "permanently": 7987,
      "clicked": 7988,
      "observed": 7989,
      "taxpayer": 7990,
      "discounts": 7991,
      "breathe": 7992,
      "galaxy": 7993,
      "mixture": 7994,
      "reno": 7995,
      "rigor": 7996,
      "rental": 7997,
      "throwing": 7998,
      "weapon": 7999,
      "flameout": 8000,
      "reminds": 8001,
      "horsepower": 8002,
      "paperwork": 8003,
      "bbq": 8004,
      "briefly": 8005,
      "gained": 8006,
      "korolev": 8007,
      "lung": 8008,
      "nano": 8009,
      "prosper": 8010,
      "aspires": 8011,
      "resolve": 8012,
      "bothered": 8013,
      "redundancy": 8014,
      "declining": 8015,
      "remarkably": 8016,
      "strawber": 8017,
      "dynamic": 8018,
      "dynamically": 8019,
      "bouncy": 8020,
      "cdc": 8021,
      "michael": 8022,
      "woman": 8023,
      "women": 8024,
      "witcher": 8025,
      "weighs": 8026,
      "shares": 8027,
      "domain": 8028,
      "organization": 8029,
      "cheap": 8030,
      "cheaper": 8031,
      "arenas": 8032,
      "hashtag": 8033,
      "smiths": 8034,
      "scrap": 8035,
      "british": 8036,
      "paramount": 8037,
      "parameters": 8038,
      "legislation": 8039,
      "refinements": 8040,
      "swiftly": 8041,
      "satisf": 8042,
      "satisfaction": 8043,
      "hypocrite": 8044,
      "enjoyed": 8045,
      "pneumatics": 8046,
      "bleed": 8047,
      "fuels": 8048,
      "matrix": 8049,
      "npc": 8050,
      "naughty": 8051,
      "pillar": 8052,
      "seamlessly": 8053,
      "victory": 8054,
      "##loroqu": 8055,
      "society": 8056,
      "hazard": 8057,
      "alternative": 8058,
      "chemical": 8059,
      "comparable": 8060,
      "armored": 8061,
      "tastes": 8062,
      "climb": 8063,
      "regrette": 8064,
      "advocates": 8065,
      "subcooled": 8066,
      "extremism": 8067,
      "announcing": 8068,
      "relentlessly": 8069,
      "colonizing": 8070,
      "attempting": 8071,
      "exclusively": 8072,
      "circumferential": 8073,
      "exchanges": 8074,
      "triggered": 8075,
      "bureaucracy": 8076,
      "cnn": 8077,
      "cigar": 8078,
      "cousins": 8079,
      "laptop": 8080,
      "poured": 8081,
      "tsla": 8082,
      "tillerson": 8083,
      "ufo": 8084,
      "##espan": 8085,
      "inherently": 8086,
      "reinforce": 8087,
      "orientation": 8088,
      "spike": 8089,
      "asymmetry": 8090,
      "contingent": 8091,
      "unwieldy": 8092,
      "percentage": 8093,
      "recruiting": 8094,
      "sculpture": 8095,
      "insertion": 8096,
      "index": 8097,
      "strateg": 8098,
      "refueling": 8099,
      "decreasing": 8100,
      "database": 8101,
      "glovebox": 8102,
      "predicting": 8103,
      "figuratively": 8104,
      "candidate": 8105,
      "syndical": 8106,
      "synchron": 8107,
      "unreasonable": 8108,
      "psych": 8109,
      "galactic": 8110,
      "scenario": 8111,
      "eberhard": 8112,
      "gwynne": 8113,
      "vulnerable": 8114,
      "bacteria": 8115,
      "bargaining": 8116,
      "dicey": 8117,
      "halloween": 8118,
      "manganese": 8119,
      "plethora": 8120,
      "recharging": 8121,
      "sophisticated": 8122,
      "anarcho": 8123,
      "proximity": 8124,
      "hammer": 8125,
      "trunc": 8126,
      "shapes": 8127,
      "lifespan": 8128,
      "doctors": 8129,
      "spectrum": 8130,
      "unbelted": 8131,
      "sample": 8132,
      "autocorrect": 8133,
      "prevalence": 8134,
      "interstage": 8135,
      "intubation": 8136,
      "electronics": 8137,
      "correlation": 8138,
      "simplicity": 8139,
      "summarizes": 8140,
      "entrance": 8141,
      "autosteer": 8142,
      "illegal": 8143,
      "megatons": 8144,
      "sanctimonious": 8145,
      "gentrify": 8146,
      "diagonal": 8147,
      "a380": 8148,
      "blades": 8149,
      "elderly": 8150,
      "educ": 8151,
      "egypt": 8152,
      "gantry": 8153,
      "ireland": 8154,
      "kelvin": 8155,
      "kestrel": 8156,
      "lmpe": 8157,
      "mordor": 8158,
      "mitchell": 8159,
      "siq": 8160,
      "ssto": 8161,
      "saskatch": 8162,
      "sacrif": 8163,
      "squeeze": 8164,
      "tubes": 8165,
      "vapor": 8166,
      "zillow": 8167,
      "stupid": 8168,
      "whimper": 8169,
      "tragedy": 8170,
      "shiba": 8171,
      "docile": 8172,
      "ashok": 8173,
      "deutsch": 8174,
      "chicken": 8175,
      "chomsky": 8176,
      "abandon": 8177,
      "unnecessary": 8178,
      "cartoon": 8179,
      "impellers": 8180,
      "overhaul": 8181,
      "superintelligence": 8182,
      "supercomputer": 8183,
      "intratracheal": 8184,
      "powerglide": 8185,
      "minnesota": 8186,
      "endeavor": 8187,
      "disassembly": 8188,
      "bluetooth": 8189,
      "speedraptor": 8190,
      "coronavirus": 8191,
      "parafoil": 8192,
      "refresh": 8193,
      "netflix": 8194,
      "bioweapon": 8195,
      "tyranny": 8196,
      "unscheduled": 8197,
      "##loroquine": 8198,
      "saskatchewan": 8199,
      "01": 8200,
      "1500": 8201,
      "185": 8202,
      "24": 8203,
      "25k": 8204,
      "35": 8205,
      "36": 8206,
      "33": 8207,
      "55": 8208,
      "69": 8209,
      "75": 8210,
      "75k": 8211,
      "900": 8212,
      "auf": 8213,
      "aargh": 8214,
      "alex": 8215,
      "bn": 8216,
      "bic": 8217,
      "bars": 8218,
      "bone": 8219,
      "bend": 8220,
      "bite": 8221,
      "bays": 8222,
      "bully": 8223,
      "bag": 8224,
      "bending": 8225,
      "bund": 8226,
      "bake": 8227,
      "binary": 8228,
      "bounds": 8229,
      "baff": 8230,
      "cb": 8231,
      "cate": 8232,
      "cough": 8233,
      "cable": 8234,
      "cree": 8235,
      "ceres": 8236,
      "cuff": 8237,
      "cub": 8238,
      "dj": 8239,
      "dke": 8240,
      "dop": 8241,
      "dun": 8242,
      "dang": 8243,
      "dys": 8244,
      "dress": 8245,
      "dna": 8246,
      "dug": 8247,
      "dune": 8248,
      "dumber": 8249,
      "dusk": 8250,
      "eating": 8251,
      "fw": 8252,
      "fad": 8253,
      "fant": 8254,
      "fif": 8255,
      "font": 8256,
      "fric": 8257,
      "file": 8258,
      "gh": 8259,
      "gf": 8260,
      "gall": 8261,
      "gest": 8262,
      "gand": 8263,
      "gem": 8264,
      "goth": 8265,
      "gats": 8266,
      "gross": 8267,
      "gains": 8268,
      "gdp": 8269,
      "gulf": 8270,
      "hoo": 8271,
      "hust": 8272,
      "hun": 8273,
      "hea": 8274,
      "hits": 8275,
      "iain": 8276,
      "jitter": 8277,
      "jury": 8278,
      "jalop": 8279,
      "kh": 8280,
      "ken": 8281,
      "ket": 8282,
      "kil": 8283,
      "kai": 8284,
      "kitch": 8285,
      "lg": 8286,
      "ll": 8287,
      "latch": 8288,
      "lately": 8289,
      "lope": 8290,
      "lori": 8291,
      "mn": 8292,
      "mou": 8293,
      "mary": 8294,
      "mids": 8295,
      "mcc": 8296,
      "mounting": 8297,
      "nc": 8298,
      "n3": 8299,
      "ner": 8300,
      "nic": 8301,
      "null": 8302,
      "nint": 8303,
      "nts": 8304,
      "oge": 8305,
      "ober": 8306,
      "oval": 8307,
      "osc": 8308,
      "olig": 8309,
      "pd": 8310,
      "ping": 8311,
      "pse": 8312,
      "punch": 8313,
      "pile": 8314,
      "pets": 8315,
      "pian": 8316,
      "pins": 8317,
      "pier": 8318,
      "ports": 8319,
      "pipe": 8320,
      "powers": 8321,
      "ru": 8322,
      "r2": 8323,
      "rut": 8324,
      "rab": 8325,
      "rally": 8326,
      "rif": 8327,
      "rude": 8328,
      "races": 8329,
      "rope": 8330,
      "rams": 8331,
      "sar": 8332,
      "sme": 8333,
      "sized": 8334,
      "sands": 8335,
      "tu": 8336,
      "til": 8337,
      "tort": 8338,
      "tone": 8339,
      "tach": 8340,
      "torn": 8341,
      "taps": 8342,
      "ull": 8343,
      "uber": 8344,
      "von": 8345,
      "ven": 8346,
      "vic": 8347,
      "venge": 8348,
      "vangel": 8349,
      "wt": 8350,
      "wit": 8351,
      "wut": 8352,
      "wet": 8353,
      "wiz": 8354,
      "ware": 8355,
      "woke": 8356,
      "wides": 8357,
      "wired": 8358,
      "wipe": 8359,
      "wuh": 8360,
      "yr": 8361,
      "yel": 8362,
      "yrs": 8363,
      "##d2": 8364,
      "##dles": 8365,
      "##vd": 8366,
      "##vity": 8367,
      "##viet": 8368,
      "##ek": 8369,
      "##eous": 8370,
      "##ections": 8371,
      "##ecd": 8372,
      "##rp": 8373,
      "##rack": 8374,
      "##rary": 8375,
      "##rason": 8376,
      "##restri": 8377,
      "##rlich": 8378,
      "##tt": 8379,
      "##tal": 8380,
      "##tles": 8381,
      "##iw": 8382,
      "##iven": 8383,
      "##iach": 8384,
      "##iary": 8385,
      "##iates": 8386,
      "##ipped": 8387,
      "##sistent": 8388,
      "##pre": 8389,
      "##pet": 8390,
      "##pers": 8391,
      "##pol": 8392,
      "##pie": 8393,
      "##pass": 8394,
      "##pical": 8395,
      "##packs": 8396,
      "##pread": 8397,
      "##uz": 8398,
      "##uing": 8399,
      "##upp": 8400,
      "##uated": 8401,
      "##ugg": 8402,
      "##nd": 8403,
      "##nas": 8404,
      "##net": 8405,
      "##nam": 8406,
      "##nets": 8407,
      "##nik": 8408,
      "##nicious": 8409,
      "##gas": 8410,
      "##gest": 8411,
      "##gge": 8412,
      "##gue": 8413,
      "##gments": 8414,
      "##gian": 8415,
      "##girl": 8416,
      "##lm": 8417,
      "##lers": 8418,
      "##lim": 8419,
      "##bm": 8420,
      "##bar": 8421,
      "##bre": 8422,
      "##bow": 8423,
      "##bay": 8424,
      "##bound": 8425,
      "##bru": 8426,
      "##bility": 8427,
      "##ost": 8428,
      "##oking": 8429,
      "##ogy": 8430,
      "##mt": 8431,
      "##ml": 8432,
      "##my": 8433,
      "##min": 8434,
      "##aj": 8435,
      "##aic": 8436,
      "##aqu": 8437,
      "##away": 8438,
      "##aution": 8439,
      "##aurs": 8440,
      "##hr": 8441,
      "##hs": 8442,
      "##hin": 8443,
      "##zes": 8444,
      "##zing": 8445,
      "##zen": 8446,
      "##zero": 8447,
      "##zzy": 8448,
      "##zilla": 8449,
      "##yers": 8450,
      "##found": 8451,
      "##fare": 8452,
      "##fires": 8453,
      "##cp": 8454,
      "##cou": 8455,
      "##cut": 8456,
      "##cope": 8457,
      "##clock": 8458,
      "##cribed": 8459,
      "##kill": 8460,
      "##kind": 8461,
      "##kins": 8462,
      "##xon": 8463,
      "##wu": 8464,
      "##wing": 8465,
      "##wers": 8466,
      "##wich": 8467,
      "##water": 8468,
      "##watch": 8469,
      "##jing": 8470,
      "##16": 8471,
      "##3k": 8472,
      "##erc": 8473,
      "##erous": 8474,
      "thigh": 8475,
      "thesis": 8476,
      "##inth": 8477,
      "##inse": 8478,
      "##inity": 8479,
      "##inist": 8480,
      "##onk": 8481,
      "##onoun": 8482,
      "##orpor": 8483,
      "##atia": 8484,
      "##atware": 8485,
      "##ativ": 8486,
      "##atial": 8487,
      "##ara": 8488,
      "##arse": 8489,
      "##around": 8490,
      "##aries": 8491,
      "##areness": 8492,
      "##lle": 8493,
      "##aning": 8494,
      "##anity": 8495,
      "town": 8496,
      "toler": 8497,
      "token": 8498,
      "toss": 8499,
      "##oups": 8500,
      "##ening": 8501,
      "##ennt": 8502,
      "##edient": 8503,
      "##itical": 8504,
      "##itations": 8505,
      "##sty": 8506,
      "##stan": 8507,
      "##stone": 8508,
      "inu": 8509,
      "ink": 8510,
      "inqu": 8511,
      "ingr": 8512,
      "inverse": 8513,
      "inlet": 8514,
      "insecure": 8515,
      "##mpath": 8516,
      "##mploy": 8517,
      "##alt": 8518,
      "##alous": 8519,
      "##alib": 8520,
      "##rom": 8521,
      "##roved": 8522,
      "##rooms": 8523,
      "##lemental": 8524,
      "##lehead": 8525,
      "##uto": 8526,
      "##utive": 8527,
      "##uttal": 8528,
      "beings": 8529,
      "##asc": 8530,
      "##asat": 8531,
      "##igen": 8532,
      "##igible": 8533,
      "##aco": 8534,
      "##acles": 8535,
      "##isla": 8536,
      "##isers": 8537,
      "##isions": 8538,
      "rex": 8539,
      "reop": 8540,
      "reject": 8541,
      "##ott": 8542,
      "##oto": 8543,
      "##otine": 8544,
      "fore": 8545,
      "forest": 8546,
      "soviet": 8547,
      "onto": 8548,
      "onerous": 8549,
      "##illions": 8550,
      "##illotine": 8551,
      "std": 8552,
      "stu": 8553,
      "stall": 8554,
      "stim": 8555,
      "stem": 8556,
      "stats": 8557,
      "stator": 8558,
      "stunning": 8559,
      "staff": 8560,
      "strict": 8561,
      "itar": 8562,
      "ital": 8563,
      "coil": 8564,
      "coking": 8565,
      "cocon": 8566,
      "coax": 8567,
      "cofound": 8568,
      "anim": 8569,
      "anom": 8570,
      "anode": 8571,
      "anecd": 8572,
      "##ctic": 8573,
      "willy": 8574,
      "##eland": 8575,
      "##idal": 8576,
      "##idential": 8577,
      "##chn": 8578,
      "##cha": 8579,
      "##chang": 8580,
      "##chte": 8581,
      "##ader": 8582,
      "##adena": 8583,
      "##urb": 8584,
      "##urgy": 8585,
      "##urday": 8586,
      "neck": 8587,
      "prod": 8588,
      "proves": 8589,
      "sue": 8590,
      "sum": 8591,
      "subl": 8592,
      "suicide": 8593,
      "butter": 8594,
      "##irap": 8595,
      "##things": 8596,
      "##throp": 8597,
      "teslaquila": 8598,
      "hav": 8599,
      "hail": 8600,
      "haiti": 8601,
      "##sey": 8602,
      "##sections": 8603,
      "moms": 8604,
      "##keys": 8605,
      "trap": 8606,
      "tries": 8607,
      "trump": 8608,
      "trillions": 8609,
      "enters": 8610,
      "sher": 8611,
      "shady": 8612,
      "shame": 8613,
      "shred": 8614,
      "shinse": 8615,
      "exiting": 8616,
      "exerc": 8617,
      "##opol": 8618,
      "##opia": 8619,
      "lip": 8620,
      "libert": 8621,
      "##abled": 8622,
      "##abouts": 8623,
      "ate": 8624,
      "##unire": 8625,
      "##unds": 8626,
      "doe": 8627,
      "doable": 8628,
      "orange": 8629,
      "spac": 8630,
      "sport": 8631,
      "spice": 8632,
      "spark": 8633,
      "spinal": 8634,
      "spins": 8635,
      "spawn": 8636,
      "sparks": 8637,
      "spores": 8638,
      "spatial": 8639,
      "asic": 8640,
      "asks": 8641,
      "asso": 8642,
      "asph": 8643,
      "aspect": 8644,
      "alco": 8645,
      "albed": 8646,
      "alchem": 8647,
      "##essing": 8648,
      "seas": 8649,
      "seven": 8650,
      "segment": 8651,
      "deeper": 8652,
      "mamm": 8653,
      "maze": 8654,
      "consequ": 8655,
      "##ulus": 8656,
      "##ulous": 8657,
      "##ulting": 8658,
      "##antine": 8659,
      "chest": 8660,
      "chines": 8661,
      "chute": 8662,
      "chair": 8663,
      "choked": 8664,
      "church": 8665,
      "chloroquine": 8666,
      "##ckling": 8667,
      "##ims": 8668,
      "##imin": 8669,
      "##imatter": 8670,
      "##rast": 8671,
      "##raform": 8672,
      "##ipse": 8673,
      "thanos": 8674,
      "noon": 8675,
      "rover": 8676,
      "rogan": 8677,
      "bypass": 8678,
      "unha": 8679,
      "unwise": 8680,
      "unders": 8681,
      "unaff": 8682,
      "uncomp": 8683,
      "##active": 8684,
      "##inematic": 8685,
      "##olic": 8686,
      "justify": 8687,
      "mein": 8688,
      "mead": 8689,
      "memor": 8690,
      "meunire": 8691,
      "##umetric": 8692,
      "compilers": 8693,
      "frost": 8694,
      "godd": 8695,
      "##osal": 8696,
      "cares": 8697,
      "carrot": 8698,
      "careless": 8699,
      "lamp": 8700,
      "##arts": 8701,
      "##usible": 8702,
      "##ifts": 8703,
      "yezz": 8704,
      "ups": 8705,
      "uptime": 8706,
      "impl": 8707,
      "needing": 8708,
      "probabilities": 8709,
      "mods": 8710,
      "modify": 8711,
      "modules": 8712,
      "modified": 8713,
      "usual": 8714,
      "##ieval": 8715,
      "##ielle": 8716,
      "sagan": 8717,
      "pruf": 8718,
      "pronoun": 8719,
      "therell": 8720,
      "loans": 8721,
      "loki": 8722,
      "outs": 8723,
      "outc": 8724,
      "outrage": 8725,
      "myster": 8726,
      "##ames": 8727,
      "##amed": 8728,
      "##amic": 8729,
      "##ective": 8730,
      "ars": 8731,
      "arrow": 8732,
      "arctic": 8733,
      "##endo": 8734,
      "##enda": 8735,
      "##endary": 8736,
      "shouldve": 8737,
      "plum": 8738,
      "plume": 8739,
      "pledge": 8740,
      "##istinguish": 8741,
      "##izz": 8742,
      "ads": 8743,
      "adam": 8744,
      "adela": 8745,
      "amend": 8746,
      "amster": 8747,
      "amish": 8748,
      "anymore": 8749,
      "auth": 8750,
      "##ontroll": 8751,
      "buoy": 8752,
      "bubble": 8753,
      "buckling": 8754,
      "whatso": 8755,
      "lex": 8756,
      "lepton": 8757,
      "pokm": 8758,
      "##xtures": 8759,
      "hardness": 8760,
      "overla": 8761,
      "overload": 8762,
      "overze": 8763,
      "overcoming": 8764,
      "overrated": 8765,
      "overhead": 8766,
      "overclock": 8767,
      "pegging": 8768,
      "##ffective": 8769,
      "flicker": 8770,
      "##conf": 8771,
      "taste": 8772,
      "rocketry": 8773,
      "##ibody": 8774,
      "earning": 8775,
      "earned": 8776,
      "solvable": 8777,
      "##icht": 8778,
      "verified": 8779,
      "prep": 8780,
      "preorders": 8781,
      "##ourse": 8782,
      "ages": 8783,
      "aging": 8784,
      "agencies": 8785,
      "agenda": 8786,
      "inco": 8787,
      "incorpor": 8788,
      "loops": 8789,
      "monica": 8790,
      "monkeys": 8791,
      "desk": 8792,
      "##ached": 8793,
      "interim": 8794,
      "intervention": 8795,
      "interconnect": 8796,
      "whichever": 8797,
      "perm": 8798,
      "pernicious": 8799,
      "##udo": 8800,
      "##udes": 8801,
      "##uding": 8802,
      "twh": 8803,
      "twitch": 8804,
      "int8": 8805,
      "##bits": 8806,
      "whoever": 8807,
      "containment": 8808,
      "contrast": 8809,
      "realistic": 8810,
      "powerpacks": 8811,
      "quaint": 8812,
      "rightly": 8813,
      "##enses": 8814,
      "lander": 8815,
      "reset": 8816,
      "resil": 8817,
      "resident": 8818,
      "resulting": 8819,
      "exped": 8820,
      "crack": 8821,
      "crunch": 8822,
      "serbia": 8823,
      "marsh": 8824,
      "everythings": 8825,
      "##riced": 8826,
      "sympath": 8827,
      "boston": 8828,
      "##rub": 8829,
      "spelled": 8830,
      "hopeful": 8831,
      "miniverse": 8832,
      "##keschn": 8833,
      "backed": 8834,
      "awards": 8835,
      "awareness": 8836,
      "puc": 8837,
      "puzz": 8838,
      "##athering": 8839,
      "suppose": 8840,
      "supposed": 8841,
      "suppressing": 8842,
      "supplemental": 8843,
      "recalib": 8844,
      "phosph": 8845,
      "underp": 8846,
      "undergoing": 8847,
      "extens": 8848,
      "##asters": 8849,
      "##astroph": 8850,
      "booms": 8851,
      "scan": 8852,
      "scary": 8853,
      "screw": 8854,
      "costly": 8855,
      "##onship": 8856,
      "capabilities": 8857,
      "regist": 8858,
      "regimes": 8859,
      "starter": 8860,
      "electrek": 8861,
      "humidity": 8862,
      "reporters": 8863,
      "seek": 8864,
      "conspir": 8865,
      "consensus": 8866,
      "sled": 8867,
      "##yscra": 8868,
      "afterwards": 8869,
      "daylight": 8870,
      "helo": 8871,
      "obs": 8872,
      "obel": 8873,
      "obsc": 8874,
      "snatched": 8875,
      "genius": 8876,
      "inspected": 8877,
      "inspire": 8878,
      "insanity": 8879,
      "endurance": 8880,
      "indistinguish": 8881,
      "##unner": 8882,
      "##agram": 8883,
      "importance": 8884,
      "grace": 8885,
      "grind": 8886,
      "granted": 8887,
      "groups": 8888,
      "pretending": 8889,
      "soundcl": 8890,
      "disable": 8891,
      "disorder": 8892,
      "disabled": 8893,
      "disasters": 8894,
      "problematic": 8895,
      "curves": 8896,
      "curbs": 8897,
      "transpor": 8898,
      "transactions": 8899,
      "joint": 8900,
      "joaqu": 8901,
      "esco": 8902,
      "blower": 8903,
      "blind": 8904,
      "blvd": 8905,
      "##cedes": 8906,
      "strip": 8907,
      "strident": 8908,
      "shortsell": 8909,
      "seeming": 8910,
      "cylin": 8911,
      "cybor": 8912,
      "hollow": 8913,
      "importantly": 8914,
      "advancing": 8915,
      "ops": 8916,
      "roadsters": 8917,
      "humanly": 8918,
      "humanoid": 8919,
      "guillotine": 8920,
      "subsections": 8921,
      "techno": 8922,
      "technicians": 8923,
      "technocracy": 8924,
      "leaves": 8925,
      "approving": 8926,
      "bases": 8927,
      "generic": 8928,
      "generations": 8929,
      "metro": 8930,
      "surger": 8931,
      "surreal": 8932,
      "depos": 8933,
      "depressing": 8934,
      "controvers": 8935,
      "retail": 8936,
      "productivity": 8937,
      "drivetra": 8938,
      "invitations": 8939,
      "belt": 8940,
      "brings": 8941,
      "brennt": 8942,
      "servicing": 8943,
      "secured": 8944,
      "secrets": 8945,
      "amazon": 8946,
      "parrot": 8947,
      "rave": 8948,
      "##wear": 8949,
      "publication": 8950,
      "hype": 8951,
      "manif": 8952,
      "medieval": 8953,
      "lego": 8954,
      "legendary": 8955,
      "simulate": 8956,
      "revolutions": 8957,
      "refined": 8958,
      "refurb": 8959,
      "decel": 8960,
      "decides": 8961,
      "commands": 8962,
      "turnaround": 8963,
      "insta": 8964,
      "skyscra": 8965,
      "flaw": 8966,
      "##aker": 8967,
      "regularly": 8968,
      "opera": 8969,
      "##asonic": 8970,
      "reads": 8971,
      "bitte": 8972,
      "personality": 8973,
      "##dyne": 8974,
      "entit": 8975,
      "entom": 8976,
      "entrepr": 8977,
      "ap2": 8978,
      "directions": 8979,
      "volumes": 8980,
      "volumetric": 8981,
      "hourly": 8982,
      "lookin": 8983,
      "clearance": 8984,
      "merge": 8985,
      "mercedes": 8986,
      "100m": 8987,
      "sideways": 8988,
      "automated": 8989,
      "automob": 8990,
      "machining": 8991,
      "risks": 8992,
      "donor": 8993,
      "donations": 8994,
      "norwe": 8995,
      "tryin": 8996,
      "determ": 8997,
      "located": 8998,
      "halfway": 8999,
      "vacation": 9000,
      "remedy": 9001,
      "badly": 9002,
      "swim": 9003,
      "standpoint": 9004,
      "singing": 9005,
      "sunlight": 9006,
      "barn": 9007,
      "barrier": 9008,
      "roofing": 9009,
      "zeroes": 9010,
      "combination": 9011,
      "difficulties": 9012,
      "grain": 9013,
      "grail": 9014,
      "movements": 9015,
      "favors": 9016,
      "expectations": 9017,
      "optimize": 9018,
      "optimizing": 9019,
      "holdings": 9020,
      "brooks": 9021,
      "creator": 9022,
      "creators": 9023,
      "attend": 9024,
      "attitude": 9025,
      "nether": 9026,
      "hotels": 9027,
      "restore": 9028,
      "developer": 9029,
      "founding": 9030,
      "oxid": 9031,
      "##rosion": 9032,
      "formal": 9033,
      "buyable": 9034,
      "doubles": 9035,
      "doubling": 9036,
      "sells": 9037,
      "droid": 9038,
      "droids": 9039,
      "capex": 9040,
      "sincla": 9041,
      "robin": 9042,
      "falsely": 9043,
      "directive": 9044,
      "altho": 9045,
      "mainstream": 9046,
      "viewed": 9047,
      "corrective": 9048,
      "discourse": 9049,
      "distill": 9050,
      "infinity": 9051,
      "slowing": 9052,
      "eligible": 9053,
      "elimin": 9054,
      "gamed": 9055,
      "polished": 9056,
      "thankfully": 9057,
      "accurately": 9058,
      "effects": 9059,
      "cameron": 9060,
      "cramer": 9061,
      "finds": 9062,
      "panzer": 9063,
      "panasonic": 9064,
      "safegu": 9065,
      "flew": 9066,
      "##cratic": 9067,
      "##cracker": 9068,
      "precaution": 9069,
      "10b": 9070,
      "10k": 9071,
      "10x": 9072,
      "10th": 9073,
      "david": 9074,
      "destiny": 9075,
      "journos": 9076,
      "neglig": 9077,
      "bloatware": 9078,
      "relativ": 9079,
      "failing": 9080,
      "failures": 9081,
      "traveled": 9082,
      "winner": 9083,
      "stocks": 9084,
      "accessible": 9085,
      "successive": 9086,
      "##eneurs": 9087,
      "analog": 9088,
      "editors": 9089,
      "edges": 9090,
      "sentience": 9091,
      "tankers": 9092,
      "blackrock": 9093,
      "bottle": 9094,
      "potat": 9095,
      "plastic": 9096,
      "tougher": 9097,
      "proposed": 9098,
      "ultrason": 9099,
      "dammit": 9100,
      "lawyers": 9101,
      "powerwalls": 9102,
      "europa": 9103,
      "empire": 9104,
      "gladly": 9105,
      "marques": 9106,
      "mariach": 9107,
      "##ethered": 9108,
      "colder": 9109,
      "govts": 9110,
      "differently": 9111,
      "followers": 9112,
      "economically": 9113,
      "utilities": 9114,
      "angles": 9115,
      "existed": 9116,
      "assets": 9117,
      "assume": 9118,
      "roomy": 9119,
      "babies": 9120,
      "globe": 9121,
      "nyc": 9122,
      "debts": 9123,
      "functional": 9124,
      "fried": 9125,
      "irs": 9126,
      "label": 9127,
      "lifted": 9128,
      "installs": 9129,
      "installers": 9130,
      "studies": 9131,
      "equator": 9132,
      "equival": 9133,
      "urg": 9134,
      "uran": 9135,
      "exceptionally": 9136,
      "localized": 9137,
      "aston": 9138,
      "astaire": 9139,
      "lasik": 9140,
      "purely": 9141,
      "answers": 9142,
[...]
