{
  "version": "1.0",
  "truncation": null,
  "padding": null,
  "added_tokens": [
    {
      "id": 0,
      "content": "<s>",
      "single_word": false,
      "lstrip": false,
      "rstrip": false,
      "normalized": false,
      "special": true
    },
    {
      "id": 1,
      "content": "<pad>",
      "single_word": false,
      "lstrip": false,
      "rstrip": false,
      "normalized": false,
      "special": true
    },
    {
      "id": 2,
      "content": "</s>",
      "single_word": false,
      "lstrip": false,
      "rstrip": false,
      "normalized": false,
      "special": true
    },
    {
      "id": 3,
      "content": "<unk>",
      "single_word": false,
      "lstrip": false,
      "rstrip": false,
      "normalized": false,
      "special": true
    },
    {
      "id": 4,
      "content": "<mask>",
      "single_word": false,
      "lstrip": false,
      "rstrip": false,
      "normalized": false,
      "special": true
    }
  ],
  "normalizer": {
    "type": "BertNormalizer",
    "clean_text": true,
    "handle_chinese_chars": true,
    "strip_accents": null,
    "lowercase": true
  },
  "pre_tokenizer": {
    "type": "BertPreTokenizer"
  },
  "post_processor": null,
  "decoder": {
    "type": "WordPiece",
    "prefix": "##",
    "cleanup": true
  },
  "model": {
    "type": "WordPiece",
    "unk_token": "[UNK]",
    "continuing_subword_prefix": "##",
    "max_input_chars_per_word": 100,
    "vocab": {
      "<s>": 0,
      "<pad>": 1,
      "</s>": 2,
      "<unk>": 3,
      "<mask>": 4,
      "!": 5,
      "$": 6,
      "(": 7,
      ")": 8,
      "*": 9,
      ",": 10,
      "-": 11,
      ".": 12,
      "0": 13,
      "1": 14,
      "2": 15,
      "3": 16,
      "4": 17,
      "5": 18,
      "6": 19,
      "7": 20,
      "8": 21,
      "9": 22,
      ":": 23,
      ";": 24,
      "?": 25,
      "[": 26,
      "]": 27,
      "a": 28,
      "b": 29,
      "c": 30,
      "d": 31,
      "e": 32,
      "f": 33,
      "g": 34,
      "h": 35,
      "i": 36,
      "j": 37,
      "k": 38,
      "l": 39,
      "m": 40,
      "n": 41,
      "o": 42,
      "p": 43,
      "q": 44,
      "r": 45,
      "s": 46,
      "t": 47,
      "u": 48,
      "v": 49,
      "w": 50,
      "x": 51,
      "y": 52,
      "z": 53,
      "—": 54,
      "‘": 55,
      "’": 56,
      "“": 57,
      "”": 58,
      "…": 59,
      "##i": 60,
      "##s": 61,
      "##a": 62,
      "##p": 63,
      "##r": 64,
      "##o": 65,
      "##v": 66,
      "##n": 67,
      "##g": 68,
      "##l": 69,
      "##f": 70,
      "##d": 71,
      "##e": 72,
      "##h": 73,
      "##y": 74,
      "##u": 75,
      "##m": 76,
      "##t": 77,
      "##b": 78,
      "##c": 79,
      "##k": 80,
      "##x": 81,
      "##w": 82,
      "##j": 83,
      "##z": 84,
      "##q": 85,
      "##9": 86,
      "##0": 87,
      "##6": 88,
      "##5": 89,
      "##1": 90,
      "##2": 91,
      "##8": 92,
      "##3": 93,
      "th": 94,
      "##er": 95,
      "the": 96,
      "##ed": 97,
      "##in": 98,
      "##nd": 99,
      "##ou": 100,
      "##at": 101,
      "to": 102,
      "##en": 103,
      "and": 104,
      "##or": 105,
      "##ing": 106,
      "##is": 107,
      "##on": 108,
      "##es": 109,
      "##ar": 110,
      "in": 111,
      "##as": 112,
      "of": 113,
      "##an": 114,
      "##it": 115,
      "he": 116,
      "##ll": 117,
      "##om": 118,
      "ha": 119,
      "was": 120,
      "wh": 121,
      "##ow": 122,
      "##le": 123,
      "##ut": 124,
      "##ly": 125,
      "##gh": 126,
      "it": 127,
      "sh": 128,
      "be": 129,
      "##id": 130,
      "you": 131,
      "that": 132,
      "##ic": 133,
      "on": 134,
      "##et": 135,
      "##ere": 136,
      "##ent": 137,
      "##re": 138,
      "##im": 139,
      "##st": 140,
      "his": 141,
      "##ver": 142,
      "##ay": 143,
      "##ot": 144,
      "##ith": 145,
      "##ld": 146,
      "##ght": 147,
      "##se": 148,
      "##ve": 149,
      "##ac": 150,
      "st": 151,
      "with": 152,
      "##ir": 153,
      "at": 154,
      "she": 155,
      "an": 156,
      "her": 157,
      "##ur": 158,
      "##al": 159,
      "for": 160,
      "had": 161,
      "me": 162,
      "as": 163,
      "##ad": 164,
      "##ter": 165,
      "##oo": 166,
      "re": 167,
      "##am": 168,
      "we": 169,
      "fr": 170,
      "##ight": 171,
      "##ion": 172,
      "##il": 173,
      "sa": 174,
      "##ess": 175,
      "him": 176,
      "##ch": 177,
      "my": 178,
      "gat": 179,
      "but": 180,
      "##sb": 181,
      "##ke": 182,
      "##ome": 183,
      "se": 184,
      "##ro": 185,
      "do": 186,
      "su": 187,
      "##ce": 188,
      "##ri": 189,
      "##ain": 190,
      "##sby": 191,
      "gatsby": 192,
      "##her": 193,
      "##ant": 194,
      "##all": 195,
      "##ard": 196,
      "ne": 197,
      "li": 198,
      "up": 199,
      "##est": 200,
      "##ked": 201,
      "out": 202,
      "said": 203,
      "from": 204,
      "all": 205,
      "there": 206,
      "##pp": 207,
      "##em": 208,
      "ab": 209,
      "int": 210,
      "##out": 211,
      "tom": 212,
      "##ol": 213,
      "##ais": 214,
      "ch": 215,
      "##ould": 216,
      "##ore": 217,
      "go": 218,
      "so": 219,
      "##ame": 220,
      "kn": 221,
      "##ust": 222,
      "##ous": 223,
      "dais": 224,
      "daisy": 225,
      "##our": 226,
      "##ag": 227,
      "##rou": 228,
      "##ct": 229,
      "loo": 230,
      "##hing": 231,
      "al": 232,
      "were": 233,
      "con": 234,
      "over": 235,
      "##one": 236,
      "##own": 237,
      "af": 238,
      "they": 239,
      "into": 240,
      "no": 241,
      "ro": 242,
      "this": 243,
      "sp": 244,
      "un": 245,
      "##and": 246,
      "##ong": 247,
      "##el": 248,
      "ex": 249,
      "##ble": 250,
      "##art": 251,
      "##ast": 252,
      "when": 253,
      "car": 254,
      "le": 255,
      "some": 256,
      "##un": 257,
      "what": 258,
      "one": 259,
      "##ort": 260,
      "about": 261,
      "##ord": 262,
      "is": 263,
      "##us": 264,
      "##ind": 265,
      "if": 266,
      "##ack": 267,
      "man": 268,
      "then": 269,
      "who": 270,
      "##way": 271,
      "##tle": 272,
      "after": 273,
      "##au": 274,
      "did": 275,
      "##ill": 276,
      "##ak": 277,
      "##lf": 278,
      "have": 279,
      "or": 280,
      "##lo": 281,
      "##ul": 282,
      "##ra": 283,
      "##ide": 284,
      "ag": 285,
      "any": 286,
      "like": 287,
      "not": 288,
      "down": 289,
      "##um": 290,
      "by": 291,
      "##ck": 292,
      "de": 293,
      "mo": 294,
      "##ice": 295,
      "back": 296,
      "##pt": 297,
      "##op": 298,
      "##ell": 299,
      "mr": 300,
      "##ers": 301,
      "tr": 302,
      "##ved": 303,
      "##ven": 304,
      "##if": 305,
      "##ist": 306,
      "##nder": 307,
      "hand": 308,
      "lit": 309,
      "too": 310,
      "co": 311,
      "##ink": 312,
      "came": 313,
      "know": 314,
      "been": 315,
      "ey": 316,
      "##ive": 317,
      "tw": 318,
      "##wn": 319,
      "##ation": 320,
      "just": 321,
      "now": 322,
      "##ig": 323,
      "##urn": 324,
      "ever": 325,
      "tim": 326,
      "##ie": 327,
      "##ress": 328,
      "##ick": 329,
      "little": 330,
      "##dd": 331,
      "##ity": 332,
      "don": 333,
      "##ate": 334,
      "##ace": 335,
      "##ich": 336,
      "##ried": 337,
      "##ouse": 338,
      "##ite": 339,
      "want": 340,
      "##ps": 341,
      "##ally": 342,
      "##ge": 343,
      "##ound": 344,
      "house": 345,
      "##dy": 346,
      "##ear": 347,
      "get": 348,
      "##able": 349,
      "look": 350,
      "##ew": 351,
      "##ach": 352,
      "went": 353,
      "eyes": 354,
      "##fore": 355,
      "before": 356,
      "ar": 357,
      "could": 358,
      "new": 359,
      "com": 360,
      "got": 361,
      "again": 362,
      "old": 363,
      "##ect": 364,
      "them": 365,
      "turn": 366,
      "see": 367,
      "en": 368,
      "som": 369,
      "##sed": 370,
      "##ward": 371,
      "##ils": 372,
      "looked": 373,
      "didn": 374,
      "come": 375,
      "gl": 376,
      "pr": 377,
      "thou": 378,
      "##ine": 379,
      "##ood": 380,
      "time": 381,
      "somet": 382,
      "room": 383,
      "lo": 384,
      "##qu": 385,
      "##ered": 386,
      "fl": 387,
      "long": 388,
      "mom": 389,
      "night": 390,
      "qu": 391,
      "##gg": 392,
      "##round": 393,
      "moment": 394,
      "bl": 395,
      "way": 396,
      "your": 397,
      "##self": 398,
      "br": 399,
      "im": 400,
      "ll": 401,
      "pl": 402,
      "wils": 403,
      "off": 404,
      "wilson": 405,
      "bo": 406,
      "more": 407,
      "pe": 408,
      "##ile": 409,
      "##ther": 410,
      "think": 411,
      "##ery": 412,
      "away": 413,
      "gre": 414,
      "sm": 415,
      "would": 416,
      "##ies": 417,
      "##ake": 418,
      "rem": 419,
      "door": 420,
      "every": 421,
      "can": 422,
      "mad": 423,
      "jord": 424,
      "##ving": 425,
      "beg": 426,
      "two": 427,
      "jordan": 428,
      "here": 429,
      "##ft": 430,
      "##orn": 431,
      "gir": 432,
      "##ated": 433,
      "where": 434,
      "around": 435,
      "other": 436,
      "vo": 437,
      "well": 438,
      "going": 439,
      "am": 440,
      "ac": 441,
      "##ious": 442,
      "##air": 443,
      "girl": 444,
      "ve": 445,
      "##ap": 446,
      "##ting": 447,
      "##ang": 448,
      "never": 449,
      "something": 450,
      "even": 451,
      "po": 452,
      "us": 453,
      "under": 454,
      "##row": 455,
      "##ull": 456,
      "thing": 457,
      "throu": 458,
      "##ont": 459,
      "through": 460,
      "day": 461,
      "wor": 462,
      "which": 463,
      "clo": 464,
      "##ep": 465,
      "##hed": 466,
      "##uch": 467,
      "turned": 468,
      "min": 469,
      "wa": 470,
      "##ry": 471,
      "##ff": 472,
      "##ather": 473,
      "##act": 474,
      "##ople": 475,
      "people": 476,
      "made": 477,
      "dis": 478,
      "fir": 479,
      "light": 480,
      "sl": 481,
      "very": 482,
      "year": 483,
      "##ru": 484,
      "##bo": 485,
      "bec": 486,
      "##age": 487,
      "##ark": 488,
      "##ute": 489,
      "dri": 490,
      "part": 491,
      "##ss": 492,
      "##no": 493,
      "##ure": 494,
      "##ty": 495,
      "##ass": 496,
      "voice": 497,
      "op": 498,
      "wind": 499,
      "##pl": 500,
      "their": 501,
      "##ence": 502,
      "##ree": 503,
      "##pped": 504,
      "cont": 505,
      "sw": 506,
      "say": 507,
      "##ath": 508,
      "##ance": 509,
      "##other": 510,
      "first": 511,
      "call": 512,
      "face": 513,
      "##ab": 514,
      "##ause": 515,
      "sc": 516,
      "##ue": 517,
      "knew": 518,
      "fe": 519,
      "how": 520,
      "##ng": 521,
      "only": 522,
      "saw": 523,
      "##ment": 524,
      "##ted": 525,
      "##thing": 526,
      "toward": 527,
      "sport": 528,
      "cl": 529,
      "##sh": 530,
      "##red": 531,
      "##ened": 532,
      "##ently": 533,
      "right": 534,
      "##ily": 535,
      "##th": 536,
      "##iss": 537,
      "half": 538,
      "white": 539,
      "began": 540,
      "let": 541,
      "while": 542,
      "##ired": 543,
      "fo": 544,
      "##ness": 545,
      "young": 546,
      "start": 547,
      "took": 548,
      "thought": 549,
      "are": 550,
      "gr": 551,
      "hour": 552,
      "last": 553,
      "##ose": 554,
      "inc": 555,
      "head": 556,
      "per": 557,
      "##ave": 558,
      "##ber": 559,
      "ins": 560,
      "bet": 561,
      "sudd": 562,
      "unt": 563,
      "sudden": 564,
      "men": 565,
      "mar": 566,
      "ph": 567,
      "##ost": 568,
      "##get": 569,
      "##een": 570,
      "##ced": 571,
      "told": 572,
      "##ited": 573,
      "imp": 574,
      "because": 575,
      "oh": 576,
      "ob": 577,
      "pol": 578,
      "##iv": 579,
      "##iz": 580,
      "##ph": 581,
      "heard": 582,
      "why": 583,
      "str": 584,
      "##alk": 585,
      "##ook": 586,
      "seem": 587,
      "afterno": 588,
      "##aking": 589,
      "##body": 590,
      "afternoon": 591,
      "sat": 592,
      "##led": 593,
      "##ater": 594,
      "asked": 595,
      "until": 596,
      "bro": 597,
      "name": 598,
      "##less": 599,
      "than": 600,
      "bel": 601,
      "exc": 602,
      "cou": 603,
      "lau": 604,
      "west": 605,
      "##alked": 606,
      "##ool": 607,
      "left": 608,
      "hands": 609,
      "bak": 610,
      "hu": 611,
      "miss": 612,
      "##xt": 613,
      "inter": 614,
      "its": 615,
      "##olf": 616,
      "window": 617,
      "suddenly": 618,
      "baker": 619,
      "bre": 620,
      "dr": 621,
      "found": 622,
      "good": 623,
      "pro": 624,
      "tell": 625,
      "##tain": 626,
      "inv": 627,
      "happ": 628,
      "wasn": 629,
      "##cept": 630,
      "exp": 631,
      "##ways": 632,
      "years": 633,
      "seemed": 634,
      "much": 635,
      "side": 636,
      "te": 637,
      "wom": 638,
      "word": 639,
      "##igh": 640,
      "three": 641,
      "once": 642,
      "ad": 643,
      "des": 644,
      "dark": 645,
      "em": 646,
      "##sp": 647,
      "##awn": 648,
      "##pr": 649,
      "##med": 650,
      "##atter": 651,
      "##ary": 652,
      "dress": 653,
      "egg": 654,
      "five": 655,
      "rest": 656,
      "sound": 657,
      "##ever": 658,
      "##ork": 659,
      "another": 660,
      "##ained": 661,
      "##arden": 662,
      "next": 663,
      "along": 664,
      "arm": 665,
      "garden": 666,
      "hot": 667,
      "own": 668,
      "sil": 669,
      "york": 670,
      "##ild": 671,
      "##fe": 672,
      "##ek": 673,
      "supp": 674,
      "nothing": 675,
      "looking": 676,
      "though": 677,
      "small": 678,
      "minute": 679,
      "end": 680,
      "must": 681,
      "##ful": 682,
      "star": 683,
      "always": 684,
      "love": 685,
      "world": 686,
      "each": 687,
      "sit": 688,
      "war": 689,
      "##te": 690,
      "##ory": 691,
      "ste": 692,
      "##ions": 693,
      "upon": 694,
      "alone": 695,
      "comp": 696,
      "open": 697,
      "##shi": 698,
      "app": 699,
      "gar": 700,
      "table": 701,
      "wolf": 702,
      "##ire": 703,
      "##ible": 704,
      "##co": 705,
      "##inn": 706,
      "##ality": 707,
      "rep": 708,
      "front": 709,
      "##ched": 710,
      "most": 711,
      "against": 712,
      "clock": 713,
      "##gether": 714,
      "##shiem": 715,
      "wolfshiem": 716,
      "cried": 717,
      "hard": 718,
      "ke": 719,
      "morn": 720,
      "##ne": 721,
      "together": 722,
      "##are": 723,
      "inqu": 724,
      "##llow": 725,
      "still": 726,
      "seen": 727,
      "##ross": 728,
      "conf": 729,
      "spe": 730,
      "##ellow": 731,
      "mrs": 732,
      "morning": 733,
      "dem": 734,
      "sur": 735,
      "tre": 736,
      "##az": 737,
      "##ying": 738,
      "##ud": 739,
      "##ish": 740,
      "should": 741,
      "life": 742,
      "remem": 743,
      "things": 744,
      "cour": 745,
      "dro": 746,
      "ho": 747,
      "id": 748,
      "met": 749,
      "mont": 750,
      "pers": 751,
      "##sw": 752,
      "##ale": 753,
      "##per": 754,
      "##ling": 755,
      "##les": 756,
      "##ually": 757,
      "##iness": 758,
      "stand": 759,
      "##ady": 760,
      "himself": 761,
      "abs": 762,
      "##ign": 763,
      "##dded": 764,
      "called": 765,
      "cur": 766,
      "el": 767,
      "fam": 768,
      "home": 769,
      "take": 770,
      "##ip": 771,
      "##ied": 772,
      "##aps": 773,
      "##ves": 774,
      "##ertain": 775,
      "##ase": 776,
      "##anc": 777,
      "whis": 778,
      "sto": 779,
      "stood": 780,
      "answ": 781,
      "frie": 782,
      "does": 783,
      "sun": 784,
      "couldn": 785,
      "garage": 786,
      "demand": 787,
      "friend": 788,
      "col": 789,
      "four": 790,
      "lawn": 791,
      "make": 792,
      "matter": 793,
      "##ten": 794,
      "those": 795,
      "##orm": 796,
      "without": 797,
      "##ously": 798,
      "road": 799,
      "anything": 800,
      "moved": 801,
      "wanted": 802,
      "##ected": 803,
      "play": 804,
      "great": 805,
      "##airs": 806,
      "wait": 807,
      "dre": 808,
      "gave": 809,
      "ind": 810,
      "might": 811,
      "##ial": 812,
      "##app": 813,
      "##ught": 814,
      "##mer": 815,
      "##ene": 816,
      "##ise": 817,
      "##ished": 818,
      "##oth": 819,
      "real": 820,
      "##antly": 821,
      "dec": 822,
      "##ression": 823,
      "##ately": 824,
      "pres": 825,
      "acc": 826,
      "across": 827,
      "slow": 828,
      "##ably": 829,
      "inquired": 830,
      "air": 831,
      "bed": 832,
      "buch": 833,
      "few": 834,
      "gu": 835,
      "high": 836,
      "later": 837,
      "our": 838,
      "res": 839,
      "rather": 840,
      "yes": 841,
      "##iar": 842,
      "##ler": 843,
      "##cc": 844,
      "##ky": 845,
      "##wh": 846,
      "these": 847,
      "town": 848,
      "##anan": 849,
      "hear": 850,
      "mean": 851,
      "##aint": 852,
      "##oney": 853,
      "##elt": 854,
      "##raw": 855,
      "##iff": 856,
      "everything": 857,
      "underst": 858,
      "follow": 859,
      "started": 860,
      "belie": 861,
      "laugh": 862,
      "buchanan": 863,
      "aut": 864,
      "ear": 865,
      "east": 866,
      "flo": 867,
      "full": 868,
      "felt": 869,
      "nick": 870,
      "ser": 871,
      "sent": 872,
      "sort": 873,
      "wo": 874,
      "yellow": 875,
      "##ea": 876,
      "##ead": 877,
      "##ween": 878,
      "##ister": 879,
      "##assed": 880,
      "##iled": 881,
      "##ement": 882,
      "god": 883,
      "lea": 884,
      "##ushed": 885,
      "between": 886,
      "married": 887,
      "steps": 888,
      "surpr": 889,
      "demanded": 890,
      "bes": 891,
      "book": 892,
      "find": 893,
      "gone": 894,
      "money": 895,
      "put": 896,
      "talk": 897,
      "will": 898,
      "wif": 899,
      "walked": 900,
      "##rtle": 901,
      "##ged": 902,
      "##ys": 903,
      "##ued": 904,
      "##ough": 905,
      "##atch": 906,
      "##ingly": 907,
      "inst": 908,
      "##ange": 909,
      "##reet": 910,
      "reach": 911,
      "week": 912,
      "myrtle": 913,
      "dog": 914,
      "##ested": 915,
      "##illed": 916,
      "comm": 917,
      "##iously": 918,
      "feet": 919,
      "broke": 920,
      "tele": 921,
      "wife": 922,
      "aw": 923,
      "cr": 924,
      "mich": 925,
      "ought": 926,
      "sing": 927,
      "set": 928,
      "##ael": 929,
      "##land": 930,
      "##most": 931,
      "##int": 932,
      "##oun": 933,
      "##ens": 934,
      "##ank": 935,
      "hair": 936,
      "short": 937,
      "##ical": 938,
      "##ither": 939,
      "sugg": 940,
      "almost": 941,
      "lean": 942,
      "wouldn": 943,
      "contin": 944,
      "course": 945,
      "teleph": 946,
      "michael": 947,
      "michaelis": 948,
      "bu": 949,
      "bus": 950,
      "certain": 951,
      "fin": 952,
      "far": 953,
      "fell": 954,
      "fact": 955,
      "has": 956,
      "mur": 957,
      "ple": 958,
      "pic": 959,
      "##iet": 960,
      "##side": 961,
      "##ped": 962,
      "##ought": 963,
      "inf": 964,
      "##ane": 965,
      "##leep": 966,
      "hadn": 967,
      "##tered": 968,
      "sum": 969,
      "such": 970,
      "##outh": 971,
      "che": 972,
      "rose": 973,
      "##unch": 974,
      "move": 975,
      "arri": 976,
      "quick": 977,
      "blue": 978,
      "among": 979,
      "drive": 980,
      "woman": 981,
      "colour": 982,
      "wonder": 983,
      "beside": 984,
      "big": 985,
      "cor": 986,
      "crow": 987,
      "fun": 988,
      "fif": 989,
      "list": 990,
      "rain": 991,
      "run": 992,
      "##ix": 993,
      "##iver": 994,
      "##uct": 995,
      "##ined": 996,
      "##ised": 997,
      "hel": 998,
      "##ident": 999,
      "##icag": 1000,
      "att": 1001,
      "##amp": 1002,
      "butler": 1003,
      "chicag": 1004,
      "care": 1005,
      "##ular": 1006,
      "train": 1007,
      "trying": 1008,
      "loved": 1009,
      "place": 1010,
      "body": 1011,
      "girls": 1012,
      "evening": 1013,
      "##rupt": 1014,
      "party": 1015,
      "windows": 1016,
      "remember": 1017,
      "person": 1018,
      "stopped": 1019,
      "crowd": 1020,
      "chicago": 1021,
      "ap": 1022,
      "cir": 1023,
      "city": 1024,
      "eff": 1025,
      "fac": 1026,
      "faint": 1027,
      "hur": 1028,
      "mid": 1029,
      "past": 1030,
      "sn": 1031,
      "tou": 1032,
      "tried": 1033,
      "##ib": 1034,
      "##ford": 1035,
      "##end": 1036,
      "##haps": 1037,
      "##cke": 1038,
      "##ject": 1039,
      "##zen": 1040,
      "##ndred": 1041,
      "##orge": 1042,
      "##orrow": 1043,
      "heart": 1044,
      "haven": 1045,
      "shad": 1046,
      "beh": 1047,
      "##ically": 1048,
      "street": 1049,
      "ass": 1050,
      "rel": 1051,
      "##iliar": 1052,
      "chair": 1053,
      "cons": 1054,
      "many": 1055,
      "ago": 1056,
      "##ively": 1057,
      "immed": 1058,
      "green": 1059,
      "days": 1060,
      "feel": 1061,
      "perhaps": 1062,
      "inside": 1063,
      "hundred": 1064,
      "idea": 1065,
      "telephone": 1066,
      "summer": 1067,
      "circ": 1068,
      "immedi": 1069,
      "brou": 1070,
      "dist": 1071,
      "ele": 1072,
      "give": 1073,
      "low": 1074,
      "mcke": 1075,
      "nam": 1076,
      "passed": 1077,
      "##full": 1078,
      "##mur": 1079,
      "##br": 1080,
      "##xi": 1081,
      "##ating": 1082,
      "##ons": 1083,
      "##itch": 1084,
      "hall": 1085,
      "itself": 1086,
      "##ention": 1087,
      "ash": 1088,
      "dozen": 1089,
      "sub": 1090,
      "##estion": 1091,
      "aff": 1092,
      "expl": 1093,
      "except": 1094,
      "somebody": 1095,
      "island": 1096,
      "##used": 1097,
      "pret": 1098,
      "bright": 1099,
      "office": 1100,
      "grey": 1101,
      "better": 1102,
      "breath": 1103,
      "happened": 1104,
      "doesn": 1105,
      "slowly": 1106,
      "##where": 1107,
      "understand": 1108,
      "business": 1109,
      "murmur": 1110,
      "behind": 1111,
      "brought": 1112,
      "##fully": 1113,
      "corn": 1114,
      "del": 1115,
      "lunch": 1116,
      "pre": 1117,
      "talked": 1118,
      "used": 1119,
      "vi": 1120,
      "won": 1121,
      "##oke": 1122,
      "##how": 1123,
      "##ual": 1124,
      "##bb": 1125,
      "##ening": 1126,
      "##anced": 1127,
      "shook": 1128,
      "##veral": 1129,
      "myself": 1130,
      "sec": 1131,
      "several": 1132,
      "suit": 1133,
      "sure": 1134,
      "whole": 1135,
      "##umb": 1136,
      "##isted": 1137,
      "coat": 1138,
      "coll": 1139,
      "cold": 1140,
      "times": 1141,
      "##itely": 1142,
      "flow": 1143,
      "work": 1144,
      "##ffe": 1145,
      "opened": 1146,
      "sitting": 1147,
      "answered": 1148,
      "act": 1149,
      "bought": 1150,
      "cra": 1151,
      "fing": 1152,
      "ge": 1153,
      "por": 1154,
      "pull": 1155,
      "ra": 1156,
      "sin": 1157,
      "same": 1158,
      "ta": 1159,
      "ten": 1160,
      "##aut": 1161,
      "##pe": 1162,
      "##og": 1163,
      "##head": 1164,
      "##ken": 1165,
      "##zy": 1166,
      "sho": 1167,
      "shar": 1168,
      "being": 1169,
      "##ready": 1170,
      "##stairs": 1171,
      "stay": 1172,
      "##irt": 1173,
      "ask": 1174,
      "read": 1175,
      "##room": 1176,
      "live": 1177,
      "outside": 1178,
      "child": 1179,
      "nodded": 1180,
      "##eless": 1181,
      "##ille": 1182,
      "ord": 1183,
      "deep": 1184,
      "##ations": 1185,
      "##eared": 1186,
      "eng": 1187,
      "prom": 1188,
      "waited": 1189,
      "disapp": 1190,
      "insisted": 1191,
      "##ized": 1192,
      "expression": 1193,
      "women": 1194,
      "standing": 1195,
      "dream": 1196,
      "believe": 1197,
      "arrived": 1198,
      "immediately": 1199,
      "mckee": 1200,
      "porch": 1201,
      "blo": 1202,
      "ce": 1203,
      "cool": 1204,
      "draw": 1205,
      "ev": 1206,
      "ed": 1207,
      "gro": 1208,
      "jo": 1209,
      "lou": 1210,
      "mouth": 1211,
      "pool": 1212,
      "sim": 1213,
      "ter": 1214,
      "wall": 1215,
      "walk": 1216,
      "watch": 1217,
      "##ned": 1218,
      "##got": 1219,
      "##light": 1220,
      "##up": 1221,
      "##ming": 1222,
      "##ash": 1223,
      "##ition": 1224,
      "##lem": 1225,
      "##vered": 1226,
      "##ghter": 1227,
      "stop": 1228,
      "really": 1229,
      "##sband": 1230,
      "##empt": 1231,
      "tomorrow": 1232,
      "chang": 1233,
      "already": 1234,
      "least": 1235,
      "isn": 1236,
      "def": 1237,
      "moon": 1238,
      "cody": 1239,
      "getting": 1240,
      "enough": 1241,
      "glass": 1242,
      "glanced": 1243,
      "sometim": 1244,
      "close": 1245,
      "husband": 1246,
      "drink": 1247,
      "words": 1248,
      "suppose": 1249,
      "stared": 1250,
      "comple": 1251,
      "speak": 1252,
      "drove": 1253,
      "month": 1254,
      "family": 1255,
      "whisp": 1256,
      "followed": 1257,
      "laughed": 1258,
      "floor": 1259,
      "reached": 1260,
      "leaned": 1261,
      "quickly": 1262,
      "add": 1263,
      "cather": 1264,
      "det": 1265,
      "fall": 1266,
      "gra": 1267,
      "hes": 1268,
      "hum": 1269,
      "hop": 1270,
      "kind": 1271,
      "lay": 1272,
      "ox": 1273,
      "occ": 1274,
      "pale": 1275,
      "ret": 1276,
      "rais": 1277,
      "sight": 1278,
      "sister": 1279,
      "tri": 1280,
      "wr": 1281,
      "##ips": 1282,
      "##av": 1283,
      "##ret": 1284,
      "##os": 1285,
      "##ny": 1286,
      "##day": 1287,
      "##yed": 1288,
      "##uc": 1289,
      "##mb": 1290,
      "thir": 1291,
      "##enc": 1292,
      "##ings": 1293,
      "##ars": 1294,
      "heat": 1295,
      "held": 1296,
      "whe": 1297,
      "##utes": 1298,
      "beaut": 1299,
      "##icem": 1300,
      "forgot": 1301,
      "##ager": 1302,
      "unf": 1303,
      "cars": 1304,
      "someone": 1305,
      "longer": 1306,
      "minutes": 1307,
      "policem": 1308,
      "coun": 1309,
      "adm": 1310,
      "warm": 1311,
      "repe": 1312,
      "keep": 1313,
      "trees": 1314,
      "hold": 1315,
      "suggested": 1316,
      "pict": 1317,
      "apart": 1318,
      "effort": 1319,
      "touch": 1320,
      "shadow": 1321,
      "explained": 1322,
      "pretty": 1323,
      "viol": 1324,
      "crazy": 1325,
      "george": 1326,
      "sharp": 1327,
      "sometimes": 1328,
      "catherine": 1329,
      "hesit": 1330,
      "oxford": 1331,
      "policeman": 1332,
      "added": 1333,
      "both": 1334,
      "cas": 1335,
      "cre": 1336,
      "dim": 1337,
      "dust": 1338,
      "dinn": 1339,
      "diff": 1340,
      "either": 1341,
      "eager": 1342,
      "gen": 1343,
      "hor": 1344,
      "lar": 1345,
      "less": 1346,
      "late": 1347,
      "mind": 1348,
      "nice": 1349,
      "ran": 1350,
      "sign": 1351,
      "taking": 1352,
      "wild": 1353,
      "##ia": 1354,
      "##ian": 1355,
      "##ipped": 1356,
      "##ond": 1357,
      "##vant": 1358,
      "##uck": 1359,
      "##cked": 1360,
      "##esh": 1361,
      "##arked": 1362,
      "##ans": 1363,
      "##ities": 1364,
      "show": 1365,
      "##ets": 1366,
      "form": 1367,
      "forward": 1368,
      "susp": 1369,
      "##antic": 1370,
      "change": 1371,
      "gold": 1372,
      "##ages": 1373,
      "unc": 1374,
      "ext": 1375,
      "##ung": 1376,
      "##unt": 1377,
      "anyhow": 1378,
      "black": 1379,
      "boy": 1380,
      "smiled": 1381,
      "point": 1382,
      "foot": 1383,
      "grass": 1384,
      "laughter": 1385,
      "arms": 1386,
      "shoulder": 1387,
      "leaving": 1388,
      "continued": 1389,
      "finally": 1390,
      "hurried": 1391,
      "pulled": 1392,
      "complete": 1393,
      "whispered": 1394,
      "picture": 1395,
      "dinner": 1396,
      "bar": 1397,
      "cig": 1398,
      "cap": 1399,
      "gi": 1400,
      "gh": 1401,
      "gas": 1402,
      "ju": 1403,
      "jay": 1404,
      "killed": 1405,
      "lot": 1406,
      "mot": 1407,
      "mus": 1408,
      "mist": 1409,
      "mine": 1410,
      "pow": 1411,
      "red": 1412,
      "rom": 1413,
      "sick": 1414,
      "squ": 1415,
      "##lt": 1416,
      "##ub": 1417,
      "##uous": 1418,
      "##by": 1419,
      "##bed": 1420,
      "##bar": 1421,
      "##ining": 1422,
      "##lled": 1423,
      "shirt": 1424,
      "##ices": 1425,
      "##ented": 1426,
      "##vers": 1427,
      "station": 1428,
      "##urch": 1429,
      "##urred": 1430,
      "forever": 1431,
      "##essed": 1432,
      "doing": 1433,
      "near": 1434,
      "##olute": 1435,
      "known": 1436,
      "##ctor": 1437,
      "nose": 1438,
      "leave": 1439,
      "somewhere": 1440,
      "dead": 1441,
      "turning": 1442,
      "enorm": 1443,
      "remark": 1444,
      "remarked": 1445,
      "poss": 1446,
      "##rug": 1447,
      "drift": 1448,
      "swe": 1449,
      "##ments": 1450,
      "phone": 1451,
      "excited": 1452,
      "coupe": 1453,
      "kept": 1454,
      "absolute": 1455,
      "curious": 1456,
      "##ancing": 1457,
      "surprised": 1458,
      "single": 1459,
      "fifty": 1460,
      "faces": 1461,
      "since": 1462,
      "grave": 1463,
      "raised": 1464,
      "wheel": 1465,
      "cigar": 1466,
      "bad": 1467,
      "dou": 1468,
      "fine": 1469,
      "har": 1470,
      "ir": 1471,
      "line": 1472,
      "may": 1473,
      "making": 1474,
      "par": 1475,
      "pri": 1476,
      "pie": 1477,
      "sad": 1478,
      "tak": 1479,
      "ur": 1480,
      "vill": 1481,
      "wet": 1482,
      "##ior": 1483,
      "##ail": 1484,
      "##osed": 1485,
      "##gro": 1486,
      "##dle": 1487,
      "##yond": 1488,
      "##uff": 1489,
      "##bour": 1490,
      "##jo": 1491,
      "##erv": 1492,
      "##erm": 1493,
      "##eral": 1494,
      "##inted": 1495,
      "##ising": 1496,
      "##ason": 1497,
      "##asant": 1498,
      "hell": 1499,
      "having": 1500,
      "beyond": 1501,
      "##enty": 1502,
      "##reed": 1503,
      "story": 1504,
      "##urg": 1505,
      "##ured": 1506,
      "forget": 1507,
      "meet": 1508,
      "asleep": 1509,
      "##aded": 1510,
      "##tern": 1511,
      "fresh": 1512,
      "##iles": 1513,
      "gatz": 1514,
      "sea": 1515,
      "##rible": 1516,
      "neigh": 1517,
      "lived": 1518,
      "lips": 1519,
      "spr": 1520,
      "une": 1521,
      "carra": 1522,
      "##unk": 1523,
      "##ush": 1524,
      "orch": 1525,
      "##ific": 1526,
      "glad": 1527,
      "rooms": 1528,
      "lost": 1529,
      "quality": 1530,
      "question": 1531,
      "blind": 1532,
      "voices": 1533,
      "pock": 1534,
      "disc": 1535,
      "lights": 1536,
      "slight": 1537,
      "parties": 1538,
      "saying": 1539,
      "phys": 1540,
      "excit": 1541,
      "couch": 1542,
      "tea": 1543,
      "silver": 1544,
      "tremb": 1545,
      "##ances": 1546,
      "answer": 1547,
      "guest": 1548,
      "autom": 1549,
      "coloured": 1550,
      "middle": 1551,
      "colle": 1552,
      "fingers": 1553,
      "repeated": 1554,
      "large": 1555,
      "enormous": 1556,
      "neighbour": 1557,
      "ble": 1558,
      "cle": 1559,
      "drug": 1560,
      "eat": 1561,
      "eight": 1562,
      "father": 1563,
      "mother": 1564,
      "rang": 1565,
      "sal": 1566,
      "slo": 1567,
      "sleep": 1568,
      "trou": 1569,
      "ver": 1570,
      "##ier": 1571,
      "##sc": 1572,
      "##aid": 1573,
      "##night": 1574,
      "##la": 1575,
      "##lud": 1576,
      "##ef": 1577,
      "##use": 1578,
      "##bt": 1579,
      "##bered": 1580,
      "##king": 1581,
      "throw": 1582,
      "##eric": 1583,
      "##ins": 1584,
      "##inger": 1585,
      "##issed": 1586,
      "##isible": 1587,
      "##ared": 1588,
      "ine": 1589,
      "whom": 1590,
      "##utter": 1591,
      "shap": 1592,
      "beat": 1593,
      "##rect": 1594,
      "##otog": 1595,
      "##ures": 1596,
      "##als": 1597,
      "reg": 1598,
      "##ilo": 1599,
      "seco": 1600,
      "doctor": 1601,
      "super": 1602,
      "##rill": 1603,
      "need": 1604,
      "libr": 1605,
      "upstairs": 1606,
      "chau": 1607,
      "soft": 1608,
      "conce": 1609,
      "convers": 1610,
      "spoke": 1611,
      "##une": 1612,
      "##ult": 1613,
      "##raid": 1614,
      "anyone": 1615,
      "moving": 1616,
      "##ressed": 1617,
      "wants": 1618,
      "newsp": 1619,
      "coming": 1620,
      "glow": 1621,
      "everyone": 1622,
      "everybody": 1623,
      "americ": 1624,
      "##aper": 1625,
      "driving": 1626,
      "##redul": 1627,
      "object": 1628,
      "broken": 1629,
      "##lessly": 1630,
      "interest": 1631,
      "interrupt": 1632,
      "happen": 1633,
      "silence": 1634,
      "lovely": 1635,
      "remembered": 1636,
      "familiar": 1637,
      "accident": 1638,
      "talking": 1639,
      "aware": 1640,
      "please": 1641,
      "funny": 1642,
      "faintly": 1643,
      "##ended": 1644,
      "secret": 1645,
      "##ffeur": 1646,
      "thirty": 1647,
      "forgotten": 1648,
      "ghost": 1649,
      "motor": 1650,
      "romantic": 1651,
      "cigaret": 1652,
      "taken": 1653,
      "carraway": 1654,
      "trembling": 1655,
      "college": 1656,
      "sloane": 1657,
      "##otogra": 1658,
      "second": 1659,
      "library": 1660,
      "chauffeur": 1661,
      "conversation": 1662,
      "bath": 1663,
      "bilo": 1664,
      "dan": 1665,
      "dur": 1666,
      "div": 1667,
      "fig": 1668,
      "fool": 1669,
      "ga": 1670,
      "host": 1671,
      "jum": 1672,
      "kitch": 1673,
      "lim": 1674,
      "mag": 1675,
      "pur": 1676,
      "pause": 1677,
      "row": 1678,
      "rich": 1679,
      "sle": 1680,
      "sky": 1681,
      "six": 1682,
      "vag": 1683,
      "wire": 1684,
      "yet": 1685,
      "yard": 1686,
      "##ipp": 1687,
      "##sy": 1688,
      "##ric": 1689,
      "##ract": 1690,
      "##oc": 1691,
      "##ville": 1692,
      "##ding": 1693,
      "##ks": 1694,
      "thick": 1695,
      "##erful": 1696,
      "##initely": 1697,
      "##nds": 1698,
      "##oud": 1699,
      "##ati": 1700,
      "tow": 1701,
      "##ored": 1702,
      "##oned": 1703,
      "##ashed": 1704,
      "beach": 1705,
      "##idently": 1706,
      "##ents": 1707,
      "##entr": 1708,
      "##rew": 1709,
      "##imed": 1710,
      "##ster": 1711,
      "stru": 1712,
      "##amiliar": 1713,
      "##ilight": 1714,
      "##rod": 1715,
      "doll": 1716,
      "living": 1717,
      "introd": 1718,
      "church": 1719,
      "solem": 1720,
      "conc": 1721,
      "afraid": 1722,
      "nobody": 1723,
      "##astic": 1724,
      "leg": 1725,
      "whose": 1726,
      "##aught": 1727,
      "agreed": 1728,
      "true": 1729,
      "twenty": 1730,
      "twilight": 1731,
      "compl": 1732,
      "poor": 1733,
      "became": 1734,
      "scene": 1735,
      "cloth": 1736,
      "letter": 1737,
      "incess": 1738,
      "includ": 1739,
      "incredul": 1740,
      "photogra": 1741,
      "impression": 1742,
      "obl": 1743,
      "stret": 1744,
      "excla": 1745,
      "drunk": 1746,
      "goodby": 1747,
      "adv": 1748,
      "darkness": 1749,
      "embar": 1750,
      "hotel": 1751,
      "##inning": 1752,
      "hardly": 1753,
      "confused": 1754,
      "drew": 1755,
      "presence": 1756,
      "series": 1757,
      "weeks": 1758,
      "correct": 1759,
      "listen": 1760,
      "##ixed": 1761,
      "reluct": 1762,
      "feeling": 1763,
      "named": 1764,
      "names": 1765,
      "corner": 1766,
      "taxi": 1767,
      "stayed": 1768,
      "terrible": 1769,
      "walking": 1770,
      "changed": 1771,
      "occurred": 1772,
      "return": 1773,
      "unfamiliar": 1774,
      "holding": 1775,
      "hesitated": 1776,
      "differ": 1777,
      "eagerly": 1778,
      "extra": 1779,
      "doubt": 1780,
      "priv": 1781,
      "slightly": 1782,
      "drugst": 1783,
      "trouble": 1784,
      "biloxi": 1785,
      "kitchen": 1786,
      "vague": 1787,
      "solemn": 1788,
      "exclaimed": 1789,
      "goodbye": 1790,
      "embarr": 1791,
      "00": 1792,
      "ast": 1793,
      "bay": 1794,
      "bot": 1795,
      "caught": 1796,
      "dam": 1797,
      "done": 1798,
      "dire": 1799,
      "died": 1800,
      "eck": 1801,
      "fer": 1802,
      "fur": 1803,
      "filled": 1804,
      "faded": 1805,
      "gay": 1806,
      "hous": 1807,
      "hast": 1808,
      "june": 1809,
      "lady": 1810,
      "nat": 1811,
      "nerv": 1812,
      "ow": 1813,
      "opp": 1814,
      "pushed": 1815,
      "sor": 1816,
      "son": 1817,
      "tight": 1818,
      "use": 1819,
      "van": 1820,
      "wer": 1821,
      "win": 1822,
      "wre": 1823,
      "water": 1824,
      "yach": 1825,
      "##ssed": 1826,
      "##ob": 1827,
      "##vin": 1828,
      "##ls": 1829,
      "##lips": 1830,
      "##yer": 1831,
      "##uit": 1832,
      "##burg": 1833,
      "##cul": 1834,
      "thin": 1835,
      "##erable": 1836,
      "##inct": 1837,
      "##ative": 1838,
      "##ense": 1839,
      "##ors": 1840,
      "##ism": 1841,
      "##arily": 1842,
      "##asy": 1843,
      "##ased": 1844,
      "often": 1845,
      "##itality": 1846,
      "##ided": 1847,
      "##ote": 1848,
      "##otion": 1849,
      "mem": 1850,
      "##ade": 1851,
      "ref": 1852,
      "gate": 1853,
      "gather": 1854,
      "##rop": 1855,
      "##rol": 1856,
      "##cely": 1857,
      "neither": 1858,
      "abrupt": 1859,
      "char": 1860,
      "champ": 1861,
      "##aged": 1862,
      "conn": 1863,
      "noon": 1864,
      "##usion": 1865,
      "##akes": 1866,
      "##ckt": 1867,
      "try": 1868,
      "##iful": 1869,
      "##ified": 1870,
      "cockt": 1871,
      "eye": 1872,
      "##ief": 1873,
      "##ears": 1874,
      "arg": 1875,
      "enjo": 1876,
      "flat": 1877,
      "quite": 1878,
      "quiet": 1879,
      "brid": 1880,
      "imag": 1881,
      "thinking": 1882,
      "smile": 1883,
      "whereup": 1884,
      "accept": 1885,
      "closed": 1886,
      "##rying": 1887,
      "##action": 1888,
      "partic": 1889,
      "calling": 1890,
      "however": 1891,
      "perf": 1892,
      "impati": 1893,
      "obv": 1894,
      "politely": 1895,
      "##ives": 1896,
      "strang": 1897,
      "strained": 1898,
      "broad": 1899,
      "belong": 1900,
      "interested": 1901,
      "prof": 1902,
      "invited": 1903,
      "desp": 1904,
      "silent": 1905,
      "supper": 1906,
      "opening": 1907,
      "##azed": 1908,
      "montene": 1909,
      "else": 1910,
      "friends": 1911,
      "bedroom": 1912,
      "servant": 1913,
      "leaves": 1914,
      "buy": 1915,
      "certainly": 1916,
      "##iety": 1917,
      "help": 1918,
      "crowded": 1919,
      "##ibly": 1920,
      "consc": 1921,
      "elev": 1922,
      "subject": 1923,
      "flowers": 1924,
      "order": 1925,
      "dreams": 1926,
      "evidently": 1927,
      "groan": 1928,
      "louis": 1929,
      "months": 1930,
      "human": 1931,
      "hope": 1932,
      "##ency": 1933,
      "count": 1934,
      "music": 1935,
      "absolutely": 1936,
      "village": 1937,
      "hello": 1938,
      "physical": 1939,
      "shape": 1940,
      "conceal": 1941,
      "during": 1942,
      "clothes": 1943,
      "houses": 1944,
      "sorry": 1945,
      "weren": 1946,
      "whereupon": 1947,
      "19": 1948,
      "ba": 1949,
      "bur": 1950,
      "best": 1951,
      "cut": 1952,
      "cro": 1953,
      "card": 1954,
      "cous": 1955,
      "cop": 1956,
      "civ": 1957,
      "damp": 1958,
      "fa": 1959,
      "fant": 1960,
      "finn": 1961,
      "fellow": 1962,
      "gle": 1963,
      "glo": 1964,
      "grow": 1965,
      "golf": 1966,
      "hat": 1967,
      "jer": 1968,
      "jew": 1969,
      "klips": 1970,
      "lad": 1971,
      "ma": 1972,
      "mis": 1973,
      "mention": 1974,
      "nin": 1975,
      "od": 1976,
      "pen": 1977,
      "pal": 1978,
      "pick": 1979,
      "park": 1980,
      "pass": 1981,
      "sk": 1982,
      "sens": 1983,
      "var": 1984,
      "wed": 1985,
      "wand": 1986,
      "wide": 1987,
      "##so": 1988,
      "##af": 1989,
      "##apped": 1990,
      "##ping": 1991,
      "##ple": 1992,
      "##ren": 1993,
      "##ove": 1994,
      "##ning": 1995,
      "##gr": 1996,
      "##lves": 1997,
      "##ug": 1998,
      "##uously": 1999,
      "##tes": 2000,
      "##be": 2001,
      "##ball": 2002,
      "##cess": 2003,
      "##jected": 2004,
      "threw": 2005,
      "##ert": 2006,
      "##ines": 2007,
      "##ator": 2008,
      "##atic": 2009,
      "today": 2010,
      "##inging": 2011,
      "##arcely": 2012,
      "##asm": 2013,
      "##omp": 2014,
      "##leburg": 2015,
      "##uth": 2016,
      "##uttered": 2017,
      "shif": 2018,
      "##iment": 2019,
      "##lds": 2020,
      "##aced": 2021,
      "##aces": 2022,
      "stiff": 2023,
      "herself": 2024,
      "meyer": 2025,
      "reco": 2026,
      "##amed": 2027,
      "##ames": 2028,
      "fright": 2029,
      "frown": 2030,
      "##iling": 2031,
      "sear": 2032,
      "self": 2033,
      "##rolled": 2034,
      "##anted": 2035,
      "lie": 2036,
      "##pping": 2037,
      "above": 2038,
      "intim": 2039,
      "soon": 2040,
      "##agne": 2041,
      "overhead": 2042,
      "spot": 2043,
      "whenever": 2044,
      "careless": 2045,
      "##orted": 2046,
      "##usi": 2047,
      "afterward": 2048,
      "##rawn": 2049,
      "anybody": 2050,
      "trust": 2051,
      "coffe": 2052,
      "looks": 2053,
      "arr": 2054,
      "news": 2055,
      "##ection": 2056,
      "ent": 2057,
      "enter": 2058,
      "enth": 2059,
      "glance": 2060,
      "pract": 2061,
      "blank": 2062,
      "yourself": 2063,
      "brown": 2064,
      "offic": 2065,
      "boot": 2066,
      "##apers": 2067,
      "pos": 2068,
      "clos": 2069,
      "dism": 2070,
      "##board": 2071,
      "driver": 2072,
      "##pless": 2073,
      "contempt": 2074,
      "control": 2075,
      "says": 2076,
      "scarcely": 2077,
      "hours": 2078,
      "police": 2079,
      "##ivid": 2080,
      "##ize": 2081,
      "##izing": 2082,
      "prob": 2083,
      "##pringer": 2084,
      "appar": 2085,
      "dropped": 2086,
      "absor": 2087,
      "whisky": 2088,
      "played": 2089,
      "waiting": 2090,
      "realized": 2091,
      "decis": 2092,
      "resp": 2093,
      "believed": 2094,
      "books": 2095,
      "instinct": 2096,
      "##ounted": 2097,
      "cheerful": 2098,
      "lower": 2099,
      "##umbled": 2100,
      "children": 2101,
      "engaged": 2102,
      "disappeared": 2103,
      "drawing": 2104,
      "edge": 2105,
      "address": 2106,
      "determ": 2107,
      "wrong": 2108,
      "beauty": 2109,
      "beautiful": 2110,
      "apartment": 2111,
      "sharply": 2112,
      "casual": 2113,
      "gener": 2114,
      "given": 2115,
      "shirts": 2116,
      "urged": 2117,
      "orchest": 2118,
      "excitement": 2119,
      "guests": 2120,
      "automob": 2121,
      "blew": 2122,
      "newspaper": 2123,
      "interrupted": 2124,
      "jumped": 2125,
      "strugg": 2126,
      "dollars": 2127,
      "eckleburg": 2128,
      "vanished": 2129,
      "abruptly": 2130,
      "champagne": 2131,
      "accepted": 2132,
      "particular": 2133,
      "perfect": 2134,
      "impatiently": 2135,
      "montenegro": 2136,
      "servants": 2137,
      "louisville": 2138,
      "fantastic": 2139,
      "klipspringer": 2140,
      "coffee": 2141,
      "enthusi": 2142,
      "ban": 2143,
      "bit": 2144,
      "bir": 2145,
      "ball": 2146,
      "bother": 2147,
      "bene": 2148,
      "cry": 2149,
      "dance": 2150,
      "dawn": 2151,
      "drawn": 2152,
      "ec": 2153,
      "fas": 2154,
      "fash": 2155,
      "gent": 2156,
      "gest": 2157,
      "grou": 2158,
      "ground": 2159,
      "hus": 2160,
      "ice": 2161,
      "ja": 2162,
      "james": 2163,
      "kissed": 2164,
      "lem": 2165,
      "lave": 2166,
      "luc": 2167,
      "mil": 2168,
      "muttered": 2169,
      "nine": 2170,
      "pard": 2171,
      "port": 2172,
      "pink": 2173,
      "pair": 2174,
      "roo": 2175,
      "sch": 2176,
      "sol": 2177,
      "song": 2178,
      "south": 2179,
      "till": 2180,
      "tang": 2181,
      "tree": 2182,
      "tears": 2183,
      "ut": 2184,
      "vic": 2185,
      "vie": 2186,
      "wat": 2187,
      "wip": 2188,
      "##ient": 2189,
      "##iant": 2190,
      "##ially": 2191,
      "##sion": 2192,
      "##sued": 2193,
      "##aur": 2194,
      "##pected": 2195,
      "##oon": 2196,
      "##old": 2197,
      "##oss": 2198,
      "##vo": 2199,
      "##ner": 2200,
      "##nest": 2201,
      "##gn": 2202,
      "##der": 2203,
      "##ee": 2204,
      "##ey": 2205,
      "##hy": 2206,
      "##ule": 2207,
      "##uced": 2208,
      "##my": 2209,
      "##man": 2210,
      "##to": 2211,
      "##tion": 2212,
      "##tory": 2213,
      "##bit": 2214,
      "##bul": 2215,
      "##cer": 2216,
      "##cently": 2217,
      "##walk": 2218,
      "##ze": 2219,
      "thr": 2220,
      "thous": 2221,
      "thrill": 2222,
      "##ering": 2223,
      "##iny": 2224,
      "##nday": 2225,
      "##att": 2226,
      "##eng": 2227,
      "##ench": 2228,
      "##ores": 2229,
      "##orate": 2230,
      "##isf": 2231,
      "##ester": 2232,
      "##esqu": 2233,
      "##aring": 2234,
      "##ask": 2235,
      "##any": 2236,
      "heaps": 2237,
      "##lls": 2238,
      "shot": 2239,
      "shout": 2240,
      "shaking": 2241,
      "shining": 2242,
      "bend": 2243,
      "##eteen": 2244,
      "##read": 2245,
      "##stant": 2246,
      "history": 2247,
      "##otesqu": 2248,
      "##acy": 2249,
      "stra": 2250,
      "step": 2251,
      "within": 2252,
      "##irr": 2253,
      "##ires": 2254,
      "meant": 2255,
      "rev": 2256,
      "requ": 2257,
      "reass": 2258,
      "reason": 2259,
      "##aming": 2260,
      "##ament": 2261,
      "##ilt": 2262,
      "##ilar": 2263,
      "sav": 2264,
      "##roach": 2265,
      "##antry": 2266,
      "neck": 2267,
      "liked": 2268,
      "lift": 2269,
      "able": 2270,
      "goes": 2271,
      "sold": 2272,
      "##ourn": 2273,
      "##ction": 2274,
      "rock": 2275,
      "rosy": 2276,
      "whatever": 2277,
      "##orth": 2278,
      "downstairs": 2279,
      "##umn": 2280,
      "##ume": 2281,
      "##umed": 2282,
      "deal": 2283,
      "death": 2284,
      "mov": 2285,
      "backward": 2286,
      "trag": 2287,
      "trans": 2288,
      "truth": 2289,
      "##istent": 2290,
      "eyed": 2291,
      "art": 2292,
      "ench": 2293,
      "brick": 2294,
      "grew": 2295,
      "beginning": 2296,
      "mint": 2297,
      "disco": 2298,
      "scorn": 2299,
      "grad": 2300,
      "grotesqu": 2301,
      "incre": 2302,
      "phr": 2303,
      "obsc": 2304,
      "objected": 2305,
      "polite": 2306,
      "strange": 2307,
      "satisf": 2308,
      "break": 2309,
      "prop": 2310,
      "##tains": 2311,
      "invest": 2312,
      "invisible": 2313,
      "sidewalk": 2314,
      "emer": 2315,
      "dressed": 2316,
      "dresses": 2317,
      "rested": 2318,
      "restless": 2319,
      "restaur": 2320,
      "supposed": 2321,
      "staring": 2322,
      "appeared": 2323,
      "confusion": 2324,
      "spec": 2325,
      "curtains": 2326,
      "elab": 2327,
      "present": 2328,
      "guessed": 2329,
      "##ccess": 2330,
      "understood": 2331,
      "auth": 2332,
      "autumn": 2333,
      "early": 2334,
      "floated": 2335,
      "finding": 2336,
      "instead": 2337,
      "common": 2338,
      "singing": 2339,
      "##ounced": 2340,
      "suggestion": 2341,
      "leaning": 2342,
      "pleasant": 2343,
      "cheek": 2344,
      "movement": 2345,
      "movements": 2346,
      "wondered": 2347,
      "funeral": 2348,
      "helped": 2349,
      "helpless": 2350,
      "attention": 2351,
      "attempt": 2352,
      "assured": 2353,
      "circle": 2354,
      "circum": 2355,
      "distance": 2356,
      "ashes": 2357,
      "affair": 2358,
      "shock": 2359,
      "promise": 2360,
      "loud": 2361,
      "moonlight": 2362,
      "casually": 2363,
      "suspic": 2364,
      "mistake": 2365,
      "square": 2366,
      "harsh": 2367,
      "irre": 2368,
      "piece": 2369,
      "spring": 2370,
      "pocket": 2371,
      "verand": 2372,
      "superior": 2373,
      "american": 2374,
      "ghostly": 2375,
      "figure": 2376,
      "slender": 2377,
      "incessantly": 2378,
      "included": 2379,
      "stretched": 2380,
      "returned": 2381,
      "bottle": 2382,
      "nervous": 2383,
      "owl": 2384,
      "bridge": 2385,
      "obviously": 2386,
      "profound": 2387,
      "country": 2388,
      "copy": 2389,
      "nineteen": 2390,
      "probably": 2391,
      "apparently": 2392,
      "orchestra": 2393,
      "beneath": 2394,
      "fashion": 2395,
      "gentlem": 2396,
      "lavender": 2397,
      "lucille": 2398,
      "pardon": 2399,
      "view": 2400,
      "thousand": 2401,
      "straight": 2402,
      "request": 2403,
      "grotesque": 2404,
      "restaurant": 2405,
      "ale": 2406,
      "ahead": 2407,
      "aunt": 2408,
      "avo": 2409,
      "bow": 2410,
      "bal": 2411,
      "bound": 2412,
      "cal": 2413,
      "coo": 2414,
      "cross": 2415,
      "case": 2416,
      "den": 2417,
      "dign": 2418,
      "eart": 2419,
      "fut": 2420,
      "free": 2421,
      "fire": 2422,
      "gru": 2423,
      "gorge": 2424,
      "hy": 2425,
      "hon": 2426,
      "hill": 2427,
      "horn": 2428,
      "hung": 2429,
      "jim": 2430,
      "kiss": 2431,
      "lone": 2432,
      "lap": 2433,
      "lying": 2434,
      "med": 2435,
      "main": 2436,
      "mill": 2437,
      "mach": 2438,
      "mile": 2439,
      "mixed": 2440,
      "mounted": 2441,
      "mirr": 2442,
      "nur": 2443,
      "pan": 2444,
      "pet": 2445,
      "pay": 2446,
      "pour": 2447,
      "pum": 2448,
      "press": 2449,
      "pian": 2450,
      "rid": 2451,
      "rad": 2452,
      "ride": 2453,
      "rum": 2454,
      "rushed": 2455,
      "rub": 2456,
      "rhy": 2457,
      "tur": 2458,
      "vis": 2459,
      "vig": 2460,
      "vitality": 2461,
      "vivid": 2462,
      "wan": 2463,
      "wit": 2464,
      "wal": 2465,
      "wag": 2466,
      "##io": 2467,
      "##iot": 2468,
      "##iated": 2469,
      "##ios": 2470,
      "##ses": 2471,
      "##aw": 2472,
      "##ails": 2473,
      "##res": 2474,
      "##oes": 2475,
      "##vas": 2476,
      "##ging": 2477,
      "##gar": 2478,
      "##ec": 2479,
      "##men": 2480,
      "##mly": 2481,
      "##ton": 2482,
      "##ces": 2483,
      "##xes": 2484,
      "##xpected": 2485,
      "thro": 2486,
      "##erted": 2487,
      "##edek": 2488,
      "##ination": 2489,
      "##inary": 2490,
      "##ats": 2491,
      "##atively": 2492,
      "top": 2493,
      "tone": 2494,
      "##ormed": 2495,
      "##isc": 2496,
      "##onne": 2497,
      "inn": 2498,
      "inno": 2499,
      "##itted": 2500,
      "##lly": 2501,
      "##lebr": 2502,
      "shut": 2503,
      "shall": 2504,
      "shore": 2505,
      "beating": 2506,
      "##idly": 2507,
      "##icable": 2508,
      "##icated": 2509,
      "##imp": 2510,
      "##imming": 2511,
      "##str": 2512,
      "##stand": 2513,
      "##vering": 2514,
      "##ays": 2515,
      "##ayed": 2516,
      "##selves": 2517,
      "stat": 2518,
      "straw": 2519,
      "ang": 2520,
      "anno": 2521,
      "##urday": 2522,
      "##alth": 2523,
      "force": 2524,
      "forty": 2525,
      "##terly": 2526,
      "rece": 2527,
      "weather": 2528,
      "france": 2529,
      "##ighted": 2530,
      "sand": 2531,
      "##ching": 2532,
      "sev": 2533,
      "sell": 2534,
      "seven": 2535,
      "##road": 2536,
      "##cend": 2537,
      "##rig": 2538,
      "##rib": 2539,
      "##rief": 2540,
      "upper": 2541,
      "intens": 2542,
      "##olate": 2543,
      "chr": 2544,
      "chance": 2545,
      "##ours": 2546,
      "alive": 2547,
      "aloud": 2548,
      "also": 2549,
      "alert": 2550,
      "convin": 2551,
      "spread": 2552,
      "unh": 2553,
      "unre": 2554,
      "unus": 2555,
      "univer": 2556,
      "##els": 2557,
      "##elve": 2558,
      "leather": 2559,
      "##unted": 2560,
      "##ortant": 2561,
      "##ushing": 2562,
      "mansion": 2563,
      "age": 2564,
      "##umph": 2565,
      "dev": 2566,
      "dear": 2567,
      "##elled": 2568,
      "cond": 2569,
      "cost": 2570,
      "covered": 2571,
      "knows": 2572,
      "twelve": 2573,
      "##ressive": 2574,
      "##icker": 2575,
      "##dding": 2576,
      "comes": 2577,
      "bond": 2578,
      "pecul": 2579,
      "smo": 2580,
      "smoke": 2581,
      "remind": 2582,
      "remained": 2583,
      "canvas": 2584,
      "begun": 2585,
      "##rows": 2586,
      "worried": 2587,
      "waved": 2588,
      "become": 2589,
      "##assment": 2590,
      "towards": 2591,
      "cler": 2592,
      "##thm": 2593,
      "startled": 2594,
      "marble": 2595,
      "polo": 2596,
      "saturday": 2597,
      "thanks": 2598,
      "excuse": 2599,
      "interm": 2600,
      "drank": 2601,
      "prod": 2602,
      "expect": 2603,
      "expected": 2604,
      "empt": 2605,
      "emotion": 2606,
      "sounded": 2607,
      "army": 2608,
      "gardens": 2609,
      "gardener": 2610,
      "stars": 2611,
      "stepped": 2612,
      "##azz": 2613,
      "shoulders": 2614,
      "ident": 2615,
      "persistent": 2616,
      "curios": 2617,
      "elud": 2618,
      "sunlight": 2619,
      "##ormation": 2620,
      "waiter": 2621,
      "resol": 2622,
      "following": 2623,
      "earnest": 2624,
      "sentiment": 2625,
      "surprise": 2626,
      "##ount": 2627,
      "continually": 2628,
      "picked": 2629,
      "informed": 2630,
      "information": 2631,
      "running": 2632,
      "##ivered": 2633,
      "personal": 2634,
      "midnight": 2635,
      "snapped": 2636,
      "touched": 2637,
      "hundreds": 2638,
      "elect": 2639,
      "murmured": 2640,
      "corners": 2641,
      "delic": 2642,
      "finger": 2643,
      "rail": 2644,
      "shoes": 2645,
      "block": 2646,
      "celebr": 2647,
      "changing": 2648,
      "definitely": 2649,
      "glasses": 2650,
      "triumph": 2651,
      "touching": 2652,
      "violent": 2653,
      "violently": 2654,
      "golden": 2655,
      "uncertain": 2656,
      "drifted": 2657,
      "sweet": 2658,
      "excitedly": 2659,
      "maybe": 2660,
      "pieces": 2661,
      "unexpected": 2662,
      "pockets": 2663,
      "throwing": 2664,
      "inex": 2665,
      "glowing": 2666,
      "interesting": 2667,
      "cigarette": 2668,
      "cigarettes": 2669,
      "magaz": 2670,
      "##racted": 2671,
      "introduct": 2672,
      "concentr": 2673,
      "incredulously": 2674,
      "photograph": 2675,
      "oblig": 2676,
      "reluctant": 2677,
      "difference": 2678,
      "extraord": 2679,
      "drugstore": 2680,
      "embarrassment": 2681,
      "damned": 2682,
      "further": 2683,
      "hastily": 2684,
      "natur": 2685,
      "yacht": 2686,
      "memory": 2687,
      "gathered": 2688,
      "connection": 2689,
      "cocktails": 2690,
      "enjoyed": 2691,
      "elevator": 2692,
      "groaning": 2693,
      "concealed": 2694,
      "baedek": 2695,
      "burst": 2696,
      "cousin": 2697,
      "gloom": 2698,
      "maj": 2699,
      "various": 2700,
      "wedding": 2701,
      "##cessary": 2702,
      "recogn": 2703,
      "intimate": 2704,
      "position": 2705,
      "determined": 2706,
      "automobiles": 2707,
      "ecst": 2708,
      "husky": 2709,
      "watched": 2710,
      "thrilling": 2711,
      "##asket": 2712,
      "lifted": 2713,
      "movies": 2714,
      "enchanted": 2715,
      "discovered": 2716,
      "gradually": 2717,
      "emerged": 2718,
      "elaborate": 2719,
      "circumst": 2720,
      "gentleman": 2721,
      "earth": 2722,
      "future": 2723,
      "gorgeous": 2724,
      "jimmy": 2725,
      "nurse": 2726,
      "piano": 2727,
      "rhythm": 2728,
      "innocently": 2729,
      "receiver": 2730,
      "intensity": 2731,
      "convinced": 2732,
      "peculiar": 2733,
      "baedeker": 2734,
      "15": 2735,
      "30": 2736,
      "aven": 2737,
      "aired": 2738,
      "bent": 2739,
      "burn": 2740,
      "bab": 2741,
      "bare": 2742,
      "bored": 2743,
      "basket": 2744,
      "ca": 2745,
      "cy": 2746,
      "cat": 2747,
      "cent": 2748,
      "catch": 2749,
      "centr": 2750,
      "dus": 2751,
      "dumb": 2752,
      "dancing": 2753,
      "et": 2754,
      "eas": 2755,
      "est": 2756,
      "eur": 2757,
      "ech": 2758,
      "etern": 2759,
      "fight": 2760,
      "fast": 2761,
      "furn": 2762,
      "fixed": 2763,
      "game": 2764,
      "gust": 2765,
      "gau": 2766,
      "gives": 2767,
      "hen": 2768,
      "hul": 2769,
      "hate": 2770,
      "hilar": 2771,
      "ill": 2772,
      "jazz": 2773,
      "land": 2774,
      "lake": 2775,
      "mu": 2776,
      "mor": 2777,
      "mon": 2778,
      "mere": 2779,
      "miles": 2780,
      "nor": 2781,
      "num": 2782,
      "oct": 2783,
      "ogg": 2784,
      "pu": 2785,
      "pat": 2786,
      "pain": 2787,
      "pop": 2788,
      "pig": 2789,
      "pear": 2790,
      "path": 2791,
      "pressed": 2792,
      "papers": 2793,
      "rag": 2794,
      "race": 2795,
      "round": 2796,
      "rise": 2797,
      "ripp": 2798,
      "riot": 2799,
      "sou": 2800,
      "sno": 2801,
      "scept": 2802,
      "sank": 2803,
      "sense": 2804,
      "ti": 2805,
      "tan": 2806,
      "tut": 2807,
      "tent": 2808,
      "tem": 2809,
      "tun": 2810,
      "tra": 2811,
      "tired": 2812,
      "tip": 2813,
      "tipped": 2814,
      "tourn": 2815,
      "und": 2816,
      "vest": 2817,
      "visible": 2818,
      "wes": 2819,
      "wra": 2820,
      "worn": 2821,
      "wives": 2822,
      "yawn": 2823,
      "yale": 2824,
      "yea": 2825,
      "##ike": 2826,
      "##ience": 2827,
      "##su": 2828,
      "##son": 2829,
      "##sford": 2830,
      "##aust": 2831,
      "##ply": 2832,
      "##pose": 2833,
      "##ram": 2834,
      "##vals": 2835,
      "##nes": 2836,
      "##nounced": 2837,
      "##ges": 2838,
      "##gant": 2839,
      "##lar": 2840,
      "##fs": 2841,
      "##fast": 2842,
      "##dro": 2843,
      "##dered": 2844,
      "##eon": 2845,
      "##eas": 2846,
      "##hon": 2847,
      "##ym": 2848,
      "##uate": 2849,
      "##udy": 2850,
      "##uished": 2851,
      "##ms": 2852,
      "##mon": 2853,
      "##mas": 2854,
      "##mber": 2855,
      "##tis": 2856,
      "##cle": 2857,
      "##cut": 2858,
      "##cil": 2859,
      "##cri": 2860,
      "##cise": 2861,
      "##xiously": 2862,
      "##erved": 2863,
      "##erred": 2864,
      "##inal": 2865,
      "##inity": 2866,
      "##inite": 2867,
      "##inated": 2868,
      "##inting": 2869,
      "##athing": 2870,
      "##atory": 2871,
      "##atically": 2872,
      "tor": 2873,
      "tonight": 2874,
      "##orter": 2875,
      "##oria": 2876,
      "##isp": 2877,
      "##arter": 2878,
      "##asing": 2879,
      "##ases": 2880,
      "##itor": 2881,
      "##itable": 2882,
      "##lla": 2883,
      "##llen": 2884,
      "##omed": 2885,
      "haught": 2886,
      "waste": 2887,
      "##lend": 2888,
      "##legg": 2889,
      "shru": 2890,
      "bells": 2891,
      "youth": 2892,
      "##iced": 2893,
      "##icked": 2894,
      "##icism": 2895,
      "ones": 2896,
      "##enteen": 2897,
      "##entions": 2898,
      "##stery": 2899,
      "##vertis": 2900,
      "##sey": 2901,
      "##seve": 2902,
      "##vel": 2903,
      "##acing": 2904,
      "##acked": 2905,
      "stir": 2906,
      "store": 2907,
      "stuff": 2908,
      "strolled": 2909,
      "##iration": 2910,
      "announced": 2911,
      "anxiously": 2912,
      "fore": 2913,
      "mel": 2914,
      "aside": 2915,
      "##ads": 2916,
      "##ading": 2917,
      "##addy": 2918,
      "rec": 2919,
      "rear": 2920,
      "wealth": 2921,
      "frag": 2922,
      "french": 2923,
      "##ioned": 2924,
      "##chief": 2925,
      "season": 2926,
      "##roving": 2927,
      "dock": 2928,
      "suff": 2929,
      "sunday": 2930,
      "##riet": 2931,
      "##riage": 2932,
      "##alled": 2933,
      "necessary": 2934,
      "liqu": 2935,
      "##estions": 2936,
      "intention": 2937,
      "cho": 2938,
      "chin": 2939,
      "chatter": 2940,
      "chester": 2941,
      "kno": 2942,
      "##ource": 2943,
      "alar": 2944,
      "constant": 2945,
      "overwh": 2946,
      "nodding": 2947,
      "spent": 2948,
      "splend": 2949,
      "unb": 2950,
      "unw": 2951,
      "unif": 2952,
      "unutter": 2953,
      "unple": 2954,
      "exam": 2955,
      "exact": 2956,
      "carried": 2957,
      "carry": 2958,
      "somehow": 2959,
      "##uss": 2960,
      "manner": 2961,
      "likely": 2962,
      "note": 2963,
      "##ope": 2964,
      "track": 2965,
      "##ists": 2966,
      "##istening": 2967,
      "##istmas": 2968,
      "##ields": 2969,
      "gets": 2970,
      "aren": 2971,
      "##ecting": 2972,
      "themselves": 2973,
      "entered": 2974,
      "glistening": 2975,
      "prot": 2976,
      "pride": 2977,
      "loc": 2978,
      "locked": 2979,
      "##quaint": 2980,
      "flushed": 2981,
      "nights": 2982,
      "quarter": 2983,
      "questions": 2984,
      "blown": 2985,
      "bring": 2986,
      "brother": 2987,
      "plan": 2988,
      "plaz": 2989,
      "places": 2990,
      "boat": 2991,
      "boys": 2992,
      "remain": 2993,
      "remote": 2994,
      "madame": 2995,
      "others": 2996,
      "amount": 2997,
      "acquaint": 2998,
      "##anged": 2999,
      "neverth": 3000,
      "pointed": 3001,
      "pointing": 3002,
      "usually": 3003,
      "worked": 3004,
      "minister": 3005,
      "diss": 3006,
      "lighted": 3007,
      "slid": 3008,
      "parted": 3009,
      "##urely": 3010,
      "##assioned": 3011,
      "##plane": 3012,
      "contr": 3013,
      "swo": 3014,
      "swinging": 3015,
      "swimming": 3016,
      "##ables": 3017,
      "scold": 3018,
      "cloud": 3019,
      "##shore": 3020,
      "##shine": 3021,
      "##ission": 3022,
      "starting": 3023,
      "grat": 3024,
      "grace": 3025,
      "important": 3026,
      "impassioned": 3027,
      "string": 3028,
      "below": 3029,
      "huge": 3030,
      "interior": 3031,
      "breaking": 3032,
      "invite": 3033,
      "happy": 3034,
      "advertis": 3035,
      "desk": 3036,
      "desolate": 3037,
      "descri": 3038,
      "##attered": 3039,
      "dressing": 3040,
      "ended": 3041,
      "company": 3042,
      "##irely": 3043,
      "confir": 3044,
      "confident": 3045,
      "speaking": 3046,
      "##azing": 3047,
      "##ude": 3048,
      "drop": 3049,
      "hosp": 3050,
      "hollow": 3051,
      "metrop": 3052,
      "whisper": 3053,
      "sunshine": 3054,
      "coloss": 3055,
      "lawns": 3056,
      "indign": 3057,
      "indef": 3058,
      "realize": 3059,
      "decided": 3060,
      "presently": 3061,
      "accus": 3062,
      "slowed": 3063,
      "higher": 3064,
      "surprising": 3065,
      "instant": 3066,
      "awful": 3067,
      "crim": 3068,
      "oughtn": 3069,
      "shortly": 3070,
      "wondering": 3071,
      "fift": 3072,
      "fifth": 3073,
      "listening": 3074,
      "trains": 3075,
      "apol": 3076,
      "effect": 3077,
      "snow": 3078,
      "assumed": 3079,
      "relie": 3080,
      "consid": 3081,
      "luncheon": 3082,
      "##bbed": 3083,
      "##bbing": 3084,
      "##bbery": 3085,
      "raw": 3086,
      "sinister": 3087,
      "##rooms": 3088,
      "ordered": 3089,
      "england": 3090,
      "disappo": 3091,
      "drawer": 3092,
      "educ": 3093,
      "simpl": 3094,
      "simply": 3095,
      "trib": 3096,
      "##avour": 3097,
      "third": 3098,
      "counter": 3099,
      "admired": 3100,
      "admitted": 3101,
      "diffic": 3102,
      "general": 3103,
      "horse": 3104,
      "signific": 3105,
      "shows": 3106,
      "suspected": 3107,
      "completely": 3108,
      "capac": 3109,
      "giving": 3110,
      "july": 3111,
      "gravel": 3112,
      "irres": 3113,
      "parents": 3114,
      "##uffled": 3115,
      "sprang": 3116,
      "uneasy": 3117,
      "orchid": 3118,
      "clear": 3119,
      "clean": 3120,
      "regard": 3121,
      "gaiety": 3122,
      "pursued": 3123,
      "purpose": 3124,
      "yards": 3125,
      "tower": 3126,
      "photograp": 3127,
      "corrected": 3128,
      "different": 3129,
      "private": 3130,
      "drugstores": 3131,
      "vaguely": 3132,
      "embarrassed": 3133,
      "aston": 3134,
      "direction": 3135,
      "winter": 3136,
      "wreck": 3137,
      "wreath": 3138,
      "charming": 3139,
      "eyeb": 3140,
      "argum": 3141,
      "stranger": 3142,
      "broadway": 3143,
      "belonged": 3144,
      "despair": 3145,
      "191": 3146,
      "crossed": 3147,
      "civil": 3148,
      "gleaming": 3149,
      "jersey": 3150,
      "ladies": 3151,
      "mentioned": 3152,
      "penn": 3153,
      "wandered": 3154,
      "##balls": 3155,
      "frightened": 3156,
      "entirely": 3157,
      "blankly": 3158,
      "bootlegg": 3159,
      "absorbed": 3160,
      "decisively": 3161,
      "bird": 3162,
      "gesture": 3163,
      "group": 3164,
      "milk": 3165,
      "rooseve": 3166,
      "utterly": 3167,
      "wiped": 3168,
      "thrown": 3169,
      "##ength": 3170,
      "revol": 3171,
      "savage": 3172,
      "tragic": 3173,
      "increased": 3174,
      "phrase": 3175,
      "breakfast": 3176,
      "propriet": 3177,
      "investig": 3178,
      "author": 3179,
      "helplessly": 3180,
      "veranda": 3181,
      "balancing": 3182,
      "dignified": 3183,
      "gruff": 3184,
      "hydro": 3185,
      "panic": 3186,
      "pump": 3187,
      "walter": 3188,
      "wagon": 3189,
      "statement": 3190,
      "angry": 3191,
      "seventeen": 3192,
      "christmas": 3193,
      "unhapp": 3194,
      "costume": 3195,
      "reminded": 3196,
      "empty": 3197,
      "curiosity": 3198,
      "sentimental": 3199,
      "electric": 3200,
      "railroad": 3201,
      "introduction": 3202,
      "extraordinary": 3203,
      "major": 3204,
      "circumstances": 3205,
      "avenue": 3206,
      "central": 3207,
      "dusk": 3208,
      "europe": 3209,
      "eternal": 3210,
      "hulking": 3211,
      "merely": 3212,
      "number": 3213,
      "oggsford": 3214,
      "popular": 3215,
      "tipt": 3216,
      "western": 3217,
      "yawned": 3218,
      "overwhel": 3219,
      "uniform": 3220,
      "unpleasant": 3221,
      "plaza": 3222,
      "nevertheless": 3223,
      "advertisement": 3224,
      "colossal": 3225,
      "irresist": 3226,
      "roosevelt": 3227,
      "hydroplane": 3228,
      "ah": 3229,
      "aud": 3230,
      "bon": 3231,
      "bore": 3232,
      "bag": 3233,
      "bill": 3234,
      "bra": 3235,
      "bum": 3236,
      "bure": 3237,
      "bree": 3238,
      "biz": 3239,
      "borrow": 3240,
      "bitch": 3241,
      "bisc": 3242,
      "cow": 3243,
      "cand": 3244,
      "cast": 3245,
      "cord": 3246,
      "cater": 3247,
      "camp": 3248,
      "di": 3249,
      "dom": 3250,
      "dest": 3251,
      "dang": 3252,
      "dull": 3253,
      "dry": 3254,
      "duck": 3255,
      "dances": 3256,
      "daddy": 3257,
      "er": 3258,
      "ease": 3259,
      "easy": 3260,
      "ella": 3261,
      "fou": 3262,
      "fain": 3263,
      "fau": 3264,
      "fields": 3265,
      "gown": 3266,
      "gun": 3267,
      "germ": 3268,
      "gonne": 3269,
      "grief": 3270,
      "hol": 3271,
      "hint": 3272,
      "hips": 3273,
      "hush": 3274,
      "iv": 3275,
      "jud": 3276,
      "jail": 3277,
      "kay": 3278,
      "keen": 3279,
      "ling": 3280,
      "luck": 3281,
      "linger": 3282,
      "length": 3283,
      "mess": 3284,
      "mass": 3285,
      "mater": 3286,
      "match": 3287,
      "matt": 3288,
      "muffled": 3289,
      "none": 3290,
      "nation": 3291,
      "north": 3292,
      "odd": 3293,
      "py": 3294,
      "pot": 3295,
      "pack": 3296,
      "pages": 3297,
      "paper": 3298,
      "pomp": 3299,
      "pantry": 3300,
      "rot": 3301,
      "rig": 3302,
      "rap": 3303,
      "ripped": 3304,
      "rising": 3305,
      "rush": 3306,
      "raced": 3307,
      "sed": 3308,
      "sen": 3309,
      "sir": 3310,
      "sant": 3311,
      "sway": 3312,
      "sill": 3313,
      "sne": 3314,
      "sym": 3315,
      "source": 3316,
      "tat": 3317,
      "tum": 3318,
      "tick": 3319,
      "tact": 3320,
      "vac": 3321,
      "val": 3322,
      "vall": 3323,
      "vol": 3324,
      "vast": 3325,
      "vul": 3326,
      "wake": 3327,
      "wings": 3328,
      "wires": 3329,
      "worth": 3330,
      "##ium": 3331,
      "##iven": 3332,
      "##iber": 3333,
      "##iantly": 3334,
      "##por": 3335,
      "##par": 3336,
      "##pet": 3337,
      "##pie": 3338,
      "##path": 3339,
      "##pired": 3340,
      "##rut": 3341,
      "##rent": 3342,
      "##oed": 3343,
      "##oing": 3344,
      "##ole": 3345,
      "##oher": 3346,
      "##oved": 3347,
      "##off": 3348,
      "##ober": 3349,
      "##oors": 3350,
      "##vice": 3351,
      "##nal": 3352,
      "##nel": 3353,
      "##ners": 3354,
      "##ground": 3355,
      "##gement": 3356,
      "##gular": 3357,
      "##gtion": 3358,
      "##lc": 3359,
      "##lish": 3360,
      "##liness": 3361,
      "##lished": 3362,
      "##like": 3363,
      "##fer": 3364,
      "##fort": 3365,
      "##de": 3366,
      "##ded": 3367,
      "##den": 3368,
      "##doors": 3369,
      "##ech": 3370,
      "##he": 3371,
      "##house": 3372,
      "##hood": 3373,
      "##haust": 3374,
      "##under": 3375,
      "##uation": 3376,
      "##me": 3377,
      "##mist": 3378,
      "##mend": 3379,
      "##tly": 3380,
      "##tons": 3381,
      "##bing": 3382,
      "##bow": 3383,
      "##cy": 3384,
      "##ker": 3385,
      "##kes": 3386,
      "##xic": 3387,
      "##wich": 3388,
      "##just": 3389,
      "##zz": 3390,
      "thinning": 3391,
      "##erve": 3392,
      "##erves": 3393,
      "##eding": 3394,
      "##inc": 3395,
      "##inion": 3396,
      "##inate": 3397,
      "##inable": 3398,
      "##inished": 3399,
      "tost": 3400,
      "##org": 3401,
      "##oration": 3402,
      "##ories": 3403,
      "##orously": 3404,
      "##orough": 3405,
      "##ises": 3406,
      "##ishing": 3407,
      "##isingly": 3408,
      "##arn": 3409,
      "##arre": 3410,
      "inh": 3411,
      "##asion": 3412,
      "##ashing": 3413,
      "##its": 3414,
      "##itation": 3415,
      "##iture": 3416,
      "##itably": 3417,
      "heav": 3418,
      "##omes": 3419,
      "halt": 3420,
      "habit": 3421,
      "haunted": 3422,
      "wash": 3423,
      "whet": 3424,
      "##ows": 3425,
      "##owing": 3426,
      "##lep": 3427,
      "##let": 3428,
      "##lect": 3429,
      "ital": 3430,
      "shake": 3431,
      "share": 3432,
      "shrill": 3433,
      "shivered": 3434,
      "bew": 3435,
      "beads": 3436,
      "##ides": 3437,
      "##iday": 3438,
      "##ics": 3439,
      "##iction": 3440,
      "##etable": 3441,
      "##ette": 3442,
      "##ste": 3443,
      "##ota": 3444,
      "##otted": 3445,
      "##otions": 3446,
      "##sequ": 3447,
      "##acter": 3448,
      "##acles": 3449,
      "stout": 3450,
      "stable": 3451,
      "stud": 3452,
      "stairs": 3453,
      "stuck": 3454,
      "study": 3455,
      "stables": 3456,
      "sheer": 3457,
      "anch": 3458,
      "hers": 3459,
      "##urd": 3460,
      "fort": 3461,
      "forth": 3462,
      "formed": 3463,
      "meas": 3464,
      "melo": 3465,
      "##ada": 3466,
      "##ades": 3467,
      "##aduate": 3468,
      "rever": 3469,
      "repr": 3470,
      "ready": 3471,
      "reaction": 3472,
      "##amps": 3473,
      "welc": 3474,
      "fruit": 3475,
      "##ility": 3476,
      "##ilities": 3477,
      "save": 3478,
      "saun": 3479,
      "safe": 3480,
      "myster": 3481,
      "mystery": 3482,
      "buttons": 3483,
      "sept": 3484,
      "separ": 3485,
      "success": 3486,
      "##ries": 3487,
      "##riate": 3488,
      "##hers": 3489,
      "##ards": 3490,
      "negro": 3491,
      "outdoors": 3492,
      "abst": 3493,
      "aband": 3494,
      "intently": 3495,
      "intended": 3496,
      "intense": 3497,
      "##olent": 3498,
      "##oline": 3499,
      "##olunt": 3500,
      "chain": 3501,
      "goin": 3502,
      "sob": 3503,
      "sober": 3504,
      "knee": 3505,
      "##ousine": 3506,
      "##ctly": 3507,
      "conv": 3508,
      "concept": 3509,
      "overt": 3510,
      "nod": 3511,
      "nostr": 3512,
      "rob": 3513,
      "spl": 3514,
      "space": 3515,
      "spect": 3516,
      "spark": 3517,
      "unp": 3518,
      "unsu": 3519,
      "unmist": 3520,
      "##anded": 3521,
      "exer": 3522,
      "exch": 3523,
      "##astically": 3524,
      "cared": 3525,
      "carrying": 3526,
      "lead": 3527,
      "leash": 3528,
      "##unct": 3529,
      "##unity": 3530,
      "##ortunity": 3531,
      "isol": 3532,
      "##illes": 3533,
      "orang": 3534,
      "##ules": 3535,
      "##ulent": 3536,
      "##ulty": 3537,
      "agg": 3538,
      "anywhere": 3539,
      "notice": 3540,
      "noticed": 3541,
      "##umerable": 3542,
      "dep": 3543,
      "dew": 3544,
      "mod": 3545,
      "##elling": 3546,
      "##erson": 3547,
      "tran": 3548,
      "tray": 3549,
      "##isting": 3550,
      "##istice": 3551,
      "handed": 3552,
      "handker": 3553,
      "liter": 3554,
      "##inking": 3555,
      "##inkle": 3556,
      "knowing": 3557,
      "timetable": 3558,
      "##ressively": 3559,
      "##ounding": 3560,
      "##earing": 3561,
      "older": 3562,
      "seeing": 3563,
      "glancing": 3564,
      "glimp": 3565,
      "loves": 3566,
      "##quiet": 3567,
      "flan": 3568,
      "flipped": 3569,
      "flutter": 3570,
      "flashed": 3571,
      "flattered": 3572,
      "longest": 3573,
      "quart": 3574,
      "##gged": 3575,
      "moments": 3576,
      "momentarily": 3577,
      "blurred": 3578,
      "brain": 3579,
      "brood": 3580,
      "brakes": 3581,
      "plat": 3582,
      "plun": 3583,
      "plum": 3584,
      "box": 3585,
      "board": 3586,
      "bonds": 3587,
      "thinks": 3588,
      "removed": 3589,
      "doors": 3590,
      "doorway": 3591,
      "begin": 3592,
      "ambit": 3593,
      "##iousness": 3594,
      "##angement": 3595,
      "post": 3596,
      "undergr": 3597,
      "##rowed": 3598,
      "worse": 3599,
      "waving": 3600,
      "disp": 3601,
      "firm": 3602,
      "lightly": 3603,
      "##rue": 3604,
      "##boat": 3605,
      "oper": 3606,
      "opinion": 3607,
      "content": 3608,
      "contact": 3609,
      "swall": 3610,
      "scared": 3611,
      "scrut": 3612,
      "sports": 3613,
      "clan": 3614,
      "clim": 3615,
      "clam": 3616,
      "clust": 3617,
      "club": 3618,
      "halfway": 3619,
      "folds": 3620,
      "younger": 3621,
      "startling": 3622,
      "gras": 3623,
      "grown": 3624,
      "incident": 3625,
      "incoher": 3626,
      "heads": 3627,
      "perv": 3628,
      "perce": 3629,
      "percept": 3630,
      "untrue": 3631,
      "marve": 3632,
      "phase": 3633,
      "imperson": 3634,
      "##ization": 3635,
      "##aternal": 3636,
      "##lessness": 3637,
      "handsome": 3638,
      "breast": 3639,
      "breathing": 3640,
      "drum": 3641,
      "founded": 3642,
      "prov": 3643,
      "telling": 3644,
      "involunt": 3645,
      "explo": 3646,
      "advant": 3647,
      "desper": 3648,
      "emp": 3649,
      "emotions": 3650,
      "alongshore": 3651,
      "armistice": 3652,
      "silk": 3653,
      "situation": 3654,
      "warned": 3655,
      "compelled": 3656,
      "approach": 3657,
      "reproach": 3658,
      "key": 3659,
      "spend": 3660,
      "tremend": 3661,
      "##ishly": 3662,
      "courage": 3663,
      "hovered": 3664,
      "ideas": 3665,
      "metal": 3666,
      "absence": 3667,
      "absently": 3668,
      "absurd": 3669,
      "elbow": 3670,
      "famous": 3671,
      "##apsed": 3672,
      "stopping": 3673,
      "mattered": 3674,
      "player": 3675,
      "playing": 3676,
      "indiff": 3677,
      "##ials": 3678,
      "##apping": 3679,
      "decade": 3680,
      "guess": 3681,
      "highballs": 3682,
      "resem": 3683,
      "towns": 3684,
      "meaning": 3685,
      "##rawled": 3686,
      "buchanans": 3687,
      "fully": 3688,
      "served": 3689,
      "service": 3690,
      "woke": 3691,
      "surprisingly": 3692,
      "instantly": 3693,
      "dogs": 3694,
      "commut": 3695,
      "commun": 3696,
      "awed": 3697,
      "crit": 3698,
      "crushed": 3699,
      "##ension": 3700,
      "telephoned": 3701,
      "build": 3702,
      "built": 3703,
      "finished": 3704,
      "pleas": 3705,
      "infinitely": 3706,
      "infantry": 3707,
      "##aneously": 3708,
      "attach": 3709,
      "careful": 3710,
      "faced": 3711,
      "snap": 3712,
      "streets": 3713,
      "assoc": 3714,
      "asserted": 3715,
      "immediate": 3716,
      "affect": 3717,
      "affairs": 3718,
      "breathless": 3719,
      "breathlessly": 3720,
      "delighted": 3721,
      "deliber": 3722,
      "prev": 3723,
      "secur": 3724,
      "suits": 3725,
      "flower": 3726,
      "actually": 3727,
      "tapped": 3728,
      "tense": 3729,
      "shoe": 3730,
      "reading": 3731,
      "##elessly": 3732,
      "orders": 3733,
      "promised": 3734,
      "promising": 3735,
      "disappro": 3736,
      "bloomed": 3737,
      "ceiling": 3738,
      "event": 3739,
      "grocer": 3740,
      "joy": 3741,
      "join": 3742,
      "simult": 3743,
      "terr": 3744,
      "wallet": 3745,
      "watching": 3746,
      "drinking": 3747,
      "addressed": 3748,
      "fallen": 3749,
      "falling": 3750,
      "hoped": 3751,
      "occasion": 3752,
      "wrote": 3753,
      "##osite": 3754,
      "##ences": 3755,
      "repeat": 3756,
      "keeping": 3757,
      "apartments": 3758,
      "shadows": 3759,
      "violence": 3760,
      "hesitation": 3761,
      "cream": 3762,
      "forms": 3763,
      "uncom": 3764,
      "barbar": 3765,
      "gasoline": 3766,
      "julep": 3767,
      "lots": 3768,
      "mistress": 3769,
      "power": 3770,
      "powdered": 3771,
      "remarks": 3772,
      "possess": 3773,
      "possessed": 3774,
      "possibly": 3775,
      "drifting": 3776,
      "sweat": 3777,
      "gravely": 3778,
      "##ificial": 3779,
      "discreet": 3780,
      "discuss": 3781,
      "physically": 3782,
      "exciting": 3783,
      "automatically": 3784,
      "eighteen": 3785,
      "verge": 3786,
      "inev": 3787,
      "regular": 3788,
      "needed": 3789,
      "newspapers": 3790,
      "objects": 3791,
      "accidental": 3792,
      "divor": 3793,
      "divis": 3794,
      "limited": 3795,
      "limousine": 3796,
      "sixty": 3797,
      "towel": 3798,
      "introduced": 3799,
      "complained": 3800,
      "incessant": 3801,
      "including": 3802,
      "incredulous": 3803,
      "obliv": 3804,
      "stretch": 3805,
      "reluctance": 3806,
      "doubtfully": 3807,
      "privile": 3808,
      "damn": 3809,
      "feroc": 3810,
      "opportunity": 3811,
      "opposite": 3812,
      "yachting": 3813,
      "##vinc": 3814,
      "##ropriate": 3815,
      "character": 3816,
      "cocktail": 3817,
      "bedrooms": 3818,
      "conscient": 3819,
      "elevated": 3820,
      "civet": 3821,
      "faith": 3822,
      "failed": 3823,
      "finnish": 3824,
      "jerk": 3825,
      "odour": 3826,
      "palm": 3827,
      "palace": 3828,
      "skin": 3829,
      "shift": 3830,
      "frowned": 3831,
      "frowning": 3832,
      "searched": 3833,
      "arrange": 3834,
      "arrangement": 3835,
      "entertain": 3836,
      "practical": 3837,
      "officer": 3838,
      "officers": 3839,
      "boots": 3840,
      "contemptuous": 3841,
      "decision": 3842,
      "respons": 3843,
      "perfectly": 3844,
      "enthusiasm": 3845,
      "enthusiastically": 3846,
      "fasc": 3847,
      "faster": 3848,
      "jaunt": 3849,
      "lemons": 3850,
      "solid": 3851,
      "tangible": 3852,
      "vicinity": 3853,
      "shouted": 3854,
      "bending": 3855,
      "reassur": 3856,
      "artificial": 3857,
      "satisfaction": 3858,
      "special": 3859,
      "irregular": 3860,
      "avoid": 3861,
      "calmly": 3862,
      "honest": 3863,
      "horns": 3864,
      "loneliness": 3865,
      "million": 3866,
      "machine": 3867,
      "mirror": 3868,
      "pressure": 3869,
      "riding": 3870,
      "radiant": 3871,
      "rumours": 3872,
      "rubies": 3873,
      "turbul": 3874,
      "vigil": 3875,
      "witness": 3876,
      "throat": 3877,
      "innumerable": 3878,
      "annoyed": 3879,
      "##ribut": 3880,
      "unusual": 3881,
      "universe": 3882,
      "devil": 3883,
      "conduct": 3884,
      "clerks": 3885,
      "eluded": 3886,
      "resolved": 3887,
      "earnestly": 3888,
      "celebrated": 3889,
      "magazine": 3890,
      "naturally": 3891,
      "ecstatic": 3892,
      "airedale": 3893,
      "baby": 3894,
      "cyn": 3895,
      "centre": 3896,
      "estab": 3897,
      "furniture": 3898,
      "october": 3899,
      "pearls": 3900,
      "ragged": 3901,
      "scepticism": 3902,
      "temper": 3903,
      "tournament": 3904,
      "yeah": 3905,
      "shrubbery": 3906,
      "wealthy": 3907,
      "liquor": 3908,
      "unwill": 3909,
      "unutterable": 3910,
      "exactly": 3911,
      "swollen": 3912,
      "scolding": 3913,
      "clouds": 3914,
      "described": 3915,
      "hospitality": 3916,
      "metropole": 3917,
      "indignantly": 3918,
      "crimson": 3919,
      "apolog": 3920,
      "relieved": 3921,
      "educated": 3922,
      "tribute": 3923,
      "difficulty": 3924,
      "significance": 3925,
      "capacity": 3926,
      "purposeless": 3927,
      "eyebrows": 3928,
      "argument": 3929,
      "1919": 3930,
      "civilization": 3931,
      "bootlegger": 3932,
      "proprietor": 3933,
      "investigation": 3934,
      "irresistible": 3935,
      "bureau": 3936,
      "breeze": 3937,
      "bizarre": 3938,
      "borrowed": 3939,
      "biscuit": 3940,
      "candles": 3941,
      "destiny": 3942,
      "fainted": 3943,
      "fault": 3944,
      "gonnegtion": 3945,
      "kaye": 3946,
      "keenly": 3947,
      "lingered": 3948,
      "material": 3949,
      "mattress": 3950,
      "national": 3951,
      "santa": 3952,
      "swaying": 3953,
      "sympath": 3954,
      "tattle": 3955,
      "tumult": 3956,
      "valley": 3957,
      "##iveness": 3958,
      "##piece": 3959,
      "tostoff": 3960,
      "whether": 3961,
      "##lected": 3962,
      "italian": 3963,
      "##sequence": 3964,
      "repres": 3965,
      "welcome": 3966,
      "sauntered": 3967,
      "conception": 3968,
      "unsuccess": 3969,
      "unmistak": 3970,
      "oranges": 3971,
      "handkerchief": 3972,
      "glimpse": 3973,
      "undergraduate": 3974,
      "incoherent": 3975,
      "perceptible": 3976,
      "involuntarily": 3977,
      "approached": 3978,
      "indiffer": 3979,
      "deliberately": 3980,
      "simultaneously": 3981,
      "barbara": 3982,
      "aj": 3983,
      "aug": 3984,
      "bri": 3985,
      "bust": 3986,
      "band": 3987,
      "bord": 3988,
      "bul": 3989,
      "born": 3990,
      "bened": 3991,
      "bunch": 3992,
      "batt": 3993,
      "bench": 3994,
      "brief": 3995,
      "cu": 3996,
      "cere": 3997,
      "cot": 3998,
      "cem": 3999,
      "crou": 4000,
      "cell": 4001,
      "cake": 4002,
      "cious": 4003,
      "cute": 4004,
      "cath": 4005,
      "cab": 4006,
      "cred": 4007,
      "caut": 4008,
      "cup": 4009,
      "cuff": 4010,
      "cakes": 4011,
      "cries": 4012,
      "da": 4013,
      "du": 4014,
      "der": 4015,
      "din": 4016,
      "dir": 4017,
      "dil": 4018,
      "dau": 4019,
      "dum": 4020,
      "due": 4021,
      "ditch": 4022,
      "dash": 4023,
      "dining": 4024,
      "drows": 4025,
      "ea": 4026,
      "ew": 4027,
      "esp": 4028,
      "fit": 4029,
      "fly": 4030,
      "fre": 4031,
      "fem": 4032,
      "fart": 4033,
      "fill": 4034,
      "fide": 4035,
      "food": 4036,
      "fair": 4037,
      "fish": 4038,
      "fix": 4039,
      "fail": 4040,
      "freed": 4041,
      "fier": 4042,
      "fumbled": 4043,
      "favour": 4044,
      "gy": 4045,
      "gut": 4046,
      "gad": 4047,
      "gam": 4048,
      "gul": 4049,
      "gull": 4050,
      "gazed": 4051,
      "hed": 4052,
      "hide": 4053,
      "hated": 4054,
      "hang": 4055,
      "honey": 4056,
      "hushed": 4057,
      "hunted": 4058,
      "ii": 4059,
      "jing": 4060,
      "jan": 4061,
      "jut": 4062,
      "journ": 4063,
      "kat": 4064,
      "lu": 4065,
      "lin": 4066,
      "lat": 4067,
      "lut": 4068,
      "lur": 4069,
      "lust": 4070,
      "lum": 4071,
      "link": 4072,
      "lang": 4073,
      "lather": 4074,
      "laz": 4075,
      "lined": 4076,
      "lurch": 4077,
      "lapsed": 4078,
      "ming": 4079,
      "mas": 4080,
      "mant": 4081,
      "moth": 4082,
      "mcc": 4083,
      "massed": 4084,
      "maid": 4085,
      "missed": 4086,
      "mutter": 4087,
      "mumbled": 4088,
      "nar": 4089,
      "nic": 4090,
      "nord": 4091,
      "norm": 4092,
      "numb": 4093,
      "oil": 4094,
      "oce": 4095,
      "orig": 4096,
      "pa": 4097,
      "pit": 4098,
      "pere": 4099,
      "pant": 4100,
      "prou": 4101,
      "pip": 4102,
      "pairs": 4103,
      "paint": 4104,
      "pitch": 4105,
      "push": 4106,
      "paid": 4107,
      "pushing": 4108,
      "paternal": 4109,
      "ru": 4110,
      "ring": 4111,
      "ric": 4112,
      "rent": 4113,
      "ram": 4114,
      "rust": 4115,
      "rack": 4116,
      "rate": 4117,
      "riv": 4118,
      "rare": 4119,
      "rip": 4120,
      "rough": 4121,
      "river": 4122,
      "rented": 4123,
      "rug": 4124,
      "rule": 4125,
      "racy": 4126,
      "rude": 4127,
      "rules": 4128,
      "si": 4129,
      "sang": 4130,
      "sched": 4131,
      "sought": 4132,
      "ty": 4133,
      "tu": 4134,
      "tay": 4135,
      "tall": 4136,
      "test": 4137,
      "tide": 4138,
      "tig": 4139,
      "tap": 4140,
      "tough": 4141,
      "tumbled": 4142,
      "tiny": 4143,
      "vl": 4144,
      "vent": 4145,
      "vers": 4146,
      "vines": 4147,
      "wing": 4148,
      "wist": 4149,
      "wine": 4150,
      "wish": 4151,
      "wicker": 4152,
      "wisp": 4153,
      "##ik": 4154,
      "##iest": 4155,
      "##ived": 4156,
      "##iation": 4157,
      "##iance": 4158,
      "##iably": 4159,
      "##iative": 4160,
      "##iency": 4161,
      "##sing": 4162,
      "##sum": 4163,
      "##ah": 4164,
      "##aved": 4165,
      "##avering": 4166,
      "##ailles": 4167,
      "##pes": 4168,
      "##pect": 4169,
      "##piration": 4170,
      "##ron": 4171,
      "##ray": 4172,
      "##rest": 4173,
      "##rus": 4174,
      "##ration": 4175,
      "##ront": 4176,
      "##rical": 4177,
      "##oly": 4178,
      "##over": 4179,
      "##van": 4180,
      "##val": 4181,
      "##vag": 4182,
      "##nis": 4183,
      "##nic": 4184,
      "##not": 4185,
      "##nown": 4186,
      "##nment": 4187,
      "##nished": 4188,
      "##gu": 4189,
      "##ger": 4190,
      "##gan": 4191,
      "##gest": 4192,
      "##gree": 4193,
      "##gency": 4194,
      "##lu": 4195,
      "##lor": 4196,
      "##lance": 4197,
      "##lined": 4198,
      "##lvan": 4199,
      "##fa": 4200,
      "##fl": 4201,
      "##face": 4202,
      "##form": 4203,
      "##ders": 4204,
      "##die": 4205,
      "##eb": 4206,
      "##eed": 4207,
      "##eal": 4208,
      "##eke": 4209,
      "##hn": 4210,
      "##hou": 4211,
      "##here": 4212,
      "##hol": 4213,
      "##hip": 4214,
      "##uing": 4215,
      "##ues": 4216,
      "##uated": 4217,
      "##mir": 4218,
      "##mpt": 4219,
      "##mers": 4220,
      "##mation": 4221,
      "##maid": 4222,
      "##tic": 4223,
      "##tent": 4224,
      "##table": 4225,
      "##bon": 4226,
      "##ban": 4227,
      "##bid": 4228,
      "##bach": 4229,
      "##bru": 4230,
      "##bted": 4231,
      "##bled": 4232,
      "##blance": 4233,
      "##cest": 4234,
      "##cery": 4235,
      "##certain": 4236,
      "##ciety": 4237,
      "##known": 4238,
      "##xim": 4239,
      "##xur": 4240,
      "##xop": 4241,
      "##wer": 4242,
      "##wais": 4243,
      "##wau": 4244,
      "##well": 4245,
      "##wear": 4246,
      "##washed": 4247,
      "##jam": 4248,
      "##zed": 4249,
      "thorough": 4250,
      "##err": 4251,
      "##erous": 4252,
      "##erably": 4253,
      "##erned": 4254,
      "theat": 4255,
      "##edy": 4256,
      "##edness": 4257,
      "##inized": 4258,
      "##ndo": 4259,
      "##ndled": 4260,
      "##ates": 4261,
      "##atures": 4262,
      "tot": 4263,
      "tong": 4264,
      "tossed": 4265,
      "##enes": 4266,
      "##enant": 4267,
      "##enced": 4268,
      "##orid": 4269,
      "##orus": 4270,
      "##orious": 4271,
      "##orily": 4272,
      "##inguished": 4273,
      "##isk": 4274,
      "##isit": 4275,
      "##isher": 4276,
      "##isco": 4277,
      "##ony": 4278,
      "##onic": 4279,
      "##escend": 4280,
      "##arse": 4281,
      "##ariably": 4282,
      "init": 4283,
      "inher": 4284,
      "##asons": 4285,
      "##aselessly": 4286,
      "##ano": 4287,
      "##anes": 4288,
      "##anch": 4289,
      "##anations": 4290,
      "##itive": 4291,
      "##itary": 4292,
      "##itched": 4293,
      "##itatively": 4294,
      "##itude": 4295,
      "##ittent": 4296,
      "hem": 4297,
      "height": 4298,
      "heap": 4299,
      "##lling": 4300,
      "##llence": 4301,
      "##oms": 4302,
      "ham": 4303,
      "haired": 4304,
      "washing": 4305,
      "wasting": 4306,
      "wha": 4307,
      "whol": 4308,
      "##owed": 4309,
      "##utenant": 4310,
      "shame": 4311,
      "shop": 4312,
      "shaved": 4313,
      "bear": 4314,
      "beard": 4315,
      "beck": 4316,
      "beamed": 4317,
      "begged": 4318,
      "##idence": 4319,
      "##icity": 4320,
      "##icited": 4321,
      "##iciency": 4322,
      "##ett": 4323,
      "##etic": 4324,
      "##etery": 4325,
      "##enth": 4326,
      "##entous": 4327,
      "##ential": 4328,
      "##reh": 4329,
      "##reement": 4330,
      "##imal": 4331,
      "##immed": 4332,
      "##imony": 4333,
      "##sty": 4334,
      "##vernment": 4335,
      "##oted": 4336,
      "##othing": 4337,
      "##othed": 4338,
      "##ldoon": 4339,
      "##see": 4340,
      "##seas": 4341,
      "##veal": 4342,
      "##vember": 4343,
      "stur": 4344,
      "stro": 4345,
      "stag": 4346,
      "stone": 4347,
      "state": 4348,
      "stale": 4349,
      "stup": 4350,
      "stunt": 4351,
      "##iring": 4352,
      "ate": 4353,
      "attain": 4354,
      "shelf": 4355,
      "sheep": 4356,
      "antic": 4357,
      "ancest": 4358,
      "##urbed": 4359,
      "##alto": 4360,
      "forest": 4361,
      "forced": 4362,
      "ascertain": 4363,
      "##adour": 4364,
      "##adition": 4365,
      "##adays": 4366,
      "##admir": 4367,
      "##ooked": 4368,
      "repl": 4369,
      "reality": 4370,
      "reapp": 4371,
      "revel": 4372,
      "reasons": 4373,
      "##ampt": 4374,
      "##amber": 4375,
      "wear": 4376,
      "wearing": 4377,
      "weeke": 4378,
      "frost": 4379,
      "franc": 4380,
      "##ionless": 4381,
      "##iless": 4382,
      "##ilty": 4383,
      "sail": 4384,
      "saxop": 4385,
      "##essential": 4386,
      "button": 4387,
      "##keys": 4388,
      "##omee": 4389,
      "send": 4390,
      "seat": 4391,
      "sees": 4392,
      "seized": 4393,
      "sends": 4394,
      "seats": 4395,
      "##rob": 4396,
      "##roit": 4397,
      "##roll": 4398,
      "##roken": 4399,
      "##rossed": 4400,
      "##rogant": 4401,
      "doc": 4402,
      "suite": 4403,
      "sung": 4404,
      "##cellence": 4405,
      "##rier": 4406,
      "##riages": 4407,
      "##heran": 4408,
      "##allic": 4409,
      "neph": 4410,
      "lied": 4411,
      "liable": 4412,
      "##esty": 4413,
      "##pper": 4414,
      "##ember": 4415,
      "##empor": 4416,
      "abort": 4417,
      "intend": 4418,
      "intrig": 4419,
      "intentions": 4420,
      "##oling": 4421,
      "##olic": 4422,
      "##olomee": 4423,
      "choo": 4424,
      "chall": 4425,
      "chord": 4426,
      "chick": 4427,
      "chry": 4428,
      "chairs": 4429,
      "chiff": 4430,
      "chorus": 4431,
      "chamber": 4432,
      "goss": 4433,
      "government": 4434,
      "sogg": 4435,
      "soph": 4436,
      "sofa": 4437,
      "society": 4438,
      "soothing": 4439,
      "##ousers": 4440,
      "##ourne": 4441,
      "conve": 4442,
      "conting": 4443,
      "coney": 4444,
      "consequence": 4445,
      "overl": 4446,
      "overh": 4447,
      "overseas": 4448,
      "##owned": 4449,
      "nosed": 4450,
      "november": 4451,
      "ros": 4452,
      "rolled": 4453,
      "roared": 4454,
      "roaring": 4455,
      "sped": 4456,
      "spat": 4457,
      "spir": 4458,
      "spree": 4459,
      "spilled": 4460,
      "spasm": 4461,
      "unsc": 4462,
      "unrolled": 4463,
      "unlike": 4464,
      "unrest": 4465,
      "unknown": 4466,
      "##andal": 4467,
      "##eline": 4468,
      "##elpiece": 4469,
      "exh": 4470,
      "exting": 4471,
      "exte": 4472,
      "excellence": 4473,
      "##aste": 4474,
      "##asting": 4475,
      "##astly": 4476,
      "carlo": 4477,
      "carpet": 4478,
      "carriages": 4479,
      "lever": 4480,
      "lege": 4481,
      "leaking": 4482,
      "level": 4483,
      "learn": 4484,
      "##unting": 4485,
      "##unty": 4486,
      "##unched": 4487,
      "##orts": 4488,
      "##ording": 4489,
      "issued": 4490,
      "##using": 4491,
      "##acks": 4492,
      "##aud": 4493,
      "##auk": 4494,
      "##augh": 4495,
      "##ulse": 4496,
      "##ulated": 4497,
      "##ulting": 4498,
      "##ulating": 4499,
      "agreement": 4500,
      "notes": 4501,
      "##umble": 4502,
      "##umpt": 4503,
      "##cking": 4504,
      "deb": 4505,
      "deft": 4506,
      "degree": 4507,
      "moder": 4508,
      "monday": 4509,
      "##ellig": 4510,
      "##ellery": 4511,
      "trick": 4512,
      "tradition": 4513,
      "trousers": 4514,
      "##venir": 4515,
      "##ift": 4516,
      "##istic": 4517,
      "##isticated": 4518,
      "##ndered": 4519,
      "cover": 4520,
      "coinc": 4521,
      "twisting": 4522,
      "twinkle": 4523,
      "nowhere": 4524,
      "nowadays": 4525,
      "##icking": 4526,
      "##ddard": 4527,
      "##ounded": 4528,
      "##earance": 4529,
      "eyesore": 4530,
      "arrogant": 4531,
      "comb": 4532,
      "comin": 4533,
      "comment": 4534,
      "gotten": 4535,
      "enlar": 4536,
      "glare": 4537,
      "glazed": 4538,
      "prac": 4539,
      "printed": 4540,
      "loaf": 4541,
      "##quin": 4542,
      "flight": 4543,
      "fluct": 4544,
      "flushing": 4545,
      "flicker": 4546,
      "flavour": 4547,
      "flashing": 4548,
      "florid": 4549,
      "queen": 4550,
      "momentary": 4551,
      "bles": 4552,
      "blessed": 4553,
      "blazing": 4554,
      "yours": 4555,
      "brace": 4556,
      "brass": 4557,
      "brushed": 4558,
      "brush": 4559,
      "bringing": 4560,
      "brisk": 4561,
      "impl": 4562,
      "plaid": 4563,
      "offered": 4564,
      "offended": 4565,
      "bob": 4566,
      "boom": 4567,
      "boxes": 4568,
      "moreover": 4569,
      "peered": 4570,
      "pebb": 4571,
      "peering": 4572,
      "smir": 4573,
      "smashed": 4574,
      "everywhere": 4575,
      "cannot": 4576,
      "madman": 4577,
      "begins": 4578,
      "girders": 4579,
      "wherever": 4580,
      "amused": 4581,
      "amazed": 4582,
      "amazing": 4583,
      "acute": 4584,
      "##aires": 4585,
      "veiled": 4586,
      "##apse": 4587,
      "##anging": 4588,
      "##angle": 4589,
      "underne": 4590,
      "underwear": 4591,
      "worry": 4592,
      "minnes": 4593,
      "wave": 4594,
      "wail": 4595,
      "waves": 4596,
      "wavered": 4597,
      "##actory": 4598,
      "dishon": 4599,
      "disquiet": 4600,
      "firmly": 4601,
      "slum": 4602,
      "slip": 4603,
      "slipped": 4604,
      "slipp": 4605,
      "slapping": 4606,
      "##boxes": 4607,
      "driven": 4608,
      "drizz": 4609,
      "windy": 4610,
      "##ples": 4611,
      "##place": 4612,
      "##plicable": 4613,
      "contour": 4614,
      "contained": 4615,
      "contribut": 4616,
      "swing": 4617,
      "swore": 4618,
      "swell": 4619,
      "sworn": 4620,
      "switch": 4621,
      "swung": 4622,
      "swamps": 4623,
      "##abs": 4624,
      "##about": 4625,
      "scre": 4626,
      "scal": 4627,
      "scient": 4628,
      "science": 4629,
      "scenes": 4630,
      "scandal": 4631,
      "##uendo": 4632,
      "fever": 4633,
      "fender": 4634,
      "clar": 4635,
      "clicked": 4636,
      "claud": 4637,
      "##shes": 4638,
      "whitewashed": 4639,
      "foam": 4640,
      "starts": 4641,
      "grand": 4642,
      "granted": 4643,
      "lasted": 4644,
      "incon": 4645,
      "headlight": 4646,
      "perman": 4647,
      "perio": 4648,
      "##bert": 4649,
      "marred": 4650,
      "marrying": 4651,
      "marriage": 4652,
      "marshes": 4653,
      "imper": 4654,
      "imposs": 4655,
      "impressive": 4656,
      "improving": 4657,
      "impulse": 4658,
      "obs": 4659,
      "obst": 4660,
      "##ivably": 4661,
      "##izes": 4662,
      "##izable": 4663,
      "##phere": 4664,
      "strain": 4665,
      "strong": 4666,
      "afternoons": 4667,
      "belug": 4668,
      "excused": 4669,
      "couple": 4670,
      "couples": 4671,
      "missing": 4672,
      "breeding": 4673,
      "brewer": 4674,
      "drain": 4675,
      "drowned": 4676,
      "process": 4677,
      "provinc": 4678,
      "proxim": 4679,
      "invent": 4680,
      "invented": 4681,
      "inventions": 4682,
      "invitation": 4683,
      "invariably": 4684,
      "happiness": 4685,
      "happens": 4686,
      "happening": 4687,
      "exper": 4688,
      "express": 4689,
      "sideways": 4690,
      "tender": 4691,
      "adjust": 4692,
      "desired": 4693,
      "desire": 4694,
      "design": 4695,
      "descend": 4696,
      "##sperous": 4697,
      "##spaugh": 4698,
      "resting": 4699,
      "restlessly": 4700,
      "restoration": 4701,
      "alongside": 4702,
      "owned": 4703,
      "silhou": 4704,
      "suppl": 4705,
      "support": 4706,
      "ends": 4707,
      "endure": 4708,
      "musty": 4709,
      "##fulness": 4710,
      "stare": 4711,
      "##tee": 4712,
      "compreh": 4713,
      "appalled": 4714,
      "appropriate": 4715,
      "appearance": 4716,
      "garnished": 4717,
      "##coat": 4718,
      "reput": 4719,
      "reply": 4720,
      "repair": 4721,
      "reporter": 4722,
      "reports": 4723,
      "inquest": 4724,
      "speech": 4725,
      "surer": 4726,
      "surface": 4727,
      "##ishment": 4728,
      "courtes": 4729,
      "drops": 4730,
      "hovering": 4731,
      "metallic": 4732,
      "monte": 4733,
      "montauk": 4734,
      "perspiration": 4735,
      "standard": 4736,
      "elicited": 4737,
      "##ancies": 4738,
      "whistle": 4739,
      "stove": 4740,
      "suns": 4741,
      "sunken": 4742,
      "matters": 4743,
      "roadster": 4744,
      "roadhouse": 4745,
      "indic": 4746,
      "individ": 4747,
      "indec": 4748,
      "##merged": 4749,
      "realizing": 4750,
      "decl": 4751,
      "decency": 4752,
      "president": 4753,
      "accoun": 4754,
      "accused": 4755,
      "accomp": 4756,
      "according": 4757,
      "guilty": 4758,
      "reserve": 4759,
      "##while": 4760,
      "hearse": 4761,
      "means": 4762,
      "meanwhile": 4763,
      "earl": 4764,
      "floating": 4765,
      "sentence": 4766,
      "leaf": 4767,
      "besides": 4768,
      "willing": 4769,
      "commotion": 4770,
      "commission": 4771,
      "commanded": 4772,
      "awoke": 4773,
      "crick": 4774,
      "crisp": 4775,
      "cracked": 4776,
      "sett": 4777,
      "settee": 4778,
      "##intment": 4779,
      "##anking": 4780,
      "shortcut": 4781,
      "suggest": 4782,
      "continent": 4783,
      "busy": 4784,
      "final": 4785,
      "farm": 4786,
      "fella": 4787,
      "fellas": 4788,
      "infinite": 4789,
      "influ": 4790,
      "cheer": 4791,
      "check": 4792,
      "cheap": 4793,
      "arrive": 4794,
      "arrivals": 4795,
      "corrug": 4796,
      "corrob": 4797,
      "listened": 4798,
      "raining": 4799,
      "runs": 4800,
      "attracted": 4801,
      "career": 4802,
      "remembering": 4803,
      "personality": 4804,
      "hurt": 4805,
      "hurry": 4806,
      "hurrying": 4807,
      "midsum": 4808,
      "snell": 4809,
      "##ibilities": 4810,
      "shade": 4811,
      "relief": 4812,
      "conserv": 4813,
      "consoling": 4814,
      "circles": 4815,
      "circular": 4816,
      "distorted": 4817,
      "distinguished": 4818,
      "distaste": 4819,
      "eleven": 4820,
      "elegant": 4821,
      "mckees": 4822,
      "halls": 4823,
      "ashen": 4824,
      "subway": 4825,
      "submerged": 4826,
      "affected": 4827,
      "affection": 4828,
      "explanations": 4829,
      "pretended": 4830,
      "understanding": 4831,
      "understandingly": 4832,
      "murmurous": 4833,
      "delight": 4834,
      "delayed": 4835,
      "prep": 4836,
      "preced": 4837,
      "precise": 4838,
      "vii": 4839,
      "##bbishly": 4840,
      "secure": 4841,
      "collar": 4842,
      "collapse": 4843,
      "coldly": 4844,
      "flowered": 4845,
      "working": 4846,
      "workmen": 4847,
      "acting": 4848,
      "actual": 4849,
      "georg": 4850,
      "taxic": 4851,
      "tenor": 4852,
      "tennis": 4853,
      "shocked": 4854,
      "deeper": 4855,
      "english": 4856,
      "engrossed": 4857,
      "dreamed": 4858,
      "blond": 4859,
      "bloss": 4860,
      "blocked": 4861,
      "ceased": 4862,
      "cecil": 4863,
      "ceaselessly": 4864,
      "events": 4865,
      "edgar": 4866,
      "groped": 4867,
      "grocery": 4868,
      "jov": 4869,
      "joined": 4870,
      "simon": 4871,
      "terms": 4872,
      "##upation": 4873,
      "defiant": 4874,
      "deferred": 4875,
      "defiantly": 4876,
      "whispers": 4877,
      "adding": 4878,
      "detect": 4879,
      "detail": 4880,
      "detroit": 4881,
      "falls": 4882,
      "kinds": 4883,
      "kindly": 4884,
      "raising": 4885,
      "trip": 4886,
      "tries": 4887,
      "writ": 4888,
      "##osition": 4889,
      "##ucer": 4890,
      "##encies": 4891,
      "wheat": 4892,
      "admiration": 4893,
      "admission": 4894,
      "warmth": 4895,
      "crept": 4896,
      "creative": 4897,
      "dimly": 4898,
      "diminished": 4899,
      "duster": 4900,
      "eagerness": 4901,
      "genially": 4902,
      "horrible": 4903,
      "horses": 4904,
      "horrib": 4905,
      "largest": 4906,
      "mindedness": 4907,
      "signs": 4908,
      "signed": 4909,
      "wildly": 4910,
      "formal": 4911,
      "formality": 4912,
      "suspect": 4913,
      "pointlessly": 4914,
      "football": 4915,
      "footste": 4916,
      "barrier": 4917,
      "capit": 4918,
      "capable": 4919,
      "ghastly": 4920,
      "gasping": 4921,
      "jug": 4922,
      "motionless": 4923,
      "muscle": 4924,
      "powerful": 4925,
      "powder": 4926,
      "redolent": 4927,
      "squee": 4928,
      "shirtwais": 4929,
      "nearly": 4930,
      "possible": 4931,
      "swept": 4932,
      "sweep": 4933,
      "wheeled": 4934,
      "harm": 4935,
      "sadness": 4936,
      "villages": 4937,
      "meeting": 4938,
      "freshness": 4939,
      "blinds": 4940,
      "answering": 4941,
      "neighbourhood": 4942,
      "eighty": 4943,
      "salons": 4944,
      "supercil": 4945,
      "softly": 4946,
      "glowed": 4947,
      "america": 4948,
      "americans": 4949,
      "ghosts": 4950,
      "motorcy": 4951,
      "baths": 4952,
      "bathrooms": 4953,
      "figures": 4954,
      "hostile": 4955,
      "jumping": 4956,
      "limit": 4957,
      "magic": 4958,
      "##sylvan": 4959,
      "towels": 4960,
      "struck": 4961,
      "concerned": 4962,
      "legs": 4963,
      "legion": 4964,
      "complac": 4965,
      "compliment": 4966,
      "letters": 4967,
      "advent": 4968,
      "advice": 4969,
      "advised": 4970,
      "correction": 4971,
      "returning": 4972,
      "extravag": 4973,
      "solemnly": 4974,
      "astoria": 4975,
      "bott": 4976,
      "director": 4977,
      "directly": 4978,
      "ferret": 4979,
      "ferdie": 4980,
      "hasty": 4981,
      "nature": 4982,
      "nervously": 4983,
      "owe": 4984,
      "winked": 4985,
      "memories": 4986,
      "refuse": 4987,
      "gathering": 4988,
      "connected": 4989,
      "argonne": 4990,
      "quieter": 4991,
      "imagine": 4992,
      "imagined": 4993,
      "imagination": 4994,
      "obvious": 4995,
      "strangest": 4996,
      "consciously": 4997,
      "consciousness": 4998,
      "groaned": 4999,
      "190": 5000,
      "burden": 5001,
      "cutting": 5002,
      "cardboard": 5003,
      "cousins": 5004,
      "gleam": 5005,
      "growing": 5006,
      "hats": 5007,
      "jewels": 5008,
      "jewellery": 5009,
      "laden": 5010,
      "miserable": 5011,
      "miserably": 5012,
      "picking": 5013,
      "passing": 5014,
      "passion": 5015,
      "sensation": 5016,
      "sensuous": 5017,
      "wander": 5018,
      "##soever": 5019,
      "shifting": 5020,
      "shifted": 5021,
      "frightening": 5022,
      "search": 5023,
      "searching": 5024,
      "lieutenant": 5025,
      "newsstand": 5026,
      "practice": 5027,
      "blanket": 5028,
      "closer": 5029,
      "closing": 5030,
      "closest": 5031,
      "dismissed": 5032,
      "dismayed": 5033,
      "contemptuously": 5034,
      "absorbing": 5035,
      "respect": 5036,
      "instinctively": 5037,
      "generation": 5038,
      "generally": 5039,
      "automobile": 5040,
      "struggle": 5041,
      "struggling": 5042,
      "struggles": 5043,
      "banjo": 5044,
      "banners": 5045,
      "birth": 5046,
      "ballroom": 5047,
      "bothering": 5048,
      "gestures": 5049,
      "groups": 5050,
      "jaunty": 5051,
      "lemon": 5052,
      "portentous": 5053,
      "roofs": 5054,
      "school": 5055,
      "solitary": 5056,
      "southampt": 5057,
      "tangled": 5058,
      "uttered": 5059,
      "vict": 5060,
      "wiping": 5061,
      "reassure": 5062,
      "tragically": 5063,
      "transit": 5064,
      "scornful": 5065,
      "increasing": 5066,
      "phrases": 5067,
      "obscene": 5068,
      "obscurely": 5069,
      "sidewalks": 5070,
      "specim": 5071,
      "authent": 5072,
      "cheeks": 5073,
      "attempting": 5074,
      "suspicious": 5075,
      "suspicions": 5076,
      "suspiciously": 5077,
      "irrele": 5078,
      "verandas": 5079,
      "profoundly": 5080,
      "fashionable": 5081,
      "fashionably": 5082,
      "avoided": 5083,
      "bowls": 5084,
      "cooked": 5085,
      "coolly": 5086,
      "crossing": 5087,
      "crossly": 5088,
      "denied": 5089,
      "honour": 5090,
      "lonely": 5091,
      "medium": 5092,
      "millions": 5093,
      "machines": 5094,
      "mirrored": 5095,
      "peter": 5096,
      "poured": 5097,
      "pouring": 5098,
      "pressing": 5099,
      "rumour": 5100,
      "visibly": 5101,
      "##ecially": 5102,
      "innuendo": 5103,
      "annoy": 5104,
      "sandwich": 5105,
      "selling": 5106,
      "alertly": 5107,
      "unreal": 5108,
      "unusually": 5109,
      "univers": 5110,
      "smoking": 5111,
      "interminable": 5112,
      "intermittent": 5113,
      "produced": 5114,
      "expectantly": 5115,
      "identical": 5116,
      "identified": 5117,
      "resolves": 5118,
      "delicately": 5119,
      "blocks": 5120,
      "triumphantly": 5121,
      "unexpectedly": 5122,
      "inexhaust": 5123,
      "inexplicable": 5124,
      "magazines": 5125,
      "concentration": 5126,
      "concentrated": 5127,
      "obliged": 5128,
      "natural": 5129,
      "bursts": 5130,
      "gloomily": 5131,
      "recognized": 5132,
      "recognizable": 5133,
      "peculiarly": 5134,
      "burning": 5135,
      "causing": 5136,
      "catching": 5137,
      "etc": 5138,
      "eastern": 5139,
      "easier": 5140,
      "gaud": 5141,
      "henry": 5142,
      "hilarity": 5143,
      "hilariously": 5144,
      "muldoon": 5145,
      "morbid": 5146,
      "pupp": 5147,
      "patent": 5148,
      "patron": 5149,
      "painting": 5150,
      "pigsty": 5151,
      "rounded": 5152,
      "riotous": 5153,
      "soul": 5154,
      "souvenir": 5155,
      "snobbishly": 5156,
      "tanned": 5157,
      "tentatively": 5158,
      "undes": 5159,
      "vestib": 5160,
      "wrapped": 5161,
      "wrapping": 5162,
      "##rams": 5163,
      "##hones": 5164,
      "torn": 5165,
      "haughty": 5166,
      "haughtily": 5167,
      "forehead": 5168,
      "melted": 5169,
      "melanch": 5170,
      "fragment": 5171,
      "choked": 5172,
      "knocked": 5173,
      "alarmed": 5174,
      "splendid": 5175,
      "splendour": 5176,
      "unbel": 5177,
      "unbroken": 5178,
      "examined": 5179,
      "examining": 5180,
      "protest": 5181,
      "local": 5182,
      "remotely": 5183,
      "acquaintance": 5184,
      "acquaintances": 5185,
      "dissol": 5186,
      "contralto": 5187,
      "gratitude": 5188,
      "graceful": 5189,
      "confirmed": 5190,
      "confirmation": 5191,
      "hollowly": 5192,
      "indefinite": 5193,
      "accusingly": 5194,
      "accusations": 5195,
      "fifteen": 5196,
      "considered": 5197,
      "disappointed": 5198,
      "disappointment": 5199,
      "simplest": 5200,
      "simplicity": 5201,
      "orchids": 5202,
      "regarded": 5203,
      "regarding": 5204,
      "photographers": 5205,
      "astonishment": 5206,
      "penniless": 5207,
      "pennsylvan": 5208,
      "savagely": 5209,
      "unhappy": 5210,
      "unhappily": 5211,
      "tiptoes": 5212,
      "tiptoed": 5213,
      "overwhelming": 5214,
      "unpleasantness": 5215,
      "audible": 5216,
      "bona": 5217,
      "brave": 5218,
      "coward": 5219,
      "cordial": 5220,
      "domin": 5221,
      "foul": 5222,
      "guns": 5223,
      "german": 5224,
      "holiday": 5225,
      "judgement": 5226,
      "luckily": 5227,
      "message": 5228,
      "oddly": 5229,
      "pyjam": 5230,
      "pompadour": 5231,
      "rotten": 5232,
      "rigidly": 5233,
      "rapidly": 5234,
      "silly": 5235,
      "ticket": 5236,
      "vulgar": 5237,
      "##fortably": 5238,
      "inhab": 5239,
      "heavily": 5240,
      "bewild": 5241,
      "studies": 5242,
      "anchor": 5243,
      "melody": 5244,
      "mysterious": 5245,
      "september": 5246,
      "separated": 5247,
      "abstracted": 5248,
      "abandoned": 5249,
      "overtaking": 5250,
      "nostrils": 5251,
      "spectacles": 5252,
      "sparkling": 5253,
      "exercise": 5254,
      "exchanged": 5255,
      "leader": 5256,
      "isolated": 5257,
      "aggressively": 5258,
      "transp": 5259,
      "literally": 5260,
      "flannel": 5261,
      "platform": 5262,
      "plunged": 5263,
      "boarder": 5264,
      "ambitious": 5265,
      "swallowed": 5266,
      "scrutinized": 5267,
      "clustered": 5268,
      "startlingly": 5269,
      "pervading": 5270,
      "perceived": 5271,
      "impersonal": 5272,
      "drums": 5273,
      "provided": 5274,
      "exploded": 5275,
      "advantage": 5276,
      "desperately": 5277,
      "emplo": 5278,
      "tremendous": 5279,
      "resemblance": 5280,
      "commuting": 5281,
      "pleasantly": 5282,
      "associated": 5283,
      "prevented": 5284,
      "securities": 5285,
      "eventually": 5286,
      "uncomfortably": 5287,
      "possessions": 5288,
      "discreetly": 5289,
      "inevitable": 5290,
      "divorce": 5291,
      "division": 5292,
      "oblivion": 5293,
      "privilege": 5294,
      "ferocious": 5295,
      "conscientious": 5296,
      "fascinated": 5297,
      "jauntily": 5298,
      "turbulent": 5299,
      "cynical": 5300,
      "established": 5301,
      "temperament": 5302,
      "unwillingly": 5303,
      "apology": 5304,
      "biscuits": 5305,
      "tumultuous": 5306,
      "represented": 5307,
      "unsuccessfully": 5308,
      "unmistakable": 5309,
      "indifferent": 5310,
      "ajar": 5311,
      "august": 5312,
      "benediction": 5313,
      "cups": 5314,
      "ceremon": 5315,
      "cemetery": 5316,
      "cellar": 5317,
      "catholic": 5318,
      "deranged": 5319,
      "dirty": 5320,
      "dilatory": 5321,
      "daughter": 5322,
      "ewing": 5323,
      "especially": 5324,
      "frequ": 5325,
      "farther": 5326,
      "freedom": 5327,
      "gulls": 5328,
      "hedge": 5329,
      "hangs": 5330,
      "janitor": 5331,
      "journal": 5332,
      "katspaugh": 5333,
      "luxur": 5334,
      "linen": 5335,
      "latest": 5336,
      "lutheran": 5337,
      "langu": 5338,
      "mantelpiece": 5339,
      "moths": 5340,
      "muttering": 5341,
      "narrowed": 5342,
      "numbers": 5343,
      "paused": 5344,
      "perempt": 5345,
      "proud": 5346,
      "sixt": 5347,
      "schedule": 5348,
      "tyre": 5349,
      "tuolomee": 5350,
      "taylor": 5351,
      "testimony": 5352,
      "tapest": 5353,
      "vladmir": 5354,
      "versailles": 5355,
      "tongue": 5356,
      "initiative": 5357,
      "inherited": 5358,
      "wholes": 5359,
      "sturdy": 5360,
      "stroke": 5361,
      "stupid": 5362,
      "stunts": 5363,
      "replaced": 5364,
      "reappeared": 5365,
      "weekends": 5366,
      "saxophones": 5367,
      "nephew": 5368,
      "abortive": 5369,
      "intending": 5370,
      "intriguing": 5371,
      "chords": 5372,
      "chicken": 5373,
      "chryst": 5374,
      "chiffon": 5375,
      "gossip": 5376,
      "soggy": 5377,
      "sophisticated": 5378,
      "##ourney": 5379,
      "extinguished": 5380,
      "coincidence": 5381,
      "loafing": 5382,
      "pebbles": 5383,
      "underneath": 5384,
      "minnesota": 5385,
      "disquieting": 5386,
      "drizzle": 5387,
      "scientific": 5388,
      "headlights": 5389,
      "period": 5390,
      "impossible": 5391,
      "beluga": 5392,
      "procession": 5393,
      "provincial": 5394,
      "proximity": 5395,
      "designs": 5396,
      "descended": 5397,
      "silhouette": 5398,
      "courtesy": 5399,
      "accounting": 5400,
      "accompan": 5401,
      "influence": 5402,
      "corrugated": 5403,
      "midsummer": 5404,
      "precisely": 5405,
      "taxicabs": 5406,
      "horribly": 5407,
      "footsteps": 5408,
      "squeezed": 5409,
      "shirtwaist": 5410,
      "supercilious": 5411,
      "motorcycle": 5412,
      "southampton": 5413,
      "inexhaustible": 5414,
      "melancholy": 5415,
      "pennsylvania": 5416,
      "judgements": 5417
    }
  }
}