{
  "version": "1.0",
  "truncation": null,
  "padding": null,
  "added_tokens": [
    {
      "id": 0,
      "content": "<s>",
      "single_word": false,
      "lstrip": false,
      "rstrip": false,
      "normalized": false,
      "special": true
    },
    {
      "id": 1,
      "content": "<pad>",
      "single_word": false,
      "lstrip": false,
      "rstrip": false,
      "normalized": false,
      "special": true
    },
    {
      "id": 2,
      "content": "</s>",
      "single_word": false,
      "lstrip": false,
      "rstrip": false,
      "normalized": false,
      "special": true
    },
    {
      "id": 3,
      "content": "<unk>",
      "single_word": false,
      "lstrip": false,
      "rstrip": false,
      "normalized": false,
      "special": true
    },
    {
      "id": 4,
      "content": "<mask>",
      "single_word": false,
      "lstrip": false,
      "rstrip": false,
      "normalized": false,
      "special": true
    }
  ],
  "normalizer": null,
  "pre_tokenizer": {
    "type": "ByteLevel",
    "add_prefix_space": false,
    "trim_offsets": true,
    "use_regex": true
  },
  "post_processor": {
    "type": "ByteLevel",
    "add_prefix_space": true,
    "trim_offsets": false,
    "use_regex": true
  },
  "decoder": {
    "type": "ByteLevel",
    "add_prefix_space": true,
    "trim_offsets": true,
    "use_regex": true
  },
  "model": {
    "type": "BPE",
    "dropout": null,
    "unk_token": null,
    "continuing_subword_prefix": null,
    "end_of_word_suffix": null,
    "fuse_unk": false,
    "vocab": {
      "<s>": 0,
      "<pad>": 1,
      "</s>": 2,
      "<unk>": 3,
      "<mask>": 4,
      "!": 5,
      "\"": 6,
      "#": 7,
      "$": 8,
      "%": 9,
      "&": 10,
      "'": 11,
      "(": 12,
      ")": 13,
      "*": 14,
      "+": 15,
      ",": 16,
      "-": 17,
      ".": 18,
      "/": 19,
      "0": 20,
      "1": 21,
      "2": 22,
      "3": 23,
      "4": 24,
      "5": 25,
      "6": 26,
      "7": 27,
      "8": 28,
      "9": 29,
      ":": 30,
      ";": 31,
      "<": 32,
      "=": 33,
      ">": 34,
      "?": 35,
      "@": 36,
      "A": 37,
      "B": 38,
      "C": 39,
      "D": 40,
      "E": 41,
      "F": 42,
      "G": 43,
      "H": 44,
      "I": 45,
      "J": 46,
      "K": 47,
      "L": 48,
      "M": 49,
      "N": 50,
      "O": 51,
      "P": 52,
      "Q": 53,
      "R": 54,
      "S": 55,
      "T": 56,
      "U": 57,
      "V": 58,
      "W": 59,
      "X": 60,
      "Y": 61,
      "Z": 62,
      "[": 63,
      "\\": 64,
      "]": 65,
      "^": 66,
      "_": 67,
      "`": 68,
      "a": 69,
      "b": 70,
      "c": 71,
      "d": 72,
      "e": 73,
      "f": 74,
      "g": 75,
      "h": 76,
      "i": 77,
      "j": 78,
      "k": 79,
      "l": 80,
      "m": 81,
      "n": 82,
      "o": 83,
      "p": 84,
      "q": 85,
      "r": 86,
      "s": 87,
      "t": 88,
      "u": 89,
      "v": 90,
      "w": 91,
      "x": 92,
      "y": 93,
      "z": 94,
      "{": 95,
      "|": 96,
      "}": 97,
      "~": 98,
      "¡": 99,
      "¢": 100,
      "£": 101,
      "¤": 102,
      "¥": 103,
      "¦": 104,
      "§": 105,
      "¨": 106,
      "©": 107,
      "ª": 108,
      "«": 109,
      "¬": 110,
      "®": 111,
      "¯": 112,
      "°": 113,
      "±": 114,
      "²": 115,
      "³": 116,
      "´": 117,
      "µ": 118,
      "¶": 119,
      "·": 120,
      "¸": 121,
      "¹": 122,
      "º": 123,
      "»": 124,
      "¼": 125,
      "½": 126,
      "¾": 127,
      "¿": 128,
      "À": 129,
      "Á": 130,
      "Â": 131,
      "Ã": 132,
      "Ä": 133,
      "Å": 134,
      "Æ": 135,
      "Ç": 136,
      "È": 137,
      "É": 138,
      "Ê": 139,
      "Ë": 140,
      "Ì": 141,
      "Í": 142,
      "Î": 143,
      "Ï": 144,
      "Ð": 145,
      "Ñ": 146,
      "Ò": 147,
      "Ó": 148,
      "Ô": 149,
      "Õ": 150,
      "Ö": 151,
      "×": 152,
      "Ø": 153,
      "Ù": 154,
      "Ú": 155,
      "Û": 156,
      "Ü": 157,
      "Ý": 158,
      "Þ": 159,
      "ß": 160,
      "à": 161,
      "á": 162,
      "â": 163,
      "ã": 164,
      "ä": 165,
      "å": 166,
      "æ": 167,
      "ç": 168,
      "è": 169,
      "é": 170,
      "ê": 171,
      "ë": 172,
      "ì": 173,
      "í": 174,
      "î": 175,
      "ï": 176,
      "ð": 177,
      "ñ": 178,
      "ò": 179,
      "ó": 180,
      "ô": 181,
      "õ": 182,
      "ö": 183,
      "÷": 184,
      "ø": 185,
      "ù": 186,
      "ú": 187,
      "û": 188,
      "ü": 189,
      "ý": 190,
      "þ": 191,
      "ÿ": 192,
      "Ā": 193,
      "ā": 194,
      "Ă": 195,
      "ă": 196,
      "Ą": 197,
      "ą": 198,
      "Ć": 199,
      "ć": 200,
      "Ĉ": 201,
      "ĉ": 202,
      "Ċ": 203,
      "ċ": 204,
      "Č": 205,
      "č": 206,
      "Ď": 207,
      "ď": 208,
      "Đ": 209,
      "đ": 210,
      "Ē": 211,
      "ē": 212,
      "Ĕ": 213,
      "ĕ": 214,
      "Ė": 215,
      "ė": 216,
      "Ę": 217,
      "ę": 218,
      "Ě": 219,
      "ě": 220,
      "Ĝ": 221,
      "ĝ": 222,
      "Ğ": 223,
      "ğ": 224,
      "Ġ": 225,
      "ġ": 226,
      "Ģ": 227,
      "ģ": 228,
      "Ĥ": 229,
      "ĥ": 230,
      "Ħ": 231,
      "ħ": 232,
      "Ĩ": 233,
      "ĩ": 234,
      "Ī": 235,
      "ī": 236,
      "Ĭ": 237,
      "ĭ": 238,
      "Į": 239,
      "į": 240,
      "İ": 241,
      "ı": 242,
      "Ĳ": 243,
      "ĳ": 244,
      "Ĵ": 245,
      "ĵ": 246,
      "Ķ": 247,
      "ķ": 248,
      "ĸ": 249,
      "Ĺ": 250,
      "ĺ": 251,
      "Ļ": 252,
      "ļ": 253,
      "Ľ": 254,
      "ľ": 255,
      "Ŀ": 256,
      "ŀ": 257,
      "Ł": 258,
      "ł": 259,
      "Ń": 260,
      "Ġt": 261,
      "he": 262,
      "Ġa": 263,
      "âĢ": 264,
      "in": 265,
      "Ġw": 266,
      "Ġs": 267,
      "Ġthe": 268,
      "Ġo": 269,
      "ed": 270,
      "nd": 271,
      "er": 272,
      "ou": 273,
      "ha": 274,
      "re": 275,
      "--": 276,
      "Ġm": 277,
      "it": 278,
      "Ġb": 279,
      "is": 280,
      "en": 281,
      "ing": 282,
      "Ġc": 283,
      "âĢľ": 284,
      "âĢĿ": 285,
      "Ġf": 286,
      "on": 287,
      "Ġand": 288,
      "Ġto": 289,
      "âĢĻ": 290,
      "or": 291,
      "as": 292,
      "Ġd": 293,
      "Ġin": 294,
      "Ġhe": 295,
      "om": 296,
      "Ġl": 297,
      "ar": 298,
      "ĠI": 299,
      "Ġof": 300,
      "Ġh": 301,
      "ll": 302,
      "at": 303,
      "es": 304,
      "an": 305,
      "Ġg": 306,
      "----": 307,
      "Ġp": 308,
      "Ġha": 309,
      "hat": 310,
      "ow": 311,
      "le": 312,
      "Ġwas": 313,
      "ly": 314,
      "ut": 315,
      "id": 316,
      "Ġn": 317,
      "gh": 318,
      "st": 319,
      "ic": 320,
      "Ġe": 321,
      "Ġy": 322,
      "im": 323,
      ".âĢĿ": 324,
      "Ġbe": 325,
      "ver": 326,
      "ent": 327,
      "ve": 328,
      "Ġu": 329,
      "Ġthat": 330,
      "Ġon": 331,
      "et": 332,
      "se": 333,
      "Ġth": 334,
      "Ġyou": 335,
      "ĠĠ": 336,
      "ay": 337,
      "ot": 338,
      "ac": 339,
      "ld": 340,
      "ght": 341,
      "Ġit": 342,
      "ir": 343,
      "ith": 344,
      "ro": 345,
      "ĠâĢľ": 346,
      "Ġhis": 347,
      "--------": 348,
      "al": 349,
      "ri": 350,
      "âĢĶ": 351,
      "Ġwith": 352,
      "ĠT": 353,
      "Ġst": 354,
      "Ġat": 355,
      ",âĢĿ": 356,
      "ur": 357,
      "Ġhad": 358,
      "ad": 359,
      "oo": 360,
      "Ġme": 361,
      "Ġan": 362,
      "Ġher": 363,
      "ter": 364,
      "am": 365,
      "Ġfor": 366,
      "ion": 367,
      "Ġre": 368,
      "Ġas": 369,
      "il": 370,
      "Ġwh": 371,
      "her": 372,
      "Ġsa": 373,
      "Ġhim": 374,
      "ke": 375,
      "ĠG": 376,
      "Ġli": 377,
      "by": 378,
      "Ġshe": 379,
      "ome": 380,
      "and": 381,
      "ats": 382,
      "?âĢĿ": 383,
      "ce": 384,
      "atsby": 385,
      "ain": 386,
      "rom": 387,
      "all": 388,
      "He": 389,
      "ĠM": 390,
      "ant": 391,
      "if": 392,
      "ĠW": 393,
      "ked": 394,
      "Ġse": 395,
      "to": 396,
      "Ġmy": 397,
      "Ġup": 398,
      "Ġsaid": 399,
      "Ġr": 400,
      "hen": 401,
      "out": 402,
      "em": 403,
      "ĠĠĠĠ": 404,
      "Ġwe": 405,
      "Ġsu": 406,
      "Ġk": 407,
      "Ġout": 408,
      "ard": 409,
      "ore": 410,
      "pp": 411,
      "ĠGatsby": 412,
      "Ġdo": 413,
      "ight": 414,
      "ĠD": 415,
      "ess": 416,
      "ch": 417,
      "ted": 418,
      "ol": 419,
      "ais": 420,
      "Ġfrom": 421,
      "ew": 422,
      "----------------": 423,
      "the": 424,
      "ould": 425,
      "ĠS": 426,
      "our": 427,
      "ag": 428,
      "Ġall": 429,
      "one": 430,
      "ust": 431,
      "ous": 432,
      "ame": 433,
      "aisy": 434,
      "Ġab": 435,
      "ere": 436,
      "hing": 437,
      "rou": 438,
      "own": 439,
      "ss": 440,
      "un": 441,
      "Ġkn": 442,
      "Ġbut": 443,
      "ĠTom": 444,
      "est": 445,
      "ec": 446,
      "ong": 447,
      "Ġinto": 448,
      "ell": 449,
      "ĠA": 450,
      "us": 451,
      "ĠB": 452,
      "Ġwere": 453,
      "ab": 454,
      "Ġv": 455,
      "el": 456,
      "qu": 457,
      "Ġso": 458,
      "Ġover": 459,
      "od": 460,
      "ĠDaisy": 461,
      "The": 462,
      "Ġsh": 463,
      "ĠHe": 464,
      "ind": 465,
      "ord": 466,
      "Ġal": 467,
      "Ġthere": 468,
      "ort": 469,
      "Ġloo": 470,
      "Ġgo": 471,
      "way": 472,
      "ide": 473,
      "ack": 474,
      "ill": 475,
      "Ġsp": 476,
      "ast": 477,
      "Ġun": 478,
      "fter": 479,
      "tle": 480,
      "Ġcon": 481,
      "ul": 482,
      "king": 483,
      "lo": 484,
      "ra": 485,
      "Ġex": 486,
      "lf": 487,
      "Ġman": 488,
      "hed": 489,
      "very": 490,
      "Ġabout": 491,
      "um": 492,
      "Ġro": 493,
      "ĠThe": 494,
      "art": 495,
      "ice": 496,
      "Ġj": 497,
      "Ġle": 498,
      "Ġne": 499,
      "Ġthis": 500,
      "au": 501,
      "Ġhave": 502,
      "Ġone": 503,
      "op": 504,
      "Ġsome": 505,
      "Ġag": 506,
      "Ġdown": 507,
      "ĠC": 508,
      "han": 509,
      "Ġwho": 510,
      "Ġlike": 511,
      "Ġif": 512,
      "Ġis": 513,
      "ers": 514,
      "ved": 515,
      "Ġor": 516,
      "ven": 517,
      "Ġback": 518,
      "Ġdid": 519,
      "nder": 520,
      "You": 521,
      "ĠJ": 522,
      "Ġby": 523,
      "ive": 524,
      "Ġany": 525,
      "ck": 526,
      "ig": 527,
      "Ġthey": 528,
      "Ġhand": 529,
      "ear": 530,
      "th": 531,
      "ation": 532,
      "ittle": 533,
      "Ġcame": 534,
      "ate": 535,
      "Ġbeen": 536,
      "urn": 537,
      "ress": 538,
      "ost": 539,
      "ity": 540,
      "Ġcar": 541,
      "ep": 542,
      "ĠN": 543,
      "Ġafter": 544,
      "Ġtoo": 545,
      "ĠĠĠĠĠĠĠĠ": 546,
      "ace": 547,
      "ried": 548,
      "here": 549,
      "ound": 550,
      "Ġnot": 551,
      "ick": 552,
      "Ġknow": 553,
      "ouse": 554,
      "wn": 555,
      "ĠE": 556,
      "ĠH": 557,
      "ist": 558,
      "ally": 559,
      "Ġtr": 560,
      "Ġwhen": 561,
      "ite": 562,
      "ge": 563,
      "ink": 564,
      "ĠMr": 565,
      "able": 566,
      "pt": 567,
      "Ġlittle": 568,
      "yes": 569,
      "fore": 570,
      "Ġtim": 571,
      "Ġno": 572,
      "Ġtw": 573,
      "Ġwant": 574,
      "ak": 575,
      "ff": 576,
      "Ġhouse": 577,
      "Ġwhat": 578,
      "Ġget": 579,
      "!âĢĿ": 580,
      "ine": 581,
      "Ġthen": 582,
      "are": 583,
      "Ġwent": 584,
      "ered": 585,
      "ass": 586,
      "Ġthem": 587,
      "Ġcould": 588,
      "omet": 589,
      "Ġgot": 590,
      "ils": 591,
      "Ġeyes": 592,
      "ood": 593,
      "ody": 594,
      "Ġagain": 595,
      "ct": 596,
      "sh": 597,
      "ward": 598,
      "ĠIt": 599,
      "Ġus": 600,
      "gg": 601,
      "oment": 602,
      "Ġnow": 603,
      "It": 604,
      "ting": 605,
      "self": 606,
      "Ġlooked": 607,
      "Ġold": 608,
      "Ġbefore": 609,
      "Ġdidn": 610,
      "ilson": 611,
      "ile": 612,
      "Ġturn": 613,
      "ich": 614,
      "Ġsee": 615,
      "round": 616,
      "Ġtime": 617,
      "ies": 618,
      "Ġmoment": 619,
      "--------------------------------": 620,
      "dd": 621,
      "ther": 622,
      "Ġcom": 623,
      "Ġgl": 624,
      "right": 625,
      "Ġjust": 626,
      "ving": 627,
      "Ġway": 628,
      "orn": 629,
      "Ġdon": 630,
      "Ġnight": 631,
      "ordan": 632,
      "ake": 633,
      "ĠâĢ": 634,
      "Ġco": 635,
      "Ġoff": 636,
      "Ġthou": 637,
      "ach": 638,
      "ure": 639,
      "Ġmo": 640,
      "ather": 641,
      "ade": 642,
      "ap": 643,
      "ĠO": 644,
      "Ġar": 645,
      "Ġmore": 646,
      "Ġfl": 647,
      "irl": 648,
      "Ġrem": 649,
      "Ġqu": 650,
      "Ġsm": 651,
      "ated": 652,
      "Ġyour": 653,
      "Ġdoor": 654,
      "pl": 655,
      "row": 656,
      "ĠF": 657,
      "omething": 658,
      "ru": 659,
      "ry": 660,
      "sp": 661,
      "Ġbeg": 662,
      "no": 663,
      "ull": 664,
      "Ġaway": 665,
      "Ġlong": 666,
      "rough": 667,
      "ble": 668,
      "his": 669,
      "Ġim": 670,
      "Ġaround": 671,
      "Ġother": 672,
      "Ġhere": 673,
      "Ġpe": 674,
      "ook": 675,
      "ĠWilson": 676,
      "Ġvo": 677,
      "ie": 678,
      "iss": 679,
      "Ġde": 680,
      "Ġgirl": 681,
      "âĢĶâĢĿ": 682,
      "Ġcan": 683,
      "Ġpl": 684,
      "Ġthink": 685,
      "ĠShe": 686,
      "ople": 687,
      "Ġtwo": 688,
      "ft": 689,
      "ont": 690,
      "Ġlo": 691,
      "Ġgre": 692,
      "She": 693,
      "Ġday": 694,
      "other": 695,
      "age": 696,
      "Ġturned": 697,
      "ng": 698,
      "Ġbl": 699,
      "Ġcome": 700,
      "ĠJordan": 701,
      "end": 702,
      "Ġwould": 703,
      "Ġsomething": 704,
      "ute": 705,
      "Ġevery": 706,
      "Ġgoing": 707,
      "thing": 708,
      "Ġsha": 709,
      "ree": 710,
      "ark": 711,
      "Ġthing": 712,
      "act": 713,
      "Ġwhich": 714,
      "Ġlight": 715,
      "ty": 716,
      "Ġmin": 717,
      "Ġunder": 718,
      "pped": 719,
      "ect": 720,
      "Ġpeople": 721,
      "ave": 722,
      "that": 723,
      "Ġac": 724,
      "Ġmade": 725,
      "Ġthrough": 726,
      "irst": 727,
      "ious": 728,
      "less": 729,
      "ence": 730,
      "Ġroom": 731,
      "ause": 732,
      "Ġvoice": 733,
      "ps": 734,
      "Ġwhere": 735,
      "Ġnever": 736,
      "ment": 737,
      "of": 738,
      "pen": 739,
      "Ġam": 740,
      "Ġwa": 741,
      "ath": 742,
      "Ġpo": 743,
      "Ġyear": 744,
      "Ġstar": 745,
      "We": 746,
      "ne": 747,
      "red": 748,
      "ue": 749,
      "ĠL": 750,
      "Ġvery": 751,
      "Ġface": 752,
      "ork": 753,
      "Ġsaw": 754,
      "bl": 755,
      "uc": 756,
      "Ġsl": 757,
      "Ġdri": 758,
      "Ġeven": 759,
      "Ġbec": 760,
      "What": 761,
      "ber": 762,
      "ily": 763,
      "we": 764,
      "Ġsay": 765,
      "ance": 766,
      "ired": 767,
      "Ġknew": 768,
      "ĠâĢ¦": 769,
      "get": 770,
      "ose": 771,
      "Ġcall": 772,
      "Ġpre": 773,
      "Gatsby": 774,
      "air": 775,
      "hy": 776,
      "ness": 777,
      "Ġsc": 778,
      "Ġtheir": 779,
      "Ġbo": 780,
      "Ġpart": 781,
      "was": 782,
      "Ġwind": 783,
      "Ġfirst": 784,
      "Ġtoward": 785,
      "ang": 786,
      "Ġopen": 787,
      "Ġcha": 788,
      "Ġfe": 789,
      "Ġdis": 790,
      "anc": 791,
      "Ġsport": 792,
      "Ġcont": 793,
      "dden": 794,
      "Ġbegan": 795,
      "Ġright": 796,
      "Ġare": 797,
      "ited": 798,
      "Ġhalf": 799,
      "Ġonly": 800,
      "ĠBut": 801,
      "noon": 802,
      "but": 803,
      "body": 804,
      "co": 805,
      "for": 806,
      "iz": 807,
      "Ġen": 808,
      "Ġhead": 809,
      "ently": 810,
      "side": 811,
      "te": 812,
      "til": 813,
      "Ġmen": 814,
      "Ġtold": 815,
      "ater": 816,
      "Ġyoung": 817,
      "room": 818,
      "ool": 819,
      "Ġasked": 820,
      "Ġtook": 821,
      "mer": 822,
      "oll": 823,
      "uch": 824,
      "ĠP": 825,
      "ĠY": 826,
      "Ġlast": 827,
      "Ġbet": 828,
      "Ġwhite": 829,
      "Ġseem": 830,
      "ĠNew": 831,
      "be": 832,
      "iv": 833,
      "xt": 834,
      "Ġsw": 835,
      "Ġhour": 836,
      "alked": 837,
      "Ġlook": 838,
      "Ġthought": 839,
      "ire": 840,
      "per": 841,
      "Ġbro": 842,
      "Ġch": 843,
      "Ġinc": 844,
      "Ġheard": 845,
      "Ġnew": 846,
      "Ġname": 847,
      "olf": 848,
      "Ġuntil": 849,
      "aker": 850,
      "ddenly": 851,
      "That": 852,
      "ip": 853,
      "med": 854,
      "tain": 855,
      "Ġwor": 856,
      "Ġbr": 857,
      "Ġint": 858,
      "Ġgr": 859,
      "Ġwhile": 860,
      "Ġhands": 861,
      "ĠĠĠĠĠĠĠĠĠĠĠĠĠĠĠĠ": 862,
      "Ġimp": 863,
      "Oh": 864,
      "aking": 865,
      "ded": 866,
      "Ġcou": 867,
      "Ġlet": 868,
      "Ġpol": 869,
      "Ġhar": 870,
      "Ġhapp": 871,
      "lock": 872,
      "awn": 873,
      "Ġthan": 874,
      "Ġwom": 875,
      "Ġfr": 876,
      "ary": 877,
      "Ġwasn": 878,
      "ross": 879,
      "ĠThen": 880,
      "ĠWest": 881,
      "ĠBaker": 882,
      "ways": 883,
      "Ġbecause": 884,
      "Ġseemed": 885,
      "ee": 886,
      "fe": 887,
      "Ġob": 888,
      "Ġper": 889,
      "ained": 890,
      "Ġexc": 891,
      "Ġafternoon": 892,
      "ek": 893,
      "ild": 894,
      "inn": 895,
      "Ġsat": 896,
      "Ġits": 897,
      "arden": 898,
      "Ġalong": 899,
      "Ġleft": 900,
      "Well": 901,
      "ever": 902,
      "ful": 903,
      "ged": 904,
      "pe": 905,
      "ph": 906,
      "Ġmar": 907,
      "Ġmuch": 908,
      "ened": 909,
      "Ġcl": 910,
      "Ġdr": 911,
      "Ġinter": 912,
      "Ġsmall": 913,
      "Ġyears": 914,
      "Daisy": 915,
      "igh": 916,
      "old": 917,
      "Ġtell": 918,
      "Ġbre": 919,
      "Ġfound": 920,
      "ory": 921,
      "Ġdes": 922,
      "Ġinv": 923,
      "atter": 924,
      "Ġpro": 925,
      "ows": 926,
      "ions": 927,
      "Ġminute": 928,
      "iem": 929,
      "ible": 930,
      "nt": 931,
      "sit": 932,
      "Ġte": 933,
      "Ġad": 934,
      "Ġword": 935,
      "Ġown": 936,
      "Ġmust": 937,
      "Ġdark": 938,
      "Ġlau": 939,
      "Ġbel": 940,
      "Ġthree": 941,
      "ality": 942,
      "Ġanother": 943,
      "cept": 944,
      "Ġupon": 945,
      "ellow": 946,
      "shiem": 947,
      "gether": 948,
      "ĠYork": 949,
      "olfshiem": 950,
      "ale": 951,
      "sw": 952,
      "sed": 953,
      "you": 954,
      "Ġsil": 955,
      "ertain": 956,
      "had": 957,
      "Ġclo": 958,
      "Ġcried": 959,
      "Ġinqu": 960,
      "Ġgarden": 961,
      "Ġend": 962,
      "Ġstr": 963,
      "Ġrest": 964,
      "Ġsuddenly": 965,
      "Ġalone": 966,
      "orning": 967,
      "Ġthough": 968,
      "Ġarm": 969,
      "Ġlove": 970,
      "az": 971,
      "ched": 972,
      "lu": 973,
      "led": 974,
      "Ġke": 975,
      "Ġwar": 976,
      "ish": 977,
      "Ġdress": 978,
      "ĠMiss": 979,
      "Ġsupp": 980,
      "Ġexp": 981,
      "ign": 982,
      "ĠEgg": 983,
      "ĠHis": 984,
      "Ġagainst": 985,
      "No": 986,
      "ris": 987,
      "su": 988,
      "wh": 989,
      "with": 990,
      "iness": 991,
      "Ġmorning": 992,
      "ady": 993,
      "Ġhimself": 994,
      "ĠWolfshiem": 995,
      "Ġseen": 996,
      "Ġalways": 997,
      "ĠThey": 998,
      "br": 999,
      "ually": 1000,
      "ves": 1001,
      "Ġapp": 1002,
      "int": 1003,
      "Ġsur": 1004,
      "ought": 1005,
      "Ġfive": 1006,
      "arage": 1007,
      "ĠIn": 1008,
      "Ġeach": 1009,
      "Ġonce": 1010,
      "riend": 1011,
      "Ġstep": 1012,
      "Ġansw": 1013,
      "emand": 1014,
      "ously": 1015,
      "ĠAnd": 1016,
      "There": 1017,
      "Ġlooking": 1018,
      "Ġnext": 1019,
      "Ġcomp": 1020,
      "ollow": 1021,
      "Ġhard": 1022,
      "ex": 1023,
      "ied": 1024,
      "les": 1025,
      "ught": 1026,
      "ough": 1027,
      "Ġcour": 1028,
      "Ġfam": 1029,
      "Ġlawn": 1030,
      "Ġhome": 1031,
      "leas": 1032,
      "Ġever": 1033,
      "Ġstand": 1034,
      "Ġlife": 1035,
      "ĠMy": 1036,
      "Ġsun": 1037,
      "oney": 1038,
      "ected": 1039,
      "Ġnothing": 1040,
      "Ġremem": 1041,
      "app": 1042,
      "ial": 1043,
      "ler": 1044,
      "most": 1045,
      "now": 1046,
      "she": 1047,
      "und": 1048,
      "ying": 1049,
      "ĠYou": 1050,
      "Ġtable": 1051,
      "Ġsit": 1052,
      "Ġside": 1053,
      "ret": 1054,
      "ished": 1055,
      "ene": 1056,
      "Ġchan": 1057,
      "Ġtogether": 1058,
      "Ġdemand": 1059,
      "Ġwithout": 1060,
      "Ġreal": 1061,
      "aint": 1062,
      "ife": 1063,
      "there": 1064,
      "elt": 1065,
      "Ġshould": 1066,
      "Ġconf": 1067,
      "Ġroad": 1068,
      "ately": 1069,
      "ression": 1070,
      "Ġcalled": 1071,
      "Ġinquired": 1072,
      "And": 1073,
      "clock": 1074,
      "iar": 1075,
      "ky": 1076,
      "my": 1077,
      "man": 1078,
      "ĠR": 1079,
      "Ġent": 1080,
      "Ġtre": 1081,
      "Ġtake": 1082,
      "ingly": 1083,
      "Ġcare": 1084,
      "Ġfour": 1085,
      "Ġdro": 1086,
      "Ġgood": 1087,
      "Ġph": 1088,
      "Ġpers": 1089,
      "ident": 1090,
      "alk": 1091,
      "Ġstill": 1092,
      "antly": 1093,
      "iff": 1094,
      "ably": 1095,
      "raw": 1096,
      "hanan": 1097,
      "Ġwanted": 1098,
      "Ġcouldn": 1099,
      "----------------------------------------": 1100,
      "------------------------------------------------------------------------": 1101,
      "uchanan": 1102,
      "airs": 1103,
      "Ġworld": 1104,
      "But": 1105,
      "de": 1106,
      "me": 1107,
      "ny": 1108,
      "pris": 1109,
      "sl": 1110,
      "ten": 1111,
      "up": 1112,
      "Ġsort": 1113,
      "Ġmake": 1114,
      "ister": 1115,
      "Ġfew": 1116,
      "Ġfull": 1117,
      "Ġfriend": 1118,
      "Ġdec": 1119,
      "Ġhus": 1120,
      "Ġgarage": 1121,
      "utter": 1122,
      "iled": 1123,
      "ĠWhen": 1124,
      "Ġrather": 1125,
      "ement": 1126,
      "Ġwell": 1127,
      "assed": 1128,
      "Ġplay": 1129,
      "Ġgreat": 1130,
      "Ġthings": 1131,
      "Ġstarted": 1132,
      "ween": 1133,
      "Ġfront": 1134,
      "How": 1135,
      "This": 1136,
      "Why": 1137,
      "from": 1138,
      "rtle": 1139,
      "sc": 1140,
      "where": 1141,
      "hes": 1142,
      "Ġair": 1143,
      "Ġadd": 1144,
      "Ġsound": 1145,
      "reet": 1146,
      "Ġmet": 1147,
      "Ġmoney": 1148,
      "ither": 1149,
      "Ġfind": 1150,
      "Ġfollow": 1151,
      "Ġlater": 1152,
      "ested": 1153,
      "Ġgu": 1154,
      "Ġgone": 1155,
      "Ġgave": 1156,
      "stand": 1157,
      "Ġem": 1158,
      "Ġstood": 1159,
      "Ġwhis": 1160,
      "Ġdog": 1161,
      "illed": 1162,
      "ĠNick": 1163,
      "Ġmoved": 1164,
      "Ġslow": 1165,
      "Ġbetween": 1166,
      "Ġbroke": 1167,
      "Ġsurpris": 1168,
      "Don": 1169,
      "Tom": 1170,
      "ix": 1171,
      "oc": 1172,
      "ped": 1173,
      "uff": 1174,
      "Ġaut": 1175,
      "Ġsent": 1176,
      "Ġthese": 1177,
      "Ġought": 1178,
      "erv": 1179,
      "hael": 1180,
      "Ġmight": 1181,
      "Ġmost": 1182,
      "Ġmatter": 1183,
      "Ġbed": 1184,
      "Ġbook": 1185,
      "Ġche": 1186,
      "Ġfelt": 1187,
      "Ġins": 1188,
      "leph": 1189,
      "ical": 1190,
      "ichael": 1191,
      "Ġyellow": 1192,
      "Ġthose": 1193,
      "Ġmean": 1194,
      "ĠWe": 1195,
      "Ġabs": 1196,
      "ushed": 1197,
      "ĠBuchanan": 1198,
      "They": 1199,
      "ĠCh": 1200,
      "ĠMrs": 1201,
      "ĠâĢĺ": 1202,
      "Ġacc": 1203,
      "Ġacross": 1204,
      "iously": 1205,
      "Ġwait": 1206,
      "Ġbelie": 1207,
      "Ġsteps": 1208,
      "Ġdemanded": 1209,
      "ichaelis": 1210,
      "Do": 1211,
      "When": 1212,
      "ced": 1213,
      "con": 1214,
      "iet": 1215,
      "onder": 1216,
      "Ġide": 1217,
      "Ġwalked": 1218,
      "Ġsing": 1219,
      "Ġour": 1220,
      "ise": 1221,
      "orm": 1222,
      "Ġdre": 1223,
      "Ġhear": 1224,
      "eside": 1225,
      "ane": 1226,
      "Ġhair": 1227,
      "leep": 1228,
      "Ġnod": 1229,
      "Ġweek": 1230,
      "olour": 1231,
      "ago": 1232,
      "Ġshort": 1233,
      "Ġrose": 1234,
      "Ġanything": 1235,
      "Ġquick": 1236,
      "Ġpres": 1237,
      "Ġfeet": 1238,
      "Ġwoman": 1239,
      "Mr": 1240,
      "ho": 1241,
      "how": 1242,
      "oke": 1243,
      "opped": 1244,
      "uri": 1245,
      "yed": 1246,
      "head": 1247,
      "ined": 1248,
      "Ġmur": 1249,
      "Ġbot": 1250,
      "Ġbody": 1251,
      "Ġcr": 1252,
      "Ġcrow": 1253,
      "Ġfar": 1254,
      "Ġtown": 1255,
      "Ġhot": 1256,
      "atch": 1257,
      "ank": 1258,
      "Ġpr": 1259,
      "ict": 1260,
      "icago": 1261,
      "vered": 1262,
      "Ġstart": 1263,
      "Ġhadn": 1264,
      "ĠGod": 1265,
      "Ġdoes": 1266,
      "ĠSt": 1267,
      "ular": 1268,
      "Ġexpl": 1269,
      "ĠEast": 1270,
      "Ġmove": 1271,
      "Ġgirls": 1272,
      "Ġeverything": 1273,
      "Ġamong": 1274,
      "Ġcontin": 1275,
      "Ġmarried": 1276,
      "Ġcourse": 1277,
      "bo": 1278,
      "bed": 1279,
      "just": 1280,
      "ject": 1281,
      "light": 1282,
      "zen": 1283,
      "Ġri": 1284,
      "Ġaw": 1285,
      "Ġset": 1286,
      "oun": 1287,
      "haps": 1288,
      "Ġbus": 1289,
      "Ġcertain": 1290,
      "Ġfell": 1291,
      "orge": 1292,
      "orrow": 1293,
      "Ġhow": 1294,
      "aned": 1295,
      "ically": 1296,
      "Ġel": 1297,
      "Ġear": 1298,
      "Ġeff": 1299,
      "aces": 1300,
      "ached": 1301,
      "irc": 1302,
      "alking": 1303,
      "iliar": 1304,
      "Ġrun": 1305,
      "Ġsugg": 1306,
      "Ġlea": 1307,
      "ively": 1308,
      "Ġcomm": 1309,
      "Ġarri": 1310,
      "ully": 1311,
      "Ġfeel": 1312,
      "medi": 1313,
      "ĠMyrtle": 1314,
      "undred": 1315,
      "lephone": 1316,
      "Ġidea": 1317,
      "aut": 1318,
      "cK": 1319,
      "day": 1320,
      "fin": 1321,
      "ford": 1322,
      "fully": 1323,
      "got": 1324,
      "hind": 1325,
      "mur": 1326,
      "not": 1327,
      "xi": 1328,
      "Ġtou": 1329,
      "Ġaff": 1330,
      "Ġwill": 1331,
      "Ġwife": 1332,
      "ery": 1333,
      "Ġbrou": 1334,
      "Ġbeside": 1335,
      "ens": 1336,
      "ening": 1337,
      "Ġcirc": 1338,
      "Ġfact": 1339,
      "Ġhel": 1340,
      "Ġheart": 1341,
      "Ġlow": 1342,
      "ating": 1343,
      "Ġput": 1344,
      "Ġpassed": 1345,
      "Ġnam": 1346,
      "imes": 1347,
      "ention": 1348,
      "Ġatt": 1349,
      "Ġrain": 1350,
      "outh": 1351,
      "Ġsum": 1352,
      "Ġsuch": 1353,
      "Ġdozen": 1354,
      "Ġbutler": 1355,
      "estion": 1356,
      "used": 1357,
      "ĠThere": 1358,
      "Ġago": 1359,
      "Ġplace": 1360,
      "Ġloved": 1361,
      "Ġblue": 1362,
      "Ġdrive": 1363,
      "Ġremember": 1364,
      "Ġperson": 1365,
      "Ġmurmur": 1366,
      "Ġbrought": 1367,
      "Come": 1368,
      "Yes": 1369,
      "do": 1370,
      "ding": 1371,
      "ib": 1372,
      "ling": 1373,
      "ond": 1374,
      "over": 1375,
      "ring": 1376,
      "so": 1377,
      "ued": 1378,
      "ual": 1379,
      "Ã©": 1380,
      "res": 1381,
      "Ġmon": 1382,
      "Ġbig": 1383,
      "Ġbright": 1384,
      "isted": 1385,
      "Ġcas": 1386,
      "Ġcuri": 1387,
      "Ġfun": 1388,
      "Ġflo": 1389,
      "Ġfaint": 1390,
      "ons": 1391,
      "Ġind": 1392,
      "Ġhur": 1393,
      "Ġgive": 1394,
      "Ġsec": 1395,
      "unch": 1396,
      "ĠAs": 1397,
      "ĠAt": 1398,
      "Ġmany": 1399,
      "ĠHer": 1400,
      "Ġtrain": 1401,
      "itely": 1402,
      "Ġused": 1403,
      "ĠOn": 1404,
      "Ġimmedi": 1405,
      "Ġdays": 1406,
      "Ġwouldn": 1407,
      "Ġevening": 1408,
      "Ġboy": 1409,
      "Ġwindow": 1410,
      "Ġchair": 1411,
      "anced": 1412,
      "Ġhappened": 1413,
      "Ġanswered": 1414,
      "Ġsummer": 1415,
      "ail": 1416,
      "com": 1417,
      "iol": 1418,
      "ken": 1419,
      "og": 1420,
      "os": 1421,
      "part": 1422,
      "ud": 1423,
      "zy": 1424,
      "ĠK": 1425,
      "Ġwhe": 1426,
      "Ġsin": 1427,
      "ready": 1428,
      "Ġbu": 1429,
      "Ġcor": 1430,
      "Ġcity": 1431,
      "Ġcool": 1432,
      "orch": 1433,
      "Ġdist": 1434,
      "ĠIsl": 1435,
      "Ġhigh": 1436,
      "Ġhall": 1437,
      "stairs": 1438,
      "Ġbehind": 1439,
      "Ġitself": 1440,
      "irt": 1441,
      "ĠThat": 1442,
      "Ġrep": 1443,
      "Ġass": 1444,
      "Ġlive": 1445,
      "ĠMichaelis": 1446,
      "empt": 1447,
      "ĠDo": 1448,
      "Ġshook": 1449,
      "ille": 1450,
      "eared": 1451,
      "ations": 1452,
      "Ġtrying": 1453,
      "Ġcoat": 1454,
      "Ġcold": 1455,
      "Ġflow": 1456,
      "Ġgreen": 1457,
      "Ġparty": 1458,
      "Ġwindows": 1459,
      "Ġopened": 1460,
      "ized": 1461,
      "Ġbetter": 1462,
      "Ġbreath": 1463,
      "Ġtelephone": 1464,
      "Ġslowly": 1465,
      "Ġinsisted": 1466,
      "ĠChicago": 1467,
      "Ġbusiness": 1468,
      "cKee": 1469,
      "ĠIsland": 1470,
      "At": 1471,
      "All": 1472,
      "In": 1473,
      "Look": 1474,
      "Who": 1475,
      "av": 1476,
      "band": 1477,
      "cc": 1478,
      "ghed": 1479,
      "jo": 1480,
      "loo": 1481,
      "ming": 1482,
      "ned": 1483,
      "pted": 1484,
      "pered": 1485,
      "some": 1486,
      "turn": 1487,
      "vent": 1488,
      "Ġta": 1489,
      "Ġtried": 1490,
      "Ġtalked": 1491,
      "Ġact": 1492,
      "Ġwall": 1493,
      "Ġwonder": 1494,
      "Ġsame": 1495,
      "oud": 1496,
      "Ġmouth": 1497,
      "Ġfin": 1498,
      "Ġfore": 1499,
      "Ġdam": 1500,
      "Ġinside": 1501,
      "ars": 1502,
      "any": 1503,
      "Ġprom": 1504,
      "Ġpast": 1505,
      "Ġhas": 1506,
      "Ġele": 1507,
      "ayed": 1508,
      "ghter": 1509,
      "Ġreached": 1510,
      "Ġsub": 1511,
      "ĠAfter": 1512,
      "Ġalmost": 1513,
      "Ġspe": 1514,
      "Ġleast": 1515,
      "Ġwhole": 1516,
      "Ġglass": 1517,
      "Ġoffice": 1518,
      "Ġdeep": 1519,
      "Ġwaited": 1520,
      "Ġstared": 1521,
      "Ġpret": 1522,
      "Ġwomen": 1523,
      "Ġstanding": 1524,
      "Ġnodded": 1525,
      "Ġquickly": 1526,
      "Ab": 1527,
      "My": 1528,
      "aid": 1529,
      "after": 1530,
      "che": 1531,
      "chan": 1532,
      "een": 1533,
      "eorge": 1534,
      "fr": 1535,
      "li": 1536,
      "oing": 1537,
      "ove": 1538,
      "oot": 1539,
      "po": 1540,
      "rp": 1541,
      "xford": 1542,
      "Ġwr": 1543,
      "ren": 1544,
      "Ġmot": 1545,
      "ash": 1546,
      "Ġdraw": 1547,
      "Ġinst": 1548,
      "Ġheld": 1549,
      "Ġlay": 1550,
      "Ġpull": 1551,
      "Ġporch": 1552,
      "lete": 1553,
      "utes": 1554,
      "icem": 1555,
      "veral": 1556,
      "Ġthin": 1557,
      "Ġstop": 1558,
      "Ġstopped": 1559,
      "Ġread": 1560,
      "Ġask": 1561,
      "Ġwhy": 1562,
      "antic": 1563,
      "Ġmyself": 1564,
      "Ġsure": 1565,
      "Ġkind": 1566,
      "ager": 1567,
      "ung": 1568,
      "rave": 1569,
      "razy": 1570,
      "Ġexcept": 1571,
      "Ġsomebody": 1572,
      "Ġisn": 1573,
      "Ġord": 1574,
      "Ġgetting": 1575,
      "ometimes": 1576,
      "Ġglanced": 1577,
      "atherine": 1578,
      "Ġlonger": 1579,
      "Ġgrey": 1580,
      "Ġunderstand": 1581,
      "Ġchild": 1582,
      "Ġcoup": 1583,
      "Ġclose": 1584,
      "Ġwarm": 1585,
      "Ġexpression": 1586,
      "Ġfamily": 1587,
      "Ġhusband": 1588,
      "Ġfollowed": 1589,
      "Ġbelieve": 1590,
      "icture": 1591,
      "Ġeffort": 1592,
      "Ġarrived": 1593,
      "Ġimmediately": 1594,
      "iceman": 1595,
      "As": 1596,
      "Did": 1597,
      "Her": 1598,
      "Jordan": 1599,
      "cl": 1600,
      "cha": 1601,
      "ia": 1602,
      "ian": 1603,
      "iver": 1604,
      "mp": 1605,
      "mbl": 1606,
      "morrow": 1607,
      "tr": 1608,
      "uck": 1609,
      "would": 1610,
      "ĠV": 1611,
      "Ġter": 1612,
      "Ġten": 1613,
      "Ġtalk": 1614,
      "Ġwon": 1615,
      "Ġsn": 1616,
      "Ġsister": 1617,
      "its": 1618,
      "Ġbought": 1619,
      "enc": 1620,
      "ings": 1621,
      "Ġtomorrow": 1622,
      "Ġheat": 1623,
      "Ġhesit": 1624,
      "Ġlar": 1625,
      "Ġlate": 1626,
      "arked": 1627,
      "Ġhundred": 1628,
      "Ġgro": 1629,
      "Ġpool": 1630,
      "Ġpale": 1631,
      "idn": 1632,
      "ster": 1633,
      "ets": 1634,
      "Ġrepe": 1635,
      "ĠMont": 1636,
      "ĠMcKee": 1637,
      "Ġran": 1638,
      "ages": 1639,
      "unt": 1640,
      "Ġalready": 1641,
      "ult": 1642,
      "Ġleaned": 1643,
      "ĠCatherine": 1644,
      "ears": 1645,
      "ressed": 1646,
      "Ġcars": 1647,
      "Ġtimes": 1648,
      "ctor": 1649,
      "ction": 1650,
      "Ġmoon": 1651,
      "rupt": 1652,
      "Ġshad": 1653,
      "Ġsharp": 1654,
      "Ġminutes": 1655,
      "ĠLong": 1656,
      "cond": 1657,
      "Ġenough": 1658,
      "inner": 1659,
      "olding": 1660,
      "Ġsitting": 1661,
      "Ġdrove": 1662,
      "Ġdoesn": 1663,
      "Ġexplained": 1664,
      "Ġsuggested": 1665,
      "Ġtouch": 1666,
      "Ġmonth": 1667,
      "Ġfloor": 1668,
      "Ġpretty": 1669,
      "Then": 1670,
      "Wilson": 1671,
      "bar": 1672,
      "ey": 1673,
      "eas": 1674,
      "found": 1675,
      "gr": 1676,
      "ging": 1677,
      "gro": 1678,
      "when": 1679,
      "âĢĬ": 1680,
      "ining": 1681,
      "Ġwild": 1682,
      "Ġmus": 1683,
      "Ġmine": 1684,
      "Ġcig": 1685,
      "Ġfall": 1686,
      "ors": 1687,
      "Ġdel": 1688,
      "Ġdiff": 1689,
      "Ġdinner": 1690,
      "Ġless": 1691,
      "lled": 1692,
      "aning": 1693,
      "Ġpow": 1694,
      "Ġpleas": 1695,
      "idd": 1696,
      "ices": 1697,
      "Ġeager": 1698,
      "imp": 1699,
      "vers": 1700,
      "irty": 1701,
      "urred": 1702,
      "ĠGeorge": 1703,
      "ifty": 1704,
      "Ġseveral": 1705,
      "Ġru": 1706,
      "Ġrais": 1707,
      "Ġoutside": 1708,
      "Ġdoing": 1709,
      "olute": 1710,
      "ĠSo": 1711,
      "unk": 1712,
      "about": 1713,
      "ĠCody": 1714,
      "Ġcoll": 1715,
      "ĠOxford": 1716,
      "Ġremarked": 1717,
      "rug": 1718,
      "rying": 1719,
      "ments": 1720,
      "Ġdisapp": 1721,
      "ancing": 1722,
      "Ġgrass": 1723,
      "Ġpoliceman": 1724,
      "Ġexcited": 1725,
      "Ġdrink": 1726,
      "ighb": 1727,
      "Ġadm": 1728,
      "Ġwords": 1729,
      "Ġarms": 1730,
      "Ġkeep": 1731,
      "Ġwhispered": 1732,
      "Ġsurprised": 1733,
      "Ġdream": 1734,
      "Ġboth": 1735,
      "Ġcrowd": 1736,
      "Ġcontinued": 1737,
      "Ġsince": 1738,
      "Ġspeak": 1739,
      "ĠcoupÃ©": 1740,
      "His": 1741,
      "cont": 1742,
      "colour": 1743,
      "ea": 1744,
      "ior": 1745,
      "use": 1746,
      "under": 1747,
      "vo": 1748,
      "yond": 1749,
      "Ġed": 1750,
      "Ġrom": 1751,
      "inc": 1752,
      "ins": 1753,
      "inted": 1754,
      "Ġwire": 1755,
      "Ġwatch": 1756,
      "Ġsight": 1757,
      "Ġsqu": 1758,
      "Ġserv": 1759,
      "Ġocc": 1760,
      "eral": 1761,
      "oub": 1762,
      "rec": 1763,
      "rew": 1764,
      "reed": 1765,
      "resh": 1766,
      "Ġmind": 1767,
      "itc": 1768,
      "ities": 1769,
      "Ġblo": 1770,
      "ingers": 1771,
      "Ġcre": 1772,
      "Ġcrazy": 1773,
      "Ġfaces": 1774,
      "Ġfoot": 1775,
      "ason": 1776,
      "Ġdim": 1777,
      "Ġdet": 1778,
      "Ġdust": 1779,
      "Ġlost": 1780,
      "Ġlunch": 1781,
      "ared": 1782,
      "arra": 1783,
      "Ġhop": 1784,
      "atz": 1785,
      "atur": 1786,
      "Ġpri": 1787,
      "Ġnice": 1788,
      "stood": 1789,
      "Ġbeing": 1790,
      "Ġur": 1791,
      "ird": 1792,
      "rible": 1793,
      "Ġstory": 1794,
      "urg": 1795,
      "ured": 1796,
      "aded": 1797,
      "tern": 1798,
      "Ġforward": 1799,
      "Ġforgot": 1800,
      "Ġres": 1801,
      "Ġreally": 1802,
      "iles": 1803,
      "Ġlips": 1804,
      "ants": 1805,
      "ific": 1806,
      "essed": 1807,
      "une": 1808,
      "Ġknown": 1809,
      "Ġviol": 1810,
      "Ġsho": 1811,
      "Ġgold": 1812,
      "raid": 1813,
      "Ġext": 1814,
      "ump": 1815,
      "Ġsomewhere": 1816,
      "ĠJay": 1817,
      "ĠNo": 1818,
      "Ġnose": 1819,
      "aken": 1820,
      "aret": 1821,
      "Ġglad": 1822,
      "Ġsmiled": 1823,
      "Ġdead": 1824,
      "lessly": 1825,
      "Ġpoint": 1826,
      "Ġsaying": 1827,
      "hys": 1828,
      "ances": 1829,
      "Ġenorm": 1830,
      "rooms": 1831,
      "Ġperhaps": 1832,
      "Ġtea": 1833,
      "Ġlaughed": 1834,
      "Ġlaughter": 1835,
      "Ġkept": 1836,
      "Ġsuppose": 1837,
      "Ġanswer": 1838,
      "Ġcomplete": 1839,
      "Ġtrembl": 1840,
      "Ġadded": 1841,
      "Ġguest": 1842,
      "Ġautom": 1843,
      "Ġsingle": 1844,
      "Ġleaving": 1845,
      "Ġcurious": 1846,
      "Ġhurried": 1847,
      "Ġwheel": 1848,
      "Ġforever": 1849,
      "Ġpulled": 1850,
      "Ġlarge": 1851,
      "Ġrepeated": 1852,
      "iddle": 1853,
      "ighbour": 1854,
      "19": 1855,
      "After": 1856,
      "If": 1857,
      "So": 1858,
      "aw": 1859,
      "bered": 1860,
      "dis": 1861,
      "eur": 1862,
      "ead": 1863,
      "ege": 1864,
      "fted": 1865,
      "hus": 1866,
      "house": 1867,
      "ier": 1868,
      "iven": 1869,
      "ipped": 1870,
      "la": 1871,
      "lau": 1872,
      "mn": 1873,
      "ms": 1874,
      "oon": 1875,
      "vid": 1876,
      "wo": 1877,
      "went": 1878,
      "were": 1879,
      "wind": 1880,
      "Ġver": 1881,
      "Ġir": 1882,
      "Ġtri": 1883,
      "Ġtrou": 1884,
      "Ġapart": 1885,
      "inter": 1886,
      "Ġwork": 1887,
      "Ġsad": 1888,
      "Ġsick": 1889,
      "Ġsix": 1890,
      "Ġsleep": 1891,
      "eries": 1892,
      "Ġmist": 1893,
      "Ġbad": 1894,
      "isible": 1895,
      "Ġcorn": 1896,
      "Ġfa": 1897,
      "Ġfool": 1898,
      "ase": 1899,
      "Ġlist": 1900,
      "ans": 1901,
      "ange": 1902,
      "Ġgas": 1903,
      "Ġgrave": 1904,
      "Ġpicture": 1905,
      "Ġphys": 1906,
      "Ġhaven": 1907,
      "Ġnec": 1908,
      "str": 1909,
      "store": 1910,
      "Ġbeaut": 1911,
      "ĠĠĠ": 1912,
      "otog": 1913,
      "aced": 1914,
      "road": 1915,
      "als": 1916,
      "rill": 1917,
      "ĠThis": 1918,
      "urch": 1919,
      "Ġasleep": 1920,
      "ilo": 1921,
      "ĠGatz": 1922,
      "Ġlived": 1923,
      "ĠWhat": 1924,
      "Ġred": 1925,
      "Ġrang": 1926,
      "Ġsusp": 1927,
      "Ġkiss": 1928,
      "they": 1929,
      "ĠSlo": 1930,
      "ĠSound": 1931,
      "Ġshirt": 1932,
      "Ġconvers": 1933,
      "Ġjo": 1934,
      "Ġleave": 1935,
      "Ġneighbour": 1936,
      "Ġanyone": 1937,
      "Ġanyhow": 1938,
      "this": 1939,
      "arent": 1940,
      "aper": 1941,
      "Ġremark": 1942,
      "Ġquality": 1943,
      "ended": 1944,
      "Ġlights": 1945,
      "redul": 1946,
      "bled": 1947,
      "Ġparties": 1948,
      "form": 1949,
      "meric": 1950,
      "ĠĠĠĠĠĠĠĠĠĠĠĠĠĠĠĠĠĠĠĠĠĠĠĠĠĠĠĠĠĠĠĠ": 1951,
      "Ġcouch": 1952,
      "Ġhappen": 1953,
      "Ġobject": 1954,
      "Ġsilver": 1955,
      "luded": 1956,
      "brary": 1957,
      "Ġfamiliar": 1958,
      "Ġshoulder": 1959,
      "Ġtrees": 1960,
      "Ġphone": 1961,
      "uffeur": 1962,
      "Ġsecret": 1963,
      "About": 1964,
      "Ġmotor": 1965,
      "Ġcigaret": 1966,
      "Ġraised": 1967,
      "arraway": 1968,
      "Ġenormous": 1969,
      "Ġtrembling": 1970,
      "otogra": 1971,
      "ĠSloane": 1972,
      "Ġconversation": 1973,
      "Any": 1974,
      "Good": 1975,
      "Of": 1976,
      "One": 1977,
      "Some": 1978,
      "Where": 1979,
      "away": 1980,
      "aven": 1981,
      "bit": 1982,
      "bec": 1983,
      "bel": 1984,
      "burg": 1985,
      "dy": 1986,
      "every": 1987,
      "even": 1988,
      "fer": 1989,
      "fam": 1990,
      "fraid": 1991,
      "gl": 1992,
      "gre": 1993,
      "him": 1994,
      "host": 1995,
      "ks": 1996,
      "ls": 1997,
      "men": 1998,
      "mar": 1999,
      "ob": 2000,
      "pol": 2001,
      "then": 2002,
      "uous": 2003,
      "ville": 2004,
      "ye": 2005,
      "Ġtalking": 2006,
      "Ġafraid": 2007,
      "Ġwet": 2008,
      "Ġsen": 2009,
      "Ġsid": 2010,
      "Ġswe": 2011,
      "Ġsign": 2012,
      "nds": 2013,
      "erful": 2014,
      "har": 2015,
      "Ġmag": 2016,
      "Ġmother": 2017,
      "Ġmaking": 2018,
      "Ġble": 2019,
      "eng": 2020,
      "Ġcle": 2021,
      "Ġcap": 2022,
      "Ġcolour": 2023,
      "âĢĿâĢĶ": 2024,
      "Ġfine": 2025,
      "Ġfresh": 2026,
      "Ġtow": 2027,
      "ored": 2028,
      "orld": 2029,
      "orry": 2030,
      "ashed": 2031,
      "Ġdoub": 2032,
      "Ġlot": 2033,
      "Ġhost": 2034,
      "ati": 2035,
      "Ġgen": 2036,
      "Ġghost": 2037,
      "Ġpause": 2038,
      "Ġhaving": 2039,
      "lemn": 2040,
      "icked": 2041,
      "Ġeat": 2042,
      "Ġeither": 2043,
      "Ġyard": 2044,
      "ime": 2045,
      "imed": 2046,
      "Ġbeyond": 2047,
      "entr": 2048,
      "vel": 2049,
      "ays": 2050,
      "rod": 2051,
      "Ġstation": 2052,
      "Ġstret": 2053,
      "uring": 2054,
      "Ġmeet": 2055,
      "Ġrel": 2056,
      "Ġrelu": 2057,
      "ilight": 2058,
      "Ġwhom": 2059,
      "bye": 2060,
      "Ġsuit": 2061,
      "Ġkilled": 2062,
      "Ġkitc": 2063,
      "pping": 2064,
      "ightly": 2065,
      "ĠSome": 2066,
      "aged": 2067,
      "ague": 2068,
      "ĠAmeric": 2069,
      "Ġspoke": 2070,
      "astic": 2071,
      "Ġconc": 2072,
      "umb": 2073,
      "Ġneed": 2074,
      "Ġsomeone": 2075,
      "Ġagreed": 2076,
      "ĠJust": 2077,
      "Ġtwilight": 2078,
      "Ġwants": 2079,
      "Ġcoming": 2080,
      "Ġglow": 2081,
      "ures": 2082,
      "Ġmoving": 2083,
      "ĠFor": 2084,
      "Ġvoices": 2085,
      "ief": 2086,
      "iece": 2087,
      "Ġblind": 2088,
      "action": 2089,
      "Ġposs": 2090,
      "Ġpock": 2091,
      "Ġdriving": 2092,
      "Ġbecame": 2093,
      "Ġchauffeur": 2094,
      "before": 2095,
      "Ġbroken": 2096,
      "Ġchurch": 2097,
      "Ġincess": 2098,
      "Ġcount": 2099,
      "Ġletter": 2100,
      "Ġexcla": 2101,
      "inning": 2102,
      "Ġadv": 2103,
      "Ġlovely": 2104,
      "while": 2105,
      "lease": 2106,
      "Ġremembered": 2107,
      "Ġchange": 2108,
      "Ġphotogra": 2109,
      "upon": 2110,
      "uttered": 2111,
      "ixed": 2112,
      "Mrs": 2113,
      "Ġaware": 2114,
      "Ġfeeling": 2115,
      "finitely": 2116,
      "Ġnamed": 2117,
      "Ġnames": 2118,
      "Ġfaintly": 2119,
      "ĠDoctor": 2120,
      "front": 2121,
      "like": 2122,
      "Ġshadow": 2123,
      "barr": 2124,
      "Ġeagerly": 2125,
      "rugstore": 2126,
      "coloured": 2127,
      "Ġromantic": 2128,
      "Ġpriv": 2129,
      "Ġtrouble": 2130,
      "iloxi": 2131,
      "familiar": 2132,
      "Ġreluct": 2133,
      "Ġkitchen": 2134,
      "Ġexclaimed": 2135,
      ".âĢĻ": 2136,
      "00": 2137,
      "For": 2138,
      "Is": 2139,
      "Not": 2140,
      "Please": 2141,
      "cked": 2142,
      "dro": 2143,
      "dri": 2144,
      "ele": 2145,
      "eyes": 2146,
      "ext": 2147,
      "going": 2148,
      "know": 2149,
      "little": 2150,
      "lves": 2151,
      "min": 2152,
      "off": 2153,
      "pri": 2154,
      "ric": 2155,
      "table": 2156,
      "uddenly": 2157,
      "Ġtip": 2158,
      "hel": 2159,
      "Ġwat": 2160,
      "Ġwater": 2161,
      "Ġsle": 2162,
      "Ġsky": 2163,
      "Ġsometimes": 2164,
      "Ġobl": 2165,
      "eren": 2166,
      "ering": 2167,
      "ouis": 2168,
      "have": 2169,
      "reas": 2170,
      "itality": 2171,
      "Ġbar": 2172,
      "ised": 2173,
      "Ġcur": 2174,
      "Ġfig": 2175,
      "Ġfingers": 2176,
      "Ġfaded": 2177,
      "Ġdiv": 2178,
      "Ġdied": 2179,
      "Ġduring": 2180,
      "omp": 2181,
      "Ġline": 2182,
      "Ġlady": 2183,
      "arce": 2184,
      "arily": 2185,
      "ĠIf": 2186,
      "Ġhum": 2187,
      "llo": 2188,
      "att": 2189,
      "ative": 2190,
      "ann": 2191,
      "Ġgay": 2192,
      "Ġgather": 2193,
      "Ġpur": 2194,
      "oward": 2195,
      "stra": 2196,
      "Ġeight": 2197,
      "Ġeye": 2198,
      "Ġyet": 2199,
      "Ġthirty": 2200,
      "ots": 2201,
      "otion": 2202,
      "othes": 2203,
      "rol": 2204,
      "rolled": 2205,
      "alm": 2206,
      "Ġstayed": 2207,
      "Ġmem": 2208,
      "tered": 2209,
      "Ġreg": 2210,
      "Ġreturn": 2211,
      "Ġliving": 2212,
      "Ġlibrary": 2213,
      "ceal": 2214,
      "iful": 2215,
      "ified": 2216,
      "ĠWell": 2217,
      "Ġsecond": 2218,
      "Ġupstairs": 2219,
      "ouses": 2220,
      "ĠAll": 2221,
      "usion": 2222,
      "Ġvague": 2223,
      "Ġsoft": 2224,
      "Ġsolemn": 2225,
      "Ġshow": 2226,
      "illage": 2227,
      "Ġunfamiliar": 2228,
      "Ġconn": 2229,
      "Ġcons": 2230,
      "umped": 2231,
      "Ġnear": 2232,
      "aught": 2233,
      "ckt": 2234,
      "thought": 2235,
      "ĠNow": 2236,
      "ĠHot": 2237,
      "Ġtry": 2238,
      "Ġcompl": 2239,
      "ĠOne": 2240,
      "Ġflat": 2241,
      "Ġquestion": 2242,
      "rowing": 2243,
      "ĠFr": 2244,
      "rugg": 2245,
      "Ġdef": 2246,
      "Ġblack": 2247,
      "Ġeveryone": 2248,
      "Ġshape": 2249,
      "Ġpoor": 2250,
      "Ġopening": 2251,
      "ives": 2252,
      "Ġincredul": 2253,
      "Ġnewsp": 2254,
      "Ġobv": 2255,
      "Ġperf": 2256,
      "Ġexcit": 2257,
      "Ġdrunk": 2258,
      "Ġdesp": 2259,
      "sition": 2260,
      "Ġsilent": 2261,
      "Ġsilence": 2262,
      "Ġclosed": 2263,
      "Ġstrang": 2264,
      "azed": 2265,
      "Ġhardly": 2266,
      "exp": 2267,
      "Ġaccident": 2268,
      "iety": 2269,
      "Ġdrew": 2270,
      "Ġpresence": 2271,
      "Ġcrowded": 2272,
      "Ġelse": 2273,
      "Ġhelp": 2274,
      "ibly": 2275,
      "Ġfunny": 2276,
      "Ġbuy": 2277,
      "Ġflowers": 2278,
      "looking": 2279,
      "Ġtaxi": 2280,
      "Ġfinally": 2281,
      "afternoon": 2282,
      "ency": 2283,
      "Ġhesitated": 2284,
      "Ġmonths": 2285,
      "Ġmusic": 2286,
      "Ġdiffer": 2287,
      "olutely": 2288,
      "Ġoccurred": 2289,
      "Ġhope": 2290,
      "vidently": 2291,
      "because": 2292,
      "Ġsidew": 2293,
      "Ġdoubt": 2294,
      "Be": 2295,
      "With": 2296,
      "aj": 2297,
      "aur": 2298,
      "apped": 2299,
      "bing": 2300,
      "car": 2301,
      "cle": 2302,
      "corn": 2303,
      "certain": 2304,
      "gar": 2305,
      "iant": 2306,
      "jected": 2307,
      "kes": 2308,
      "land": 2309,
      "lip": 2310,
      "mist": 2311,
      "made": 2312,
      "ner": 2313,
      "ning": 2314,
      "night": 2315,
      "new": 2316,
      "oes": 2317,
      "oss": 2318,
      "oved": 2319,
      "osed": 2320,
      "rang": 2321,
      "tre": 2322,
      "tes": 2323,
      "tly": 2324,
      "ug": 2325,
      "ule": 2326,
      "vol": 2327,
      "well": 2328,
      "Ġ19": 2329,
      "Ġtight": 2330,
      "ines": 2331,
      "inet": 2332,
      "inct": 2333,
      "Ġwand": 2334,
      "Ġwalking": 2335,
      "Ġweren": 2336,
      "Ġsk": 2337,
      "Ġopp": 2338,
      "erved": 2339,
      "erhaps": 2340,
      "Ġmad": 2341,
      "Ġmiss": 2342,
      "Ġmention": 2343,
      "ition": 2344,
      "Ġbit": 2345,
      "Ġbay": 2346,
      "Ġbest": 2347,
      "Ġbath": 2348,
      "ism": 2349,
      "ising": 2350,
      "inger": 2351,
      "inging": 2352,
      "Ġcous": 2353,
      "Ġcop": 2354,
      "Ġcaught": 2355,
      "Ġfant": 2356,
      "Ġfather": 2357,
      "Ġfellow": 2358,
      "Ġfifty": 2359,
      "oned": 2360,
      "Ġtoday": 2361,
      "orted": 2362,
      "Ġdone": 2363,
      "Ġlit": 2364,
      "Ġlim": 2365,
      "Ġlap": 2366,
      "aring": 2367,
      "Ġhouses": 2368,
      "ator": 2369,
      "atic": 2370,
      "anished": 2371,
      "Ġgate": 2372,
      "Ġgolf": 2373,
      "Ġhat": 2374,
      "leam": 2375,
      "leburg": 2376,
      "uth": 2377,
      "idge": 2378,
      "icular": 2379,
      "Ġyach": 2380,
      "iment": 2381,
      "Ġbeat": 2382,
      "Ġbeach": 2383,
      "enty": 2384,
      "ented": 2385,
      "Ġuse": 2386,
      "Ġthick": 2387,
      "Ġthrew": 2388,
      "ote": 2389,
      "irm": 2390,
      "rob": 2391,
      "ĠTh": 2392,
      "Ġstiff": 2393,
      "Ġstreet": 2394,
      "ames": 2395,
      "ament": 2396,
      "Ġform": 2397,
      "Ġreach": 2398,
      "iling": 2399,
      "Ġlie": 2400,
      "cepted": 2401,
      "alled": 2402,
      "antry": 2403,
      "ĠWorld": 2404,
      "Ġsear": 2405,
      "Ġrow": 2406,
      "ĠDan": 2407,
      "essly": 2408,
      "agne": 2409,
      "Ġabove": 2410,
      "Ġabrupt": 2411,
      "ush": 2412,
      "Ġoverhead": 2413,
      "Ġshif": 2414,
      "inded": 2415,
      "Ġunre": 2416,
      "Ġconsc": 2417,
      "rawn": 2418,
      "umbled": 2419,
      "Ġjumped": 2420,
      "Ġleg": 2421,
      "Ġwhose": 2422,
      "ĠJune": 2423,
      "ckleburg": 2424,
      "through": 2425,
      "ĠHow": 2426,
      "Ġtrue": 2427,
      "Ġnoon": 2428,
      "ffee": 2429,
      "Ġturning": 2430,
      "Ġglance": 2431,
      "Ġcockt": 2432,
      "Ġcoffee": 2433,
      "Ġoffic": 2434,
      "apers": 2435,
      "Ġquite": 2436,
      "Ġquiet": 2437,
      "Ġyourself": 2438,
      "rupted": 2439,
      "spring": 2440,
      "ection": 2441,
      "Ġrooms": 2442,
      "never": 2443,
      "Ġslightly": 2444,
      "Ġdriver": 2445,
      "ĠâĢ¦âĢĿ": 2446,
      "Ġcalling": 2447,
      "Ġscene": 2448,
      "Ġchamp": 2449,
      "Ġdisc": 2450,
      "Ġdism": 2451,
      "covered": 2452,
      "formed": 2453,
      "ize": 2454,
      "izing": 2455,
      "Ġenjo": 2456,
      "merged": 2457,
      "ivid": 2458,
      "Ġhours": 2459,
      "Ġintim": 2460,
      "Ġintrod": 2461,
      "Ġimpression": 2462,
      "Ġimpati": 2463,
      "Ġpolice": 2464,
      "Ġpolitely": 2465,
      "Ġinterest": 2466,
      "Ġinterested": 2467,
      "Ġinvited": 2468,
      "Ġlaugh": 2469,
      "Ġbelong": 2470,
      "Ġclos": 2471,
      "Ġsupper": 2472,
      "who": 2473,
      "Ġappro": 2474,
      "enegro": 2475,
      "Ġrealized": 2476,
      "Ġenthus": 2477,
      "Ġdropped": 2478,
      "Ġbelieved": 2479,
      "Ġweeks": 2480,
      "ĠStreet": 2481,
      "board": 2482,
      "ounted": 2483,
      "Ġlower": 2484,
      "Ġcasual": 2485,
      "looked": 2486,
      "Ġsubject": 2487,
      "Ġwrong": 2488,
      "Ġthinking": 2489,
      "Ġorder": 2490,
      "Ġterrible": 2491,
      "eyer": 2492,
      "Ġedge": 2493,
      "Ġservants": 2494,
      "Ġdeter": 2495,
      "Ġurged": 2496,
      "Ġforgotten": 2497,
      "Ġextra": 2498,
      "Ġguests": 2499,
      "Ġautomob": 2500,
      "Ġphysical": 2501,
      "ouisville": 2502,
      "arcely": 2503,
      "Ġperfect": 2504,
      "lipspring": 2505,
      "Ġfantastic": 2506,
      "Ġenthusi": 2507,
      "lipspringer": 2508,
      "!âĢĻ": 2509,
      "Go": 2510,
      "Michaelis": 2511,
      "Never": 2512,
      "St": 2513,
      "Th": 2514,
      "Very": 2515,
      "af": 2516,
      "ait": 2517,
      "ball": 2518,
      "bul": 2519,
      "come": 2520,
      "cess": 2521,
      "could": 2522,
      "der": 2523,
      "didn": 2524,
      "ef": 2525,
      "flo": 2526,
      "five": 2527,
      "gu": 2528,
      "gan": 2529,
      "hor": 2530,
      "hour": 2531,
      "ient": 2532,
      "iew": 2533,
      "ially": 2534,
      "iving": 2535,
      "ips": 2536,
      "nest": 2537,
      "pro": 2538,
      "pers": 2539,
      "sm": 2540,
      "sy": 2541,
      "sion": 2542,
      "ton": 2543,
      "took": 2544,
      "time": 2545,
      "upp": 2546,
      "uously": 2547,
      "vas": 2548,
      "wl": 2549,
      "what": 2550,
      "word": 2551,
      "ze": 2552,
      "Ġ*": 2553,
      "Ġice": 2554,
      "Ġtill": 2555,
      "Ġtang": 2556,
      "Ġtaking": 2557,
      "Ġtears": 2558,
      "Ġtaken": 2559,
      "heard": 2560,
      "iny": 2561,
      "inking": 2562,
      "inced": 2563,
      "Ġwre": 2564,
      "Ġwide": 2565,
      "Ġwip": 2566,
      "Ġwalk": 2567,
      "Ġson": 2568,
      "Ġsim": 2569,
      "Ġsal": 2570,
      "Ġsol": 2571,
      "Ġsong": 2572,
      "erable": 2573,
      "read": 2574,
      "Ġmiddle": 2575,
      "Ġmuttered": 2576,
      "Ġbur": 2577,
      "Ġball": 2578,
      "Ġbother": 2579,
      "Ġbene": 2580,
      "isf": 2581,
      "enn": 2582,
      "Ġcut": 2583,
      "Ġcard": 2584,
      "Ġclock": 2585,
      "Ġfur": 2586,
      "Ġfilled": 2587,
      "orate": 2588,
      "ask": 2589,
      "Ġdawn": 2590,
      "Ġdrugstore": 2591,
      "Ġdrawn": 2592,
      "Ġhor": 2593,
      "esqu": 2594,
      "Ġgrou": 2595,
      "Ġgest": 2596,
      "Ġglo": 2597,
      "Ġground": 2598,
      "Ġgiven": 2599,
      "Ġgleam": 2600,
      "Ġpar": 2601,
      "Ġpard": 2602,
      "Ġpink": 2603,
      "Ġpushed": 2604,
      "Ġhast": 2605,
      "ided": 2606,
      "Ġnine": 2607,
      "Ġnerv": 2608,
      "stant": 2609,
      "stopped": 2610,
      "Ġec": 2611,
      "Ġbend": 2612,
      "Ġbell": 2613,
      "entle": 2614,
      "otesqu": 2615,
      "acy": 2616,
      "alth": 2617,
      "Ġwithin": 2618,
      "Ġmel": 2619,
      "Ġmeant": 2620,
      "amed": 2621,
      "Ġforget": 2622,
      "Ġrequ": 2623,
      "Ġreass": 2624,
      "Ġresp": 2625,
      "Ġreason": 2626,
      "Ġashes": 2627,
      "ilt": 2628,
      "ilar": 2629,
      "Ġsav": 2630,
      "Ġliked": 2631,
      "ĠWith": 2632,
      "Ġsea": 2633,
      "Ġrich": 2634,
      "Ġsudden": 2635,
      "Ġsuper": 2636,
      "Ġdoll": 2637,
      "ching": 2638,
      "their": 2639,
      "ourn": 2640,
      "ours": 2641,
      "ousand": 2642,
      "Ġable": 2643,
      "ecul": 2644,
      "ĠBiloxi": 2645,
      "abs": 2646,
      "Ġvanished": 2647,
      "els": 2648,
      "Ġsoon": 2649,
      "Ġsold": 2650,
      "orth": 2651,
      "Ġgoes": 2652,
      "Ġspot": 2653,
      "Ġspring": 2654,
      "Ġconv": 2655,
      "Ġconceal": 2656,
      "ume": 2657,
      "umn": 2658,
      "umed": 2659,
      "Ġneither": 2660,
      "Ġdownstairs": 2661,
      "ĠCarraway": 2662,
      "Ġorche": 2663,
      "Ġbackward": 2664,
      "ĠHaven": 2665,
      "isten": 2666,
      "istent": 2667,
      "Ġtran": 2668,
      "Ġtrag": 2669,
      "Ġtrust": 2670,
      "Ġtruth": 2671,
      "Ġtwenty": 2672,
      "Ġwhatever": 2673,
      "assion": 2674,
      "aps": 2675,
      "ĠOr": 2676,
      "Ġsmile": 2677,
      "ĠFinn": 2678,
      "sport": 2679,
      "Ġbeginning": 2680,
      "Ġdeal": 2681,
      "Ġgrew": 2682,
      "Ġblank": 2683,
      "Ġshaking": 2684,
      "Ġmint": 2685,
      "Ġunderstood": 2686,
      "avender": 2687,
      "uced": 2688,
      "ucille": 2689,
      "Ġsays": 2690,
      "Ġscarcely": 2691,
      "Ġparticular": 2692,
      "Ġcontempt": 2693,
      "forget": 2694,
      "Ġeng": 2695,
      "Ġlooks": 2696,
      "Ġincluded": 2697,
      "Ġincreas": 2698,
      "Ġnews": 2699,
      "tains": 2700,
      "Ġbrown": 2701,
      "Ġbrick": 2702,
      "Ġharsh": 2703,
      "rossed": 2704,
      "Ġobsc": 2705,
      "Ġobjected": 2706,
      "Ġsatisf": 2707,
      "Ġinterrupted": 2708,
      "Ġbreak": 2709,
      "Ġdarkness": 2710,
      "Ġstrained": 2711,
      "Ġrested": 2712,
      "Ġrestless": 2713,
      "Ġdresses": 2714,
      "Ġsupposed": 2715,
      "sued": 2716,
      "which": 2717,
      "Ġapparent": 2718,
      "appeared": 2719,
      "Ġchanged": 2720,
      "Ġconfused": 2721,
      "Ġconfusion": 2722,
      "ĠRos": 2723,
      "Ġcareless": 2724,
      "Ġgoodbye": 2725,
      "Ġfriends": 2726,
      "Ġplayed": 2727,
      "Ġfinding": 2728,
      "Ġembarr": 2729,
      "Ġautumn": 2730,
      "Ġbooks": 2731,
      "Ġcheek": 2732,
      "Ġcheerful": 2733,
      "Ġwaiting": 2734,
      "Does": 2735,
      "Ġsinging": 2736,
      "Ġbottle": 2737,
      "Ġmovement": 2738,
      "ounced": 2739,
      "Ġcertainly": 2740,
      "Ġleaves": 2741,
      "nothing": 2742,
      "Ġcircum": 2743,
      "Ġhelped": 2744,
      "Ġattention": 2745,
      "Ġcasually": 2746,
      "ĠOnce": 2747,
      "ĠKlipspringer": 2748,
      "Ġassured": 2749,
      "Ġdamp": 2750,
      "Ġpromise": 2751,
      "Ġelev": 2752,
      "ashion": 2753,
      "Ġdrawing": 2754,
      "ĠMontenegro": 2755,
      "Ġsharply": 2756,
      "Ġpleasant": 2757,
      "Ġcollege": 2758,
      "Ġdreams": 2759,
      "Ġshock": 2760,
      "Ġverand": 2761,
      "Ġmistake": 2762,
      "Ġneck": 2763,
      "Ġbeauty": 2764,
      "Ġsuspic": 2765,
      "Ġkissed": 2766,
      "Ġshirts": 2767,
      "ĠĠĠĠĠĠĠĠĠĠĠĠĠĠĠĠĠĠĠĠĠĠĠĠĠĠĠĠĠĠĠĠĠ": 2768,
      "Ġblew": 2769,
      "Ġstretched": 2770,
      "ĠAmerican": 2771,
      "Ġincessantly": 2772,
      "Ġcountry": 2773,
      "Ġobviously": 2774,
      "Ġsidewalk": 2775,
      "ineteen": 2776,
      "Ġcopy": 2777,
      "Ġabruptly": 2778,
      "Ġchampagne": 2779,
      "Ġimpatiently": 2780,
      "Ġdeterm": 2781,
      "Ġbeneath": 2782,
      "Ġpardon": 2783,
      "otesque": 2784,
      "Ġrequest": 2785,
      "Ġapparently": 2786,
      ",âĢĻ": 2787,
      "15": 2788,
      "An": 2789,
      "Ch": 2790,
      "Even": 2791,
      "God": 2792,
      "Here": 2793,
      "Just": 2794,
      "Let": 2795,
      "Listen": 2796,
      "Now": 2797,
      "On": 2798,
      "See": 2799,
      "Your": 2800,
      "aed": 2801,
      "ails": 2802,
      "bre": 2803,
      "bow": 2804,
      "back": 2805,
      "bber": 2806,
      "cut": 2807,
      "cently": 2808,
      "dr": 2809,
      "des": 2810,
      "down": 2811,
      "del": 2812,
      "dress": 2813,
      "dark": 2814,
      "each": 2815,
      "epped": 2816,
      "either": 2817,
      "eyed": 2818,
      "fast": 2819,
      "face": 2820,
      "first": 2821,
      "gn": 2822,
      "hundred": 2823,
      "iec": 2824,
      "ivered": 2825,
      "laz": 2826,
      "lmost": 2827,
      "mon": 2828,
      "more": 2829,
      "mber": 2830,
      "put": 2831,
      "piece": 2832,
      "ract": 2833,
      "sha": 2834,
      "son": 2835,
      "sum": 2836,
      "tic": 2837,
      "than": 2838,
      "tru": 2839,
      "uly": 2840,
      "uct": 2841,
      "vies": 2842,
      "whis": 2843,
      "wife": 2844,
      "xes": 2845,
      "ys": 2846,
      "years": 2847,
      "Ġ(": 2848,
      "ĠU": 2849,
      "ĠâĢĿ": 2850,
      "Ġident": 2851,
      "Ġton": 2852,
      "Ġtem": 2853,
      "Ġtone": 2854,
      "Ġtree": 2855,
      "heaps": 2856,
      "Ġast": 2857,
      "inary": 2858,
      "Ġwan": 2859,
      "Ġwag": 2860,
      "Ġsimp": 2861,
      "edding": 2862,
      "erted": 2863,
      "ount": 2864,
      "happ": 2865,
      "reg": 2866,
      "rest": 2867,
      "Ġmis": 2868,
      "Ġmay": 2869,
      "Ġmir": 2870,
      "Ġmil": 2871,
      "Ġmile": 2872,
      "itted": 2873,
      "Ġbal": 2874,
      "Ġbound": 2875,
      "isc": 2876,
      "ision": 2877,
      "isively": 2878,
      "Ġcry": 2879,
      "Ġceas": 2880,
      "Ġfas": 2881,
      "Ġfut": 2882,
      "Ġfright": 2883,
      "Ġfree": 2884,
      "Ġfire": 2885,
      "Ġfirm": 2886,
      "Ġfashion": 2887,
      "onest": 2888,
      "onne": 2889,
      "Ġtop": 2890,
      "asm": 2891,
      "Ġdance": 2892,
      "Ġdire": 2893,
      "Ġdign": 2894,
      "Ġinno": 2895,
      "Ġlad": 2896,
      "Ġlem": 2897,
      "Ġlun": 2898,
      "Ġlying": 2899,
      "Ġloud": 2900,
      "Ġlavender": 2901,
      "around": 2902,
      "arious": 2903,
      "Ġoften": 2904,
      "Ġho": 2905,
      "Ġhy": 2906,
      "Ġhig": 2907,
      "Ġholding": 2908,
      "atively": 2909,
      "Ġga": 2910,
      "Ġgrow": 2911,
      "Ġgorge": 2912,
      "Ġgentle": 2913,
      "Ġpat": 2914,
      "Ġpan": 2915,
      "Ġpay": 2916,
      "Ġpress": 2917,
      "Ġpick": 2918,
      "Ġpair": 2919,
      "Ġpiec": 2920,
      "let": 2921,
      "left": 2922,
      "iding": 2923,
      "idly": 2924,
      "Ġnur": 2925,
      "Ġnatur": 2926,
      "Ġnineteen": 2927,
      "stead": 2928,
      "icable": 2929,
      "icated": 2930,
      "Ġeart": 2931,
      "Ġemerged": 2932,
      "Ġyes": 2933,
      "immy": 2934,
      "imming": 2935,
      "Ġbeating": 2936,
      "etro": 2937,
      "see": 2938,
      "selves": 2939,
      "Ġthr": 2940,
      "aybe": 2941,
      "acing": 2942,
      "acted": 2943,
      "always": 2944,
      "rief": 2945,
      "âĢĶâĢľ": 2946,
      "Ġstay": 2947,
      "Ġstir": 2948,
      "Ġstrugg": 2949,
      "adually": 2950,
      "oose": 2951,
      "ams": 2952,
      "Ġforce": 2953,
      "Ġrece": 2954,
      "Ġreco": 2955,
      "Ġash": 2956,
      "herself": 2957,
      "Ġlifted": 2958,
      "cend": 2959,
      "Hello": 2960,
      "ĠMeyer": 2961,
      "ĠWh": 2962,
      "Ġsell": 2963,
      "Ġself": 2964,
      "together": 2965,
      "Ġrad": 2966,
      "Ġride": 2967,
      "Ġrum": 2968,
      "Ġrhy": 2969,
      "Ġrushed": 2970,
      "Ġrail": 2971,
      "ember": 2972,
      "ighted": 2973,
      "essary": 2974,
      "cho": 2975,
      "ĠSometimes": 2976,
      "again": 2977,
      "owned": 2978,
      "unted": 2979,
      "estig": 2980,
      "elled": 2981,
      "ushing": 2982,
      "ĠBy": 2983,
      "aborate": 2984,
      "Ġvig": 2985,
      "Ġvivid": 2986,
      "Ġview": 2987,
      "elve": 2988,
      "Ġshut": 2989,
      "Ġshot": 2990,
      "Ġshout": 2991,
      "Ġshore": 2992,
      "Ġshining": 2993,
      "Ġaloud": 2994,
      "ortant": 2995,
      "Ġspec": 2996,
      "Ġunp": 2997,
      "Ġuniver": 2998,
      "verybody": 2999,
      "Ġrock": 3000,
      "Ġage": 3001,
      "Ġanybody": 3002,
      "thm": 3003,
      "think": 3004,
      "ressive": 3005,
      "icker": 3006,
      "Ġknows": 3007,
      "ĠEng": 3008,
      "ĠEckleburg": 3009,
      "istening": 3010,
      "akes": 3011,
      "assment": 3012,
      "shore": 3013,
      "shine": 3014,
      "ggs": 3015,
      "Ġcomes": 3016,
      "Ġremained": 3017,
      "Ġsmoke": 3018,
      "rows": 3019,
      "ĠFif": 3020,
      "Ġbegun": 3021,
      "Ġimag": 3022,
      "ield": 3023,
      "Ġdeath": 3024,
      "Ġcanvas": 3025,
      "Ġaccepted": 3026,
      "Ġwhereupon": 3027,
      "Ġwaved": 3028,
      "Ġstars": 3029,
      "Ġstaring": 3030,
      "ĠLouisville": 3031,
      "ĠLucille": 3032,
      "Ġdrifted": 3033,
      "Ġscorn": 3034,
      "Ġbond": 3035,
      "Ġchar": 3036,
      "Ġdiscovered": 3037,
      "Ġenchan": 3038,
      "being": 3039,
      "ivil": 3040,
      "ires": 3041,
      "Ġworried": 3042,
      "Ġgrotesque": 3043,
      "Ġpolite": 3044,
      "eker": 3045,
      "Ġmarble": 3046,
      "Ġclothes": 3047,
      "Ġprod": 3048,
      "Ġprofound": 3049,
      "Ġgardens": 3050,
      "Ġstrange": 3051,
      "Ġarmy": 3052,
      "azz": 3053,
      "Ġexpect": 3054,
      "Ġexpected": 3055,
      "suit": 3056,
      "Ġappeared": 3057,
      "Ġsunlight": 3058,
      "Ġchance": 3059,
      "Ġchanging": 3060,
      "Ġshoulders": 3061,
      "Ġphr": 3062,
      "Ġhusky": 3063,
      "Ġaddress": 3064,
      "Ġfollowing": 3065,
      "Ġempt": 3066,
      "Ġemotion": 3067,
      "Ġwhisky": 3068,
      "Ġsurprise": 3069,
      "ocked": 3070,
      "Ġbedroom": 3071,
      "Ġabsor": 3072,
      "Ġabsolutely": 3073,
      "Ġwaiter": 3074,
      "Ġpresent": 3075,
      "Ġprot": 3076,
      "Ġstartled": 3077,
      "Ġmovements": 3078,
      "Ġcontinually": 3079,
      "Ġearly": 3080,
      "Ġrunning": 3081,
      "Ġtouched": 3082,
      "Ġaffair": 3083,
      "ensity": 3084,
      "Ġcircle": 3085,
      "Ġattempt": 3086,
      "Ġmurmured": 3087,
      "door": 3088,
      "Ġfuneral": 3089,
      "osity": 3090,
      "udy": 3091,
      "Ġcorre": 3092,
      "Ġdistance": 3093,
      "Ġdamned": 3094,
      "Ġelect": 3095,
      "Ġglasses": 3096,
      "Ġinstinct": 3097,
      "Ġchildren": 3098,
      "iano": 3099,
      "Ġsnapped": 3100,
      "idnight": 3101,
      "Ġmoonlight": 3102,
      "easy": 3103,
      "Ġexcitedly": 3104,
      "understand": 3105,
      "Ġsquare": 3106,
      "aturday": 3107,
      "Ġgolden": 3108,
      "Ġapartment": 3109,
      "Ġcorner": 3110,
      "rilling": 3111,
      "formation": 3112,
      "Ġcigarette": 3113,
      "Ġcigarettes": 3114,
      "everything": 3115,
      "Ġmagaz": 3116,
      "Ġgener": 3117,
      "Ġghostly": 3118,
      "Ġconcentr": 3119,
      "Ġpockets": 3120,
      "Ġphotograph": 3121,
      "Ġreluctant": 3122,
      "elebr": 3123,
      "Ġwatched": 3124,
      "Ġslender": 3125,
      "Ġoblig": 3126,
      "Ġfigure": 3127,
      "Ġgathered": 3128,
      "Ġmemory": 3129,
      "Ġreturned": 3130,
      "Ġconnection": 3131,
      "ĠHotel": 3132,
      "ĠFrance": 3133,
      "Ġincredulously": 3134,
      "Ġnewspaper": 3135,
      "Ġexcitement": 3136,
      "expected": 3137,
      "aurant": 3138,
      "Ġcousin": 3139,
      "Ġyacht": 3140,
      "Ġintimate": 3141,
      "Ġautomobiles": 3142,
      "asket": 3143,
      "Ġecst": 3144,
      "Ġdollars": 3145,
      "eculiar": 3146,
      "Ġorchestra": 3147,
      "Ġcircumst": 3148,
      "Ġdetermined": 3149,
      "aedeker": 3150,
      "true": 3151,
      "Ġmirr": 3152,
      "Ġfuture": 3153,
      "Ġinnocently": 3154,
      "Ġgorgeous": 3155,
      "Ġpieces": 3156,
      "Ġnurse": 3157,
      "Ġearth": 3158,
      "Ġreceiver": 3159,
      "Ġrecogn": 3160,
      "Ġrhythm": 3161,
      "30": 3162,
      "Are": 3163,
      "By": 3164,
      "Can": 3165,
      "Carraway": 3166,
      "From": 3167,
      "Have": 3168,
      "II": 3169,
      "Jimmy": 3170,
      "Li": 3171,
      "Most": 3172,
      "Miss": 3173,
      "New": 3174,
      "Next": 3175,
      "Suddenly": 3176,
      "Yea": 3177,
      "aby": 3178,
      "apt": 3179,
      "aving": 3180,
      "bly": 3181,
      "bro": 3182,
      "bably": 3183,
      "cri": 3184,
      "cher": 3185,
      "came": 3186,
      "cuse": 3187,
      "dre": 3188,
      "dec": 3189,
      "dered": 3190,
      "ev": 3191,
      "fl": 3192,
      "fort": 3193,
      "fting": 3194,
      "friend": 3195,
      "fused": 3196,
      "gs": 3197,
      "ges": 3198,
      "gant": 3199,
      "gum": 3200,
      "girl": 3201,
      "garden": 3202,
      "garage": 3203,
      "gonne": 3204,
      "hum": 3205,
      "iated": 3206,
      "ience": 3207,
      "ker": 3208,
      "lt": 3209,
      "lor": 3210,
      "lar": 3211,
      "mis": 3212,
      "mas": 3213,
      "might": 3214,
      "moment": 3215,
      "matter": 3216,
      "oh": 3217,
      "oint": 3218,
      "ping": 3219,
      "par": 3220,
      "past": 3221,
      "pose": 3222,
      "pres": 3223,
      "picture": 3224,
      "rist": 3225,
      "ses": 3226,
      "set": 3227,
      "suc": 3228,
      "sign": 3229,
      "said": 3230,
      "tis": 3231,
      "too": 3232,
      "tried": 3233,
      "taking": 3234,
      "tory": 3235,
      "taken": 3236,
      "two": 3237,
      "toward": 3238,
      "ub": 3239,
      "uro": 3240,
      "uss": 3241,
      "uate": 3242,
      "uge": 3243,
      "uished": 3244,
      "uction": 3245,
      "val": 3246,
      "vals": 3247,
      "want": 3248,
      "will": 3249,
      "why": 3250,
      "wonder": 3251,
      "whel": 3252,
      "xiously": 3253,
      "xcuse": 3254,
      "ĠQ": 3255,
      "ĠâĢĻ": 3256,
      "Ġve": 3257,
      "Ġest": 3258,
      "Ġill": 3259,
      "Ġtan": 3260,
      "Ġtent": 3261,
      "Ġtur": 3262,
      "Ġtired": 3263,
      "Ġtourn": 3264,
      "hear": 3265,
      "hester": 3266,
      "Ġahead": 3267,
      "Ġaunt": 3268,
      "Ġavo": 3269,
      "âĢ¦": 3270,
      "inv": 3271,
      "inal": 3272,
      "ination": 3273,
      "inity": 3274,
      "inting": 3275,
      "inated": 3276,
      "Ġwit": 3277,
      "Ġwra": 3278,
      "Ġworn": 3279,
      "Ġwinter": 3280,
      "Ġwives": 3281,
      "Ġsno": 3282,
      "Ġsnow": 3283,
      "Ġseries": 3284,
      "Ġsorry": 3285,
      "Ġowl": 3286,
      "erk": 3287,
      "ert": 3288,
      "erse": 3289,
      "oul": 3290,
      "hand": 3291,
      "hast": 3292,
      "hase": 3293,
      "rem": 3294,
      "Ġmed": 3295,
      "Ġmod": 3296,
      "Ġmill": 3297,
      "Ġmach": 3298,
      "Ġmiles": 3299,
      "Ġmixed": 3300,
      "Ġmounted": 3301,
      "Ġmidnight": 3302,
      "itor": 3303,
      "itch": 3304,
      "itable": 3305,
      "Ġbent": 3306,
      "Ġbore": 3307,
      "Ġburn": 3308,
      "Ġbare": 3309,
      "ense": 3310,
      "Ġcy": 3311,
      "Ġchat": 3312,
      "Ġcent": 3313,
      "Ġcol": 3314,
      "Ġcost": 3315,
      "Ġcalm": 3316,
      "Ġcelebr": 3317,
      "Ġfro": 3318,
      "Ġfight": 3319,
      "Ġfurn": 3320,
      "only": 3321,
      "once": 3322,
      "ashing": 3323,
      "Ġdus": 3324,
      "Ġdep": 3325,
      "Ġdiss": 3326,
      "Ġdancing": 3327,
      "Ġinf": 3328,
      "Ġinn": 3329,
      "Ġinex": 3330,
      "Ġinde": 3331,
      "Ġinformation": 3332,
      "omed": 3333,
      "arm": 3334,
      "arn": 3335,
      "arter": 3336,
      "Ġhorn": 3337,
      "Ġhollow": 3338,
      "Ġhung": 3339,
      "Ġhuge": 3340,
      "lla": 3341,
      "athing": 3342,
      "atory": 3343,
      "atement": 3344,
      "atically": 3345,
      "estern": 3346,
      "Ġgust": 3347,
      "Ġgame": 3348,
      "Ġgau": 3349,
      "Ġgru": 3350,
      "Ġpal": 3351,
      "Ġpour": 3352,
      "Ġport": 3353,
      "Ġpop": 3354,
      "Ġpig": 3355,
      "Ġpear": 3356,
      "Ġpass": 3357,
      "Ġpressed": 3358,
      "Ġpicked": 3359,
      "Ġpiece": 3360,
      "Ġpiano": 3361,
      "Ġpeculiar": 3362,
      "Ġhate": 3363,
      "owing": 3364,
      "lend": 3365,
      "legg": 3366,
      "Ġwaste": 3367,
      "Ġnor": 3368,
      "Ġnum": 3369,
      "still": 3370,
      "step": 3371,
      "street": 3372,
      "stery": 3373,
      "iced": 3374,
      "icking": 3375,
      "icism": 3376,
      "Ġeas": 3377,
      "Ġevent": 3378,
      "Ġetern": 3379,
      "Ġyawn": 3380,
      "imon": 3381,
      "vertis": 3382,
      "entions": 3383,
      "Ġones": 3384,
      "Ġthrow": 3385,
      "Ġthousand": 3386,
      "Ġyouth": 3387,
      "otlegg": 3388,
      "acked": 3389,
      "iration": 3390,
      "Ġhistory": 3391,
      "alter": 3392,
      "riage": 3393,
      "ĠTo": 3394,
      "ĠTr": 3395,
      "ĠTell": 3396,
      "Ġsto": 3397,
      "Ġstra": 3398,
      "Ġstraw": 3399,
      "Ġstuff": 3400,
      "Ġstrolled": 3401,
      "Ġstepped": 3402,
      "adm": 3403,
      "ads": 3404,
      "ading": 3405,
      "addy": 3406,
      "ooked": 3407,
      "Ġanxiously": 3408,
      "amp": 3409,
      "Ġsand": 3410,
      "ĠGa": 3411,
      "ĠGood": 3412,
      "Ġliqu": 3413,
      "ainted": 3414,
      "ĠMiddle": 3415,
      "iform": 3416,
      "Ġupper": 3417,
      "Ġrace": 3418,
      "Ġraw": 3419,
      "Ġweather": 3420,
      "pper": 3421,
      "Ġdock": 3422,
      "chid": 3423,
      "chief": 3424,
      "olate": 3425,
      "them": 3426,
      "theless": 3427,
      "ĠSomething": 3428,
      "ĠSund": 3429,
      "ĠSuddenly": 3430,
      "ĠSaturday": 3431,
      "ource": 3432,
      "agg": 3433,
      "erely": 3434,
      "estions": 3435,
      "ecting": 3436,
      "ĠAr": 3437,
      "ĠAven": 3438,
      "ĠBroad": 3439,
      "ĠBaedeker": 3440,
      "ables": 3441,
      "Ġvis": 3442,
      "Ġvic": 3443,
      "Ġvisible": 3444,
      "Ġvitality": 3445,
      "Ġvillage": 3446,
      "Ġvarious": 3447,
      "quaint": 3448,
      "quiet": 3449,
      "question": 3450,
      "Ġsob": 3451,
      "ordinary": 3452,
      "Ġalive": 3453,
      "Ġalso": 3454,
      "Ġspent": 3455,
      "Ġsprang": 3456,
      "Ġsplend": 3457,
      "Ġunutter": 3458,
      "Ġuncertain": 3459,
      "Ġunhapp": 3460,
      "Ġunexpected": 3461,
      "Ġuniform": 3462,
      "ulking": 3463,
      "Ġexam": 3464,
      "Ġmanner": 3465,
      "Ġmansion": 3466,
      "Ġja": 3467,
      "Ġjew": 3468,
      "Ġleather": 3469,
      "Ġleaning": 3470,
      "oph": 3471,
      "ĠCome": 3472,
      "ĠColl": 3473,
      "ĠJames": 3474,
      "three": 3475,
      "Ġcarried": 3476,
      "Ġcarry": 3477,
      "ept": 3478,
      "Ġafterward": 3479,
      "ĠĠĠĠĠĠĠĠĠĠĠĠ": 3480,
      "ists": 3481,
      "Ġtrack": 3482,
      "Ġthemselves": 3483,
      "should": 3484,
      "Ġnights": 3485,
      "urely": 3486,
      "Ġmovies": 3487,
      "apart": 3488,
      "ĠOf": 3489,
      "ĠOggs": 3490,
      "Ġart": 3491,
      "Ġremain": 3492,
      "Ġremote": 3493,
      "Ġquarter": 3494,
      "Ġquestions": 3495,
      "Ġsmo": 3496,
      "place": 3497,
      "plane": 3498,
      "plessly": 3499,
      "ĠFren": 3500,
      "Ġothers": 3501,
      "ission": 3502,
      "Ġdefinitely": 3503,
      "Ġplan": 3504,
      "Ġloc": 3505,
      "Ġlocked": 3506,
      "Ġeverybody": 3507,
      "things": 3508,
      "Ġminister": 3509,
      "Ġpointed": 3510,
      "Ġposition": 3511,
      "ĠLe": 3512,
      "ĠLet": 3513,
      "Ġslid": 3514,
      "Ġbecome": 3515,
      "Ġboat": 3516,
      "Ġtowards": 3517,
      "Ġcontr": 3518,
      "ĠPark": 3519,
      "ĠPerhaps": 3520,
      "ĠPlaz": 3521,
      "ĠYale": 3522,
      "began": 3523,
      "Ġswinging": 3524,
      "irely": 3525,
      "Ġbroad": 3526,
      "Ġbridge": 3527,
      "Ġintention": 3528,
      "Ġintensity": 3529,
      "Ġgrace": 3530,
      "Ġgradually": 3531,
      "Ġimpassion": 3532,
      "Ġimportant": 3533,
      "Ġpolo": 3534,
      "Ġhappy": 3535,
      "Ġthanks": 3536,
      "Ġdrank": 3537,
      "Ġinterior": 3538,
      "Ġdesk": 3539,
      "Ġdescri": 3540,
      "Ġdesolate": 3541,
      "Ġinvite": 3542,
      "Ġinvisible": 3543,
      "attered": 3544,
      "Ġprobably": 3545,
      "Ġadvertis": 3546,
      "young": 3547,
      "Ġgardener": 3548,
      "Ġended": 3549,
      "Ġstring": 3550,
      "azing": 3551,
      "luding": 3552,
      "Ġdressing": 3553,
      "white": 3554,
      "exc": 3555,
      "except": 3556,
      "Ġlawns": 3557,
      "leasant": 3558,
      "Ġsunshine": 3559,
      "Ġrealize": 3560,
      "Ġentered": 3561,
      "Ġentirely": 3562,
      "Ġpersistent": 3563,
      "iffer": 3564,
      "Ġdecided": 3565,
      "utterly": 3566,
      "Ġsounded": 3567,
      "Ġguessed": 3568,
      "Ġslowed": 3569,
      "uffled": 3570,
      "Ġsentiment": 3571,
      "Ġoughtn": 3572,
      "Ġaccus": 3573,
      "Ġshortly": 3574,
      "Ġcrim": 3575,
      "atching": 3576,
      "Ġpract": 3577,
      "Ġelaborate": 3578,
      "Ġeffect": 3579,
      "Ġsuggestion": 3580,
      "Ġcommon": 3581,
      "finite": 3582,
      "gotten": 3583,
      "Ġpersonal": 3584,
      "doors": 3585,
      "resist": 3586,
      "Ġcase": 3587,
      "Ġcuriosity": 3588,
      "Ġboys": 3589,
      "party": 3590,
      "Ġcorrec": 3591,
      "avour": 3592,
      "venteen": 3593,
      "Ġwondered": 3594,
      "Myrtle": 3595,
      "cheon": 3596,
      "change": 3597,
      "posed": 3598,
      "Ġdrawer": 3599,
      "Ġinstant": 3600,
      "Ġordered": 3601,
      "chair": 3602,
      "wouldn": 3603,
      "Ġgroc": 3604,
      "Ġgroaning": 3605,
      "Ġtouching": 3606,
      "Ġdelic": 3607,
      "Ġdiffic": 3608,
      "Ġrub": 3609,
      "Ġdisappeared": 3610,
      "Ġadmitted": 3611,
      "control": 3612,
      "Ġresol": 3613,
      "Ġviolent": 3614,
      "Ġviolently": 3615,
      "Ġcompletely": 3616,
      "laughed": 3617,
      "windows": 3618,
      "Ġirresist": 3619,
      "Ġcorners": 3620,
      "Ġgravel": 3621,
      "Ġnecessary": 3622,
      "strained": 3623,
      "Ġbeautiful": 3624,
      "arents": 3625,
      "grey": 3626,
      "married": 3627,
      "Ġsense": 3628,
      "Ġsweet": 3629,
      "hard": 3630,
      "Ġclear": 3631,
      "Ġtower": 3632,
      "Ġyards": 3633,
      "entral": 3634,
      "velt": 3635,
      "Ġglowing": 3636,
      "Ġpocket": 3637,
      "Ġphotograp": 3638,
      "Ġprivate": 3639,
      "droplane": 3640,
      "priet": 3641,
      "Ġtipto": 3642,
      "Ġcurtains": 3643,
      "Ġhuman": 3644,
      "Ġpursued": 3645,
      "Ġeyeb": 3646,
      "Ġdespair": 3647,
      "Ġstranger": 3648,
      "Ġdifferent": 3649,
      "Ġdifference": 3650,
      "ajor": 3651,
      "corner": 3652,
      "ossal": 3653,
      "trees": 3654,
      "Ġwandered": 3655,
      "Ġmentioned": 3656,
      "ĠHowever": 3657,
      "Ġcocktails": 3658,
      "Ġenjoyed": 3659,
      "Ġinteresting": 3660,
      "floated": 3661,
      "Ġwiped": 3662,
      "Ġburst": 3663,
      "Ġfurther": 3664,
      "Ġgroup": 3665,
      "Ġgesture": 3666,
      "Ġgloom": 3667,
      "Ġparted": 3668,
      "Ġhastily": 3669,
      "Ġnervous": 3670,
      "Ġsavage": 3671,
      "Ġconvinced": 3672,
      "Ġtragic": 3673,
      "Ġblankly": 3674,
      "Ġengaged": 3675,
      "Ġincreased": 3676,
      "Ġbreakfast": 3677,
      "ĠRosy": 3678,
      "Ġveranda": 3679,
      "Chicago": 3680,
      "bbery": 3681,
      "summer": 3682,
      "Ġtonight": 3683,
      "Ġaston": 3684,
      "Ġwagon": 3685,
      "Ġsimply": 3686,
      "Ġmilk": 3687,
      "Ġbalancing": 3688,
      "Ġdignified": 3689,
      "Ġluncheon": 3690,
      "Ġhydroplane": 3691,
      "Ġhigher": 3692,
      "Ġgaiety": 3693,
      "Ġgentleman": 3694,
      "Ġpanic": 3695,
      "Ġthrown": 3696,
      "oosevelt": 3697,
      "Ġrailroad": 3698,
      "Ġunpleasant": 3699,
      "ields": 3700,
      "Ġenchanted": 3701,
      "Ġphrase": 3702,
      "Ġempty": 3703,
      "Ġabsorbed": 3704,
      "Ġelectric": 3705,
      "Ġcircumstances": 3706,
      "gument": 3707,
      "ristmas": 3708,
      "success": 3709,
      "urope": 3710,
      "Ġtournament": 3711,
      "ersey": 3712,
      "Ġcolossal": 3713,
      "Ġdusk": 3714,
      "Ġpopular": 3715,
      "Ġnumber": 3716,
      "steps": 3717,
      "Ġeternal": 3718,
      "Ġyawned": 3719,
      "Ġstraight": 3720,
      "ĠSunday": 3721,
      "ĠAvenue": 3722,
      "ĠBroadway": 3723,
      "ĠCollege": 3724,
      "ĠOggsford": 3725,
      "ĠFrench": 3726,
      "ĠPlaza": 3727,
      "Ġimpassioned": 3728,
      "Ġadvertisement": 3729,
      "Ġcorrected": 3730,
      "?âĢĶ": 3731,
      "Ah": 3732,
      "Almost": 3733,
      "Baker": 3734,
      "Buchanan": 3735,
      "Biloxi": 3736,
      "Cody": 3737,
      "Get": 3738,
      "Going": 3739,
      "Has": 3740,
      "Hot": 3741,
      "McKee": 3742,
      "Perhaps": 3743,
      "Re": 3744,
      "To": 3745,
      "Two": 3746,
      "Was": 3747,
      "Want": 3748,
      "Will": 3749,
      "Wolfshiem": 3750,
      "Wait": 3751,
      "York": 3752,
      "aff": 3753,
      "bb": 3754,
      "bet": 3755,
      "bust": 3756,
      "big": 3757,
      "bute": 3758,
      "bought": 3759,
      "beside": 3760,
      "cor": 3761,
      "cas": 3762,
      "can": 3763,
      "cur": 3764,
      "cto": 3765,
      "cted": 3766,
      "care": 3767,
      "cap": 3768,
      "coun": 3769,
      "den": 3770,
      "don": 3771,
      "dom": 3772,
      "dust": 3773,
      "dire": 3774,
      "drugstore": 3775,
      "ees": 3776,
      "eal": 3777,
      "egg": 3778,
      "eople": 3779,
      "fun": 3780,
      "fell": 3781,
      "fact": 3782,
      "fifty": 3783,
      "fingers": 3784,
      "gt": 3785,
      "ground": 3786,
      "gave": 3787,
      "gement": 3788,
      "hot": 3789,
      "hood": 3790,
      "io": 3791,
      "ium": 3792,
      "iber": 3793,
      "iantly": 3794,
      "killed": 3795,
      "knew": 3796,
      "lb": 3797,
      "lim": 3798,
      "last": 3799,
      "list": 3800,
      "line": 3801,
      "lish": 3802,
      "liness": 3803,
      "mo": 3804,
      "met": 3805,
      "mend": 3806,
      "much": 3807,
      "moved": 3808,
      "nal": 3809,
      "nown": 3810,
      "nounced": 3811,
      "oft": 3812,
      "phe": 3813,
      "por": 3814,
      "pes": 3815,
      "pet": 3816,
      "rut": 3817,
      "ray": 3818,
      "rain": 3819,
      "rag": 3820,
      "rich": 3821,
      "range": 3822,
      "sen": 3823,
      "sing": 3824,
      "sat": 3825,
      "say": 3826,
      "sal": 3827,
      "sil": 3828,
      "sight": 3829,
      "sus": 3830,
      "something": 3831,
      "solutely": 3832,
      "tom": 3833,
      "tut": 3834,
      "tri": 3835,
      "tless": 3836,
      "times": 3837,
      "tons": 3838,
      "trying": 3839,
      "uit": 3840,
      "uation": 3841,
      "udd": 3842,
      "uper": 3843,
      "vil": 3844,
      "viol": 3845,
      "vinc": 3846,
      "village": 3847,
      "wa": 3848,
      "wing": 3849,
      "wet": 3850,
      "wear": 3851,
      "work": 3852,
      "zz": 3853,
      "Ġutterly": 3854,
      "Ġtra": 3855,
      "Ġtum": 3856,
      "Ġtick": 3857,
      "Ġtact": 3858,
      "Ġtipped": 3859,
      "Ġale": 3860,
      "Ġaud": 3861,
      "Ġapol": 3862,
      "âĢĺ": 3863,
      "inst": 3864,
      "inion": 3865,
      "into": 3866,
      "inally": 3867,
      "inside": 3868,
      "Ġwin": 3869,
      "Ġwis": 3870,
      "Ġwings": 3871,
      "Ġworth": 3872,
      "Ġwedding": 3873,
      "Ġsway": 3874,
      "Ġsill": 3875,
      "Ġsne": 3876,
      "Ġscept": 3877,
      "Ġsens": 3878,
      "Ġserved": 3879,
      "Ġop": 3880,
      "Ġoper": 3881,
      "eding": 3882,
      "erc": 3883,
      "ern": 3884,
      "erve": 3885,
      "erally": 3886,
      "erves": 3887,
      "erman": 3888,
      "erks": 3889,
      "hall": 3890,
      "haust": 3891,
      "half": 3892,
      "habit": 3893,
      "reco": 3894,
      "rent": 3895,
      "Ġmor": 3896,
      "Ġmess": 3897,
      "Ġmass": 3898,
      "Ġmatch": 3899,
      "Ġmerely": 3900,
      "Ġmuffled": 3901,
      "iter": 3902,
      "iting": 3903,
      "itation": 3904,
      "iture": 3905,
      "itably": 3906,
      "Ġban": 3907,
      "Ġbree": 3908,
      "Ġblock": 3909,
      "Ġbored": 3910,
      "Ġbann": 3911,
      "Ġbasket": 3912,
      "ishing": 3913,
      "enly": 3914,
      "Ġca": 3915,
      "Ġcat": 3916,
      "Ġcand": 3917,
      "Ġcord": 3918,
      "Ġcris": 3919,
      "Ġfo": 3920,
      "Ġfer": 3921,
      "Ġfif": 3922,
      "Ġfast": 3923,
      "Ġfold": 3924,
      "Ġfaced": 3925,
      "Ġfixed": 3926,
      "Ġfinger": 3927,
      "Ġfainted": 3928,
      "Ġfields": 3929,
      "ones": 3930,
      "onal": 3931,
      "Ġtor": 3932,
      "Ġtoss": 3933,
      "âĢĻ?âĢĿ": 3934,
      "orter": 3935,
      "oration": 3936,
      "ories": 3937,
      "orously": 3938,
      "orough": 3939,
      "oria": 3940,
      "astern": 3941,
      "Ġden": 3942,
      "Ġdest": 3943,
      "Ġdear": 3944,
      "Ġdry": 3945,
      "Ġdang": 3946,
      "Ġdances": 3947,
      "Ġinsp": 3948,
      "Ġinco": 3949,
      "Ġinformed": 3950,
      "Ġinev": 3951,
      "Ġheav": 3952,
      "Ġland": 3953,
      "arre": 3954,
      "arse": 3955,
      "arbar": 3956,
      "ĠIs": 3957,
      "Ġhol": 3958,
      "Ġhold": 3959,
      "Ġhint": 3960,
      "Ġhors": 3961,
      "Ġhips": 3962,
      "Ġhilar": 3963,
      "Ġhonest": 3964,
      "ates": 3965,
      "attle": 3966,
      "ature": 3967,
      "atures": 3968,
      "esp": 3969,
      "another": 3970,
      "Ġgives": 3971,
      "Ġgiving": 3972,
      "Ġgrief": 3973,
      "Ġpy": 3974,
      "Ġpot": 3975,
      "Ġpack": 3976,
      "Ġpost": 3977,
      "Ġpark": 3978,
      "Ġpath": 3979,
      "Ġpaper": 3980,
      "Ġpomp": 3981,
      "Ġpapers": 3982,
      "Ġparents": 3983,
      "Ġhaunted": 3984,
      "Ġhalt": 3985,
      "owed": 3986,
      "lected": 3987,
      "Ġwash": 3988,
      "ides": 3989,
      "iday": 3990,
      "idered": 3991,
      "Ġnone": 3992,
      "Ġnost": 3993,
      "ste": 3994,
      "sty": 3995,
      "ics": 3996,
      "Ġet": 3997,
      "Ġech": 3998,
      "Ġease": 3999,
      "Ġeluded": 4000,
      "Ġevidently": 4001,
      "Ġbeads": 4002,
      "Ġund": 4003,
      "eter": 4004,
      "etable": 4005,
      "sequ": 4006,
      "Ġthro": 4007,
      "Ġthinning": 4008,
      "Ġthrowing": 4009,
      "Ġthrilling": 4010,
      "aye": 4011,
      "ota": 4012,
      "oth": 4013,
      "otted": 4014,
      "othing": 4015,
      "otions": 4016,
      "otten": 4017,
      "acc": 4018,
      "acter": 4019,
      "acity": 4020,
      "across": 4021,
      "acles": 4022,
      "irmed": 4023,
      "roll": 4024,
      "roving": 4025,
      "alian": 4026,
      "rig": 4027,
      "ries": 4028,
      "ribut": 4029,
      "ĠTown": 4030,
      "ĠTost": 4031,
      "ĠTaking": 4032,
      "ĠTwo": 4033,
      "ĠTattle": 4034,
      "Ġstout": 4035,
      "Ġstore": 4036,
      "Ġstable": 4037,
      "Ġstairs": 4038,
      "Ġstuck": 4039,
      "Ġstatement": 4040,
      "Ġstables": 4041,
      "urd": 4042,
      "urried": 4043,
      "ades": 4044,
      "aduate": 4045,
      "Ġmeas": 4046,
      "Ġang": 4047,
      "Ġanno": 4048,
      "Ġannounced": 4049,
      "Ġhers": 4050,
      "amps": 4051,
      "Ġforth": 4052,
      "Ġforty": 4053,
      "Ġref": 4054,
      "Ġrear": 4055,
      "Ġrever": 4056,
      "Ġrese": 4057,
      "Ġready": 4058,
      "Ġrefer": 4059,
      "Ġreaction": 4060,
      "Ġaside": 4061,
      "ility": 4062,
      "ilious": 4063,
      "ilities": 4064,
      "hers": 4065,
      "Ġsafe": 4066,
      "Ġsheer": 4067,
      "anded": 4068,
      "alling": 4069,
      "alley": 4070,
      "ĠMu": 4071,
      "ĠMetro": 4072,
      "ĠMaybe": 4073,
      "anta": 4074,
      "antage": 4075,
      "ĠWhere": 4076,
      "ĠWhy": 4077,
      "ĠWalter": 4078,
      "Ġseven": 4079,
      "Ġsepar": 4080,
      "Ġmyster": 4081,
      "Ġraced": 4082,
      "Ġrising": 4083,
      "Ġrush": 4084,
      "Ġriding": 4085,
      "outside": 4086,
      "emon": 4087,
      "embarr": 4088,
      "Ġwealth": 4089,
      "Ġsuff": 4090,
      "Ġsucc": 4091,
      "ards": 4092,
      "arded": 4093,
      "ĠDid": 4094,
      "ĠDaddy": 4095,
      "oles": 4096,
      "olent": 4097,
      "oline": 4098,
      "ĠSch": 4099,
      "ĠSeries": 4100,
      "ĠSuper": 4101,
      "ĠSanta": 4102,
      "oneliness": 4103,
      "ousine": 4104,
      "Ġabstr": 4105,
      "owning": 4106,
      "unity": 4107,
      "unct": 4108,
      "untered": 4109,
      "Ġknee": 4110,
      "elling": 4111,
      "ĠAired": 4112,
      "usual": 4113,
      "ĠBe": 4114,
      "ĠBl": 4115,
      "ĠBel": 4116,
      "ĠBarbar": 4117,
      "Ġvac": 4118,
      "Ġvest": 4119,
      "Ġvul": 4120,
      "Ġvalley": 4121,
      "elessly": 4122,
      "Ġsober": 4123,
      "Ġoverwhel": 4124,
      "oded": 4125,
      "Ġshru": 4126,
      "Ġshows": 4127,
      "Ġshrill": 4128,
      "Ġshivered": 4129,
      "ortunity": 4130,
      "Ġgoin": 4131,
      "illes": 4132,
      "Ġspend": 4133,
      "Ġspark": 4134,
      "Ġspread": 4135,
      "astically": 4136,
      "Ġunmist": 4137,
      "Ġuneasy": 4138,
      "Ġuntrue": 4139,
      "Ġunsuccess": 4140,
      "Ġconstant": 4141,
      "ules": 4142,
      "ulent": 4143,
      "ulty": 4144,
      "rakes": 4145,
      "Ġexact": 4146,
      "Ġexerc": 4147,
      "umps": 4148,
      "umerable": 4149,
      "Ġjud": 4150,
      "Ġjule": 4151,
      "Ġjerk": 4152,
      "Ġnegro": 4153,
      "aughter": 4154,
      "Ġsomehow": 4155,
      "ĠCar": 4156,
      "ĠCan": 4157,
      "ĠCive": 4158,
      "ĠComp": 4159,
      "ĠChester": 4160,
      "Ġlikely": 4161,
      "Ġorang": 4162,
      "Ġorchid": 4163,
      "ĠJew": 4164,
      "ĠJuly": 4165,
      "ĠJersey": 4166,
      "Ġhanded": 4167,
      "Ġhandker": 4168,
      "earing": 4169,
      "those": 4170,
      "though": 4171,
      "ational": 4172,
      "ressively": 4173,
      "Ġcared": 4174,
      "herent": 4175,
      "ounded": 4176,
      "Ġnote": 4177,
      "Ġnotice": 4178,
      "Ġnoticed": 4179,
      "ĠEd": 4180,
      "ĠEvidently": 4181,
      "ĠEverybody": 4182,
      "ĠElla": 4183,
      "ĠEurope": 4184,
      "ĠHill": 4185,
      "ĠHave": 4186,
      "isting": 4187,
      "Ġtray": 4188,
      "Ġwhenever": 4189,
      "inkle": 4190,
      "Ġnobody": 4191,
      "Ġtwelve": 4192,
      "Ġgets": 4193,
      "ctly": 4194,
      "shoes": 4195,
      "ĠItalian": 4196,
      "Ġusually": 4197,
      "Ġseeing": 4198,
      "Ġmomentarily": 4199,
      "Ġcovered": 4200,
      "ureau": 4201,
      "ĠOh": 4202,
      "ĠOcto": 4203,
      "Ġarrang": 4204,
      "Ġarrange": 4205,
      "Ġflutter": 4206,
      "Ġflushed": 4207,
      "Ġflipped": 4208,
      "Ġflashed": 4209,
      "Ġflann": 4210,
      "Ġflattered": 4211,
      "Ġremoved": 4212,
      "Ġreminded": 4213,
      "Ġquart": 4214,
      "pless": 4215,
      "rowed": 4216,
      "ĠFl": 4217,
      "ĠFer": 4218,
      "ĠFort": 4219,
      "ĠFirst": 4220,
      "ruck": 4221,
      "ryst": 4222,
      "spe": 4223,
      "spitality": 4224,
      "Ġlongest": 4225,
      "ieve": 4226,
      "ieved": 4227,
      "issed": 4228,
      "Ġplun": 4229,
      "Ġplaces": 4230,
      "Ġthinks": 4231,
      "Ġloves": 4232,
      "Ġblown": 4233,
      "Ġblurred": 4234,
      "ending": 4235,
      "Ġshare": 4236,
      "Ġshall": 4237,
      "Ġshake": 4238,
      "Ġlighted": 4239,
      "Ġlightly": 4240,
      "Ġacquaint": 4241,
      "iousness": 4242,
      "Ġambit": 4243,
      "Ġamount": 4244,
      "Ġpointing": 4245,
      "bles": 4246,
      "black": 4247,
      "blue": 4248,
      "ucated": 4249,
      "Ġdrift": 4250,
      "Ġscolding": 4251,
      "Ġscared": 4252,
      "Ġbob": 4253,
      "Ġbonds": 4254,
      "Ġboots": 4255,
      "Ġchain": 4256,
      "Ġsports": 4257,
      "Ġcontent": 4258,
      "Ġcontact": 4259,
      "Ġcontrol": 4260,
      "Ġhalfway": 4261,
      "forward": 4262,
      "forgotten": 4263,
      "ization": 4264,
      "izarre": 4265,
      "Ġheads": 4266,
      "teen": 4267,
      "telephone": 4268,
      "aterial": 4269,
      "aternal": 4270,
      "Ġyounger": 4271,
      "ollen": 4272,
      "ĠPeople": 4273,
      "beaut": 4274,
      "Ġswall": 4275,
      "Ġswimming": 4276,
      "Ġcho": 4277,
      "Ġchin": 4278,
      "Ġincluding": 4279,
      "Ġworse": 4280,
      "Ġworked": 4281,
      "Ġbring": 4282,
      "Ġbrain": 4283,
      "Ġintently": 4284,
      "Ġintended": 4285,
      "Ġintense": 4286,
      "Ġimpers": 4287,
      "Ġcoun": 4288,
      "Ġfrag": 4289,
      "Ġperce": 4290,
      "Ġpercept": 4291,
      "Ġexchan": 4292,
      "Ġalongshore": 4293,
      "everal": 4294,
      "people": 4295,
      "Ġclust": 4296,
      "Ġclerks": 4297,
      "Ġinterrupt": 4298,
      "Ġtelling": 4299,
      "Ġbreaking": 4300,
      "Ġfounded": 4301,
      "Ġinvestig": 4302,
      "Ġpropriet": 4303,
      "Ġbelow": 4304,
      "ception": 4305,
      "Ġrestaurant": 4306,
      "Ġkey": 4307,
      "Ġkeenly": 4308,
      "Ġwarned": 4309,
      "ishly": 4310,
      "Ġdressed": 4311,
      "ignantly": 4312,
      "Nobody": 4313,
      "sub": 4314,
      "sugg": 4315,
      "Ġcompelled": 4316,
      "Ġcourage": 4317,
      "Ġfamous": 4318,
      "apping": 4319,
      "ials": 4320,
      "Ġsituation": 4321,
      "Ġconfident": 4322,
      "myself": 4323,
      "ĠRoosevelt": 4324,
      "Ġenter": 4325,
      "Ġentertain": 4326,
      "Ġdrop": 4327,
      "rawled": 4328,
      "Ġfully": 4329,
      "Ġdecade": 4330,
      "Ġdecisively": 4331,
      "Ġplayer": 4332,
      "Ġaddressed": 4333,
      "Ġmetal": 4334,
      "Ġguess": 4335,
      "Ġemotions": 4336,
      "Ġwhisper": 4337,
      "Ġdogs": 4338,
      "Ġsurprising": 4339,
      "Ġsurprisingly": 4340,
      "Ġauthor": 4341,
      "Ġmattered": 4342,
      "lephoned": 4343,
      "Ġabsence": 4344,
      "Ġabsently": 4345,
      "Ġabsurd": 4346,
      "ĠChristmas": 4347,
      "cons": 4348,
      "aneously": 4349,
      "Ġnodding": 4350,
      "Ġpresently": 4351,
      "Ġcrit": 4352,
      "Ġcrushed": 4353,
      "Ġpride": 4354,
      "iction": 4355,
      "Ġstarting": 4356,
      "ĠStation": 4357,
      "boat": 4358,
      "boxes": 4359,
      "lights": 4360,
      "Ġrig": 4361,
      "Ġriot": 4362,
      "Ġripp": 4363,
      "Ġripped": 4364,
      "Ġawed": 4365,
      "orrowed": 4366,
      "Ġelbow": 4367,
      "Ġearnest": 4368,
      "Ġcommut": 4369,
      "Ġcommun": 4370,
      "Ġaffect": 4371,
      "Ġaffairs": 4372,
      "ension": 4373,
      "overing": 4374,
      "Ġindiffer": 4375,
      "Ġindignantly": 4376,
      "Ġsecur": 4377,
      "Ġtrains": 4378,
      "ĠOnly": 4379,
      "Ġimmediate": 4380,
      "comm": 4381,
      "comp": 4382,
      "osite": 4383,
      "ĠKaye": 4384,
      "Ġwhether": 4385,
      "Ġsinister": 4386,
      "Ġbuilt": 4387,
      "Ġrepres": 4388,
      "Ġassumed": 4389,
      "Ġasserted": 4390,
      "Ġflower": 4391,
      "Ġbreathless": 4392,
      "Ġbreathlessly": 4393,
      "turned": 4394,
      "turning": 4395,
      "vented": 4396,
      "Ġtax": 4397,
      "Ġtapped": 4398,
      "Ġactually": 4399,
      "Ġwallet": 4400,
      "Ġwondering": 4401,
      "ouds": 4402,
      "Ġfinished": 4403,
      "Ġdamn": 4404,
      "anything": 4405,
      "Ġpromised": 4406,
      "Ġspeaking": 4407,
      "Absolutely": 4408,
      "changed": 4409,
      "pole": 4410,
      "Ġwrote": 4411,
      "Ġorders": 4412,
      "clothes": 4413,
      "char": 4414,
      "mpath": 4415,
      "train": 4416,
      "Ġterr": 4417,
      "Ġtense": 4418,
      "Ġsnap": 4419,
      "Ġhesitation": 4420,
      "untarily": 4421,
      "ultaneously": 4422,
      "Ġshadows": 4423,
      "graduate": 4424,
      "Ġfallen": 4425,
      "Ġpower": 4426,
      "Ġpowdered": 4427,
      "impse": 4428,
      "Ġcollap": 4429,
      "Ġkeeping": 4430,
      "voice": 4431,
      "Ġwires": 4432,
      "Ġservice": 4433,
      "Ġbloomed": 4434,
      "Ġcream": 4435,
      "ificance": 4436,
      "ificial": 4437,
      "Ġshoe": 4438,
      "umping": 4439,
      "umphan": 4440,
      "ĠNobody": 4441,
      "Ġautomatically": 4442,
      "disappeared": 4443,
      "iveness": 4444,
      "laugh": 4445,
      "wenty": 4446,
      "Ġverge": 4447,
      "Ġirreg": 4448,
      "interest": 4449,
      "Ġsixty": 4450,
      "Ġfaith": 4451,
      "Ġfailed": 4452,
      "Ġfault": 4453,
      "Ġlisten": 4454,
      "Ġlistening": 4455,
      "Ġphysically": 4456,
      "Ġjoin": 4457,
      "Ġremarks": 4458,
      "Ġobjects": 4459,
      "Ġmotorc": 4460,
      "Anything": 4461,
      "Ġsweat": 4462,
      "ength": 4463,
      "engaged": 4464,
      "Ġclean": 4465,
      "Ġtowel": 4466,
      "Ġgeneral": 4467,
      "Ġrelieved": 4468,
      "Ġpossessed": 4469,
      "Ġincessant": 4470,
      "Ġprivile": 4471,
      "Ġreluctance": 4472,
      "drive": 4473,
      "office": 4474,
      "priate": 4475,
      "Ġdivor": 4476,
      "attress": 4477,
      "Ġpurpose": 4478,
      "Ġregular": 4479,
      "Ġvaguely": 4480,
      "Ġcomplained": 4481,
      "Ġincredulous": 4482,
      "Ġnewspapers": 4483,
      "Ġaccidental": 4484,
      "Ġdoubtfully": 4485,
      "Before": 4486,
      "Ġ1919": 4487,
      "Ġskin": 4488,
      "Ġopportunity": 4489,
      "Ġopposite": 4490,
      "Ġsearched": 4491,
      "Ġconscient": 4492,
      "Ġcocktail": 4493,
      "Ġofficer": 4494,
      "Ġofficers": 4495,
      "Ġdiscreet": 4496,
      "Ġintroduction": 4497,
      "Ġbelonged": 4498,
      "Ġapproached": 4499,
      "Ġextraordinary": 4500,
      "Ġperfectly": 4501,
      "Ġenthusiasm": 4502,
      "Ġenthusiastically": 4503,
      "balls": 4504,
      "couldn": 4505,
      "uppose": 4506,
      "words": 4507,
      "Ġtangible": 4508,
      "Ġwreck": 4509,
      "Ġwreath": 4510,
      "Ġsimpl": 4511,
      "Ġsolid": 4512,
      "Ġhorse": 4513,
      "Ġgleaming": 4514,
      "Ġbending": 4515,
      "Ġbells": 4516,
      "Ġsuperior": 4517,
      "Ġconcealed": 4518,
      "ĠFinnish": 4519,
      "Ġsatisfaction": 4520,
      "Ġembarrassed": 4521,
      "Ġembarrassment": 4522,
      "Doesn": 4523,
      "Ġelevated": 4524,
      "Ġelevator": 4525,
      "darkness": 4526,
      "hundreds": 4527,
      "Ġtemper": 4528,
      "Ġfaster": 4529,
      "Ġfrightened": 4530,
      "Ġlemons": 4531,
      "Ġpressure": 4532,
      "Ġnaturally": 4533,
      "ĠWhile": 4534,
      "Ġradiant": 4535,
      "Ġrumours": 4536,
      "Ġvigil": 4537,
      "Ġshouted": 4538,
      "Ġuniverse": 4539,
      "ĠEngland": 4540,
      "ĠFifth": 4541,
      "ivilization": 4542,
      "Ġcorrect": 4543,
      "understanding": 4544,
      "Ġmagazine": 4545,
      "Ġecstatic": 4546,
      "Ġmirror": 4547,
      "Like": 4548,
      "Yeah": 4549,
      "broken": 4550,
      "human": 4551,
      "Ġestab": 4552,
      "Ġmillion": 4553,
      "Ġmachine": 4554,
      "Ġcyn": 4555,
      "Ġchatter": 4556,
      "Ġcentre": 4557,
      "Ġcostume": 4558,
      "Ġcalmly": 4559,
      "Ġfurniture": 4560,
      "Ġinnumerable": 4561,
      "Ġhorns": 4562,
      "Ġgruff": 4563,
      "Ġpalace": 4564,
      "Ġpearls": 4565,
      "otlegger": 4566,
      "Ġstopping": 4567,
      "Ġliquor": 4568,
      "Ġvicinity": 4569,
      "Ġunutterable": 4570,
      "shoulder": 4571,
      "Ġartificial": 4572,
      "Ġdescribed": 4573,
      "Ġsentimental": 4574,
      "Ġcrimson": 4575,
      "Ġdifficulty": 4576,
      "Ġresolved": 4577,
      "Ġirresistible": 4578,
      "Ġeyebrows": 4579,
      "Really": 4580,
      "counter": 4581,
      "gtion": 4582,
      "iberately": 4583,
      "often": 4584,
      "susp": 4585,
      "Ġtumult": 4586,
      "Ġswaying": 4587,
      "Ġbreeze": 4588,
      "Ġcandles": 4589,
      "Ġfolds": 4590,
      "Ġdestiny": 4591,
      "Ġincoherent": 4592,
      "Ġnostri": 4593,
      "sequence": 4594,
      "Ġthroat": 4595,
      "ĠTostoff": 4596,
      "ĠMetropole": 4597,
      "ĠSuperior": 4598,
      "ĠAiredale": 4599,
      "ĠBarbara": 4600,
      "Ġshrubbery": 4601,
      "Ġunmistak": 4602,
      "Ġexactly": 4603,
      "Ġjulep": 4604,
      "ĠCivet": 4605,
      "Ġoranges": 4606,
      "Ġhandkerchief": 4607,
      "ĠOctober": 4608,
      "Ġarrangement": 4609,
      "beautiful": 4610,
      "Ġperceptible": 4611,
      "Ġirregular": 4612,
      ".âĢĶ": 4613,
      ".âĢĶâĢĿ": 4614,
      "Back": 4615,
      "Cl": 4616,
      "Cross": 4617,
      "Certain": 4618,
      "Crazy": 4619,
      "Dan": 4620,
      "East": 4621,
      "Every": 4622,
      "Egg": 4623,
      "Evidently": 4624,
      "Eckleburg": 4625,
      "Everybody": 4626,
      "Excuse": 4627,
      "Five": 4628,
      "George": 4629,
      "James": 4630,
      "Jazz": 4631,
      "Le": 4632,
      "Little": 4633,
      "Lake": 4634,
      "Louisville": 4635,
      "Meyer": 4636,
      "Neither": 4637,
      "Or": 4638,
      "Open": 4639,
      "Oxford": 4640,
      "Pl": 4641,
      "Ro": 4642,
      "Sh": 4643,
      "Sit": 4644,
      "Sel": 4645,
      "Sound": 4646,
      "Sure": 4647,
      "Something": 4648,
      "Sorry": 4649,
      "Shall": 4650,
      "Several": 4651,
      "Suppose": 4652,
      "Tw": 4653,
      "Turn": 4654,
      "Taking": 4655,
      "Un": 4656,
      "Wha": 4657,
      "Would": 4658,
      "West": 4659,
      "aked": 4660,
      "aust": 4661,
      "aused": 4662,
      "aires": 4663,
      "ailles": 4664,
      "bu": 4665,
      "ban": 4666,
      "bid": 4667,
      "bew": 4668,
      "bus": 4669,
      "book": 4670,
      "buck": 4671,
      "basket": 4672,
      "bureau": 4673,
      "bbles": 4674,
      "cour": 4675,
      "cest": 4676,
      "cul": 4677,
      "cking": 4678,
      "cious": 4679,
      "cles": 4680,
      "ches": 4681,
      "case": 4682,
      "crossed": 4683,
      "cinated": 4684,
      "cilious": 4685,
      "dly": 4686,
      "dour": 4687,
      "dge": 4688,
      "die": 4689,
      "doll": 4690,
      "demand": 4691,
      "dressed": 4692,
      "daughter": 4693,
      "eor": 4694,
      "eke": 4695,
      "eight": 4696,
      "fa": 4697,
      "fs": 4698,
      "fic": 4699,
      "fide": 4700,
      "fright": 4701,
      "father": 4702,
      "faint": 4703,
      "felt": 4704,
      "foot": 4705,
      "freed": 4706,
      "finger": 4707,
      "ger": 4708,
      "gen": 4709,
      "gion": 4710,
      "gain": 4711,
      "gun": 4712,
      "gest": 4713,
      "give": 4714,
      "gree": 4715,
      "gold": 4716,
      "gency": 4717,
      "hs": 4718,
      "hou": 4719,
      "hol": 4720,
      "hop": 4721,
      "hip": 4722,
      "high": 4723,
      "hung": 4724,
      "holding": 4725,
      "hilar": 4726,
      "hurried": 4727,
      "ik": 4728,
      "ipp": 4729,
      "iest": 4730,
      "iod": 4731,
      "ived": 4732,
      "iation": 4733,
      "iably": 4734,
      "ipping": 4735,
      "iative": 4736,
      "iency": 4737,
      "jam": 4738,
      "jug": 4739,
      "known": 4740,
      "lv": 4741,
      "later": 4742,
      "lished": 4743,
      "life": 4744,
      "lingly": 4745,
      "lined": 4746,
      "lunch": 4747,
      "lcome": 4748,
      "ladm": 4749,
      "loneliness": 4750,
      "mit": 4751,
      "mag": 4752,
      "must": 4753,
      "mod": 4754,
      "mers": 4755,
      "mpt": 4756,
      "make": 4757,
      "maid": 4758,
      "moon": 4759,
      "minded": 4760,
      "nis": 4761,
      "nce": 4762,
      "nted": 4763,
      "name": 4764,
      "nec": 4765,
      "nell": 4766,
      "nod": 4767,
      "nice": 4768,
      "near": 4769,
      "nment": 4770,
      "nerv": 4771,
      "oe": 4772,
      "ointed": 4773,
      "osition": 4774,
      "pre": 4775,
      "pur": 4776,
      "port": 4777,
      "plo": 4778,
      "pau": 4779,
      "pull": 4780,
      "pired": 4781,
      "pool": 4782,
      "pret": 4783,
      "pushed": 4784,
      "porch": 4785,
      "prec": 4786,
      "pract": 4787,
      "piration": 4788,
      "ron": 4789,
      "rid": 4790,
      "ram": 4791,
      "rais": 4792,
      "ration": 4793,
      "rical": 4794,
      "ridge": 4795,
      "sent": 4796,
      "sur": 4797,
      "sick": 4798,
      "such": 4799,
      "shad": 4800,
      "sank": 4801,
      "sorry": 4802,
      "tent": 4803,
      "tur": 4804,
      "town": 4805,
      "tun": 4806,
      "take": 4807,
      "talked": 4808,
      "tically": 4809,
      "uol": 4810,
      "uated": 4811,
      "uend": 4812,
      "ups": 4813,
      "ubl": 4814,
      "ude": 4815,
      "uits": 4816,
      "vi": 4817,
      "vis": 4818,
      "vag": 4819,
      "vast": 4820,
      "vator": 4821,
      "vading": 4822,
      "wed": 4823,
      "wit": 4824,
      "won": 4825,
      "wais": 4826,
      "ware": 4827,
      "wich": 4828,
      "walked": 4829,
      "walking": 4830,
      "world": 4831,
      "wait": 4832,
      "xim": 4833,
      "xoph": 4834,
      "your": 4835,
      "year": 4836,
      "yellow": 4837,
      "ycle": 4838,
      "ympath": 4839,
      "zed": 4840,
      "Ġ$": 4841,
      "Ġ5": 4842,
      "Ġ6": 4843,
      "Ġ7": 4844,
      "Ġ[": 4845,
      "Ġer": 4846,
      "Ġid": 4847,
      "Ġiv": 4848,
      "Ġuttered": 4849,
      "Ġtall": 4850,
      "Ġtun": 4851,
      "Ġtest": 4852,
      "Ġtong": 4853,
      "Ġtide": 4854,
      "Ġtig": 4855,
      "Ġtap": 4856,
      "Ġtough": 4857,
      "Ġtumbled": 4858,
      "Ġtiny": 4859,
      "heart": 4860,
      "inen": 4861,
      "inent": 4862,
      "inth": 4863,
      "inate": 4864,
      "inished": 4865,
      "inized": 4866,
      "informed": 4867,
      "Ġwing": 4868,
      "Ġwest": 4869,
      "Ġwist": 4870,
      "Ġwake": 4871,
      "Ġwave": 4872,
      "Ġwish": 4873,
      "Ġwoke": 4874,
      "Ġwicker": 4875,
      "Ġsom": 4876,
      "Ġsir": 4877,
      "Ġsout": 4878,
      "Ġsch": 4879,
      "Ġsang": 4880,
      "Ġsought": 4881,
      "Ġsank": 4882,
      "Ġsouth": 4883,
      "Ġsoul": 4884,
      "Ġsource": 4885,
      "Ġsympath": 4886,
      "Ġtheat": 4887,
      "Ġoil": 4888,
      "Ġowe": 4889,
      "Ġorig": 4890,
      "Ġodour": 4891,
      "edy": 4892,
      "erb": 4893,
      "erous": 4894,
      "erting": 4895,
      "erably": 4896,
      "erned": 4897,
      "ertly": 4898,
      "eremon": 4899,
      "ouven": 4900,
      "has": 4901,
      "haven": 4902,
      "haired": 4903,
      "hamed": 4904,
      "haught": 4905,
      "hampt": 4906,
      "rele": 4907,
      "requ": 4908,
      "reement": 4909,
      "revol": 4910,
      "Ġming": 4911,
      "Ġmas": 4912,
      "Ġmid": 4913,
      "Ġmain": 4914,
      "Ġmassed": 4915,
      "Ġmaid": 4916,
      "Ġmumbled": 4917,
      "Ġmajor": 4918,
      "Ġmaterial": 4919,
      "Ġmattress": 4920,
      "itew": 4921,
      "itting": 4922,
      "itself": 4923,
      "itary": 4924,
      "itement": 4925,
      "itatively": 4926,
      "itiative": 4927,
      "itude": 4928,
      "Ġbon": 4929,
      "Ġbow": 4930,
      "Ġbir": 4931,
      "Ġband": 4932,
      "Ġbag": 4933,
      "Ġbord": 4934,
      "Ġbill": 4935,
      "Ġbul": 4936,
      "Ġbum": 4937,
      "Ġborn": 4938,
      "Ġbened": 4939,
      "Ġbunch": 4940,
      "Ġbrave": 4941,
      "Ġbird": 4942,
      "Ġbatt": 4943,
      "Ġbisc": 4944,
      "Ġbaby": 4945,
      "Ġbrakes": 4946,
      "Ġbizarre": 4947,
      "Ġborrowed": 4948,
      "isk": 4949,
      "isha": 4950,
      "ises": 4951,
      "isher": 4952,
      "enon": 4953,
      "enes": 4954,
      "enant": 4955,
      "ench": 4956,
      "enry": 4957,
      "enough": 4958,
      "enny": 4959,
      "enced": 4960,
      "inguished": 4961,
      "Ġcro": 4962,
      "Ġcem": 4963,
      "Ġcrou": 4964,
      "Ġcell": 4965,
      "Ġcute": 4966,
      "Ġcater": 4967,
      "Ġcross": 4968,
      "Ġcup": 4969,
      "Ġcaut": 4970,
      "Ġcoward": 4971,
      "Ġcrossed": 4972,
      "Ġcakes": 4973,
      "Ġcooked": 4974,
      "Ġcentral": 4975,
      "Ġcries": 4976,
      "Ġcivilization": 4977,
      "Ġcups": 4978,
      "Ġceremon": 4979,
      "âĢľâĢĶ": 4980,
      "Ġfly": 4981,
      "Ġfac": 4982,
      "Ġfem": 4983,
      "Ġfill": 4984,
      "Ġfart": 4985,
      "Ġfare": 4986,
      "Ġfood": 4987,
      "Ġfru": 4988,
      "Ġfail": 4989,
      "Ġfumbled": 4990,
      "Ġfoul": 4991,
      "Ġfavour": 4992,
      "oner": 4993,
      "onic": 4994,
      "onour": 4995,
      "Ġtot": 4996,
      "âĢĻ,": 4997,
      "âĢĻ?": 4998,
      "orid": 4999,
      "orus": 5000,
      "orious": 5001,
      "orily": 5002,
      "asp": 5003,
      "ases": 5004,
      "asion": 5005,
      "asted": 5006,
      "asped": 5007,
      "asping": 5008,
      "Ġdi": 5009,
      "Ġdin": 5010,
      "Ġdil": 5011,
      "Ġdew": 5012,
      "Ġdull": 5013,
      "Ġdue": 5014,
      "Ġduck": 5015,
      "Ġdirty": 5016,
      "Ġdumb": 5017,
      "Ġdrows": 5018,
      "Ġditch": 5019,
      "Ġinher": 5020,
      "Ġinfinitely": 5021,
      "Ġinitiative": 5022,
      "Ġhen": 5023,
      "Ġhell": 5024,
      "Ġheap": 5025,
      "Ġhello": 5026,
      "Ġhedge": 5027,
      "oms": 5028,
      "omes": 5029,
      "Ġling": 5030,
      "Ġlat": 5031,
      "Ġlur": 5032,
      "Ġlone": 5033,
      "Ġlust": 5034,
      "Ġlather": 5035,
      "Ġlang": 5036,
      "Ġlined": 5037,
      "Ġluck": 5038,
      "Ġlinger": 5039,
      "Ġlength": 5040,
      "Ġlinen": 5041,
      "Ġlasted": 5042,
      "arl": 5043,
      "arri": 5044,
      "arch": 5045,
      "armed": 5046,
      "armist": 5047,
      "argument": 5048,
      "arrowed": 5049,
      "ariably": 5050,
      "Ġhoney": 5051,
      "Ġhunted": 5052,
      "Ġhulking": 5053,
      "Ġhovering": 5054,
      "Ġhonour": 5055,
      "lly": 5056,
      "llen": 5057,
      "lling": 5058,
      "llence": 5059,
      "athe": 5060,
      "aten": 5061,
      "atform": 5062,
      "atitude": 5063,
      "esc": 5064,
      "esn": 5065,
      "esides": 5066,
      "esota": 5067,
      "ano": 5068,
      "anes": 5069,
      "anno": 5070,
      "anations": 5071,
      "ania": 5072,
      "ancho": 5073,
      "anitor": 5074,
      "Ġgy": 5075,
      "Ġgown": 5076,
      "Ġgird": 5077,
      "Ġgrowing": 5078,
      "Ġgazed": 5079,
      "Ġghast": 5080,
      "Ġpit": 5081,
      "Ġpic": 5082,
      "Ġpet": 5083,
      "Ġpain": 5084,
      "Ġprou": 5085,
      "Ġpip": 5086,
      "Ġpaint": 5087,
      "Ġpairs": 5088,
      "Ġpaid": 5089,
      "Ġpages": 5090,
      "Ġpump": 5091,
      "Ġpantry": 5092,
      "Ġpush": 5093,
      "Ġpenn": 5094,
      "Ġphase": 5095,
      "Ġpaternal": 5096,
      "Ġpaused": 5097,
      "Ġhated": 5098,
      "Ġhaught": 5099,
      "owly": 5100,
      "owered": 5101,
      "leaned": 5102,
      "leaning": 5103,
      "leaf": 5104,
      "leaving": 5105,
      "Ġwasting": 5106,
      "uther": 5107,
      "utenant": 5108,
      "idence": 5109,
      "Ġnumb": 5110,
      "Ġnature": 5111,
      "Ġnarrowed": 5112,
      "stay": 5113,
      "start": 5114,
      "stained": 5115,
      "stantly": 5116,
      "strugg": 5117,
      "storia": 5118,
      "icke": 5119,
      "icity": 5120,
      "icited": 5121,
      "icabs": 5122,
      "Ġeast": 5123,
      "imal": 5124,
      "impl": 5125,
      "immed": 5126,
      "immedi": 5127,
      "Ġbear": 5128,
      "Ġbeard": 5129,
      "Ġbegg": 5130,
      "Ġbeamed": 5131,
      "vering": 5132,
      "vernment": 5133,
      "entous": 5134,
      "ential": 5135,
      "veal": 5136,
      "velled": 5137,
      "ette": 5138,
      "etery": 5139,
      "sea": 5140,
      "seen": 5141,
      "seas": 5142,
      "seem": 5143,
      "seven": 5144,
      "several": 5145,
      "second": 5146,
      "season": 5147,
      "seventeen": 5148,
      "Ġthird": 5149,
      "Ġthrob": 5150,
      "Ġthorough": 5151,
      "aylor": 5152,
      "oted": 5153,
      "accepted": 5154,
      "lder": 5155,
      "ldoon": 5156,
      "iring": 5157,
      "roc": 5158,
      "roke": 5159,
      "roach": 5160,
      "rogant": 5161,
      "ĠâĢľâĢĶ": 5162,
      "alf": 5163,
      "alto": 5164,
      "alone": 5165,
      "along": 5166,
      "almost": 5167,
      "rier": 5168,
      "riages": 5169,
      "rigu": 5170,
      "ribly": 5171,
      "ĠTwenty": 5172,
      "ĠTuol": 5173,
      "Ġstre": 5174,
      "Ġstur": 5175,
      "Ġstare": 5176,
      "Ġstup": 5177,
      "Ġstud": 5178,
      "Ġstove": 5179,
      "Ġstruck": 5180,
      "Ġstroke": 5181,
      "Ġate": 5182,
      "Ġattain": 5183,
      "ury": 5184,
      "urance": 5185,
      "ada": 5186,
      "adv": 5187,
      "ader": 5188,
      "adour": 5189,
      "adame": 5190,
      "adies": 5191,
      "added": 5192,
      "adays": 5193,
      "adition": 5194,
      "address": 5195,
      "oolly": 5196,
      "Ġanch": 5197,
      "Ġancest": 5198,
      "Ġherself": 5199,
      "aming": 5200,
      "amour": 5201,
      "ambl": 5202,
      "Ġforced": 5203,
      "Ġforms": 5204,
      "ionless": 5205,
      "Ġret": 5206,
      "Ġrepl": 5207,
      "Ġrent": 5208,
      "Ġrevel": 5209,
      "Ġrevol": 5210,
      "Ġreappeared": 5211,
      "Ġrented": 5212,
      "Ġashen": 5213,
      "iless": 5214,
      "ilty": 5215,
      "Ġwhim": 5216,
      "Ġwholes": 5217,
      "Ġwhitew": 5218,
      "Ġsave": 5219,
      "Ġsail": 5220,
      "Ġsauntered": 5221,
      "Ġsaxoph": 5222,
      "ĠGre": 5223,
      "ĠGad": 5224,
      "ĠGerman": 5225,
      "Ġlied": 5226,
      "Ġliable": 5227,
      "Ġshelf": 5228,
      "Ġsheep": 5229,
      "omee": 5230,
      "andal": 5231,
      "andoned": 5232,
      "atspau": 5233,
      "ceiling": 5234,
      "cellence": 5235,
      "aine": 5236,
      "alls": 5237,
      "allic": 5238,
      "ĠMc": 5239,
      "ĠMum": 5240,
      "ĠMost": 5241,
      "ĠMinn": 5242,
      "ĠMcK": 5243,
      "ĠMond": 5244,
      "anted": 5245,
      "antel": 5246,
      "ĠWar": 5247,
      "ĠWestern": 5248,
      "Ġsend": 5249,
      "Ġseat": 5250,
      "Ġsees": 5251,
      "Ġseats": 5252,
      "Ġseized": 5253,
      "Ġseason": 5254,
      "Ġsends": 5255,
      "Ġseventeen": 5256,
      "told": 5257,
      "Ġra": 5258,
      "Ġring": 5259,
      "Ġrag": 5260,
      "Ġrate": 5261,
      "Ġround": 5262,
      "Ġrare": 5263,
      "Ġrap": 5264,
      "Ġrough": 5265,
      "Ġrise": 5266,
      "Ġracy": 5267,
      "Ġrotten": 5268,
      "Ġrules": 5269,
      "outhampt": 5270,
      "empor": 5271,
      "ĠĠĠĠĠĠĠ": 5272,
      "Ġwearing": 5273,
      "Ġweeke": 5274,
      "Ġwelcome": 5275,
      "Ġsuite": 5276,
      "Ġsuits": 5277,
      "Ġoutdoors": 5278,
      "arding": 5279,
      "orest": 5280,
      "ĠDa": 5281,
      "ĠDe": 5282,
      "ĠDu": 5283,
      "ĠDon": 5284,
      "ĠDoc": 5285,
      "ĠDidn": 5286,
      "ĠDetro": 5287,
      "essions": 5288,
      "essential": 5289,
      "child": 5290,
      "oling": 5291,
      "olic": 5292,
      "olated": 5293,
      "oluntarily": 5294,
      "ĠSl": 5295,
      "ĠSea": 5296,
      "ĠSimon": 5297,
      "ĠSept": 5298,
      "ĠSnell": 5299,
      "ĠSitting": 5300,
      "ĠSouthampt": 5301,
      "oured": 5302,
      "ourne": 5303,
      "ustle": 5304,
      "ousers": 5305,
      "Ġabort": 5306,
      "Ġabandoned": 5307,
      "hings": 5308,
      "ssip": 5309,
      "unting": 5310,
      "unty": 5311,
      "until": 5312,
      "unusual": 5313,
      "Ġknocked": 5314,
      "Ġbutton": 5315,
      "Ġbuttons": 5316,
      "ecil": 5317,
      "ecially": 5318,
      "onged": 5319,
      "ellig": 5320,
      "ellery": 5321,
      "ĠAn": 5322,
      "ĠAug": 5323,
      "ĠAlmost": 5324,
      "ĠAlb": 5325,
      "using": 5326,
      "usive": 5327,
      "usually": 5328,
      "ĠBec": 5329,
      "Ġval": 5330,
      "Ġvill": 5331,
      "Ġvict": 5332,
      "Ġvines": 5333,
      "eless": 5334,
      "eline": 5335,
      "quin": 5336,
      "Ġsogg": 5337,
      "Ġsoothing": 5338,
      "Ġsofa": 5339,
      "Ġovertaking": 5340,
      "Ġoverseas": 5341,
      "oding": 5342,
      "oddly": 5343,
      "These": 5344,
      "Their": 5345,
      "Ġshop": 5346,
      "inds": 5347,
      "ords": 5348,
      "ording": 5349,
      "Ġalert": 5350,
      "Ġalertly": 5351,
      "Ġgovernment": 5352,
      "Ġgossip": 5353,
      "acks": 5354,
      "Ġspl": 5355,
      "Ġsped": 5356,
      "Ġspir": 5357,
      "Ġspace": 5358,
      "Ġspree": 5359,
      "Ġspect": 5360,
      "Ġspee": 5361,
      "aste": 5362,
      "asting": 5363,
      "Ġuncom": 5364,
      "Ġunbel": 5365,
      "Ġunrolled": 5366,
      "Ġunwill": 5367,
      "Ġunbroken": 5368,
      "Ġunusually": 5369,
      "Ġconce": 5370,
      "Ġconting": 5371,
      "Ġconsequence": 5372,
      "ulse": 5373,
      "ulting": 5374,
      "ulated": 5375,
      "ulating": 5376,
      "loved": 5377,
      "Ġexting": 5378,
      "Ġexper": 5379,
      "hedule": 5380,
      "ums": 5381,
      "umin": 5382,
      "umpt": 5383,
      "umph": 5384,
      "Ġrob": 5385,
      "Ġroof": 5386,
      "Ġroared": 5387,
      "Ġrosy": 5388,
      "Ġju": 5389,
      "Ġjut": 5390,
      "Ġjail": 5391,
      "Ġjazz": 5392,
      "Ġjanitor": 5393,
      "Ġlever": 5394,
      "Ġlege": 5395,
      "Ġleaking": 5396,
      "Ġlevel": 5397,
      "Ġlearn": 5398,
      "Ġnephe": 5399,
      "auk": 5400,
      "opened": 5401,
      "Ġagg": 5402,
      "Ġagreement": 5403,
      "ĠCo": 5404,
      "ĠCon": 5405,
      "ĠCol": 5406,
      "ĠCast": 5407,
      "ĠCity": 5408,
      "ĠCont": 5409,
      "ĠCath": 5410,
      "ĠConey": 5411,
      "ĠClau": 5412,
      "ĠCalled": 5413,
      "Ġisland": 5414,
      "Ġissued": 5415,
      "ersailles": 5416,
      "ership": 5417,
      "ndered": 5418,
      "Ġanywhere": 5419,
      "cket": 5420,
      "earance": 5421,
      "earnest": 5422,
      "ths": 5423,
      "thick": 5424,
      "third": 5425,
      "thousand": 5426,
      "thrilling": 5427,
      "Ġcarpet": 5428,
      "ĠNord": 5429,
      "ĠNove": 5430,
      "ĠNext": 5431,
      "ĠNorth": 5432,
      "ounding": 5433,
      "Ġnotes": 5434,
      "icken": 5435,
      "ĠEven": 5436,
      "ĠEach": 5437,
      "ĠExcuse": 5438,
      "ĠEastern": 5439,
      "ĠHor": 5440,
      "ĠHist": 5441,
      "ĠHenry": 5442,
      "istic": 5443,
      "isticated": 5444,
      "Ġtrick": 5445,
      "Ġtradition": 5446,
      "Ġtimetable": 5447,
      "Ġtwisting": 5448,
      "ffic": 5449,
      "arest": 5450,
      "shirt": 5451,
      "Ġolder": 5452,
      "rounded": 5453,
      "Ġmoments": 5454,
      "Ġmomentary": 5455,
      "Ġglare": 5456,
      "Ġglancing": 5457,
      "Ġglazed": 5458,
      "Ġglistening": 5459,
      "Ġglimpse": 5460,
      "Ġcover": 5461,
      "Ġcoinc": 5462,
      "Ġoffered": 5463,
      "ĠOur": 5464,
      "ĠOwl": 5465,
      "Ġarg": 5466,
      "Ġargument": 5467,
      "Ġarrogant": 5468,
      "Ġfluct": 5469,
      "Ġflicker": 5470,
      "Ġflashing": 5471,
      "Ġflavour": 5472,
      "Ġflorid": 5473,
      "Ġsmashed": 5474,
      "Ġdoors": 5475,
      "Ġdoorway": 5476,
      "ples": 5477,
      "plum": 5478,
      "plicable": 5479,
      "ĠFrom": 5480,
      "ĠFather": 5481,
      "ĠFifty": 5482,
      "ĠFinally": 5483,
      "rub": 5484,
      "spaper": 5485,
      "spread": 5486,
      "sperous": 5487,
      "Ġbegin": 5488,
      "Ġbegins": 5489,
      "nosed": 5490,
      "ulls": 5491,
      "Ġpeered": 5492,
      "Ġpeering": 5493,
      "Ġpebbles": 5494,
      "Ġdeft": 5495,
      "Ġdevil": 5496,
      "Ġcannot": 5497,
      "Ġplaid": 5498,
      "Ġplatform": 5499,
      "Ġloaf": 5500,
      "ngry": 5501,
      "Ġblazing": 5502,
      "Ġeverywhere": 5503,
      "Ġshade": 5504,
      "Ġshame": 5505,
      "actory": 5506,
      "Ġunderne": 5507,
      "Ġunderwear": 5508,
      "Ġundergraduate": 5509,
      "Ġacute": 5510,
      "lessness": 5511,
      "Ġamazing": 5512,
      "Ġwail": 5513,
      "Ġwaving": 5514,
      "Ġwaves": 5515,
      "Ġwavered": 5516,
      "Ġposit": 5517,
      "next": 5518,
      "ueens": 5519,
      "ĠLake": 5520,
      "ĠLook": 5521,
      "ĠLuther": 5522,
      "ucer": 5523,
      "Ġslip": 5524,
      "Ġslipped": 5525,
      "Ġslapping": 5526,
      "Ġdriven": 5527,
      "Ġdrifting": 5528,
      "Ġdrizz": 5529,
      "bert": 5530,
      "week": 5531,
      "Ġprep": 5532,
      "Ġscre": 5533,
      "Ġscient": 5534,
      "Ġscience": 5535,
      "Ġscrut": 5536,
      "Ġscenes": 5537,
      "Ġscandal": 5538,
      "Ġschedule": 5539,
      "Ġbox": 5540,
      "Ġboom": 5541,
      "Ġboard": 5542,
      "anged": 5543,
      "angle": 5544,
      "Ġfever": 5545,
      "Ġdisquiet": 5546,
      "ancis": 5547,
      "ancies": 5548,
      "Ġcontained": 5549,
      "Ġcontribut": 5550,
      "Ġaren": 5551,
      "butler": 5552,
      "coat": 5553,
      "izes": 5554,
      "izable": 5555,
      "Ġheadlights": 5556,
      "tee": 5557,
      "ĠPar": 5558,
      "ĠPalm": 5559,
      "ĠProb": 5560,
      "ĠPoint": 5561,
      "ĠPeter": 5562,
      "ĠYes": 5563,
      "beg": 5564,
      "been": 5565,
      "behind": 5566,
      "beyond": 5567,
      "ivion": 5568,
      "ivably": 5569,
      "Ġswing": 5570,
      "Ġswore": 5571,
      "Ġswell": 5572,
      "Ġsworn": 5573,
      "Ġswung": 5574,
      "Ġswoon": 5575,
      "Ġswept": 5576,
      "Ġswamps": 5577,
      "Ġswollen": 5578,
      "perately": 5579,
      "Ġchorus": 5580,
      "Ġchords": 5581,
      "Ġchicken": 5582,
      "Ġincident": 5583,
      "Ġworking": 5584,
      "Ġbrother": 5585,
      "Ġbrushed": 5586,
      "Ġbrisk": 5587,
      "Ġintending": 5588,
      "Ġgrown": 5589,
      "Ġgranted": 5590,
      "Ġhandsome": 5591,
      "ĠĠĠĠĠĠĠĠĠĠĠĠĠĠĠĠĠĠĠĠĠĠĠĠĠĠĠĠ": 5592,
      "ĠĠĠĠĠĠĠĠĠĠĠĠĠĠĠĠĠĠĠĠĠĠĠ": 5593,
      "Ġimposs": 5594,
      "Ġimpressive": 5595,
      "Ġimproving": 5596,
      "Ġimpulse": 5597,
      "Ġcouples": 5598,
      "Ġharm": 5599,
      "Ġhappiness": 5600,
      "Ġhappens": 5601,
      "Ġhappening": 5602,
      "Ġfrowning": 5603,
      "eezed": 5604,
      "feet": 5605,
      "Ġobs": 5606,
      "Ġobst": 5607,
      "Ġafternoons": 5608,
      "Ġalongside": 5609,
      "fulness": 5610,
      "Ġmarrying": 5611,
      "Ġclim": 5612,
      "Ġclicked": 5613,
      "Ġclub": 5614,
      "Ġclouds": 5615,
      "Ġdrain": 5616,
      "Ġdrinking": 5617,
      "Ġdrowned": 5618,
      "Ġintermit": 5619,
      "Ġbreathing": 5620,
      "Ġbreeding": 5621,
      "Ġdesired": 5622,
      "Ġdesign": 5623,
      "Ġinvent": 5624,
      "Ġinvest": 5625,
      "Ġinventions": 5626,
      "Ġinvitation": 5627,
      "Ġinvariably": 5628,
      "Ġinvoluntarily": 5629,
      "Ġprof": 5630,
      "Ġprovid": 5631,
      "Ġprocess": 5632,
      "Ġprovinc": 5633,
      "sitting": 5634,
      "sities": 5635,
      "Ġtelephoned": 5636,
      "Ġadjust": 5637,
      "Ġadvent": 5638,
      "Ġowned": 5639,
      "Ġmusty": 5640,
      "Ġsilk": 5641,
      "Ġsilhou": 5642,
      "Ġinquest": 5643,
      "Ġends": 5644,
      "Ġendure": 5645,
      "Ġstrain": 5646,
      "Ġstrong": 5647,
      "Ġresting": 5648,
      "luence": 5649,
      "ishment": 5650,
      "Ġsuppl": 5651,
      "Ġsupport": 5652,
      "Ġexpress": 5653,
      "ignant": 5654,
      "suous": 5655,
      "whose": 5656,
      "brace": 5657,
      "brother": 5658,
      "Ġappearance": 5659,
      "introd": 5660,
      "Ġsurer": 5661,
      "ĠInstead": 5662,
      "Ġcompre": 5663,
      "Ġcomple": 5664,
      "Ġcompany": 5665,
      "Ġcourtes": 5666,
      "leash": 5667,
      "Ġstandard": 5668,
      "Ġsunken": 5669,
      "appro": 5670,
      "shes": 5671,
      "Ġrealizing": 5672,
      "Ġconfid": 5673,
      "Ġconfirm": 5674,
      "Ġconfirmed": 5675,
      "Ġroadster": 5676,
      "Ġroadhouse": 5677,
      "mystery": 5678,
      "many": 5679,
      "ĠRes": 5680,
      "ĠRise": 5681,
      "Ġtremend": 5682,
      "Ġcareer": 5683,
      "Ġdrops": 5684,
      "iffon": 5685,
      "defer": 5686,
      "meet": 5687,
      "slight": 5688,
      "slightly": 5689,
      "upation": 5690,
      "Ġdecision": 5691,
      "Ġhush": 5692,
      "Ġhushed": 5693,
      "uttering": 5694,
      "Ġplaying": 5695,
      "However": 5696,
      "scene": 5697,
      "whereupon": 5698,
      "Ġadding": 5699,
      "Ġguilty": 5700,
      "Ġemplo": 5701,
      "Ġwhispers": 5702,
      "occ": 5703,
      "ocious": 5704,
      "ociated": 5705,
      "Ġauthen": 5706,
      "Ġsentence": 5707,
      "Ġmatters": 5708,
      "Ġbedrooms": 5709,
      "Ġcheer": 5710,
      "Ġcheck": 5711,
      "Ġcheap": 5712,
      "Ġmeans": 5713,
      "Ġmeaning": 5714,
      "Ġabsolute": 5715,
      "ĠBuchanans": 5716,
      "ĠChryst": 5717,
      "Ġaccoun": 5718,
      "Ġaccused": 5719,
      "Ġaccording": 5720,
      "Whenever": 5721,
      "conv": 5722,
      "conceal": 5723,
      "confused": 5724,
      "conception": 5725,
      "Ġideas": 5726,
      "isely": 5727,
      "ormal": 5728,
      "Ġhearse": 5729,
      "Ġshortcut": 5730,
      "Ġpresident": 5731,
      "urious": 5732,
      "Ġcrick": 5733,
      "Ġcracked": 5734,
      "Ġfarm": 5735,
      "Ġtowns": 5736,
      "Ġhotel": 5737,
      "Ġprac": 5738,
      "Ġprinted": 5739,
      "Ġstarts": 5740,
      "Ġstartlingly": 5741,
      "ĠStar": 5742,
      "ĠStudy": 5743,
      "Ġexploded": 5744,
      "Ġexplanations": 5745,
      "bootlegger": 5746,
      "Ġriver": 5747,
      "Ġawful": 5748,
      "Ġawoke": 5749,
      "Ġsettee": 5750,
      "Ġbusy": 5751,
      "Ġfella": 5752,
      "Ġfellas": 5753,
      "Ġhowever": 5754,
      "Ġruns": 5755,
      "Ġsuggest": 5756,
      "Ġcommanded": 5757,
      "Ġarrive": 5758,
      "Ġarrivals": 5759,
      "days": 5760,
      "finally": 5761,
      "Ġaffected": 5762,
      "Ġaffection": 5763,
      "Ġwilling": 5764,
      "Ġcircles": 5765,
      "Ġcircular": 5766,
      "Ġhelplessly": 5767,
      "Ġhelpless": 5768,
      "Ġattach": 5769,
      "Ġraining": 5770,
      "Ġremembering": 5771,
      "Ġpersonality": 5772,
      "Ġmurmurous": 5773,
      "ibilities": 5774,
      "lingered": 5775,
      "soft": 5776,
      "soever": 5777,
      "Ã©s": 5778,
      "Ġfloated": 5779,
      "Ġfloating": 5780,
      "Ġindic": 5781,
      "Ġindec": 5782,
      "Ġindivid": 5783,
      "Ġhurt": 5784,
      "Ġhurry": 5785,
      "Ġhurrying": 5786,
      "Ġsecure": 5787,
      "Ġchairs": 5788,
      "coming": 5789,
      "common": 5790,
      "ogy": 5791,
      "ĠKatspau": 5792,
      "Ġwheat": 5793,
      "Ġbuild": 5794,
      "Ġcorrug": 5795,
      "Ġcorrob": 5796,
      "Ġdistur": 5797,
      "Ġdistorted": 5798,
      "Ġdistinguished": 5799,
      "Ġdistaste": 5800,
      "Ġhighballs": 5801,
      "Ġhalls": 5802,
      "Ġreply": 5803,
      "Ġrepair": 5804,
      "Ġreporter": 5805,
      "Ġreproach": 5806,
      "Ġcoldly": 5807,
      "Ġactual": 5808,
      "Ġfinal": 5809,
      "Ġforehead": 5810,
      "anybody": 5811,
      "Ġpromising": 5812,
      "Ġeleven": 5813,
      "Ġsubway": 5814,
      "Ġdeeper": 5815,
      "afterward": 5816,
      "frowned": 5817,
      "poss": 5818,
      "pocket": 5819,
      "Ġmoths": 5820,
      "Ġmotionless": 5821,
      "Ġinstead": 5822,
      "Ġreading": 5823,
      "Ġkinds": 5824,
      "Ġkindly": 5825,
      "Ġunderstandingly": 5826,
      "Ġcouple": 5827,
      "Ġwarmth": 5828,
      "clan": 5829,
      "clam": 5830,
      "mblance": 5831,
      "trans": 5832,
      "tracted": 5833,
      "ĠVII": 5834,
      "Ġterms": 5835,
      "Ġtenor": 5836,
      "Ġtennis": 5837,
      "ences": 5838,
      "encies": 5839,
      "Ġlargest": 5840,
      "Ġgroped": 5841,
      "Ġgroaned": 5842,
      "Ġrepeat": 5843,
      "ĠMonte": 5844,
      "ĠMontauk": 5845,
      "unts": 5846,
      "untily": 5847,
      "Ġwildly": 5848,
      "Ġmuscle": 5849,
      "Ġcigar": 5850,
      "Ġfalling": 5851,
      "Ġdelight": 5852,
      "Ġdelighted": 5853,
      "Ġpowerful": 5854,
      "Ġpowder": 5855,
      "Ġpleasantly": 5856,
      "Ġeagerness": 5857,
      "impression": 5858,
      "Ġrule": 5859,
      "Ġrude": 5860,
      "Ġraising": 5861,
      "Ġcollar": 5862,
      "Ġdisappro": 5863,
      "Ġdisappoint": 5864,
      "Ġdisappointed": 5865,
      "Ġadmired": 5866,
      "Ġadmiration": 5867,
      "Ġadmission": 5868,
      "voices": 5869,
      "Ġeducated": 5870,
      "Ġsqueezed": 5871,
      "itches": 5872,
      "Ġblond": 5873,
      "Ġbloss": 5874,
      "Ġblocked": 5875,
      "Ġcrept": 5876,
      "Ġfootball": 5877,
      "Ġfootsteps": 5878,
      "Ġdetail": 5879,
      "Ġduster": 5880,
      "Ġhoped": 5881,
      "Ġviolence": 5882,
      "Ġshoes": 5883,
      "Ġpointlessly": 5884,
      "Ġanswering": 5885,
      "disc": 5886,
      "ierce": 5887,
      "window": 5888,
      "Ġtrip": 5889,
      "Ġtries": 5890,
      "Ġtribute": 5891,
      "Ġtriumphan": 5892,
      "Ġapartments": 5893,
      "Ġsadness": 5894,
      "Ġmistress": 5895,
      "Ġgasoline": 5896,
      "Ġgravely": 5897,
      "Ġredolent": 5898,
      "Ġsuspect": 5899,
      "Ġsuspected": 5900,
      "Ġshirtwais": 5901,
      "Ġjov": 5902,
      "Ġjoy": 5903,
      "redulity": 5904,
      "formality": 5905,
      "Anyhow": 5906,
      "Goodbye": 5907,
      "Someone": 5908,
      "bitch": 5909,
      "believe": 5910,
      "evening": 5911,
      "glistening": 5912,
      "green": 5913,
      "great": 5914,
      "marriage": 5915,
      "policeman": 5916,
      "Ġsweep": 5917,
      "Ġsigns": 5918,
      "Ġmagic": 5919,
      "Ġcapable": 5920,
      "Ġcapacity": 5921,
      "Ġfreshness": 5922,
      "Ġtowels": 5923,
      "Ġhostile": 5924,
      "Ġghosts": 5925,
      "Ġstretch": 5926,
      "Ġmeeting": 5927,
      "Ġrelief": 5928,
      "ĠSomeone": 5929,
      "ĠSomebody": 5930,
      "ĠAmerica": 5931,
      "Ġconcerned": 5932,
      "Ġneeded": 5933,
      "Ġglowed": 5934,
      "Ġpossible": 5935,
      "Ġletters": 5936,
      "Ġadvice": 5937,
      "Ġadvised": 5938,
      "Ġadvantage": 5939,
      "drove": 5940,
      "elevator": 5941,
      "knowing": 5942,
      "minable": 5943,
      "minute": 5944,
      "helplessly": 5945,
      "Ġwatcher": 5946,
      "Ġoblivion": 5947,
      "Ġbarrier": 5948,
      "Ġfigures": 5949,
      "Ġgathering": 5950,
      "straight": 5951,
      "Ġeighty": 5952,
      "Ġeighteen": 5953,
      "Ġmemories": 5954,
      "Ġregarded": 5955,
      "Ġreturning": 5956,
      "Ġconnected": 5957,
      "Ġconsidered": 5958,
      "Ġconsoling": 5959,
      "Ġnearly": 5960,
      "Ġcompliment": 5961,
      "ĠFrancis": 5962,
      "Ġdefiant": 5963,
      "Ġdefiantly": 5964,
      "Ġobvious": 5965,
      "Ġexciting": 5966,
      "Ġstrangest": 5967,
      "expression": 5968,
      "Ġsideways": 5969,
      "carrying": 5970,
      "newspaper": 5971,
      "uga": 5972,
      "Ġ190": 5973,
      "Ġwander": 5974,
      "Ġmadame": 5975,
      "Ġmissing": 5976,
      "Ġbitter": 5977,
      "Ġbaths": 5978,
      "Ġcousins": 5979,
      "Ġliterally": 5980,
      "Ġlimit": 5981,
      "Ġlimited": 5982,
      "Ġlimousine": 5983,
      "Ġlapsed": 5984,
      "Ġhats": 5985,
      "Ġyachting": 5986,
      "ĠThrowing": 5987,
      "Ġstreets": 5988,
      "Ġlieutenant": 5989,
      "Ġsearch": 5990,
      "Ġsearching": 5991,
      "Ġshifted": 5992,
      "Ġshifting": 5993,
      "Ġshiftless": 5994,
      "Ġunreal": 5995,
      "Ġconsciousness": 5996,
      "Ġlegs": 5997,
      "Ġquieter": 5998,
      "Ġdiscuss": 5999,
      "Ġdismayed": 6000,
      "Ġdismissed": 6001,
      "Ġintroduced": 6002,
      "Ġcloser": 6003,
      "Ġclosing": 6004,
      "Ġclosest": 6005,
      "whole": 6006,
      "Ġappropriate": 6007,
      "Ġautomobile": 6008,
      "Nevertheless": 6009,
      "Through": 6010,
      "Three": 6011,
      "bulent": 6012,
      "deranged": 6013,
      "floor": 6014,
      "guessed": 6015,
      "smile": 6016,
      "smiled": 6017,
      "sylv": 6018,
      "Ġtangled": 6019,
      "Ġwiping": 6020,
      "Ġsimultaneously": 6021,
      "Ġsolitary": 6022,
      "Ġburden": 6023,
      "Ġballroom": 6024,
      "Ġballoon": 6025,
      "Ġbothering": 6026,
      "ennsylv": 6027,
      "Ġcutting": 6028,
      "Ġcardboard": 6029,
      "Ġdrugstores": 6030,
      "Ġgroups": 6031,
      "Ġgestures": 6032,
      "Ġhasty": 6033,
      "Ġnervously": 6034,
      "Ġmelody": 6035,
      "Ġmelancho": 6036,
      "Ġreassure": 6037,
      "Ġrespect": 6038,
      "Ġrespons": 6039,
      "ournal": 6040,
      "absor": 6041,
      "absolute": 6042,
      "Ġtransp": 6043,
      "Ġtransit": 6044,
      "Ġtragically": 6045,
      "Ġcontemptuous": 6046,
      "Ġcontemptuously": 6047,
      "Ġincreasing": 6048,
      "Ġnewsstand": 6049,
      "Ġobscene": 6050,
      "Ġobscurely": 6051,
      "Ġcheeks": 6052,
      "Ġverandas": 6053,
      "Ġsuspicious": 6054,
      "Ġsuspicions": 6055,
      "Ġsuspiciously": 6056,
      "Ġsidewalks": 6057,
      "bowls": 6058,
      "deliberately": 6059,
      "month": 6060,
      "shaved": 6061,
      "whisky": 6062,
      "Ġidentical": 6063,
      "Ġidentified": 6064,
      "restaurant": 6065,
      "Ġmiserable": 6066,
      "Ġmiserably": 6067,
      "Ġceased": 6068,
      "Ġceaselessly": 6069,
      "Ġfirmly": 6070,
      "Ġfashionable": 6071,
      "Ġfashionably": 6072,
      "Ġdirector": 6073,
      "Ġdirection": 6074,
      "Ġladen": 6075,
      "Ġladies": 6076,
      "Ġlemon": 6077,
      "Ġhovered": 6078,
      "Ġhospitality": 6079,
      "Ġpatent": 6080,
      "Ġpatron": 6081,
      "Ġpressing": 6082,
      "Ġnatural": 6083,
      "Ġstruggles": 6084,
      "cended": 6085,
      "ĠWhite": 6086,
      "Ġselling": 6087,
      "against": 6088,
      "Ġspecim": 6089,
      "Ġspecial": 6090,
      "ĠEnglish": 6091,
      "ĠFift": 6092,
      "Ġimagination": 6093,
      "Ġscornful": 6094,
      "Ġcharming": 6095,
      "Ġcharacter": 6096,
      "Ġproduced": 6097,
      "Ġprofoundly": 6098,
      "Ġexpectantly": 6099,
      "Ġprotest": 6100,
      "Ġcorrection": 6101,
      "Ġmagazines": 6102,
      "Ġgeneration": 6103,
      "Ġconcentration": 6104,
      "Ġconcentrated": 6105,
      "Ġobliged": 6106,
      "Ġmirrored": 6107,
      "Ġrecognized": 6108,
      "Ġrecognizable": 6109,
      "dreamed": 6110,
      "dreams": 6111,
      "fortably": 6112,
      "friends": 6113,
      "gonnegtion": 6114,
      "ohn": 6115,
      "significance": 6116,
      "wanted": 6117,
      "wondered": 6118,
      "ĠQu": 6119,
      "ĠQueens": 6120,
      "Ġveiled": 6121,
      "Ġtanned": 6122,
      "Ġtentatively": 6123,
      "Ġavoided": 6124,
      "invisible": 6125,
      "Ġwitness": 6126,
      "Ġwrapped": 6127,
      "Ġwrapping": 6128,
      "Ġsnobb": 6129,
      "Ġmedium": 6130,
      "Ġburning": 6131,
      "Ġcelebrated": 6132,
      "Ġdissol": 6133,
      "Ġinfantry": 6134,
      "Ġinfluence": 6135,
      "Ġinexhaust": 6136,
      "Ġinexplicable": 6137,
      "Ġindefinite": 6138,
      "Ġhollowly": 6139,
      "Ġgaud": 6140,
      "Ġpouring": 6141,
      "Ġportentous": 6142,
      "Ġpigsty": 6143,
      "Ġpeculiarly": 6144,
      "Ġeasy": 6145,
      "Ġeasier": 6146,
      "Ġevents": 6147,
      "imony": 6148,
      "admired": 6149,
      "ĠArgonne": 6150,
      "Ġvisibly": 6151,
      "Ġsplendid": 6152,
      "Ġsplendour": 6153,
      "Ġunhappy": 6154,
      "Ġunhappily": 6155,
      "Ġexamined": 6156,
      "Ġexamining": 6157,
      "Ġjaunty": 6158,
      "Ġjauntily": 6159,
      "Ġjewels": 6160,
      "Ġjewellery": 6161,
      "ophisticated": 6162,
      "apartment": 6163,
      "Ġremotely": 6164,
      "Ġsmoking": 6165,
      "Ġlocal": 6166,
      "ĠLegion": 6167,
      "Ġcontralto": 6168,
      "Ġgraceful": 6169,
      "excitement": 6170,
      "Ġaccusingly": 6171,
      "Ġaccusations": 6172,
      "Ġpractice": 6173,
      "Ġpractical": 6174,
      "Ġgrocer": 6175,
      "Ġdelicately": 6176,
      "Ġrubies": 6177,
      "Ġphotographers": 6178,
      "Ġtiptoed": 6179,
      "Ġtiptoes": 6180,
      "Ġbursts": 6181,
      "Ġgloomily": 6182,
      "Ġsavagely": 6183,
      "Ġastonishment": 6184,
      "Ġunpleasantness": 6185,
      "better": 6186,
      "curtains": 6187,
      "careful": 6188,
      "direction": 6189,
      "drugstores": 6190,
      "funny": 6191,
      "gements": 6192,
      "listened": 6193,
      "ragged": 6194,
      "Ġticket": 6195,
      "Ġaudible": 6196,
      "Ġapology": 6197,
      "Ġwinked": 6198,
      "Ġwisp": 6199,
      "Ġsilly": 6200,
      "Ġscepticism": 6201,
      "Ġsensation": 6202,
      "Ġopinion": 6203,
      "recover": 6204,
      "Ġmorbid": 6205,
      "Ġmessage": 6206,
      "Ġbanjo": 6207,
      "Ġbanners": 6208,
      "Ġcausing": 6209,
      "Ġcordial": 6210,
      "Ġcrisp": 6211,
      "Ġfifteen": 6212,
      "Ġtossed": 6213,
      "Ġdenied": 6214,
      "Ġinevitable": 6215,
      "Ġheavily": 6216,
      "Ġholiday": 6217,
      "Ġhorses": 6218,
      "Ġhilarity": 6219,
      "especially": 6220,
      "Ġpyjam": 6221,
      "Ġpompadour": 6222,
      "steady": 6223,
      "Ġetc": 6224,
      "accident": 6225,
      "Ġangry": 6226,
      "Ġannoy": 6227,
      "Ġresemblance": 6228,
      "ĠMuldoon": 6229,
      "Ġseparated": 6230,
      "Ġmysterious": 6231,
      "embarrassment": 6232,
      "Ġwealthy": 6233,
      "Ġsuccess": 6234,
      "Ġabstracted": 6235,
      "ĠBlack": 6236,
      "Ġvestib": 6237,
      "Ġvulgar": 6238,
      "Ġsparkling": 6239,
      "Ġunsuccessfully": 6240,
      "Ġexercise": 6241,
      "Ġjudgements": 6242,
      "ĠCarlo": 6243,
      "ĠCompany": 6244,
      "Ġorchids": 6245,
      "ĠEdgar": 6246,
      "Ġflannel": 6247,
      "ĠFlushing": 6248,
      "ĠFerret": 6249,
      "ĠForty": 6250,
      "speak": 6251,
      "Ġplunged": 6252,
      "Ġacquaintance": 6253,
      "Ġambitious": 6254,
      "Ġswallowed": 6255,
      "Ġchoked": 6256,
      "Ġimpersonal": 6257,
      "Ġcounter": 6258,
      "Ġfragment": 6259,
      "Ġperceived": 6260,
      "Ġexchanged": 6261,
      "Ġclustered": 6262,
      "Ġinvestigation": 6263,
      "Ġproprietor": 6264,
      "suggestion": 6265,
      "Ġrigidly": 6266,
      "Ġearnestly": 6267,
      "Ġcommuting": 6268,
      "Ġindifferent": 6269,
      "Ġsecurities": 6270,
      "complete": 6271,
      "Ġrepresented": 6272,
      "Ġtaxicabs": 6273,
      "charming": 6274,
      "Ġcollapse": 6275,
      "Ġmotorcycle": 6276,
      "Ġprivilege": 6277,
      "Ġdivorce": 6278,
      "Ġpurposeless": 6279,
      "Ġconscientious": 6280,
      "Ġdiscreetly": 6281,
      "Ġsimplicity": 6282,
      "Ġtemperament": 6283,
      "Ġestablished": 6284,
      "Ġcynical": 6285,
      "suspected": 6286,
      "Ġtumultuous": 6287,
      "Ġnostrils": 6288,
      "Ġunmistakable": 6289,
      "Certainly": 6290,
      "Self": 6291,
      "Twelve": 6292,
      "bewild": 6293,
      "business": 6294,
      "course": 6295,
      "dollars": 6296,
      "demanded": 6297,
      "eorg": 6298,
      "freedom": 6299,
      "ladmir": 6300,
      "moder": 6301,
      "mindedness": 6302,
      "nervous": 6303,
      "pulled": 6304,
      "raised": 6305,
      "shadow": 6306,
      "uendo": 6307,
      "ximity": 6308,
      "Ġtestimony": 6309,
      "Ġtongue": 6310,
      "Ġtapest": 6311,
      "Ġschool": 6312,
      "ouvenir": 6313,
      "relev": 6314,
      "Ġmidsummer": 6315,
      "Ġbona": 6316,
      "Ġbirth": 6317,
      "Ġbenediction": 6318,
      "Ġbiscuits": 6319,
      "Ġcemetery": 6320,
      "Ġcellar": 6321,
      "Ġcrossly": 6322,
      "Ġfarther": 6323,
      "Ġdilatory": 6324,
      "Ġinherited": 6325,
      "Ġlatest": 6326,
      "Ġlonely": 6327,
      "Ġlangu": 6328,
      "arrived": 6329,
      "armistice": 6330,
      "annoyed": 6331,
      "Ġgirders": 6332,
      "Ġghastly": 6333,
      "Ġpainting": 6334,
      "Ġproud": 6335,
      "Ġpenniless": 6336,
      "Ġnumbers": 6337,
      "immediately": 6338,
      "Ġbegged": 6339,
      "seemed": 6340,
      "riguing": 6341,
      "ĠTuolomee": 6342,
      "Ġsturdy": 6343,
      "Ġstupid": 6344,
      "Ġstudies": 6345,
      "Ġanchor": 6346,
      "Ġreplaced": 6347,
      "Ġwhitewashed": 6348,
      "Ġsaxophones": 6349,
      "ĠMinnesota": 6350,
      "ĠMcKees": 6351,
      "antelpiece": 6352,
      "Ġweekends": 6353,
      "ĠDetroit": 6354,
      "children": 6355,
      "ĠSeptember": 6356,
      "ĠSouthampton": 6357,
      "ourney": 6358,
      "Ġabortive": 6359,
      "ĠAugust": 6360,
      "Ġvillages": 6361,
      "Ġsoggy": 6362,
      "Ġspectacles": 6363,
      "Ġspeech": 6364,
      "Ġuncomfortably": 6365,
      "Ġunwillingly": 6366,
      "Ġextinguished": 6367,
      "Ġroofs": 6368,
      "Ġnephew": 6369,
      "ĠCatholic": 6370,
      "ĠClaud": 6371,
      "ĠNovember": 6372,
      "ĠHistory": 6373,
      "Ġcoincidence": 6374,
      "Ġloafing": 6375,
      "Ġunderneath": 6376,
      "ĠLutheran": 6377,
      "Ġdrizzle": 6378,
      "weeks": 6379,
      "Ġscientific": 6380,
      "Ġscrutinized": 6381,
      "Ġdisquieting": 6382,
      "Ġimpossible": 6383,
      "Ġintermittent": 6384,
      "Ġdesigns": 6385,
      "Ġprovided": 6386,
      "Ġprocession": 6387,
      "Ġprovincial": 6388,
      "Ġsilhouette": 6389,
      "Ġcourtesy": 6390,
      "Ġconfirmation": 6391,
      "deferred": 6392,
      "Ġaccounting": 6393,
      "concealed": 6394,
      "ĠKatspaugh": 6395,
      "Ġcorrugated": 6396,
      "Ġdisappointment": 6397,
      "Ġtriumphantly": 6398,
      "Ġshirtwaist": 6399,
      "ennsylvania": 6400,
      "Ġmelancholy": 6401,
      "Ġsnobbishly": 6402,
      "Ġinexhaustible": 6403
    },
    "merges": [
      "Ġ t",
      "h e",
      "Ġ a",
      "â Ģ",
      "i n",
      "Ġ w",
      "Ġ s",
      "Ġt he",
      "Ġ o",
      "e d",
      "n d",
      "e r",
      "o u",
      "h a",
      "r e",
      "- -",
      "Ġ m",
      "i t",
      "Ġ b",
      "i s",
      "e n",
      "in g",
      "Ġ c",
      "âĢ ľ",
      "âĢ Ŀ",
      "Ġ f",
      "o n",
      "Ġa nd",
      "Ġt o",
      "âĢ Ļ",
      "o r",
      "a s",
      "Ġ d",
      "Ġ in",
      "Ġ he",
      "o m",
      "Ġ l",
      "a r",
      "Ġ I",
      "Ġo f",
      "Ġ h",
      "l l",
      "a t",
      "e s",
      "a n",
      "Ġ g",
      "-- --",
      "Ġ p",
      "Ġ ha",
      "ha t",
      "o w",
      "l e",
      "Ġw as",
      "l y",
      "u t",
      "i d",
      "Ġ n",
      "g h",
      "s t",
      "i c",
      "Ġ e",
      "Ġ y",
      "i m",
      ". âĢĿ",
      "Ġb e",
      "v er",
      "en t",
      "v e",
      "Ġ u",
      "Ġt hat",
      "Ġo n",
      "e t",
      "s e",
      "Ġt h",
      "Ġy ou",
      "Ġ Ġ",
      "a y",
      "o t",
      "a c",
      "l d",
      "gh t",
      "Ġ it",
      "i r",
      "it h",
      "r o",
      "Ġ âĢľ",
      "Ġh is",
      "---- ----",
      "a l",
      "r i",
      "âĢ Ķ",
      "Ġw ith",
      "Ġ T",
      "Ġs t",
      "Ġa t",
      ", âĢĿ",
      "u r",
      "Ġha d",
      "a d",
      "o o",
      "Ġm e",
      "Ġa n",
      "Ġhe r",
      "t er",
      "a m",
      "Ġf or",
      "i on",
      "Ġ re",
      "Ġa s",
      "i l",
      "Ġw h",
      "he r",
      "Ġs a",
      "Ġh im",
      "k e",
      "Ġ G",
      "Ġl i",
      "b y",
      "Ġs he",
      "om e",
      "a nd",
      "at s",
      "? âĢĿ",
      "c e",
      "ats by",
      "a in",
      "r om",
      "a ll",
      "H e",
      "Ġ M",
      "an t",
      "i f",
      "Ġ W",
      "k ed",
      "Ġs e",
      "t o",
      "Ġm y",
      "Ġu p",
      "Ġsa id",
      "Ġ r",
      "he n",
      "ou t",
      "e m",
      "ĠĠ ĠĠ",
      "Ġw e",
      "Ġs u",
      "Ġ k",
      "Ġo ut",
      "ar d",
      "o re",
      "p p",
      "ĠG atsby",
      "Ġd o",
      "i ght",
      "Ġ D",
      "es s",
      "c h",
      "t ed",
      "o l",
      "a is",
      "Ġf rom",
      "e w",
      "-------- --------",
      "t he",
      "ou ld",
      "Ġ S",
      "ou r",
      "a g",
      "Ġa ll",
      "on e",
      "u st",
      "ou s",
      "am e",
      "ais y",
      "Ġa b",
      "er e",
      "h ing",
      "r ou",
      "ow n",
      "s s",
      "u n",
      "Ġk n",
      "Ġb ut",
      "ĠT om",
      "es t",
      "e c",
      "on g",
      "Ġin to",
      "e ll",
      "Ġ A",
      "u s",
      "Ġ B",
      "Ġw ere",
      "a b",
      "Ġ v",
      "e l",
      "q u",
      "Ġs o",
      "Ġo ver",
      "o d",
      "ĠD aisy",
      "T he",
      "Ġs h",
      "Ġ He",
      "in d",
      "or d",
      "Ġa l",
      "Ġthe re",
      "or t",
      "Ġl oo",
      "Ġg o",
      "w ay",
      "id e",
      "ac k",
      "i ll",
      "Ġs p",
      "as t",
      "Ġu n",
      "f ter",
      "t le",
      "Ġc on",
      "u l",
      "k ing",
      "l o",
      "r a",
      "Ġe x",
      "l f",
      "Ġm an",
      "he d",
      "ver y",
      "Ġab out",
      "u m",
      "Ġ ro",
      "ĠT he",
      "ar t",
      "ic e",
      "Ġ j",
      "Ġl e",
      "Ġn e",
      "Ġth is",
      "a u",
      "Ġha ve",
      "Ġon e",
      "o p",
      "Ġs ome",
      "Ġa g",
      "Ġd own",
      "Ġ C",
      "ha n",
      "Ġwh o",
      "Ġli ke",
      "Ġ if",
      "Ġ is",
      "er s",
      "v ed",
      "Ġo r",
      "v en",
      "Ġb ack",
      "Ġd id",
      "nd er",
      "Y ou",
      "Ġ J",
      "Ġb y",
      "i ve",
      "Ġan y",
      "c k",
      "i g",
      "Ġthe y",
      "Ġha nd",
      "e ar",
      "t h",
      "at ion",
      "it tle",
      "Ġc ame",
      "at e",
      "Ġbe en",
      "ur n",
      "re ss",
      "o st",
      "it y",
      "Ġc ar",
      "e p",
      "Ġ N",
      "Ġa fter",
      "Ġto o",
      "ĠĠĠĠ ĠĠĠĠ",
      "ac e",
      "ri ed",
      "he re",
      "ou nd",
      "Ġn ot",
      "ic k",
      "Ġkn ow",
      "ou se",
      "w n",
      "Ġ E",
      "Ġ H",
      "is t",
      "all y",
      "Ġt r",
      "Ġw hen",
      "it e",
      "g e",
      "in k",
      "ĠM r",
      "ab le",
      "p t",
      "Ġl ittle",
      "y es",
      "f ore",
      "Ġt im",
      "Ġn o",
      "Ġt w",
      "Ġw ant",
      "a k",
      "f f",
      "Ġh ouse",
      "Ġw hat",
      "Ġg et",
      "! âĢĿ",
      "in e",
      "Ġthe n",
      "a re",
      "Ġw ent",
      "er ed",
      "as s",
      "Ġthe m",
      "Ġc ould",
      "om et",
      "Ġg ot",
      "il s",
      "Ġe yes",
      "oo d",
      "od y",
      "Ġag ain",
      "c t",
      "s h",
      "w ard",
      "ĠI t",
      "Ġu s",
      "g g",
      "om ent",
      "Ġn ow",
      "I t",
      "t ing",
      "se lf",
      "Ġloo ked",
      "Ġo ld",
      "Ġbe fore",
      "Ġdid n",
      "ils on",
      "i le",
      "Ġt urn",
      "ic h",
      "Ġse e",
      "rou nd",
      "Ġtim e",
      "i es",
      "Ġm oment",
      "---------------- ----------------",
      "d d",
      "t her",
      "Ġc om",
      "Ġg l",
      "ri ght",
      "Ġj ust",
      "v ing",
      "Ġw ay",
      "or n",
      "Ġd on",
      "Ġn ight",
      "ord an",
      "a ke",
      "Ġ âĢ",
      "Ġc o",
      "Ġof f",
      "Ġth ou",
      "ac h",
      "u re",
      "Ġm o",
      "at her",
      "ad e",
      "a p",
      "Ġ O",
      "Ġa r",
      "Ġm ore",
      "Ġf l",
      "ir l",
      "Ġre m",
      "Ġ qu",
      "Ġs m",
      "at ed",
      "Ġyou r",
      "Ġdo or",
      "p l",
      "r ow",
      "Ġ F",
      "omet hing",
      "r u",
      "r y",
      "s p",
      "Ġbe g",
      "n o",
      "u ll",
      "Ġa way",
      "Ġl ong",
      "rou gh",
      "b le",
      "h is",
      "Ġ im",
      "Ġa round",
      "Ġo ther",
      "Ġhe re",
      "Ġp e",
      "oo k",
      "ĠW ilson",
      "Ġv o",
      "i e",
      "is s",
      "Ġd e",
      "Ġg irl",
      "âĢĶ âĢĿ",
      "Ġc an",
      "Ġp l",
      "Ġth ink",
      "ĠS he",
      "op le",
      "Ġtw o",
      "f t",
      "on t",
      "Ġl o",
      "Ġg re",
      "S he",
      "Ġd ay",
      "ot her",
      "ag e",
      "Ġturn ed",
      "n g",
      "Ġb l",
      "Ġc ome",
      "ĠJ ordan",
      "e nd",
      "Ġw ould",
      "Ġs omething",
      "ut e",
      "Ġe very",
      "Ġgo ing",
      "t hing",
      "Ġs ha",
      "re e",
      "ar k",
      "Ġth ing",
      "ac t",
      "Ġwh ich",
      "Ġli ght",
      "t y",
      "Ġm in",
      "Ġu nder",
      "pp ed",
      "ec t",
      "Ġpe ople",
      "a ve",
      "t hat",
      "Ġa c",
      "Ġm ade",
      "Ġth rough",
      "ir st",
      "i ous",
      "l ess",
      "en ce",
      "Ġro om",
      "au se",
      "Ġvo ice",
      "p s",
      "Ġw here",
      "Ġne ver",
      "m ent",
      "o f",
      "p en",
      "Ġa m",
      "Ġw a",
      "at h",
      "Ġp o",
      "Ġy ear",
      "Ġst ar",
      "W e",
      "n e",
      "r ed",
      "u e",
      "Ġ L",
      "Ġ very",
      "Ġf ace",
      "or k",
      "Ġsa w",
      "b l",
      "u c",
      "Ġs l",
      "Ġd ri",
      "Ġe ven",
      "Ġbe c",
      "W hat",
      "b er",
      "i ly",
      "w e",
      "Ġs ay",
      "an ce",
      "ir ed",
      "Ġkn ew",
      "ĠâĢ ¦",
      "g et",
      "o se",
      "Ġc all",
      "Ġp re",
      "G atsby",
      "a ir",
      "h y",
      "n ess",
      "Ġs c",
      "Ġthe ir",
      "Ġb o",
      "Ġp art",
      "w as",
      "Ġw ind",
      "Ġf irst",
      "Ġto ward",
      "an g",
      "Ġo pen",
      "Ġc ha",
      "Ġf e",
      "Ġd is",
      "an c",
      "Ġsp ort",
      "Ġcon t",
      "dd en",
      "Ġbeg an",
      "Ġ right",
      "Ġa re",
      "it ed",
      "Ġha lf",
      "Ġon ly",
      "ĠB ut",
      "no on",
      "b ut",
      "b ody",
      "c o",
      "f or",
      "i z",
      "Ġ en",
      "Ġhe ad",
      "ent ly",
      "s ide",
      "t e",
      "t il",
      "Ġm en",
      "Ġto ld",
      "at er",
      "Ġyou ng",
      "ro om",
      "oo l",
      "Ġas ked",
      "Ġtoo k",
      "m er",
      "o ll",
      "u ch",
      "Ġ P",
      "Ġ Y",
      "Ġl ast",
      "Ġbe t",
      "Ġwh ite",
      "Ġse em",
      "ĠN ew",
      "b e",
      "i v",
      "x t",
      "Ġs w",
      "Ġh our",
      "al ked",
      "Ġloo k",
      "Ġthou ght",
      "i re",
      "p er",
      "Ġb ro",
      "Ġc h",
      "Ġin c",
      "Ġhe ard",
      "Ġn ew",
      "Ġn ame",
      "ol f",
      "Ġun til",
      "ak er",
      "dden ly",
      "T hat",
      "i p",
      "m ed",
      "t ain",
      "Ġw or",
      "Ġb r",
      "Ġin t",
      "Ġg r",
      "Ġwh ile",
      "Ġhand s",
      "ĠĠĠĠĠĠĠĠ ĠĠĠĠĠĠĠĠ",
      "Ġim p",
      "O h",
      "a king",
      "d ed",
      "Ġc ou",
      "Ġl et",
      "Ġp ol",
      "Ġha r",
      "Ġha pp",
      "lo ck",
      "a wn",
      "Ġt han",
      "Ġw om",
      "Ġf r",
      "ar y",
      "Ġwas n",
      "ro ss",
      "ĠT hen",
      "ĠW est",
      "ĠB aker",
      "way s",
      "Ġbec ause",
      "Ġseem ed",
      "e e",
      "f e",
      "Ġo b",
      "Ġp er",
      "ain ed",
      "Ġex c",
      "Ġafter noon",
      "e k",
      "i ld",
      "in n",
      "Ġs at",
      "Ġit s",
      "ard en",
      "Ġal ong",
      "Ġle ft",
      "W ell",
      "e ver",
      "f ul",
      "g ed",
      "p e",
      "p h",
      "Ġm ar",
      "Ġm uch",
      "en ed",
      "Ġc l",
      "Ġd r",
      "Ġin ter",
      "Ġsm all",
      "Ġyear s",
      "D aisy",
      "i gh",
      "o ld",
      "Ġt ell",
      "Ġb re",
      "Ġf ound",
      "or y",
      "Ġd es",
      "Ġin v",
      "at ter",
      "Ġp ro",
      "ow s",
      "ion s",
      "Ġmin ute",
      "i em",
      "i ble",
      "n t",
      "s it",
      "Ġt e",
      "Ġa d",
      "Ġw ord",
      "Ġo wn",
      "Ġm ust",
      "Ġd ark",
      "Ġl au",
      "Ġbe l",
      "Ġth ree",
      "al ity",
      "Ġan other",
      "ce pt",
      "Ġup on",
      "ell ow",
      "sh iem",
      "get her",
      "ĠY ork",
      "olf shiem",
      "a le",
      "s w",
      "s ed",
      "y ou",
      "Ġs il",
      "er tain",
      "ha d",
      "Ġc lo",
      "Ġc ried",
      "Ġin qu",
      "Ġg arden",
      "Ġe nd",
      "Ġst r",
      "Ġre st",
      "Ġsu ddenly",
      "Ġal one",
      "orn ing",
      "Ġthou gh",
      "Ġar m",
      "Ġlo ve",
      "a z",
      "c hed",
      "l u",
      "l ed",
      "Ġ ke",
      "Ġw ar",
      "is h",
      "Ġd ress",
      "ĠM iss",
      "Ġsu pp",
      "Ġex p",
      "ig n",
      "ĠE gg",
      "ĠH is",
      "Ġagain st",
      "N o",
      "r is",
      "s u",
      "w h",
      "w ith",
      "in ess",
      "Ġm orning",
      "ad y",
      "Ġhim self",
      "ĠW olfshiem",
      "Ġse en",
      "Ġal ways",
      "ĠThe y",
      "b r",
      "u ally",
      "v es",
      "Ġa pp",
      "in t",
      "Ġs ur",
      "ou ght",
      "Ġf ive",
      "ar age",
      "ĠI n",
      "Ġe ach",
      "Ġon ce",
      "ri end",
      "Ġst ep",
      "Ġan sw",
      "em and",
      "ous ly",
      "ĠA nd",
      "The re",
      "Ġloo king",
      "Ġne xt",
      "Ġcom p",
      "oll ow",
      "Ġhar d",
      "e x",
      "i ed",
      "l es",
      "u ght",
      "ou gh",
      "Ġc our",
      "Ġf am",
      "Ġl awn",
      "Ġh ome",
      "le as",
      "Ġe ver",
      "Ġst and",
      "Ġli fe",
      "ĠM y",
      "Ġsu n",
      "one y",
      "ec ted",
      "Ġnot hing",
      "Ġrem em",
      "a pp",
      "i al",
      "l er",
      "m ost",
      "n ow",
      "s he",
      "u nd",
      "y ing",
      "Ġ You",
      "Ġt able",
      "Ġs it",
      "Ġs ide",
      "re t",
      "is hed",
      "en e",
      "Ġc han",
      "Ġto gether",
      "Ġd emand",
      "Ġwith out",
      "Ġre al",
      "ain t",
      "if e",
      "the re",
      "el t",
      "Ġsh ould",
      "Ġcon f",
      "Ġro ad",
      "ate ly",
      "ress ion",
      "Ġcall ed",
      "Ġinqu ired",
      "A nd",
      "c lock",
      "i ar",
      "k y",
      "m y",
      "m an",
      "Ġ R",
      "Ġ ent",
      "Ġt re",
      "Ġt ake",
      "ing ly",
      "Ġc are",
      "Ġf our",
      "Ġd ro",
      "Ġg ood",
      "Ġp h",
      "Ġp ers",
      "id ent",
      "al k",
      "Ġst ill",
      "ant ly",
      "if f",
      "ab ly",
      "ra w",
      "han an",
      "Ġwant ed",
      "Ġcould n",
      "-------------------------------- --------",
      "-------------------------------- ----------------------------------------",
      "uc hanan",
      "air s",
      "Ġwor ld",
      "B ut",
      "d e",
      "m e",
      "n y",
      "p ris",
      "s l",
      "t en",
      "u p",
      "Ġs ort",
      "Ġm ake",
      "is ter",
      "Ġf ew",
      "Ġf ull",
      "Ġf riend",
      "Ġd ec",
      "Ġh us",
      "Ġg arage",
      "ut ter",
      "il ed",
      "ĠW hen",
      "Ġr ather",
      "em ent",
      "Ġwe ll",
      "ass ed",
      "Ġpl ay",
      "Ġgre at",
      "Ġthing s",
      "Ġstar ted",
      "we en",
      "Ġfr ont",
      "H ow",
      "T his",
      "W hy",
      "f rom",
      "r tle",
      "s c",
      "w here",
      "he s",
      "Ġa ir",
      "Ġa dd",
      "Ġs ound",
      "re et",
      "Ġm et",
      "Ġm oney",
      "it her",
      "Ġf ind",
      "Ġf ollow",
      "Ġl ater",
      "es ted",
      "Ġg u",
      "Ġg one",
      "Ġg ave",
      "st and",
      "Ġe m",
      "Ġst ood",
      "Ġwh is",
      "Ġdo g",
      "ill ed",
      "ĠN ick",
      "Ġmo ved",
      "Ġsl ow",
      "Ġbet ween",
      "Ġbro ke",
      "Ġsur pris",
      "D on",
      "T om",
      "i x",
      "o c",
      "p ed",
      "u ff",
      "Ġa ut",
      "Ġs ent",
      "Ġthe se",
      "Ġo ught",
      "er v",
      "ha el",
      "Ġm ight",
      "Ġm ost",
      "Ġm atter",
      "Ġb ed",
      "Ġb ook",
      "Ġc he",
      "Ġf elt",
      "Ġin s",
      "le ph",
      "ic al",
      "ic hael",
      "Ġy ellow",
      "Ġth ose",
      "Ġme an",
      "ĠW e",
      "Ġab s",
      "us hed",
      "ĠB uchanan",
      "The y",
      "ĠC h",
      "ĠMr s",
      "ĠâĢ ĺ",
      "Ġac c",
      "Ġac ross",
      "ious ly",
      "Ġwa it",
      "Ġbel ie",
      "Ġstep s",
      "Ġdemand ed",
      "ichael is",
      "D o",
      "W hen",
      "c ed",
      "c on",
      "i et",
      "o nder",
      "Ġ ide",
      "Ġw alked",
      "Ġs ing",
      "Ġo ur",
      "is e",
      "or m",
      "Ġd re",
      "Ġhe ar",
      "es ide",
      "an e",
      "Ġha ir",
      "le ep",
      "Ġn od",
      "Ġwe ek",
      "ol our",
      "ag o",
      "Ġsh ort",
      "Ġro se",
      "Ġany thing",
      "Ġqu ick",
      "Ġpre s",
      "Ġfe et",
      "Ġwom an",
      "M r",
      "h o",
      "h ow",
      "o ke",
      "o pped",
      "u ri",
      "y ed",
      "he ad",
      "in ed",
      "Ġm ur",
      "Ġb ot",
      "Ġb ody",
      "Ġc r",
      "Ġc row",
      "Ġf ar",
      "Ġto wn",
      "Ġh ot",
      "at ch",
      "an k",
      "Ġp r",
      "ic t",
      "ic ago",
      "ver ed",
      "Ġst art",
      "Ġhad n",
      "ĠG od",
      "Ġdo es",
      "ĠS t",
      "ul ar",
      "Ġex pl",
      "ĠE ast",
      "Ġmo ve",
      "Ġgirl s",
      "Ġevery thing",
      "Ġam ong",
      "Ġcont in",
      "Ġmar ried",
      "Ġcour se",
      "b o",
      "b ed",
      "j ust",
      "j ect",
      "l ight",
      "z en",
      "Ġ ri",
      "Ġa w",
      "Ġs et",
      "ou n",
      "ha ps",
      "Ġb us",
      "Ġc ertain",
      "Ġf ell",
      "or ge",
      "or row",
      "Ġh ow",
      "an ed",
      "ic ally",
      "Ġe l",
      "Ġe ar",
      "Ġe ff",
      "ac es",
      "ac hed",
      "ir c",
      "al king",
      "il iar",
      "Ġr un",
      "Ġsu gg",
      "Ġle a",
      "ive ly",
      "Ġcom m",
      "Ġar ri",
      "ull y",
      "Ġfe el",
      "med i",
      "ĠMy rtle",
      "und red",
      "leph one",
      "Ġide a",
      "a ut",
      "c K",
      "d ay",
      "f in",
      "f ord",
      "f ully",
      "g ot",
      "h ind",
      "m ur",
      "n ot",
      "x i",
      "Ġt ou",
      "Ġa ff",
      "Ġw ill",
      "Ġw ife",
      "er y",
      "Ġb rou",
      "Ġb eside",
      "en s",
      "en ing",
      "Ġc irc",
      "Ġf act",
      "Ġhe l",
      "Ġhe art",
      "Ġl ow",
      "at ing",
      "Ġp ut",
      "Ġp assed",
      "Ġn am",
      "im es",
      "ent ion",
      "Ġat t",
      "Ġr ain",
      "out h",
      "Ġsu m",
      "Ġsu ch",
      "Ġdo zen",
      "Ġbut ler",
      "est ion",
      "us ed",
      "ĠThe re",
      "Ġag o",
      "Ġpl ace",
      "Ġlo ved",
      "Ġbl ue",
      "Ġdri ve",
      "Ġremem ber",
      "Ġpers on",
      "Ġmur mur",
      "Ġbrou ght",
      "C ome",
      "Y es",
      "d o",
      "d ing",
      "i b",
      "l ing",
      "o nd",
      "o ver",
      "r ing",
      "s o",
      "u ed",
      "u al",
      "Ã ©",
      "re s",
      "Ġm on",
      "Ġb ig",
      "Ġb right",
      "is ted",
      "Ġc as",
      "Ġc uri",
      "Ġf un",
      "Ġf lo",
      "Ġf aint",
      "on s",
      "Ġin d",
      "Ġh ur",
      "Ġg ive",
      "Ġse c",
      "un ch",
      "ĠA s",
      "ĠA t",
      "Ġman y",
      "ĠH er",
      "Ġtr ain",
      "ite ly",
      "Ġus ed",
      "ĠO n",
      "Ġim medi",
      "Ġday s",
      "Ġwould n",
      "Ġeven ing",
      "Ġbo y",
      "Ġwind ow",
      "Ġcha ir",
      "anc ed",
      "Ġhapp ened",
      "Ġansw ered",
      "Ġsum mer",
      "a il",
      "c om",
      "i ol",
      "k en",
      "o g",
      "o s",
      "p art",
      "u d",
      "z y",
      "Ġ K",
      "Ġw he",
      "Ġs in",
      "re ady",
      "Ġb u",
      "Ġc or",
      "Ġc ity",
      "Ġc ool",
      "or ch",
      "Ġd ist",
      "ĠI sl",
      "Ġh igh",
      "Ġha ll",
      "st airs",
      "Ġbe hind",
      "Ġit self",
      "ir t",
      "ĠT hat",
      "Ġre p",
      "Ġas s",
      "Ġli ve",
      "ĠM ichaelis",
      "em pt",
      "ĠD o",
      "Ġsh ook",
      "ill e",
      "ear ed",
      "ation s",
      "Ġtr ying",
      "Ġco at",
      "Ġco ld",
      "Ġfl ow",
      "Ġgre en",
      "Ġpart y",
      "Ġwind ows",
      "Ġopen ed",
      "iz ed",
      "Ġbet ter",
      "Ġbre ath",
      "Ġte lephone",
      "Ġslow ly",
      "Ġins isted",
      "ĠCh icago",
      "Ġbus iness",
      "cK ee",
      "ĠIsl and",
      "A t",
      "A ll",
      "I n",
      "L ook",
      "W ho",
      "a v",
      "b and",
      "c c",
      "g hed",
      "j o",
      "l oo",
      "m ing",
      "n ed",
      "p ted",
      "p ered",
      "s ome",
      "t urn",
      "v ent",
      "Ġt a",
      "Ġt ried",
      "Ġt alked",
      "Ġa ct",
      "Ġw all",
      "Ġw onder",
      "Ġs ame",
      "ou d",
      "Ġm outh",
      "Ġf in",
      "Ġf ore",
      "Ġd am",
      "Ġin side",
      "ar s",
      "an y",
      "Ġp rom",
      "Ġp ast",
      "Ġha s",
      "Ġe le",
      "ay ed",
      "ght er",
      "Ġre ached",
      "Ġsu b",
      "ĠA fter",
      "Ġal most",
      "Ġsp e",
      "Ġle ast",
      "Ġwho le",
      "Ġgl ass",
      "Ġoff ice",
      "Ġde ep",
      "Ġwa ited",
      "Ġstar ed",
      "Ġpre t",
      "Ġwom en",
      "Ġstand ing",
      "Ġnod ded",
      "Ġquick ly",
      "A b",
      "M y",
      "a id",
      "a fter",
      "c he",
      "c han",
      "e en",
      "e orge",
      "f r",
      "l i",
      "o ing",
      "o ve",
      "o ot",
      "p o",
      "r p",
      "x ford",
      "Ġw r",
      "re n",
      "Ġm ot",
      "as h",
      "Ġd raw",
      "Ġin st",
      "Ġhe ld",
      "Ġl ay",
      "Ġp ull",
      "Ġp orch",
      "le te",
      "ut es",
      "ic em",
      "ver al",
      "Ġth in",
      "Ġst op",
      "Ġst opped",
      "Ġre ad",
      "Ġas k",
      "Ġwh y",
      "ant ic",
      "Ġmy self",
      "Ġsu re",
      "Ġk ind",
      "ag er",
      "un g",
      "ra ve",
      "ra zy",
      "Ġex cept",
      "Ġsome body",
      "Ġis n",
      "Ġor d",
      "Ġget ting",
      "omet imes",
      "Ġgl anced",
      "ather ine",
      "Ġlong er",
      "Ġgre y",
      "Ġunder stand",
      "Ġch ild",
      "Ġcou p",
      "Ġclo se",
      "Ġwar m",
      "Ġexp ression",
      "Ġfam ily",
      "Ġhus band",
      "Ġfollow ed",
      "Ġbelie ve",
      "ict ure",
      "Ġeff ort",
      "Ġarri ved",
      "Ġimmedi ately",
      "icem an",
      "A s",
      "D id",
      "H er",
      "J ordan",
      "c l",
      "c ha",
      "i a",
      "i an",
      "i ver",
      "m p",
      "m bl",
      "m orrow",
      "t r",
      "u ck",
      "w ould",
      "Ġ V",
      "Ġt er",
      "Ġt en",
      "Ġt alk",
      "Ġw on",
      "Ġs n",
      "Ġs ister",
      "it s",
      "Ġb ought",
      "en c",
      "ing s",
      "Ġto morrow",
      "Ġhe at",
      "Ġhe sit",
      "Ġl ar",
      "Ġl ate",
      "ar ked",
      "Ġh undred",
      "Ġg ro",
      "Ġp ool",
      "Ġp ale",
      "id n",
      "st er",
      "et s",
      "Ġre pe",
      "ĠM ont",
      "ĠM cKee",
      "Ġr an",
      "ag es",
      "un t",
      "Ġal ready",
      "ul t",
      "Ġle aned",
      "ĠC atherine",
      "ear s",
      "ress ed",
      "Ġcar s",
      "Ġtim es",
      "ct or",
      "ct ion",
      "Ġmo on",
      "ru pt",
      "Ġsha d",
      "Ġsha rp",
      "Ġmin utes",
      "ĠL ong",
      "co nd",
      "Ġen ough",
      "inn er",
      "old ing",
      "Ġsit ting",
      "Ġdro ve",
      "Ġdoes n",
      "Ġexpl ained",
      "Ġsugg ested",
      "Ġtou ch",
      "Ġmon th",
      "Ġflo or",
      "Ġpret ty",
      "T hen",
      "W ilson",
      "b ar",
      "e y",
      "e as",
      "f ound",
      "g r",
      "g ing",
      "g ro",
      "w hen",
      "âĢ Ĭ",
      "in ing",
      "Ġw ild",
      "Ġm us",
      "Ġm ine",
      "Ġc ig",
      "Ġf all",
      "or s",
      "Ġd el",
      "Ġd iff",
      "Ġd inner",
      "Ġl ess",
      "ll ed",
      "an ing",
      "Ġp ow",
      "Ġp leas",
      "id d",
      "ic es",
      "Ġe ager",
      "im p",
      "ver s",
      "ir ty",
      "ur red",
      "ĠG eorge",
      "if ty",
      "Ġse veral",
      "Ġr u",
      "Ġr ais",
      "Ġout side",
      "Ġdo ing",
      "ol ute",
      "ĠS o",
      "un k",
      "ab out",
      "ĠC ody",
      "Ġco ll",
      "ĠO xford",
      "Ġrem arked",
      "ru g",
      "ry ing",
      "ment s",
      "Ġdis app",
      "anc ing",
      "Ġgr ass",
      "Ġpol iceman",
      "Ġexc ited",
      "Ġdr ink",
      "igh b",
      "Ġad m",
      "Ġword s",
      "Ġarm s",
      "Ġke ep",
      "Ġwhis pered",
      "Ġsurpris ed",
      "Ġdre am",
      "Ġbot h",
      "Ġcrow d",
      "Ġcontin ued",
      "Ġsin ce",
      "Ġspe ak",
      "Ġcoup Ã©",
      "H is",
      "c ont",
      "c olour",
      "e a",
      "i or",
      "u se",
      "u nder",
      "v o",
      "y ond",
      "Ġ ed",
      "Ġ rom",
      "in c",
      "in s",
      "in ted",
      "Ġw ire",
      "Ġw atch",
      "Ġs ight",
      "Ġs qu",
      "Ġs erv",
      "Ġo cc",
      "er al",
      "ou b",
      "re c",
      "re w",
      "re ed",
      "re sh",
      "Ġm ind",
      "it c",
      "it ies",
      "Ġb lo",
      "ing ers",
      "Ġc re",
      "Ġc razy",
      "Ġf aces",
      "Ġf oot",
      "as on",
      "Ġd im",
      "Ġd et",
      "Ġd ust",
      "Ġl ost",
      "Ġl unch",
      "ar ed",
      "ar ra",
      "Ġh op",
      "at z",
      "at ur",
      "Ġp ri",
      "Ġn ice",
      "st ood",
      "Ġbe ing",
      "Ġu r",
      "ir d",
      "ri ble",
      "Ġst ory",
      "ur g",
      "ur ed",
      "ad ed",
      "ter n",
      "Ġfor ward",
      "Ġfor got",
      "Ġre s",
      "Ġre ally",
      "il es",
      "Ġli ps",
      "ant s",
      "if ic",
      "ess ed",
      "un e",
      "Ġkn own",
      "Ġv iol",
      "Ġsh o",
      "Ġgo ld",
      "ra id",
      "Ġex t",
      "um p",
      "Ġsome where",
      "ĠJ ay",
      "ĠN o",
      "Ġno se",
      "ak en",
      "are t",
      "Ġgl ad",
      "Ġsm iled",
      "Ġde ad",
      "less ly",
      "Ġpo int",
      "Ġsay ing",
      "hy s",
      "anc es",
      "Ġen orm",
      "room s",
      "Ġper haps",
      "Ġte a",
      "Ġlau ghed",
      "Ġlau ghter",
      "Ġke pt",
      "Ġsupp ose",
      "Ġansw er",
      "Ġcomp lete",
      "Ġtre mbl",
      "Ġadd ed",
      "Ġgu est",
      "Ġaut om",
      "Ġsing le",
      "Ġlea ving",
      "Ġcuri ous",
      "Ġhur ried",
      "Ġwhe el",
      "Ġfore ver",
      "Ġpull ed",
      "Ġlar ge",
      "Ġrepe ated",
      "idd le",
      "ighb our",
      "1 9",
      "A fter",
      "I f",
      "S o",
      "a w",
      "b ered",
      "d is",
      "e ur",
      "e ad",
      "e ge",
      "f ted",
      "h us",
      "h ouse",
      "i er",
      "i ven",
      "i pped",
      "l a",
      "l au",
      "m n",
      "m s",
      "o on",
      "v id",
      "w o",
      "w ent",
      "w ere",
      "w ind",
      "Ġ ver",
      "Ġ ir",
      "Ġt ri",
      "Ġt rou",
      "Ġa part",
      "in ter",
      "Ġw ork",
      "Ġs ad",
      "Ġs ick",
      "Ġs ix",
      "Ġs leep",
      "er ies",
      "Ġm ist",
      "Ġb ad",
      "is ible",
      "Ġc orn",
      "Ġf a",
      "Ġf ool",
      "as e",
      "Ġl ist",
      "an s",
      "an ge",
      "Ġg as",
      "Ġg rave",
      "Ġp icture",
      "Ġp hys",
      "Ġha ven",
      "Ġn ec",
      "st r",
      "st ore",
      "Ġbe aut",
      "ĠĠ Ġ",
      "ot og",
      "ac ed",
      "ro ad",
      "al s",
      "ri ll",
      "ĠT his",
      "ur ch",
      "Ġas leep",
      "il o",
      "ĠG atz",
      "Ġli ved",
      "ĠW hat",
      "Ġr ed",
      "Ġr ang",
      "Ġsu sp",
      "Ġk iss",
      "the y",
      "ĠS lo",
      "ĠS ound",
      "Ġsh irt",
      "Ġcon vers",
      "Ġj o",
      "Ġle ave",
      "Ġne ighbour",
      "Ġany one",
      "Ġany how",
      "th is",
      "are nt",
      "ap er",
      "Ġrem ark",
      "Ġqu ality",
      "end ed",
      "Ġlight s",
      "red ul",
      "bl ed",
      "Ġpart ies",
      "for m",
      "mer ic",
      "ĠĠĠĠĠĠĠĠĠĠĠĠĠĠĠĠ ĠĠĠĠĠĠĠĠĠĠĠĠĠĠĠĠ",
      "Ġcou ch",
      "Ġhapp en",
      "Ġob ject",
      "Ġsil ver",
      "lu ded",
      "br ary",
      "Ġfam iliar",
      "Ġshould er",
      "Ġtre es",
      "Ġph one",
      "uff eur",
      "Ġsec ret",
      "Ab out",
      "Ġmot or",
      "Ġcig aret",
      "Ġrais ed",
      "arra way",
      "Ġenorm ous",
      "Ġtrembl ing",
      "otog ra",
      "ĠSlo ane",
      "Ġconvers ation",
      "A ny",
      "G ood",
      "O f",
      "O ne",
      "S ome",
      "W here",
      "a way",
      "a ven",
      "b it",
      "b ec",
      "b el",
      "b urg",
      "d y",
      "e very",
      "e ven",
      "f er",
      "f am",
      "f raid",
      "g l",
      "g re",
      "h im",
      "h ost",
      "k s",
      "l s",
      "m en",
      "m ar",
      "o b",
      "p ol",
      "t hen",
      "u ous",
      "v ille",
      "y e",
      "Ġt alking",
      "Ġa fraid",
      "Ġw et",
      "Ġs en",
      "Ġs id",
      "Ġs we",
      "Ġs ign",
      "nd s",
      "er ful",
      "ha r",
      "Ġm ag",
      "Ġm other",
      "Ġm aking",
      "Ġb le",
      "en g",
      "Ġc le",
      "Ġc ap",
      "Ġc olour",
      "âĢĿ âĢĶ",
      "Ġf ine",
      "Ġf resh",
      "Ġto w",
      "or ed",
      "or ld",
      "or ry",
      "as hed",
      "Ġd oub",
      "Ġl ot",
      "Ġh ost",
      "at i",
      "Ġg en",
      "Ġg host",
      "Ġp ause",
      "Ġha ving",
      "le mn",
      "ic ked",
      "Ġe at",
      "Ġe ither",
      "Ġy ard",
      "im e",
      "im ed",
      "Ġbe yond",
      "ent r",
      "ve l",
      "ay s",
      "ro d",
      "Ġst ation",
      "Ġst ret",
      "ur ing",
      "Ġme et",
      "Ġre l",
      "Ġre lu",
      "il ight",
      "Ġwh om",
      "by e",
      "Ġsu it",
      "Ġk illed",
      "Ġk itc",
      "pp ing",
      "ight ly",
      "ĠS ome",
      "ag ed",
      "ag ue",
      "ĠA meric",
      "Ġsp oke",
      "ast ic",
      "Ġcon c",
      "um b",
      "Ġne ed",
      "Ġsome one",
      "Ġag reed",
      "ĠJ ust",
      "Ġtw ilight",
      "Ġwant s",
      "Ġcom ing",
      "Ġgl ow",
      "ure s",
      "Ġmo ving",
      "ĠF or",
      "Ġvo ices",
      "ie f",
      "ie ce",
      "Ġbl ind",
      "act ion",
      "Ġpo ss",
      "Ġpo ck",
      "Ġdri ving",
      "Ġbec ame",
      "Ġcha uffeur",
      "be fore",
      "Ġbro ken",
      "Ġch urch",
      "Ġinc ess",
      "Ġcou nt",
      "Ġlet ter",
      "Ġexc la",
      "inn ing",
      "Ġad v",
      "Ġlove ly",
      "wh ile",
      "leas e",
      "Ġremem bered",
      "Ġchan ge",
      "Ġph otogra",
      "up on",
      "utter ed",
      "ix ed",
      "Mr s",
      "Ġaw are",
      "Ġfeel ing",
      "fin itely",
      "Ġnam ed",
      "Ġnam es",
      "Ġfaint ly",
      "ĠDo ctor",
      "fr ont",
      "li ke",
      "Ġshad ow",
      "bar r",
      "Ġeager ly",
      "rug store",
      "colour ed",
      "Ġrom antic",
      "Ġpri v",
      "Ġtrou ble",
      "ilo xi",
      "fam iliar",
      "Ġrelu ct",
      "Ġkitc hen",
      "Ġexcla imed",
      ". âĢĻ",
      "0 0",
      "F or",
      "I s",
      "N ot",
      "P lease",
      "c ked",
      "d ro",
      "d ri",
      "e le",
      "e yes",
      "e xt",
      "g oing",
      "k now",
      "l ittle",
      "l ves",
      "m in",
      "o ff",
      "p ri",
      "r ic",
      "t able",
      "u ddenly",
      "Ġt ip",
      "he l",
      "Ġw at",
      "Ġw ater",
      "Ġs le",
      "Ġs ky",
      "Ġs ometimes",
      "Ġo bl",
      "er en",
      "er ing",
      "ou is",
      "ha ve",
      "re as",
      "it ality",
      "Ġb ar",
      "is ed",
      "Ġc ur",
      "Ġf ig",
      "Ġf ingers",
      "Ġf aded",
      "Ġd iv",
      "Ġd ied",
      "Ġd uring",
      "om p",
      "Ġl ine",
      "Ġl ady",
      "ar ce",
      "ar ily",
      "ĠI f",
      "Ġh um",
      "ll o",
      "at t",
      "at ive",
      "an n",
      "Ġg ay",
      "Ġg ather",
      "Ġp ur",
      "ow ard",
      "st ra",
      "Ġe ight",
      "Ġe ye",
      "Ġy et",
      "Ġth irty",
      "ot s",
      "ot ion",
      "ot hes",
      "ro l",
      "ro lled",
      "al m",
      "Ġst ayed",
      "Ġme m",
      "ter ed",
      "Ġre g",
      "Ġre turn",
      "Ġli ving",
      "Ġli brary",
      "ce al",
      "if ul",
      "if ied",
      "ĠW ell",
      "Ġse cond",
      "Ġup stairs",
      "ous es",
      "ĠA ll",
      "us ion",
      "Ġv ague",
      "Ġso ft",
      "Ġso lemn",
      "Ġsh ow",
      "ill age",
      "Ġun familiar",
      "Ġcon n",
      "Ġcon s",
      "um ped",
      "Ġne ar",
      "au ght",
      "ck t",
      "th ought",
      "ĠN ow",
      "ĠH ot",
      "Ġtr y",
      "Ġcom pl",
      "ĠO ne",
      "Ġfl at",
      "Ġqu estion",
      "row ing",
      "ĠF r",
      "ru gg",
      "Ġde f",
      "Ġbl ack",
      "Ġevery one",
      "Ġsha pe",
      "Ġpo or",
      "Ġopen ing",
      "iv es",
      "Ġinc redul",
      "Ġnew sp",
      "Ġob v",
      "Ġper f",
      "Ġexc it",
      "Ġdr unk",
      "Ġdes p",
      "sit ion",
      "Ġsil ent",
      "Ġsil ence",
      "Ġclo sed",
      "Ġstr ang",
      "az ed",
      "Ġhard ly",
      "ex p",
      "Ġacc ident",
      "iet y",
      "Ġdre w",
      "Ġpres ence",
      "Ġcrow ded",
      "Ġel se",
      "Ġhel p",
      "ib ly",
      "Ġfun ny",
      "Ġbu y",
      "Ġflow ers",
      "loo king",
      "Ġta xi",
      "Ġfin ally",
      "after noon",
      "enc y",
      "Ġhesit ated",
      "Ġmonth s",
      "Ġmus ic",
      "Ġdiff er",
      "olute ly",
      "Ġocc urred",
      "Ġhop e",
      "vid ently",
      "bec ause",
      "Ġsid ew",
      "Ġdoub t",
      "B e",
      "W ith",
      "a j",
      "a ur",
      "a pped",
      "b ing",
      "c ar",
      "c le",
      "c orn",
      "c ertain",
      "g ar",
      "i ant",
      "j ected",
      "k es",
      "l and",
      "l ip",
      "m ist",
      "m ade",
      "n er",
      "n ing",
      "n ight",
      "n ew",
      "o es",
      "o ss",
      "o ved",
      "o sed",
      "r ang",
      "t re",
      "t es",
      "t ly",
      "u g",
      "u le",
      "v ol",
      "w ell",
      "Ġ 19",
      "Ġt ight",
      "in es",
      "in et",
      "in ct",
      "Ġw and",
      "Ġw alking",
      "Ġw eren",
      "Ġs k",
      "Ġo pp",
      "er ved",
      "er haps",
      "Ġm ad",
      "Ġm iss",
      "Ġm ention",
      "it ion",
      "Ġb it",
      "Ġb ay",
      "Ġb est",
      "Ġb ath",
      "is m",
      "is ing",
      "ing er",
      "ing ing",
      "Ġc ous",
      "Ġc op",
      "Ġc aught",
      "Ġf ant",
      "Ġf ather",
      "Ġf ellow",
      "Ġf ifty",
      "on ed",
      "Ġto day",
      "or ted",
      "Ġd one",
      "Ġl it",
      "Ġl im",
      "Ġl ap",
      "ar ing",
      "Ġh ouses",
      "at or",
      "at ic",
      "an ished",
      "Ġg ate",
      "Ġg olf",
      "Ġha t",
      "le am",
      "le burg",
      "ut h",
      "id ge",
      "ic ular",
      "Ġy ach",
      "im ent",
      "Ġbe at",
      "Ġbe ach",
      "ent y",
      "ent ed",
      "Ġu se",
      "Ġth ick",
      "Ġth rew",
      "ot e",
      "ir m",
      "ro b",
      "ĠT h",
      "Ġst iff",
      "Ġst reet",
      "am es",
      "am ent",
      "Ġfor m",
      "Ġre ach",
      "il ing",
      "Ġli e",
      "ce pted",
      "all ed",
      "ant ry",
      "ĠW orld",
      "Ġse ar",
      "Ġr ow",
      "ĠD an",
      "ess ly",
      "ag ne",
      "Ġab ove",
      "Ġab rupt",
      "us h",
      "Ġover head",
      "Ġsh if",
      "ind ed",
      "Ġun re",
      "Ġcon sc",
      "ra wn",
      "um bled",
      "Ġj umped",
      "Ġle g",
      "Ġwho se",
      "ĠJ une",
      "ck leburg",
      "th rough",
      "ĠH ow",
      "Ġtr ue",
      "Ġno on",
      "ff ee",
      "Ġturn ing",
      "Ġgl ance",
      "Ġco ckt",
      "Ġco ffee",
      "Ġoff ic",
      "ap ers",
      "Ġqu ite",
      "Ġqu iet",
      "Ġyour self",
      "ru pted",
      "sp ring",
      "ect ion",
      "Ġroom s",
      "ne ver",
      "Ġsl ightly",
      "Ġdri ver",
      "ĠâĢ¦ âĢĿ",
      "Ġcall ing",
      "Ġsc ene",
      "Ġcha mp",
      "Ġdis c",
      "Ġdis m",
      "co vered",
      "for med",
      "iz e",
      "iz ing",
      "Ġen jo",
      "mer ged",
      "iv id",
      "Ġhour s",
      "Ġint im",
      "Ġint rod",
      "Ġimp ression",
      "Ġimp ati",
      "Ġpol ice",
      "Ġpol itely",
      "Ġinter est",
      "Ġinter ested",
      "Ġinv ited",
      "Ġlau gh",
      "Ġbel ong",
      "Ġclo s",
      "Ġsupp er",
      "wh o",
      "Ġapp ro",
      "ene gro",
      "Ġreal ized",
      "Ġent hus",
      "Ġdro pped",
      "Ġbelie ved",
      "Ġweek s",
      "ĠSt reet",
      "bo ard",
      "oun ted",
      "Ġlow er",
      "Ġcas ual",
      "loo ked",
      "Ġsub ject",
      "Ġwr ong",
      "Ġthin king",
      "Ġord er",
      "Ġter rible",
      "ey er",
      "Ġed ge",
      "Ġserv ants",
      "Ġdet er",
      "Ġur ged",
      "Ġforgot ten",
      "Ġext ra",
      "Ġguest s",
      "Ġautom ob",
      "Ġphys ical",
      "ouis ville",
      "arce ly",
      "Ġperf ect",
      "lip spring",
      "Ġfant astic",
      "Ġenthus i",
      "lipspring er",
      "! âĢĻ",
      "G o",
      "M ichaelis",
      "N ever",
      "S t",
      "T h",
      "V ery",
      "a f",
      "a it",
      "b all",
      "b ul",
      "c ome",
      "c ess",
      "c ould",
      "d er",
      "d idn",
      "e f",
      "f lo",
      "f ive",
      "g u",
      "g an",
      "h or",
      "h our",
      "i ent",
      "i ew",
      "i ally",
      "i ving",
      "i ps",
      "n est",
      "p ro",
      "p ers",
      "s m",
      "s y",
      "s ion",
      "t on",
      "t ook",
      "t ime",
      "u pp",
      "u ously",
      "v as",
      "w l",
      "w hat",
      "w ord",
      "z e",
      "Ġ *",
      "Ġ ice",
      "Ġt ill",
      "Ġt ang",
      "Ġt aking",
      "Ġt ears",
      "Ġt aken",
      "he ard",
      "in y",
      "in king",
      "in ced",
      "Ġw re",
      "Ġw ide",
      "Ġw ip",
      "Ġw alk",
      "Ġs on",
      "Ġs im",
      "Ġs al",
      "Ġs ol",
      "Ġs ong",
      "er able",
      "re ad",
      "Ġm iddle",
      "Ġm uttered",
      "Ġb ur",
      "Ġb all",
      "Ġb other",
      "Ġb ene",
      "is f",
      "en n",
      "Ġc ut",
      "Ġc ard",
      "Ġc lock",
      "Ġf ur",
      "Ġf illed",
      "or ate",
      "as k",
      "Ġd awn",
      "Ġd rugstore",
      "Ġd rawn",
      "Ġh or",
      "es qu",
      "Ġg rou",
      "Ġg est",
      "Ġg lo",
      "Ġg round",
      "Ġg iven",
      "Ġg leam",
      "Ġp ar",
      "Ġp ard",
      "Ġp ink",
      "Ġp ushed",
      "Ġha st",
      "id ed",
      "Ġn ine",
      "Ġn erv",
      "st ant",
      "st opped",
      "Ġe c",
      "Ġbe nd",
      "Ġbe ll",
      "ent le",
      "ot esqu",
      "ac y",
      "al th",
      "Ġwith in",
      "Ġme l",
      "Ġme ant",
      "am ed",
      "Ġfor get",
      "Ġre qu",
      "Ġre ass",
      "Ġre sp",
      "Ġre ason",
      "Ġas hes",
      "il t",
      "il ar",
      "Ġsa v",
      "Ġli ked",
      "ĠW ith",
      "Ġse a",
      "Ġr ich",
      "Ġsu dden",
      "Ġsu per",
      "Ġdo ll",
      "ch ing",
      "the ir",
      "our n",
      "our s",
      "ous and",
      "Ġab le",
      "ec ul",
      "ĠB iloxi",
      "ab s",
      "Ġv anished",
      "el s",
      "Ġso on",
      "Ġso ld",
      "ort h",
      "Ġgo es",
      "Ġsp ot",
      "Ġsp ring",
      "Ġcon v",
      "Ġcon ceal",
      "um e",
      "um n",
      "um ed",
      "Ġne ither",
      "Ġdown stairs",
      "ĠC arraway",
      "Ġor che",
      "Ġback ward",
      "ĠH aven",
      "ist en",
      "ist ent",
      "Ġtr an",
      "Ġtr ag",
      "Ġtr ust",
      "Ġtr uth",
      "Ġtw enty",
      "Ġwhat ever",
      "ass ion",
      "ap s",
      "ĠO r",
      "Ġsm ile",
      "ĠF inn",
      "sp ort",
      "Ġbeg inning",
      "Ġde al",
      "Ġgre w",
      "Ġbl ank",
      "Ġsha king",
      "Ġmin t",
      "Ġunder stood",
      "ave nder",
      "uc ed",
      "uc ille",
      "Ġsay s",
      "Ġsc arcely",
      "Ġpart icular",
      "Ġcont empt",
      "for get",
      "Ġen g",
      "Ġlook s",
      "Ġinc luded",
      "Ġinc reas",
      "Ġnew s",
      "tain s",
      "Ġbr own",
      "Ġbr ick",
      "Ġhar sh",
      "ross ed",
      "Ġob sc",
      "Ġob jected",
      "Ġsat isf",
      "Ġinter rupted",
      "Ġbre ak",
      "Ġdark ness",
      "Ġstr ained",
      "Ġrest ed",
      "Ġrest less",
      "Ġdress es",
      "Ġsupp osed",
      "su ed",
      "wh ich",
      "Ġapp arent",
      "app eared",
      "Ġchan ged",
      "Ġconf used",
      "Ġconf usion",
      "ĠR os",
      "Ġcare less",
      "Ġgood bye",
      "Ġfriend s",
      "Ġplay ed",
      "Ġfind ing",
      "Ġem barr",
      "Ġaut umn",
      "Ġbook s",
      "Ġche ek",
      "Ġche erful",
      "Ġwait ing",
      "Do es",
      "Ġsing ing",
      "Ġbot tle",
      "Ġmove ment",
      "oun ced",
      "Ġcertain ly",
      "Ġlea ves",
      "not hing",
      "Ġcirc um",
      "Ġhel ped",
      "Ġatt ention",
      "Ġcas ually",
      "ĠOn ce",
      "ĠK lipspringer",
      "Ġass ured",
      "Ġdam p",
      "Ġprom ise",
      "Ġele v",
      "ash ion",
      "Ġdraw ing",
      "ĠMont enegro",
      "Ġsharp ly",
      "Ġpleas ant",
      "Ġcoll ege",
      "Ġdream s",
      "Ġsho ck",
      "Ġver and",
      "Ġmist ake",
      "Ġnec k",
      "Ġbeaut y",
      "Ġsusp ic",
      "Ġkiss ed",
      "Ġshirt s",
      "ĠĠĠĠĠĠĠĠĠĠĠĠĠĠĠĠĠĠĠĠĠĠĠĠĠĠĠĠĠĠĠĠ Ġ",
      "Ġble w",
      "Ġstret ched",
      "ĠAmeric an",
      "Ġincess antly",
      "Ġcount ry",
      "Ġobv iously",
      "Ġsidew alk",
      "inet een",
      "Ġcop y",
      "Ġabrupt ly",
      "Ġchamp agne",
      "Ġimpati ently",
      "Ġdeter m",
      "Ġbene ath",
      "Ġpard on",
      "otesqu e",
      "Ġrequ est",
      "Ġapparent ly",
      ", âĢĻ",
      "1 5",
      "A n",
      "C h",
      "E ven",
      "G od",
      "H ere",
      "J ust",
      "L et",
      "L isten",
      "N ow",
      "O n",
      "S ee",
      "Y our",
      "a ed",
      "a ils",
      "b re",
      "b ow",
      "b ack",
      "b ber",
      "c ut",
      "c ently",
      "d r",
      "d es",
      "d own",
      "d el",
      "d ress",
      "d ark",
      "e ach",
      "e pped",
      "e ither",
      "e yed",
      "f ast",
      "f ace",
      "f irst",
      "g n",
      "h undred",
      "i ec",
      "i vered",
      "l az",
      "l most",
      "m on",
      "m ore",
      "m ber",
      "p ut",
      "p iece",
      "r act",
      "s ha",
      "s on",
      "s um",
      "t ic",
      "t han",
      "t ru",
      "u ly",
      "u ct",
      "v ies",
      "w his",
      "w ife",
      "x es",
      "y s",
      "y ears",
      "Ġ (",
      "Ġ U",
      "Ġ âĢĿ",
      "Ġ ident",
      "Ġt on",
      "Ġt em",
      "Ġt one",
      "Ġt ree",
      "he aps",
      "Ġa st",
      "in ary",
      "Ġw an",
      "Ġw ag",
      "Ġs imp",
      "ed ding",
      "er ted",
      "ou nt",
      "ha pp",
      "re g",
      "re st",
      "Ġm is",
      "Ġm ay",
      "Ġm ir",
      "Ġm il",
      "Ġm ile",
      "it ted",
      "Ġb al",
      "Ġb ound",
      "is c",
      "is ion",
      "is ively",
      "Ġc ry",
      "Ġc eas",
      "Ġf as",
      "Ġf ut",
      "Ġf right",
      "Ġf ree",
      "Ġf ire",
      "Ġf irm",
      "Ġf ashion",
      "on est",
      "on ne",
      "Ġto p",
      "as m",
      "Ġd ance",
      "Ġd ire",
      "Ġd ign",
      "Ġin no",
      "Ġl ad",
      "Ġl em",
      "Ġl un",
      "Ġl ying",
      "Ġl oud",
      "Ġl avender",
      "ar ound",
      "ar ious",
      "Ġof ten",
      "Ġh o",
      "Ġh y",
      "Ġh ig",
      "Ġh olding",
      "at ively",
      "Ġg a",
      "Ġg row",
      "Ġg orge",
      "Ġg entle",
      "Ġp at",
      "Ġp an",
      "Ġp ay",
      "Ġp ress",
      "Ġp ick",
      "Ġp air",
      "Ġp iec",
      "le t",
      "le ft",
      "id ing",
      "id ly",
      "Ġn ur",
      "Ġn atur",
      "Ġn ineteen",
      "st ead",
      "ic able",
      "ic ated",
      "Ġe art",
      "Ġe merged",
      "Ġy es",
      "im my",
      "im ming",
      "Ġbe ating",
      "et ro",
      "se e",
      "se lves",
      "Ġth r",
      "ay be",
      "ac ing",
      "ac ted",
      "al ways",
      "ri ef",
      "âĢĶ âĢľ",
      "Ġst ay",
      "Ġst ir",
      "Ġst rugg",
      "ad ually",
      "oo se",
      "am s",
      "Ġfor ce",
      "Ġre ce",
      "Ġre co",
      "Ġas h",
      "her self",
      "Ġli fted",
      "ce nd",
      "He llo",
      "ĠM eyer",
      "ĠW h",
      "Ġse ll",
      "Ġse lf",
      "to gether",
      "Ġr ad",
      "Ġr ide",
      "Ġr um",
      "Ġr hy",
      "Ġr ushed",
      "Ġr ail",
      "em ber",
      "ight ed",
      "ess ary",
      "ch o",
      "ĠS ometimes",
      "ag ain",
      "own ed",
      "un ted",
      "est ig",
      "ell ed",
      "us hing",
      "ĠB y",
      "ab orate",
      "Ġv ig",
      "Ġv ivid",
      "Ġv iew",
      "el ve",
      "Ġsh ut",
      "Ġsh ot",
      "Ġsh out",
      "Ġsh ore",
      "Ġsh ining",
      "Ġal oud",
      "ort ant",
      "Ġsp ec",
      "Ġun p",
      "Ġun iver",
      "very body",
      "Ġro ck",
      "Ġag e",
      "Ġany body",
      "th m",
      "th ink",
      "ress ive",
      "ick er",
      "Ġknow s",
      "ĠE ng",
      "ĠE ckleburg",
      "ist ening",
      "ak es",
      "ass ment",
      "sh ore",
      "sh ine",
      "gg s",
      "Ġcom es",
      "Ġrem ained",
      "Ġsm oke",
      "row s",
      "ĠF if",
      "Ġbeg un",
      "Ġim ag",
      "ie ld",
      "Ġde ath",
      "Ġcan vas",
      "Ġac cepted",
      "Ġwhere upon",
      "Ġwa ved",
      "Ġstar s",
      "Ġstar ing",
      "ĠL ouisville",
      "ĠL ucille",
      "Ġdri fted",
      "Ġsc orn",
      "Ġbo nd",
      "Ġcha r",
      "Ġdis covered",
      "Ġen chan",
      "be ing",
      "iv il",
      "ire s",
      "Ġwor ried",
      "Ġgr otesque",
      "Ġpol ite",
      "ek er",
      "Ġmar ble",
      "Ġcl othes",
      "Ġpro d",
      "Ġpro found",
      "Ġgarden s",
      "Ġstr ange",
      "Ġarm y",
      "az z",
      "Ġexp ect",
      "Ġexp ected",
      "su it",
      "Ġapp eared",
      "Ġsun light",
      "Ġchan ce",
      "Ġchan ging",
      "Ġshould ers",
      "Ġph r",
      "Ġhus ky",
      "Ġadd ress",
      "Ġfollow ing",
      "Ġem pt",
      "Ġem otion",
      "Ġwhis ky",
      "Ġsurpris e",
      "oc ked",
      "Ġbed room",
      "Ġabs or",
      "Ġabs olutely",
      "Ġwait er",
      "Ġpres ent",
      "Ġpr ot",
      "Ġstart led",
      "Ġmove ments",
      "Ġcontin ually",
      "Ġear ly",
      "Ġrun ning",
      "Ġtou ched",
      "Ġaff air",
      "ens ity",
      "Ġcirc le",
      "Ġatt empt",
      "Ġmurmur ed",
      "do or",
      "Ġfun eral",
      "os ity",
      "ud y",
      "Ġcor re",
      "Ġdist ance",
      "Ġdam ned",
      "Ġele ct",
      "Ġglass es",
      "Ġinst inct",
      "Ġchild ren",
      "ian o",
      "Ġsn apped",
      "idn ight",
      "Ġmoon light",
      "eas y",
      "Ġexcited ly",
      "under stand",
      "Ġsqu are",
      "atur day",
      "Ġgold en",
      "Ġapart ment",
      "Ġcorn er",
      "rill ing",
      "form ation",
      "Ġcigaret te",
      "Ġcigaret tes",
      "every thing",
      "Ġmag az",
      "Ġgen er",
      "Ġghost ly",
      "Ġconc entr",
      "Ġpock ets",
      "Ġphotogra ph",
      "Ġreluct ant",
      "ele br",
      "Ġwat ched",
      "Ġsle nder",
      "Ġobl ig",
      "Ġfig ure",
      "Ġgather ed",
      "Ġmem ory",
      "Ġreturn ed",
      "Ġconn ection",
      "ĠHot el",
      "ĠFr ance",
      "Ġincredul ously",
      "Ġnewsp aper",
      "Ġexcit ement",
      "exp ected",
      "aur ant",
      "Ġcous in",
      "Ġyach t",
      "Ġintim ate",
      "Ġautomob iles",
      "ask et",
      "Ġec st",
      "Ġdoll ars",
      "ecul iar",
      "Ġorche stra",
      "Ġcircum st",
      "Ġdeterm ined",
      "aed eker",
      "tru e",
      "Ġmir r",
      "Ġfut ure",
      "Ġinno cently",
      "Ġgorge ous",
      "Ġpiec es",
      "Ġnur se",
      "Ġeart h",
      "Ġrece iver",
      "Ġreco gn",
      "Ġrhy thm",
      "3 0",
      "A re",
      "B y",
      "C an",
      "C arraway",
      "F rom",
      "H ave",
      "I I",
      "J immy",
      "L i",
      "M ost",
      "M iss",
      "N ew",
      "N ext",
      "S uddenly",
      "Y ea",
      "a by",
      "a pt",
      "a ving",
      "b ly",
      "b ro",
      "b ably",
      "c ri",
      "c her",
      "c ame",
      "c use",
      "d re",
      "d ec",
      "d ered",
      "e v",
      "f l",
      "f ort",
      "f ting",
      "f riend",
      "f used",
      "g s",
      "g es",
      "g ant",
      "g um",
      "g irl",
      "g arden",
      "g arage",
      "g onne",
      "h um",
      "i ated",
      "i ence",
      "k er",
      "l t",
      "l or",
      "l ar",
      "m is",
      "m as",
      "m ight",
      "m oment",
      "m atter",
      "o h",
      "o int",
      "p ing",
      "p ar",
      "p ast",
      "p ose",
      "p res",
      "p icture",
      "r ist",
      "s es",
      "s et",
      "s uc",
      "s ign",
      "s aid",
      "t is",
      "t oo",
      "t ried",
      "t aking",
      "t ory",
      "t aken",
      "t wo",
      "t oward",
      "u b",
      "u ro",
      "u ss",
      "u ate",
      "u ge",
      "u ished",
      "u ction",
      "v al",
      "v als",
      "w ant",
      "w ill",
      "w hy",
      "w onder",
      "w hel",
      "x iously",
      "x cuse",
      "Ġ Q",
      "Ġ âĢĻ",
      "Ġ ve",
      "Ġ est",
      "Ġ ill",
      "Ġt an",
      "Ġt ent",
      "Ġt ur",
      "Ġt ired",
      "Ġt ourn",
      "he ar",
      "he ster",
      "Ġa head",
      "Ġa unt",
      "Ġa vo",
      "âĢ ¦",
      "in v",
      "in al",
      "in ation",
      "in ity",
      "in ting",
      "in ated",
      "Ġw it",
      "Ġw ra",
      "Ġw orn",
      "Ġw inter",
      "Ġw ives",
      "Ġs no",
      "Ġs now",
      "Ġs eries",
      "Ġs orry",
      "Ġo wl",
      "er k",
      "er t",
      "er se",
      "ou l",
      "ha nd",
      "ha st",
      "ha se",
      "re m",
      "Ġm ed",
      "Ġm od",
      "Ġm ill",
      "Ġm ach",
      "Ġm iles",
      "Ġm ixed",
      "Ġm ounted",
      "Ġm idnight",
      "it or",
      "it ch",
      "it able",
      "Ġb ent",
      "Ġb ore",
      "Ġb urn",
      "Ġb are",
      "en se",
      "Ġc y",
      "Ġc hat",
      "Ġc ent",
      "Ġc ol",
      "Ġc ost",
      "Ġc alm",
      "Ġc elebr",
      "Ġf ro",
      "Ġf ight",
      "Ġf urn",
      "on ly",
      "on ce",
      "as hing",
      "Ġd us",
      "Ġd ep",
      "Ġd iss",
      "Ġd ancing",
      "Ġin f",
      "Ġin n",
      "Ġin ex",
      "Ġin de",
      "Ġin formation",
      "om ed",
      "ar m",
      "ar n",
      "ar ter",
      "Ġh orn",
      "Ġh ollow",
      "Ġh ung",
      "Ġh uge",
      "ll a",
      "at hing",
      "at ory",
      "at ement",
      "at ically",
      "es tern",
      "Ġg ust",
      "Ġg ame",
      "Ġg au",
      "Ġg ru",
      "Ġp al",
      "Ġp our",
      "Ġp ort",
      "Ġp op",
      "Ġp ig",
      "Ġp ear",
      "Ġp ass",
      "Ġp ressed",
      "Ġp icked",
      "Ġp iece",
      "Ġp iano",
      "Ġp eculiar",
      "Ġha te",
      "ow ing",
      "le nd",
      "le gg",
      "Ġwas te",
      "Ġn or",
      "Ġn um",
      "st ill",
      "st ep",
      "st reet",
      "st ery",
      "ic ed",
      "ic king",
      "ic ism",
      "Ġe as",
      "Ġe vent",
      "Ġe tern",
      "Ġy awn",
      "im on",
      "ver tis",
      "ent ions",
      "Ġon es",
      "Ġth row",
      "Ġth ousand",
      "Ġyou th",
      "ot legg",
      "ac ked",
      "ir ation",
      "Ġhis tory",
      "al ter",
      "ri age",
      "ĠT o",
      "ĠT r",
      "ĠT ell",
      "Ġst o",
      "Ġst ra",
      "Ġst raw",
      "Ġst uff",
      "Ġst rolled",
      "Ġst epped",
      "ad m",
      "ad s",
      "ad ing",
      "ad dy",
      "oo ked",
      "Ġan xiously",
      "am p",
      "Ġsa nd",
      "ĠG a",
      "ĠG ood",
      "Ġli qu",
      "ain ted",
      "ĠM iddle",
      "if orm",
      "Ġup per",
      "Ġr ace",
      "Ġr aw",
      "Ġwe ather",
      "pp er",
      "Ġdo ck",
      "ch id",
      "ch ief",
      "ol ate",
      "the m",
      "the less",
      "ĠS omething",
      "ĠS und",
      "ĠS uddenly",
      "ĠS aturday",
      "our ce",
      "ag g",
      "ere ly",
      "est ions",
      "ec ting",
      "ĠA r",
      "ĠA ven",
      "ĠB road",
      "ĠB aedeker",
      "ab les",
      "Ġv is",
      "Ġv ic",
      "Ġv isible",
      "Ġv itality",
      "Ġv illage",
      "Ġv arious",
      "qu aint",
      "qu iet",
      "qu estion",
      "Ġso b",
      "ord inary",
      "Ġal ive",
      "Ġal so",
      "Ġsp ent",
      "Ġsp rang",
      "Ġsp lend",
      "Ġun utter",
      "Ġun certain",
      "Ġun happ",
      "Ġun expected",
      "Ġun iform",
      "ul king",
      "Ġex am",
      "Ġman ner",
      "Ġman sion",
      "Ġj a",
      "Ġj ew",
      "Ġle ather",
      "Ġle aning",
      "op h",
      "ĠC ome",
      "ĠC oll",
      "ĠJ ames",
      "th ree",
      "Ġcar ried",
      "Ġcar ry",
      "ep t",
      "Ġafter ward",
      "ĠĠĠĠĠĠĠĠ ĠĠĠĠ",
      "ist s",
      "Ġtr ack",
      "Ġthem selves",
      "sh ould",
      "Ġnight s",
      "ure ly",
      "Ġmo vies",
      "ap art",
      "ĠO f",
      "ĠO ggs",
      "Ġar t",
      "Ġrem ain",
      "Ġrem ote",
      "Ġqu arter",
      "Ġqu estions",
      "Ġsm o",
      "pl ace",
      "pl ane",
      "pl essly",
      "ĠF ren",
      "Ġother s",
      "iss ion",
      "Ġde finitely",
      "Ġpl an",
      "Ġlo c",
      "Ġlo cked",
      "Ġevery body",
      "thing s",
      "Ġmin ister",
      "Ġpo inted",
      "Ġpo sition",
      "ĠL e",
      "ĠL et",
      "Ġsl id",
      "Ġbec ome",
      "Ġbo at",
      "Ġtoward s",
      "Ġcont r",
      "ĠP ark",
      "ĠP erhaps",
      "ĠP laz",
      "ĠY ale",
      "be gan",
      "Ġsw inging",
      "ire ly",
      "Ġbro ad",
      "Ġbr idge",
      "Ġint ention",
      "Ġint ensity",
      "Ġgr ace",
      "Ġgr adually",
      "Ġimp assion",
      "Ġimp ortant",
      "Ġpol o",
      "Ġhapp y",
      "Ġthan ks",
      "Ġdr ank",
      "Ġinter ior",
      "Ġdes k",
      "Ġdes cri",
      "Ġdes olate",
      "Ġinv ite",
      "Ġinv isible",
      "atter ed",
      "Ġpro bably",
      "Ġad vertis",
      "you ng",
      "Ġgarden er",
      "Ġend ed",
      "Ġstr ing",
      "az ing",
      "lu ding",
      "Ġdress ing",
      "wh ite",
      "ex c",
      "ex cept",
      "Ġlawn s",
      "leas ant",
      "Ġsun shine",
      "Ġreal ize",
      "Ġent ered",
      "Ġent irely",
      "Ġpers istent",
      "iff er",
      "Ġdec ided",
      "utter ly",
      "Ġsound ed",
      "Ġgu essed",
      "Ġslow ed",
      "uff led",
      "Ġsent iment",
      "Ġought n",
      "Ġacc us",
      "Ġshort ly",
      "Ġcr im",
      "atch ing",
      "Ġpr act",
      "Ġel aborate",
      "Ġeff ect",
      "Ġsugg estion",
      "Ġcomm on",
      "fin ite",
      "got ten",
      "Ġperson al",
      "do ors",
      "res ist",
      "Ġcas e",
      "Ġcuri osity",
      "Ġboy s",
      "part y",
      "Ġcor rec",
      "av our",
      "vent een",
      "Ġwonder ed",
      "My rtle",
      "che on",
      "chan ge",
      "po sed",
      "Ġdraw er",
      "Ġinst ant",
      "Ġord ered",
      "cha ir",
      "would n",
      "Ġgro c",
      "Ġgro aning",
      "Ġtouch ing",
      "Ġdel ic",
      "Ġdiff ic",
      "Ġru b",
      "Ġdisapp eared",
      "Ġadm itted",
      "cont rol",
      "Ġres ol",
      "Ġviol ent",
      "Ġviol ently",
      "Ġcomplete ly",
      "lau ghed",
      "wind ows",
      "Ġir resist",
      "Ġcorn ers",
      "Ġgrave l",
      "Ġnec essary",
      "str ained",
      "Ġbeaut iful",
      "arent s",
      "gre y",
      "mar ried",
      "Ġsen se",
      "Ġswe et",
      "har d",
      "Ġcle ar",
      "Ġtow er",
      "Ġyard s",
      "entr al",
      "vel t",
      "Ġglow ing",
      "Ġpock et",
      "Ġphotogra p",
      "Ġpriv ate",
      "dro plane",
      "pri et",
      "Ġtip to",
      "Ġcur tains",
      "Ġhum an",
      "Ġpur sued",
      "Ġeye b",
      "Ġdesp air",
      "Ġstrang er",
      "Ġdiffer ent",
      "Ġdiffer ence",
      "aj or",
      "corn er",
      "oss al",
      "tre es",
      "Ġwand ered",
      "Ġmention ed",
      "ĠHow ever",
      "Ġcockt ails",
      "Ġenjo yed",
      "Ġinterest ing",
      "flo ated",
      "Ġwip ed",
      "Ġbur st",
      "Ġfur ther",
      "Ġgrou p",
      "Ġgest ure",
      "Ġglo om",
      "Ġpar ted",
      "Ġhast ily",
      "Ġnerv ous",
      "Ġsav age",
      "Ġconv inced",
      "Ġtrag ic",
      "Ġblank ly",
      "Ġeng aged",
      "Ġincreas ed",
      "Ġbreak fast",
      "ĠRos y",
      "Ġverand a",
      "Ch icago",
      "bber y",
      "sum mer",
      "Ġton ight",
      "Ġast on",
      "Ġwag on",
      "Ġsimp ly",
      "Ġmil k",
      "Ġbal ancing",
      "Ġdign ified",
      "Ġlun cheon",
      "Ġhy droplane",
      "Ġhig her",
      "Ġga iety",
      "Ġgentle man",
      "Ġpan ic",
      "Ġthr own",
      "oose velt",
      "Ġrail road",
      "Ġunp leasant",
      "ield s",
      "Ġenchan ted",
      "Ġphr ase",
      "Ġempt y",
      "Ġabsor bed",
      "Ġelect ric",
      "Ġcircumst ances",
      "gum ent",
      "rist mas",
      "suc cess",
      "uro pe",
      "Ġtourn ament",
      "erse y",
      "Ġcol ossal",
      "Ġdus k",
      "Ġpop ular",
      "Ġnum ber",
      "step s",
      "Ġetern al",
      "Ġyawn ed",
      "Ġstra ight",
      "ĠSund ay",
      "ĠAven ue",
      "ĠBroad way",
      "ĠColl ege",
      "ĠOggs ford",
      "ĠFren ch",
      "ĠPlaz a",
      "Ġimpassion ed",
      "Ġadvertis ement",
      "Ġcorrec ted",
      "? âĢĶ",
      "A h",
      "A lmost",
      "B aker",
      "B uchanan",
      "B iloxi",
      "C ody",
      "G et",
      "G oing",
      "H as",
      "H ot",
      "M cKee",
      "P erhaps",
      "R e",
      "T o",
      "T wo",
      "W as",
      "W ant",
      "W ill",
      "W olfshiem",
      "W ait",
      "Y ork",
      "a ff",
      "b b",
      "b et",
      "b ust",
      "b ig",
      "b ute",
      "b ought",
      "b eside",
      "c or",
      "c as",
      "c an",
      "c ur",
      "c to",
      "c ted",
      "c are",
      "c ap",
      "c oun",
      "d en",
      "d on",
      "d om",
      "d ust",
      "d ire",
      "d rugstore",
      "e es",
      "e al",
      "e gg",
      "e ople",
      "f un",
      "f ell",
      "f act",
      "f ifty",
      "f ingers",
      "g t",
      "g round",
      "g ave",
      "g ement",
      "h ot",
      "h ood",
      "i o",
      "i um",
      "i ber",
      "i antly",
      "k illed",
      "k new",
      "l b",
      "l im",
      "l ast",
      "l ist",
      "l ine",
      "l ish",
      "l iness",
      "m o",
      "m et",
      "m end",
      "m uch",
      "m oved",
      "n al",
      "n own",
      "n ounced",
      "o ft",
      "p he",
      "p or",
      "p es",
      "p et",
      "r ut",
      "r ay",
      "r ain",
      "r ag",
      "r ich",
      "r ange",
      "s en",
      "s ing",
      "s at",
      "s ay",
      "s al",
      "s il",
      "s ight",
      "s us",
      "s omething",
      "s olutely",
      "t om",
      "t ut",
      "t ri",
      "t less",
      "t imes",
      "t ons",
      "t rying",
      "u it",
      "u ation",
      "u dd",
      "u per",
      "v il",
      "v iol",
      "v inc",
      "v illage",
      "w a",
      "w ing",
      "w et",
      "w ear",
      "w ork",
      "z z",
      "Ġ utterly",
      "Ġt ra",
      "Ġt um",
      "Ġt ick",
      "Ġt act",
      "Ġt ipped",
      "Ġa le",
      "Ġa ud",
      "Ġa pol",
      "âĢ ĺ",
      "in st",
      "in ion",
      "in to",
      "in ally",
      "in side",
      "Ġw in",
      "Ġw is",
      "Ġw ings",
      "Ġw orth",
      "Ġw edding",
      "Ġs way",
      "Ġs ill",
      "Ġs ne",
      "Ġs cept",
      "Ġs ens",
      "Ġs erved",
      "Ġo p",
      "Ġo per",
      "ed ing",
      "er c",
      "er n",
      "er ve",
      "er ally",
      "er ves",
      "er man",
      "er ks",
      "ha ll",
      "ha ust",
      "ha lf",
      "ha bit",
      "re co",
      "re nt",
      "Ġm or",
      "Ġm ess",
      "Ġm ass",
      "Ġm atch",
      "Ġm erely",
      "Ġm uffled",
      "it er",
      "it ing",
      "it ation",
      "it ure",
      "it ably",
      "Ġb an",
      "Ġb ree",
      "Ġb lock",
      "Ġb ored",
      "Ġb ann",
      "Ġb asket",
      "is hing",
      "en ly",
      "Ġc a",
      "Ġc at",
      "Ġc and",
      "Ġc ord",
      "Ġc ris",
      "Ġf o",
      "Ġf er",
      "Ġf if",
      "Ġf ast",
      "Ġf old",
      "Ġf aced",
      "Ġf ixed",
      "Ġf inger",
      "Ġf ainted",
      "Ġf ields",
      "on es",
      "on al",
      "Ġto r",
      "Ġto ss",
      "âĢĻ ?âĢĿ",
      "or ter",
      "or ation",
      "or ies",
      "or ously",
      "or ough",
      "or ia",
      "as tern",
      "Ġd en",
      "Ġd est",
      "Ġd ear",
      "Ġd ry",
      "Ġd ang",
      "Ġd ances",
      "Ġin sp",
      "Ġin co",
      "Ġin formed",
      "Ġin ev",
      "Ġhe av",
      "Ġl and",
      "ar re",
      "ar se",
      "ar bar",
      "ĠI s",
      "Ġh ol",
      "Ġh old",
      "Ġh int",
      "Ġh ors",
      "Ġh ips",
      "Ġh ilar",
      "Ġh onest",
      "at es",
      "at tle",
      "at ure",
      "at ures",
      "es p",
      "an other",
      "Ġg ives",
      "Ġg iving",
      "Ġg rief",
      "Ġp y",
      "Ġp ot",
      "Ġp ack",
      "Ġp ost",
      "Ġp ark",
      "Ġp ath",
      "Ġp aper",
      "Ġp omp",
      "Ġp apers",
      "Ġp arents",
      "Ġha unted",
      "Ġha lt",
      "ow ed",
      "le cted",
      "Ġwas h",
      "id es",
      "id ay",
      "id ered",
      "Ġn one",
      "Ġn ost",
      "st e",
      "st y",
      "ic s",
      "Ġe t",
      "Ġe ch",
      "Ġe ase",
      "Ġe luded",
      "Ġe vidently",
      "Ġbe ads",
      "Ġu nd",
      "et er",
      "et able",
      "se qu",
      "Ġth ro",
      "Ġth inning",
      "Ġth rowing",
      "Ġth rilling",
      "ay e",
      "ot a",
      "ot h",
      "ot ted",
      "ot hing",
      "ot ions",
      "ot ten",
      "ac c",
      "ac ter",
      "ac ity",
      "ac ross",
      "ac les",
      "ir med",
      "ro ll",
      "ro ving",
      "al ian",
      "ri g",
      "ri es",
      "ri but",
      "ĠT own",
      "ĠT ost",
      "ĠT aking",
      "ĠT wo",
      "ĠT attle",
      "Ġst out",
      "Ġst ore",
      "Ġst able",
      "Ġst airs",
      "Ġst uck",
      "Ġst atement",
      "Ġst ables",
      "ur d",
      "ur ried",
      "ad es",
      "ad uate",
      "Ġme as",
      "Ġan g",
      "Ġan no",
      "Ġan nounced",
      "Ġher s",
      "am ps",
      "Ġfor th",
      "Ġfor ty",
      "Ġre f",
      "Ġre ar",
      "Ġre ver",
      "Ġre se",
      "Ġre ady",
      "Ġre fer",
      "Ġre action",
      "Ġas ide",
      "il ity",
      "il ious",
      "il ities",
      "her s",
      "Ġsa fe",
      "Ġshe er",
      "and ed",
      "all ing",
      "all ey",
      "ĠM u",
      "ĠM etro",
      "ĠM aybe",
      "ant a",
      "ant age",
      "ĠW here",
      "ĠW hy",
      "ĠW alter",
      "Ġse ven",
      "Ġse par",
      "Ġmy ster",
      "Ġr aced",
      "Ġr ising",
      "Ġr ush",
      "Ġr iding",
      "out side",
      "em on",
      "em barr",
      "Ġwe alth",
      "Ġsu ff",
      "Ġsu cc",
      "ard s",
      "ard ed",
      "ĠD id",
      "ĠD addy",
[...]
