{
  "version": "1.0",
  "truncation": null,
  "padding": null,
  "added_tokens": [
    {
      "id": 0,
      "content": "<s>",
      "single_word": false,
      "lstrip": false,
      "rstrip": false,
      "normalized": false,
      "special": true
    },
    {
      "id": 1,
      "content": "<pad>",
      "single_word": false,
      "lstrip": false,
      "rstrip": false,
      "normalized": false,
      "special": true
    },
    {
      "id": 2,
      "content": "</s>",
      "single_word": false,
      "lstrip": false,
      "rstrip": false,
      "normalized": false,
      "special": true
    },
    {
      "id": 3,
      "content": "<unk>",
      "single_word": false,
      "lstrip": false,
      "rstrip": false,
      "normalized": false,
      "special": true
    },
    {
      "id": 4,
      "content": "<mask>",
      "single_word": false,
      "lstrip": false,
      "rstrip": false,
      "normalized": false,
      "special": true
    }
  ],
  "normalizer": null,
  "pre_tokenizer": {
    "type": "ByteLevel",
    "add_prefix_space": false,
    "trim_offsets": true,
    "use_regex": true
  },
  "post_processor": {
    "type": "ByteLevel",
    "add_prefix_space": true,
    "trim_offsets": false,
    "use_regex": true
  },
  "decoder": {
    "type": "ByteLevel",
    "add_prefix_space": true,
    "trim_offsets": true,
    "use_regex": true
  },
  "model": {
    "type": "BPE",
    "dropout": null,
    "unk_token": null,
    "continuing_subword_prefix": null,
    "end_of_word_suffix": null,
    "fuse_unk": false,
    "vocab": {
      "<s>": 0,
      "<pad>": 1,
      "</s>": 2,
      "<unk>": 3,
      "<mask>": 4,
      "!": 5,
      "\"": 6,
      "#": 7,
      "$": 8,
      "%": 9,
      "&": 10,
      "'": 11,
      "(": 12,
      ")": 13,
      "*": 14,
      "+": 15,
      ",": 16,
      "-": 17,
      ".": 18,
      "/": 19,
      "0": 20,
      "1": 21,
      "2": 22,
      "3": 23,
      "4": 24,
      "5": 25,
      "6": 26,
      "7": 27,
      "8": 28,
      "9": 29,
      ":": 30,
      ";": 31,
      "<": 32,
      "=": 33,
      ">": 34,
      "?": 35,
      "@": 36,
      "A": 37,
      "B": 38,
      "C": 39,
      "D": 40,
      "E": 41,
      "F": 42,
      "G": 43,
      "H": 44,
      "I": 45,
      "J": 46,
      "K": 47,
      "L": 48,
      "M": 49,
      "N": 50,
      "O": 51,
      "P": 52,
      "Q": 53,
      "R": 54,
      "S": 55,
      "T": 56,
      "U": 57,
      "V": 58,
      "W": 59,
      "X": 60,
      "Y": 61,
      "Z": 62,
      "[": 63,
      "\\": 64,
      "]": 65,
      "^": 66,
      "_": 67,
      "`": 68,
      "a": 69,
      "b": 70,
      "c": 71,
      "d": 72,
      "e": 73,
      "f": 74,
      "g": 75,
      "h": 76,
      "i": 77,
      "j": 78,
      "k": 79,
      "l": 80,
      "m": 81,
      "n": 82,
      "o": 83,
      "p": 84,
      "q": 85,
      "r": 86,
      "s": 87,
      "t": 88,
      "u": 89,
      "v": 90,
      "w": 91,
      "x": 92,
      "y": 93,
      "z": 94,
      "{": 95,
      "|": 96,
      "}": 97,
      "~": 98,
      "¡": 99,
      "¢": 100,
      "£": 101,
      "¤": 102,
      "¥": 103,
      "¦": 104,
      "§": 105,
      "¨": 106,
      "©": 107,
      "ª": 108,
      "«": 109,
      "¬": 110,
      "®": 111,
      "¯": 112,
      "°": 113,
      "±": 114,
      "²": 115,
      "³": 116,
      "´": 117,
      "µ": 118,
      "¶": 119,
      "·": 120,
      "¸": 121,
      "¹": 122,
      "º": 123,
      "»": 124,
      "¼": 125,
      "½": 126,
      "¾": 127,
      "¿": 128,
      "À": 129,
      "Á": 130,
      "Â": 131,
      "Ã": 132,
      "Ä": 133,
      "Å": 134,
      "Æ": 135,
      "Ç": 136,
      "È": 137,
      "É": 138,
      "Ê": 139,
      "Ë": 140,
      "Ì": 141,
      "Í": 142,
      "Î": 143,
      "Ï": 144,
      "Ð": 145,
      "Ñ": 146,
      "Ò": 147,
      "Ó": 148,
      "Ô": 149,
      "Õ": 150,
      "Ö": 151,
      "×": 152,
      "Ø": 153,
      "Ù": 154,
      "Ú": 155,
      "Û": 156,
      "Ü": 157,
      "Ý": 158,
      "Þ": 159,
      "ß": 160,
      "à": 161,
      "á": 162,
      "â": 163,
      "ã": 164,
      "ä": 165,
      "å": 166,
      "æ": 167,
      "ç": 168,
      "è": 169,
      "é": 170,
      "ê": 171,
      "ë": 172,
      "ì": 173,
      "í": 174,
      "î": 175,
      "ï": 176,
      "ð": 177,
      "ñ": 178,
      "ò": 179,
      "ó": 180,
      "ô": 181,
      "õ": 182,
      "ö": 183,
      "÷": 184,
      "ø": 185,
      "ù": 186,
      "ú": 187,
      "û": 188,
      "ü": 189,
      "ý": 190,
      "þ": 191,
      "ÿ": 192,
      "Ā": 193,
      "ā": 194,
      "Ă": 195,
      "ă": 196,
      "Ą": 197,
      "ą": 198,
      "Ć": 199,
      "ć": 200,
      "Ĉ": 201,
      "ĉ": 202,
      "Ċ": 203,
      "ċ": 204,
      "Č": 205,
      "č": 206,
      "Ď": 207,
      "ď": 208,
      "Đ": 209,
      "đ": 210,
      "Ē": 211,
      "ē": 212,
      "Ĕ": 213,
      "ĕ": 214,
      "Ė": 215,
      "ė": 216,
      "Ę": 217,
      "ę": 218,
      "Ě": 219,
      "ě": 220,
      "Ĝ": 221,
      "ĝ": 222,
      "Ğ": 223,
      "ğ": 224,
      "Ġ": 225,
      "ġ": 226,
      "Ģ": 227,
      "ģ": 228,
      "Ĥ": 229,
      "ĥ": 230,
      "Ħ": 231,
      "ħ": 232,
      "Ĩ": 233,
      "ĩ": 234,
      "Ī": 235,
      "ī": 236,
      "Ĭ": 237,
      "ĭ": 238,
      "Į": 239,
      "į": 240,
      "İ": 241,
      "ı": 242,
      "Ĳ": 243,
      "ĳ": 244,
      "Ĵ": 245,
      "ĵ": 246,
      "Ķ": 247,
      "ķ": 248,
      "ĸ": 249,
      "Ĺ": 250,
      "ĺ": 251,
      "Ļ": 252,
      "ļ": 253,
      "Ľ": 254,
      "ľ": 255,
      "Ŀ": 256,
      "ŀ": 257,
      "Ł": 258,
      "ł": 259,
      "Ń": 260,
      "Ġt": 261,
      "in": 262,
      "Ġa": 263,
      "er": 264,
      "on": 265,
      "Ġs": 266,
      "re": 267,
      "Ġth": 268,
      "Ġw": 269,
      "es": 270,
      "or": 271,
      "Ġb": 272,
      "at": 273,
      "Ġc": 274,
      "ing": 275,
      "Ġf": 276,
      "is": 277,
      "ou": 278,
      "it": 279,
      "en": 280,
      "ll": 281,
      "an": 282,
      "Ġm": 283,
      "ar": 284,
      "Ġto": 285,
      "Ġp": 286,
      "Ġo": 287,
      "Ġd": 288,
      "Ġthe": 289,
      "ed": 290,
      "Ġl": 291,
      "Ġh": 292,
      "st": 293,
      "ro": 294,
      "Ġin": 295,
      "al": 296,
      "mp": 297,
      "Ġof": 298,
      "Ġn": 299,
      "Ġis": 300,
      "ic": 301,
      "el": 302,
      "et": 303,
      "ion": 304,
      "as": 305,
      "Ġg": 306,
      "ac": 307,
      "le": 308,
      "Ġre": 309,
      "ig": 310,
      "ut": 311,
      "ĠT": 312,
      "ve": 313,
      "ot": 314,
      "ĠS": 315,
      "Ġbe": 316,
      "Ġan": 317,
      "Ġfor": 318,
      "ill": 319,
      "Ġon": 320,
      "ow": 321,
      "om": 322,
      "ly": 323,
      "ay": 324,
      "amp": 325,
      "Ġe": 326,
      "Ġ&": 327,
      "ver": 328,
      "un": 329,
      "id": 330,
      "ent": 331,
      "ct": 332,
      "ĠI": 333,
      "la": 334,
      "ld": 335,
      "od": 336,
      "ch": 337,
      "Ġy": 338,
      "ad": 339,
      "ĠM": 340,
      "igh": 341,
      "all": 342,
      "ter": 343,
      "Ġso": 344,
      "Ġit": 345,
      "Ġst": 346,
      "im": 347,
      "esla": 348,
      "ust": 349,
      "up": 350,
      "Ġthat": 351,
      "th": 352,
      "ĠA": 353,
      "ir": 354,
      "Ġwe": 355,
      "ith": 356,
      "op": 357,
      "us": 358,
      "il": 359,
      "Ġwh": 360,
      "Ġne": 361,
      "est": 362,
      "Ġwill": 363,
      "am": 364,
      "Ġr": 365,
      "out": 366,
      "ke": 367,
      "Ġbut": 368,
      "Ġco": 369,
      "ĠC": 370,
      "Ġwith": 371,
      "Ġpro": 372,
      "ce": 373,
      "Th": 374,
      "ur": 375,
      "ĠTesla": 376,
      "ould": 377,
      "Ġyou": 378,
      "ight": 379,
      "if": 380,
      "Ġand": 381,
      "Ġat": 382,
      "ck": 383,
      "Ġare": 384,
      "ally": 385,
      "ere": 386,
      "Ġv": 387,
      "ars": 388,
      "ation": 389,
      "Ġsh": 390,
      "Ġgo": 391,
      "ers": 392,
      "ĠW": 393,
      "Ġtr": 394,
      "Ġmo": 395,
      "Ġha": 396,
      "ate": 397,
      "ab": 398,
      "Ġen": 399,
      "ul": 400,
      "se": 401,
      "ure": 402,
      "Ġdo": 403,
      "Ġor": 404,
      "ge": 405,
      "Ġro": 406,
      "and": 407,
      "oun": 408,
      "Ġnot": 409,
      "Ġas": 410,
      "Ġex": 411,
      "ol": 412,
      "Ġby": 413,
      "ĠTh": 414,
      "ĠF": 415,
      "Ġthis": 416,
      "ant": 417,
      "Ġde": 418,
      "Ġse": 419,
      "ity": 420,
      "ra": 421,
      "ace": 422,
      "Ġj": 423,
      "ks": 424,
      "um": 425,
      "Ġli": 426,
      "ome": 427,
      "Ġcon": 428,
      "ri": 429,
      "ĠH": 430,
      "ort": 431,
      "Ġwor": 432,
      "Ġab": 433,
      "ĠB": 434,
      "pe": 435,
      "our": 436,
      "Ġ(": 437,
      "Ġma": 438,
      "ĠN": 439,
      "ĠD": 440,
      "Ġall": 441,
      "ĠP": 442,
      "act": 443,
      "Ġal": 444,
      "pp": 445,
      "ea": 446,
      "rom": 447,
      "odel": 448,
      "Ġfrom": 449,
      "Ġlo": 450,
      "Ġwas": 451,
      "Ġch": 452,
      "gh": 453,
      "Ġhave": 454,
      "ine": 455,
      "ip": 456,
      "ard": 457,
      "qu": 458,
      "ĠE": 459,
      "ack": 460,
      "Ġun": 461,
      "one": 462,
      "..": 463,
      "reat": 464,
      "pace": 465,
      "ess": 466,
      "lo": 467,
      "ew": 468,
      "ough": 469,
      "ĠL": 470,
      "ĠR": 471,
      "Ġup": 472,
      "art": 473,
      "Ġk": 474,
      "ue": 475,
      "ĠG": 476,
      "ain": 477,
      "Ġme": 478,
      "\"\"": 479,
      "Ġcomp": 480,
      "ss": 481,
      "ost": 482,
      "ong": 483,
      "Ġabout": 484,
      "Ġcar": 485,
      "ast": 486,
      "ely": 487,
      "ction": 488,
      "king": 489,
      "Ġthan": 490,
      "are": 491,
      "ire": 492,
      "imp": 493,
      "cket": 494,
      "ĠModel": 495,
      "Ġlike": 496,
      "ive": 497,
      "Ġjust": 498,
      "ist": 499,
      "Ġus": 500,
      "ap": 501,
      "em": 502,
      "ide": 503,
      "Ġte": 504,
      "Yes": 505,
      "ound": 506,
      "Ġye": 507,
      "con": 508,
      "ies": 509,
      "Ġtim": 510,
      "ry": 511,
      "Ġneed": 512,
      "ect": 513,
      "Ġout": 514,
      "'s": 515,
      "Ġgood": 516,
      "Ġar": 517,
      "du": 518,
      "Ġhe": 519,
      "end": 520,
      "Ġpre": 521,
      "ment": 522,
      "Ġrocket": 523,
      "Ġmore": 524,
      "ĠSt": 525,
      "unch": 526,
      "very": 527,
      "Ġcan": 528,
      "Ġmy": 529,
      "Ġcom": 530,
      "'t": 531,
      "xt": 532,
      "Ġimp": 533,
      "Ġwould": 534,
      "ci": 535,
      "ore": 536,
      "Ġpo": 537,
      "Ġno": 538,
      "Ġhigh": 539,
      "ase": 540,
      "aunch": 541,
      "ts": 542,
      "ull": 543,
      "Ġhas": 544,
      "any": 545,
      "uch": 546,
      "ia": 547,
      "Ġpl": 548,
      "iv": 549,
      "ign": 550,
      "nt": 551,
      "ble": 552,
      "der": 553,
      "iz": 554,
      "ass": 555,
      "Ġad": 556,
      "able": 557,
      "Ġtime": 558,
      "Ġany": 559,
      "per": 560,
      "uper": 561,
      "sion": 562,
      "ef": 563,
      "ice": 564,
      "ub": 565,
      "ĠU": 566,
      "Ġprodu": 567,
      "ous": 568,
      "ower": 569,
      "ĠO": 570,
      "eop": 571,
      "Ġover": 572,
      "Ġeng": 573,
      "ie": 574,
      "Ġta": 575,
      "The": 576,
      "eople": 577,
      "ont": 578,
      "Ġgreat": 579,
      "ĠSpace": 580,
      "ays": 581,
      "ving": 582,
      "ĠJ": 583,
      "Ġbu": 584,
      "Ġbet": 585,
      "ame": 586,
      "Ġif": 587,
      "Ġlaunch": 588,
      "light": 589,
      "Ġour": 590,
      "Ġget": 591,
      "so": 592,
      "Ġtoo": 593,
      "ven": 594,
      "ans": 595,
      "arg": 596,
      "Ġland": 597,
      "ĠV": 598,
      "ff": 599,
      "Tesla": 600,
      "Ġthr": 601,
      "Ġmuch": 602,
      "Ġpeople": 603,
      "Ġact": 604,
      "Ġsa": 605,
      "hip": 606,
      "Ġshould": 607,
      "irst": 608,
      "ite": 609,
      "Ġcars": 610,
      "age": 611,
      "Ġwee": 612,
      "Ġthere": 613,
      "Ġnext": 614,
      "ually": 615,
      "ep": 616,
      "ud": 617,
      "Ġsome": 618,
      "...": 619,
      "Ġone": 620,
      "Ġapp": 621,
      "ink": 622,
      "ind": 623,
      "alcon": 624,
      "cc": 625,
      "Ġ.": 626,
      "Ġtest": 627,
      "ĠThe": 628,
      "atter": 629,
      "ory": 630,
      "oo": 631,
      "hing": 632,
      "ft": 633,
      "Ġsoon": 634,
      "Ġle": 635,
      "Ġwork": 636,
      "Ġmake": 637,
      "bab": 638,
      "Ġthey": 639,
      "ich": 640,
      "own": 641,
      "Ġ~": 642,
      "eah": 643,
      "int": 644,
      "Ġag": 645,
      "Ġdes": 646,
      "anks": 647,
      "port": 648,
      "ood": 649,
      "We": 650,
      "Ġnow": 651,
      "day": 652,
      "Ġinc": 653,
      "ence": 654,
      "ric": 655,
      "Ġyear": 656,
      "Ġmost": 657,
      "ated": 658,
      "ach": 659,
      "be": 660,
      "pt": 661,
      "her": 662,
      "bit": 663,
      "Ġnew": 664,
      "ĠWill": 665,
      "Ġfa": 666,
      "ware": 667,
      "Ġam": 668,
      "ance": 669,
      "ange": 670,
      "Ġright": 671,
      "Ġoth": 672,
      "Ġhard": 673,
      "Ġmon": 674,
      "Ġcont": 675,
      "ree": 676,
      "Ġsp": 677,
      "rag": 678,
      "Ġengine": 679,
      "ats": 680,
      "Ġonly": 681,
      "Ġits": 682,
      "Yeah": 683,
      "ber": 684,
      "Ġdri": 685,
      "vi": 686,
      "Ġyour": 687,
      "Ġsol": 688,
      "Ġlong": 689,
      "Ġkn": 690,
      "ors": 691,
      "Ġwho": 692,
      "Ġway": 693,
      "Ġ%": 694,
      "Ġwhat": 695,
      "Wh": 696,
      "gy": 697,
      "Ġbetter": 698,
      "ens": 699,
      "Ġfe": 700,
      "urn": 701,
      "ĠSpaceX": 702,
      "ult": 703,
      "bably": 704,
      "ater": 705,
      "os": 706,
      "ade": 707,
      "actly": 708,
      "Ġper": 709,
      "Ġpart": 710,
      "Ex": 711,
      "we": 712,
      "You": 713,
      "Ġ\"\"": 714,
      "vel": 715,
      "ount": 716,
      "Ġspe": 717,
      "Ġint": 718,
      "Ġmonth": 719,
      "Ġteam": 720,
      "Ġfirst": 721,
      "Ġqu": 722,
      "aybe": 723,
      "Ġrec": 724,
      "Ġweek": 725,
      "Ġback": 726,
      "00": 727,
      "oc": 728,
      "Ġproduction": 729,
      "ha": 730,
      "ary": 731,
      "gr": 732,
      "ragon": 733,
      "ĠWe": 734,
      "kes": 735,
      "Ġwhich": 736,
      "ĠFalcon": 737,
      "Ġaut": 738,
      "Ġwhen": 739,
      "ating": 740,
      "icle": 741,
      "wn": 742,
      "Ġfun": 743,
      "ĠX": 744,
      "Ġres": 745,
      "fter": 746,
      "ical": 747,
      "ully": 748,
      "Ġlanding": 749,
      "Ġel": 750,
      "nd": 751,
      "Ġfew": 752,
      "Ġreal": 753,
      "fer": 754,
      "Ġmany": 755,
      "ting": 756,
      "Ġacc": 757,
      "Ġsm": 758,
      "Ġmin": 759,
      "Ġimpro": 760,
      "orm": 761,
      "ĠMars": 762,
      "Ġactually": 763,
      "Ġflight": 764,
      "ild": 765,
      "ord": 766,
      "Ġyears": 767,
      "Ġbo": 768,
      "Ġlot": 769,
      "ial": 770,
      "row": 771,
      "Ġsy": 772,
      "Ġser": 773,
      "ose": 774,
      "Ġeven": 775,
      "This": 776,
      "Ġsup": 777,
      "Ġwere": 778,
      "orn": 779,
      "Ġknow": 780,
      "ility": 781,
      "Ġother": 782,
      "ons": 783,
      "Ġpr": 784,
      "Ġdid": 785,
      "lease": 786,
      "Ġdoes": 787,
      "Ġafter": 788,
      "Ġorbit": 789,
      "Ġpower": 790,
      "way": 791,
      "ish": 792,
      "Ġtheir": 793,
      "Ġloo": 794,
      "Ġart": 795,
      "Ġthen": 796,
      "most": 797,
      "Ġreally": 798,
      "Thanks": 799,
      "Ġmis": 800,
      "Ġinter": 801,
      "Ġthink": 802,
      "ĠIt": 803,
      "It": 804,
      "Ġexp": 805,
      "ions": 806,
      "Ġhel": 807,
      "ick": 808,
      "Ġunder": 809,
      "ile": 810,
      "aus": 811,
      "Ġdesign": 812,
      "Ġthem": 813,
      "Exactly": 814,
      "ang": 815,
      "ible": 816,
      "Ġevery": 817,
      "Ġthing": 818,
      "Ġbig": 819,
      "Ġsoft": 820,
      "Ġcr": 821,
      "Ġ$": 822,
      "ilot": 823,
      "ĠCh": 824,
      "ys": 825,
      "Ġcoming": 826,
      "Ġtrue": 827,
      "Good": 828,
      "ĠSuper": 829,
      "Ġwant": 830,
      "Just": 831,
      "uck": 832,
      "ph": 833,
      "ress": 834,
      "omet": 835,
      "ĠThis": 836,
      "Ġsee": 837,
      "Ġthrust": 838,
      "Ġown": 839,
      "Ġhapp": 840,
      "Ġcould": 841,
      "old": 842,
      "red": 843,
      "No": 844,
      "stem": 845,
      "arship": 846,
      "ations": 847,
      "ves": 848,
      "arth": 849,
      "Ġ...": 850,
      "ise": 851,
      "ically": 852,
      "ĠIn": 853,
      "itt": 854,
      "lic": 855,
      "elf": 856,
      "Ġworld": 857,
      "Ġsoftware": 858,
      "ady": 859,
      "Ġpoint": 860,
      "In": 861,
      "ark": 862,
      "uture": 863,
      "opilot": 864,
      "St": 865,
      "Ġalso": 866,
      "Ġvery": 867,
      "ual": 868,
      "oth": 869,
      "Ġdown": 870,
      "ty": 871,
      "Ġbeing": 872,
      "Ġlif": 873,
      "Ġsuper": 874,
      "Ġfact": 875,
      "Ġspace": 876,
      "unn": 877,
      "ĠDragon": 878,
      "Ġext": 879,
      "Ġver": 880,
      "Ġend": 881,
      "Ġsystem": 882,
      "Ġfuture": 883,
      "ved": 884,
      "ĠAut": 885,
      ").": 886,
      "Ġdif": 887,
      "Will": 888,
      "ering": 889,
      "Ġoff": 890,
      "Ġair": 891,
      "That": 892,
      "Ġgoing": 893,
      "ĠUS": 894,
      "Ġelect": 895,
      "Ġpub": 896,
      "Ha": 897,
      "Ġgen": 898,
      "Ġdel": 899,
      "les": 900,
      "Ġsay": 901,
      "Ġfin": 902,
      "Ġcost": 903,
      "Ġuse": 904,
      "ize": 905,
      "Ġsure": 906,
      "Ġsaf": 907,
      "Ġthough": 908,
      "veral": 909,
      "Ġadd": 910,
      "Ġbest": 911,
      "Ġreg": 912,
      "ag": 913,
      "ail": 914,
      "Ġhum": 915,
      "Ġhelp": 916,
      "ced": 917,
      "Ġgr": 918,
      "ĠAl": 919,
      "Ġbuild": 920,
      "Ġbeen": 921,
      "ĠEarth": 922,
      "Ġstill": 923,
      "ne": 924,
      "ense": 925,
      "Ġdis": 926,
      "Ġ-": 927,
      "ines": 928,
      "Ġsc": 929,
      "erson": 930,
      "Ġtoday": 931,
      "charg": 932,
      "ex": 933,
      "mer": 934,
      "Ġhow": 935,
      "Ġneeded": 936,
      "view": 937,
      "ell": 938,
      "ying": 939,
      "els": 940,
      "Ġ:": 941,
      "Ġve": 942,
      "Ġelectric": 943,
      "vy": 944,
      "Ġday": 945,
      "Ġimprove": 946,
      "ics": 947,
      "Ġfast": 948,
      "Ġtrans": 949,
      "Ġdef": 950,
      "ause": 951,
      "Ġ*": 952,
      "ert": 953,
      "Ġsu": 954,
      "ron": 955,
      "Ġ,": 956,
      "Ġbatter": 957,
      "Ġwell": 958,
      "eavy": 959,
      "Ġshort": 960,
      "Ġcall": 961,
      "omething": 962,
      "ward": 963,
      "Ġtw": 964,
      "Ġsame": 965,
      "ank": 966,
      "ments": 967,
      "Ġsolar": 968,
      "Ġinto": 969,
      "pen": 970,
      "Ġlove": 971,
      "pl": 972,
      "Ġener": 973,
      "fore": 974,
      "Ġmade": 975,
      "If": 976,
      "Model": 977,
      "Ġph": 978,
      "Ġconf": 979,
      "ature": 980,
      "Ġstart": 981,
      "ove": 982,
      "Ġopt": 983,
      "Ġadv": 984,
      "Not": 985,
      "ool": 986,
      "Ġsub": 987,
      "Ġdone": 988,
      "Ġdont": 989,
      "Ġtech": 990,
      "ways": 991,
      "reci": 992,
      "arly": 993,
      "Ġhad": 994,
      "Ġpress": 995,
      "Ġagain": 996,
      "ak": 997,
      "ĠAutopilot": 998,
      "ful": 999,
      "form": 1000,
      "Ġprobably": 1001,
      "Ġcons": 1002,
      "ix": 1003,
      "iver": 1004,
      "low": 1005,
      "Ġvide": 1006,
      "ĠStarship": 1007,
      "az": 1008,
      "Ġshow": 1009,
      "pect": 1010,
      "Ġbefore": 1011,
      "Ġcl": 1012,
      "Ġalmost": 1013,
      "Ġthrough": 1014,
      "Ġmonths": 1015,
      "Ġim": 1016,
      "Ġfar": 1017,
      "Ġenergy": 1018,
      "Ġrequ": 1019,
      "rem": 1020,
      "Ġclo": 1021,
      "Ġfire": 1022,
      "Ġgas": 1023,
      "Ġret": 1024,
      "thing": 1025,
      "Ġdrive": 1026,
      "let": 1027,
      "oring": 1028,
      "Ġbec": 1029,
      "opef": 1030,
      "ortant": 1031,
      "ition": 1032,
      "blem": 1033,
      "wes": 1034,
      "ĠK": 1035,
      "Ġchange": 1036,
      "Ġthose": 1037,
      "Ġlast": 1038,
      "Ġever": 1039,
      "iles": 1040,
      "atch": 1041,
      "ane": 1042,
      "Ġsupport": 1043,
      "Ġwr": 1044,
      "Ġtake": 1045,
      "Ġveh": 1046,
      "Ġdays": 1047,
      "opefully": 1048,
      "esting": 1049,
      "ĠCan": 1050,
      "ĠJust": 1051,
      "Ġsmall": 1052,
      "Ġtunn": 1053,
      "ero": 1054,
      "Ġatt": 1055,
      "ĠWh": 1056,
      "init": 1057,
      "Ġdon": 1058,
      "!!": 1059,
      "Pro": 1060,
      "Ġob": 1061,
      "initely": 1062,
      "ob": 1063,
      "Ġcle": 1064,
      "ety": 1065,
      "Ġvideo": 1066,
      "Re": 1067,
      "Ġarticle": 1068,
      "Ġhuman": 1069,
      "vent": 1070,
      "Ġaround": 1071,
      "Ġspeed": 1072,
      "Ġind": 1073,
      "Ġgu": 1074,
      "ĠSupercharg": 1075,
      "wesome": 1076,
      "rue": 1077,
      "Ġlow": 1078,
      "Ġins": 1079,
      "ĠSh": 1080,
      "Ġproblem": 1081,
      "ific": 1082,
      "Ġappreci": 1083,
      "Ġpublic": 1084,
      "ape": 1085,
      "Ġfull": 1086,
      "ready": 1087,
      "iring": 1088,
      "ĠLA": 1089,
      "Ġmission": 1090,
      "Ġboost": 1091,
      "ĠNe": 1092,
      "eship": 1093,
      "Ġdoing": 1094,
      "Ġdep": 1095,
      "ode": 1096,
      "Ġworking": 1097,
      "apt": 1098,
      "aw": 1099,
      "over": 1100,
      "erm": 1101,
      "Ġgener": 1102,
      "iting": 1103,
      "Al": 1104,
      "Ġcount": 1105,
      "Ġless": 1106,
      "Ġcontro": 1107,
      "ittle": 1108,
      "Great": 1109,
      "Ġmet": 1110,
      "Ġstr": 1111,
      "ath": 1112,
      "Ġleg": 1113,
      "Ġversion": 1114,
      "azing": 1115,
      "Ġmass": 1116,
      "Ġupd": 1117,
      "olo": 1118,
      "Ġbel": 1119,
      "Ġalways": 1120,
      "li": 1121,
      "Ġcool": 1122,
      "gg": 1123,
      "ese": 1124,
      "Ġwhy": 1125,
      "ssible": 1126,
      "Ġtax": 1127,
      "ious": 1128,
      "Ġenough": 1129,
      "Ġsec": 1130,
      "Ġsomething": 1131,
      "Ġread": 1132,
      "ope": 1133,
      "ĠNo": 1134,
      "cy": 1135,
      "Ġlittle": 1136,
      "Ġval": 1137,
      "Ġcomplet": 1138,
      "orre": 1139,
      "Ġlea": 1140,
      "Ġlife": 1141,
      "oming": 1142,
      "ĠAI": 1143,
      "Ġship": 1144,
      "Ab": 1145,
      "tty": 1146,
      "Ġent": 1147,
      "Ġcent": 1148,
      "ets": 1149,
      "omp": 1150,
      "ĠThat": 1151,
      "ib": 1152,
      "Ġsur": 1153,
      "Ġsign": 1154,
      "ĠRe": 1155,
      "ude": 1156,
      "Ġappro": 1157,
      "Ġbattery": 1158,
      "Am": 1159,
      "Ġallow": 1160,
      "Ġserv": 1161,
      "Ġid": 1162,
      "Ġsafety": 1163,
      "urre": 1164,
      "ather": 1165,
      "Ġhour": 1166,
      "Ġrem": 1167,
      "ids": 1168,
      "oney": 1169,
      "yes": 1170,
      "Ġopen": 1171,
      "ution": 1172,
      "Ġmed": 1173,
      "Ġupgr": 1174,
      "Ġdue": 1175,
      "omm": 1176,
      "Ġexce": 1177,
      "Ġperson": 1178,
      "he": 1179,
      "Ġ/": 1180,
      "Ġbr": 1181,
      "Ġmiles": 1182,
      "Ġav": 1183,
      "ery": 1184,
      "Ġpass": 1185,
      "ĠIf": 1186,
      "ĠHeavy": 1187,
      "ĠRo": 1188,
      "cial": 1189,
      "Ġtechn": 1190,
      "Its": 1191,
      "ĠYou": 1192,
      "Ġtal": 1193,
      "Ġroll": 1194,
      "jor": 1195,
      "ason": 1196,
      "ounds": 1197,
      "Ġproduct": 1198,
      "Ġincre": 1199,
      "Ġstage": 1200,
      "Ġcompany": 1201,
      "Ġthings": 1202,
      "orrow": 1203,
      "Ġimportant": 1204,
      "Ġz": 1205,
      "ffic": 1206,
      "Ġsaid": 1207,
      "Ġmakes": 1208,
      "Haha": 1209,
      "come": 1210,
      "Ġpay": 1211,
      "Ġlater": 1212,
      "alif": 1213,
      "ash": 1214,
      "Ġann": 1215,
      "Ġcap": 1216,
      "kely": 1217,
      "ina": 1218,
      "Ġsk": 1219,
      "Ġhappen": 1220,
      "Ġrequire": 1221,
      "'m": 1222,
      "less": 1223,
      "Ġawesome": 1224,
      "Ġmatter": 1225,
      "Ġpost": 1226,
      "Ġinv": 1227,
      "Ġweeks": 1228,
      "of": 1229,
      "orry": 1230,
      "ĠIts": 1231,
      "aliforn": 1232,
      "ear": 1233,
      "fact": 1234,
      "iter": 1235,
      "Ġcontrol": 1236,
      "Space": 1237,
      "ock": 1238,
      "Ġalready": 1239,
      "Ġplan": 1240,
      "alifornia": 1241,
      "),": 1242,
      "ces": 1243,
      "Ġpri": 1244,
      "Ġrange": 1245,
      "Ġvs": 1246,
      "Ġpressure": 1247,
      "ond": 1248,
      "True": 1249,
      "ates": 1250,
      "olar": 1251,
      "ĠNot": 1252,
      "Ġste": 1253,
      "Ġtra": 1254,
      "load": 1255,
      "ieve": 1256,
      "Ġamazing": 1257,
      "Ġdiffer": 1258,
      "ian": 1259,
      "ied": 1260,
      "Ġfr": 1261,
      "alf": 1262,
      "Ġwhere": 1263,
      "ited": 1264,
      "morrow": 1265,
      "ump": 1266,
      "Ġtomorrow": 1267,
      "Ġdire": 1268,
      "imate": 1269,
      "atell": 1270,
      "Ġorder": 1271,
      "Ġlevel": 1272,
      "oll": 1273,
      "tw": 1274,
      "Ġmoney": 1275,
      "Ġseem": 1276,
      "Ġlook": 1277,
      "ĠAlso": 1278,
      "ĠY": 1279,
      "orth": 1280,
      "lam": 1281,
      "Ġpack": 1282,
      "Ġmax": 1283,
      "ffect": 1284,
      "Ġtunnel": 1285,
      "urrent": 1286,
      "cess": 1287,
      "Ġrelease": 1288,
      "Ġreview": 1289,
      "Ġdem": 1290,
      "Ġcrit": 1291,
      "Ġtwo": 1292,
      "Ġagainst": 1293,
      "Falcon": 1294,
      "gen": 1295,
      "ng": 1296,
      "Ġseveral": 1297,
      "Ġfix": 1298,
      "its": 1299,
      "Ġhis": 1300,
      "iga": 1301,
      "Ġris": 1302,
      "Ġengines": 1303,
      "Ġcalled": 1304,
      "Ġke": 1305,
      "Ġfree": 1306,
      "Ġref": 1307,
      "There": 1308,
      "Ġengineering": 1309,
      "Ġvehicle": 1310,
      "ning": 1311,
      "Ġoper": 1312,
      "Ġpossible": 1313,
      "ĠThey": 1314,
      "Ġfactory": 1315,
      "Ġservice": 1316,
      "ĠCalifornia": 1317,
      "Ġextrem": 1318,
      "ict": 1319,
      "Ġrep": 1320,
      "illion": 1321,
      "ody": 1322,
      "not": 1323,
      "arge": 1324,
      "formance": 1325,
      "So": 1326,
      "ily": 1327,
      "Ġes": 1328,
      "Ġman": 1329,
      "Ġcomm": 1330,
      "ĠPro": 1331,
      "Maybe": 1332,
      "ject": 1333,
      "Ġbad": 1334,
      "ustom": 1335,
      "\"\"\"": 1336,
      "aut": 1337,
      "Ġvia": 1338,
      "ĠStation": 1339,
      "Ok": 1340,
      "Ġcare": 1341,
      "Ġhold": 1342,
      "Ġnight": 1343,
      "ds": 1344,
      "lin": 1345,
      "Ġboth": 1346,
      "Ġpar": 1347,
      "ĠCape": 1348,
      "Ġunt": 1349,
      "Ġquest": 1350,
      "Ġdet": 1351,
      "ime": 1352,
      "Ġfav": 1353,
      "Ġbooster": 1354,
      "Ġupdate": 1355,
      "inal": 1356,
      "Ġwater": 1357,
      "Ġbas": 1358,
      "Ġcreat": 1359,
      "Ġiss": 1360,
      "Ġnever": 1361,
      "Ġidea": 1362,
      "On": 1363,
      "iron": 1364,
      "Ġvis": 1365,
      "Ġgoes": 1366,
      "Ġearly": 1367,
      "Ġset": 1368,
      "Ġmaybe": 1369,
      "Ġlim": 1370,
      "Ġwithout": 1371,
      "Ġdec": 1372,
      "ctions": 1373,
      "Ġincl": 1374,
      "Ġwind": 1375,
      "ĠTex": 1376,
      "Ġstop": 1377,
      "Ġlive": 1378,
      "Ġcomput": 1379,
      "What": 1380,
      "ĠChina": 1381,
      "ertain": 1382,
      "And": 1383,
      "Ġsatell": 1384,
      "ists": 1385,
      "Ġanything": 1386,
      "ology": 1387,
      "ked": 1388,
      "pr": 1389,
      "Ġside": 1390,
      "Ġself": 1391,
      "Ġcour": 1392,
      "veil": 1393,
      "ĠTexas": 1394,
      "anced": 1395,
      "ilt": 1396,
      "loy": 1397,
      "Sh": 1398,
      "Ġ+": 1399,
      "Ġsal": 1400,
      "Ġsim": 1401,
      "ster": 1402,
      "Ġreus": 1403,
      "ĠIm": 1404,
      "Ġvi": 1405,
      "Ġcompet": 1406,
      "Ġhigher": 1407,
      "Ġrisk": 1408,
      ".\"": 1409,
      "air": 1410,
      "ec": 1411,
      "vid": 1412,
      "ative": 1413,
      "Ġtimes": 1414,
      "ĠSupercharger": 1415,
      "Ġmedia": 1416,
      "Ġlikely": 1417,
      "orrect": 1418,
      "For": 1419,
      "SD": 1420,
      "ium": 1421,
      "Ġrear": 1422,
      "Ġvol": 1423,
      "Ġloc": 1424,
      "aptor": 1425,
      "Ġcustom": 1426,
      "Ġmot": 1427,
      "Ġkids": 1428,
      "Ġhead": 1429,
      "Ġago": 1430,
      "wh": 1431,
      "Ġinst": 1432,
      "Ġyet": 1433,
      "uring": 1434,
      "Ġexper": 1435,
      "Ġdeal": 1436,
      "ongr": 1437,
      "ized": 1438,
      "SpaceX": 1439,
      "te": 1440,
      "Ġused": 1441,
      "Ġowners": 1442,
      "iant": 1443,
      "wit": 1444,
      "ator": 1445,
      "Ġhand": 1446,
      "ational": 1447,
      "ĠNew": 1448,
      "ĠDo": 1449,
      "ĠGiga": 1450,
      "Ġplay": 1451,
      "ooks": 1452,
      "Ġwhile": 1453,
      "ĠHe": 1454,
      "Ġclear": 1455,
      "Ġfly": 1456,
      "Ġneeds": 1457,
      "Ġap": 1458,
      "Ġlight": 1459,
      "eld": 1460,
      "Ġeas": 1461,
      "ents": 1462,
      "Ġroad": 1463,
      "Ġunveil": 1464,
      "Ġusing": 1465,
      "Ġfeel": 1466,
      "Ġach": 1467,
      "ata": 1468,
      "Ġregul": 1469,
      "ever": 1470,
      "no": 1471,
      "Ġmay": 1472,
      "ounce": 1473,
      "riving": 1474,
      "ending": 1475,
      "100": 1476,
      "Sure": 1477,
      "io": 1478,
      "nal": 1479,
      "itive": 1480,
      "Ġnum": 1481,
      "ĠSo": 1482,
      "efinitely": 1483,
      "Ġlooks": 1484,
      "Ġhours": 1485,
      "anies": 1486,
      "elcome": 1487,
      "Ġtry": 1488,
      "Ġmoon": 1489,
      "Ġcompanies": 1490,
      "Ġmins": 1491,
      "ommend": 1492,
      "10": 1493,
      "ave": 1494,
      "Ġwar": 1495,
      "Ġpie": 1496,
      "ought": 1497,
      "Ġauto": 1498,
      "Cool": 1499,
      "lan": 1500,
      "Ġsense": 1501,
      "ately": 1502,
      "Ġuntil": 1503,
      "eck": 1504,
      "ny": 1505,
      "raz": 1506,
      "Ġdirect": 1507,
      "ues": 1508,
      "Ġsimp": 1509,
      "Ġbra": 1510,
      "Ġlet": 1511,
      "other": 1512,
      "ĠFor": 1513,
      "raft": 1514,
      "ru": 1515,
      "ser": 1516,
      "ĠAll": 1517,
      "Ġcover": 1518,
      "Ġmove": 1519,
      "Ġmaking": 1520,
      "Ġdeliver": 1521,
      "Ġton": 1522,
      "Ġcre": 1523,
      "Ġfl": 1524,
      "amer": 1525,
      "ability": 1526,
      "ĠStar": 1527,
      "Ġothers": 1528,
      "velop": 1529,
      "Ġbecause": 1530,
      "Ġinvest": 1531,
      "mb": 1532,
      "Ġblo": 1533,
      "Ġfully": 1534,
      "icles": 1535,
      "lad": 1536,
      "anding": 1537,
      "vious": 1538,
      "Ġrecommend": 1539,
      "Ġreturn": 1540,
      "Probably": 1541,
      "Congr": 1542,
      "My": 1543,
      "cl": 1544,
      "res": 1545,
      "Ġhy": 1546,
      "opper": 1547,
      "ural": 1548,
      "Ġtemp": 1549,
      "Ġtwe": 1550,
      "Ġdevelop": 1551,
      "Ġchang": 1552,
      "meric": 1553,
      "Ġprior": 1554,
      "val": 1555,
      "Ġmight": 1556,
      "Ġmph": 1557,
      "Ġhalf": 1558,
      "Ġgot": 1559,
      "Ġyes": 1560,
      "Ġthought": 1561,
      "Ġdisc": 1562,
      "Ġleast": 1563,
      "oud": 1564,
      "Ġlower": 1565,
      "ality": 1566,
      "Ġnet": 1567,
      "ĠFSD": 1568,
      "ume": 1569,
      "Ġmajor": 1570,
      "Ġdiff": 1571,
      "First": 1572,
      "mpt": 1573,
      "und": 1574,
      "iming": 1575,
      "ĠAmeric": 1576,
      "Ġconst": 1577,
      "Ġfeature": 1578,
      "Wow": 1579,
      "ake": 1580,
      "imes": 1581,
      "Ġvac": 1582,
      "Ġbuilding": 1583,
      "To": 1584,
      "Ġtechnology": 1585,
      "Ġfavor": 1586,
      "craft": 1587,
      "Ġturn": 1588,
      "ider": 1589,
      "ustain": 1590,
      "Ġrate": 1591,
      "Ġtrack": 1592,
      "ook": 1593,
      "ger": 1594,
      "Ġcase": 1595,
      "ames": 1596,
      "ĠUn": 1597,
      "Ġautom": 1598,
      "Ġorbital": 1599,
      "Ġcourse": 1600,
      "wer": 1601,
      "atic": 1602,
      "Ġcurrent": 1603,
      "Ġfind": 1604,
      "ouse": 1605,
      "Ġpretty": 1606,
      "Ġnews": 1607,
      "Ġspac": 1608,
      "Ġcenter": 1609,
      "ient": 1610,
      "ins": 1611,
      "Ġmust": 1612,
      "ale": 1613,
      "eler": 1614,
      "lex": 1615,
      "cially": 1616,
      "Ġdriving": 1617,
      "Ġwrong": 1618,
      "Ġdeploy": 1619,
      "uro": 1620,
      "Ġac": 1621,
      "Ġsize": 1622,
      "ention": 1623,
      "Ġpos": 1624,
      "ingle": 1625,
      "Ġbuy": 1626,
      "Ġdoesnt": 1627,
      "Ġzero": 1628,
      "Ġannounce": 1629,
      "line": 1630,
      "Ġaway": 1631,
      "Ġrest": 1632,
      "Ġthats": 1633,
      "ĠComp": 1634,
      "cond": 1635,
      "Ġoption": 1636,
      "Dragon": 1637,
      "Ro": 1638,
      "irm": 1639,
      "Ġprice": 1640,
      "ax": 1641,
      "ness": 1642,
      "ities": 1643,
      "Ġclose": 1644,
      "Ġhumanity": 1645,
      "ern": 1646,
      "reen": 1647,
      "Ġcred": 1648,
      "Ġdata": 1649,
      "Ġname": 1650,
      "ases": 1651,
      "ĠMaybe": 1652,
      "Ġexpect": 1653,
      "ĠThere": 1654,
      "Ġmeans": 1655,
      "arget": 1656,
      "Ġview": 1657,
      "razy": 1658,
      "ien": 1659,
      "erlin": 1660,
      "Ġcome": 1661,
      "Ġcamer": 1662,
      "ising": 1663,
      "Ġdr": 1664,
      "Ġhere": 1665,
      "ote": 1666,
      "Ġforward": 1667,
      "ident": 1668,
      "Ġstre": 1669,
      "Ġworth": 1670,
      "Ġhardware": 1671,
      "About": 1672,
      "bal": 1673,
      "Ġfal": 1674,
      "ites": 1675,
      "Ġyoure": 1676,
      "Ġtruck": 1677,
      "Ġadvanced": 1678,
      "eed": 1679,
      "ield": 1680,
      "Ġtop": 1681,
      "Ġnon": 1682,
      "ĠAm": 1683,
      "Ġfund": 1684,
      "Ġvalue": 1685,
      "Do": 1686,
      "Ġbody": 1687,
      "Ġput": 1688,
      "Ġhot": 1689,
      "Ġprop": 1690,
      "Ġtrying": 1691,
      "Inter": 1692,
      "arket": 1693,
      "All": 1694,
      "Sorry": 1695,
      "down": 1696,
      "Ġterm": 1697,
      "Ġslight": 1698,
      "Ġcrazy": 1699,
      "arch": 1700,
      "Ġok": 1701,
      "ulation": 1702,
      "Ġmean": 1703,
      "ives": 1704,
      "iterally": 1705,
      "ai": 1706,
      "Ġthese": 1707,
      "Ġrock": 1708,
      "Ġroof": 1709,
      "Ġjour": 1710,
      "Ġclimate": 1711,
      "Ġappreciated": 1712,
      "Ġdetail": 1713,
      "Ġsales": 1714,
      "co": 1715,
      "Ġ!": 1716,
      "Ġhome": 1717,
      "adster": 1718,
      "Ġrad": 1719,
      "Ġable": 1720,
      "ĠRaptor": 1721,
      "Ġanyone": 1722,
      "Also": 1723,
      "'re": 1724,
      "Yup": 1725,
      "averal": 1726,
      "ork": 1727,
      "ĠOn": 1728,
      "Ġbuilt": 1729,
      "Ġgetting": 1730,
      "ĠCanaveral": 1731,
      "yper": 1732,
      "ĠQ": 1733,
      "Ġred": 1734,
      "Thats": 1735,
      "ĠNY": 1736,
      "Ġacceler": 1737,
      "Ġbelieve": 1738,
      "gt": 1739,
      "led": 1740,
      "ince": 1741,
      "ither": 1742,
      "Ġdeep": 1743,
      "Ġjob": 1744,
      "ively": 1745,
      "ween": 1746,
      "Ġkeep": 1747,
      "Ġquestion": 1748,
      "Ġpiece": 1749,
      "Launch": 1750,
      "eg": 1751,
      "ps": 1752,
      "vt": 1753,
      "Ġsn": 1754,
      "Ġwelcome": 1755,
      "Ġdro": 1756,
      "ential": 1757,
      "Ġwhe": 1758,
      "olut": 1759,
      "umm": 1760,
      "ĠBoring": 1761,
      "pecially": 1762,
      "Ġkind": 1763,
      "Ġobvious": 1764,
      "'ve": 1765,
      "Ġstud": 1766,
      "uss": 1767,
      "Ġjo": 1768,
      "loop": 1769,
      "Ġkm": 1770,
      "ccess": 1771,
      "roneship": 1772,
      "og": 1773,
      "itude": 1774,
      "Ġmult": 1775,
      "Ġox": 1776,
      "Ġreason": 1777,
      "Ġrockets": 1778,
      "Ġagree": 1779,
      "Ġimo": 1780,
      "yperloop": 1781,
      "ee": 1782,
      "ially": 1783,
      "tle": 1784,
      "Ġtons": 1785,
      "Ġthree": 1786,
      "Ġbl": 1787,
      "Ġgra": 1788,
      "Ġprob": 1789,
      "Ġexc": 1790,
      "Ġplace": 1791,
      "Should": 1792,
      "Ġfalse": 1793,
      "uel": 1794,
      "Ġsound": 1795,
      "icult": 1796,
      "eth": 1797,
      "Ġevent": 1798,
      "ulations": 1799,
      "ĠDe": 1800,
      "av": 1801,
      "ush": 1802,
      "Ġhaha": 1803,
      "ĠNow": 1804,
      "ĠPower": 1805,
      "ĠEuro": 1806,
      "Ġground": 1807,
      "lass": 1808,
      "Ġsustain": 1809,
      "ether": 1810,
      "Ġanother": 1811,
      "tern": 1812,
      "Coming": 1813,
      "ract": 1814,
      "Ġwon": 1815,
      "ism": 1816,
      "Ġdeath": 1817,
      "Ġthanks": 1818,
      "Ġsomeone": 1819,
      "Ġparts": 1820,
      "Ġextremely": 1821,
      "empt": 1822,
      "Ġcant": 1823,
      "Ġequ": 1824,
      "Ġra": 1825,
      "Ġgovt": 1826,
      "bert": 1827,
      "Ġvolume": 1828,
      "As": 1829,
      "Ġsci": 1830,
      "Ġbit": 1831,
      "Ġfine": 1832,
      "Ġdist": 1833,
      "ading": 1834,
      "Ġnear": 1835,
      "Ġcoll": 1836,
      "Ġlonger": 1837,
      "Ġperformance": 1838,
      "Ġsuccess": 1839,
      "Ġupgrade": 1840,
      "30": 1841,
      "solut": 1842,
      "Ġtarget": 1843,
      "Ġfri": 1844,
      "llent": 1845,
      "Ġreach": 1846,
      "Ġform": 1847,
      "aded": 1848,
      "urb": 1849,
      "Definitely": 1850,
      "He": 1851,
      "Pre": 1852,
      "reed": 1853,
      "Ġbar": 1854,
      "Ġpod": 1855,
      "Ġold": 1856,
      "Ġinf": 1857,
      "Ġheat": 1858,
      "iven": 1859,
      "They": 1860,
      "ollow": 1861,
      "Ġcritical": 1862,
      "Rocket": 1863,
      "gress": 1864,
      "ience": 1865,
      "link": 1866,
      "Ġsw": 1867,
      "Ġcertain": 1868,
      "Ġhope": 1869,
      "entry": 1870,
      "ters": 1871,
      "Ġsell": 1872,
      "Ġworks": 1873,
      "Ġchance": 1874,
      "gram": 1875,
      "Ġfront": 1876,
      "witter": 1877,
      "Ġspaceship": 1878,
      "50": 1879,
      "ral": 1880,
      "ygen": 1881,
      "ital": 1882,
      "ross": 1883,
      "ots": 1884,
      "Ġcomb": 1885,
      "Ġbetween": 1886,
      "Ġtesting": 1887,
      "Ġsaying": 1888,
      "Ġsubs": 1889,
      "Ġconsider": 1890,
      "ĠRoadster": 1891,
      "Ġespecially": 1892,
      "cent": 1893,
      "driving": 1894,
      "ug": 1895,
      "Ġslow": 1896,
      "Ġsingle": 1897,
      "Ġmod": 1898,
      "etary": 1899,
      "asing": 1900,
      "ched": 1901,
      "ĠAt": 1902,
      "Ġfairing": 1903,
      "Ġgeneral": 1904,
      "Ġbring": 1905,
      "Ġoxygen": 1906,
      "rac": 1907,
      "Ġmach": 1908,
      "Ġlat": 1909,
      "Ġrepl": 1910,
      "ppy": 1911,
      "Ġspec": 1912,
      "Ġdefinitely": 1913,
      "Ġoptim": 1914,
      "where": 1915,
      "Ġslightly": 1916,
      "But": 1917,
      "rass": 1918,
      "Ġburn": 1919,
      "Ġupper": 1920,
      "Ġcomplex": 1921,
      "Ġfeed": 1922,
      "ysics": 1923,
      "bon": 1924,
      "Ġu": 1925,
      "icul": 1926,
      "eloc": 1927,
      "Ġstand": 1928,
      "Ġstore": 1929,
      "ired": 1930,
      "Ġeasy": 1931,
      "Some": 1932,
      "bs": 1933,
      "Ġiron": 1934,
      "Ġbro": 1935,
      "atically": 1936,
      "Ġlarg": 1937,
      "Ġgive": 1938,
      "Ġrun": 1939,
      "ĠHyperloop": 1940,
      "bability": 1941,
      "Ġfair": 1942,
      "Ġrecord": 1943,
      "Interesting": 1944,
      "City": 1945,
      "Most": 1946,
      "ute": 1947,
      "ther": 1948,
      "Ġnothing": 1949,
      "ization": 1950,
      "eft": 1951,
      "Ġcontin": 1952,
      "Ġsugg": 1953,
      "ibly": 1954,
      "Ġregulat": 1955,
      "ĠEurope": 1956,
      "dd": 1957,
      "uly": 1958,
      "Ġlaw": 1959,
      "Ġleft": 1960,
      "Ġhopefully": 1961,
      "Ġexist": 1962,
      "Ġabove": 1963,
      "apid": 1964,
      "Youre": 1965,
      "Ġprim": 1966,
      "Ġimprovements": 1967,
      "Ġdifficult": 1968,
      "Ġannouncement": 1969,
      "elocity": 1970,
      "Were": 1971,
      "ait": 1972,
      "hopper": 1973,
      "ken": 1974,
      "sed": 1975,
      "Ġcorrect": 1976,
      "Ġdroneship": 1977,
      "term": 1978,
      "Ġstory": 1979,
      "ĠWould": 1980,
      "pell": 1981,
      "ĠGood": 1982,
      "ends": 1983,
      "cing": 1984,
      "eng": 1985,
      "Ġhaving": 1986,
      "ooking": 1987,
      "ĠCompany": 1988,
      "Love": 1989,
      "aid": 1990,
      "ier": 1991,
      "lor": 1992,
      "ĠZ": 1993,
      "ined": 1994,
      "itch": 1995,
      "Ġpol": 1996,
      "ĠAs": 1997,
      "Ġdidnt": 1998,
      "Ġcomplete": 1999,
      "New": 2000,
      "ech": 2001,
      "rid": 2002,
      "sure": 2003,
      "yond": 2004,
      "Ġcaus": 2005,
      "Ġhist": 2006,
      "eting": 2007,
      "ades": 2008,
      "Ġstate": 2009,
      "Ġprogress": 2010,
      "Ġgoal": 2011,
      "Ġmag": 2012,
      "Ġremain": 2013,
      "Ġtalk": 2014,
      "Ġpayload": 2015,
      "Ġtough": 2016,
      "Ġfound": 2017,
      "Ġline": 2018,
      "Ġfail": 2019,
      "Ġwhole": 2020,
      "Ġattempt": 2021,
      "factory": 2022,
      "olarCity": 2023,
      "Ġmotor": 2024,
      "Ġnumber": 2025,
      "solutely": 2026,
      "sing": 2027,
      "uge": 2028,
      "uum": 2029,
      "ints": 2030,
      "Ġwont": 2031,
      "Ġfollow": 2032,
      "Ġmarket": 2033,
      "Ġpad": 2034,
      "Ġreport": 2035,
      "ĠSe": 2036,
      "ada": 2037,
      "Ġvelocity": 2038,
      "Ġcharge": 2039,
      "Ġcheck": 2040,
      "que": 2041,
      "conom": 2042,
      "Ġpres": 2043,
      "Ġweekend": 2044,
      "Ġlegs": 2045,
      "iam": 2046,
      "just": 2047,
      "pon": 2048,
      "Ġthin": 2049,
      "Ġfle": 2050,
      "ision": 2051,
      "Ġliterally": 2052,
      "ĠTwitter": 2053,
      "Ġdeb": 2054,
      "ems": 2055,
      "Ġfaster": 2056,
      "Ġincrease": 2057,
      "Ġcomputer": 2058,
      "pellant": 2059,
      "Very": 2060,
      "oid": 2061,
      "ruck": 2062,
      "eres": 2063,
      "Ġbre": 2064,
      "Ġfuel": 2065,
      "ission": 2066,
      "Ġstock": 2067,
      "Ġtrip": 2068,
      "ably": 2069,
      "ĠHigh": 2070,
      "Ġtook": 2071,
      "wards": 2072,
      "Ġmatters": 2073,
      "Ġdifference": 2074,
      "Ġsustainable": 2075,
      "lish": 2076,
      "wall": 2077,
      "Ġult": 2078,
      "Ġflam": 2079,
      "ĠMay": 2080,
      "Ġweather": 2081,
      "Ġrapid": 2082,
      "ĠEx": 2083,
      "Ġunderst": 2084,
      "ificant": 2085,
      "Ġmultip": 2086,
      "Btw": 2087,
      "fect": 2088,
      "las": 2089,
      "oy": 2090,
      "Ġcity": 2091,
      "aring": 2092,
      "Ġdate": 2093,
      "Ġgiant": 2094,
      "ĠSN": 2095,
      "quid": 2096,
      "duction": 2097,
      "Ġitself": 2098,
      "Ġconfirm": 2099,
      "ĠNeed": 2100,
      "back": 2101,
      "vie": 2102,
      "Ġcell": 2103,
      "Ġinit": 2104,
      "Ġready": 2105,
      "ĠThanks": 2106,
      "Ġheard": 2107,
      "Ġbeta": 2108,
      "Ġsupp": 2109,
      "Ġdidn": 2110,
      "Ġeveryone": 2111,
      "Ġsystems": 2112,
      "Ġreusable": 2113,
      "Of": 2114,
      "Would": 2115,
      "fort": 2116,
      "mos": 2117,
      "swer": 2118,
      "Ġpur": 2119,
      "Ġear": 2120,
      "Ġprot": 2121,
      "Ġprogram": 2122,
      "ify": 2123,
      "Ġmain": 2124,
      "Ġprec": 2125,
      "Ġactual": 2126,
      "Ġdoesn": 2127,
      "Ġthrusters": 2128,
      "ĠIntern": 2129,
      "Ġentire": 2130,
      "At": 2131,
      "Im": 2132,
      "Ġpm": 2133,
      "ults": 2134,
      "ĠHow": 2135,
      "Ġcarbon": 2136,
      "Ġtell": 2137,
      "Ġfunction": 2138,
      "Ġdesigned": 2139,
      "ĠGigafactory": 2140,
      "Ġachie": 2141,
      "Ġtonight": 2142,
      "hold": 2143,
      "ten": 2144,
      "Ġed": 2145,
      "atulations": 2146,
      "Ġcause": 2147,
      "Ġmile": 2148,
      "Ġhor": 2149,
      "ĠSome": 2150,
      "Ġem": 2151,
      "Ġtakes": 2152,
      "Ġsolution": 2153,
      "Ġ--": 2154,
      "Ġapproval": 2155,
      "Ġtraffic": 2156,
      "Ġvacuum": 2157,
      "ethrow": 2158,
      "ev": 2159,
      "put": 2160,
      "Ġaction": 2161,
      "Ġaffect": 2162,
      "Ġcry": 2163,
      "Ġmid": 2164,
      "Ġmention": 2165,
      "Ġtot": 2166,
      "eter": 2167,
      "Ġrece": 2168,
      "ĠAr": 2169,
      "ird": 2170,
      "Ġsecond": 2171,
      "rib": 2172,
      "Ġlog": 2173,
      "SA": 2174,
      "ming": 2175,
      "iny": 2176,
      "Ġsens": 2177,
      "Ġfil": 2178,
      "Ġbeg": 2179,
      "iful": 2180,
      "aps": 2181,
      "ored": 2182,
      "Ġaddress": 2183,
      "Ġissues": 2184,
      "Ġwheel": 2185,
      "AW": 2186,
      "How": 2187,
      "Ne": 2188,
      "to": 2189,
      "ton": 2190,
      "Ġsun": 2191,
      "Ġft": 2192,
      "Ġduring": 2193,
      "Ġgame": 2194,
      "Ġrel": 2195,
      "Ġeach": 2196,
      "upt": 2197,
      "irc": 2198,
      "oping": 2199,
      "Ġroom": 2200,
      "Ġimpact": 2201,
      "Ġplus": 2202,
      "Ġproud": 2203,
      "Starship": 2204,
      "Ġtransport": 2205,
      "ĠWhat": 2206,
      "Ġsatellite": 2207,
      "Ġsuggest": 2208,
      "Looks": 2209,
      "side": 2210,
      "zz": 2211,
      "Ġwin": 2212,
      "Ġboring": 2213,
      "Ġmer": 2214,
      "ĠMy": 2215,
      "Ġrob": 2216,
      "aster": 2217,
      "ĠOur": 2218,
      "Ġtaking": 2219,
      "When": 2220,
      "ocus": 2221,
      "Ġcosts": 2222,
      "Ġlimited": 2223,
      "ĠStarlink": 2224,
      "Ġhistory": 2225,
      "Ġfleet": 2226,
      "face": 2227,
      "oice": 2228,
      "ta": 2229,
      "wise": 2230,
      "Ġsince": 2231,
      "Ġwish": 2232,
      "Ġflow": 2233,
      "ased": 2234,
      "Ġreentry": 2235,
      "ĠMore": 2236,
      "ĠCy": 2237,
      "ĠNor": 2238,
      "Ġarg": 2239,
      "Ġfinish": 2240,
      "ersonic": 2241,
      "Ġsignificant": 2242,
      "Ġsteel": 2243,
      "Ġtravel": 2244,
      "Ġsatellites": 2245,
      "Ġcustomers": 2246,
      "An": 2247,
      "High": 2248,
      "Ġwatch": 2249,
      "Ġpric": 2250,
      "Ġplease": 2251,
      "Ġinj": 2252,
      "ĠSun": 2253,
      "amber": 2254,
      "ĠCo": 2255,
      "Ġpropellant": 2256,
      "orts": 2257,
      "pping": 2258,
      "ivil": 2259,
      "Ġphone": 2260,
      "Ġissue": 2261,
      "ĠOnly": 2262,
      "Act": 2263,
      "Please": 2264,
      "lt": 2265,
      "ling": 2266,
      "oing": 2267,
      "Ġsuch": 2268,
      "ouble": 2269,
      "vert": 2270,
      "Ġatmos": 2271,
      "Ġcountry": 2272,
      "Ġexciting": 2273,
      "rasshopper": 2274,
      "'d": 2275,
      "Ma": 2276,
      "Sounds": 2277,
      "tical": 2278,
      "Ġlate": 2279,
      "Ġemp": 2280,
      "Ġeffect": 2281,
      "Ġeither": 2282,
      "ĠMon": 2283,
      "Ġneg": 2284,
      "Ġramp": 2285,
      "Ġtrick": 2286,
      "ands": 2287,
      "Ġmeant": 2288,
      "Ġaccess": 2289,
      "Ġvehicles": 2290,
      "Ġfixed": 2291,
      "Ġcredit": 2292,
      "Or": 2293,
      "ufact": 2294,
      "yn": 2295,
      "Ġsent": 2296,
      "ouch": 2297,
      "Ġmind": 2298,
      "Ġpure": 2299,
      "Ġpain": 2300,
      "Ġisn": 2301,
      "Ġge": 2302,
      "Ġgames": 2303,
      "acing": 2304,
      "Ġbeaut": 2305,
      "Ġanswer": 2306,
      "ĠIs": 2307,
      "though": 2308,
      "ĠHopefully": 2309,
      "ĠBut": 2310,
      "ires": 2311,
      "Ġgets": 2312,
      "Ġincred": 2313,
      "Ġhappy": 2314,
      "ĠShould": 2315,
      "Ġseems": 2316,
      "Ġlocal": 2317,
      "Ġchanges": 2318,
      "Pretty": 2319,
      "gle": 2320,
      "uff": 2321,
      "Ġsus": 2322,
      "Ġride": 2323,
      "Ġwithin": 2324,
      "urate": 2325,
      "Ġshare": 2326,
      "ĠBo": 2327,
      "Ġload": 2328,
      "Ġsmo": 2329,
      "Ġsafe": 2330,
      "Ġbatteries": 2331,
      "Congratulations": 2332,
      "Ġinjur": 2333,
      "ders": 2334,
      "uct": 2335,
      "onom": 2336,
      "Ġwent": 2337,
      "Ġmorn": 2338,
      "Ġpic": 2339,
      "Ġdig": 2340,
      "Ġdest": 2341,
      "alth": 2342,
      "Ġbeyond": 2343,
      "vers": 2344,
      "ĠAust": 2345,
      "cept": 2346,
      "Ġshe": 2347,
      "Ġmovie": 2348,
      "Ġliquid": 2349,
      "lobal": 2350,
      "ĠGreat": 2351,
      "Ġlaunches": 2352,
      "Ġ~$": 2353,
      "Ġfactor": 2354,
      "Ġstrong": 2355,
      "Ġinstall": 2356,
      "Ġmultiplan": 2357,
      "Ġmorning": 2358,
      "!?": 2359,
      "Now": 2360,
      "Ġtank": 2361,
      "orking": 2362,
      "arily": 2363,
      "Ġhim": 2364,
      "Ġanal": 2365,
      "Ġeconom": 2366,
      "unk": 2367,
      "ently": 2368,
      "Ġprobability": 2369,
      "ries": 2370,
      "Ġchamber": 2371,
      "Ġfins": 2372,
      "Ġconfig": 2373,
      "Ġrequired": 2374,
      "Ġblock": 2375,
      "Ġdetails": 2376,
      "Ġsour": 2377,
      "Ġbook": 2378,
      "ings": 2379,
      "Ġmus": 2380,
      "Ġheavy": 2381,
      "the": 2382,
      "Ġcore": 2383,
      "ĠCO": 2384,
      "Ġdock": 2385,
      "Ġask": 2386,
      "ĠPer": 2387,
      "oughly": 2388,
      "ĠOr": 2389,
      "Ġlead": 2390,
      "Ġspecial": 2391,
      "Ġinteresting": 2392,
      "Ġowner": 2393,
      "Ġimm": 2394,
      "Ġpriority": 2395,
      "aila": 2396,
      "Ġradar": 2397,
      "Ġmachine": 2398,
      "Me": 2399,
      "dit": 2400,
      "ivery": 2401,
      "ner": 2402,
      "oh": 2403,
      "rupt": 2404,
      "Ġpast": 2405,
      "Ġpick": 2406,
      "Ġdual": 2407,
      "ides": 2408,
      "Ġlost": 2409,
      "ĠGrasshopper": 2410,
      "ĠStill": 2411,
      "Ġattack": 2412,
      "Ġmanufact": 2413,
      "Ġpositive": 2414,
      "bertruck": 2415,
      "60": 2416,
      "Aut": 2417,
      "One": 2418,
      "Worth": 2419,
      "ler": 2420,
      "Ġcy": 2421,
      "Ġcat": 2422,
      "Ġcode": 2423,
      "rote": 2424,
      "ested": 2425,
      "urs": 2426,
      "Ġarea": 2427,
      "Ġexactly": 2428,
      "istic": 2429,
      "Ġusef": 2430,
      "Ġtunnels": 2431,
      "Ġindust": 2432,
      "Ġappreciate": 2433,
      "Ġexceed": 2434,
      "Ġuseful": 2435,
      "500": 2436,
      "nect": 2437,
      "ype": 2438,
      "esign": 2439,
      "Ġcivil": 2440,
      "Ġfiring": 2441,
      "Ġlarge": 2442,
      "Ġonline": 2443,
      "aby": 2444,
      "ĠHW": 2445,
      "ĠBet": 2446,
      "eak": 2447,
      "ĠEven": 2448,
      "izing": 2449,
      "ĠUAW": 2450,
      "Ġparty": 2451,
      "Ġquite": 2452,
      "iously": 2453,
      "ĠAmerica": 2454,
      "ummon": 2455,
      "Super": 2456,
      "oon": 2457,
      "self": 2458,
      "work": 2459,
      "Ġtiny": 2460,
      "ination": 2461,
      "Ġfo": 2462,
      "Ġfour": 2463,
      "Ġdens": 2464,
      "roll": 2465,
      "une": 2466,
      "ĠMa": 2467,
      "ĠMot": 2468,
      "ĠAir": 2469,
      "amed": 2470,
      "cean": 2471,
      "Ġorders": 2472,
      "Ġconc": 2473,
      "ĠPlease": 2474,
      "Ġcharg": 2475,
      "Ġmem": 2476,
      "Ġmostly": 2477,
      "Ġperfect": 2478,
      "Ġreality": 2479,
      "Ġlooking": 2480,
      "Ġimprovement": 2481,
      "plan": 2482,
      "Ġreading": 2483,
      "Ġtweet": 2484,
      "Ġswap": 2485,
      "Ġstandard": 2486,
      "ov": 2487,
      "outh": 2488,
      "Ġmillion": 2489,
      "Ġlist": 2490,
      "Ġren": 2491,
      "oline": 2492,
      "Ġhell": 2493,
      "ube": 2494,
      "fford": 2495,
      "Ġincent": 2496,
      "Ġbigger": 2497,
      "Ġmetal": 2498,
      "head": 2499,
      "ailable": 2500,
      "ah": 2501,
      "vity": 2502,
      "Ġwrote": 2503,
      "Ġmode": 2504,
      "Ġpot": 2505,
      "Ġdiam": 2506,
      "utes": 2507,
      "Ġshield": 2508,
      "ĠThats": 2509,
      "Ġdead": 2510,
      "umb": 2511,
      "Ġunless": 2512,
      "Ġscale": 2513,
      "Absolutely": 2514,
      "Ġexcept": 2515,
      "pril": 2516,
      "Ġcreate": 2517,
      "Ġfavorite": 2518,
      "Ġindustry": 2519,
      "Se": 2520,
      "Was": 2521,
      "gest": 2522,
      "Ġsong": 2523,
      "Ġsite": 2524,
      "Ġcoun": 2525,
      "Ġfocus": 2526,
      "Ġher": 2527,
      "acks": 2528,
      "igate": 2529,
      "Ġstatic": 2530,
      "ament": 2531,
      "Ġcold": 2532,
      "ĠLove": 2533,
      "ĠRuss": 2534,
      "Ġpoints": 2535,
      "Ġhappens": 2536,
      "Ġdelivery": 2537,
      "Ġexcellent": 2538,
      "Ġsky": 2539,
      "ĠPowerwall": 2540,
      "Ġregulatory": 2541,
      "Ġbeautiful": 2542,
      "Ch": 2543,
      "Can": 2544,
      "Imp": 2545,
      "ead": 2546,
      "titude": 2547,
      "Ġice": 2548,
      "Ġpop": 2549,
      "Ġocean": 2550,
      "Ġrele": 2551,
      "Ġwhite": 2552,
      "Ġmoving": 2553,
      "ules": 2554,
      "Ġass": 2555,
      "Ġtests": 2556,
      "Ġclean": 2557,
      "Ġmissions": 2558,
      "Ġcompleted": 2559,
      "Ġhyd": 2560,
      "Ġirony": 2561,
      "echn": 2562,
      "ey": 2563,
      "ok": 2564,
      "ris": 2565,
      "Ġafford": 2566,
      "Ġwide": 2567,
      "Ġcal": 2568,
      "Ġfig": 2569,
      "Ġtowards": 2570,
      "Ġhon": 2571,
      "Ġhover": 2572,
      "rot": 2573,
      "Ġgiven": 2574,
      "Ġenable": 2575,
      "ured": 2576,
      "Ġseats": 2577,
      "Ġusually": 2578,
      "Ġpred": 2579,
      "Ġamount": 2580,
      "Ġparticul": 2581,
      "Ġpublish": 2582,
      "Ġavoid": 2583,
      "ĠProbably": 2584,
      "Only": 2585,
      "Ġautomatically": 2586,
      "Ġcamera": 2587,
      "Ġfeedback": 2588,
      "Ġmultiplanetary": 2589,
      "viron": 2590,
      "Ġut": 2591,
      "Ġsounds": 2592,
      "ised": 2593,
      "Ġmess": 2594,
      "Ġoffer": 2595,
      "Ġisnt": 2596,
      "Ġglass": 2597,
      "iginal": 2598,
      "ĠAnd": 2599,
      "Ġrid": 2600,
      "Ġshot": 2601,
      "Ġensure": 2602,
      "semb": 2603,
      "Ġjud": 2604,
      "Ġalthough": 2605,
      "Ġchall": 2606,
      "Well": 2607,
      "Ġautonom": 2608,
      "Ġvertical": 2609,
      "Ġfinal": 2610,
      "Almost": 2611,
      "Ġcountries": 2612,
      "Ġavailable": 2613,
      "Ġoperating": 2614,
      "Ġcreated": 2615,
      "Congrats": 2616,
      "Ġexpected": 2617,
      "Ġfriend": 2618,
      "Nice": 2619,
      "man": 2620,
      "vol": 2621,
      "ret": 2622,
      "rend": 2623,
      "Ġwd": 2624,
      "arter": 2625,
      "Ġop": 2626,
      "stron": 2627,
      "Ġbeh": 2628,
      "ĠMerlin": 2629,
      "Ġprov": 2630,
      "ife": 2631,
      "Ġasked": 2632,
      "umer": 2633,
      "ĠBr": 2634,
      "pped": 2635,
      "ĠEng": 2636,
      "phere": 2637,
      "ellig": 2638,
      "Ġcritic": 2639,
      "Ġbasically": 2640,
      "Ġachieve": 2641,
      "Ġhyp": 2642,
      "Ġnetwork": 2643,
      "Ġtracking": 2644,
      "Ġsuccessful": 2645,
      "Ġbreak": 2646,
      "Ġdiameter": 2647,
      "20": 2648,
      "Ph": 2649,
      "Ġpan": 2650,
      "Ġhouse": 2651,
      "idual": 2652,
      "ĠMach": 2653,
      "Ġprovid": 2654,
      "Ġenviron": 2655,
      "Ġchar": 2656,
      "ĠEV": 2657,
      "Ġcomes": 2658,
      "Ġtaken": 2659,
      "Ġlear": 2660,
      "Ġseries": 2661,
      "Ġcrash": 2662,
      "Ġbased": 2663,
      "Ġexperience": 2664,
      "More": 2665,
      "ik": 2666,
      "Ġsit": 2667,
      "Ġwait": 2668,
      "orld": 2669,
      "Ġflo": 2670,
      "Ġlab": 2671,
      "Ġrefer": 2672,
      "ĠTo": 2673,
      "Ġforce": 2674,
      "Ġeffic": 2675,
      "ĠMost": 2676,
      "Ġnote": 2677,
      "ĠPh": 2678,
      "cient": 2679,
      "Ġarticles": 2680,
      "ometimes": 2681,
      "Ġgrid": 2682,
      "Ġshows": 2683,
      "Ġbecome": 2684,
      "ibility": 2685,
      "Ġhappened": 2686,
      "Ġdifferent": 2687,
      "icture": 2688,
      "Ġrepair": 2689,
      "Ġinclud": 2690,
      "Ġinclude": 2691,
      "Ġsubsid": 2692,
      "ethrower": 2693,
      "cast": 2694,
      "coming": 2695,
      "greed": 2696,
      "Ġtor": 2697,
      "rel": 2698,
      "Ġfla": 2699,
      "Ġpat": 2700,
      "Ġpark": 2701,
      "Ġoften": 2702,
      "Ġant": 2703,
      "ĠApril": 2704,
      "ams": 2705,
      "Ġvote": 2706,
      "Ġseen": 2707,
      "ared": 2708,
      "Ġadjust": 2709,
      "Ġanyway": 2710,
      "Ġactive": 2711,
      "berg": 2712,
      "Ġspacecraft": 2713,
      "Ġrolling": 2714,
      "Ġdealers": 2715,
      "Ġcombust": 2716,
      "Ġprimary": 2717,
      "Ġtotal": 2718,
      "Oh": 2719,
      "ned": 2720,
      "uc": 2721,
      "Ġign": 2722,
      "illions": 2723,
      "Ġonce": 2724,
      "ĠIve": 2725,
      "ĠCar": 2726,
      "Ġprocess": 2727,
      "Ġthank": 2728,
      "iving": 2729,
      "ground": 2730,
      "Ġcustomer": 2731,
      "Ġappe": 2732,
      "ĠAmerican": 2733,
      "Ġfeatures": 2734,
      "Ġcameras": 2735,
      "Ġfundament": 2736,
      "Ġatmosphere": 2737,
      "ĠPerformance": 2738,
      "Ġprovide": 2739,
      "Agreed": 2740,
      "Glad": 2741,
      "Hopefully": 2742,
      "com": 2743,
      "eing": 2744,
      "ior": 2745,
      "ians": 2746,
      "ule": 2747,
      "Ġ'": 2748,
      "Ġbase": 2749,
      "ators": 2750,
      "Ġpicture": 2751,
      "ĠAd": 2752,
      "ilar": 2753,
      "Ġtrain": 2754,
      "Ġconnect": 2755,
      "Ġword": 2756,
      "Ġabort": 2757,
      "Ġcarry": 2758,
      "ived": 2759,
      "Ġflights": 2760,
      "anger": 2761,
      "mercial": 2762,
      "Ġrequest": 2763,
      "Ġcloser": 2764,
      "ĠNext": 2765,
      "Ġopening": 2766,
      "Ġdelivered": 2767,
      "Ġacross": 2768,
      "De": 2769,
      "Our": 2770,
      "Un": 2771,
      "With": 2772,
      "na": 2773,
      "Ġpaid": 2774,
      "Ġdam": 2775,
      "ĠSp": 2776,
      "entially": 2777,
      "Ġnecess": 2778,
      "ĠNA": 2779,
      "Ġaltitude": 2780,
      "Ġworked": 2781,
      "Ġscreen": 2782,
      "iverse": 2783,
      "overed": 2784,
      "Ġcreating": 2785,
      "Ġpropul": 2786,
      "Ġjournal": 2787,
      "Ġsnow": 2788,
      "Ġscience": 2789,
      "elligence": 2790,
      "WD": 2791,
      "ox": 2792,
      "ye": 2793,
      "Ġer": 2794,
      "Ġturb": 2795,
      "Ġfall": 2796,
      "ency": 2797,
      "Ġmist": 2798,
      "Ġpump": 2799,
      "Ġhuge": 2800,
      "aced": 2801,
      "uth": 2802,
      "Ġstor": 2803,
      "Ġprom": 2804,
      "Ġalone": 2805,
      "Ġeverything": 2806,
      "Ġdemand": 2807,
      "Ġflying": 2808,
      "Ġblack": 2809,
      "Ġcertainly": 2810,
      "ĠInternet": 2811,
      "Next": 2812,
      "Actually": 2813,
      "Ġdensity": 2814,
      "bers": 2815,
      "haps": 2816,
      "ole": 2817,
      "pro": 2818,
      "inc": 2819,
      "Ġactions": 2820,
      "Ġsend": 2821,
      "Ġtheres": 2822,
      "Ġbillion": 2823,
      "Ġmom": 2824,
      "Ġtow": 2825,
      "Ġden": 2826,
      "ĠAre": 2827,
      "ops": 2828,
      "usion": 2829,
      "Ġrain": 2830,
      "Ġcoast": 2831,
      "Thank": 2832,
      "ures": 2833,
      "Ġprem": 2834,
      "Ġprevent": 2835,
      "orne": 2836,
      "Ġelectricity": 2837,
      "Ġphysics": 2838,
      "Ġguess": 2839,
      "Ġsimple": 2840,
      "Ġraise": 2841,
      "Ġlatest": 2842,
      "ĠSunday": 2843,
      "Ġsource": 2844,
      "ining": 2845,
      "arant": 2846,
      "Ġhat": 2847,
      "Ġnamed": 2848,
      "elves": 2849,
      "aces": 2850,
      "lect": 2851,
      "Ġforg": 2852,
      "ĠInd": 2853,
      "Ġstation": 2854,
      "ĠAn": 2855,
      "Ġabs": 2856,
      "ember": 2857,
      "Ġarri": 2858,
      "Ġgreater": 2859,
      "Ġdesc": 2860,
      "Ġresults": 2861,
      "itten": 2862,
      "unning": 2863,
      "Ġpassed": 2864,
      "Ġinitial": 2865,
      "ĠNASA": 2866,
      "selves": 2867,
      "ren": 2868,
      "Ġbtw": 2869,
      "Ġdark": 2870,
      "Ġgrow": 2871,
      "acity": 2872,
      "Ġrd": 2873,
      "ĠWas": 2874,
      "ounts": 2875,
      "ĠPar": 2876,
      "Ġunc": 2877,
      "\"\".": 2878,
      "Why": 2879,
      "Ġseeing": 2880,
      "ĠSuperchargers": 2881,
      "olog": 2882,
      "Ġextreme": 2883,
      "Ġcompetition": 2884,
      "Ġnumbers": 2885,
      "Ġdeaths": 2886,
      "Ġrapidly": 2887,
      "Ġearli": 2888,
      "Ġtorque": 2889,
      "Ġcombustion": 2890,
      "Turn": 2891,
      "can": 2892,
      "gether": 2893,
      "par": 2894,
      "sh": 2895,
      "ugh": 2896,
      "Ġsqu": 2897,
      "Ġsays": 2898,
      "Ġbought": 2899,
      "Ġmount": 2900,
      "Ġtogether": 2901,
      "Ġhate": 2902,
      "Ġredu": 2903,
      "ĠSorry": 2904,
      "ĠId": 2905,
      "ushing": 2906,
      "Ġprof": 2907,
      "ĠWith": 2908,
      "Ġdeg": 2909,
      "action": 2910,
      "Ġoutside": 2911,
      "Ġhear": 2912,
      "Ġtheyre": 2913,
      "Ġgasoline": 2914,
      "Ġobv": 2915,
      "Ġbelow": 2916,
      "1000": 2917,
      "Ġgravity": 2918,
      "Ġpresent": 2919,
      "Long": 2920,
      "ike": 2921,
      "pm": 2922,
      "Ġtube": 2923,
      "iness": 2924,
      "Ġbank": 2925,
      "Ġcatch": 2926,
      "Ġnorm": 2927,
      "asons": 2928,
      "unately": 2929,
      "ĠApp": 2930,
      "irth": 2931,
      "Ġweb": 2932,
      "andy": 2933,
      "Ġnose": 2934,
      "Ġcontract": 2935,
      "Ġelse": 2936,
      "Ġstruct": 2937,
      "Ġquestions": 2938,
      "Ġinvestors": 2939,
      "Ġblog": 2940,
      "Ġdeployed": 2941,
      "Ġprices": 2942,
      "ran": 2943,
      "vin": 2944,
      "ĠYes": 2945,
      "rew": 2946,
      "read": 2947,
      "Ġdut": 2948,
      "ĠSer": 2949,
      "ĠImp": 2950,
      "terday": 2951,
      "Ġtried": 2952,
      "ĠHope": 2953,
      "ĠNorth": 2954,
      "Ġkill": 2955,
      "Ġmeeting": 2956,
      "emi": 2957,
      "Ġcommercial": 2958,
      "aterial": 2959,
      "Ġlandings": 2960,
      "Ġotherwise": 2961,
      "Ġinterview": 2962,
      "ages": 2963,
      "Ġshorts": 2964,
      "pension": 2965,
      "Ġmassive": 2966,
      "Ġincreasing": 2967,
      "Ġcommun": 2968,
      "Ġwindow": 2969,
      "ĠDoge": 2970,
      "ruction": 2971,
      "Ġcurrently": 2972,
      "coin": 2973,
      "ĠNorway": 2974,
      "Ġsuspension": 2975,
      "Ġsitu": 2976,
      "Best": 2977,
      "LA": 2978,
      "by": 2979,
      "iens": 2980,
      "oke": 2981,
      "uit": 2982,
      "Ġter": 2983,
      "Ġtel": 2984,
      "Ġsuck": 2985,
      "Ġthrot": 2986,
      "Ġoil": 2987,
      "Ġlatter": 2988,
      "Ġglobal": 2989,
      "vern": 2990,
      "Ġweight": 2991,
      "Ġvar": 2992,
      "Ġvid": 2993,
      "Ġgovern": 2994,
      "Ġrole": 2995,
      "rain": 2996,
      "ĠRep": 2997,
      "apan": 2998,
      "Ġheight": 2999,
      "ĠJapan": 3000,
      "Ġlanded": 3001,
      "ĠVery": 3002,
      "Ġaccurate": 3003,
      "Ġunderway": 3004,
      "Ġadding": 3005,
      "ney": 3006,
      "ĠCanada": 3007,
      "Ġversions": 3008,
      "Ġsurface": 3009,
      "iction": 3010,
      "Ġvisit": 3011,
      "ecause": 3012,
      "ĠForce": 3013,
      "undred": 3014,
      "ponse": 3015,
      "Ġthinking": 3016,
      "fortunately": 3017,
      "Ġearlier": 3018,
      "Looking": 3019,
      "SolarCity": 3020,
      "core": 3021,
      "mm": 3022,
      "yp": 3023,
      "Ġten": 3024,
      "Ġmaterial": 3025,
      "ĠSep": 3026,
      "ĠMode": 3027,
      "thorne": 3028,
      "ĠWere": 3029,
      "Ġassemb": 3030,
      "ĠThurs": 3031,
      "Ġcomments": 3032,
      "Ġanywhere": 3033,
      "bital": 3034,
      "ensive": 3035,
      "000": 3036,
      "Ġlift": 3037,
      "Ġpersonally": 3038,
      "Ġcontinu": 3039,
      "Ġenvironment": 3040,
      "cape": 3041,
      "time": 3042,
      "Ġtouch": 3043,
      "Ġsched": 3044,
      "Ġcor": 3045,
      "itical": 3046,
      "Ġtold": 3047,
      "Ġopp": 3048,
      "ĠToo": 3049,
      "aming": 3050,
      "Ġvast": 3051,
      "Ġoriginal": 3052,
      "antic": 3053,
      "Ġaliens": 3054,
      "Ġbug": 3055,
      "Ġquality": 3056,
      "Ġrealize": 3057,
      "Ġsmart": 3058,
      "Ġminor": 3059,
      "Ġimproved": 3060,
      "ysis": 3061,
      "Ġguys": 3062,
      "Ġcapacity": 3063,
      "Ġsteering": 3064,
      "Ġsimply": 3065,
      "iency": 3066,
      "Ġprotot": 3067,
      "Ġhorse": 3068,
      "Ġreceived": 3069,
      "Ġbegin": 3070,
      "ĠCybertruck": 3071,
      "Ġcivilization": 3072,
      "App": 3073,
      "lon": 3074,
      "lack": 3075,
      "mr": 3076,
      "ple": 3077,
      "Ġtight": 3078,
      "Ġtmr": 3079,
      "Ġaero": 3080,
      "Ġtho": 3081,
      "atively": 3082,
      "Ġcut": 3083,
      "Ġfan": 3084,
      "Ġdouble": 3085,
      "edi": 3086,
      "Ġlink": 3087,
      "Ġhit": 3088,
      "ĠTX": 3089,
      "ĠAiming": 3090,
      "Ġneural": 3091,
      "Ġrunning": 3092,
      "ĠFound": 3093,
      "Ġsepar": 3094,
      "ĠHave": 3095,
      "ĠLot": 3096,
      "Ġkid": 3097,
      "Ġhealth": 3098,
      "ĠOne": 3099,
      "Ġspend": 3100,
      "oca": 3101,
      "Ġaccount": 3102,
      "Ġpowered": 3103,
      "Ġbiggest": 3104,
      "Ġwanted": 3105,
      "Happy": 3106,
      "Ġguy": 3107,
      "Ġtalent": 3108,
      "Ġrequires": 3109,
      "ondon": 3110,
      "Ġdemo": 3111,
      "auts": 3112,
      "Ġvision": 3113,
      "Ġkinda": 3114,
      "Ġdistance": 3115,
      "zzle": 3116,
      "Ġanalysis": 3117,
      "Ġimmedi": 3118,
      "Ġtmrw": 3119,
      "ossible": 3120,
      "pite": 3121,
      "rs": 3122,
      "wide": 3123,
      "Ġblow": 3124,
      "Ġbirth": 3125,
      "etting": 3126,
      "ĠCH": 3127,
      "ĠCould": 3128,
      "ĠComm": 3129,
      "Ġvent": 3130,
      "Ġdoor": 3131,
      "ĠBase": 3132,
      "ĠBoca": 3133,
      "ĠEaster": 3134,
      "Ġarr": 3135,
      "Ġposs": 3136,
      "ivity": 3137,
      "ously": 3138,
      "Ġthru": 3139,
      "Ġharder": 3140,
      "weet": 3141,
      "Ġresponse": 3142,
      "Star": 3143,
      "Ġsubject": 3144,
      "Ġclar": 3145,
      "Ġentry": 3146,
      "Ġsurpr": 3147,
      "Ġproducts": 3148,
      "Ġturned": 3149,
      "Ġconcern": 3150,
      "Ġcounter": 3151,
      "Ġcriticism": 3152,
      "Ġnormal": 3153,
      "Aiming": 3154,
      "Boring": 3155,
      "af": 3156,
      "ms": 3157,
      "mas": 3158,
      "Ġi": 3159,
      "erry": 3160,
      "Ġsl": 3161,
      "iss": 3162,
      "Ġlay": 3163,
      "Ġhundred": 3164,
      "Ġnav": 3165,
      "ĠSolar": 3166,
      "oms": 3167,
      "omes": 3168,
      "Ġroughly": 3169,
      "Ġrules": 3170,
      "key": 3171,
      "ĠCl": 3172,
      "ift": 3173,
      "ĠFe": 3174,
      "raph": 3175,
      "ĠLooking": 3176,
      "Ġsolve": 3177,
      "Ġextend": 3178,
      "aged": 3179,
      "Ġsmaller": 3180,
      "Ġbraking": 3181,
      "Ġscient": 3182,
      "Ġpods": 3183,
      "Ġcryo": 3184,
      "Ġpaint": 3185,
      "Ġchalleng": 3186,
      "Don": 3187,
      "Dont": 3188,
      "ek": 3189,
      "hi": 3190,
      "mit": 3191,
      "Ġet": 3192,
      "Ġide": 3193,
      "Ġbus": 3194,
      "Ġcases": 3195,
      "Ġfam": 3196,
      "Ġlas": 3197,
      "Ġnd": 3198,
      "ĠTe": 3199,
      "ĠSemi": 3200,
      "Ġegg": 3201,
      "Ġstar": 3202,
      "Ġcolor": 3203,
      "ĠLondon": 3204,
      "Ġmeas": 3205,
      "Ġcannot": 3206,
      "Ġhighest": 3207,
      "ĠJuly": 3208,
      "ĠJoh": 3209,
      "ports": 3210,
      "Ġengineers": 3211,
      "Ġfeels": 3212,
      "Ġrespect": 3213,
      "Ġinside": 3214,
      "Ġsimulation": 3215,
      "Ġinstead": 3216,
      "Ġstores": 3217,
      "Ġnegative": 3218,
      "Ġmusic": 3219,
      "Ġmanufacturing": 3220,
      "Ġanti": 3221,
      "ĠJohn": 3222,
      "for": 3223,
      "pir": 3224,
      "ze": 3225,
      "eslas": 3226,
      "att": 3227,
      "Ġcow": 3228,
      "Ġcame": 3229,
      "oub": 3230,
      "itors": 3231,
      "Ġdanger": 3232,
      "Ġhol": 3233,
      "ica": 3234,
      "Ġreli": 3235,
      "ĠSat": 3236,
      "laid": 3237,
      "ĠMust": 3238,
      "Ġrating": 3239,
      "Ġbutton": 3240,
      "ĠFrid": 3241,
      "ĠDa": 3242,
      "ĠEn": 3243,
      "ĠGen": 3244,
      "Ġoutput": 3245,
      "Ġplant": 3246,
      "Ġadvert": 3247,
      "Ġquarter": 3248,
      "Ġinternal": 3249,
      "Ġoptions": 3250,
      "Ġavg": 3251,
      "Ġkey": 3252,
      "Ġparking": 3253,
      "Ġdirectly": 3254,
      "Ġcrew": 3255,
      "Ġyesterday": 3256,
      "Ġconsidered": 3257,
      "Ġlarger": 3258,
      "Ġmagn": 3259,
      "Ġunderstand": 3260,
      "Ġconfirmed": 3261,
      "Ġinjuries": 3262,
      "Ġpotential": 3263,
      "Ġaffordable": 3264,
      "Ġefficiency": 3265,
      "Comp": 3266,
      "Eng": 3267,
      "Tr": 3268,
      "Working": 3269,
      "hor": 3270,
      "rist": 3271,
      "ux": 3272,
      "Ġill": 3273,
      "onic": 3274,
      "Ġbs": 3275,
      "Ġbot": 3276,
      "Ġcash": 3277,
      "Ġfight": 3278,
      "Ġfore": 3279,
      "elt": 3280,
      "ĠSolarCity": 3281,
      "ĠSouth": 3282,
      "ctor": 3283,
      "Ġsocial": 3284,
      "ceed": 3285,
      "uled": 3286,
      "Ġdoors": 3287,
      "ĠThose": 3288,
      "ĠBerlin": 3289,
      "ĠLo": 3290,
      "ĠLaunch": 3291,
      "ĠGo": 3292,
      "ividual": 3293,
      "Ġsaw": 3294,
      "epend": 3295,
      "oogle": 3296,
      "Ġdeser": 3297,
      "ording": 3298,
      "Ġlots": 3299,
      "Ġinterior": 3300,
      "Ġexpla": 3301,
      "Still": 3302,
      "Ġshortly": 3303,
      "Ġretro": 3304,
      "Ġobject": 3305,
      "ification": 3306,
      "Ġupgraded": 3307,
      "Ġsetting": 3308,
      "Ġtweets": 3309,
      "Ġdrone": 3310,
      "Ġacceleration": 3311,
      "egas": 3312,
      "racy": 3313,
      "Ġlargest": 3314,
      "Ġsupply": 3315,
      "ĠHowever": 3316,
      "Ġstorage": 3317,
      "Ġbankrupt": 3318,
      "ĠSept": 3319,
      "ging": 3320,
      "oint": 3321,
      "ror": 3322,
      "Ġess": 3323,
      "Ġtit": 3324,
      "Ġastron": 3325,
      "Ġsum": 3326,
      "Ġways": 3327,
      "Ġbaby": 3328,
      "Ġcla": 3329,
      "Ġcur": 3330,
      "Ġcirc": 3331,
      "ishing": 3332,
      "Ġpage": 3333,
      "Ġpush": 3334,
      "Ġdie": 3335,
      "str": 3336,
      "Ġreasons": 3337,
      "opter": 3338,
      "Ġrat": 3339,
      "Ġrare": 3340,
      "Ġrail": 3341,
      "ĠCons": 3342,
      "anden": 3343,
      "Ġjack": 3344,
      "ĠHouse": 3345,
      "ĠPl": 3346,
      "Ġloop": 3347,
      "ains": 3348,
      "istics": 3349,
      "Ġheating": 3350,
      "ĠOb": 3351,
      "Ġbuying": 3352,
      "Ġapply": 3353,
      "Ġdespite": 3354,
      "Ġupgrades": 3355,
      "ĠRocket": 3356,
      "Ġhandle": 3357,
      "ĠNYT": 3358,
      "Ġmoder": 3359,
      "Ġprecision": 3360,
      "Ġargu": 3361,
      "ĠIsp": 3362,
      "ĠBoeing": 3363,
      "Ġincluding": 3364,
      "ĠIndia": 3365,
      "Ġthrottle": 3366,
      "ĠFriday": 3367,
      "night": 3368,
      "Ġir": 3369,
      "eral": 3370,
      "Ġwom": 3371,
      "Ġbi": 3372,
      "Ġfit": 3373,
      "ene": 3374,
      "Ġglad": 3375,
      "ĠSm": 3376,
      "ĠSummon": 3377,
      "ample": 3378,
      "ĠMe": 3379,
      "Ġstep": 3380,
      "Ġweap": 3381,
      "Ġrout": 3382,
      "lock": 3383,
      "\"\",": 3384,
      "arent": 3385,
      "Ġmyself": 3386,
      "xtrem": 3387,
      "Ġimpress": 3388,
      "ival": 3389,
      "Ġmisle": 3390,
      "Ġexpend": 3391,
      "Ġdelay": 3392,
      "elling": 3393,
      "ivers": 3394,
      "Ġclosed": 3395,
      "ĠReally": 3396,
      "Ġapproach": 3397,
      "Ġoperation": 3398,
      "Ġinfl": 3399,
      "Ġultra": 3400,
      "Ġincredible": 3401,
      "volution": 3402,
      "Ġhypersonic": 3403,
      "Ġmoment": 3404,
      "Ġwebcast": 3405,
      "Ġgovernment": 3406,
      "FR": 3407,
      "Ind": 3408,
      "Mars": 3409,
      "Over": 3410,
      "UD": 3411,
      "akes": 3412,
      "aiting": 3413,
      "sigh": 3414,
      "Ġahead": 3415,
      "Ġwal": 3416,
      "orter": 3417,
      "Ġpath": 3418,
      "ico": 3419,
      "ele": 3420,
      "Ġreb": 3421,
      "ĠTeslas": 3422,
      "Ġep": 3423,
      "chool": 3424,
      "ĠMart": 3425,
      "Ġsold": 3426,
      "ithium": 3427,
      "ĠFirst": 3428,
      "ĠBro": 3429,
      "Ġwasn": 3430,
      "ĠGoogle": 3431,
      "Ġoutcome": 3432,
      "Ġimpossible": 3433,
      "Ġplans": 3434,
      "ĠVegas": 3435,
      "Ġdriver": 3436,
      "Ġknown": 3437,
      "Ġextra": 3438,
      "Ġoffic": 3439,
      "Ġtransfer": 3440,
      "Ġstarts": 3441,
      "Ġwritten": 3442,
      "Ġappreciation": 3443,
      "Ġsurv": 3444,
      "Ġletter": 3445,
      "Ġposition": 3446,
      "Ġrocks": 3447,
      "raco": 3448,
      "Ġlaws": 3449,
      "Ġtricky": 3450,
      "Ġprototype": 3451,
      "Any": 3452,
      "BC": 3453,
      "Hi": 3454,
      "egr": 3455,
      "go": 3456,
      "ugg": 3457,
      "Ġsil": 3458,
      "rees": 3459,
      "Ġbay": 3460,
      "Ġhur": 3461,
      "ices": 3462,
      "aching": 3463,
      "ĠTrend": 3464,
      "idth": 3465,
      "ĠMany": 3466,
      "iment": 3467,
      "thanks": 3468,
      "opump": 3469,
      "cellent": 3470,
      "iff": 3471,
      "Ġenab": 3472,
      "andom": 3473,
      "ĠHaw": 3474,
      "Ġworse": 3475,
      "ĠBig": 3476,
      "ources": 3477,
      "Ġproduced": 3478,
      "Ġsooner": 3479,
      "Ġ%.": 3480,
      "Ġintegr": 3481,
      "Ġminim": 3482,
      "Ġexpon": 3483,
      "Ġthemselves": 3484,
      "Have": 3485,
      "Ġphys": 3486,
      "remont": 3487,
      "Ġsupporting": 3488,
      "ĠWhy": 3489,
      "Ġstrange": 3490,
      "Ġhappening": 3491,
      "vidence": 3492,
      "Ġfilter": 3493,
      "Ġsharehold": 3494,
      "Ġutility": 3495,
      "Ġcharac": 3496,
      "Ġfundamental": 3497,
      "Ġchallenges": 3498,
      "hibit": 3499,
      "Ġetc": 3500,
      "Ġratio": 3501,
      "Bet": 3502,
      "UV": 3503,
      "Up": 3504,
      "augh": 3505,
      "ball": 3506,
      "ford": 3507,
      "oes": 3508,
      "ring": 3509,
      "sc": 3510,
      "set": 3511,
      "tion": 3512,
      "Ġtun": 3513,
      "Ġsometimes": 3514,
      "ream": 3515,
      "Ġcorn": 3516,
      "arks": 3517,
      "Ġpet": 3518,
      "Ġodd": 3519,
      "ĠTechn": 3520,
      "ĠIM": 3521,
      "upport": 3522,
      "ĠAny": 3523,
      "ury": 3524,
      "urity": 3525,
      "Ġsequ": 3526,
      "Ġ(~": 3527,
      "Ġchild": 3528,
      "ĠRed": 3529,
      "Ġfake": 3530,
      "Ġspl": 3531,
      "Ġteams": 3532,
      "Ġreser": 3533,
      "Ġimproves": 3534,
      "Ġhumans": 3535,
      "Ġdisag": 3536,
      "formation": 3537,
      "Really": 3538,
      "Ġinsane": 3539,
      "Ġproblems": 3540,
      "Ġtaxes": 3541,
      "Ġvalid": 3542,
      "Ġapprox": 3543,
      "Ġdemoc": 3544,
      "ngth": 3545,
      "Ġlimit": 3546,
      "Ġwinds": 3547,
      "Ġstopp": 3548,
      "Ġsimilar": 3549,
      "ĠDoes": 3550,
      "Ġinvestigate": 3551,
      "Ġreturned": 3552,
      "Ġdevelopment": 3553,
      "Ġfinished": 3554,
      "Ġfoot": 3555,
      "Ġparticularly": 3556,
      "Ġautonomous": 3557,
      "Ġprovided": 3558,
      "Ġnecessary": 3559,
      "Ġassembly": 3560,
      "Every": 3561,
      "nes": 3562,
      "rust": 3563,
      "ula": 3564,
      "Ġcross": 3565,
      "Ġped": 3566,
      "Ġnational": 3567,
      "icy": 3568,
      "ĠTr": 3569,
      "ĠSUV": 3570,
      "Ġones": 3571,
      "omb": 3572,
      "ighter": 3573,
      "Ġorg": 3574,
      "ĠFull": 3575,
      "Ġseat": 3576,
      "ĠHard": 3577,
      "ĠHear": 3578,
      "ĠBe": 3579,
      "peed": 3580,
      "ĠPart": 3581,
      "ĠPres": 3582,
      "Ġchoice": 3583,
      "ĠEvery": 3584,
      "arting": 3585,
      "conds": 3586,
      "Ġimport": 3587,
      "ĠOther": 3588,
      "attery": 3589,
      "Ġcontrib": 3590,
      "Ġminus": 3591,
      "Ġserious": 3592,
      "Ġpowerful": 3593,
      "Ġworldwide": 3594,
      "ĠShort": 3595,
      "Ġlevels": 3596,
      "Ġescape": 3597,
      "Ġreusability": 3598,
      "Ġdram": 3599,
      "Ġstrength": 3600,
      "Ġobviously": 3601,
      "Ġcolle": 3602,
      "Ġsuggestions": 3603,
      "ĠAustral": 3604,
      "ĠMotor": 3605,
      "Ġcharging": 3606,
      "Ġturbopump": 3607,
      "Ġmisleading": 3608,
      "Ġdisagree": 3609,
      "Even": 3610,
      "Fair": 3611,
      "Hoping": 3612,
      "Testing": 3613,
      "ding": 3614,
      "eace": 3615,
      "gor": 3616,
      "mon": 3617,
      "oly": 3618,
      "pha": 3619,
      "Ġtall": 3620,
      "Ġtap": 3621,
      "Ġtiles": 3622,
      "Ġthous": 3623,
      "Ġthread": 3624,
      "Ġbill": 3625,
      "Ġmodel": 3626,
      "Ġmarg": 3627,
      "Ġmillions": 3628,
      "arry": 3629,
      "Ġtower": 3630,
      "icense": 3631,
      "igation": 3632,
      "Ġeff": 3633,
      "ĠIP": 3634,
      "Ġyeah": 3635,
      "ĠMass": 3636,
      "ĠAug": 3637,
      "Ġrather": 3638,
      "ified": 3639,
      "ĠThen": 3640,
      "raul": 3641,
      "ument": 3642,
      "ĠDont": 3643,
      "arding": 3644,
      "Ġunli": 3645,
      "Ġupload": 3646,
      "ainless": 3647,
      "Ġmech": 3648,
      "ssil": 3649,
      "ption": 3650,
      "Who": 3651,
      "Ġresources": 3652,
      "Ġserve": 3653,
      "Ġinterested": 3654,
      "Ġaircraft": 3655,
      "Ġphot": 3656,
      "Ġindepend": 3657,
      "Ġplaying": 3658,
      "Ġwarming": 3659,
      "Ġflu": 3660,
      "Ġstudy": 3661,
      "Ġreplace": 3662,
      "ĠMonday": 3663,
      "ĠAustin": 3664,
      "Ġpanels": 3665,
      "Ġimmediately": 3666,
      "EO": 3667,
      "Full": 3668,
      "Going": 3669,
      "MA": 3670,
      "Something": 3671,
      "Solar": 3672,
      "US": 3673,
      "mak": 3674,
      "rant": 3675,
      "round": 3676,
      "vation": 3677,
      "yr": 3678,
      "Ġur": 3679,
      "Ġtanks": 3680,
      "Ġsports": 3681,
      "Ġbooks": 3682,
      "enge": 3683,
      "ansion": 3684,
      "Ġpushing": 3685,
      "Ġocc": 3686,
      "Ġgone": 3687,
      "ĠTop": 3688,
      "Ġbeha": 3689,
      "Ġevidence": 3690,
      "enter": 3691,
      "alley": 3692,
      "urance": 3693,
      "ĠFremont": 3694,
      "Ġsea": 3695,
      "raw": 3696,
      "umin": 3697,
      "uming": 3698,
      "rian": 3699,
      "ĠHa": 3700,
      "acked": 3701,
      "ĠLooks": 3702,
      "ĠGM": 3703,
      "Ġnozzle": 3704,
      "Ġintelligence": 3705,
      "Ġaccident": 3706,
      "Ġimproving": 3707,
      "Ġknows": 3708,
      "Ġthruster": 3709,
      "Ġgenerator": 3710,
      "Ġsecurity": 3711,
      "Amazing": 3712,
      "Ġallowed": 3713,
      "Ġremember": 3714,
      "Ġannual": 3715,
      "Ġposted": 3716,
      "Ġlights": 3717,
      "Ġconstant": 3718,
      "Ġconstra": 3719,
      "Ġjobs": 3720,
      "Ġexisting": 3721,
      "Ġflamethrower": 3722,
      "Ġcells": 3723,
      "Ġachieved": 3724,
      "Ġfigure": 3725,
      "Ġmessed": 3726,
      "Ġpatents": 3727,
      "ĠReports": 3728,
      "Ġmagnitude": 3729,
      "Ġsummer": 3730,
      "ĠHawthorne": 3731,
      "Both": 3732,
      "Raptor": 3733,
      "Same": 3734,
      "bo": 3735,
      "bur": 3736,
      "km": 3737,
      "vest": 3738,
      "inder": 3739,
      "inite": 3740,
      "real": 3741,
      "Ġpitch": 3742,
      "Ġdying": 3743,
      "Ġlbs": 3744,
      "Ġhar": 3745,
      "ional": 3746,
      "Ġgim": 3747,
      "Ġgreen": 3748,
      "acy": 3749,
      "ĠSF": 3750,
      "Ġbeer": 3751,
      "ods": 3752,
      "ĠMom": 3753,
      "imov": 3754,
      "ĠAp": 3755,
      "ĠAWD": 3756,
      "irt": 3757,
      "Ġwebs": 3758,
      "Ġarent": 3759,
      "Ġtruth": 3760,
      "Ġmob": 3761,
      "abil": 3762,
      "ular": 3763,
      "rief": 3764,
      "Ġwords": 3765,
      "Ġmaint": 3766,
      "Ġlose": 3767,
      "Ġhex": 3768,
      "Ġheart": 3769,
      "ĠSte": 3770,
      "Ġtested": 3771,
      "Ġhardcore": 3772,
      "Ġspent": 3773,
      "osite": 3774,
      "ĠWell": 3775,
      "Ġautopilot": 3776,
      "Ġexplan": 3777,
      "Ġstarted": 3778,
      "Ġwrite": 3779,
      "Ġinsp": 3780,
      "Ġmeth": 3781,
      "Ġcompletely": 3782,
      "Ġallowing": 3783,
      "Ġrollout": 3784,
      "Ġcapability": 3785,
      "Ġlocations": 3786,
      "Ġmagic": 3787,
      "ĠSeems": 3788,
      "Ġrobot": 3789,
      "Ġincredibly": 3790,
      "Ġsmooth": 3791,
      "Important": 3792,
      "Ġsituation": 3793,
      "ĠFoundation": 3794,
      "ĠTeam": 3795,
      "piration": 3796,
      "andenberg": 3797,
      "xtremely": 3798,
      "AA": 3799,
      "Big": 3800,
      "aking": 3801,
      "ipping": 3802,
      "lantic": 3803,
      "ners": 3804,
      "yth": 3805,
      "year": 3806,
      "Ġest": 3807,
      "Ġtip": 3808,
      "ony": 3809,
      "Ġcast": 3810,
      "Ġfi": 3811,
      "Ġfiction": 3812,
      "ences": 3813,
      "Ġport": 3814,
      "etic": 3815,
      "Ġgave": 3816,
      "Ġgives": 3817,
      "ĠMont": 3818,
      "ussion": 3819,
      "Ġcoating": 3820,
      "atever": 3821,
      "Ġdev": 3822,
      "uman": 3823,
      "ĠBest": 3824,
      "ĠBtw": 3825,
      "ĠDec": 3826,
      "Ġalien": 3827,
      "Ġunion": 3828,
      "oster": 3829,
      "Ġhighway": 3830,
      "ĠValley": 3831,
      "Ġperi": 3832,
      "ocal": 3833,
      "ĠChrist": 3834,
      "ĠInst": 3835,
      "Ġadded": 3836,
      "Ġregions": 3837,
      "Ġconfident": 3838,
      "Nothing": 3839,
      "Ġindividual": 3840,
      "Ġguarant": 3841,
      "aptors": 3842,
      "Ġmetric": 3843,
      "Ġbelie": 3844,
      "Ġvalve": 3845,
      "Ġallows": 3846,
      "ĠProduction": 3847,
      "Ġdiscussion": 3848,
      "Ġjourney": 3849,
      "Ġaccelerate": 3850,
      "ĠAtlantic": 3851,
      "Ġoptimistic": 3852,
      "ength": 3853,
      "ĠArt": 3854,
      "Meant": 3855,
      "Ġrender": 3856,
      "ĠParad": 3857,
      "Ġhundreds": 3858,
      "Ġcollege": 3859,
      "ython": 3860,
      "85": 3861,
      "Because": 3862,
      "TA": 3863,
      "Try": 3864,
      "app": 3865,
      "bor": 3866,
      "lay": 3867,
      "rame": 3868,
      "Ġage": 3869,
      "Ġaiming": 3870,
      "Ġsumm": 3871,
      "Ġben": 3872,
      "Ġcamp": 3873,
      "ana": 3874,
      "Ġmil": 3875,
      "Ġpeak": 3876,
      "Ġdry": 3877,
      "Ġdumb": 3878,
      "Ġnice": 3879,
      "vey": 3880,
      "ille": 3881,
      "ida": 3882,
      "ternal": 3883,
      "Ġstates": 3884,
      "These": 3885,
      "Ġvoice": 3886,
      "ĠWish": 3887,
      "Ġtruly": 3888,
      "Ġenc": 3889,
      "Ġseconds": 3890,
      "Ġability": 3891,
      "ĠDon": 3892,
      "ĠPac": 3893,
      "Ġalumin": 3894,
      "pper": 3895,
      "Ġcomfort": 3896,
      "Ġplane": 3897,
      "ĠVandenberg": 3898,
      "Ġfaith": 3899,
      "Exc": 3900,
      "Ġintense": 3901,
      "Ġexpensive": 3902,
      "Ġhelium": 3903,
      "ĠIns": 3904,
      "Ġhelpful": 3905,
      "Ġadvent": 3906,
      "Ġclass": 3907,
      "Ġimag": 3908,
      "Ġplanet": 3909,
      "ĠYork": 3910,
      "Ġmaxim": 3911,
      "Ġrefund": 3912,
      "Ġoperational": 3913,
      "Ġcareful": 3914,
      "Ġbrain": 3915,
      "cling": 3916,
      "uralink": 3917,
      "Ġdeveloping": 3918,
      "Ġchanging": 3919,
      "Ġconstruction": 3920,
      "Does": 3921,
      "Ġdrops": 3922,
      "lorida": 3923,
      "Ġaddressed": 3924,
      "Major": 3925,
      "Ġcyc": 3926,
      "Ġexceeds": 3927,
      "ĠBeta": 3928,
      "ĠBetter": 3929,
      "Ġincentives": 3930,
      "Seems": 3931,
      "Ġhydro": 3932,
      "Ġsubsidies": 3933,
      "Ġreduce": 3934,
      "Ġcommunic": 3935,
      "Ġideas": 3936,
      "Ġarguably": 3937,
      "12": 3938,
      "Id": 3939,
      "Max": 3940,
      "Per": 3941,
      "TO": 3942,
      "den": 3943,
      "mission": 3944,
      "rous": 3945,
      "ses": 3946,
      "vate": 3947,
      "will": 3948,
      "Ġtb": 3949,
      "Ġtour": 3950,
      "Ġtires": 3951,
      "ones": 3952,
      "Ġwall": 3953,
      "atest": 3954,
      "Ġhea": 3955,
      "Ġhous": 3956,
      "Ġhang": 3957,
      "icro": 3958,
      "Ġgig": 3959,
      "ĠTues": 3960,
      "Ġangle": 3961,
      "Ġeve": 3962,
      "ĠAC": 3963,
      "Ġweve": 3964,
      "Ġwhats": 3965,
      "Ġwhether": 3966,
      "amm": 3967,
      "Ġproject": 3968,
      "Ġdog": 3969,
      "Ġrot": 3970,
      "Ġexec": 3971,
      "Ġsection": 3972,
      "umers": 3973,
      "Ġconvin": 3974,
      "ried": 3975,
      "ĠBit": 3976,
      "ĠDri": 3977,
      "ĠPC": 3978,
      "Ġloss": 3979,
      "Ġhighly": 3980,
      "epends": 3981,
      "Ġincorrect": 3982,
      "Ġ%,": 3983,
      "week": 3984,
      "Ġqui": 3985,
      "Ġrecall": 3986,
      "Ġfunny": 3987,
      "Ġresol": 3988,
      "Ġresale": 3989,
      "Ġminutes": 3990,
      "Ġprint": 3991,
      "exactly": 3992,
      "Ġvector": 3993,
      "Ġstarting": 3994,
      "Ġfired": 3995,
      "Ġcapital": 3996,
      "Ġdirection": 3997,
      "Ġpackage": 3998,
      "Ġholding": 3999,
      "Ġmotors": 4000,
      "Ġcredibility": 4001,
      "Ġterminal": 4002,
      "Ġcomplexity": 4003,
      "Ġdebate": 4004,
      "ĠHighly": 4005,
      "Ġfunctionality": 4006,
      "ĠCoast": 4007,
      "ĠRussian": 4008,
      "Ġhydraul": 4009,
      "Ġhonor": 4010,
      "Ġpredict": 4011,
      "Ġjournalists": 4012,
      "lectric": 4013,
      "Ġdescri": 4014,
      "Ġmounted": 4015,
      "Ġholid": 4016,
      "Ġclaim": 4017,
      "Ġweapons": 4018,
      "Ġwebsite": 4019,
      "Back": 4020,
      "Fe": 4021,
      "IP": 4022,
      "Res": 4023,
      "Sigh": 4024,
      "Time": 4025,
      "father": 4026,
      "iew": 4027,
      "now": 4028,
      "ration": 4029,
      "rough": 4030,
      "range": 4031,
      "ville": 4032,
      "eros": 4033,
      "onna": 4034,
      "Ġsat": 4035,
      "Ġsad": 4036,
      "Ġban": 4037,
      "itor": 4038,
      "Ġhos": 4039,
      "Ġnor": 4040,
      "otive": 4041,
      "ĠMk": 4042,
      "ĠMight": 4043,
      "Ġsty": 4044,
      "Ġstuff": 4045,
      "upiter": 4046,
      "through": 4047,
      "amn": 4048,
      "Ġround": 4049,
      "Ġrandom": 4050,
      "urther": 4051,
      "rav": 4052,
      "umul": 4053,
      "riane": 4054,
      "Ġworry": 4055,
      "Ġmap": 4056,
      "ĠDel": 4057,
      "ĠDefinitely": 4058,
      "ĠPeople": 4059,
      "ĠPlaid": 4060,
      "Ġalong": 4061,
      "Ġunits": 4062,
      "reating": 4063,
      "ĠRaptors": 4064,
      "Ġoverr": 4065,
      "venue": 4066,
      "Ġdriven": 4067,
      "Ġrecent": 4068,
      "Ġelev": 4069,
      "Ġfewer": 4070,
      "Ġminute": 4071,
      "Ġsupersonic": 4072,
      "Ġfinan": 4073,
      "Ġtransit": 4074,
      "Ġtwice": 4075,
      "Ġimage": 4076,
      "Review": 4077,
      "ĠSupercharging": 4078,
      "Ġcontroll": 4079,
      "Ġsecret": 4080,
      "Ġincreases": 4081,
      "Ġprivate": 4082,
      "Ġautomotive": 4083,
      "Ġprobable": 4084,
      "Ġwonder": 4085,
      "Ġregulators": 4086,
      "Ġlogistics": 4087,
      "Ġinjury": 4088,
      "Autopilot": 4089,
      "planetary": 4090,
      "Ġpopulation": 4091,
      "Ġbehind": 4092,
      "Ġbehalf": 4093,
      "Ġlearn": 4094,
      "Deep": 4095,
      "Ġstructure": 4096,
      "Ġbirthday": 4097,
      "Ġpossibly": 4098,
      "Ġclarify": 4099,
      "ĠConsumer": 4100,
      "Ġexpendable": 4101,
      "ĠAustralia": 4102,
      "Ġmargin": 4103,
      "Ġmobile": 4104,
      "Ġhydraulic": 4105,
      "AC": 4106,
      "Live": 4107,
      "PU": 4108,
      "fully": 4109,
      "ka": 4110,
      "mi": 4111,
      "mk": 4112,
      "uild": 4113,
      "inks": 4114,
      "Ġswit": 4115,
      "Ġfurther": 4116,
      "itter": 4117,
      "itable": 4118,
      "etry": 4119,
      "level": 4120,
      "Ġrese": 4121,
      "ĠMT": 4122,
      "ĠMuch": 4123,
      "ĠMax": 4124,
      "Ġstay": 4125,
      "Ġstack": 4126,
      "imately": 4127,
      "ĠAb": 4128,
      "Ġcook": 4129,
      "uration": 4130,
      "Ġshut": 4131,
      "ĠWed": 4132,
      "Ġexact": 4133,
      "ĠFlorida": 4134,
      "Ġconven": 4135,
      "Ġuniverse": 4136,
      "Ġcompelling": 4137,
      "Ġwouldn": 4138,
      "cious": 4139,
      "Ġplaces": 4140,
      "ĠJune": 4141,
      "Ġmonop": 4142,
      "Ġsolid": 4143,
      "While": 4144,
      "Ġquick": 4145,
      "ference": 4146,
      "Ġmini": 4147,
      "Ġboard": 4148,
      "Ġscore": 4149,
      "Ġconsumers": 4150,
      "itional": 4151,
      "ĠWhen": 4152,
      "Ġlegal": 4153,
      "Ġcooling": 4154,
      "Ġcapable": 4155,
      "ĠNothing": 4156,
      "umption": 4157,
      "Ġcommon": 4158,
      "ĠNews": 4159,
      "Ġfeeling": 4160,
      "Ġwarm": 4161,
      "resent": 4162,
      "Ġdrop": 4163,
      "Ġfriends": 4164,
      "Ġpurch": 4165,
      "Ġflaps": 4166,
      "Ġmeasure": 4167,
      "oubt": 4168,
      "Ġastronauts": 4169,
      "ĠPresident": 4170,
      "Ġheavi": 4171,
      "Ġresearch": 4172,
      "++": 4173,
      "AI": 4174,
      "Hard": 4175,
      "Huge": 4176,
      "Nor": 4177,
      "body": 4178,
      "cool": 4179,
      "frame": 4180,
      "ios": 4181,
      "me": 4182,
      "oving": 4183,
      "por": 4184,
      "ritical": 4185,
      "son": 4186,
      "Ġ)": 4187,
      "Ġsweet": 4188,
      "Ġcandy": 4189,
      "itect": 4190,
      "ension": 4191,
      "rop": 4192,
      "icrous": 4193,
      "Ġreact": 4194,
      "Ġreaching": 4195,
      "Ġeat": 4196,
      "chitect": 4197,
      "ĠMarch": 4198,
      "Ġstorm": 4199,
      "Ġstations": 4200,
      "usted": 4201,
      "use": 4202,
      "Ġrace": 4203,
      "sell": 4204,
      "ĠFAA": 4205,
      "Ġlives": 4206,
      "ĠBFR": 4207,
      "ĠNN": 4208,
      "ĠDM": 4209,
      "aren": 4210,
      "Ġarchitect": 4211,
      "Ġpoll": 4212,
      "udicrous": 4213,
      "Ġdrives": 4214,
      "Ġboat": 4215,
      "ĠSuperd": 4216,
      "Ġdownload": 4217,
      "Ġfires": 4218,
      "Ġindeed": 4219,
      "Ġupdated": 4220,
      "Ġcentral": 4221,
      "ĠRequ": 4222,
      "ashdown": 4223,
      "Ġpropag": 4224,
      "Ġmeaning": 4225,
      "Ġaccelerating": 4226,
      "Ġstudent": 4227,
      "Ġeventually": 4228,
      "Ġpolicy": 4229,
      "ĠInternational": 4230,
      "Ġhoriz": 4231,
      "Ġaffects": 4232,
      "Ġcrypt": 4233,
      "ĠMajor": 4234,
      "years": 4235,
      "Ġduty": 4236,
      "Ġventil": 4237,
      "Ġfamily": 4238,
      "Ġofficial": 4239,
      "Ġexplanation": 4240,
      "Ġsummary": 4241,
      "Ġaluminum": 4242,
      "19": 4243,
      "Battery": 4244,
      "Landing": 4245,
      "View": 4246,
      "fit": 4247,
      "pital": 4248,
      "world": 4249,
      "Ġfac": 4250,
      "ano": 4251,
      "angh": 4252,
      "Ġdrag": 4253,
      "edic": 4254,
      "Ġlines": 4255,
      "Ġlithium": 4256,
      "Ġnone": 4257,
      "icon": 4258,
      "etch": 4259,
      "acopter": 4260,
      "lear": 4261,
      "otally": 4262,
      "ĠSomething": 4263,
      "Ġang": 4264,
      "ĠMin": 4265,
      "ĠMex": 4266,
      "Ġracing": 4267,
      "Ġyoud": 4268,
      "ĠWest": 4269,
      "anda": 4270,
      "Ġconvers": 4271,
      "Ġcondit": 4272,
      "ĠDid": 4273,
      "Ġalloc": 4274,
      "ĠPython": 4275,
      "Ġlock": 4276,
      "ĠEast": 4277,
      "ĠLZ": 4278,
      "ĠLong": 4279,
      "ĠLarry": 4280,
      "ĠkWh": 4281,
      "Ġcomment": 4282,
      "eff": 4283,
      "ĠUI": 4284,
      "ĠJupiter": 4285,
      "Ġactiv": 4286,
      "Ġsave": 4287,
      "Ġhardest": 4288,
      "ultane": 4289,
      "Ġrecirc": 4290,
      "Ġexpansion": 4291,
      "Stop": 4292,
      "Ġextending": 4293,
      "Ġgrad": 4294,
      "Ġgrand": 4295,
      "ĠAlmost": 4296,
      "Ġshowing": 4297,
      "Reg": 4298,
      "Ġgenerated": 4299,
      "Ġupdates": 4300,
      "Ġtalking": 4301,
      "ĠNote": 4302,
      "Ġcomputing": 4303,
      "Ġsimultane": 4304,
      "Ġeasily": 4305,
      "Ġflies": 4306,
      "Ġchanged": 4307,
      "ledge": 4308,
      "Ġwheels": 4309,
      "Ġgraph": 4310,
      "ĠDeep": 4311,
      "Ġequal": 4312,
      "Ġthinks": 4313,
      "However": 4314,
      "Making": 4315,
      "Ġdocking": 4316,
      "Ġleader": 4317,
      "Ġpropuls": 4318,
      "Ġpropulsion": 4319,
      "Ġmistake": 4320,
      "Turns": 4321,
      "Ġbeginning": 4322,
      "Indeed": 4323,
      "Ġgimbal": 4324,
      "ĠPacific": 4325,
      "Ġpropaganda": 4326,
      "anghai": 4327,
      "ĠMexico": 4328,
      "Ġconditions": 4329,
      "15": 4330,
      "Cy": 4331,
      "Need": 4332,
      "People": 4333,
      "TC": 4334,
      "Your": 4335,
      "cel": 4336,
      "dds": 4337,
      "lation": 4338,
      "oj": 4339,
      "power": 4340,
      "rack": 4341,
      "wo": 4342,
      "word": 4343,
      "yeah": 4344,
      "onstr": 4345,
      "Ġslam": 4346,
      "Ġschool": 4347,
      "rey": 4348,
      "orters": 4349,
      "Ġcave": 4350,
      "Ġfre": 4351,
      "Ġfusion": 4352,
      "oug": 4353,
      "Ġpull": 4354,
      "Ġdedic": 4355,
      "Ġinput": 4356,
      "Ġinhibit": 4357,
      "Ġrev": 4358,
      "uts": 4359,
      "ĠMar": 4360,
      "ĠAP": 4361,
      "ĠCon": 4362,
      "ĠCant": 4363,
      "Then": 4364,
      "Those": 4365,
      "Ġtrad": 4366,
      "Ġenem": 4367,
      "Ġexample": 4368,
      "Ġsever": 4369,
      "Ġsemi": 4370,
      "ĠHoping": 4371,
      "ĠBy": 4372,
      "Ġche": 4373,
      "ĠRes": 4374,
      "ĠGod": 4375,
      "ended": 4376,
      "Ġlaunching": 4377,
      "inda": 4378,
      "Ġcontact": 4379,
      "Ġbackup": 4380,
      "Ġsyn": 4381,
      "Ġseriously": 4382,
      "Ġthoughts": 4383,
      "Ġhelping": 4384,
      "Ġwriting": 4385,
      "ĠWho": 4386,
      "Ġtechnical": 4387,
      "Ġlimits": 4388,
      "Ġapart": 4389,
      "Ġrecommended": 4390,
      "Ġturns": 4391,
      "Mostly": 4392,
      "dding": 4393,
      "Ġreports": 4394,
      "Ġemail": 4395,
      "toff": 4396,
      "ynam": 4397,
      "Ġdestination": 4398,
      "Auto": 4399,
      "Ġtraining": 4400,
      "Ġdamage": 4401,
      "Ġsurprising": 4402,
      "Ġscientists": 4403,
      "Engine": 4404,
      "Ġmoderate": 4405,
      "Ġpedest": 4406,
      "Ġmechan": 4407,
      "ĠHappy": 4408,
      "Ġmaintain": 4409,
      "Ġperiod": 4410,
      ".\"\"\"": 4411,
      "Acc": 4412,
      "Flight": 4413,
      "Might": 4414,
      "Rep": 4415,
      "Sim": 4416,
      "Techn": 4417,
      "eor": 4418,
      "has": 4419,
      "rors": 4420,
      "uz": 4421,
      "Ġtype": 4422,
      "erature": 4423,
      "Ġwild": 4424,
      "Ġbio": 4425,
      "ances": 4426,
      "Ġmark": 4427,
      "Ġpen": 4428,
      "Ġdiv": 4429,
      "Ġdynam": 4430,
      "stop": 4431,
      "etail": 4432,
      "Ġgear": 4433,
      "ĠSil": 4434,
      "illy": 4435,
      "Ġemb": 4436,
      "Ġstra": 4437,
      "upp": 4438,
      "irus": 4439,
      "irrel": 4440,
      "Ġweigh": 4441,
      "ĠCol": 4442,
      "urd": 4443,
      "ersion": 4444,
      "ĠWW": 4445,
      "ĠWorking": 4446,
      "Ġtrunk": 4447,
      "Ġdoll": 4448,
      "antage": 4449,
      "Ġworst": 4450,
      "ĠDoug": 4451,
      "ĠPay": 4452,
      "Ġloan": 4453,
      "Ġmeet": 4454,
      "Ġhearing": 4455,
      "Ġproduce": 4456,
      "Ġours": 4457,
      "Ġspin": 4458,
      "Ġyourself": 4459,
      "Ġauthor": 4460,
      "Ġairframe": 4461,
      "Ġdelta": 4462,
      "Ġtransition": 4463,
      "aka": 4464,
      "Ġconsumption": 4465,
      "Ġbecoming": 4466,
      "like": 4467,
      "Ġships": 4468,
      "Ġsurround": 4469,
      "Ġapproved": 4470,
      "heed": 4471,
      "Ġlateral": 4472,
      "ockheed": 4473,
      "Ġframe": 4474,
      "Ġexperts": 4475,
      "Ġpieces": 4476,
      "Ġbrake": 4477,
      "Ġcollect": 4478,
      "Ġinfo": 4479,
      "Ġcontinue": 4480,
      "Ġcausing": 4481,
      "Ġfailure": 4482,
      "Ġprecise": 4483,
      "Ġachieving": 4484,
      "Ġsmoking": 4485,
      "Ġdestro": 4486,
      "Ġeconomy": 4487,
      "Ġfossil": 4488,
      "Ġmeme": 4489,
      "Ġjudge": 4490,
      "ĠBrit": 4491,
      "ĠArea": 4492,
      "Ġschedule": 4493,
      "Ġforever": 4494,
      "arently": 4495,
      "Ġfootage": 4496,
      "ĠHearing": 4497,
      "Ġeffort": 4498,
      "Ġunlikely": 4499,
      "Ġfluid": 4500,
      "Norway": 4501,
      "Cant": 4502,
      "Did": 4503,
      "Earth": 4504,
      "HT": 4505,
      "Is": 4506,
      "Much": 4507,
      "SN": 4508,
      "Sp": 4509,
      "Sun": 4510,
      "Vac": 4511,
      "base": 4512,
      "dle": 4513,
      "flight": 4514,
      "ged": 4515,
      "oying": 4516,
      "sub": 4517,
      "ued": 4518,
      "ystem": 4519,
      "Ġtroll": 4520,
      "Ġcapt": 4521,
      "Ġfill": 4522,
      "Ġfool": 4523,
      "Ġdin": 4524,
      "Ġhole": 4525,
      "Ġrevolution": 4526,
      "ĠTri": 4527,
      "ota": 4528,
      "Ġbeat": 4529,
      "check": 4530,
      "ĠMr": 4531,
      "ĠAct": 4532,
      "ĠAMA": 4533,
      "Ġweird": 4534,
      "Ġwhatever": 4535,
      "Ġareas": 4536,
      "sequ": 4537,
      "Ġrow": 4538,
      "ants": 4539,
      "Ġsections": 4540,
      "ĠHer": 4541,
      "ĠDC": 4542,
      "ĠDay": 4543,
      "Ġalert": 4544,
      "ards": 4545,
      "ĠGoing": 4546,
      "ĠUN": 4547,
      "Ġlands": 4548,
      "Ġspir": 4549,
      "Ġ\"\"\"": 4550,
      "Ġspeak": 4551,
      "Ġfunds": 4552,
      "Ġmiss": 4553,
      "Ġinterest": 4554,
      "Ġexplo": 4555,
      "Prob": 4556,
      "ificial": 4557,
      "Ġlegis": 4558,
      "lied": 4559,
      "Ġsignal": 4560,
      "urren": 4561,
      "Ġbright": 4562,
      "Ġskill": 4563,
      "ollo": 4564,
      "Once": 4565,
      "Ġwarrant": 4566,
      "Ġdelivering": 4567,
      "clus": 4568,
      "Ġaccept": 4569,
      "Ġjoke": 4570,
      "reedom": 4571,
      "Ġreplaced": 4572,
      "ĠAsia": 4573,
      "Ġcaused": 4574,
      "Ġmerch": 4575,
      "Ġgeo": 4576,
      "Ġpickup": 4577,
      "Ġopin": 4578,
      "Ġfloor": 4579,
      "uclear": 4580,
      "Ġappears": 4581,
      "ĠThursday": 4582,
      "Ġroute": 4583,
      "Ġsurvival": 4584,
      "Ġcorner": 4585,
      "Ġdramatically": 4586,
      "Ġconstantly": 4587,
      "Ġhospital": 4588,
      "Ġarchitecture": 4589,
      "Ġwarranty": 4590,
      "11": 4591,
      "25": 4592,
      "35": 4593,
      "Ar": 4594,
      "Car": 4595,
      "Could": 4596,
      "Design": 4597,
      "Giga": 4598,
      "Hold": 4599,
      "Must": 4600,
      "Pr": 4601,
      "Saw": 4602,
      "Welcome": 4603,
      "awn": 4604,
      "do": 4605,
      "een": 4606,
      "gin": 4607,
      "how": 4608,
      "hanced": 4609,
      "ief": 4610,
      "ique": 4611,
      "oal": 4612,
      "ola": 4613,
      "true": 4614,
      "inter": 4615,
      "inally": 4616,
      "Ġball": 4617,
      "Ġband": 4618,
      "Ġcorre": 4619,
      "outer": 4620,
      "anium": 4621,
      "Ġdraw": 4622,
      "Ġlane": 4623,
      "aler": 4624,
      "igating": 4625,
      "ĠSc": 4626,
      "ĠSame": 4627,
      "ĠAwesome": 4628,
      "amb": 4629,
      "Ġcoal": 4630,
      "ĠCorre": 4631,
      "ĠCrew": 4632,
      "Ġyoull": 4633,
      "Ġtrust": 4634,
      "Ġmoves": 4635,
      "Ġexternal": 4636,
      "ĠFlam": 4637,
      "Ġabsolutely": 4638,
      "ĠPlan": 4639,
      "Ġchick": 4640,
      "iple": 4641,
      "Ġcompared": 4642,
      "Ġuses": 4643,
      "ideo": 4644,
      "duct": 4645,
      "izes": 4646,
      "ĠOTA": 4647,
      "ĠVan": 4648,
      "Ġactu": 4649,
      "Ġsaving": 4650,
      "Ġrecently": 4651,
      "Ġsuppl": 4652,
      "ĠChica": 4653,
      "Ġwants": 4654,
      "neum": 4655,
      "Ġsuit": 4656,
      "Ġvideos": 4657,
      "Ġcloud": 4658,
      "Ġdepart": 4659,
      "erman": 4660,
      "Ġtechnically": 4661,
      "Ġordered": 4662,
      "Ġexperiment": 4663,
      "Ġunveiling": 4664,
      "Ġbrakes": 4665,
      "Ġletting": 4666,
      "ructions": 4667,
      "Ġdeliveries": 4668,
      "Ġdiscovered": 4669,
      "Ġkeeps": 4670,
      "Ġevents": 4671,
      "Ġbroad": 4672,
      "Ġprimarily": 4673,
      "Ġprotect": 4674,
      "Ġemoj": 4675,
      "Ġsensible": 4676,
      "Ġrobots": 4677,
      "Ġwishes": 4678,
      "Ġdigging": 4679,
      "Ġautonomy": 4680,
      "Ġlabor": 4681,
      "Ġaborted": 4682,
      "Ġabsurd": 4683,
      "raphy": 4684,
      "Ġadvertising": 4685,
      "Ġtitanium": 4686,
      "ĠMartin": 4687,
      "Ġintegrated": 4688,
      "Ġexponential": 4689,
      "Ġvalidation": 4690,
      "ĠDrive": 4691,
      "Ġpropulsive": 4692,
      "Ġdedicated": 4693,
      "Ġchicken": 4694,
      "Given": 4695,
      "IC": 4696,
      "Latest": 4697,
      "NY": 4698,
      "Sc": 4699,
      "gn": 4700,
      "hood": 4701,
      "land": 4702,
      "paring": 4703,
      "rank": 4704,
      "sy": 4705,
      "Ġsed": 4706,
      "Ġwise": 4707,
      "attle": 4708,
      "Ġface": 4709,
      "Ġmatch": 4710,
      "Ġmicro": 4711,
      "Ġpyr": 4712,
      "Ġdied": 4713,
      "ederal": 4714,
      "Ġinformation": 4715,
      "Ġnar": 4716,
      "Ġnature": 4717,
      "ĠTimes": 4718,
      "ĠSen": 4719,
      "Ġemer": 4720,
      "last": 4721,
      "ĠMc": 4722,
      "Ġstainless": 4723,
      "ĠAriane": 4724,
      "ĠWorth": 4725,
      "Ġhavent": 4726,
      "ĠBar": 4727,
      "ĠBanks": 4728,
      "ĠPre": 4729,
      "Ġalgor": 4730,
      "eaut": 4731,
      "Ġchart": 4732,
      "ĠRUD": 4733,
      "ĠRIP": 4734,
      "ĠGot": 4735,
      "aint": 4736,
      "Ġcargo": 4737,
      "Ġuser": 4738,
      "Ġtiming": 4739,
      "ĠOx": 4740,
      "ĠOver": 4741,
      "ĠOct": 4742,
      "Ġgreatest": 4743,
      "Ġbuff": 4744,
      "Ġamb": 4745,
      "osed": 4746,
      "Ġresc": 4747,
      "Ġaccording": 4748,
      "Ġexpos": 4749,
      "itted": 4750,
      "ĠUSA": 4751,
      "Ġregion": 4752,
      "Ġadvantage": 4753,
      "ĠKore": 4754,
      "Ġattention": 4755,
      "Ġinspe": 4756,
      "ĠNeuralink": 4757,
      "Ġsecs": 4758,
      "Ġservices": 4759,
      "Ġident": 4760,
      "Ġpacket": 4761,
      "Ġreflight": 4762,
      "Ġcompetitors": 4763,
      "Ġmotion": 4764,
      "Ġtemperature": 4765,
      "Ġspaces": 4766,
      "Ġlatency": 4767,
      "Ġoptimized": 4768,
      "ĠAsimov": 4769,
      "Ġremains": 4770,
      "Ġfoundation": 4771,
      "Ġentirely": 4772,
      "Ġsignificantly": 4773,
      "Ann": 4774,
      "Ġloads": 4775,
      "Ġinstalled": 4776,
      "Supercharg": 4777,
      "ĠRussia": 4778,
      "Ġcalc": 4779,
      "Ġbreakthrough": 4780,
      "Physics": 4781,
      "Ġforgot": 4782,
      "Ġsquirrel": 4783,
      "ĠApple": 4784,
      "Ġenvironmental": 4785,
      "Ġarray": 4786,
      "Ġlayer": 4787,
      "Ġjacket": 4788,
      "Ġwomen": 4789,
      "Ġcharacter": 4790,
      "Ġtuned": 4791,
      "ĠAugust": 4792,
      "Ġindependent": 4793,
      "makers": 4794,
      "ĠChristmas": 4795,
      "Ġsatis": 4796,
      "ĠRequires": 4797,
      "Ġalgorith": 4798,
      "80": 4799,
      "Are": 4800,
      "After": 4801,
      "Busted": 4802,
      "Gu": 4803,
      "Le": 4804,
      "Part": 4805,
      "Sign": 4806,
      "Um": 4807,
      "Using": 4808,
      "aks": 4809,
      "kn": 4810,
      "lies": 4811,
      "mins": 4812,
      "vil": 4813,
      "vada": 4814,
      "you": 4815,
      "Ġtrend": 4816,
      "inux": 4817,
      "Ġsing": 4818,
      "orbital": 4819,
      "Ġbur": 4820,
      "Ġfirm": 4821,
      "ises": 4822,
      "Ġpilot": 4823,
      "Ġinert": 4824,
      "alt": 4825,
      "ĠTry": 4826,
      "ided": 4827,
      "launch": 4828,
      "ĠMan": 4829,
      "ĠAst": 4830,
      "irl": 4831,
      "ulated": 4832,
      "gee": 4833,
      "Ġexit": 4834,
      "ĠFate": 4835,
      "Ġsearch": 4836,
      "ourse": 4837,
      "Ġchip": 4838,
      "ipment": 4839,
      "ĠExtremely": 4840,
      "lose": 4841,
      "ĠRH": 4842,
      "Ġupcoming": 4843,
      "Ġcompress": 4844,
      "Ġusers": 4845,
      "ement": 4846,
      "Ġwouldnt": 4847,
      "cience": 4848,
      "ontal": 4849,
      "Ġbump": 4850,
      "Ġapplied": 4851,
      "rick": 4852,
      "Ġamounts": 4853,
      "Ġengineer": 4854,
      "Ġsolved": 4855,
      "Ġperhaps": 4856,
      "wear": 4857,
      "Ġbackground": 4858,
      "Ġresult": 4859,
      "Ġboys": 4860,
      "ickel": 4861,
      "ĠCheck": 4862,
      "Ġhappiness": 4863,
      "Ġcouldnt": 4864,
      "oths": 4865,
      "Ġliftoff": 4866,
      "Ġhelps": 4867,
      "Ġhowever": 4868,
      "pected": 4869,
      "ĠNevada": 4870,
      "awatt": 4871,
      "Ġleak": 4872,
      "Ġsketch": 4873,
      "Ġordering": 4874,
      "Ġrefine": 4875,
      "Ġcommand": 4876,
      "Ġdecades": 4877,
      "ertainly": 4878,
      "Ġreuse": 4879,
      "Ġlocation": 4880,
      "Ġdealer": 4881,
      "Ġplayed": 4882,
      "Ġthoughtful": 4883,
      "Ġdeployment": 4884,
      "Ġrestored": 4885,
      "Ġjoin": 4886,
      "Ġequipment": 4887,
      "Ġspecies": 4888,
      "poned": 4889,
      "Ġsupporters": 4890,
      "Ġpurple": 4891,
      "ethrowers": 4892,
      "Ġtotally": 4893,
      "Ġreleases": 4894,
      "Ġreleased": 4895,
      "Ġopens": 4896,
      "ĠPhD": 4897,
      "Ġabsor": 4898,
      "Ġarrives": 4899,
      "Ġlaser": 4900,
      "Ġdangerous": 4901,
      "Ġreliability": 4902,
      "ĠReddit": 4903,
      "Ġthousands": 4904,
      "Ġhexacopter": 4905,
      "Perhaps": 4906,
      "ĠBitcoin": 4907,
      "Ġquiet": 4908,
      "Ġholiday": 4909,
      "Ġstyle": 4910,
      "ĠSuperdraco": 4911,
      "Ġconversation": 4912,
      "Cybertruck": 4913,
      "Ġstraight": 4914,
      "HTSA": 4915,
      "Ġopinion": 4916,
      "Driving": 4917,
      "Depends": 4918,
      "Mass": 4919,
      "Moon": 4920,
      "PA": 4921,
      "SJ": 4922,
      "TE": 4923,
      "Video": 4924,
      "ault": 4925,
      "cone": 4926,
      "here": 4927,
      "iot": 4928,
      "oking": 4929,
      "ogee": 4930,
      "pay": 4931,
      "pons": 4932,
      "uilt": 4933,
      "vable": 4934,
      "Ġouter": 4935,
      "Ġsix": 4936,
      "Ġsilly": 4937,
      "orbit": 4938,
      "Ġbday": 4939,
      "Ġborn": 4940,
      "ancy": 4941,
      "Ġmir": 4942,
      "Ġpending": 4943,
      "Ġpneum": 4944,
      "Ġdoubt": 4945,
      "Ġhes": 4946,
      "Ġinvent": 4947,
      "alact": 4948,
      "Ġnat": 4949,
      "Ġnom": 4950,
      "Ġgonna": 4951,
      "acc": 4952,
      "Ġrecharg": 4953,
      "uter": 4954,
      "veal": 4955,
      "otes": 4956,
      "illiant": 4957,
      "ĠIV": 4958,
      "ĠIron": 4959,
      "chang": 4960,
      "allel": 4961,
      "ups": 4962,
      "irgin": 4963,
      "outs": 4964,
      "Ġbutt": 4965,
      "ĠCA": 4966,
      "ĠCurrent": 4967,
      "Ġpros": 4968,
      "Three": 4969,
      "Thought": 4970,
      "ĠWar": 4971,
      "ables": 4972,
      "ĠFord": 4973,
      "Ġjump": 4974,
      "umans": 4975,
      "Ġcond": 4976,
      "Ġconvert": 4977,
      "ĠHis": 4978,
      "ĠHait": 4979,
      "ĠBlo": 4980,
      "ĠPr": 4981,
      "Ġloved": 4982,
      "ĠLike": 4983,
      "Ġmeg": 4984,
      "\"\".\"": 4985,
      "Ġadm": 4986,
      "ĠJon": 4987,
      "ĠVersion": 4988,
      "ĠVirgin": 4989,
      "Ġsafer": 4990,
      "ooh": 4991,
      "ftware": 4992,
      "Ġpermission": 4993,
      "Excellent": 4994,
      "Ġresist": 4995,
      "Ġprinc": 4996,
      "Ġmissed": 4997,
      "Ġinterplanetary": 4998,
      "Ġtheme": 4999,
      "Ġeverywhere": 5000,
      "Ġcrush": 5001,
      "Inc": 5002,
      "Ġgrou": 5003,
      "Ġdefe": 5004,
      "Ġtwea": 5005,
      "Ġadvice": 5006,
      "Ġadvance": 5007,
      "reciated": 5008,
      "ixed": 5009,
      "Ġclearly": 5010,
      "Read": 5011,
      "ĠShanghai": 5012,
      "Ġboosters": 5013,
      "ermi": 5014,
      "Ġleave": 5015,
      "Ġsurvey": 5016,
      "Ġpostponed": 5017,
      "Ġplanning": 5018,
      "Ġoperate": 5019,
      "nother": 5020,
      "Ġesth": 5021,
      "Ġapogee": 5022,
      "Ġroads": 5023,
      "Ġsimpl": 5024,
      "ruct": 5025,
      "viously": 5026,
      "Ġstream": 5027,
      "Ġstudio": 5028,
      "Headed": 5029,
      "Ġsubsonic": 5030,
      "Ġmentioned": 5031,
      "Ġfilters": 5032,
      "Ġemploy": 5033,
      "Ġfocused": 5034,
      "ĠEngine": 5035,
      "ĠEVs": 5036,
      "cientists": 5037,
      "Ġerrors": 5038,
      "Ġfalling": 5039,
      "Ġdescrib": 5040,
      "Ġvariant": 5041,
      "Ġopport": 5042,
      "Ġseparation": 5043,
      "Ġseparate": 5044,
      "Starlink": 5045,
      "ĠiPh": 5046,
      "force": 5047,
      "Ġshareholders": 5048,
      "Ġsplashdown": 5049,
      "Ġdemocracy": 5050,
      "Ġstopped": 5051,
      "ĠIPO": 5052,
      "ĠApollo": 5053,
      "Ġtbh": 5054,
      "Ġreactor": 5055,
      "Ġventilators": 5056,
      "Ġdestroy": 5057,
      "Ġsavings": 5058,
      "ĠOxford": 5059,
      "Ġexposure": 5060,
      "ĠHaiti": 5061,
      "!\"": 5062,
      "400": 5063,
      "Cl": 5064,
      "Cont": 5065,
      "Int": 5066,
      "Life": 5067,
      "PV": 5068,
      "Russ": 5069,
      "ST": 5070,
      "Ser": 5071,
      "Support": 5072,
      "ges": 5073,
      "hopefully": 5074,
      "iation": 5075,
      "iers": 5076,
      "point": 5077,
      "rate": 5078,
      "sp": 5079,
      "Ġtire": 5080,
      "Ġamp": 5081,
      "Ġson": 5082,
      "reak": 5083,
      "Ġthres": 5084,
      "Ġwing": 5085,
      "Ġbiz": 5086,
      "Ġcult": 5087,
      "Ġfu": 5088,
      "enn": 5089,
      "ening": 5090,
      "Ġmal": 5091,
      "Ġmine": 5092,
      "arrass": 5093,
      "Ġooh": 5094,
      "Ġlength": 5095,
      "Ġlinks": 5096,
      "ste": 5097,
      "ete": 5098,
      "igs": 5099,
      "Ġancient": 5100,
      "lying": 5101,
      "ĠInt": 5102,
      "odes": 5103,
      "che": 5104,
      "ĠMer": 5105,
      "ĠAud": 5106,
      "ĠAng": 5107,
      "ilities": 5108,
      "Ġneigh": 5109,
      "Ġrise": 5110,
      "Ġcores": 5111,
      "Thrust": 5112,
      "ĠWon": 5113,
      "Ġtri": 5114,
      "Ġexcess": 5115,
      "ĠThail": 5116,
      "ĠFermi": 5117,
      "Ġlikes": 5118,
      "rible": 5119,
      "ĠBill": 5120,
      "ours": 5121,
      "ĠDesign": 5122,
      "ĠPan": 5123,
      "Ġchain": 5124,
      "ĠEnd": 5125,
      "ĠElectric": 5126,
      "acking": 5127,
      "love": 5128,
      "emetry": 5129,
      "Ġpret": 5130,
      "Ġplaced": 5131,
      "intelligence": 5132,
      "ricks": 5133,
      "Ġfault": 5134,
      "Ġsolving": 5135,
      "Ġparties": 5136,
      "wns": 5137,
      "Ġartificial": 5138,
      "Ġexpl": 5139,
      "Ġunderground": 5140,
      "lications": 5141,
      "next": 5142,
      "Ġfastest": 5143,
      "Ġtwitter": 5144,
      "Ġclos": 5145,
      "Ġbecomes": 5146,
      "Ġindic": 5147,
      "Ġpublicly": 5148,
      "Ġcountdown": 5149,
      "Ġmeter": 5150,
      "Ġcompleting": 5151,
      "ĠRead": 5152,
      "ĠYour": 5153,
      "Ġdemonstr": 5154,
      "Ġparach": 5155,
      "Ġparallel": 5156,
      "Ġvisible": 5157,
      "Ġstops": 5158,
      "Ġcompetitive": 5159,
      "Ġvolcan": 5160,
      "Ġhands": 5161,
      "Ġhandling": 5162,
      "Ġeasier": 5163,
      "Ġcovered": 5164,
      "Ġcoverage": 5165,
      "clud": 5166,
      "Ġmajority": 5167,
      "Launching": 5168,
      "Ġexcited": 5169,
      "Ġraised": 5170,
      "Ġselling": 5171,
      "Ġspecific": 5172,
      "Ġremaining": 5173,
      "Ġfollowing": 5174,
      "Ġfollowed": 5175,
      "Ġdebt": 5176,
      "Ġapprovals": 5177,
      "Ġlogs": 5178,
      "Ġwatching": 5179,
      "Ġemphas": 5180,
      "Ġridicul": 5181,
      "Ġappear": 5182,
      "Ġduties": 5183,
      "ĠImpro": 5184,
      "Ġterrible": 5185,
      "Ġlasers": 5186,
      "Ġeggs": 5187,
      "Ġdeserves": 5188,
      "Ġbankruptcy": 5189,
      "Ġwalk": 5190,
      "Ġchildren": 5191,
      "ĠMonty": 5192,
      "ĠParadox": 5193,
      "Ġbenef": 5194,
      "Ġimagine": 5195,
      "Ġconvenient": 5196,
      "ĠDMV": 5197,
      "Ġhorizontal": 5198,
      "Ġfrequ": 5199,
      "Ġembarrass": 5200,
      "Ġpyram": 5201,
      "ĠSenate": 5202,
      "ĠKorea": 5203,
      "Ġinspection": 5204,
      "Ġthreshold": 5205,
      "ĠThailand": 5206,
      "!)": 5207,
      "250": 5208,
      "40": 5209,
      "Another": 5210,
      "Che": 5211,
      "DT": 5212,
      "Many": 5213,
      "Mach": 5214,
      "Put": 5215,
      "Right": 5216,
      "SF": 5217,
      "TS": 5218,
      "bot": 5219,
      "comp": 5220,
      "hr": 5221,
      "lors": 5222,
      "oil": 5223,
      "pack": 5224,
      "rong": 5225,
      "sounds": 5226,
      "Ġtree": 5227,
      "Ġsummon": 5228,
      "Ġwer": 5229,
      "Ġbrief": 5230,
      "atable": 5231,
      "Ġcand": 5232,
      "Ġfive": 5233,
      "Ġfood": 5234,
      "Ġfield": 5235,
      "Ġfreedom": 5236,
      "enu": 5237,
      "Ġmill": 5238,
      "Ġtool": 5239,
      "Ġpers": 5240,
      "edy": 5241,
      "Ġluck": 5242,
      "Ġhrs": 5243,
      "standing": 5244,
      "Ġinno": 5245,
      "alo": 5246,
      "eted": 5247,
      "etime": 5248,
      "Ġgrey": 5249,
      "Ġrevenue": 5250,
      "ĠTal": 5251,
      "oted": 5252,
      "ĠSA": 5253,
      "ĠShip": 5254,
      "ĠSelf": 5255,
      "ĠSince": 5256,
      "omberg": 5257,
      "Ġeg": 5258,
      "verse": 5259,
      "idence": 5260,
      "idering": 5261,
      "Ġiter": 5262,
      "Ġcoff": 5263,
      "Ġcolors": 5264,
      "ĠCourse": 5265,
      "Ġproceed": 5266,
      "ifically": 5267,
      "Ġvary": 5268,
      "Ġshown": 5269,
      "Ġtraction": 5270,
      "Ġnotice": 5271,
      "ĠHopper": 5272,
      "ĠBl": 5273,
      "ĠBlack": 5274,
      "ĠLet": 5275,
      "ĠLinux": 5276,
      "ĠRight": 5277,
      "Ġupon": 5278,
      "ĠGu": 5279,
      "ĠGet": 5280,
      "Ġadults": 5281,
      "ĠOffic": 5282,
      "Ġgreatly": 5283,
      "Which": 5284,
      "orders": 5285,
      "rowser": 5286,
      "Ġexpress": 5287,
      "Ġworlds": 5288,
      "Ġlifetime": 5289,
      "Ġhumor": 5290,
      "Ġcalling": 5291,
      "Ġattach": 5292,
      "Ġcenters": 5293,
      "Ġplanned": 5294,
      "Ġsteam": 5295,
      "Ġamazingly": 5296,
      "gency": 5297,
      "Ġrepresent": 5298,
      "Ġdetect": 5299,
      "Ġbasic": 5300,
      "Ġvisiting": 5301,
      "Ġcomputers": 5302,
      "Ġviol": 5303,
      "Ġexpert": 5304,
      "Ġfunding": 5305,
      "Ġradio": 5306,
      "Ġdistract": 5307,
      "ĠAtlas": 5308,
      "Ġspecifically": 5309,
      "ĠZip": 5310,
      "Ġfailed": 5311,
      "Ġreceive": 5312,
      "ĠMoreover": 5313,
      "Ġargument": 5314,
      "Ġpricing": 5315,
      "Ġinstallation": 5316,
      "ĠMakes": 5317,
      "Second": 5318,
      "Ġmistakes": 5319,
      "ological": 5320,
      "Ġsucks": 5321,
      "Ġconcerns": 5322,
      "Ġessential": 5323,
      "Ġimpressive": 5324,
      "Ġhurt": 5325,
      "board": 5326,
      "ĠDelta": 5327,
      "porate": 5328,
      "Ġcrypto": 5329,
      "Technically": 5330,
      "ĠDouglas": 5331,
      "urrency": 5332,
      "Ġnarrow": 5333,
      "alactic": 5334,
      "Ġemphasize": 5335,
      "Check": 5336,
      "Blo": 5337,
      "Current": 5338,
      "ED": 5339,
      "Side": 5340,
      "Wal": 5341,
      "boy": 5342,
      "cer": 5343,
      "fast": 5344,
      "pher": 5345,
      "vant": 5346,
      "wed": 5347,
      "width": 5348,
      "zen": 5349,
      "ĠYeah": 5350,
      "Ġurb": 5351,
      "inary": 5352,
      "Ġbattle": 5353,
      "Ġcm": 5354,
      "isis": 5355,
      "aning": 5356,
      "Ġpics": 5357,
      "Ġtheory": 5358,
      "Ġlmk": 5359,
      "mph": 5360,
      "Ġnons": 5361,
      "Ġnuclear": 5362,
      "elp": 5363,
      "elect": 5364,
      "Ġgar": 5365,
      "Ġgun": 5366,
      "Ġgiving": 5367,
      "Ġrepe": 5368,
      "ĠTV": 5369,
      "ĠTime": 5370,
      "ĠSign": 5371,
      "Ġbeats": 5372,
      "omal": 5373,
      "unt": 5374,
      "Ġstuck": 5375,
      "Ġweak": 5376,
      "used": 5377,
      "ĠCenter": 5378,
      "ĠCritical": 5379,
      "Ġvirus": 5380,
      "Ġshipping": 5381,
      "ĠWSJ": 5382,
      "ĠThank": 5383,
      "Ġseal": 5384,
      "Ġjunk": 5385,
      "ĠHar": 5386,
      "ĠBS": 5387,
      "ĠBay": 5388,
      "ĠDan": 5389,
      "ĠPic": 5390,
      "Ġloaded": 5391,
      "Ġunkn": 5392,
      "eway": 5393,
      "ĠGPU": 5394,
      "apse": 5395,
      "Ġtext": 5396,
      "cons": 5397,
      "ciety": 5398,
      "ĠUpper": 5399,
      "ĠVol": 5400,
      "Ġsomehow": 5401,
      "Ġpowert": 5402,
      "Ġintern": 5403,
      "Ġcrisis": 5404,
      "Ġsuperall": 5405,
      "ĠAlpha": 5406,
      "aken": 5407,
      "Ġconscious": 5408,
      "aneu": 5409,
      "ĠWhite": 5410,
      "Production": 5411,
      "Always": 5412,
      "Already": 5413,
      "Ġsigned": 5414,
      "ĠYoure": 5415,
      "Ġrolls": 5416,
      "lessly": 5417,
      "Ġfixing": 5418,
      "ĠTheyre": 5419,
      "Soon": 5420,
      "Ġdecade": 5421,
      "Ġheader": 5422,
      "Ġapocal": 5423,
      "Ġvacc": 5424,
      "Ġoptional": 5425,
      "ĠQA": 5426,
      "Ġdrove": 5427,
      "eeing": 5428,
      "Ġreporting": 5429,
      "ĠNeeds": 5430,
      "Ġwinter": 5431,
      "Ġwatched": 5432,
      "Ġcharger": 5433,
      "Ġmemes": 5434,
      "ahem": 5435,
      "Ġshielding": 5436,
      "Ġpopular": 5437,
      "Ġriding": 5438,
      "Ġlearned": 5439,
      "ikola": 5440,
      "Ġfundamentally": 5441,
      "Ġdegrees": 5442,
      "Ġtalented": 5443,
      "ĠFeb": 5444,
      "ĠNYTimes": 5445,
      "ĠSmart": 5446,
      "Ġphysical": 5447,
      "burg": 5448,
      "Ġguaranteed": 5449,
      "appreciated": 5450,
      "Ġresolution": 5451,
      "Ġpurchase": 5452,
      "Ġallocation": 5453,
      "Regarding": 5454,
      "Ġsevere": 5455,
      "ĠGodot": 5456,
      "ĠFlamethrower": 5457,
      "oohoo": 5458,
      "Ġgroup": 5459,
      "ĠiPhone": 5460,
      "wnsville": 5461,
      "Ġembarrassing": 5462,
      "Ġurban": 5463,
      "Ġunknown": 5464,
      "300": 5465,
      "45": 5466,
      "Air": 5467,
      "Astron": 5468,
      "By": 5469,
      "From": 5470,
      "Final": 5471,
      "Goal": 5472,
      "German": 5473,
      "His": 5474,
      "July": 5475,
      "Kinda": 5476,
      "Like": 5477,
      "Min": 5478,
      "RO": 5479,
      "Tom": 5480,
      "Tod": 5481,
      "Totally": 5482,
      "Uh": 5483,
      "Woohoo": 5484,
      "eer": 5485,
      "fall": 5486,
      "faces": 5487,
      "graphy": 5488,
      "ma": 5489,
      "oss": 5490,
      "war": 5491,
      "was": 5492,
      "Ġaud": 5493,
      "Ġsort": 5494,
      "rest": 5495,
      "rete": 5496,
      "Ġtherm": 5497,
      "Ġwast": 5498,
      "Ġwidth": 5499,
      "Ġbal": 5500,
      "Ġmaneu": 5501,
      "Ġdive": 5502,
      "Ġdial": 5503,
      "Ġdivers": 5504,
      "Ġlicense": 5505,
      "Ġhops": 5506,
      "already": 5507,
      "Ġnu": 5508,
      "Ġnets": 5509,
      "icious": 5510,
      "Ġgl": 5511,
      "aceship": 5512,
      "ĠTurn": 5513,
      "ĠSol": 5514,
      "owers": 5515,
      "omain": 5516,
      "Ġevol": 5517,
      "Ġstat": 5518,
      "Ġwealth": 5519,
      "Ġrig": 5520,
      "Ġrule": 5521,
      "Ġcolon": 5522,
      "ĠCash": 5523,
      "ĠCEO": 5524,
      "ifies": 5525,
      "ationary": 5526,
      "Ġshorter": 5527,
      "Ġtrouble": 5528,
      "ouncing": 5529,
      "ĠThese": 5530,
      "ĠForm": 5531,
      "rier": 5532,
      "ĠNHTSA": 5533,
      "ĠNikola": 5534,
      "ĠDis": 5535,
      "actually": 5536,
      "ĠEU": 5537,
      "Ġunit": 5538,
      "Ġunfortunately": 5539,
      "ĠLife": 5540,
      "osting": 5541,
      "apit": 5542,
      "conel": 5543,
      "Ġarms": 5544,
      "Ġplat": 5545,
      "ĠULA": 5546,
      "Ġproduces": 5547,
      "Ġmonkey": 5548,
      "Ġsympt": 5549,
      "Ġmissing": 5550,
      "Ġexpanding": 5551,
      "ĠInf": 5552,
      "Ġfacto": 5553,
      "Ġextension": 5554,
      "Ġscal": 5555,
      "play": 5556,
      "Ġsubtle": 5557,
      "formed": 5558,
      "ĠStarships": 5559,
      "pective": 5560,
      "atched": 5561,
      "Ġdonate": 5562,
      "Ġgeneration": 5563,
      "Ġsignature": 5564,
      "Ġidiot": 5565,
      "Ġannoying": 5566,
      "Ġholds": 5567,
      "Ġuntrue": 5568,
      "Ġcompute": 5569,
      "Ġcompeting": 5570,
      "Ġcreation": 5571,
      "Ġtempor": 5572,
      "Ġtweeting": 5573,
      "Ġconstit": 5574,
      "ĠUniverse": 5575,
      "Ġacid": 5576,
      "Ġbuyers": 5577,
      "Ġstreets": 5578,
      "ĠDealer": 5579,
      "Ġmachines": 5580,
      "Ġbroke": 5581,
      "Ġpolitical": 5582,
      "Ġsuggests": 5583,
      "Ġeffective": 5584,
      "ĠBooster": 5585,
      "ĠOrder": 5586,
      "ĠOrbital": 5587,
      "ruption": 5588,
      "ĠMotors": 5589,
      "Ġrenew": 5590,
      "Ġreference": 5591,
      "Ġrepairs": 5592,
      "Ġprocessing": 5593,
      "Unfortunately": 5594,
      "Ġerror": 5595,
      "Ġstructural": 5596,
      "ypes": 5597,
      "ĠFeels": 5598,
      "ĠJohnny": 5599,
      "Ġbott": 5600,
      "Ġsettings": 5601,
      "ĠBrownsville": 5602,
      "Ġpetition": 5603,
      "ĠDoesnt": 5604,
      "Ġphoto": 5605,
      "Ġfiber": 5606,
      "Ġmilest": 5607,
      "erosene": 5608,
      "Ġoverride": 5609,
      "Ġelevator": 5610,
      "Ġswitch": 5611,
      "ĠAbout": 5612,
      "Ġcheese": 5613,
      "Ġbiography": 5614,
      "Ġspirit": 5615,
      "Ġbumper": 5616,
      "Seriously": 5617,
      "Bas": 5618,
      "Con": 5619,
      "Got": 5620,
      "Last": 5621,
      "MW": 5622,
      "NN": 5623,
      "Open": 5624,
      "Pal": 5625,
      "Rest": 5626,
      "Sat": 5627,
      "World": 5628,
      "aur": 5629,
      "but": 5630,
      "box": 5631,
      "cceed": 5632,
      "ection": 5633,
      "first": 5634,
      "overy": 5635,
      "space": 5636,
      "vice": 5637,
      "wd": 5638,
      "with": 5639,
      "yd": 5640,
      "Ġaw": 5641,
      "Ġaim": 5642,
      "Ġthreat": 5643,
      "Ġthird": 5644,
      "esides": 5645,
      "orse": 5646,
      "order": 5647,
      "orical": 5648,
      "Ġbrowser": 5649,
      "Ġcities": 5650,
      "Ġfat": 5651,
      "Ġfwd": 5652,
      "ouple": 5653,
      "itud": 5654,
      "Ġmelt": 5655,
      "Ġpap": 5656,
      "Ġpounds": 5657,
      "Ġpacks": 5658,
      "Ġpeace": 5659,
      "Ġdies": 5660,
      "Ġloud": 5661,
      "Ġlighter": 5662,
      "rown": 5663,
      "roph": 5664,
      "Ġnorth": 5665,
      "etter": 5666,
      "lee": 5667,
      "ĠSec": 5668,
      "illing": 5669,
      "Ġeye": 5670,
      "ctors": 5671,
      "ĠIC": 5672,
      "ĠMun": 5673,
      "allout": 5674,
      "tering": 5675,
      "Ġstars": 5676,
      "Ġstabil": 5677,
      "usable": 5678,
      "ammer": 5679,
      "Ġcovid": 5680,
      "urally": 5681,
      "ĠWater": 5682,
      "ĠWatch": 5683,
      "Ġtrail": 5684,
      "Ġtrillion": 5685,
      "Ġenj": 5686,
      "ulating": 5687,
      "Ġnoting": 5688,
      "Ġascent": 5689,
      "Ġexclus": 5690,
      "ĠFl": 5691,
      "Ġsex": 5692,
      "Ġlie": 5693,
      "Ġabt": 5694,
      "ĠBob": 5695,
      "ĠBlock": 5696,
      "ĠBMW": 5697,
      "Ġloves": 5698,
      "ĠEl": 5699,
      "ĠEffect": 5700,
      "eward": 5701,
      "ĠLaw": 5702,
      "ĠLicense": 5703,
      "ĠLudicrous": 5704,
      "ĠGWh": 5705,
      "ĠGear": 5706,
      "Ġmemb": 5707,
      "Ġcompla": 5708,
      "Ġcompens": 5709,
      "irect": 5710,
      "istent": 5711,
      "cont": 5712,
      "Ġarriving": 5713,
      "endar": 5714,
      "ĠStan": 5715,
      "Ġnoise": 5716,
      "Ġhighlight": 5717,
      "Ġplate": 5718,
      "ĠUp": 5719,
      "ĠOf": 5720,
      "ĠOk": 5721,
      "vior": 5722,
      "Where": 5723,
      "Ġintro": 5724,
      "Ġquote": 5725,
      "Ġrecovered": 5726,
      "Ġrecovery": 5727,
      "Ġwhenever": 5728,
      "Ġrespons": 5729,
      "Ġunderappreciated": 5730,
      "ittee": 5731,
      "Ġspaceport": 5732,
      "Ġendorse": 5733,
      "Ġsucceed": 5734,
      "Ġcalls": 5735,
      "Ġsuborbital": 5736,
      "Ġguide": 5737,
      "Ġdepends": 5738,
      "Ġgenerate": 5739,
      "Ġstrate": 5740,
      "gging": 5741,
      "Ġpersonal": 5742,
      "faction": 5743,
      "Ġplanets": 5744,
      "Ġreflect": 5745,
      "nings": 5746,
      "Ġexperien": 5747,
      "Doge": 5748,
      "Ġputting": 5749,
      "Ġreached": 5750,
      "Ġuh": 5751,
      "ĠZero": 5752,
      "Ġultimately": 5753,
      "Ġunderstanding": 5754,
      "Ġiniti": 5755,
      "Ġeditor": 5756,
      "Ġmiddle": 5757,
      "Ġnegatively": 5758,
      "Ġanswered": 5759,
      "Ġanaly": 5760,
      "Ġeconomic": 5761,
      "Ġattacked": 5762,
      "ahn": 5763,
      "Ġassuming": 5764,
      "Ġhonored": 5765,
      "Ġchallenge": 5766,
      "Ġignore": 5767,
      "Ġignition": 5768,
      "Ġconnected": 5769,
      "Ġnecessarily": 5770,
      "Ġpromising": 5771,
      "ĠParis": 5772,
      "Ġnosecone": 5773,
      "Ġhealthy": 5774,
      "Ġarrays": 5775,
      "Ġpushed": 5776,
      "Ġphysically": 5777,
      "Ġorgan": 5778,
      "Ġbehavior": 5779,
      "vestigating": 5780,
      "Excited": 5781,
      "Ġadventure": 5782,
      "Ġcycles": 5783,
      "Ġmonopoly": 5784,
      "Ġquickly": 5785,
      "Ġactivate": 5786,
      "Ġsimultaneously": 5787,
      "ĠSilicon": 5788,
      "Ġweighs": 5789,
      "Ġsedan": 5790,
      "Ġsatisfaction": 5791,
      "Ġopportun": 5792,
      "Ġampl": 5793,
      "Ġexplode": 5794,
      "Ġridiculous": 5795,
      "Ġcoffee": 5796,
      "Ġbalance": 5797,
      "Ġmilestone": 5798,
      ".\"\"": 5799,
      "Cons": 5800,
      "Def": 5801,
      "Eas": 5802,
      "FSD": 5803,
      "Here": 5804,
      "Hell": 5805,
      "Ive": 5806,
      "Iron": 5807,
      "Li": 5808,
      "Literally": 5809,
      "Never": 5810,
      "PS": 5811,
      "Play": 5812,
      "Qu": 5813,
      "Single": 5814,
      "airing": 5815,
      "aily": 5816,
      "bow": 5817,
      "call": 5818,
      "dy": 5819,
      "dom": 5820,
      "ees": 5821,
      "got": 5822,
      "good": 5823,
      "gian": 5824,
      "hen": 5825,
      "jo": 5826,
      "med": 5827,
      "more": 5828,
      "nor": 5829,
      "pre": 5830,
      "satell": 5831,
      "sustain": 5832,
      "whe": 5833,
      "Ġweld": 5834,
      "esc": 5835,
      "Ġbother": 5836,
      "Ġcit": 5837,
      "Ġcop": 5838,
      "Ġcute": 5839,
      "Ġfold": 5840,
      "lla": 5841,
      "arre": 5842,
      "Ġpist": 5843,
      "Ġdream": 5844,
      "Ġlame": 5845,
      "Ġhide": 5846,
      "room": 5847,
      "Ġinacc": 5848,
      "Ġnested": 5849,
      "icing": 5850,
      "eles": 5851,
      "eling": 5852,
      "ionics": 5853,
      "otor": 5854,
      "ĠSX": 5855,
      "ĠSam": 5856,
      "ĠSur": 5857,
      "ung": 5858,
      "ĠMain": 5859,
      "imler": 5860,
      "Ġran": 5861,
      "Ġrum": 5862,
      "ĠCity": 5863,
      "ĠCont": 5864,
      "Ġprote": 5865,
      "ifts": 5866,
      "ifying": 5867,
      "Ġtriv": 5868,
      "abin": 5869,
      "Ġdoom": 5870,
      "Ġasking": 5871,
      "anted": 5872,
      "Ġseason": 5873,
      "rast": 5874,
      "Ġliber": 5875,
      "Ġliked": 5876,
      "ĠHQ": 5877,
      "ĠBraz": 5878,
      "ĠBecause": 5879,
      "ĠDef": 5880,
      "Ġalpha": 5881,
      "Ġwasnt": 5882,
      "Ġchem": 5883,
      "ĠEvil": 5884,
      "Ġkick": 5885,
      "ostationary": 5886,
      "Ġjustice": 5887,
      "emed": 5888,
      "Ġgoodness": 5889,
      "izations": 5890,
      "ĠJan": 5891,
      "eping": 5892,
      "udden": 5893,
      "attern": 5894,
      "portion": 5895,
      "rict": 5896,
      "Ġsphere": 5897,
      "atsh": 5898,
      "Ġfear": 5899,
      "Exp": 5900,
      "weight": 5901,
      "ountain": 5902,
      "Ġaccounts": 5903,
      "Ġbox": 5904,
      "Ġsymb": 5905,
      "Ġpract": 5906,
      "Ġorbits": 5907,
      "Ġexpand": 5908,
      "ucker": 5909,
      "Stay": 5910,
      "expected": 5911,
      "Ġtransl": 5912,
      "Ġtransmit": 5913,
      "Ġtwist": 5914,
      "Ġenerg": 5915,
      "Ġphones": 5916,
      "Ġfarm": 5917,
      "Ġretired": 5918,
      "Reason": 5919,
      "ĠNov": 5920,
      "Ġsigns": 5921,
      "Ġbrought": 5922,
      "Ġtalked": 5923,
      "Ġincreased": 5924,
      "Ġdecide": 5925,
      "which": 5926,
      "Ġdeveloped": 5927,
      "Ġdiscount": 5928,
      "Ġrestart": 5929,
      "Ġcombined": 5930,
      "Ġbringing": 5931,
      "Ġstatement": 5932,
      "Ġflame": 5933,
      "ĠExcellent": 5934,
      "Ġunderstood": 5935,
      "Ġtelling": 5936,
      "Ġsensors": 5937,
      "Ġrelative": 5938,
      "Ġimpacts": 5939,
      "Ġwinning": 5940,
      "Ġmerger": 5941,
      "Ġempty": 5942,
      "Ġdigital": 5943,
      "China": 5944,
      "Ġparticular": 5945,
      "Ġoffering": 5946,
      "ĠEnglish": 5947,
      "Ġproviding": 5948,
      "Ġefficient": 5949,
      "ĠSeries": 5950,
      "Ġincreasingly": 5951,
      "Ġvastly": 5952,
      "Ġkidding": 5953,
      "ĠDaimler": 5954,
      "ĠLoved": 5955,
      "Ġdeserve": 5956,
      "Ġcurious": 5957,
      "Ġirl": 5958,
      "Ġwoman": 5959,
      "Ġepis": 5960,
      "Ġepic": 5961,
      "Ġminimize": 5962,
      "Ġshareholder": 5963,
      "Upgr": 5964,
      "aught": 5965,
      "scope": 5966,
      "Ġsequence": 5967,
      "Everything": 5968,
      "nesota": 5969,
      "pirationally": 5970,
      "ĠInstructions": 5971,
      "Ġbelieving": 5972,
      "Ġhousing": 5973,
      "Ġheavily": 5974,
      "Ġgrandfather": 5975,
      "Ġtraditional": 5976,
      "Ġdynamic": 5977,
      "Ġcollective": 5978,
      "Ġdinner": 5979,
      "Ġbandwidth": 5980,
      "Ġalgorithm": 5981,
      "ĠVirginia": 5982,
      "Ġtweaks": 5983,
      "Ġbenefit": 5984,
      "Ġinnovation": 5985,
      "Ġviolence": 5986,
      "Ġnonsense": 5987,
      "ĠFormula": 5988,
      "Ġplatform": 5989,
      "ĠUpd": 5990,
      "wheel": 5991,
      "ĠBrazil": 5992,
      "14": 5993,
      "Awesome": 5994,
      "Getting": 5995,
      "Had": 5996,
      "Motor": 5997,
      "Ob": 5998,
      "Red": 5999,
      "cri": 6000,
      "going": 6001,
      "house": 6002,
      "lim": 6003,
      "oys": 6004,
      "ratic": 6005,
      "sw": 6006,
      "uy": 6007,
      "uis": 6008,
      "uitive": 6009,
      "wyn": 6010,
      "Ġ=": 6011,
      "Ġ[": 6012,
      "Ġtast": 6013,
      "eroth": 6014,
      "Ġwaiting": 6015,
      "atory": 6016,
      "Ġcaut": 6017,
      "Ġcaught": 6018,
      "inge": 6019,
      "Ġfog": 6020,
      "ann": 6021,
      "Ġmenu": 6022,
      "arke": 6023,
      "Ġpupp": 6024,
      "Ġpattern": 6025,
      "Ġduration": 6026,
      "Ġdaily": 6027,
      "Ġlb": 6028,
      "Ġhull": 6029,
      "sts": 6030,
      "roved": 6031,
      "Ġinev": 6032,
      "Ġgain": 6033,
      "Ġreduction": 6034,
      "otal": 6035,
      "Ġforum": 6036,
      "union": 6037,
      "Ġstress": 6038,
      "ĠAnt": 6039,
      "opt": 6040,
      "Ġneut": 6041,
      "amination": 6042,
      "ĠCent": 6043,
      "ĠCost": 6044,
      "ĠCount": 6045,
      "Theres": 6046,
      "ifting": 6047,
      "Ġshear": 6048,
      "Ġtrim": 6049,
      "Ġdoo": 6050,
      "ander": 6051,
      "ounced": 6052,
      "rap": 6053,
      "rage": 6054,
      "Ġliving": 6055,
      "ĠHam": 6056,
      "ĠHere": 6057,
      "ĠBus": 6058,
      "ĠBrian": 6059,
      "ĠDetail": 6060,
      "ĠPeace": 6061,
      "ardians": 6062,
      "Ġunre": 6063,
      "ĠLe": 6064,
      "ĠLook": 6065,
      "ĠRad": 6066,
      "ĠRand": 6067,
      "ĠRWD": 6068,
      "Ġkerosene": 6069,
      "ares": 6070,
      "Ġusage": 6071,
      "ements": 6072,
      "rypt": 6073,
      "Ġprep": 6074,
      "ĠStone": 6075,
      "anye": 6076,
      "assis": 6077,
      "ĠVac": 6078,
      "intuitive": 6079,
      "Ġcontent": 6080,
      "Ġdrivers": 6081,
      "ensus": 6082,
      "oses": 6083,
      "Ġpartners": 6084,
      "Ġelements": 6085,
      "Ġinterface": 6086,
      "redibly": 6087,
      "Ġregard": 6088,
      "Ġadvoc": 6089,
      "Ġthroughout": 6090,
      "Ġinsert": 6091,
      "Ġinsurance": 6092,
      "Ġdepth": 6093,
      "Ġtaxpay": 6094,
      "Ġreaders": 6095,
      "Ġvalu": 6096,
      "Ġenter": 6097,
      "Ġentertain": 6098,
      "Ġremo": 6099,
      "Ġavionics": 6100,
      "Ġroller": 6101,
      "fficient": 6102,
      "Ġdecision": 6103,
      "Ġunveiled": 6104,
      "Ġflat": 6105,
      "Ġdiscuss": 6106,
      "ĠUnder": 6107,
      "Ġviews": 6108,
      "Interview": 6109,
      "Ġterms": 6110,
      "Ġjourno": 6111,
      "Ġdropped": 6112,
      "Ġjoined": 6113,
      "Ġmulti": 6114,
      "Ġreasonable": 6115,
      "Ġoptimization": 6116,
      "Ġfairly": 6117,
      "Ġsuggesting": 6118,
      "Ġcauses": 6119,
      "Ġmidnight": 6120,
      "Ġrobust": 6121,
      "taire": 6122,
      "Ġramping": 6123,
      "Ġstrongly": 6124,
      "Ġpicked": 6125,
      "Chris": 6126,
      "Ġbreakfast": 6127,
      "Ġfloating": 6128,
      "Ġtrains": 6129,
      "probably": 6130,
      "Ġdeny": 6131,
      "Ġpremise": 6132,
      "Ġarrived": 6133,
      "Ġuncertain": 6134,
      "Ġpresentation": 6135,
      "Ġsituations": 6136,
      "ĠCommission": 6137,
      "Ġslower": 6138,
      "Ġnavigation": 6139,
      "ĠClarke": 6140,
      "Ġreliable": 6141,
      "ĠSaturn": 6142,
      "Ġexplain": 6143,
      "Ġcircle": 6144,
      "Anyone": 6145,
      "Ġstopping": 6146,
      "Ġcontribution": 6147,
      "ĠSteven": 6148,
      "Ġrobotax": 6149,
      "Ġprojects": 6150,
      "Ġprinting": 6151,
      "Ġdescribe": 6152,
      "Ġdescription": 6153,
      "Ġfinancing": 6154,
      "uilding": 6155,
      "Ġauthorities": 6156,
      "checking": 6157,
      "Ġexplosion": 6158,
      "Ġrescue": 6159,
      "Ġspacesuit": 6160,
      "Ġsinging": 6161,
      "Ġfirmware": 6162,
      "Ġinertia": 6163,
      "Ġrecharging": 6164,
      "Thoughtful": 6165,
      "Climate": 6166,
      "Ġperspective": 6167,
      "pheric": 6168,
      "ĠHarris": 6169,
      "ĠVoltaire": 6170,
      "Ġconsciousness": 6171,
      "Today": 6172,
      "Ġsymptoms": 6173,
      "ĠInfinite": 6174,
      "Ġmembers": 6175,
      "Ġcitiz": 6176,
      "55": 6177,
      ";&": 6178,
      "AP": 6179,
      "Ad": 6180,
      "Ah": 6181,
      "Ap": 6182,
      "California": 6183,
      "Dr": 6184,
      "Damn": 6185,
      "EF": 6186,
      "Lockheed": 6187,
      "ME": 6188,
      "Power": 6189,
      "Rem": 6190,
      "Roughly": 6191,
      "She": 6192,
      "TW": 6193,
      "Two": 6194,
      "bed": 6195,
      "car": 6196,
      "crack": 6197,
      "eum": 6198,
      "fl": 6199,
      "gus": 6200,
      "ipe": 6201,
      "kg": 6202,
      "kra": 6203,
      "mate": 6204,
      "ront": 6205,
      "sight": 6206,
      "vative": 6207,
      "yal": 6208,
      "zard": 6209,
      "Ġtea": 6210,
      "Ġtick": 6211,
      "inction": 6212,
      "onored": 6213,
      "Ġsele": 6214,
      "rele": 6215,
      "Ġthus": 6216,
      "Ġthick": 6217,
      "Ġwood": 6218,
      "Ġbreat": 6219,
      "Ġbomb": 6220,
      "Ġcats": 6221,
      "Ġfacing": 6222,
      "Ġfelt": 6223,
      "Ġfederal": 6224,
      "ison": 6225,
      "enger": 6226,
      "llow": 6227,
      "anos": 6228,
      "arl": 6229,
      "arian": 6230,
      "Ġlid": 6231,
      "Ġhence": 6232,
      "rox": 6233,
      "Ġinference": 6234,
      "almost": 6235,
      "Ġnickel": 6236,
      "ela": 6237,
      "eless": 6238,
      "asy": 6239,
      "Ġbeach": 6240,
      "owed": 6241,
      "omments": 6242,
      "amping": 6243,
      "enty": 6244,
      "ĠMad": 6245,
      "ĠMerry": 6246,
      "Ġstick": 6247,
      "imation": 6248,
      "imarily": 6249,
      "opp": 6250,
      "usually": 6251,
      "Ġrich": 6252,
      "ĠCongr": 6253,
      "ersey": 6254,
      "andon": 6255,
      "Ġasp": 6256,
      "Ġexting": 6257,
      "ĠFH": 6258,
      "ĠFrank": 6259,
      "Ġdeorbit": 6260,
      "ĠHad": 6261,
      "ĠHell": 6262,
      "ĠBen": 6263,
      "ĠBel": 6264,
      "Ġmaster": 6265,
      "ĠDamn": 6266,
      "Ġchoo": 6267,
      "ĠEconom": 6268,
      "Ġuns": 6269,
      "ĠLatter": 6270,
      "ĠGary": 6271,
      "ĠGiving": 6272,
      "Ġoutfit": 6273,
      "ĠStock": 6274,
      "Ġcancer": 6275,
      "Ġcomet": 6276,
      "Ġoverhe": 6277,
      "ĠJeff": 6278,
      "ĠJersey": 6279,
      "Ġacting": 6280,
      "Ġsaved": 6281,
      "Ġshouldnt": 6282,
      "Ġsomewhere": 6283,
      "Ġleading": 6284,
      "Ġdescent": 6285,
      "Ġrights": 6286,
      "Ġconting": 6287,
      "Ġspot": 6288,
      "Ġspoke": 6289,
      "Whats": 6290,
      "velope": 6291,
      "Ġrecog": 6292,
      "ĠXmas": 6293,
      "ords": 6294,
      "Ġbogus": 6295,
      "ĠItal": 6296,
      "anging": 6297,
      "Having": 6298,
      "Ġregen": 6299,
      "Ġregarding": 6300,
      "agic": 6301,
      "Ġdefense": 6302,
      "Ġphase": 6303,
      "Ġadvis": 6304,
      "Ġconsumer": 6305,
      "Ġconsidering": 6306,
      "ĠKim": 6307,
      "ĠJustice": 6308,
      "Ġdonating": 6309,
      "obahn": 6310,
      "Ġinsan": 6311,
      "Ġinsight": 6312,
      "Ġdepending": 6313,
      "ermany": 6314,
      "Abort": 6315,
      "Ġsurfaces": 6316,
      "Ġpassing": 6317,
      "Ġpassenger": 6318,
      "Ġzone": 6319,
      "Ġplanes": 6320,
      "Ġframes": 6321,
      "Ġwhereas": 6322,
      "Ġmanip": 6323,
      "Ġmanage": 6324,
      "Ġcreative": 6325,
      "Ġwindward": 6326,
      "Ġcompete": 6327,
      "ĠDoD": 6328,
      "ĠStarbase": 6329,
      "Ġposit": 6330,
      "Roadster": 6331,
      "Ġfunded": 6332,
      "Ġdetailed": 6333,
      "covery": 6334,
      "ĠOnion": 6335,
      "Ġredesign": 6336,
      "Ġcollision": 6337,
      "Ġslowly": 6338,
      "Ġmodern": 6339,
      "Ġbroken": 6340,
      "ĠSeemed": 6341,
      "Ġchecks": 6342,
      "ĠHighest": 6343,
      "Ġflamethrowers": 6344,
      "Ġachieves": 6345,
      "Makes": 6346,
      "Ġeconomics": 6347,
      "Ġblocked": 6348,
      "Ġmuseum": 6349,
      "Ġdocks": 6350,
      "Ġleaders": 6351,
      "Ġattacking": 6352,
      "Ġmanufactur": 6353,
      "Ġcycl": 6354,
      "Ġmemory": 6355,
      "planet": 6356,
      "Ġassess": 6357,
      "ĠEngines": 6358,
      "Ġparked": 6359,
      "Ġgrowth": 6360,
      "ologies": 6361,
      "ĠImportant": 6362,
      "Ġkilling": 6363,
      "Ġwindows": 6364,
      "Ġscheduled": 6365,
      "Ġopposite": 6366,
      "Ġirrele": 6367,
      "Ġinflu": 6368,
      "Ġsilver": 6369,
      "Ġcharacters": 6370,
      "ulah": 6371,
      "month": 6372,
      "Ġinspired": 6373,
      "ĠArtists": 6374,
      "borhood": 6375,
      "Ġcycle": 6376,
      "Ġhouses": 6377,
      "umulative": 6378,
      "arents": 6379,
      "ĠAPJ": 6380,
      "Ġenemies": 6381,
      "eorge": 6382,
      "ĠPayPal": 6383,
      "Ġcaptured": 6384,
      "ĠUNIC": 6385,
      "Ġemoji": 6386,
      "Ġbuffer": 6387,
      "ĠRHD": 6388,
      "Ġcompression": 6389,
      "Ġnominal": 6390,
      "Ġmega": 6391,
      "Ġprinciple": 6392,
      "Ġbizarre": 6393,
      "Ġneighborhood": 6394,
      "Ġpyramids": 6395,
      "Ġpowertrain": 6396,
      "Ġsuperalloy": 6397,
      "ĠStanford": 6398,
      "sustaining": 6399,
      "Ġprotection": 6400,
      "Ġliberty": 6401,
      "Ġinevitable": 6402,
      "cracker": 6403,
      "kraine": 6404,
      "Ġlidar": 6405,
      "ĠEconomist": 6406,
      "Ġrecogn": 6407,
      "ĠUNICEF": 6408,
      "600": 6409,
      "Adding": 6410,
      "Beaut": 6411,
      "Done": 6412,
      "Draco": 6413,
      "Found": 6414,
      "GI": 6415,
      "Gen": 6416,
      "Hyperloop": 6417,
      "Kids": 6418,
      "Lot": 6419,
      "Rough": 6420,
      "Sm": 6421,
      "VAC": 6422,
      "Yay": 6423,
      "cies": 6424,
      "get": 6425,
      "gment": 6426,
      "human": 6427,
      "ius": 6428,
      "maybe": 6429,
      "oe": 6430,
      "pose": 6431,
      "rout": 6432,
      "si": 6433,
      "scientists": 6434,
      "test": 6435,
      "yuz": 6436,
      "Ġ?": 6437,
      "Ġie": 6438,
      "Ġtable": 6439,
      "Ġaware": 6440,
      "Ġaward": 6441,
      "only": 6442,
      "onge": 6443,
      "Ġsorry": 6444,
      "Ġwa": 6445,
      "Ġwave": 6446,
      "esis": 6447,
      "Ġbab": 6448,
      "Ġclic": 6449,
      "Ġfought": 6450,
      "Ġpowers": 6451,
      "Ġowed": 6452,
      "Ġdy": 6453,
      "Ġder": 6454,
      "Ġlining": 6455,
      "Ġhop": 6456,
      "Ġhero": 6457,
      "rock": 6458,
      "ett": 6459,
      "assemb": 6460,
      "Ġgrief": 6461,
      "lement": 6462,
      "igger": 6463,
      "utions": 6464,
      "ĠTra": 6465,
      "otic": 6466,
      "ĠSupport": 6467,
      "Ġbeast": 6468,
      "Ġanten": 6469,
      "Ġformer": 6470,
      "verage": 6471,
      "entions": 6472,
      "ader": 6473,
      "adian": 6474,
      "ĠMarket": 6475,
      "Ġstanding": 6476,
      "throp": 6477,
      "ĠAF": 6478,
      "ĠAss": 6479,
      "Ġwilling": 6480,
      "ama": 6481,
      "Ġcoinc": 6482,
      "ĠCather": 6483,
      "Ġproof": 6484,
      "Ġproportion": 6485,
      "ĠWorld": 6486,
      "Ġmoons": 6487,
      "Ġmoved": 6488,
      "Ġenvelope": 6489,
      "Ġorig": 6490,
      "olies": 6491,
      "rapped": 6492,
      "Ġcongr": 6493,
      "ĠHas": 6494,
      "ĠHumans": 6495,
      "ĠHVAC": 6496,
      "ĠBBC": 6497,
      "ĠPR": 6498,
      "ĠPri": 6499,
      "Ġalive": 6500,
      "Ġchoc": 6501,
      "Ġune": 6502,
      "ĠLess": 6503,
      "ĠLos": 6504,
      "ĠRT": 6505,
      "ĠRem": 6506,
      "ĠGetting": 6507,
      "Ġmeal": 6508,
      "isting": 6509,
      "Ġgoods": 6510,
      "Ġarm": 6511,
      "Ġprefer": 6512,
      "Ġtail": 6513,
      "Ġourselves": 6514,
      "Ġsaves": 6515,
      "Ġlease": 6516,
      "Weve": 6517,
      "Ġspan": 6518,
      "Ġknew": 6519,
      "well": 6520,
      "wner": 6521,
      "Ġafterno": 6522,
      "Ġheld": 6523,
      "ĠInter": 6524,
      "Ġlifting": 6525,
      "Ġspaceflight": 6526,
      "Ġairport": 6527,
      "Ġfinally": 6528,
      "Ġsafely": 6529,
      "necess": 6530,
      "Ġscam": 6531,
      "Ġtransaction": 6532,
      "Ġconfusion": 6533,
      "aker": 6534,
      "lowing": 6535,
      "vention": 6536,
      "ĠShow": 6537,
      "ĠLAX": 6538,
      "Ġmetap": 6539,
      "Ġtaxing": 6540,
      "Ġleaving": 6541,
      "Ġpassword": 6542,
      "Ġrolled": 6543,
      "Ġinvited": 6544,
      "ĠYay": 6545,
      "Ġcourses": 6546,
      "Ġsale": 6547,
      "airs": 6548,
      "Ġheaded": 6549,
      "Ġwarning": 6550,
      "rug": 6551,
      "Ġinvestor": 6552,
      "resh": 6553,
      "Ġnonstop": 6554,
      "Ġsnail": 6555,
      "Ascent": 6556,
      "Ġinfinite": 6557,
      "Ġpolice": 6558,
      "justing": 6559,
      "Ġbreaks": 6560,
      "ĠMayans": 6561,
      "Ġinitially": 6562,
      "Ġprograms": 6563,
      "Ġaffected": 6564,
      "Original": 6565,
      "Ġsentient": 6566,
      "Ġgeostationary": 6567,
      "Ġcivilizations": 6568,
      "Ġconcrete": 6569,
      "Ġincentive": 6570,
      "Ġhypoc": 6571,
      "ĠAdams": 6572,
      "Ġjournalism": 6573,
      "Ġpumps": 6574,
      "Ġblackouts": 6575,
      "Ġmoments": 6576,
      "Ġprevented": 6577,
      "Ġforget": 6578,
      "Ġgrowing": 6579,
      "should": 6580,
      "ĠWithout": 6581,
      "Ġtelesc": 6582,
      "Ġhorsef": 6583,
      "ĠBaseball": 6584,
      "Ġlayers": 6585,
      "ĠEnhanced": 6586,
      "ĠSeptember": 6587,
      "ifficult": 6588,
      "Ġenabled": 6589,
      "Ġexponentially": 6590,
      "Better": 6591,
      "ĠIMF": 6592,
      "nesday": 6593,
      "ĠTrans": 6594,
      "ĠOtherwise": 6595,
      "ĠMassie": 6596,
      "Ġreplacement": 6597,
      "Ġconstraint": 6598,
      "Ġmethane": 6599,
      "Ġcommunication": 6600,
      "Ide": 6601,
      "Ġconvinced": 6602,
      "Ġcontrolled": 6603,
      "Ġcookies": 6604,
      "ĠWednesday": 6605,
      "Ġminiature": 6606,
      "iosis": 6607,
      "Ġpedestrian": 6608,
      "Reply": 6609,
      "ĠBritain": 6610,
      "Ġsuppliers": 6611,
      "Ġambient": 6612,
      "Announcing": 6613,
      "ĠTrying": 6614,
      "Ġcondition": 6615,
      "ĠAudi": 6616,
      "ĠAngeles": 6617,
      "Ġpretending": 6618,
      "Ġparachutes": 6619,
      "Ġvolcano": 6620,
      "ĠImprobability": 6621,
      "Ġglitch": 6622,
      "Ġmeltdown": 6623,
      "Ġnorthern": 6624,
      "Ġanalysts": 6625,
      "Ġinaccurate": 6626,
      "Ġcautious": 6627,
      "Ġunreason": 6628,
      "Beautiful": 6629,
      "ĠCatherine": 6630,
      "%.": 6631,
      "2500": 6632,
      "800": 6633,
      "CP": 6634,
      "DA": 6635,
      "Global": 6636,
      "HO": 6637,
      "Hes": 6638,
      "Ms": 6639,
      "Merlin": 6640,
      "Prom": 6641,
      "Rad": 6642,
      "SW": 6643,
      "Twitter": 6644,
      "Taking": 6645,
      "Us": 6646,
      "bac": 6647,
      "burn": 6648,
      "break": 6649,
      "cil": 6650,
      "host": 6651,
      "lishing": 6652,
      "mber": 6653,
      "off": 6654,
      "ogy": 6655,
      "pad": 6656,
      "pass": 6657,
      "press": 6658,
      "sour": 6659,
      "tr": 6660,
      "tage": 6661,
      "ticle": 6662,
      "vely": 6663,
      "wthorne": 6664,
      "Ġq": 6665,
      "Ġtent": 6666,
      "inking": 6667,
      "Ġsight": 6668,
      "Ġsample": 6669,
      "reasing": 6670,
      "Ġwif": 6671,
      "Ġbunch": 6672,
      "Ġbricks": 6673,
      "atr": 6674,
      "atics": 6675,
      "inger": 6676,
      "isdom": 6677,
      "oust": 6678,
      "eness": 6679,
      "ancing": 6680,
      "Ġmar": 6681,
      "Ġmath": 6682,
      "ara": 6683,
      "Ġtobac": 6684,
      "Ġparents": 6685,
      "Ġoh": 6686,
      "Ġodds": 6687,
      "Ġdi": 6688,
      "Ġdome": 6689,
      "Ġdare": 6690,
      "Ġdiver": 6691,
      "Ġdude": 6692,
      "Ġled": 6693,
      "Ġlugg": 6694,
      "Ġlaugh": 6695,
      "Ġhats": 6696,
      "sters": 6697,
      "stery": 6698,
      "rogen": 6699,
      "als": 6700,
      "alin": 6701,
      "Ġnic": 6702,
      "Ġnuts": 6703,
      "icopter": 6704,
      "Ġgest": 6705,
      "uttle": 6706,
      "ĠTakes": 6707,
      "ĠTotal": 6708,
      "ĠSC": 6709,
      "ĠSan": 6710,
      "ĠSpr": 6711,
      "ĠSystem": 6712,
      "ills": 6713,
      "idden": 6714,
      "ented": 6715,
      "ĠIR": 6716,
      "ĠIrid": 6717,
      "ĠMem": 6718,
      "ĠMade": 6719,
      "ĠMission": 6720,
      "Ġstone": 6721,
      "Ġstable": 6722,
      "upid": 6723,
      "that": 6724,
      "ĠAdding": 6725,
      "oph": 6726,
      "opia": 6727,
      "ili": 6728,
      "Ġneither": 6729,
      "Ġrn": 6730,
      "cell": 6731,
      "Ġaren": 6732,
      "Ġvents": 6733,
      "Ġshape": 6734,
      "Ġgold": 6735,
      "ĠWow": 6736,
      "Ġenrout": 6737,
      "Ġasks": 6738,
      "ĠFallout": 6739,
      "ĠFTW": 6740,
      "raud": 6741,
      "Ġjam": 6742,
      "rians": 6743,
      "ĠHen": 6744,
      "Ġabsolut": 6745,
      "ĠBaby": 6746,
      "Ġmak": 6747,
      "ĠNav": 6748,
      "ĠDJ": 6749,
      "ĠPDT": 6750,
      "ĠPalo": 6751,
      "Ġalign": 6752,
      "Ġlob": 6753,
      "Ġlosing": 6754,
      "Ġchose": 6755,
      "Ġcherry": 6756,
      "quence": 6757,
      "ĠEqu": 6758,
      "Ġund": 6759,
      "Ġunexpected": 6760,
      "ĠLi": 6761,
      "ĠRen": 6762,
      "arted": 6763,
      "ĠGold": 6764,
      "Ġcarried": 6765,
      "Ġcarmakers": 6766,
      "rys": 6767,
      "Ġarc": 6768,
      "Ġmystery": 6769,
      "Ġpoor": 6770,
      "efore": 6771,
      "ĠUlt": 6772,
      "Ġoverall": 6773,
      "Ġlaunchpad": 6774,
      "Ġacts": 6775,
      "Ġshouldn": 6776,
      "...\"": 6777,
      "Ġapplies": 6778,
      "Ġapplications": 6779,
      "oof": 6780,
      "Ġincome": 6781,
      "bell": 6782,
      "Ġsponge": 6783,
      "Ġfees": 6784,
      "ulture": 6785,
      "Ġ\"\":": 6786,
      "Ġintended": 6787,
      "Ġrecy": 6788,
      "ocracy": 6789,
      "Ġautose": 6790,
      "Ġresidual": 6791,
      "Ġaccumul": 6792,
      "Ġhelicopter": 6793,
      "Ġcrane": 6794,
      "Inst": 6795,
      "Ġsuperhuman": 6796,
      "Ġends": 6797,
      "Ġended": 6798,
      "ĠAuto": 6799,
      "Hawthorne": 6800,
      "Ġsafest": 6801,
      "Ġgrade": 6802,
      "ĠAlto": 6803,
      "Ġdism": 6804,
      "Ġdisp": 6805,
      "Ġdisplay": 6806,
      "Ġscen": 6807,
      "Ġsufficient": 6808,
      "ĠKnight": 6809,
      "Ġwriter": 6810,
      "ĠWhere": 6811,
      "Rec": 6812,
      "Reality": 6813,
      "ĠShuttle": 6814,
      "ibration": 6815,
      "Ġreminder": 6816,
      "ĠRoad": 6817,
      "Ġski": 6818,
      "Ġskit": 6819,
      "ĠYear": 6820,
      "Ġreviews": 6821,
      "Ġparam": 6822,
      "Ġvoltage": 6823,
      "Ġheadline": 6824,
      "Ġinstant": 6825,
      "Ġlightning": 6826,
      "Ġunveils": 6827,
      "ĠSoftware": 6828,
      "lade": 6829,
      "Ġturning": 6830,
      "ernel": 6831,
      "Ġkeeping": 6832,
      "Ġjoy": 6833,
      "ograph": 6834,
      "Ġequator": 6835,
      "Ġraising": 6836,
      "Ġnearby": 6837,
      "Ġspecs": 6838,
      "Ġbrother": 6839,
      "Ġpolit": 6840,
      "Ġtoughest": 6841,
      "ĠExc": 6842,
      "Ġedge": 6843,
      "Ġsecondary": 6844,
      "Ġlogo": 6845,
      "Ġsensitive": 6846,
      "Ġrelated": 6847,
      "ĠCyber": 6848,
      "ĠCycling": 6849,
      "Orbit": 6850,
      "ĠButt": 6851,
      "Ġsheer": 6852,
      "Ġconfigur": 6853,
      "Ġdeadly": 6854,
      "Ġexceptional": 6855,
      "Ġcouncil": 6856,
      "Ġpredic": 6857,
      "Ġprediction": 6858,
      "Ġjudic": 6859,
      "Ġdamn": 6860,
      "Ġstories": 6861,
      "Ġpreventing": 6862,
      "rench": 6863,
      "shirt": 6864,
      "Ġprofitable": 6865,
      "Ġdegree": 6866,
      "Ġtelemetry": 6867,
      "ypse": 6868,
      "Ġclarification": 6869,
      "Ġcriticisms": 6870,
      "ĠGeneral": 6871,
      "Ġcurve": 6872,
      "Ġenabling": 6873,
      "ĠTechnically": 6874,
      "Ġorgs": 6875,
      "ĠBeyond": 6876,
      "ĠEveryone": 6877,
      "Ġthousand": 6878,
      "Ġoccup": 6879,
      "Ġharness": 6880,
      "Ġinspiring": 6881,
      "Ġestate": 6882,
      "Ġindividuals": 6883,
      "Exciting": 6884,
      "Ġmaximum": 6885,
      "Ġmaximize": 6886,
      "Ġhydrogen": 6887,
      "Ġconvinces": 6888,
      "seller": 6889,
      "Ġpedestrians": 6890,
      "According": 6891,
      "Ġfoolish": 6892,
      "Ġlegislation": 6893,
      "Article": 6894,
      "Ġactuator": 6895,
      "Ġdefeated": 6896,
      "ructure": 6897,
      "Ġtrippy": 6898,
      "ĠOfficer": 6899,
      "Ġgarage": 6900,
      "Tomorrow": 6901,
      "ĠFlint": 6902,
      "Ġstrategy": 6903,
      "Ġrumor": 6904,
      "Ġinsertion": 6905,
      "Ġuncertainty": 6906,
      "Ġafternoon": 6907,
      "Ġtobacco": 6908,
      "Ġluggage": 6909,
      "Ġgestures": 6910,
      "ĠIridium": 6911,
      "ĠMemor": 6912,
      "Ġenroute": 6913,
      "Ġautosequence": 6914,
      "200": 6915,
      "70": 6916,
      "78": 6917,
      "Call": 6918,
      "Creating": 6919,
      "Certainly": 6920,
      "Ed": 6921,
      "En": 6922,
      "EPA": 6923,
      "Grid": 6924,
      "Heavy": 6925,
      "Mer": 6926,
      "Merry": 6927,
      "Moving": 6928,
      "NA": 6929,
      "OE": 6930,
      "Other": 6931,
      "Pl": 6932,
      "Sad": 6933,
      "Slight": 6934,
      "Sens": 6935,
      "War": 6936,
      "Wed": 6937,
      "aign": 6938,
      "aft": 6939,
      "aution": 6940,
      "book": 6941,
      "cis": 6942,
      "cur": 6943,
      "count": 6944,
      "de": 6945,
      "ded": 6946,
      "fric": 6947,
      "gu": 6948,
      "high": 6949,
      "hours": 6950,
      "hlee": 6951,
      "hammer": 6952,
      "kt": 6953,
      "lenn": 6954,
      "mo": 6955,
      "min": 6956,
      "och": 6957,
      "ovie": 6958,
      "pa": 6959,
      "punk": 6960,
      "rif": 6961,
      "rich": 6962,
      "same": 6963,
      "too": 6964,
      "uish": 6965,
      "wing": 6966,
      "Ġion": 6967,
      "inj": 6968,
      "Ġaverage": 6969,
      "Ġsac": 6970,
      "Ġsigh": 6971,
      "Ġsouth": 6972,
      "Ġwings": 6973,
      "Ġwisdom": 6974,
      "orch": 6975,
      "orks": 6976,
      "Ġbars": 6977,
      "Ġcouple": 6978,
      "Ġcabin": 6979,
      "Ġfraud": 6980,
      "oul": 6981,
      "ouri": 6982,
      "encies": 6983,
      "Ġmix": 6984,
      "Ġtoast": 6985,
      "Ġpolar": 6986,
      "Ġplast": 6987,
      "Ġpsi": 6988,
      "Ġdre": 6989,
      "Ġdat": 6990,
      "Ġdense": 6991,
      "Ġdomain": 6992,
      "Ġlol": 6993,
      "Ġliter": 6994,
      "Ġnames": 6995,
      "eters": 6996,
      "Ġgalactic": 6997,
      "Ġrein": 6998,
      "Ġreverse": 6999,
      "ĠTarget": 7000,
      "ĠTBC": 7001,
      "ĠTwo": 7002,
      "ĠSch": 7003,
      "ĠSlack": 7004,
      "ĠSpeed": 7005,
      "Ġbear": 7006,
      "Ġanomal": 7007,
      "Ġearth": 7008,
      "under": 7009,
      "ches": 7010,
      "Ġsock": 7011,
      "Ġstri": 7012,
      "usk": 7013,
      "usic": 7014,
      "ilogy": 7015,
      "Ġrally": 7016,
      "Ġrated": 7017,
      "ĠCapit": 7018,
      "Ġprod": 7019,
      "Ġproper": 7020,
      "Ġvict": 7021,
      "Ġshd": 7022,
      "Ġshift": 7023,
      "ĠWant": 7024,
      "Ġtrigger": 7025,
      "Ġtrilogy": 7026,
      "ulit": 7027,
      "ounter": 7028,
      "Ġexists": 7029,
      "olving": 7030,
      "ĠThird": 7031,
      "ĠFit": 7032,
      "ĠFuture": 7033,
      "acebook": 7034,
      "Ġjury": 7035,
      "umes": 7036,
      "ĠHor": 7037,
      "Ġaborts": 7038,
      "ĠNice": 7039,
      "ĠNature": 7040,
      "ĠDOE": 7041,
      "ĠPort": 7042,
      "Ġalar": 7043,
      "Ġchutes": 7044,
      "ĠEgg": 7045,
      "ĠElon": 7046,
      "Ġuna": 7047,
      "ĠLanding": 7048,
      "Ġkale": 7049,
      "ĠGover": 7050,
      "ĠGermany": 7051,
      "ĠGeorge": 7052,
      "ĠGlenn": 7053,
      "ainment": 7054,
      "osteer": 7055,
      "Ġpreburn": 7056,
      "Ġpls": 7057,
      "Ġplot": 7058,
      "ublic": 7059,
      "Ġtaugh": 7060,
      "ĠVTO": 7061,
      "ccup": 7062,
      "Ġleeward": 7063,
      "Ġdesert": 7064,
      "Ġspo": 7065,
      "orses": 7066,
      "ensing": 7067,
      "Ġperman": 7068,
      "Ġpartly": 7069,
      "Ġpartial": 7070,
      "wegian": 7071,
      "Ġintention": 7072,
      "Ġquant": 7073,
      "ocurrency": 7074,
      "gring": 7075,
      "Ġreson": 7076,
      "Ġserver": 7077,
      "Ġinterse": 7078,
      "ĠChanos": 7079,
      "ressing": 7080,
      "ressive": 7081,
      "ometer": 7082,
      "redit": 7083,
      "Ġ...\"": 7084,
      "ĠInc": 7085,
      "licit": 7086,
      "Storm": 7087,
      "Strange": 7088,
      "Strong": 7089,
      "Ġfacts": 7090,
      "Ġairplan": 7091,
      "Ġregime": 7092,
      "ago": 7093,
      "ellow": 7094,
      "Ġconser": 7095,
      "ĠCanadian": 7096,
      "Reading": 7097,
      "Recovery": 7098,
      "ventions": 7099,
      "Ġmeds": 7100,
      "Ġmedium": 7101,
      "onda": 7102,
      "Ġdifferences": 7103,
      "olly": 7104,
      "Ġcommitted": 7105,
      "Ġdecided": 7106,
      "Ġsalt": 7107,
      "Ġownership": 7108,
      "Ġregulations": 7109,
      "Ġmovement": 7110,
      "Ġflush": 7111,
      "Ġbuildings": 7112,
      "ĠUnfortunately": 7113,
      "Ġdrift": 7114,
      "ĠAmish": 7115,
      "Doing": 7116,
      "Ġredund": 7117,
      "Ġdeeply": 7118,
      "Ġdropping": 7119,
      "Ġjokes": 7120,
      "ĠDev": 7121,
      "Ġcollapse": 7122,
      "Ġsellers": 7123,
      "Ġcombine": 7124,
      "Ġreplies": 7125,
      "Ġstored": 7126,
      "Ġhistorical": 7127,
      "ĠSecond": 7128,
      "Ġpresident": 7129,
      "Ġultimate": 7130,
      "ĠNeeded": 7131,
      "Ġsensor": 7132,
      "Ġsunset": 7133,
      "Ġrelatively": 7134,
      "ĠNorwegian": 7135,
      "Ġmeantime": 7136,
      "Ġpurely": 7137,
      "Ġfactories": 7138,
      "Ġstronger": 7139,
      "Ġhello": 7140,
      "Ġcalendar": 7141,
      "Ġoffered": 7142,
      "Ġenvironments": 7143,
      "ĠMostly": 7144,
      "Ġdamaged": 7145,
      "Ġreduced": 7146,
      "ĠDogecoin": 7147,
      "Ġtelep": 7148,
      "Ġblows": 7149,
      "ĠCouldn": 7150,
      "Ġcounteract": 7151,
      "Ġnavigate": 7152,
      "Ġbusiness": 7153,
      "Ġcows": 7154,
      "Engines": 7155,
      "Ġillust": 7156,
      "Ġobjects": 7157,
      "Ġessentially": 7158,
      "ĠObama": 7159,
      "Upcoming": 7160,
      "Ġdemocratic": 7161,
      "ĠDoesn": 7162,
      "Ġturbopumps": 7163,
      "Ġindependently": 7164,
      "Ġoccur": 7165,
      "Ġguarantee": 7166,
      "ĠParadise": 7167,
      "Ġcampaign": 7168,
      "Ġwalls": 7169,
      "ĠPCR": 7170,
      "Deeply": 7171,
      "Ġmeaningful": 7172,
      "Ġfacility": 7173,
      "Ġenemy": 7174,
      "Ġsynch": 7175,
      "Ġdollar": 7176,
      "Ġlegisl": 7177,
      "ĠPreparing": 7178,
      "Supercharger": 7179,
      "ĠAston": 7180,
      "Ġresistance": 7181,
      "Ġfuels": 7182,
      "Thruster": 7183,
      "ĠTalulah": 7184,
      "ossibly": 7185,
      "Ġenjoy": 7186,
      "Ġinitiated": 7187,
      "Easier": 7188,
      "satellites": 7189,
      "Ġsymbiosis": 7190,
      "optim": 7191,
      "Ġneutral": 7192,
      "ĠBusiness": 7193,
      "ĠCommissioner": 7194,
      "Ahem": 7195,
      "andoned": 7196,
      "Ġinsanely": 7197,
      "Ġclicks": 7198,
      "Ġrecycling": 7199,
      "frica": 7200,
      "Ġplastic": 7201,
      "ĠSlacker": 7202,
      "Ġanomalies": 7203,
      "ĠCapitol": 7204,
      "Ġtaught": 7205,
      "ĠVTOL": 7206,
      "Ġairplanes": 7207,
      "90": 7208,
      "?\"\"\"": 7209,
      "BQ": 7210,
      "Baby": 7211,
      "Black": 7212,
      "Correct": 7213,
      "DC": 7214,
      "EA": 7215,
      "End": 7216,
      "FO": 7217,
      "IS": 7218,
      "Mr": 7219,
      "Night": 7220,
      "OS": 7221,
      "Ship": 7222,
      "Sha": 7223,
      "TV": 7224,
      "Tel": 7225,
      "aic": 7226,
      "bic": 7227,
      "best": 7228,
      "blowing": 7229,
      "cap": 7230,
      "days": 7231,
      "ext": 7232,
      "gan": 7233,
      "gering": 7234,
      "hand": 7235,
      "iary": 7236,
      "lines": 7237,
      "mous": 7238,
      "rite": 7239,
      "rance": 7240,
      "rding": 7241,
      "rbur": 7242,
      "speed": 7243,
      "tal": 7244,
      "yay": 7245,
      "za": 7246,
      "zes": 7247,
      "zero": 7248,
      "Ġx": 7249,
      "Ġtied": 7250,
      "iner": 7251,
      "Ġaeros": 7252,
      "Ġsudden": 7253,
      "really": 7254,
      "Ġthor": 7255,
      "Ġbod": 7256,
      "Ġbang": 7257,
      "Ġbots": 7258,
      "Ġcup": 7259,
      "Ġcord": 7260,
      "Ġcath": 7261,
      "Ġfather": 7262,
      "itas": 7263,
      "anoid": 7264,
      "ĠmT": 7265,
      "Ġmkt": 7266,
      "arah": 7267,
      "Ġpun": 7268,
      "Ġpsy": 7269,
      "Ġops": 7270,
      "Ġhits": 7271,
      "Ġhidden": 7272,
      "Ġhorses": 7273,
      "stream": 7274,
      "rost": 7275,
      "Ġinver": 7276,
      "Ġinduction": 7277,
      "alax": 7278,
      "icking": 7279,
      "elds": 7280,
      "Ġgend": 7281,
      "ĠTw": 7282,
      "ĠTest": 7283,
      "oting": 7284,
      "otely": 7285,
      "otos": 7286,
      "ĠSn": 7287,
      "ĠSw": 7288,
      "ĠSing": 7289,
      "ĠSub": 7290,
      "owea": 7291,
      "Ġeyes": 7292,
      "unds": 7293,
      "iding": 7294,
      "ctim": 7295,
      "Ġyaw": 7296,
      "Ġyrs": 7297,
      "ĠMt": 7298,
      "ĠMac": 7299,
      "ĠMoon": 7300,
      "allow": 7301,
      "Ġstag": 7302,
      "imated": 7303,
      "ĠAfrica": 7304,
      "ilan": 7305,
      "Ġring": 7306,
      "Ġrates": 7307,
      "ĠCars": 7308,
      "ĠClass": 7309,
      "ĠCulture": 7310,
      "Ġprove": 7311,
      "Ġshops": 7312,
      "ĠWaiting": 7313,
      "Ġhaven": 7314,
      "ulate": 7315,
      "ĠThree": 7316,
      "ĠFri": 7317,
      "ĠFree": 7318,
      "ĠFacebook": 7319,
      "Ġdeck": 7320,
      "Ġseas": 7321,
      "ĠHuman": 7322,
      "ĠHEPA": 7323,
      "ĠBon": 7324,
      "ĠBas": 7325,
      "ĠBost": 7326,
      "ĠBoth": 7327,
      "ĠBTC": 7328,
      "ĠNrbur": 7329,
      "ĠDie": 7330,
      "ĠDrag": 7331,
      "ĠDick": 7332,
      "ĠDifficult": 7333,
      "ĠPun": 7334,
      "ĠPors": 7335,
      "Ġaltern": 7336,
      "Ġloses": 7337,
      "Ġlovely": 7338,
      "Ġchea": 7339,
      "Ġchief": 7340,
      "quis": 7341,
      "ĠEd": 7342,
      "ĠEs": 7343,
      "ĠEmp": 7344,
      "ĠEasy": 7345,
      "Ġunf": 7346,
      "ĠLockheed": 7347,
      "Ġcompar": 7348,
      "astroph": 7349,
      "ĠStep": 7350,
      "Ġpocket": 7351,
      "Ġnoon": 7352,
      "Ġhighways": 7353,
      "Ġplays": 7354,
      "ĠUkraine": 7355,
      "Ġoverse": 7356,
      "Ġoverha": 7357,
      "Ġoversight": 7358,
      "ĠJim": 7359,
      "atteries": 7360,
      "Ġagreed": 7361,
      "Ġamend": 7362,
      "Ġrightly": 7363,
      "Ġcontains": 7364,
      "Ġknight": 7365,
      "Ġknife": 7366,
      "Ġfee": 7367,
      "osal": 7368,
      "Ġpermit": 7369,
      "Ġpartially": 7370,
      "Ġquotes": 7371,
      "Ġrecover": 7372,
      "oco": 7373,
      "Ġboom": 7374,
      "Ġexplicit": 7375,
      "icked": 7376,
      "ĠChrys": 7377,
      "phob": 7378,
      "Ġverb": 7379,
      "Ġverify": 7380,
      "Ġendurance": 7381,
      "ĠAutobahn": 7382,
      "ails": 7383,
      "need": 7384,
      "Ġ-&": 7385,
      "erto": 7386,
      "Ġstartups": 7387,
      "Note": 7388,
      "Ġsubst": 7389,
      "reciate": 7390,
      "Ġshowed": 7391,
      "pector": 7392,
      "Ġthroughput": 7393,
      "Ġimages": 7394,
      "Ġretire": 7395,
      "Ġretract": 7396,
      "Ġsupports": 7397,
      "Ġobt": 7398,
      "Ġobser": 7399,
      "ĠNever": 7400,
      "esearch": 7401,
      "Ġsecured": 7402,
      "Ġentrance": 7403,
      "Ġcentury": 7404,
      "ompeted": 7405,
      "Ġservicing": 7406,
      "Ġremotely": 7407,
      "utional": 7408,
      "Ġbrilliant": 7409,
      "Ġpassive": 7410,
      "Ġpassage": 7411,
      "ĠRoyal": 7412,
      "Ġimportantly": 7413,
      "Ġinvas": 7414,
      "Ġcontrols": 7415,
      "Ġreviewing": 7416,
      "Ġreviewed": 7417,
      "Ġreply": 7418,
      "Ġreporter": 7419,
      "Ġmanual": 7420,
      "Ġparanoid": 7421,
      "Ġdeclin": 7422,
      "Ġcourt": 7423,
      "ilton": 7424,
      "Ġvibe": 7425,
      "Ġlocally": 7426,
      "ouncement": 7427,
      "ĠSoC": 7428,
      "Ġsimpler": 7429,
      "serve": 7430,
      "Ġdiscounts": 7431,
      "ĠUniv": 7432,
      "Ġbuyer": 7433,
      "Ġcredits": 7434,
      "Ġstreams": 7435,
      "Ġtrucks": 7436,
      "Ġroofs": 7437,
      "Ġblue": 7438,
      "ĠDeus": 7439,
      "Ġraises": 7440,
      "Ġdistrib": 7441,
      "urbo": 7442,
      "Heard": 7443,
      "Ġbarrel": 7444,
      "cheduled": 7445,
      "Ġgeneralized": 7446,
      "Ġspeculation": 7447,
      "Ġoptimal": 7448,
      "Ġlargely": 7449,
      "Ġmultiple": 7450,
      "Ġconfirmation": 7451,
      "Ġpurpose": 7452,
      "Ġearn": 7453,
      "Ġprotest": 7454,
      "Ġfunctional": 7455,
      "ribed": 7456,
      "Ġbegins": 7457,
      "Ġflows": 7458,
      "Ġatmospheric": 7459,
      "Ġshares": 7460,
      "ception": 7461,
      "Ġsources": 7462,
      "nergy": 7463,
      "Ġcatastroph": 7464,
      "Ġperfectly": 7465,
      "Ġexceptions": 7466,
      "Ġfigured": 7467,
      "ĠPhysics": 7468,
      "Ġincludes": 7469,
      "Ġcarrying": 7470,
      "Under": 7471,
      "ĠSpaceship": 7472,
      "Ġpromote": 7473,
      "proof": 7474,
      "Ġpremi": 7475,
      "aranteed": 7476,
      "Ġuncompeted": 7477,
      "Ġsquare": 7478,
      "Ġkilled": 7479,
      "Ġcontinuance": 7480,
      "Ġcorporate": 7481,
      "rsly": 7482,
      "ĠCommittee": 7483,
      "Ġconcerned": 7484,
      "Ġscientific": 7485,
      "Ġcrewed": 7486,
      "Ġillusion": 7487,
      "Ġexplained": 7488,
      "Ġrails": 7489,
      "Ġapplying": 7490,
      "ĠRockets": 7491,
      "Ġimpression": 7492,
      "Ġenables": 7493,
      "Between": 7494,
      "Ġsplit": 7495,
      "Ġreservation": 7496,
      "Whoa": 7497,
      "maker": 7498,
      "Ġconstrained": 7499,
      "onymous": 7500,
      "Ġfictional": 7501,
      "Ġhydrophob": 7502,
      "Ġgigawatt": 7503,
      "Ġelevators": 7504,
      "Ġswitched": 7505,
      "Ġshutdown": 7506,
      "Ġheavier": 7507,
      "Ġfacilities": 7508,
      "ĠDidn": 7509,
      "Ġlocked": 7510,
      "ledgehammer": 7511,
      "Needs": 7512,
      "Ġsurprisingly": 7513,
      "Ġdollars": 7514,
      "ĠBritish": 7515,
      "sequences": 7516,
      "Ġabsurdly": 7517,
      "Superchargers": 7518,
      "Signing": 7519,
      "Ġbuttons": 7520,
      "Ġesthetic": 7521,
      "Russia": 7522,
      "Ġclosest": 7523,
      "TSLA": 7524,
      "Bloomberg": 7525,
      "Ġrepeated": 7526,
      "Ġinternally": 7527,
      "Ġapocalypse": 7528,
      "Ġdialog": 7529,
      "ĠTurns": 7530,
      "Ġstabilize": 7531,
      "Ġpractical": 7532,
      "Ġenergized": 7533,
      "uisher": 7534,
      "Ġticket": 7535,
      "Ġextinguisher": 7536,
      "Ġirrelevant": 7537,
      "Ġantenna": 7538,
      "Ġabsolute": 7539,
      "Ġlobby": 7540,
      "rdinger": 7541,
      "Ġaerospace": 7542,
      "Ġbodies": 7543,
      "Ġcathode": 7544,
      "alaxy": 7545,
      "oweapon": 7546,
      "ĠNrburgring": 7547,
      "ĠPorsche": 7548,
      "Ġoverhaul": 7549,
      "ĠChrysler": 7550,
      "Ġhydrophobic": 7551,
      "!).": 7552,
      "%,": 7553,
      "):": 7554,
      "+,": 7555,
      "75": 7556,
      "9000": 7557,
      "AL": 7558,
      "Bought": 7559,
      "CNN": 7560,
      "Credit": 7561,
      "Euro": 7562,
      "Extremely": 7563,
      "Electric": 7564,
      "FF": 7565,
      "Fi": 7566,
      "Fran": 7567,
      "Flying": 7568,
      "Giant": 7569,
      "HW": 7570,
      "LY": 7571,
      "Later": 7572,
      "Lots": 7573,
      "Lov": 7574,
      "Mis": 7575,
      "Met": 7576,
      "Mid": 7577,
      "Mission": 7578,
      "RI": 7579,
      "Rel": 7580,
      "Sam": 7581,
      "Sometimes": 7582,
      "Tunn": 7583,
      "Times": 7584,
      "Yep": 7585,
      "aac": 7586,
      "after": 7587,
      "bet": 7588,
      "based": 7589,
      "dri": 7590,
      "dies": 7591,
      "eas": 7592,
      "gar": 7593,
      "hance": 7594,
      "hock": 7595,
      "ients": 7596,
      "lar": 7597,
      "lot": 7598,
      "lol": 7599,
      "long": 7600,
      "lich": 7601,
      "my": 7602,
      "munds": 7603,
      "rand": 7604,
      "slo": 7605,
      "uk": 7606,
      "uerto": 7607,
      "xic": 7608,
      "yup": 7609,
      "yard": 7610,
      "Ġtar": 7611,
      "Ġtile": 7612,
      "inent": 7613,
      "inated": 7614,
      "inishing": 7615,
      "Ġawe": 7616,
      "Ġsan": 7617,
      "Ġsats": 7618,
      "Ġsick": 7619,
      "Ġsonic": 7620,
      "Ġselect": 7621,
      "reh": 7622,
      "Ġwine": 7623,
      "Ġwider": 7624,
      "esy": 7625,
      "Ġbed": 7626,
      "Ġbull": 7627,
      "Ġbake": 7628,
      "Ġbillions": 7629,
      "Ġblast": 7630,
      "atme": 7631,
      "Ġcate": 7632,
      "Ġcous": 7633,
      "Ġcopper": 7634,
      "Ġcards": 7635,
      "Ġfish": 7636,
      "isk": 7637,
      "isin": 7638,
      "ourage": 7639,
      "iters": 7640,
      "ened": 7641,
      "anes": 7642,
      "Ġms": 7643,
      "Ġmad": 7644,
      "Ġmall": 7645,
      "Ġmand": 7646,
      "arf": 7647,
      "Ġpill": 7648,
      "Ġpace": 7649,
      "Ġoatme": 7650,
      "Ġdust": 7651,
      "Ġtheore": 7652,
      "Ġlic": 7653,
      "Ġlung": 7654,
      "Ġhorn": 7655,
      "stand": 7656,
      "alty": 7657,
      "mpting": 7658,
      "icians": 7659,
      "icago": 7660,
      "ashing": 7661,
      "Ġgather": 7662,
      "Ġreel": 7663,
      "uttal": 7664,
      "ĠTil": 7665,
      "ĠTrue": 7666,
      "ĠTED": 7667,
      "ott": 7668,
      "othing": 7669,
      "ĠSay": 7670,
      "ĠSim": 7671,
      "ĠSuch": 7672,
      "ĠSounds": 7673,
      "ĠScience": 7674,
      "Ġbeam": 7675,
      "Ġforced": 7676,
      "illa": 7677,
      "illerson": 7678,
      "Ġeating": 7679,
      "ĠIce": 7680,
      "ĠMiss": 7681,
      "Ġsole": 7682,
      "Ġitems": 7683,
      "Ġstowed": 7684,
      "think": 7685,
      "ĠAfter": 7686,
      "ĠAmb": 7687,
      "Ġwear": 7688,
      "opark": 7689,
      "Ġwhom": 7690,
      "keys": 7691,
      "Ġbutter": 7692,
      "Ġcoaster": 7693,
      "ĠCt": 7694,
      "ĠCup": 7695,
      "ĠCur": 7696,
      "ĠCool": 7697,
      "ĠCreating": 7698,
      "ĠComments": 7699,
      "Ġprohibit": 7700,
      "urized": 7701,
      "Ġvig": 7702,
      "Ġshall": 7703,
      "Ġshots": 7704,
      "Ġshoes": 7705,
      "ĠWork": 7706,
      "abled": 7707,
      "Ġenorm": 7708,
      "sec": 7709,
      "Ġdozen": 7710,
      "Ġexamination": 7711,
      "ĠThaic": 7712,
      "Ġseam": 7713,
      "ravity": 7714,
      "raisin": 7715,
      "Ġworried": 7716,
      "ĠBuff": 7717,
      "ournal": 7718,
      "ĠNut": 7719,
      "ĠDep": 7720,
      "ĠDark": 7721,
      "Ġalloy": 7722,
      "ĠPuerto": 7723,
      "Ġchassis": 7724,
      "inecraft": 7725,
      "quire": 7726,
      "quiv": 7727,
      "ĠEgy": 7728,
      "ĠEnergy": 7729,
      "ĠEFF": 7730,
      "looking": 7731,
      "eways": 7732,
      "ĠLim": 7733,
      "ĠLmk": 7734,
      "ĠLTE": 7735,
      "ĠRD": 7736,
      "ĠRest": 7737,
      "ĠRive": 7738,
      "ĠRob": 7739,
      "ĠRush": 7740,
      "ĠRico": 7741,
      "ĠkW": 7742,
      "Ġkernel": 7743,
      "ĠGreen": 7744,
      "Ġcompl": 7745,
      "astic": 7746,
      "Ġusable": 7747,
      "eme": 7748,
      "Ġtears": 7749,
      "Ġheatsh": 7750,
      "ĠStud": 7751,
      "Ġcancel": 7752,
      "Ġimped": 7753,
      "effect": 7754,
      "ĠUs": 7755,
      "ĠOS": 7756,
      "ĠOh": 7757,
      "ĠOslo": 7758,
      "Ġlaunched": 7759,
      "lights": 7760,
      "argo": 7761,
      "Ġworkers": 7762,
      "Ġamong": 7763,
      "Ġmonkeys": 7764,
      "Ġcontext": 7765,
      "Ġaccel": 7766,
      "Ġknowing": 7767,
      "Ġprinter": 7768,
      "Ġartists": 7769,
      "Ġhelo": 7770,
      "Ġunderest": 7771,
      "ĠChicago": 7772,
      "Ġowned": 7773,
      "ĠInconel": 7774,
      "ĠInvestigating": 7775,
      "Init": 7776,
      "Ġfactors": 7777,
      "Ġoffice": 7778,
      "ĠAlready": 7779,
      "Ġbuilds": 7780,
      "ĠEarths": 7781,
      "Ġdisabled": 7782,
      "Ġscroll": 7783,
      "Ġtransp": 7784,
      "Ġconflic": 7785,
      "Ġadvise": 7786,
      "ixing": 7787,
      "Ġclosing": 7788,
      "Ġretains": 7789,
      "wesom": 7790,
      "ĠKoch": 7791,
      "ĠWhats": 7792,
      "Ġdonated": 7793,
      "Ġbelts": 7794,
      "ĠReveal": 7795,
      "Ġbran": 7796,
      "Ġincrement": 7797,
      "Ġzomb": 7798,
      "Ġrequirements": 7799,
      "Ġposting": 7800,
      "Ġtraject": 7801,
      "lame": 7802,
      "lamed": 7803,
      "Ġreplic": 7804,
      "ĠProb": 7805,
      "Ġholders": 7806,
      "Ġparaf": 7807,
      "Ġcreator": 7808,
      "Ġlimbic": 7809,
      "Ġdecent": 7810,
      "Ġdecides": 7811,
      "prise": 7812,
      "Short": 7813,
      "Ġsimulations": 7814,
      "Ġcompetitor": 7815,
      "Forgot": 7816,
      "Ġinstr": 7817,
      "ĠStarman": 7818,
      "class": 7819,
      "Ġtemps": 7820,
      "Ġtempting": 7821,
      "Ġpriorities": 7822,
      "Ġdisclo": 7823,
      "otech": 7824,
      "Ġstreaming": 7825,
      "Ġhottest": 7826,
      "egap": 7827,
      "Ġsnake": 7828,
      "ogs": 7829,
      "ĠPowerpack": 7830,
      "Asimov": 7831,
      "Ġtargeted": 7832,
      "Ġreaches": 7833,
      "Ġolder": 7834,
      "Ġinfrast": 7835,
      "Ġsubscri": 7836,
      "Ġmods": 7837,
      "Ġreplied": 7838,
      "Ġcontinent": 7839,
      "Ġcontinues": 7840,
      "Ġfollows": 7841,
      "Ġflaming": 7842,
      "Ġedited": 7843,
      "Ġemission": 7844,
      "Ġreceives": 7845,
      "Ġrelent": 7846,
      "Ġtrickery": 7847,
      "Order": 7848,
      "ĠIsaac": 7849,
      "Ġpicking": 7850,
      "Ġeconomies": 7851,
      "Ġblocks": 7852,
      "Ġdocked": 7853,
      "Ġjudgment": 7854,
      "ĠBrilliant": 7855,
      "Ġpanel": 7856,
      "ĠMachine": 7857,
      "Ġlearning": 7858,
      "Ġflare": 7859,
      "Ġpatients": 7860,
      "Death": 7861,
      "Ġpromised": 7862,
      "Ġdenying": 7863,
      "Ġarrive": 7864,
      "Ġassembled": 7865,
      "Ġcontinuous": 7866,
      "Ġtouchdown": 7867,
      "Ġbugs": 7868,
      "Ġhorsepower": 7869,
      "Apparently": 7870,
      "Ġaccounting": 7871,
      "Ġimmediate": 7872,
      "Ġpossibility": 7873,
      "Ġsurprised": 7874,
      "afe": 7875,
      "Ġpainted": 7876,
      "Ġcowbell": 7877,
      "ĠDavid": 7878,
      "Ġplants": 7879,
      "Truth": 7880,
      "ĠLoop": 7881,
      "Ġtitle": 7882,
      "strong": 7883,
      "Ġinflatable": 7884,
      "Ġrebuttal": 7885,
      "Ġlawsuit": 7886,
      "Ġhurts": 7887,
      "Ġtuning": 7888,
      "Ġoddly": 7889,
      "ĠTechnology": 7890,
      "Ġsequel": 7891,
      "ĠEverything": 7892,
      "Ġdrama": 7893,
      "Biggest": 7894,
      "Ġcasting": 7895,
      "Ġbench": 7896,
      "Ġencourage": 7897,
      "ĠInspector": 7898,
      "Ġhanging": 7899,
      "Ġhangar": 7900,
      "Ġterminals": 7901,
      "ioshock": 7902,
      "Ġstormy": 7903,
      "Ġangels": 7904,
      "ĠMinnesota": 7905,
      "Ġgraphite": 7906,
      "Ġtradem": 7907,
      "Ġmechanical": 7908,
      "Accurate": 7909,
      "Similar": 7910,
      "Ġmarkets": 7911,
      "Ġmissile": 7912,
      "Ġdrawing": 7913,
      "ĠCorrell": 7914,
      "Screen": 7915,
      "Ġmirror": 7916,
      "Ġpneumatics": 7917,
      "Ġnaturally": 7918,
      "Ġesthet": 7919,
      "Ġsimplify": 7920,
      "Ġemployee": 7921,
      "Ġemployees": 7922,
      "Ġvariants": 7923,
      "stein": 7924,
      "ĠIntense": 7925,
      "ĠMerc": 7926,
      "Ġwerent": 7927,
      "Ġcandid": 7928,
      "ĠSAE": 7929,
      "Ġiteration": 7930,
      "Walked": 7931,
      "Ġviruses": 7932,
      "Ġvaccines": 7933,
      "Ġmaneuver": 7934,
      "Ġcolony": 7935,
      "Ġrenewable": 7936,
      "Ġbottom": 7937,
      "itudinal": 7938,
      "ĠSecret": 7939,
      "Ġexclusive": 7940,
      "Ġcompensate": 7941,
      "Ġuhh": 7942,
      "ĠContin": 7943,
      "wynne": 7944,
      "Ġlbf": 7945,
      "Ġentertaining": 7946,
      "Ġremoved": 7947,
      "Drone": 7948,
      "Ġcoincidence": 7949,
      "Ġunequiv": 7950,
      "ĠRemind": 7951,
      "Ġwifi": 7952,
      "Ġdiap": 7953,
      "ĠRoadsters": 7954,
      "ographic": 7955,
      "ĠCyberpunk": 7956,
      "Ġillustrate": 7957,
      "Ġdistribution": 7958,
      "Tunnels": 7959,
      "beta": 7960,
      "diesel": 7961,
      "Ġsanctim": 7962,
      "Ġoatmeal": 7963,
      "ĠTilburg": 7964,
      "ĠAmbien": 7965,
      "Ġenormous": 7966,
      "ĠThaicom": 7967,
      "ĠEgypt": 7968,
      "ĠRushmore": 7969,
      "Ġheatshield": 7970,
      "effective": 7971,
      "Ġtrajectory": 7972,
      "Ġparafoil": 7973,
      "Ġinfrastructure": 7974,
      "Ġsubscription": 7975,
      "150": 7976,
      "750": 7977,
      "7500": 7978,
      "Be": 7979,
      "Bit": 7980,
      "BFR": 7981,
      "Besides": 7982,
      "Bioshock": 7983,
      "CH": 7984,
      "Close": 7985,
      "Due": 7986,
      "Detail": 7987,
      "Fear": 7988,
      "Fund": 7989,
      "God": 7990,
      "Gary": 7991,
      "Hex": 7992,
      "Hope": 7993,
      "Ign": 7994,
      "Lets": 7995,
      "Look": 7996,
      "Med": 7997,
      "North": 7998,
      "Nav": 7999,
      "Out": 8000,
      "PC": 8001,
      "Plan": 8002,
      "System": 8003,
      "Top": 8004,
      "Tap": 8005,
      "Wanted": 8006,
      "Yo": 8007,
      "ao": 8008,
      "aire": 8009,
      "auc": 8010,
      "big": 8011,
      "bust": 8012,
      "gers": 8013,
      "hol": 8014,
      "ij": 8015,
      "ki": 8016,
      "lands": 8017,
      "map": 8018,
      "nage": 8019,
      "oked": 8020,
      "ossil": 8021,
      "po": 8022,
      "right": 8023,
      "rason": 8024,
      "taken": 8025,
      "uh": 8026,
      "uations": 8027,
      "vit": 8028,
      "vet": 8029,
      "Ġing": 8030,
      "Ġtreat": 8031,
      "Ġtether": 8032,
      "Ġtune": 8033,
      "Ġtrees": 8034,
      "information": 8035,
      "Ġaka": 8036,
      "Ġsle": 8037,
      "Ġsledgehammer": 8038,
      "Ġwire": 8039,
      "Ġwins": 8040,
      "esus": 8041,
      "Ġbac": 8042,
      "Ġbla": 8043,
      "Ġbol": 8044,
      "Ġbore": 8045,
      "Ġbub": 8046,
      "Ġbored": 8047,
      "Ġborder": 8048,
      "Ġcd": 8049,
      "Ġcam": 8050,
      "Ġcert": 8051,
      "Ġfinger": 8052,
      "ouder": 8053,
      "Ġmamm": 8054,
      "Ġpucker": 8055,
      "Ġpairs": 8056,
      "Ġdim": 8057,
      "Ġlions": 8058,
      "Ġlouder": 8059,
      "Ġhoney": 8060,
      "Ġinher": 8061,
      "ales": 8062,
      "elming": 8063,
      "Ġgaps": 8064,
      "Ġgirl": 8065,
      "Ġreveal": 8066,
      "utal": 8067,
      "ĠTay": 8068,
      "ĠTree": 8069,
      "ĠTook": 8070,
      "ĠTruck": 8071,
      "ĠTotally": 8072,
      "oters": 8073,
      "ĠSy": 8074,
      "ĠSher": 8075,
      "ĠSending": 8076,
      "ĠSometimes": 8077,
      "ĠSeeing": 8078,
      "lymp": 8079,
      "ayed": 8080,
      "change": 8081,
      "ĠMN": 8082,
      "ĠMed": 8083,
      "ĠMet": 8084,
      "ĠMob": 8085,
      "ĠMountain": 8086,
      "ĠMovie": 8087,
      "Ġsociety": 8088,
      "Ġstats": 8089,
      "Ġstole": 8090,
      "Ġstaged": 8091,
      "opolies": 8092,
      "using": 8093,
      "amine": 8094,
      "Ġruled": 8095,
      "Ġcov": 8096,
      "ĠCR": 8097,
      "ĠCam": 8098,
      "ĠComing": 8099,
      "ĠCPU": 8100,
      "Ġproven": 8101,
      "Third": 8102,
      "ĠWind": 8103,
      "ĠWang": 8104,
      "Ġhazard": 8105,
      "ureauc": 8106,
      "Ġnotes": 8107,
      "Ġexha": 8108,
      "Ġexiting": 8109,
      "olist": 8110,
      "ĠFrom": 8111,
      "ĠFully": 8112,
      "ĠFran": 8113,
      "Ġjet": 8114,
      "Ġconne": 8115,
      "Ġconvey": 8116,
      "ĠHH": 8117,
      "ĠHAL": 8118,
      "ĠBeing": 8119,
      "ĠBeaut": 8120,
      "ĠNational": 8121,
      "ĠData": 8122,
      "ĠDepends": 8123,
      "ĠPot": 8124,
      "ĠPink": 8125,
      "pposite": 8126,
      "Ġchann": 8127,
      "ips": 8128,
      "ques": 8129,
      "ĠEither": 8130,
      "ĠEST": 8131,
      "Ġunable": 8132,
      "Ġunreal": 8133,
      "Ġunique": 8134,
      "ĠLight": 8135,
      "ĠLEO": 8136,
      "ĠRow": 8137,
      "ĠRom": 8138,
      "ĠRoof": 8139,
      "Ġupset": 8140,
      "arts": 8141,
      "ĠGiven": 8142,
      "aints": 8143,
      "apore": 8144,
      "endent": 8145,
      "Ġprev": 8146,
      "Ġcancell": 8147,
      "Ġplenty": 8148,
      "igned": 8149,
      "ĠUm": 8150,
      "Ġoverb": 8151,
      "Ġoverload": 8152,
      "Ġengaged": 8153,
      "ĠJam": 8154,
      "ĠJesus": 8155,
      "Ġbud": 8156,
      "ĠVast": 8157,
      "ĠVader": 8158,
      "eps": 8159,
      "Ġsomeones": 8160,
      "Ġapparently": 8161,
      "ĠTheir": 8162,
      "Ġdrivet": 8163,
      "Ġknock": 8164,
      "Ġwhose": 8165,
      "weets": 8166,
      "Ġautosteer": 8167,
      "Ġsmarter": 8168,
      "Ġboats": 8169,
      "rows": 8170,
      "Ġserved": 8171,
      "Ġknowledge": 8172,
      "Ġafterwards": 8173,
      "ishes": 8174,
      "Ġunderwear": 8175,
      "ĠSuperintelligence": 8176,
      "Ins": 8177,
      "Starting": 8178,
      "Ġregional": 8179,
      "Ġhelped": 8180,
      "ĠAlways": 8181,
      "Ġscorch": 8182,
      "Ġtransmission": 8183,
      "Ġdefend": 8184,
      "Ġsuff": 8185,
      "ronic": 8186,
      "plus": 8187,
      "Ġphr": 8188,
      "Ġconfined": 8189,
      "Ġconsensus": 8190,
      "Ġrequesting": 8191,
      "Ġsupported": 8192,
      "Ġsupportive": 8193,
      "eroid": 8194,
      "Reasons": 8195,
      "Ġindirect": 8196,
      "Ġpublications": 8197,
      "ermal": 8198,
      "Ġmassively": 8199,
      "Ġentering": 8200,
      "ĠRec": 8201,
      "Ġupgrading": 8202,
      "Ġbranding": 8203,
      "Ġbrutal": 8204,
      "Ġpaywall": 8205,
      "Ġsteer": 8206,
      "Ġwherever": 8207,
      "ĠYelp": 8208,
      "Ġtunneling": 8209,
      "Ġrefuel": 8210,
      "Ġrefilling": 8211,
      "ĠProject": 8212,
      "jected": 8213,
      "Ġholder": 8214,
      "Ġdetection": 8215,
      "Ġbasis": 8216,
      "Ġdecline": 8217,
      "while": 8218,
      "whelming": 8219,
      "tempting": 8220,
      "ĠNewton": 8221,
      "ĠHeart": 8222,
      "Ġfeelings": 8223,
      "Ġregularly": 8224,
      "ĠSociety": 8225,
      "seriously": 8226,
      "Ġfluct": 8227,
      "Ġrecommendation": 8228,
      "Ġvacation": 8229,
      "Ġautomation": 8230,
      "linear": 8231,
      "Ġrestrict": 8232,
      "Ġviewed": 8233,
      "Ġgrain": 8234,
      "ĠDeath": 8235,
      "Ġequity": 8236,
      "Ġequival": 8237,
      "Ġfried": 8238,
      "Precis": 8239,
      "Ġpodcast": 8240,
      "Theyre": 8241,
      "Ġexistential": 8242,
      "ĠAshlee": 8243,
      "Ġcauseway": 8244,
      "Ġtougher": 8245,
      "Ġfoundry": 8246,
      "Ġultrason": 8247,
      "ĠExactly": 8248,
      "Ġearnings": 8249,
      "ĠArm": 8250,
      "ĠArs": 8251,
      "Ġfiled": 8252,
      "Ġsunlight": 8253,
      "Ġsuggested": 8254,
      "zzy": 8255,
      "Ġmerits": 8256,
      "Ġargue": 8257,
      "ĠCovid": 8258,
      "Ġgeological": 8259,
      "Ġmultiplanet": 8260,
      "Ġleads": 8261,
      "Ġpotat": 8262,
      "Several": 8263,
      "Impro": 8264,
      "Impressive": 8265,
      "Ġaffordability": 8266,
      "Ġmessage": 8267,
      "ĠBring": 8268,
      "Ġlabeling": 8269,
      "Ġreferral": 8270,
      "ĠPhil": 8271,
      "ĠPhotos": 8272,
      "Ġsubsidy": 8273,
      "Ġadjusted": 8274,
      "Ġconnects": 8275,
      "Ġjournalist": 8276,
      "ĠSerb": 8277,
      "ĠImpact": 8278,
      "Ġvarious": 8279,
      "ĠLotus": 8280,
      "Ġventing": 8281,
      "Starhopper": 8282,
      "afety": 8283,
      "Ġcryogen": 8284,
      "ĠJohnson": 8285,
      "Ġcowboy": 8286,
      "Complet": 8287,
      "ĠGoal": 8288,
      "Ġretrofit": 8289,
      "Ġastronom": 8290,
      "Ġcircum": 8291,
      "Ġbikes": 8292,
      "Ġwalks": 8293,
      "ĠMartian": 8294,
      "Ġsilence": 8295,
      "Ġminimizing": 8296,
      "Beta": 8297,
      "ĠTechnica": 8298,
      "Ġreserved": 8299,
      "Ġapproximation": 8300,
      "Ġefforts": 8301,
      "Ġunlike": 8302,
      "Ġconstraints": 8303,
      "odspeed": 8304,
      "ĠSteve": 8305,
      "ĠChristie": 8306,
      "Ġrendering": 8307,
      "Ġcomfortable": 8308,
      "Doesn": 8309,
      "Ġgigantic": 8310,
      "Ġrotation": 8311,
      "Feb": 8312,
      "Ġdownloading": 8313,
      "Ġangles": 8314,
      "celand": 8315,
      "Ġpulling": 8316,
      "Ġdynamically": 8317,
      "Ġsurrounded": 8318,
      "ĠActually": 8319,
      "ĠHerbert": 8320,
      "Ġspeaker": 8321,
      "Ġdeparted": 8322,
      "Ġemojis": 8323,
      "Ġsquirrels": 8324,
      "Leasing": 8325,
      "ricky": 8326,
      "Ġrefinement": 8327,
      "Ġrefinements": 8328,
      "changed": 8329,
      "Ġdescribing": 8330,
      "Ġdescribed": 8331,
      "Ġdestroyed": 8332,
      "Ġmaligned": 8333,
      "Ġclosely": 8334,
      "cluding": 8335,
      "Putting": 8336,
      "Astronauts": 8337,
      "Ġthermometer": 8338,
      "Ġevolving": 8339,
      "Basic": 8340,
      "Ġpaper": 8341,
      "Ġtrailers": 8342,
      "ĠElise": 8343,
      "Ġendorsements": 8344,
      "Ġexperienced": 8345,
      "called": 8346,
      "Ġdoomed": 8347,
      "Ġchemical": 8348,
      "Ġepisode": 8349,
      "Ġpuppet": 8350,
      "Ġtaxpayer": 8351,
      "Ġvaluable": 8352,
      "Ġrobotaxi": 8353,
      "Ġcitizen": 8354,
      "Ġbreathe": 8355,
      "Ġpositives": 8356,
      "Ġmanufacturers": 8357,
      "Small": 8358,
      "assembly": 8359,
      "Ġoriginally": 8360,
      "Ġtelescoping": 8361,
      "ĠReno": 8362,
      "Ġscenar": 8363,
      "Ġparameters": 8364,
      "ĠExciting": 8365,
      "Sensible": 8366,
      "country": 8367,
      "Ġdatab": 8368,
      "ĠSchrdinger": 8369,
      "ĠHoriz": 8370,
      "ĠGovernor": 8371,
      "ĠIncredibly": 8372,
      "Ġteleport": 8373,
      "Ġcomparable": 8374,
      "ĠStephen": 8375,
      "Ġdialogue": 8376,
      "Lovely": 8377,
      "rehensive": 8378,
      "Ġbullet": 8379,
      "Ġmandate": 8380,
      "Ġtheoretical": 8381,
      "Ġlicensing": 8382,
      "Ġseamlessly": 8383,
      "ĠBuffett": 8384,
      "Ġinstrument": 8385,
      "Ġborescope": 8386,
      "Ġexhaust": 8387,
      "ĠBeauty": 8388,
      "ĠPinker": 8389,
      "Ġdrivetrain": 8390,
      "Ġfluctuations": 8391,
      "Ġequivalent": 8392,
      "Precisely": 8393,
      "\"...": 8394,
      "*,": 8395,
      "16": 8396,
      "39": 8397,
      "380": 8398,
      "550": 8399,
      "AF": 8400,
      "AT": 8401,
      "Add": 8402,
      "Bo": 8403,
      "Bel": 8404,
      "Base": 8405,
      "Cal": 8406,
      "Cause": 8407,
      "Del": 8408,
      "Droneship": 8409,
      "ES": 8410,
      "El": 8411,
      "Ext": 8412,
      "Fun": 8413,
      "Fate": 8414,
      "Future": 8415,
      "Frank": 8416,
      "Gas": 8417,
      "Hang": 8418,
      "IT": 8419,
      "Letter": 8420,
      "Make": 8421,
      "Non": 8422,
      "None": 8423,
      "Pay": 8424,
      "Ra": 8425,
      "Roc": 8426,
      "SS": 8427,
      "Simp": 8428,
      "Sarah": 8429,
      "TH": 8430,
      "Too": 8431,
      "Told": 8432,
      "Touch": 8433,
      "Tube": 8434,
      "UN": 8435,
      "UAW": 8436,
      "Umm": 8437,
      "Upper": 8438,
      "Wr": 8439,
      "Watch": 8440,
      "ael": 8441,
      "bra": 8442,
      "bound": 8443,
      "before": 8444,
      "cra": 8445,
      "correct": 8446,
      "far": 8447,
      "fire": 8448,
      "gas": 8449,
      "giving": 8450,
      "hard": 8451,
      "hicle": 8452,
      "ioweapon": 8453,
      "iFi": 8454,
      "kind": 8455,
      "kins": 8456,
      "list": 8457,
      "mare": 8458,
      "oz": 8459,
      "oft": 8460,
      "pri": 8461,
      "piring": 8462,
      "rative": 8463,
      "sm": 8464,
      "sid": 8465,
      "ship": 8466,
      "size": 8467,
      "sives": 8468,
      "tot": 8469,
      "turn": 8470,
      "tronic": 8471,
      "vance": 8472,
      "volut": 8473,
      "your": 8474,
      "zer": 8475,
      "Ġum": 8476,
      "Ġted": 8477,
      "Ġtub": 8478,
      "Ġtint": 8479,
      "Ġtorn": 8480,
      "incess": 8481,
      "Ġast": 8482,
      "onious": 8483,
      "onav": 8484,
      "Ġsir": 8485,
      "Ġsites": 8486,
      "Ġsorts": 8487,
      "Ġsides": 8488,
      "reaming": 8489,
      "especially": 8490,
      "oral": 8491,
      "ories": 8492,
      "orporate": 8493,
      "Ġber": 8494,
      "Ġble": 8495,
      "Ġboun": 8496,
      "Ġbare": 8497,
      "Ġbrag": 8498,
      "Ġbatt": 8499,
      "Ġbureauc": 8500,
      "atri": 8501,
      "Ġcig": 8502,
      "Ġcrow": 8503,
      "Ġfant": 8504,
      "Ġfrag": 8505,
      "ouis": 8506,
      "ouched": 8507,
      "ita": 8508,
      "Ġmas": 8509,
      "Ġmature": 8510,
      "Ġmouth": 8511,
      "Ġmarks": 8512,
      "Ġtoy": 8513,
      "Ġpe": 8514,
      "Ġpays": 8515,
      "Ġpets": 8516,
      "Ġdow": 8517,
      "Ġdancing": 8518,
      "edge": 8519,
      "Ġlunch": 8520,
      "Ġlang": 8521,
      "Ġlake": 8522,
      "Ġlanes": 8523,
      "Ġhi": 8524,
      "Ġhal": 8525,
      "Ġhom": 8526,
      "Ġhacked": 8527,
      "Ġhalt": 8528,
      "Ġhosting": 8529,
      "star": 8530,
      "state": 8531,
      "stone": 8532,
      "rol": 8533,
      "Ġinject": 8534,
      "aling": 8535,
      "alue": 8536,
      "Ġnull": 8537,
      "etitive": 8538,
      "Ġgall": 8539,
      "Ġgift": 8540,
      "Ġglove": 8541,
      "acitors": 8542,
      "Ġrent": 8543,
      "Ġreward": 8544,
      "utur": 8545,
      "ĠTough": 8546,
      "ĠTerm": 8547,
      "ĠTweets": 8548,
      "ĠSK": 8549,
      "ĠSingle": 8550,
      "Ġbell": 8551,
      "Ġbegging": 8552,
      "Ġanec": 8553,
      "amped": 8554,
      "ĠIll": 8555,
      "odd": 8556,
      "oded": 8557,
      "Ġya": 8558,
      "Ġyard": 8559,
      "add": 8560,
      "ĠMich": 8561,
      "ĠMaster": 8562,
      "ĠMegap": 8563,
      "Ġitem": 8564,
      "Ġstd": 8565,
      "Ġstated": 8566,
      "imary": 8567,
      "there": 8568,
      "ĠAv": 8569,
      "Ġwearing": 8570,
      "ilos": 8571,
      "Ġneck": 8572,
      "Ġrude": 8573,
      "ĠCall": 8574,
      "Ġvul": 8575,
      "Ġshop": 8576,
      "Ġshade": 8577,
      "Ġshaft": 8578,
      "ĠWings": 8579,
      "ĠWiFi": 8580,
      "Ġtrash": 8581,
      "Ġtrading": 8582,
      "Ġenhanced": 8583,
      "ulse": 8584,
      "ulpt": 8585,
      "ulators": 8586,
      "Ġrover": 8587,
      "Ġrose": 8588,
      "Ġexchange": 8589,
      "ĠThought": 8590,
      "ĠFB": 8591,
      "ĠFar": 8592,
      "ĠFool": 8593,
      "ĠFear": 8594,
      "ĠFrench": 8595,
      "Ġseated": 8596,
      "uments": 8597,
      "Ġconver": 8598,
      "ĠHP": 8599,
      "ĠHit": 8600,
      "ĠHitch": 8601,
      "ĠHelp": 8602,
      "ĠBBQ": 8603,
      "ĠNob": 8604,
      "ĠNana": 8605,
      "ĠNTS": 8606,
      "ĠDone": 8607,
      "ĠDroneship": 8608,
      "Ġalloys": 8609,
      "ĠPol": 8610,
      "ĠPost": 8611,
      "Ġloops": 8612,
      "ĠLast": 8613,
      "ĠLive": 8614,
      "ĠLouis": 8615,
      "ĠRange": 8616,
      "ĠRele": 8617,
      "ĠGames": 8618,
      "ĠGirl": 8619,
      "ĠGarf": 8620,
      "Ġcomplic": 8621,
      "ssentially": 8622,
      "aret": 8623,
      "important": 8624,
      "istant": 8625,
      "connect": 8626,
      "Ġtimel": 8627,
      "Ġoutstanding": 8628,
      "Ġpreorders": 8629,
      "ĠStay": 8630,
      "ĠStars": 8631,
      "Ġcomic": 8632,
      "Ġnobody": 8633,
      "Ġhasnt": 8634,
      "Ġplug": 8635,
      "Ġplacing": 8636,
      "ntown": 8637,
      "ĠUsed": 8638,
      "ĠUFO": 8639,
      "Ġoverhead": 8640,
      "Ġoverpress": 8641,
      "Ġoverwhelming": 8642,
      "soft": 8643,
      "arglass": 8644,
      "ĠVoice": 8645,
      "Ġtherefore": 8646,
      "udge": 8647,
      "inding": 8648,
      "Ġtheyd": 8649,
      "owner": 8650,
      "intin": 8651,
      "ached": 8652,
      "achell": 8653,
      "heres": 8654,
      "Ġspring": 8655,
      "Ġyours": 8656,
      "Ġfeet": 8657,
      "Ġpercent": 8658,
      "Except": 8659,
      "velength": 8660,
      "Ġspeech": 8661,
      "Ġrecap": 8662,
      "ĠWeve": 8663,
      "Ġaccur": 8664,
      "Ġboss": 8665,
      "mostly": 8666,
      "Ġinterventions": 8667,
      "Ġdesigning": 8668,
      "angers": 8669,
      "angely": 8670,
      "Ġcru": 8671,
      "Ġcrater": 8672,
      "yscra": 8673,
      "physics": 8674,
      "Inf": 8675,
      "Stud": 8676,
      "Static": 8677,
      "Ġoffset": 8678,
      "Ġdelight": 8679,
      "Ġaddition": 8680,
      "Ġadditional": 8681,
      "Ġregimes": 8682,
      "agon": 8683,
      "cedes": 8684,
      "near": 8685,
      "Ġscene": 8686,
      "Ġsculpt": 8687,
      "place": 8688,
      "plane": 8689,
      "Ġphased": 8690,
      "Ġsubway": 8691,
      "Ġconsist": 8692,
      "azon": 8693,
      "Ġfireball": 8694,
      "ĠKev": 8695,
      "eroids": 8696,
      "Ġattacks": 8697,
      "Problem": 8698,
      "Ġindisting": 8699,
      "Ġgenerators": 8700,
      "Ġcounted": 8701,
      "Ġmetro": 8702,
      "Ġleaked": 8703,
      "ĠReg": 8704,
      "Ġapproaching": 8705,
      "Ġappropri": 8706,
      "Ġopenly": 8707,
      "Ġmedical": 8708,
      "Ġzillion": 8709,
      "Ġpaying": 8710,
      "Ġpayment": 8711,
      "Ġcapita": 8712,
      "Ġskyscra": 8713,
      "Ġprizes": 8714,
      "onding": 8715,
      "Ġsteady": 8716,
      "ollower": 8717,
      "Ġseemed": 8718,
      "Ġlooked": 8719,
      "cession": 8720,
      "Ġfixes": 8721,
      "Ġkept": 8722,
      "Ġrefers": 8723,
      "Ġrepaid": 8724,
      "Ġmanually": 8725,
      "Ġcares": 8726,
      "Ġnightmare": 8727,
      "primarily": 8728,
      "Ġheadlines": 8729,
      "ĠDoing": 8730,
      "ĠHeaded": 8731,
      "Ġapolog": 8732,
      "Ġregulator": 8733,
      "clude": 8734,
      "Ġpriorit": 8735,
      "ĠUnivers": 8736,
      "Ġfinds": 8737,
      "Ġdeployable": 8738,
      "Ġexpecting": 8739,
      "Ġdrink": 8740,
      "Ġtrucking": 8741,
      "ĠAmazon": 8742,
      "Dojo": 8743,
      "Ġradi": 8744,
      "ĠQu": 8745,
      "Ġreddit": 8746,
      "ĠNYC": 8747,
      "Ġsnugg": 8748,
      "eeze": 8749,
      "Ġblown": 8750,
      "ĠEuropa": 8751,
      "Ġformally": 8752,
      "Hey": 8753,
      "Ġbarrier": 8754,
      "Ġslowed": 8755,
      "Ġoptimize": 8756,
      "icularly": 8757,
      "Ġruns": 8758,
      "Ġcorrecting": 8759,
      "Ġcorrectly": 8760,
      "ĠWouldn": 8761,
      "Ġmagical": 8762,
      "ĠSeveral": 8763,
      "Ġflew": 8764,
      "Ġunderstands": 8765,
      "Ġprecaution": 8766,
      "Attempting": 8767,
      "Ġtells": 8768,
      "Ġedit": 8769,
      "Ġeduc": 8770,
      "Neuralink": 8771,
      "Ġtransporting": 8772,
      "Highly": 8773,
      "Ġsheep": 8774,
      "unkel": 8775,
      "Ġconfiguration": 8776,
      "ĠCOPV": 8777,
      "ĠPerhaps": 8778,
      "Ġmanufacture": 8779,
      "rolled": 8780,
      "Ġlistening": 8781,
      "Ġsongs": 8782,
      "oker": 8783,
      "Ġfiguring": 8784,
      "iki": 8785,
      "Ġreferred": 8786,
      "Ġadjusts": 8787,
      "Ġignite": 8788,
      "Ġprocesses": 8789,
      "ĠAdjusting": 8790,
      "Ġconnector": 8791,
      "Ġtowing": 8792,
      "Ġtowel": 8793,
      "Ġtowers": 8794,
      "Ġuncover": 8795,
      "Ġsqueeze": 8796,
      "Ġprofound": 8797,
      "Ġcontracts": 8798,
      "ĠJapanese": 8799,
      "Ġcontinued": 8800,
      "Appreciate": 8801,
      "Ġholes": 8802,
      "Trans": 8803,
      "Ġfighting": 8804,
      "Ġexplains": 8805,
      "Ġobjective": 8806,
      "Ġcircuit": 8807,
      "ĠPlum": 8808,
      "Ġarguing": 8809,
      "Ġbiological": 8810,
      "Ġweapon": 8811,
      "Ġimpressed": 8812,
      "Ġpaths": 8813,
      "Ġrebate": 8814,
      "ĠBrook": 8815,
      "iffs": 8816,
      "Ġcorners": 8817,
      "ĠAnything": 8818,
      "Ġreserve": 8819,
      "Everyone": 8820,
      "ĠTrump": 8821,
      "ĠHardcore": 8822,
      "Ġcontribute": 8823,
      "ĠShortville": 8824,
      "Ġharm": 8825,
      "ĠApart": 8826,
      "abilities": 8827,
      "Ġestab": 8828,
      "ĠInsta": 8829,
      "Ġdiscussions": 8830,
      "Trying": 8831,
      "Ġcamping": 8832,
      "ĠTuesday": 8833,
      "Ġquieter": 8834,
      "Ġrecalls": 8835,
      "Ġprinted": 8836,
      "Ġholidays": 8837,
      "Background": 8838,
      "Ġrandomly": 8839,
      "ravitas": 8840,
      "Ġfinancial": 8841,
      "Ġcookie": 8842,
      "Ġconvenience": 8843,
      "Ġresearchers": 8844,
      "Ġcryptocurrency": 8845,
      "ĠWestworld": 8846,
      "effic": 8847,
      "Ġgradually": 8848,
      "Engineers": 8849,
      "Simulations": 8850,
      "subsid": 8851,
      "Ġtrolls": 8852,
      "Ġrevolutionary": 8853,
      "Ġinterests": 8854,
      "Ġexplosives": 8855,
      "Ġskills": 8856,
      "door": 8857,
      "Ġcorrections": 8858,
      "Ġcorresp": 8859,
      "launched": 8860,
      "Ġpneumatic": 8861,
      "Ġnatural": 8862,
      "ĠIrony": 8863,
      "Ġprosper": 8864,
      "ĠBloomberg": 8865,
      "ĠPrincess": 8866,
      "Ġadmired": 8867,
      "Increasing": 8868,
      "Ġcultural": 8869,
      "Ġfuzzy": 8870,
      "Ġexcessive": 8871,
      "cludes": 8872,
      "Ġconveniently": 8873,
      "Ġmillise": 8874,
      "Ġlucky": 8875,
      "Ġattached": 8876,
      "Ġjunkyard": 8877,
      "Ġsorted": 8878,
      "ĠSolarglass": 8879,
      "Ġresponsible": 8880,
      "Ġreflective": 8881,
      "Ġorganization": 8882,
      "Ġopportunity": 8883,
      "Ġopportunities": 8884,
      "Ġcopy": 8885,
      "Ġpiston": 8886,
      "Ġtrivia": 8887,
      "ĠDefense": 8888,
      "Obviously": 8889,
      "Ġtastes": 8890,
      "ĠFranklin": 8891,
      "Ġinfluence": 8892,
      "Ġwavelength": 8893,
      "ĠTravel": 8894,
      "ĠInterplanetary": 8895,
      "Promising": 8896,
      "password": 8897,
      "Ġpredicting": 8898,
      "Ġoccupant": 8899,
      "uishable": 8900,
      "ccupy": 8901,
      "Ġpuny": 8902,
      "Ġinverter": 8903,
      "Ġstaggering": 8904,
      "Ġamendment": 8905,
      "Ġcatastrophic": 8906,
      "Ġpremiere": 8907,
      "Europe": 8908,
      "Ġbranch": 8909,
      "Ġemissions": 8910,
      "Ġtrademark": 8911,
      "Ġesthetics": 8912,
      "Ġcandidate": 8913,
      "Ġdiapers": 8914,
      "ĠMedtronic": 8915,
      "Ġchannels": 8916,
      "linearities": 8917,
      "ĠSerbia": 8918,
      "Ġcryogenic": 8919,
      "Rococo": 8920,
      "Simple": 8921,
      "volutions": 8922,
      "Ġtubes": 8923,
      "Ġbouncy": 8924,
      "Ġdowntown": 8925,
      "Ġlangu": 8926,
      "Ġhalves": 8927,
      "Ġanecd": 8928,
      "ilosoph": 8929,
      "Ġvulner": 8930,
      "ĠNTSB": 8931,
      "ĠGarfunkel": 8932,
      "Ġoverpressure": 8933,
      "achella": 8934,
      "ĠKevlar": 8935,
      "Ġindistinguishable": 8936,
      "Ġskyscraper": 8937,
      "Ġprecautionary": 8938,
      "'ll": 8939,
      ")!": 8940,
      "2000": 8941,
      ";$": 8942,
      "Ass": 8943,
      "Alex": 8944,
      "BT": 8945,
      "Bu": 8946,
      "Building": 8947,
      "CR": 8948,
      "Cut": 8949,
      "Come": 8950,
      "Cost": 8951,
      "CIS": 8952,
      "Dis": 8953,
      "Dune": 8954,
      "ER": 8955,
      "Ent": 8956,
      "Early": 8957,
      "Elon": 8958,
      "Fro": 8959,
      "Fri": 8960,
      "Form": 8961,
      "Flam": 8962,
      "Fairing": 8963,
      "Finishing": 8964,
      "Gave": 8965,
      "GBT": 8966,
      "Her": 8967,
      "Hmm": 8968,
      "Honored": 8969,
      "Kanye": 8970,
      "LI": 8971,
      "List": 8972,
      "Lord": 8973,
      "Lying": 8974,
      "MM": 8975,
      "MT": 8976,
      "May": 8977,
      "Nu": 8978,
      "Net": 8979,
      "Offic": 8980,
      "Post": 8981,
      "Pics": 8982,
      "Possibly": 8983,
      "RR": 8984,
      "Ren": 8985,
      "Rele": 8986,
      "Sk": 8987,
      "Spe": 8988,
      "Spl": 8989,
      "Science": 8990,
      "Scientists": 8991,
      "Test": 8992,
      "Tues": 8993,
      "Var": 8994,
      "Went": 8995,
      "Wont": 8996,
      "Yum": 8997,
      "aine": 8998,
      "awesome": 8999,
      "agram": 9000,
      "aired": 9001,
      "aque": 9002,
      "backs": 9003,
      "cou": 9004,
      "cut": 9005,
      "da": 9006,
      "dem": 9007,
      "def": 9008,
      "definitely": 9009,
      "design": 9010,
      "eal": 9011,
      "emp": 9012,
      "ehicle": 9013,
      "fy": 9014,
      "gs": 9015,
      "henge": 9016,
      "ila": 9017,
      "iest": 9018,
      "iber": 9019,
      "late": 9020,
      "mal": 9021,
      "mod": 9022,
      "might": 9023,
      "mark": 9024,
      "max": 9025,
      "meme": 9026,
      "nice": 9027,
      "nos": 9028,
      "netic": 9029,
      "pul": 9030,
      "pone": 9031,
      "rad": 9032,
      "rated": 9033,
      "sha": 9034,
      "suring": 9035,
      "tra": 9036,
      "tower": 9037,
      "truck": 9038,
      "uj": 9039,
      "uys": 9040,
      "uzzle": 9041,
      "vies": 9042,
      "vanced": 9043,
      "wr": 9044,
      "Ġ|": 9045,
      "Ġ!!": 9046,
      "Ġumm": 9047,
      "Ġumb": 9048,
      "Ġulit": 9049,
      "Ġti": 9050,
      "Ġtend": 9051,
      "Ġtaps": 9052,
      "Ġtyp": 9053,
      "Ġtreating": 9054,
      "Ġawesom": 9055,
      "era": 9056,
      "erated": 9057,
      "erved": 9058,
      "erbal": 9059,
      "ona": 9060,
      "Ġsen": 9061,
      "Ġsue": 9062,
      "Ġsport": 9063,
      "Ġsled": 9064,
      "rely": 9065,
      "rella": 9066,
      "Ġwid": 9067,
      "Ġbesides": 9068,
      "aters": 9069,
      "Ġcumulative": 9070,
      "Ġfate": 9071,
      "oured": 9072,
      "itur": 9073,
      "enal": 9074,
      "anage": 9075,
      "anna": 9076,
      "Ġmm": 9077,
      "Ġmouse": 9078,
      "Ġmush": 9079,
      "Ġtoil": 9080,
      "Ġpix": 9081,
      "Ġpuzzle": 9082,
      "Ġdign": 9083,
      "Ġdirt": 9084,
      "Ġdusk": 9085,
      "Ġla": 9086,
      "Ġlatch": 9087,
      "Ġlets": 9088,
      "Ġluc": 9089,
      "storm": 9090,
      "roat": 9091,
      "roid": 9092,
      "roach": 9093,
      "rooms": 9094,
      "Ġinner": 9095,
      "Ġinconel": 9096,
      "icip": 9097,
      "etts": 9098,
      "Ġglo": 9099,
      "Ġglor": 9100,
      "Ġgrown": 9101,
      "igated": 9102,
      "uters": 9103,
      "utive": 9104,
      "ĠTwit": 9105,
      "ĠTax": 9106,
      "ĠTweet": 9107,
      "ĠSure": 9108,
      "ĠSimp": 9109,
      "ĠScient": 9110,
      "ĠSandy": 9111,
      "lyss": 9112,
      "ampos": 9113,
      "ampoline": 9114,
      "Ġeast": 9115,
      "Ġevolution": 9116,
      "unar": 9117,
      "idents": 9118,
      "ĠIl": 9119,
      "ĠIrel": 9120,
      "ĠIceland": 9121,
      "Ġyoke": 9122,
      "ado": 9123,
      "adily": 9124,
      "ĠMoo": 9125,
      "ĠMult": 9126,
      "ĠMoth": 9127,
      "ĠMicro": 9128,
      "ĠMoses": 9129,
      "Ġsorely": 9130,
      "Ġstrain": 9131,
      "Ġstiff": 9132,
      "Ġstupid": 9133,
      "Ġsticking": 9134,
      "ĠAcc": 9135,
      "ĠAdd": 9136,
      "ĠAGI": 9137,
      "ĠAlyss": 9138,
      "irical": 9139,
      "opian": 9140,
      "usetts": 9141,
      "iler": 9142,
      "ilies": 9143,
      "ilisk": 9144,
      "Ġrink": 9145,
      "Ġranging": 9146,
      "ĠCovered": 9147,
      "ĠCampos": 9148,
      "Ġprox": 9149,
      "arse": 9150,
      "Ġshr": 9151,
      "Ġshes": 9152,
      "Ġshill": 9153,
      "Ġshad": 9154,
      "Ġshifts": 9155,
      "ĠWars": 9156,
      "Ġtragic": 9157,
      "Ġtrampoline": 9158,
      "Ġmovies": 9159,
      "Ġenforce": 9160,
      "Ġenhance": 9161,
      "Ġensuring": 9162,
      "Ġdoc": 9163,
      "Ġorph": 9164,
      "geon": 9165,
      "Ġroot": 9166,
      "Ġexits": 9167,
      "ĠFP": 9168,
      "ĠFi": 9169,
      "ĠFact": 9170,
      "ĠFront": 9171,
      "ĠFrost": 9172,
      "Ġseater": 9173,
      "umber": 9174,
      "Ġlivest": 9175,
      "Ġconcept": 9176,
      "Ġconference": 9177,
      "Ġconsequences": 9178,
      "ria": 9179,
      "ĠHo": 9180,
      "ĠBO": 9181,
      "ĠBank": 9182,
      "ĠBreak": 9183,
      "ĠBorders": 9184,
      "ĠBuy": 9185,
      "ĠBuilding": 9186,
      "pears": 9187,
      "ĠNC": 9188,
      "ĠNO": 9189,
      "ĠNV": 9190,
      "ĠNight": 9191,
      "ĠNuys": 9192,
      "ĠDys": 9193,
      "ĠDual": 9194,
      "ĠDoubt": 9195,
      "Ġalleg": 9196,
      "ĠPat": 9197,
      "ĠPut": 9198,
      "ĠPong": 9199,
      "ĠPark": 9200,
      "ĠPrav": 9201,
      "inem": 9202,
      "ipl": 9203,
      "quila": 9204,
      "Ġunusually": 9205,
      "loor": 9206,
      "ĠLeg": 9207,
      "ĠLots": 9208,
      "ĠGA": 9209,
      "ĠGiant": 9210,
      "ĠGlad": 9211,
      "ĠGTO": 9212,
      "ĠGhost": 9213,
      "ĠGravity": 9214,
      "Ġcarrier": 9215,
      "kings": 9216,
      "impact": 9217,
      "Ġjustify": 9218,
      "Ġoutlet": 9219,
      "mented": 9220,
      "ĠStates": 9221,
[...]
