{
  "version": "1.0",
  "truncation": null,
  "padding": null,
  "added_tokens": [
    {
      "id": 0,
      "content": "<s>",
      "single_word": false,
      "lstrip": false,
      "rstrip": false,
      "normalized": false,
      "special": true
    },
    {
      "id": 1,
      "content": "<pad>",
      "single_word": false,
      "lstrip": false,
      "rstrip": false,
      "normalized": false,
      "special": true
    },
    {
      "id": 2,
      "content": "</s>",
      "single_word": false,
      "lstrip": false,
      "rstrip": false,
      "normalized": false,
      "special": true
    },
    {
      "id": 3,
      "content": "<unk>",
      "single_word": false,
      "lstrip": false,
      "rstrip": false,
      "normalized": false,
      "special": true
    },
    {
      "id": 4,
      "content": "<mask>",
      "single_word": false,
      "lstrip": false,
      "rstrip": false,
      "normalized": false,
      "special": true
    }
  ],
  "normalizer": null,
  "pre_tokenizer": {
    "type": "ByteLevel",
    "add_prefix_space": false,
    "trim_offsets": true,
    "use_regex": true
  },
  "post_processor": {
    "type": "ByteLevel",
    "add_prefix_space": true,
    "trim_offsets": false,
    "use_regex": true
  },
  "decoder": {
    "type": "ByteLevel",
    "add_prefix_space": true,
    "trim_offsets": true,
    "use_regex": true
  },
  "model": {
    "type": "BPE",
    "dropout": null,
    "unk_token": null,
    "continuing_subword_prefix": null,
    "end_of_word_suffix": null,
    "fuse_unk": false,
    "vocab": {
      "<s>": 0,
      "<pad>": 1,
      "</s>": 2,
      "<unk>": 3,
      "<mask>": 4,
      "!": 5,
      "\"": 6,
      "#": 7,
      "$": 8,
      "%": 9,
      "&": 10,
      "'": 11,
      "(": 12,
      ")": 13,
      "*": 14,
      "+": 15,
      ",": 16,
      "-": 17,
      ".": 18,
      "/": 19,
      "0": 20,
      "1": 21,
      "2": 22,
      "3": 23,
      "4": 24,
      "5": 25,
      "6": 26,
      "7": 27,
      "8": 28,
      "9": 29,
      ":": 30,
      ";": 31,
      "<": 32,
      "=": 33,
      ">": 34,
      "?": 35,
      "@": 36,
      "A": 37,
      "B": 38,
      "C": 39,
      "D": 40,
      "E": 41,
      "F": 42,
      "G": 43,
      "H": 44,
      "I": 45,
      "J": 46,
      "K": 47,
      "L": 48,
      "M": 49,
      "N": 50,
      "O": 51,
      "P": 52,
      "Q": 53,
      "R": 54,
      "S": 55,
      "T": 56,
      "U": 57,
      "V": 58,
      "W": 59,
      "X": 60,
      "Y": 61,
      "Z": 62,
      "[": 63,
      "\\": 64,
      "]": 65,
      "^": 66,
      "_": 67,
      "`": 68,
      "a": 69,
      "b": 70,
      "c": 71,
      "d": 72,
      "e": 73,
      "f": 74,
      "g": 75,
      "h": 76,
      "i": 77,
      "j": 78,
      "k": 79,
      "l": 80,
      "m": 81,
      "n": 82,
      "o": 83,
      "p": 84,
      "q": 85,
      "r": 86,
      "s": 87,
      "t": 88,
      "u": 89,
      "v": 90,
      "w": 91,
      "x": 92,
      "y": 93,
      "z": 94,
      "{": 95,
      "|": 96,
      "}": 97,
      "~": 98,
      "¡": 99,
      "¢": 100,
      "£": 101,
      "¤": 102,
      "¥": 103,
      "¦": 104,
      "§": 105,
      "¨": 106,
      "©": 107,
      "ª": 108,
      "«": 109,
      "¬": 110,
      "®": 111,
      "¯": 112,
      "°": 113,
      "±": 114,
      "²": 115,
      "³": 116,
      "´": 117,
      "µ": 118,
      "¶": 119,
      "·": 120,
      "¸": 121,
      "¹": 122,
      "º": 123,
      "»": 124,
      "¼": 125,
      "½": 126,
      "¾": 127,
      "¿": 128,
      "À": 129,
      "Á": 130,
      "Â": 131,
      "Ã": 132,
      "Ä": 133,
      "Å": 134,
      "Æ": 135,
      "Ç": 136,
      "È": 137,
      "É": 138,
      "Ê": 139,
      "Ë": 140,
      "Ì": 141,
      "Í": 142,
      "Î": 143,
      "Ï": 144,
      "Ð": 145,
      "Ñ": 146,
      "Ò": 147,
      "Ó": 148,
      "Ô": 149,
      "Õ": 150,
      "Ö": 151,
      "×": 152,
      "Ø": 153,
      "Ù": 154,
      "Ú": 155,
      "Û": 156,
      "Ü": 157,
      "Ý": 158,
      "Þ": 159,
      "ß": 160,
      "à": 161,
      "á": 162,
      "â": 163,
      "ã": 164,
      "ä": 165,
      "å": 166,
      "æ": 167,
      "ç": 168,
      "è": 169,
      "é": 170,
      "ê": 171,
      "ë": 172,
      "ì": 173,
      "í": 174,
      "î": 175,
      "ï": 176,
      "ð": 177,
      "ñ": 178,
      "ò": 179,
      "ó": 180,
      "ô": 181,
      "õ": 182,
      "ö": 183,
      "÷": 184,
      "ø": 185,
      "ù": 186,
      "ú": 187,
      "û": 188,
      "ü": 189,
      "ý": 190,
      "þ": 191,
      "ÿ": 192,
      "Ā": 193,
      "ā": 194,
      "Ă": 195,
      "ă": 196,
      "Ą": 197,
      "ą": 198,
      "Ć": 199,
      "ć": 200,
      "Ĉ": 201,
      "ĉ": 202,
      "Ċ": 203,
      "ċ": 204,
      "Č": 205,
      "č": 206,
      "Ď": 207,
      "ď": 208,
      "Đ": 209,
      "đ": 210,
      "Ē": 211,
      "ē": 212,
      "Ĕ": 213,
      "ĕ": 214,
      "Ė": 215,
      "ė": 216,
      "Ę": 217,
      "ę": 218,
      "Ě": 219,
      "ě": 220,
      "Ĝ": 221,
      "ĝ": 222,
      "Ğ": 223,
      "ğ": 224,
      "Ġ": 225,
      "ġ": 226,
      "Ģ": 227,
      "ģ": 228,
      "Ĥ": 229,
      "ĥ": 230,
      "Ħ": 231,
      "ħ": 232,
      "Ĩ": 233,
      "ĩ": 234,
      "Ī": 235,
      "ī": 236,
      "Ĭ": 237,
      "ĭ": 238,
      "Į": 239,
      "į": 240,
      "İ": 241,
      "ı": 242,
      "Ĳ": 243,
      "ĳ": 244,
      "Ĵ": 245,
      "ĵ": 246,
      "Ķ": 247,
      "ķ": 248,
      "ĸ": 249,
      "Ĺ": 250,
      "ĺ": 251,
      "Ļ": 252,
      "ļ": 253,
      "Ľ": 254,
      "ľ": 255,
      "Ŀ": 256,
      "ŀ": 257,
      "Ł": 258,
      "ł": 259,
      "Ń": 260,
      "Ġt": 261,
      "in": 262,
      "Ġa": 263,
      "er": 264,
      "on": 265,
      "Ġs": 266,
      "re": 267,
      "Ġth": 268,
      "Ġw": 269,
      "es": 270,
      "or": 271,
      "Ġb": 272,
      "at": 273,
      "Ġc": 274,
      "is": 275,
      "ing": 276,
      "Ġf": 277,
      "ou": 278,
      "it": 279,
      "en": 280,
      "Ġm": 281,
      "ll": 282,
      "ar": 283,
      "an": 284,
      "Ġp": 285,
      "Ġto": 286,
      "Ġo": 287,
      "ed": 288,
      "Ġd": 289,
      "Ġh": 290,
      "Ġthe": 291,
      "Ġl": 292,
      "mp": 293,
      "ro": 294,
      "st": 295,
      "Ġin": 296,
      "Ġis": 297,
      "al": 298,
      "Ġn": 299,
      "Ġof": 300,
      "ic": 301,
      "le": 302,
      "as": 303,
      "ion": 304,
      "ly": 305,
      "Ġbe": 306,
      "ve": 307,
      "Ġg": 308,
      "ig": 309,
      "ut": 310,
      "ac": 311,
      "Ġre": 312,
      "amp": 313,
      "ot": 314,
      "et": 315,
      "Ġ&": 316,
      "ĠT": 317,
      "Ġe": 318,
      "ill": 319,
      "Ġfor": 320,
      "ĠS": 321,
      "Ġon": 322,
      "om": 323,
      "ow": 324,
      "ay": 325,
      "ld": 326,
      "ct": 327,
      "ver": 328,
      "ent": 329,
      "id": 330,
      "Ġu": 331,
      "Ġy": 332,
      "el": 333,
      "Ġan": 334,
      "ch": 335,
      "ĠI": 336,
      "igh": 337,
      "la": 338,
      "all": 339,
      "ad": 340,
      "oo": 341,
      "Ġso": 342,
      "Ġit": 343,
      "im": 344,
      "ter": 345,
      "Ġst": 346,
      "th": 347,
      "ith": 348,
      "ĠM": 349,
      "Ġwill": 350,
      "Ġwh": 351,
      "se": 352,
      "Ġthat": 353,
      "Ġwe": 354,
      "ke": 355,
      "esla": 356,
      "Ġne": 357,
      "Ġbut": 358,
      "am": 359,
      "ir": 360,
      "ust": 361,
      "Ġpro": 362,
      "il": 363,
      "Ġwith": 364,
      "Th": 365,
      "Ġr": 366,
      "ĠA": 367,
      "op": 368,
      "est": 369,
      "ould": 370,
      "ur": 371,
      "un": 372,
      "out": 373,
      "ars": 374,
      "Ġare": 375,
      "if": 376,
      "Ġyou": 377,
      "ab": 378,
      "Ġmo": 379,
      "Ġco": 380,
      "ere": 381,
      "ce": 382,
      "ight": 383,
      "ally": 384,
      "Ġha": 385,
      "ĠC": 386,
      "ĠTesla": 387,
      "Ġen": 388,
      "Ġat": 389,
      "pp": 390,
      "Ġsh": 391,
      "ation": 392,
      "ure": 393,
      "ate": 394,
      "Ġtr": 395,
      "Ġor": 396,
      "Ġas": 397,
      "nd": 398,
      "ul": 399,
      "Ġv": 400,
      "ĠW": 401,
      "ers": 402,
      "ge": 403,
      "ant": 404,
      "Ġdo": 405,
      "Ġthis": 406,
      "ck": 407,
      "Ġnot": 408,
      "ĠTh": 409,
      "Ġex": 410,
      "Ġse": 411,
      "nt": 412,
      "Ġwor": 413,
      "um": 414,
      "Ġma": 415,
      "ity": 416,
      "ip": 417,
      "ĠF": 418,
      "ome": 419,
      "ea": 420,
      "ive": 421,
      "Ġcon": 422,
      "and": 423,
      "Ġro": 424,
      "ks": 425,
      "Ġde": 426,
      "ard": 427,
      "act": 428,
      "Ġby": 429,
      "Ġj": 430,
      "ĠB": 431,
      "ace": 432,
      "Ġab": 433,
      "Ġhave": 434,
      "Ġal": 435,
      "ine": 436,
      "ort": 437,
      "pe": 438,
      "ra": 439,
      "Ġ(": 440,
      "ss": 441,
      "Ġsu": 442,
      "od": 443,
      "our": 444,
      "ess": 445,
      "ue": 446,
      "Ġall": 447,
      "ood": 448,
      "ĠH": 449,
      "gh": 450,
      "reat": 451,
      "Ġli": 452,
      "ĠN": 453,
      "ĠP": 454,
      "Ġand": 455,
      "lo": 456,
      "rom": 457,
      "per": 458,
      "Ġwas": 459,
      "ĠD": 460,
      "ts": 461,
      "ĠE": 462,
      "Ġch": 463,
      "ough": 464,
      "qu": 465,
      "one": 466,
      "Ġfrom": 467,
      "imp": 468,
      "king": 469,
      "ĠR": 470,
      "Yes": 471,
      "iv": 472,
      "Ġpo": 473,
      "ie": 474,
      "ction": 475,
      "ain": 476,
      "Ġcomp": 477,
      "Ġlike": 478,
      "ap": 479,
      "ong": 480,
      "are": 481,
      "Ġme": 482,
      "Ġthan": 483,
      "pace": 484,
      "us": 485,
      "Ġup": 486,
      "ĠSt": 487,
      "Ġgo": 488,
      "ast": 489,
      "Ġye": 490,
      "ack": 491,
      "du": 492,
      "Ġk": 493,
      "art": 494,
      "Ġneed": 495,
      "Ġte": 496,
      "ire": 497,
      "Ġabout": 498,
      "ies": 499,
      "Ġcar": 500,
      "Ġimp": 501,
      "ĠG": 502,
      "Ġtim": 503,
      "ĠL": 504,
      "very": 505,
      "ide": 506,
      "ound": 507,
      "ment": 508,
      "Ġhigh": 509,
      "ol": 510,
      "Ġmore": 511,
      "Ġwould": 512,
      "ble": 513,
      "Ġjust": 514,
      "Ġfe": 515,
      "Ġhe": 516,
      "ase": 517,
      "Ġeng": 518,
      "Ġpre": 519,
      "ite": 520,
      "em": 521,
      "Ġout": 522,
      "Ġno": 523,
      "Ġcom": 524,
      "uch": 525,
      "Ġcan": 526,
      "ry": 527,
      "Ġhas": 528,
      "able": 529,
      "iz": 530,
      "ull": 531,
      "odel": 532,
      "ign": 533,
      "Ġlo": 534,
      "any": 535,
      "ist": 536,
      "ont": 537,
      "ci": 538,
      "end": 539,
      "hip": 540,
      "xt": 541,
      "Ġgreat": 542,
      "Ġprodu": 543,
      "Ġgood": 544,
      "ore": 545,
      "Ġmuch": 546,
      "ower": 547,
      "Ġar": 548,
      "Ġmy": 549,
      "Ġpl": 550,
      "ice": 551,
      "ass": 552,
      "The": 553,
      "ff": 554,
      "ous": 555,
      "Ġ~": 556,
      "Ġbet": 557,
      "con": 558,
      "mo": 559,
      "Ġany": 560,
      "Ġtime": 561,
      "Ġrock": 562,
      "Ġad": 563,
      "ft": 564,
      "Ġshould": 565,
      "ame": 566,
      "Ġtoo": 567,
      "Ġbu": 568,
      "Ġget": 569,
      "pt": 570,
      "bab": 571,
      "Ġus": 572,
      "Ġun": 573,
      "Ġapp": 574,
      "so": 575,
      "ink": 576,
      "cc": 577,
      "Ġ.": 578,
      "ich": 579,
      "ays": 580,
      "ĠU": 581,
      "ĠModel": 582,
      "Ġhard": 583,
      "unch": 584,
      "eop": 585,
      "ĠO": 586,
      "Ġwork": 587,
      "ia": 588,
      "light": 589,
      "Ġif": 590,
      "Ġla": 591,
      "ha": 592,
      "ind": 593,
      "Ġact": 594,
      "ans": 595,
      "Ġour": 596,
      "eople": 597,
      "Ġthere": 598,
      "ven": 599,
      "Ġone": 600,
      "We": 601,
      "age": 602,
      "Ġsome": 603,
      "Ġle": 604,
      "Ġengine": 605,
      "Ġover": 606,
      "Ġsa": 607,
      "eah": 608,
      "Ġmake": 609,
      "Ġta": 610,
      "Ġdr": 611,
      "Ġits": 612,
      "ĠV": 613,
      "Ġwee": 614,
      "Tesla": 615,
      "ware": 616,
      "be": 617,
      "Ġpr": 618,
      "ach": 619,
      "arship": 620,
      "sion": 621,
      "Ġsoon": 622,
      "Ġpeople": 623,
      "Ġnext": 624,
      "ually": 625,
      "Ġrocket": 626,
      "ats": 627,
      "bably": 628,
      "atter": 629,
      "Ġthey": 630,
      "ory": 631,
      "Ġcars": 632,
      "Ġinc": 633,
      "paceX": 634,
      "ber": 635,
      "ect": 636,
      "ĠThe": 637,
      "Yeah": 638,
      "int": 639,
      "Ġyear": 640,
      "bit": 641,
      "00": 642,
      "Ġdes": 643,
      "Ġmost": 644,
      "oth": 645,
      "Ġthr": 646,
      "ther": 647,
      "actly": 648,
      "ĠJ": 649,
      "Ex": 650,
      "Ġonly": 651,
      "Ġwhich": 652,
      "irst": 653,
      "ud": 654,
      "Ġlaunch": 655,
      "ors": 656,
      "Ġmon": 657,
      "anks": 658,
      "Ġtest": 659,
      "ence": 660,
      "ep": 661,
      "ount": 662,
      "Ġint": 663,
      "Ġag": 664,
      "Ġfa": 665,
      "ance": 666,
      "Ġyour": 667,
      "Ġcont": 668,
      "Ġproduction": 669,
      "Ġsp": 670,
      "ated": 671,
      "own": 672,
      "vel": 673,
      "Ġ%": 674,
      "ange": 675,
      "Ġlong": 676,
      "arg": 677,
      "ef": 678,
      "fer": 679,
      "Ġqu": 680,
      "Ġsol": 681,
      "gy": 682,
      "Ġam": 683,
      "Ġright": 684,
      "ric": 685,
      "Ġimpro": 686,
      "Ġnow": 687,
      "Ġteam": 688,
      "Ġmany": 689,
      "aybe": 690,
      "Ġnew": 691,
      "ully": 692,
      "Ġmonth": 693,
      "This": 694,
      "Ġland": 695,
      "Ġwhat": 696,
      "Ġacc": 697,
      "ool": 698,
      "Ġorbit": 699,
      "ru": 700,
      "Ġway": 701,
      "ater": 702,
      "eth": 703,
      "Ġper": 704,
      "ult": 705,
      "Ġreal": 706,
      "ree": 707,
      "St": 708,
      "Ġwho": 709,
      "ĠStarship": 710,
      "Wh": 711,
      "ĠWill": 712,
      "Ġbetter": 713,
      "gr": 714,
      "ary": 715,
      "ings": 716,
      "Ġyears": 717,
      "Ġkn": 718,
      "ild": 719,
      "nder": 720,
      "ĠSpaceX": 721,
      "Exactly": 722,
      "Ġfun": 723,
      "Ġother": 724,
      "Ġfew": 725,
      "urn": 726,
      "\"\"": 727,
      "ens": 728,
      "Ġres": 729,
      "You": 730,
      "day": 731,
      "ible": 732,
      "ial": 733,
      "we": 734,
      "ade": 735,
      "Ġaut": 736,
      "ĠMars": 737,
      "wn": 738,
      "ress": 739,
      "Ġweek": 740,
      "'s": 741,
      "kes": 742,
      "Ġwhen": 743,
      "ely": 744,
      "Ġuse": 745,
      "ĠWe": 746,
      "Ġlot": 747,
      "lease": 748,
      "Ġeven": 749,
      "ility": 750,
      "ving": 751,
      "alcon": 752,
      "ical": 753,
      "ting": 754,
      "Ha": 755,
      "ons": 756,
      "'t": 757,
      "Ġwere": 758,
      "Ġsy": 759,
      "Ġser": 760,
      "ath": 761,
      "Ġinter": 762,
      "lect": 763,
      "ty": 764,
      "Ġdesign": 765,
      "Ġspe": 766,
      "Ġloo": 767,
      "most": 768,
      "oc": 769,
      "ose": 770,
      "ftware": 771,
      "ile": 772,
      "ating": 773,
      "ically": 774,
      "Ġactually": 775,
      "Ġfirst": 776,
      "way": 777,
      "Ġbig": 778,
      "ster": 779,
      "ĠThis": 780,
      "arth": 781,
      "ang": 782,
      "Ġvery": 783,
      "Ġdoes": 784,
      "Ġthen": 785,
      "Ġback": 786,
      "Ġflight": 787,
      "os": 788,
      "Ġevery": 789,
      "..": 790,
      "Ġdif": 791,
      "Ġtrue": 792,
      "Ġpower": 793,
      "It": 794,
      "No": 795,
      "ise": 796,
      "Ġsupp": 797,
      "Ġunder": 798,
      "ations": 799,
      "Ġpoint": 800,
      "ines": 801,
      "ering": 802,
      "Ġrec": 803,
      "apt": 804,
      "orm": 805,
      "Ġcould": 806,
      "Ġmin": 807,
      "Ġpu": 808,
      "Ġsoftware": 809,
      "Good": 810,
      "ne": 811,
      "Ġcoming": 812,
      "Ġ$": 813,
      "ord": 814,
      "lic": 815,
      "Ġknow": 816,
      "iving": 817,
      "Ġthink": 818,
      "ish": 819,
      "ions": 820,
      "rag": 821,
      "uper": 822,
      "Ġsm": 823,
      "Ġpart": 824,
      "Ġtheir": 825,
      "elf": 826,
      "up": 827,
      "row": 828,
      "ri": 829,
      "Ġsure": 830,
      "fter": 831,
      "low": 832,
      "Ġcost": 833,
      "Ġexp": 834,
      "ful": 835,
      "les": 836,
      "Thanks": 837,
      "Ġimprove": 838,
      "tle": 839,
      "Ġdid": 840,
      "Ġreg": 841,
      "Ġprobably": 842,
      "ĠEarth": 843,
      "use": 844,
      "bs": 845,
      "Ġve": 846,
      "Ġext": 847,
      "Ġown": 848,
      "Ġlit": 849,
      "Ġneeded": 850,
      "Tr": 851,
      "ys": 852,
      "Ġcr": 853,
      "Ġlif": 854,
      "Ġbuild": 855,
      "ious": 856,
      "uture": 857,
      "ĠNe": 858,
      "Ġfact": 859,
      "Ġpar": 860,
      "Ġdont": 861,
      "hic": 862,
      "Ġthem": 863,
      "els": 864,
      "ady": 865,
      "ĠX": 866,
      "Ġstill": 867,
      "Ġsee": 868,
      "lso": 869,
      "Ġhow": 870,
      "ual": 871,
      "Ġsc": 872,
      "red": 873,
      "Ġwant": 874,
      "Ġbeen": 875,
      "lectric": 876,
      "ilot": 877,
      "iew": 878,
      "ĠIn": 879,
      "unn": 880,
      "In": 881,
      "ag": 882,
      "Ġver": 883,
      "Ġhapp": 884,
      "stem": 885,
      "ize": 886,
      "Its": 887,
      "iver": 888,
      "te": 889,
      "Ġair": 890,
      "Ġfuture": 891,
      "Ġhel": 892,
      "Ġ*": 893,
      "That": 894,
      "Ġworld": 895,
      "Ġsaf": 896,
      "ense": 897,
      "ĠFalcon": 898,
      "eav": 899,
      "Ġalso": 900,
      "Ġbest": 901,
      "ick": 902,
      "ics": 903,
      "Ġinto": 904,
      "Haha": 905,
      "der": 906,
      "Ġspace": 907,
      "Ġfin": 908,
      "ank": 909,
      "opilot": 910,
      "Ġthrust": 911,
      "Ġhum": 912,
      "Ġwell": 913,
      "Pro": 914,
      "Ġtw": 915,
      "Ġboo": 916,
      "Ġsuper": 917,
      "blem": 918,
      "Ġadd": 919,
      "ph": 920,
      "tty": 921,
      "Ġim": 922,
      "Ġfast": 923,
      "Ġopt": 924,
      "Ġbeing": 925,
      "Ġrep": 926,
      "ments": 927,
      "Ġdown": 928,
      "Ġrequ": 929,
      "opef": 930,
      "ĠUS": 931,
      "SD": 932,
      "Will": 933,
      "ved": 934,
      "ward": 935,
      "ĠIt": 936,
      "ĠAut": 937,
      "Ġsystem": 938,
      "mer": 939,
      "Ġafter": 940,
      "ves": 941,
      "Ġend": 942,
      "opefully": 943,
      "!!": 944,
      "ced": 945,
      "ix": 946,
      "no": 947,
      "pect": 948,
      "orn": 949,
      "Ġmis": 950,
      "Ġoff": 951,
      "Ġelectric": 952,
      "Ġcons": 953,
      "ergy": 954,
      "Ġgen": 955,
      "Ġreally": 956,
      "old": 957,
      "Ġfar": 958,
      "Ġph": 959,
      "Ġproblem": 960,
      "If": 961,
      "ell": 962,
      "Ġins": 963,
      "Ġalmost": 964,
      "Ġcomple": 965,
      "Ġlanding": 966,
      "ĠSuper": 967,
      "Ġmonths": 968,
      "fore": 969,
      "Ġclo": 970,
      "Ġmass": 971,
      "Ġday": 972,
      "Ġart": 973,
      "Ġpress": 974,
      "Ġhelp": 975,
      "Just": 976,
      "Ġdis": 977,
      "ĠCh": 978,
      "Ġenergy": 979,
      "Ġgoing": 980,
      "ragon": 981,
      "atch": 982,
      "ortant": 983,
      "True": 984,
      "ause": 985,
      "cy": 986,
      "ost": 987,
      "ying": 988,
      "rem": 989,
      "arly": 990,
      "thing": 991,
      "Not": 992,
      "ert": 993,
      "Ġmade": 994,
      "arl": 995,
      "veral": 996,
      "eavy": 997,
      "Ġsay": 998,
      "Ġdone": 999,
      "Ġthough": 1000,
      "Ġbec": 1001,
      "aptor": 1002,
      "ex": 1003,
      "Ġgr": 1004,
      "Ġworking": 1005,
      "Ġdef": 1006,
      "Ġtrans": 1007,
      "az": 1008,
      "Ġdel": 1009,
      "Great": 1010,
      "vent": 1011,
      "Ġ,": 1012,
      "Ġthose": 1013,
      "ĠFSD": 1014,
      ").": 1015,
      "Ġsame": 1016,
      "ock": 1017,
      "Ġdays": 1018,
      "Ġhad": 1019,
      "erson": 1020,
      "Ġtech": 1021,
      "pen": 1022,
      "ways": 1023,
      "ese": 1024,
      "Ġstart": 1025,
      "ific": 1026,
      "ĠWh": 1027,
      "Ġpub": 1028,
      "Ġsmall": 1029,
      "Ġvehic": 1030,
      "ĠAutopilot": 1031,
      "Ġbefore": 1032,
      "Ġsupport": 1033,
      "ets": 1034,
      "ĠIts": 1035,
      "Ġengines": 1036,
      "Ġsolar": 1037,
      "Ġ/": 1038,
      "Ġbatter": 1039,
      "Ġpay": 1040,
      "Ġlow": 1041,
      "ssible": 1042,
      "ffic": 1043,
      "inite": 1044,
      "Ġcle": 1045,
      "Ġless": 1046,
      "urre": 1047,
      "ail": 1048,
      "Ġlea": 1049,
      "Ġlast": 1050,
      "Ġconf": 1051,
      "Ġlove": 1052,
      "Ġtunn": 1053,
      "Ġwr": 1054,
      "Ġcall": 1055,
      "Ġob": 1056,
      "Ġship": 1057,
      "Ġthrough": 1058,
      "ark": 1059,
      "ane": 1060,
      "Ġincre": 1061,
      "Ġfull": 1062,
      "Ġcontro": 1063,
      "Ġhuman": 1064,
      "ove": 1065,
      "reci": 1066,
      "Ġcool": 1067,
      "Ġtake": 1068,
      "Ġlife": 1069,
      "Ġversion": 1070,
      "Ġrequire": 1071,
      "Ġsign": 1072,
      "ature": 1073,
      "ometh": 1074,
      "Ġenough": 1075,
      "Ġvide": 1076,
      "Ġdiffer": 1077,
      "eel": 1078,
      "form": 1079,
      "Ġent": 1080,
      "Ġever": 1081,
      "ĠIf": 1082,
      "Ġshort": 1083,
      "Ġaround": 1084,
      "vice": 1085,
      "ready": 1086,
      "ĠSh": 1087,
      "Ġgener": 1088,
      "co": 1089,
      "oring": 1090,
      "ition": 1091,
      "ety": 1092,
      "oney": 1093,
      "ak": 1094,
      "Ġjo": 1095,
      "Ġappro": 1096,
      "Sure": 1097,
      "ative": 1098,
      "Ġproduct": 1099,
      "initely": 1100,
      "omething": 1101,
      "ero": 1102,
      "Ġcount": 1103,
      "Ġtoday": 1104,
      "Ġdrive": 1105,
      "Ġspeed": 1106,
      "Ne": 1107,
      "ead": 1108,
      "Ġret": 1109,
      "Ġval": 1110,
      "Ġlittle": 1111,
      "ib": 1112,
      "oming": 1113,
      "ĠAI": 1114,
      "Ġtra": 1115,
      "ounds": 1116,
      "olut": 1117,
      "li": 1118,
      "Ġ-": 1119,
      "Ġfire": 1120,
      "imit": 1121,
      "azing": 1122,
      "Ok": 1123,
      "de": 1124,
      "less": 1125,
      "mon": 1126,
      "Ġgu": 1127,
      "iga": 1128,
      "Ġmax": 1129,
      "ĠK": 1130,
      "Ġsur": 1131,
      "Ġtimes": 1132,
      "jor": 1133,
      "Ġthings": 1134,
      "Ġlater": 1135,
      "Ġupd": 1136,
      "Ġimportant": 1137,
      "So": 1138,
      "Ġrelease": 1139,
      "Ġhaha": 1140,
      "load": 1141,
      "Ġadv": 1142,
      "Ġagain": 1143,
      "Ġpublic": 1144,
      "Ġmoney": 1145,
      "Ġref": 1146,
      "iles": 1147,
      "ĠDo": 1148,
      "ffect": 1149,
      "lan": 1150,
      "view": 1151,
      "ery": 1152,
      "ates": 1153,
      "ash": 1154,
      "gen": 1155,
      "of": 1156,
      "Ġcent": 1157,
      "ĠAlso": 1158,
      "Ġseem": 1159,
      "Ġappreci": 1160,
      "Ġvideo": 1161,
      "Ġcl": 1162,
      "ĠIm": 1163,
      "esting": 1164,
      "Ġseveral": 1165,
      "ĠNo": 1166,
      "Ġpressure": 1167,
      "charg": 1168,
      "Ġwhy": 1169,
      "ĠCo": 1170,
      "Ġchange": 1171,
      "Ġupgr": 1172,
      "Ġhappen": 1173,
      "wes": 1174,
      "Ġdoing": 1175,
      "Ġalways": 1176,
      "ĠHeavy": 1177,
      "ĠDragon": 1178,
      "ĠRaptor": 1179,
      "Ġweeks": 1180,
      "Ġfair": 1181,
      "urrent": 1182,
      "100": 1183,
      "iting": 1184,
      "Ġmatter": 1185,
      "alf": 1186,
      "Ġwhere": 1187,
      "ope": 1188,
      "Ġexce": 1189,
      "Ġengineering": 1190,
      "ude": 1191,
      "Ġsafety": 1192,
      "Ġartic": 1193,
      "Ġav": 1194,
      "orre": 1195,
      "Ġcap": 1196,
      "Ġgas": 1197,
      "There": 1198,
      "Ġsec": 1199,
      "Ġalready": 1200,
      "Ġtax": 1201,
      "Ġextrem": 1202,
      "),": 1203,
      "ron": 1204,
      "uck": 1205,
      "ason": 1206,
      "arlink": 1207,
      "Ġcontrol": 1208,
      "wesome": 1209,
      "gs": 1210,
      "Ġtal": 1211,
      "Ġboth": 1212,
      "Maybe": 1213,
      "yber": 1214,
      "erm": 1215,
      "Ġshow": 1216,
      "cial": 1217,
      "Ġsaid": 1218,
      "Ġtwo": 1219,
      "orry": 1220,
      "Ġearly": 1221,
      "Ġthats": 1222,
      "Ġcomput": 1223,
      "Ġregul": 1224,
      "Probably": 1225,
      "ior": 1226,
      "Ġlower": 1227,
      "Ġlimit": 1228,
      "ĠThat": 1229,
      "Ġmakes": 1230,
      "ieve": 1231,
      "And": 1232,
      "lin": 1233,
      "ina": 1234,
      "Ġsk": 1235,
      "Ġinv": 1236,
      "Ġiss": 1237,
      "ural": 1238,
      "Ġpossible": 1239,
      "ized": 1240,
      "Ġlevel": 1241,
      "ĠJust": 1242,
      "air": 1243,
      "ear": 1244,
      "Ġz": 1245,
      "Ġid": 1246,
      "ĠYou": 1247,
      "Ġman": 1248,
      "Ġoper": 1249,
      "Ġdue": 1250,
      "Ġeas": 1251,
      "illion": 1252,
      "Ġdep": 1253,
      "vid": 1254,
      "Ġes": 1255,
      "Ġ\"\"": 1256,
      "Ġbas": 1257,
      "Ġind": 1258,
      "10": 1259,
      "ces": 1260,
      "ily": 1261,
      "Ġsimp": 1262,
      "Ġself": 1263,
      "Ġfix": 1264,
      "Ġmed": 1265,
      "Ġopen": 1266,
      "Ġrange": 1267,
      "Ġroll": 1268,
      "Ġallow": 1269,
      "Ġamazing": 1270,
      "Ġmission": 1271,
      "come": 1272,
      "fact": 1273,
      "Ġsim": 1274,
      "Ġthing": 1275,
      "Ġmet": 1276,
      "Ġmaybe": 1277,
      "ume": 1278,
      "ongr": 1279,
      "Ġdoesnt": 1280,
      "For": 1281,
      "riving": 1282,
      "Ġbr": 1283,
      "Ġreus": 1284,
      "Ġvis": 1285,
      "Ġchang": 1286,
      "Ġfactory": 1287,
      "Ġbooster": 1288,
      "ĠSupercharg": 1289,
      "oun": 1290,
      "ĠSN": 1291,
      "Ġnever": 1292,
      "Thats": 1293,
      "ability": 1294,
      "ĠPro": 1295,
      "Ġplan": 1296,
      "wh": 1297,
      "inal": 1298,
      "Ġfr": 1299,
      "Ġperson": 1300,
      "Ġhour": 1301,
      "Ġvol": 1302,
      "ĠRe": 1303,
      "Ġcompany": 1304,
      "ĠGiga": 1305,
      "Ġ...": 1306,
      "Ġservice": 1307,
      "Ġbattery": 1308,
      "Model": 1309,
      "ape": 1310,
      "val": 1311,
      "Ġvs": 1312,
      "ody": 1313,
      "Ġhigher": 1314,
      "Ġago": 1315,
      "Ġlook": 1316,
      "lt": 1317,
      "Ġfla": 1318,
      "Ġunt": 1319,
      "atell": 1320,
      "Ġpretty": 1321,
      "Ġquest": 1322,
      "Sh": 1323,
      "Ġbo": 1324,
      "itive": 1325,
      "Ġdire": 1326,
      "Ġstr": 1327,
      "Ġneeds": 1328,
      "Ġobv": 1329,
      "Pre": 1330,
      "mor": 1331,
      "nal": 1332,
      "Ġawesome": 1333,
      "Ġsomething": 1334,
      "Ġrate": 1335,
      "uring": 1336,
      "ĠCan": 1337,
      "ately": 1338,
      "Ġlikely": 1339,
      "Ġgoes": 1340,
      "Ġautom": 1341,
      "orrect": 1342,
      "ially": 1343,
      "ject": 1344,
      "oll": 1345,
      "ĠY": 1346,
      "Ġke": 1347,
      "ond": 1348,
      "Ġset": 1349,
      "Ġmay": 1350,
      "Ġpass": 1351,
      "ustain": 1352,
      "ather": 1353,
      "Congr": 1354,
      "On": 1355,
      "Re": 1356,
      "aut": 1357,
      "cess": 1358,
      "io": 1359,
      "Ġlight": 1360,
      "Ġinst": 1361,
      "ider": 1362,
      "ime": 1363,
      "Ġris": 1364,
      "Ġmajor": 1365,
      "Ġdec": 1366,
      "cially": 1367,
      "Ġorbital": 1368,
      "ruck": 1369,
      "Ġcrit": 1370,
      "gg": 1371,
      "ng": 1372,
      "Ġir": 1373,
      "Ġsense": 1374,
      "Ġnum": 1375,
      "Ġrem": 1376,
      "Ġsub": 1377,
      "ĠThey": 1378,
      "Ġclose": 1379,
      "Ġleast": 1380,
      "ked": 1381,
      "ness": 1382,
      "ps": 1383,
      "wit": 1384,
      "Ġwind": 1385,
      "Ġroad": 1386,
      "pell": 1387,
      "Ġdiff": 1388,
      "Ġowners": 1389,
      "An": 1390,
      "ied": 1391,
      "ient": 1392,
      "ins": 1393,
      "Ġfree": 1394,
      "ency": 1395,
      "anced": 1396,
      "Ġorder": 1397,
      "Ġtemp": 1398,
      "olar": 1399,
      "cond": 1400,
      "ĠChina": 1401,
      "ertain": 1402,
      "Ġvehicle": 1403,
      "Ġclear": 1404,
      "Ġtunnel": 1405,
      "hing": 1406,
      "over": 1407,
      "ues": 1408,
      "Ġthese": 1409,
      "Ġmight": 1410,
      "Ġmult": 1411,
      "arge": 1412,
      "anies": 1413,
      "Ġread": 1414,
      "Ġwhile": 1415,
      "Ġwithout": 1416,
      "und": 1417,
      "ational": 1418,
      "logy": 1419,
      "Ġcompanies": 1420,
      "Ġanything": 1421,
      "Ġused": 1422,
      "Ġupdate": 1423,
      "pellant": 1424,
      "Were": 1425,
      "Yup": 1426,
      "ian": 1427,
      "truck": 1428,
      "Ġside": 1429,
      "Ġtomor": 1430,
      "omm": 1431,
      "ential": 1432,
      "Ġmoon": 1433,
      "Ġmaking": 1434,
      "ĠNot": 1435,
      "ĠStarlink": 1436,
      "Ġloc": 1437,
      "Ġusing": 1438,
      "Ġincl": 1439,
      "exas": 1440,
      "Ġtomorrow": 1441,
      "dd": 1442,
      "gress": 1443,
      "ten": 1444,
      "Ġtons": 1445,
      "reed": 1446,
      "Ġbad": 1447,
      "ids": 1448,
      "Ġpos": 1449,
      "Ġfeel": 1450,
      "What": 1451,
      "Ġidea": 1452,
      "Wow": 1453,
      "ier": 1454,
      "ium": 1455,
      "med": 1456,
      "ĠQ": 1457,
      "Ġsatell": 1458,
      "Ġhalf": 1459,
      "ĠTexas": 1460,
      "Ġyet": 1461,
      "Ġstop": 1462,
      "ield": 1463,
      "ybertruck": 1464,
      "Ġuntil": 1465,
      "iant": 1466,
      "Ġcare": 1467,
      "Ġcurrent": 1468,
      "Ġfly": 1469,
      "Ġmot": 1470,
      "Ġhis": 1471,
      "mpt": 1472,
      "alif": 1473,
      "icult": 1474,
      "pecially": 1475,
      "ourse": 1476,
      "ives": 1477,
      "Ġcompet": 1478,
      "Ġplay": 1479,
      "Ġhardware": 1480,
      "Starship": 1481,
      "Ġbecause": 1482,
      "Ġarticle": 1483,
      "All": 1484,
      "SpaceX": 1485,
      "Ġ+": 1486,
      "Ġton": 1487,
      "Ġach": 1488,
      "ata": 1489,
      "Ġfully": 1490,
      "Ġreach": 1491,
      "Ġstand": 1492,
      "ulation": 1493,
      "ĠThere": 1494,
      "iven": 1495,
      "ĠLA": 1496,
      "olutely": 1497,
      "ax": 1498,
      "gt": 1499,
      "erlin": 1500,
      "its": 1501,
      "Ġhome": 1502,
      "ality": 1503,
      "ict": 1504,
      "ases": 1505,
      "Ġbel": 1506,
      "iming": 1507,
      "Ġyoure": 1508,
      "Ġmove": 1509,
      "eak": 1510,
      "Ġpost": 1511,
      "Ġfav": 1512,
      "Ġimo": 1513,
      "Ġregulat": 1514,
      "aliforn": 1515,
      "ger": 1516,
      "pr": 1517,
      "port": 1518,
      "ites": 1519,
      "arn": 1520,
      "Ġnight": 1521,
      "aces": 1522,
      "raft": 1523,
      "Ġcomb": 1524,
      "ization": 1525,
      "Ġfund": 1526,
      "Ġtechno": 1527,
      "Ġcalled": 1528,
      "Do": 1529,
      "ake": 1530,
      "eck": 1531,
      "tw": 1532,
      "Ġturn": 1533,
      "Ġaway": 1534,
      "eres": 1535,
      "Ġbl": 1536,
      "Ġbra": 1537,
      "Ġcant": 1538,
      "Ġcase": 1539,
      "Ġstage": 1540,
      "Ġatt": 1541,
      "Ġhead": 1542,
      "ween": 1543,
      "iously": 1544,
      "lanet": 1545,
      "alifornia": 1546,
      "To": 1547,
      "ai": 1548,
      "bal": 1549,
      "ec": 1550,
      "Ġcre": 1551,
      "Ġmiles": 1552,
      "Ġdon": 1553,
      "Ġhy": 1554,
      "Ġexper": 1555,
      "velop": 1556,
      "Ġoption": 1557,
      "Ġac": 1558,
      "orth": 1559,
      "Ġdet": 1560,
      "Ġyes": 1561,
      "Ġroof": 1562,
      "Ġable": 1563,
      "ctions": 1564,
      "apid": 1565,
      "other": 1566,
      "formance": 1567,
      "Ġvolume": 1568,
      "craft": 1569,
      "eg": 1570,
      "ever": 1571,
      "erally": 1572,
      "Ġslight": 1573,
      "Ġfl": 1574,
      "Ġrear": 1575,
      "ought": 1576,
      "ending": 1577,
      "Ġdriving": 1578,
      "Ġcenter": 1579,
      "Ġextremely": 1580,
      "Ġquestion": 1581,
      "Ġrisk": 1582,
      "Loo": 1583,
      "mb": 1584,
      "sh": 1585,
      "Ġsing": 1586,
      "Ġwater": 1587,
      "ator": 1588,
      "Ġcome": 1589,
      "Ġpack": 1590,
      "ĠSpace": 1591,
      "term": 1592,
      "ustom": 1593,
      "Ġpropellant": 1594,
      "Ġtry": 1595,
      "Ġdevelop": 1596,
      "They": 1597,
      "Ġbeta": 1598,
      "Ġparts": 1599,
      "Ġdifficult": 1600,
      "line": 1601,
      "Ġcourse": 1602,
      "Ġhot": 1603,
      "Ġvia": 1604,
      "Ġexpect": 1605,
      "ĠRo": 1606,
      "efinitely": 1607,
      "Ġpayload": 1608,
      "Ġespecially": 1609,
      "ave": 1610,
      "Ġhopefully": 1611,
      "Ġlet": 1612,
      "Ġprogress": 1613,
      "Ġbuy": 1614,
      "Ġmultip": 1615,
      "Ġtechnology": 1616,
      "Abs": 1617,
      "Also": 1618,
      "av": 1619,
      "lass": 1620,
      "ted": 1621,
      "uel": 1622,
      "Ġsustain": 1623,
      "Ġbody": 1624,
      "ising": 1625,
      "Ġfal": 1626,
      "ale": 1627,
      "Ġreview": 1628,
      "eler": 1629,
      "elcome": 1630,
      "ĠCalifornia": 1631,
      "ulations": 1632,
      "Ġvac": 1633,
      "Ġworth": 1634,
      "meric": 1635,
      "Ġwrong": 1636,
      "Ġvalue": 1637,
      "Ġagainst": 1638,
      "Ġzero": 1639,
      "Ġhours": 1640,
      "Pretty": 1641,
      "Absolutely": 1642,
      "wer": 1643,
      "Ġwont": 1644,
      "ities": 1645,
      "Ġmust": 1646,
      "Ġput": 1647,
      "ution": 1648,
      "ident": 1649,
      "ames": 1650,
      "ilt": 1651,
      "Ġrapid": 1652,
      "Ġbetween": 1653,
      "Ġbuilding": 1654,
      "Coming": 1655,
      "Sorry": 1656,
      "driving": 1657,
      "uss": 1658,
      "atic": 1659,
      "atically": 1660,
      "ists": 1661,
      "Ġdata": 1662,
      "Ġhold": 1663,
      "Ġforward": 1664,
      "amer": 1665,
      "Ġprice": 1666,
      "ĠNew": 1667,
      "Ġgeneral": 1668,
      "yes": 1669,
      "ital": 1670,
      "itude": 1671,
      "Ġdro": 1672,
      "Ġnet": 1673,
      "Ġreason": 1674,
      "ĠSo": 1675,
      "ĠAmeric": 1676,
      "Ġsecond": 1677,
      "ĠFor": 1678,
      "Ġfeature": 1679,
      "Ġimprovements": 1680,
      "ificant": 1681,
      "Ġeasy": 1682,
      "Ġfalse": 1683,
      "led": 1684,
      "not": 1685,
      "Ġcreat": 1686,
      "Ġox": 1687,
      "Ġsteel": 1688,
      "though": 1689,
      "ĠCape": 1690,
      "Ġmeans": 1691,
      "Ġgetting": 1692,
      "Ġrockets": 1693,
      "Ġmins": 1694,
      "Ġoptim": 1695,
      "Ġconsider": 1696,
      "Ġappreciated": 1697,
      "But": 1698,
      "Im": 1699,
      "sp": 1700,
      "ince": 1701,
      "Ġbar": 1702,
      "Ġcustom": 1703,
      "Ġlat": 1704,
      "asing": 1705,
      "Ġgot": 1706,
      "Ġgra": 1707,
      "Ġrest": 1708,
      "Ġstre": 1709,
      "ither": 1710,
      "Ġcover": 1711,
      "Ġconst": 1712,
      "Ġheat": 1713,
      "Ġcomm": 1714,
      "Ġprior": 1715,
      "Ġlooks": 1716,
      "Ġclos": 1717,
      "Ġinvest": 1718,
      "Ġmedia": 1719,
      "Ġreusable": 1720,
      "ommend": 1721,
      "Al": 1722,
      "eed": 1723,
      "ling": 1724,
      "wall": 1725,
      "Ġsum": 1726,
      "Ġcell": 1727,
      "ouse": 1728,
      "Ġold": 1729,
      "stand": 1730,
      "ots": 1731,
      "ĠMaybe": 1732,
      "opper": 1733,
      "ĠUn": 1734,
      "Ġauto": 1735,
      "Ġthought": 1736,
      "Ġincrease": 1737,
      "Ġsingle": 1738,
      "ute": 1739,
      "ention": 1740,
      "Ġdeep": 1741,
      "Ġabove": 1742,
      "raz": 1743,
      "Ġplace": 1744,
      "Ġquite": 1745,
      "Ġdidnt": 1746,
      "Ġupgrad": 1747,
      "Ġcomputer": 1748,
      "Falcon": 1749,
      "wor": 1750,
      "Ġlive": 1751,
      "Ġname": 1752,
      "ices": 1753,
      "tern": 1754,
      "Ġkind": 1755,
      "Ġcontin": 1756,
      "Ġacceler": 1757,
      "Ġapproval": 1758,
      "ĠComp": 1759,
      "My": 1760,
      "reen": 1761,
      "Ġwelcome": 1762,
      "oud": 1763,
      "lad": 1764,
      "Ġcoll": 1765,
      "Ġsell": 1766,
      "ode": 1767,
      "ĠPower": 1768,
      "loy": 1769,
      "Ġkm": 1770,
      "...": 1771,
      "Ġrecommend": 1772,
      "Ġcomplex": 1773,
      "Ġsignificant": 1774,
      "Ġdirect": 1775,
      "Am": 1776,
      "ug": 1777,
      "uro": 1778,
      "Ġ:": 1779,
      "ĠZ": 1780,
      "Ġfind": 1781,
      "Ġmach": 1782,
      "arm": 1783,
      "Ġhand": 1784,
      "ĠSe": 1785,
      "ched": 1786,
      "Ġrad": 1787,
      "Ġview": 1788,
      "Ġexc": 1789,
      "Ġdeal": 1790,
      "ush": 1791,
      "Ġdesigned": 1792,
      "Ġdisc": 1793,
      "Ġdeliver": 1794,
      "Ġnumber": 1795,
      "Ġfavor": 1796,
      "lanetary": 1797,
      "Ġslightly": 1798,
      "Cool": 1799,
      "First": 1800,
      "He": 1801,
      "Nice": 1802,
      "Very": 1803,
      "ob": 1804,
      "oid": 1805,
      "ones": 1806,
      "Ġbit": 1807,
      "Ġmid": 1808,
      "Ġhope": 1809,
      "Ġgame": 1810,
      "imes": 1811,
      "imate": 1812,
      "ird": 1813,
      "urb": 1814,
      "Ġtrying": 1815,
      "Ġtruck": 1816,
      "Ġmain": 1817,
      "Ġmean": 1818,
      "Ġanyone": 1819,
      "ccess": 1820,
      "gram": 1821,
      "Ġreturn": 1822,
      "ĠDoge": 1823,
      "Ġchanges": 1824,
      "ĠSupercharger": 1825,
      "where": 1826,
      "Should": 1827,
      "witter": 1828,
      "Ġbelieve": 1829,
      "50": 1830,
      "zz": 1831,
      "ined": 1832,
      "Ġsound": 1833,
      "Ġslow": 1834,
      "Ġsize": 1835,
      "Ġwide": 1836,
      "Ġfuel": 1837,
      "Ġhere": 1838,
      "Ġrun": 1839,
      "urate": 1840,
      "Ġword": 1841,
      "Ġrob": 1842,
      "Ġalthough": 1843,
      "lock": 1844,
      "Ġmem": 1845,
      "Ġgoal": 1846,
      "ĠOn": 1847,
      "Ġamount": 1848,
      "ibly": 1849,
      "Ġadvanced": 1850,
      "Ġlimited": 1851,
      "!?": 1852,
      "Some": 1853,
      "cing": 1854,
      "ech": 1855,
      "uly": 1856,
      "ygen": 1857,
      "Ġtwe": 1858,
      "ony": 1859,
      "atulations": 1860,
      "Ġcamer": 1861,
      "ism": 1862,
      "ouble": 1863,
      "Ġmph": 1864,
      "Ġdist": 1865,
      "ross": 1866,
      "Ġeach": 1867,
      "Ġste": 1868,
      "Ġflights": 1869,
      "Inter": 1870,
      "Ġtraffic": 1871,
      "Ġfairing": 1872,
      "razy": 1873,
      "greed": 1874,
      "Ġsal": 1875,
      "Ġcry": 1876,
      "Ġfine": 1877,
      "eng": 1878,
      "arch": 1879,
      "Ġpie": 1880,
      "leet": 1881,
      "ased": 1882,
      "ĠSolar": 1883,
      "Ġanal": 1884,
      "ters": 1885,
      "Ġneg": 1886,
      "ament": 1887,
      "ĠCybertruck": 1888,
      "Ġworks": 1889,
      "duction": 1890,
      "ends": 1891,
      "Ġbuilt": 1892,
      "Ġleg": 1893,
      "Ġfail": 1894,
      "Ġfaster": 1895,
      "Ġvehicles": 1896,
      "Ġdifference": 1897,
      "Ġcritical": 1898,
      "Ġsustainable": 1899,
      "Ġoxygen": 1900,
      "Ab": 1901,
      "As": 1902,
      "Act": 1903,
      "gn": 1904,
      "ufact": 1905,
      "Ġterm": 1906,
      "ern": 1907,
      "Ġwa": 1908,
      "Ġcity": 1909,
      "Ġcred": 1910,
      "Ġcorrect": 1911,
      "acking": 1912,
      "thers": 1913,
      "Ġjour": 1914,
      "ĠBoring": 1915,
      "ivil": 1916,
      "Ġpres": 1917,
      "Ġtesting": 1918,
      "Ġaccess": 1919,
      "ether": 1920,
      "ysics": 1921,
      "Ġhumanity": 1922,
      "ollow": 1923,
      "Ġkeep": 1924,
      "Agreed": 1925,
      "Definitely": 1926,
      "aid": 1927,
      "ience": 1928,
      "ub": 1929,
      "Ġca": 1930,
      "Ġcrazy": 1931,
      "ision": 1932,
      "Ġnon": 1933,
      "Ġgive": 1934,
      "Ġanother": 1935,
      "adster": 1936,
      "Ġarea": 1937,
      "ĠHe": 1938,
      "quid": 1939,
      "Ġload": 1940,
      "Ġagree": 1941,
      "Ġlonger": 1942,
      "Youre": 1943,
      "Ġliterally": 1944,
      "Ġdefinitely": 1945,
      "coin": 1946,
      "Ġissues": 1947,
      "Ġsatellites": 1948,
      "Ġregulatory": 1949,
      "Most": 1950,
      "lor": 1951,
      "ning": 1952,
      "ract": 1953,
      "uum": 1954,
      "Ġcertain": 1955,
      "Ġmind": 1956,
      "Ġtop": 1957,
      "Ġok": 1958,
      "Ġisnt": 1959,
      "Ġeffic": 1960,
      "cture": 1961,
      "Ġann": 1962,
      "Ġabs": 1963,
      "Ġmostly": 1964,
      "Ġnews": 1965,
      "Ġwhole": 1966,
      "ocus": 1967,
      "Ġground": 1968,
      "Ġtravel": 1969,
      "1000": 1970,
      "20": 1971,
      "Or": 1972,
      "One": 1973,
      "las": 1974,
      "ton": 1975,
      "wise": 1976,
      "Ġothers": 1977,
      "Ġevent": 1978,
      "ably": 1979,
      "ppy": 1980,
      "Ġnothing": 1981,
      "oughly": 1982,
      "conom": 1983,
      "bability": 1984,
      "Ġspec": 1985,
      "Ġdifferent": 1986,
      "Ġfront": 1987,
      "Ġpositive": 1988,
      "Ġdetail": 1989,
      "Sounds": 1990,
      "ny": 1991,
      "ries": 1992,
      "yc": 1993,
      "Ġaffect": 1994,
      "Ġbro": 1995,
      "ouch": 1996,
      "Ġeffect": 1997,
      "Ġform": 1998,
      "Ġstock": 1999,
      "Ġsuccess": 2000,
      "Ġkids": 2001,
      "Ġprec": 2002,
      "Ġactual": 2003,
      "Ġprim": 2004,
      "Ġrequired": 2005,
      "Ġmatters": 2006,
      "Congratulations": 2007,
      "cent": 2008,
      "put": 2009,
      "yond": 2010,
      "Ġ!": 2011,
      "Ġthree": 2012,
      "Ġfleet": 2013,
      "Ġdest": 2014,
      "ĠTwitter": 2015,
      "ada": 2016,
      "oop": 2017,
      "Ġprogram": 2018,
      "ĠAt": 2019,
      "ify": 2020,
      "pper": 2021,
      "Ġdeath": 2022,
      "ĠBet": 2023,
      "Ġsuch": 2024,
      "ĠHow": 2025,
      "Ġsomeone": 2026,
      "Ġleft": 2027,
      "Ġlegs": 2028,
      "New": 2029,
      "Ġupgrade": 2030,
      "Ġmanufact": 2031,
      "Ġstandard": 2032,
      "ĠRoadster": 2033,
      "face": 2034,
      "Ġtank": 2035,
      "Ġsun": 2036,
      "Ġwin": 2037,
      "Ġburn": 2038,
      "Ġcivil": 2039,
      "Ġmark": 2040,
      "eds": 2041,
      "Ġgiant": 2042,
      "eter": 2043,
      "Ġnear": 2044,
      "Ġprop": 2045,
      "Ġprot": 2046,
      "Ġcore": 2047,
      "Ġroom": 2048,
      "ĠEuro": 2049,
      "aining": 2050,
      "aps": 2051,
      "istory": 2052,
      "Ġperformance": 2053,
      "oca": 2054,
      "Ġeveryone": 2055,
      "Ġimprovement": 2056,
      "Ġtunnels": 2057,
      "Ġentire": 2058,
      "like": 2059,
      "aunch": 2060,
      "na": 2061,
      "iny": 2062,
      "Ġsn": 2063,
      "Ġflow": 2064,
      "ited": 2065,
      "itch": 2066,
      "Ġinit": 2067,
      "veil": 2068,
      "Ġrele": 2069,
      "Ġrece": 2070,
      "Ġprob": 2071,
      "ĠAll": 2072,
      "pping": 2073,
      "ults": 2074,
      "ĠWere": 2075,
      "ĠBoca": 2076,
      "Ġcheck": 2077,
      "Ġarr": 2078,
      "Ġ~$": 2079,
      "mos": 2080,
      "Well": 2081,
      "Ġitself": 2082,
      "Ġcosts": 2083,
      "Ġsafe": 2084,
      "ĠWhat": 2085,
      "Ġmultiplanetary": 2086,
      "How": 2087,
      "High": 2088,
      "Hopefully": 2089,
      "aw": 2090,
      "ral": 2091,
      "vt": 2092,
      "Ġtough": 2093,
      "ints": 2094,
      "Ġsens": 2095,
      "Ġsounds": 2096,
      "Ġsince": 2097,
      "Ġfollow": 2098,
      "Ġmillion": 2099,
      "Ġpain": 2100,
      "Ġdens": 2101,
      "Ġlarg": 2102,
      "Ġlarge": 2103,
      "Ġinf": 2104,
      "Ġready": 2105,
      "Ġemp": 2106,
      "Ġeither": 2107,
      "vert": 2108,
      "unk": 2109,
      "Ġcold": 2110,
      "ĠWould": 2111,
      "Ġexist": 2112,
      "Ġexactly": 2113,
      "ortun": 2114,
      "Ġsugg": 2115,
      "ĠDe": 2116,
      "Ġfunction": 2117,
      "Ġunderstand": 2118,
      "ĠIntern": 2119,
      "Ġseems": 2120,
      "Ġissue": 2121,
      "Ġfixed": 2122,
      "Ġinstall": 2123,
      "Ġmotor": 2124,
      "Ġrapidly": 2125,
      "Interesting": 2126,
      "About": 2127,
      "'m": 2128,
      "ler": 2129,
      "lish": 2130,
      "po": 2131,
      "que": 2132,
      "ination": 2133,
      "Ġsw": 2134,
      "llent": 2135,
      "Ġpan": 2136,
      "Ġstar": 2137,
      "Ġra": 2138,
      "ĠAl": 2139,
      "cept": 2140,
      "ĠThats": 2141,
      "ĠThanks": 2142,
      "ĠFr": 2143,
      "Ġdeb": 2144,
      "orts": 2145,
      "Ġchance": 2146,
      "cient": 2147,
      "Ġunveil": 2148,
      "Ġincred": 2149,
      "Ġrepl": 2150,
      "Ġautomatically": 2151,
      "Ġcombust": 2152,
      "Ġfundament": 2153,
      "Ġvacuum": 2154,
      "ĠCompany": 2155,
      "ĠPowerwall": 2156,
      "500": 2157,
      "Se": 2158,
      "cr": 2159,
      "head": 2160,
      "ken": 2161,
      "nect": 2162,
      "Ġed": 2163,
      "err": 2164,
      "Ġfil": 2165,
      "Ġfocus": 2166,
      "Ġpast": 2167,
      "Ġtot": 2168,
      "Ġduring": 2169,
      "Ġlab": 2170,
      "Ġred": 2171,
      "Ġrel": 2172,
      "Ġequ": 2173,
      "Ġeconom": 2174,
      "Ġonline": 2175,
      "entially": 2176,
      "ĠIve": 2177,
      "laid": 2178,
      "Ġwheel": 2179,
      "irm": 2180,
      "Ġmoving": 2181,
      "Ġsubs": 2182,
      "log": 2183,
      "ĠStation": 2184,
      "Ġfeed": 2185,
      "Ġlaw": 2186,
      "Ġreality": 2187,
      "Ġweekend": 2188,
      "Ġsaying": 2189,
      "Ġmachine": 2190,
      "Ġnegative": 2191,
      "Ch": 2192,
      "go": 2193,
      "par": 2194,
      "side": 2195,
      "inks": 2196,
      "onom": 2197,
      "Ġsent": 2198,
      "Ġthre": 2199,
      "Ġfound": 2200,
      "Ġfri": 2201,
      "Ġpad": 2202,
      "Ġplease": 2203,
      "Ġhistory": 2204,
      "rot": 2205,
      "Ġbeg": 2206,
      "acks": 2207,
      "ote": 2208,
      "Ġprobability": 2209,
      "ĠCH": 2210,
      "Ġord": 2211,
      "Ġvent": 2212,
      "Ġliquid": 2213,
      "Ġgovt": 2214,
      "ems": 2215,
      "cience": 2216,
      "Ġplus": 2217,
      "Ġuseful": 2218,
      "Ġfactor": 2219,
      "Ġphone": 2220,
      "Ġcomplete": 2221,
      "ocket": 2222,
      "Ġbatteries": 2223,
      "Ġcountries": 2224,
      "Ġvision": 2225,
      "ounce": 2226,
      "Ġlocal": 2227,
      "Dragon": 2228,
      "Imp": 2229,
      "Of": 2230,
      "Super": 2231,
      "Would": 2232,
      "bon": 2233,
      "iam": 2234,
      "oy": 2235,
      "pl": 2236,
      "ump": 2237,
      "Ġbre": 2238,
      "Ġcause": 2239,
      "Ġmess": 2240,
      "Ġpot": 2241,
      "Ġglo": 2242,
      "Ġgames": 2243,
      "acing": 2244,
      "Ġredu": 2245,
      "oty": 2246,
      "amber": 2247,
      "iring": 2248,
      "ĠAm": 2249,
      "oping": 2250,
      "aby": 2251,
      "Ġmov": 2252,
      "pped": 2253,
      "Ġshield": 2254,
      "ules": 2255,
      "ĠEx": 2256,
      "Ġchall": 2257,
      "ains": 2258,
      "Ġthanks": 2259,
      "ĠStar": 2260,
      "ires": 2261,
      "Ġbigger": 2262,
      "Ġrecord": 2263,
      "ysis": 2264,
      "Ġtalk": 2265,
      "Only": 2266,
      "aila": 2267,
      "Ġhyd": 2268,
      "Ġsales": 2269,
      "Ġpiece": 2270,
      "ĠEurope": 2271,
      "mosph": 2272,
      "gle": 2273,
      "swer": 2274,
      "ta": 2275,
      "uff": 2276,
      "Ġwon": 2277,
      "Ġwish": 2278,
      "ators": 2279,
      "Ġfo": 2280,
      "Ġmer": 2281,
      "Ġdate": 2282,
      "Ġline": 2283,
      "Ġgiven": 2284,
      "acy": 2285,
      "Ġel": 2286,
      "vern": 2287,
      "Ġstru": 2288,
      "ĠMore": 2289,
      "ilar": 2290,
      "ĠAs": 2291,
      "Ġgovern": 2292,
      "ored": 2293,
      "Ġtheyre": 2294,
      "Ġtests": 2295,
      "ference": 2296,
      "Ġfinish": 2297,
      "Ġaddress": 2298,
      "Ġconfig": 2299,
      "Ġstrong": 2300,
      "Ġachie": 2301,
      "Ġcreate": 2302,
      "ĠAmerica": 2303,
      "Ġanalysis": 2304,
      "Ġsuggest": 2305,
      "At": 2306,
      "Ma": 2307,
      "More": 2308,
      "back": 2309,
      "gest": 2310,
      "Ġtiny": 2311,
      "Ġbase": 2312,
      "Ġcal": 2313,
      "ission": 2314,
      "Ġhim": 2315,
      "Ġbeyond": 2316,
      "iday": 2317,
      "ĠMy": 2318,
      "ĠMost": 2319,
      "Ġwithin": 2320,
      "Ġmod": 2321,
      "Ġorig": 2322,
      "ummon": 2323,
      "ĠBut": 2324,
      "Ġsus": 2325,
      "ĠEV": 2326,
      "Ġhear": 2327,
      "izing": 2328,
      "istic": 2329,
      "Ġtakes": 2330,
      "Ġsolution": 2331,
      "Ġaccurate": 2332,
      "When": 2333,
      "Ġparty": 2334,
      "iverse": 2335,
      "wards": 2336,
      "Ġavaila": 2337,
      "Ġsky": 2338,
      "Ġtonight": 2339,
      "Ġblack": 2340,
      "Ġdensity": 2341,
      "Ġcombustion": 2342,
      "Me": 2343,
      "Wor": 2344,
      "ivery": 2345,
      "iency": 2346,
      "meth": 2347,
      "tical": 2348,
      "Ġut": 2349,
      "inc": 2350,
      "Ġcatch": 2351,
      "Ġmile": 2352,
      "Ġmention": 2353,
      "Ġpm": 2354,
      "Ġpur": 2355,
      "Ġhouse": 2356,
      "roll": 2357,
      "Ġoffer": 2358,
      "Ġbeh": 2359,
      "eting": 2360,
      "Ġonce": 2361,
      "oms": 2362,
      "omet": 2363,
      "entry": 2364,
      "Ġult": 2365,
      "ading": 2366,
      "Ġstud": 2367,
      "ĠMay": 2368,
      "Ġramp": 2369,
      "anding": 2370,
      "ĠHopefully": 2371,
      "Ġchamber": 2372,
      "ĠGo": 2373,
      "ĠGreat": 2374,
      "Ġtook": 2375,
      "Ġworked": 2376,
      "Ġlaunches": 2377,
      "rupt": 2378,
      "anger": 2379,
      "Ġcrash": 2380,
      "Ġexcept": 2381,
      "Ġbased": 2382,
      "Ġobvious": 2383,
      "Congrats": 2384,
      "Actually": 2385,
      "30": 2386,
      "AW": 2387,
      "Please": 2388,
      "ike": 2389,
      "oke": 2390,
      "sing": 2391,
      "sure": 2392,
      "ugh": 2393,
      "Ġturb": 2394,
      "Ġtheres": 2395,
      "arter": 2396,
      "Ġdouble": 2397,
      "Ġlate": 2398,
      "stron": 2399,
      "Ġbelow": 2400,
      "Ġstate": 2401,
      "Ġprovid": 2402,
      "Ġroughly": 2403,
      "iful": 2404,
      "Ġhaving": 2405,
      "Ġatte": 2406,
      "Ġseen": 2407,
      "ands": 2408,
      "ĠBerlin": 2409,
      "ssibly": 2410,
      "ĠNY": 2411,
      "ĠEven": 2412,
      "ived": 2413,
      "ared": 2414,
      "Ġmeant": 2415,
      "ired": 2416,
      "Ġcarbon": 2417,
      "ĠLoo": 2418,
      "Ġgets": 2419,
      "Ġunless": 2420,
      "Ġharder": 2421,
      "ĠOr": 2422,
      "othing": 2423,
      "Ġspaces": 2424,
      "Ġlooking": 2425,
      "rib": 2426,
      "Ġfins": 2427,
      "ĠShould": 2428,
      "Ġhappened": 2429,
      "Ġavoid": 2430,
      "Ġdeploy": 2431,
      "Ġinclud": 2432,
      "Ġachieve": 2433,
      "Looks": 2434,
      "Ġcivilization": 2435,
      "ĠInternet": 2436,
      "Ġavailable": 2437,
      "ears": 2438,
      "ik": 2439,
      "oice": 2440,
      "Ġsour": 2441,
      "Ġbought": 2442,
      "Ġpure": 2443,
      "Ġlist": 2444,
      "Ġgrow": 2445,
      "igate": 2446,
      "idual": 2447,
      "Ġupper": 2448,
      "Thank": 2449,
      "Ġmode": 2450,
      "Ġenable": 2451,
      "Ġatmosph": 2452,
      "Ġshe": 2453,
      "Ġass": 2454,
      "Ġvar": 2455,
      "ĠHigh": 2456,
      "Ġimpact": 2457,
      "Ġnozz": 2458,
      "Ġcomes": 2459,
      "Ġspecial": 2460,
      "Ġeverything": 2461,
      "aptors": 2462,
      "Ġscale": 2463,
      "Ġdelivery": 2464,
      "Ġfavorite": 2465,
      "methrow": 2466,
      "'re": 2467,
      "Love": 2468,
      "Ph": 2469,
      "Raptor": 2470,
      "With": 2471,
      "city": 2472,
      "down": 2473,
      "eels": 2474,
      "ien": 2475,
      "just": 2476,
      "nically": 2477,
      "to": 2478,
      "vity": 2479,
      "ret": 2480,
      "Ġboring": 2481,
      "arily": 2482,
      "Ġpic": 2483,
      "Ġpaid": 2484,
      "Ġheavy": 2485,
      "Ġbeaut": 2486,
      "ĠSome": 2487,
      "ĠSummon": 2488,
      "Ġanswer": 2489,
      "amed": 2490,
      "ĠAust": 2491,
      "ively": 2492,
      "ĠNow": 2493,
      "Ġtell": 2494,
      "Ġpred": 2495,
      "ĠOur": 2496,
      "arget": 2497,
      "Ġaccount": 2498,
      "Ġinterest": 2499,
      "Ġbecome": 2500,
      "Ġclean": 2501,
      "Ġbasically": 2502,
      "Ġindust": 2503,
      "Ġsimply": 2504,
      "Ġcurrently": 2505,
      "Ġpriority": 2506,
      "Ġradar": 2507,
      "ĠOnly": 2508,
      "Ġfundamental": 2509,
      ".\"": 2510,
      "Fair": 2511,
      "Oh": 2512,
      "SA": 2513,
      "ole": 2514,
      "ossible": 2515,
      "rit": 2516,
      "uge": 2517,
      "Ġtanks": 2518,
      "Ġtouch": 2519,
      "Ġaction": 2520,
      "Ġwent": 2521,
      "Ġwatch": 2522,
      "Ġcor": 2523,
      "Ġpop": 2524,
      "Ġpod": 2525,
      "Ġopp": 2526,
      "icul": 2527,
      "uth": 2528,
      "Ġem": 2529,
      "ents": 2530,
      "ĠMon": 2531,
      "ĠAnd": 2532,
      "une": 2533,
      "Ġconnect": 2534,
      "ivity": 2535,
      "Ġlog": 2536,
      "Ġengineers": 2537,
      "Ġtaking": 2538,
      "Ġproud": 2539,
      "Ġinternal": 2540,
      "Ġthrusters": 2541,
      "Ġrepair": 2542,
      "Ġtransport": 2543,
      "Ġincreasing": 2544,
      "Ġproducts": 2545,
      "Ġrolling": 2546,
      "Ġmetal": 2547,
      "ĠProbably": 2548,
      "Almost": 2549,
      "Ġcaus": 2550,
      "Ġefficiency": 2551,
      "Ġtotal": 2552,
      "Ġelse": 2553,
      "Ġgovernment": 2554,
      "ometimes": 2555,
      "Launch": 2556,
      "Our": 2557,
      "haps": 2558,
      "person": 2559,
      "yper": 2560,
      "Ġsmo": 2561,
      "orway": 2562,
      "Ġcyc": 2563,
      "Ġdiam": 2564,
      "Ġlas": 2565,
      "Ġnorm": 2566,
      "Ġoften": 2567,
      "utes": 2568,
      "vers": 2569,
      "Ġur": 2570,
      "ĠIsp": 2571,
      "Ġstor": 2572,
      "Ġstore": 2573,
      "Ġneural": 2574,
      "ĠAre": 2575,
      "urs": 2576,
      "Ġtrip": 2577,
      "Ġnote": 2578,
      "umb": 2579,
      "Ġconc": 2580,
      "Ġdeg": 2581,
      "Ġdemo": 2582,
      "action": 2583,
      "ĠPlease": 2584,
      "locity": 2585,
      "ĠRaptors": 2586,
      "Ġpol": 2587,
      "aster": 2588,
      "ĠGood": 2589,
      "Ġhell": 2590,
      "Ġnose": 2591,
      "Ġactive": 2592,
      "Ġlead": 2593,
      "Ġdriver": 2594,
      "Ġdrones": 2595,
      "Ġprices": 2596,
      "Ġotherwise": 2597,
      "Ġresults": 2598,
      "Ġautonom": 2599,
      "Ġvelocity": 2600,
      "Ġinsane": 2601,
      "Ġjob": 2602,
      "Ġsimple": 2603,
      "factory": 2604,
      "Ġflaps": 2605,
      "Ġcloser": 2606,
      "Ġwait": 2607,
      "Ġcredit": 2608,
      "Ġprimary": 2609,
      "Ġventil": 2610,
      "Ġattempt": 2611,
      "19": 2612,
      "Ind": 2613,
      "Now": 2614,
      "fect": 2615,
      "loop": 2616,
      "pon": 2617,
      "time": 2618,
      "ule": 2619,
      "Ġess": 2620,
      "Ġide": 2621,
      "Ġtiles": 2622,
      "Ġfig": 2623,
      "Ġdual": 2624,
      "Ġlay": 2625,
      "Ġglass": 2626,
      "ĠTo": 2627,
      "ently": 2628,
      "ook": 2629,
      "Ġstatic": 2630,
      "Ġweather": 2631,
      "irth": 2632,
      "iration": 2633,
      "Ġprof": 2634,
      "Ġrules": 2635,
      "ĠAr": 2636,
      "Ġarent": 2637,
      "Ġcode": 2638,
      "Ġenab": 2639,
      "Ġask": 2640,
      "ĠPlaid": 2641,
      "Ġheight": 2642,
      "Ġheard": 2643,
      "istics": 2644,
      "ĠUAW": 2645,
      "Ġrespect": 2646,
      "ages": 2647,
      "Ġmaxim": 2648,
      "Ġsurpr": 2649,
      "Ġexcellent": 2650,
      "Ġoperating": 2651,
      "Ġirony": 2652,
      "Ġmanufacturing": 2653,
      "Ġmarket": 2654,
      "Ġorders": 2655,
      "Ġmovie": 2656,
      "Ġindustry": 2657,
      "Ġdroneship": 2658,
      "De": 2659,
      "Dont": 2660,
      "Glad": 2661,
      "Rocket": 2662,
      "Un": 2663,
      "dit": 2664,
      "ee": 2665,
      "hor": 2666,
      "pro": 2667,
      "sigh": 2668,
      "vir": 2669,
      "Ġsched": 2670,
      "res": 2671,
      "Ġfall": 2672,
      "outh": 2673,
      "itcoin": 2674,
      "Ġmom": 2675,
      "Ġpeak": 2676,
      "Ġdig": 2677,
      "Ġhon": 2678,
      "omes": 2679,
      "Ġstory": 2680,
      "ithium": 2681,
      "ures": 2682,
      "Ġtrick": 2683,
      "Ġmagn": 2684,
      "Ġdem": 2685,
      "fford": 2686,
      "ĠVery": 2687,
      "Ġincent": 2688,
      "Ġimproved": 2689,
      "Ġrealize": 2690,
      "\"\"\"": 2691,
      "ressive": 2692,
      "Ġbiggest": 2693,
      "Ġminim": 2694,
      "Ġpump": 2695,
      "Ġfinal": 2696,
      "Ġrequest": 2697,
      "Ġobject": 2698,
      "Ġguess": 2699,
      "Ġclimate": 2700,
      "uralink": 2701,
      "Ġmissions": 2702,
      "Ġbring": 2703,
      "Ġacross": 2704,
      "Looking": 2705,
      "Ġcertainly": 2706,
      "Ġannounce": 2707,
      "Ġdetails": 2708,
      "ĠBeta": 2709,
      "personic": 2710,
      "yperloop": 2711,
      "Ġdiameter": 2712,
      "Aut": 2713,
      "averal": 2714,
      "ians": 2715,
      "ube": 2716,
      "wide": 2717,
      "Ġsit": 2718,
      "Ġsite": 2719,
      "rend": 2720,
      "Ġthrot": 2721,
      "Ġcases": 2722,
      "Ġmill": 2723,
      "Ġmount": 2724,
      "Ġdam": 2725,
      "alth": 2726,
      "Ġrender": 2727,
      "Ġele": 2728,
      "Ġforce": 2729,
      "ĠSm": 2730,
      "idth": 2731,
      "ĠImp": 2732,
      "the": 2733,
      "ĠMerlin": 2734,
      "Ġwhite": 2735,
      "Ġrat": 2736,
      "ĠApp": 2737,
      "Ġshare": 2738,
      "Ġseats": 2739,
      "ĠHW": 2740,
      "ĠPer": 2741,
      "ivate": 2742,
      "ĠStill": 2743,
      "Ġheating": 2744,
      "Ġscreen": 2745,
      "Ġbook": 2746,
      "Ġsystems": 2747,
      "Ġmassive": 2748,
      "Ġrequires": 2749,
      "olution": 2750,
      "Ġsurface": 2751,
      "Ġcapac": 2752,
      "Ġtalent": 2753,
      "ĠGigafactory": 2754,
      "ĠCanaveral": 2755,
      "Ġexperience": 2756,
      "Ġgravity": 2757,
      "Ġupgrades": 2758,
      "Ġcameras": 2759,
      "Ġprototy": 2760,
      "Ġincredible": 2761,
      "Ġpotential": 2762,
      "Ġglobal": 2763,
      "Ġoriginal": 2764,
      "Ġnormal": 2765,
      "'ve": 2766,
      "Bet": 2767,
      "Over": 2768,
      "Solar": 2769,
      "ah": 2770,
      "bo": 2771,
      "bers": 2772,
      "eam": 2773,
      "hopper": 2774,
      "mm": 2775,
      "ner": 2776,
      "og": 2777,
      "esign": 2778,
      "eslas": 2779,
      "Ġbank": 2780,
      "Ġblock": 2781,
      "Ġbirth": 2782,
      "Ġcat": 2783,
      "Ġcash": 2784,
      "Ġpath": 2785,
      "Ġdanger": 2786,
      "level": 2787,
      "Ġrev": 2788,
      "ĠSp": 2789,
      "Ġant": 2790,
      "ooster": 2791,
      "Ġstep": 2792,
      "ĠMach": 2793,
      "irc": 2794,
      "irt": 2795,
      "ury": 2796,
      "ife": 2797,
      "ĠWor": 2798,
      "ĠPh": 2799,
      "Ġcharge": 2800,
      "usic": 2801,
      "usion": 2802,
      "Ġgreater": 2803,
      "Ġarg": 2804,
      "Ġsolve": 2805,
      "Ġaircraft": 2806,
      "Ġimmed": 2807,
      "Ġversions": 2808,
      "Ġentry": 2809,
      "Ġcountry": 2810,
      "Ġappreciate": 2811,
      "Ġextreme": 2812,
      "Ġsimulation": 2813,
      "ĠCanada": 2814,
      "undred": 2815,
      "work": 2816,
      "Ġexciting": 2817,
      "ortunately": 2818,
      "Ġpanels": 2819,
      "Ġfeedback": 2820,
      "Ġhydro": 2821,
      "Ġnozzle": 2822,
      "Ġpredict": 2823,
      "viron": 2824,
      "Ġimmedi": 2825,
      "60": 2826,
      "Aiming": 2827,
      "Go": 2828,
      "SN": 2829,
      "bur": 2830,
      "egr": 2831,
      "me": 2832,
      "oon": 2833,
      "rass": 2834,
      "self": 2835,
      "vin": 2836,
      "Ġign": 2837,
      "Ġerr": 2838,
      "Ġtarget": 2839,
      "Ġafford": 2840,
      "ream": 2841,
      "Ġwar": 2842,
      "Ġbot": 2843,
      "Ġblow": 2844,
      "Ġbillion": 2845,
      "Ġcur": 2846,
      "arant": 2847,
      "Ġpush": 2848,
      "Ġdut": 2849,
      "Ġhor": 2850,
      "Ġhat": 2851,
      "Ġinj": 2852,
      "ĠTr": 2853,
      "Ġep": 2854,
      "elves": 2855,
      "ĠInd": 2856,
      "ĠMk": 2857,
      "ĠMode": 2858,
      "Ġbutton": 2859,
      "Ġprom": 2860,
      "Ġshot": 2861,
      "ured": 2862,
      "Ġtrack": 2863,
      "Ġtraining": 2864,
      "Ġvast": 2865,
      "Ġcharg": 2866,
      "Ġmech": 2867,
      "Ġimpossible": 2868,
      "ĠLot": 2869,
      "ously": 2870,
      "Ġusually": 2871,
      "Ġlearn": 2872,
      "ĠJuly": 2873,
      "Ġintegr": 2874,
      "Ġcontract": 2875,
      "Ġperm": 2876,
      "Ġperfect": 2877,
      "Happy": 2878,
      "Ġserve": 2879,
      "Ġsupply": 2880,
      "unning": 2881,
      "Ġvertical": 2882,
      "Ġhappy": 2883,
      "Ġadding": 2884,
      "Ġproblems": 2885,
      "Ġinside": 2886,
      "Next": 2887,
      "ounter": 2888,
      "Ġwindow": 2889,
      "Any": 2890,
      "Ġsatellite": 2891,
      "pril": 2892,
      "Ġbrain": 2893,
      "Ġtweet": 2894,
      "Ġcryo": 2895,
      "Ġpresent": 2896,
      "ĠHowever": 2897,
      "Ġlarger": 2898,
      "Ġthread": 2899,
      "methrower": 2900,
      "Ġbeautiful": 2901,
      "Ġdemand": 2902,
      "Ġratio": 2903,
      "Btw": 2904,
      "Can": 2905,
      "EO": 2906,
      "Mars": 2907,
      "PA": 2908,
      "Turn": 2909,
      "Worth": 2910,
      "akes": 2911,
      "bh": 2912,
      "fortunately": 2913,
      "selves": 2914,
      "vit": 2915,
      "vide": 2916,
      "ining": 2917,
      "inking": 2918,
      "Ġscience": 2919,
      "rel": 2920,
      "Ġwarm": 2921,
      "Ġbill": 2922,
      "ised": 2923,
      "Ġft": 2924,
      "Ġpat": 2925,
      "Ġtowards": 2926,
      "Ġhover": 2927,
      "rote": 2928,
      "Ġnav": 2929,
      "Ġnamed": 2930,
      "ional": 2931,
      "Ġreentry": 2932,
      "Ġearl": 2933,
      "ĠSun": 2934,
      "ides": 2935,
      "Ġprocess": 2936,
      "ĠAir": 2937,
      "ĠCar": 2938,
      "Ġensure": 2939,
      "Ġenviron": 2940,
      "Ġsepar": 2941,
      "andy": 2942,
      "ĠHyperloop": 2943,
      "ĠPC": 2944,
      "Ġchar": 2945,
      "Ġpoints": 2946,
      "ief": 2947,
      "oline": 2948,
      "Ġoutput": 2949,
      "Ġlost": 2950,
      "Still": 2951,
      "Who": 2952,
      "Ġinteresting": 2953,
      "Ġminor": 2954,
      "Ġextra": 2955,
      "Ġphot": 2956,
      "Ġphysics": 2957,
      "Ġgrid": 2958,
      "Ġsimilar": 2959,
      "Ġnumbers": 2960,
      "Ġinclude": 2961,
      "egas": 2962,
      "Ġdevelopment": 2963,
      "Ġexpected": 2964,
      "Ġfeatures": 2965,
      "Ġsuccessful": 2966,
      "Indeed": 2967,
      "Ġmagnitude": 2968,
      "Cybertruck": 2969,
      "cast": 2970,
      "ew": 2971,
      "eing": 2972,
      "pite": 2973,
      "ring": 2974,
      "tion": 2975,
      "tely": 2976,
      "uation": 2977,
      "yn": 2978,
      "Ġet": 2979,
      "iness": 2980,
      "eral": 2981,
      "Ġsong": 2982,
      "Ġsend": 2983,
      "rees": 2984,
      "Ġbs": 2985,
      "Ġbay": 2986,
      "Ġodd": 2987,
      "Ġdie": 2988,
      "Ġdark": 2989,
      "Ġhundred": 2990,
      "Ġgim": 2991,
      "aced": 2992,
      "Ġnecess": 2993,
      "Ġprovide": 2994,
      "Ġrain": 2995,
      "Ġrare": 2996,
      "ĠAiming": 2997,
      "iff": 2998,
      "Ġmoder": 2999,
      "Ġcolor": 3000,
      "cean": 3001,
      "ĠCO": 3002,
      "ĠChic": 3003,
      "Ġasked": 3004,
      "ĠWas": 3005,
      "ĠEng": 3006,
      "ĠRuss": 3007,
      "arent": 3008,
      "ember": 3009,
      "Ġoutside": 3010,
      "endable": 3011,
      "Ġanyway": 3012,
      "Ġadvert": 3013,
      "ĠOne": 3014,
      "Ġquarter": 3015,
      "aterial": 3016,
      "ground": 3017,
      "aged": 3018,
      "Ġspacecraft": 3019,
      "Ġreport": 3020,
      "Ġelectricity": 3021,
      "Ġsmaller": 3022,
      "Ġhappening": 3023,
      "Ġarticles": 3024,
      "Ġreusability": 3025,
      "ĠSuperchargers": 3026,
      "Ġdirection": 3027,
      "Ġflying": 3028,
      "Ġattack": 3029,
      "Ġcustomers": 3030,
      "Ġcommun": 3031,
      "Ġdiscuss": 3032,
      "Ġrobot": 3033,
      "Ġsteering": 3034,
      "Ġjournal": 3035,
      "Ġraise": 3036,
      "Ġreduce": 3037,
      "Working": 3038,
      "Ġutility": 3039,
      "Ġcapacity": 3040,
      "Ġmechan": 3041,
      "AA": 3042,
      "Same": 3043,
      "WD": 3044,
      "Was": 3045,
      "app": 3046,
      "base": 3047,
      "hold": 3048,
      "ming": 3049,
      "mak": 3050,
      "omp": 3051,
      "titude": 3052,
      "yr": 3053,
      "year": 3054,
      "Ġill": 3055,
      "Ġice": 3056,
      "Ġtight": 3057,
      "Ġaero": 3058,
      "Ġastron": 3059,
      "ren": 3060,
      "rew": 3061,
      "Ġways": 3062,
      "Ġwrote": 3063,
      "Ġbtw": 3064,
      "Ġcast": 3065,
      "Ġflo": 3066,
      "oub": 3067,
      "Ġmist": 3068,
      "Ġmeth": 3069,
      "Ġmorn": 3070,
      "angh": 3071,
      "Ġtower": 3072,
      "Ġoil": 3073,
      "Ġlatter": 3074,
      "asons": 3075,
      "Ġge": 3076,
      "ĠTeslas": 3077,
      "ĠSorry": 3078,
      "Ġstack": 3079,
      "Ġtracking": 3080,
      "Ġdoor": 3081,
      "Ġdock": 3082,
      "ĠThose": 3083,
      "Ġaltitude": 3084,
      "ividual": 3085,
      "Ġpossibly": 3086,
      "Ġmeas": 3087,
      "Ġheart": 3088,
      "Ġplant": 3089,
      "Ġanywhere": 3090,
      "Ġunlike": 3091,
      "000": 3092,
      "ĠJo": 3093,
      "Ġaccident": 3094,
      "wee": 3095,
      "ney": 3096,
      "Ġsmart": 3097,
      "Ġowner": 3098,
      "Ġworldwide": 3099,
      "Ġhumans": 3100,
      "mercial": 3101,
      "pension": 3102,
      "ibility": 3103,
      "Ġshows": 3104,
      "Ġoperational": 3105,
      "Ġstrange": 3106,
      "Ġkey": 3107,
      "Ġcritic": 3108,
      "ngth": 3109,
      "Ġreading": 3110,
      "Ġcompetition": 3111,
      "Ġlatest": 3112,
      "Ġcells": 3113,
      "Ġkinda": 3114,
      "Ġdirectly": 3115,
      "Ġcamera": 3116,
      "Ġcrypt": 3117,
      "Ġinitial": 3118,
      "Ġstructure": 3119,
      "Ġsuspension": 3120,
      "Ġsource": 3121,
      "Ġatmosphere": 3122,
      "Ġstorage": 3123,
      "Ġventilators": 3124,
      "Ġmoment": 3125,
      "Ġbankrupt": 3126,
      "Ġgimbal": 3127,
      "Ġmorning": 3128,
      "anghai": 3129,
      "AI": 3130,
      "App": 3131,
      "core": 3132,
      "ding": 3133,
      "for": 3134,
      "ms": 3135,
      "ris": 3136,
      "vices": 3137,
      "Ġage": 3138,
      "Ġthous": 3139,
      "orne": 3140,
      "Ġcut": 3141,
      "Ġcorn": 3142,
      "Ġfi": 3143,
      "Ġfour": 3144,
      "Ġfore": 3145,
      "enge": 3146,
      "Ġmaterial": 3147,
      "Ġtold": 3148,
      "Ġlithium": 3149,
      "Ġnd": 3150,
      "Ġgone": 3151,
      "ĠId": 3152,
      "Ġrout": 3153,
      "ĠAny": 3154,
      "ĠApril": 3155,
      "Ġtried": 3156,
      "Ġworse": 3157,
      "ĠFull": 3158,
      "ĠBl": 3159,
      "ĠBitcoin": 3160,
      "ĠNN": 3161,
      "ĠDay": 3162,
      "ĠEn": 3163,
      "ĠEvery": 3164,
      "ainless": 3165,
      "Ġcarry": 3166,
      "Ġhighly": 3167,
      "Ġrocks": 3168,
      "Ġdram": 3169,
      "ĠVegas": 3170,
      "Ġsooner": 3171,
      "Ġdespite": 3172,
      "Ġimproves": 3173,
      "Why": 3174,
      "osite": 3175,
      "ĠNeed": 3176,
      "ĠNext": 3177,
      "Ġparking": 3178,
      "Ġboost": 3179,
      "ellig": 3180,
      "Ġhelpful": 3181,
      "Ġvisit": 3182,
      "ecause": 3183,
      "Ġnetwork": 3184,
      "ĠAmerican": 3185,
      "Ġlatency": 3186,
      "Ġstrength": 3187,
      "world": 3188,
      "Ġterminal": 3189,
      "Ġreceived": 3190,
      "Ġbreak": 3191,
      "Ġspaceship": 3192,
      "Ġincluding": 3193,
      "Ġetc": 3194,
      "Boring": 3195,
      "City": 3196,
      "Long": 3197,
      "Might": 3198,
      "af": 3199,
      "can": 3200,
      "coming": 3201,
      "ging": 3202,
      "jo": 3203,
      "km": 3204,
      "Ġtip": 3205,
      "Ġtbh": 3206,
      "Ġap": 3207,
      "onna": 3208,
      "Ġband": 3209,
      "iss": 3210,
      "Ġfre": 3211,
      "Ġfan": 3212,
      "Ġped": 3213,
      "Ġpick": 3214,
      "Ġop": 3215,
      "Ġhol": 3216,
      "Ġremo": 3217,
      "ample": 3218,
      "etic": 3219,
      "etting": 3220,
      "ĠTeam": 3221,
      "illing": 3222,
      "Ġangle": 3223,
      "ternal": 3224,
      "Ġstation": 3225,
      "Ġstra": 3226,
      "Ġwhats": 3227,
      "Ġweld": 3228,
      "Ġround": 3229,
      "Ġrather": 3230,
      "ĠAug": 3231,
      "urity": 3232,
      "urance": 3233,
      "outs": 3234,
      "ified": 3235,
      "Ġtruly": 3236,
      "ĠWith": 3237,
      "uman": 3238,
      "ĠBro": 3239,
      "Ġabort": 3240,
      "ods": 3241,
      "ĠHard": 3242,
      "ĠNorth": 3243,
      "ĠDont": 3244,
      "ĠLove": 3245,
      "Ġprevent": 3246,
      "Ġcommon": 3247,
      "Ġcommercial": 3248,
      "Ġloss": 3249,
      "Ġadjust": 3250,
      "ĠOther": 3251,
      "inder": 3252,
      "bital": 3253,
      "Ġspeak": 3254,
      "ruction": 3255,
      "Stop": 3256,
      "Starlink": 3257,
      "Ġlots": 3258,
      "Ġserious": 3259,
      "Ġinterview": 3260,
      "Ġextend": 3261,
      "ĠNeuralink": 3262,
      "Ġseeing": 3263,
      "Ġhappens": 3264,
      "Ġfinan": 3265,
      "Ġhelping": 3266,
      "ification": 3267,
      "Ġpublish": 3268,
      "Ġclass": 3269,
      "Ġobviously": 3270,
      "Ġlights": 3271,
      "Ġplaying": 3272,
      "Ġregulators": 3273,
      "Ġcreating": 3274,
      "Ġinvestors": 3275,
      "Ġsummer": 3276,
      "Ġcontinu": 3277,
      "Ġdelivered": 3278,
      "Ġmeme": 3279,
      "Ġdestination": 3280,
      "Ġdeaths": 3281,
      "Ġstarts": 3282,
      "Ġsubsid": 3283,
      "Ġfriend": 3284,
      "Ġlogistics": 3285,
      "ĠArea": 3286,
      "Ġideas": 3287,
      "Ġthrottle": 3288,
      "Ġimmediately": 3289,
      "Ġearlier": 3290,
      "Ġenvironment": 3291,
      "ASA": 3292,
      "Best": 3293,
      "Both": 3294,
      "Every": 3295,
      "Even": 3296,
      "Giga": 3297,
      "Much": 3298,
      "PU": 3299,
      "Sigh": 3300,
      "by": 3301,
      "gether": 3302,
      "iens": 3303,
      "night": 3304,
      "pital": 3305,
      "Ġtor": 3306,
      "Ġahead": 3307,
      "Ġsometimes": 3308,
      "Ġball": 3309,
      "Ġfit": 3310,
      "Ġfam": 3311,
      "oup": 3312,
      "Ġocc": 3313,
      "Ġocean": 3314,
      "Ġher": 3315,
      "Ġhit": 3316,
      "Ġlinks": 3317,
      "Ġreli": 3318,
      "ĠSer": 3319,
      "ĠSouth": 3320,
      "chite": 3321,
      "imately": 3322,
      "semb": 3323,
      "Ġweird": 3324,
      "aming": 3325,
      "These": 3326,
      "Ġride": 3327,
      "Ġrunning": 3328,
      "Ġmob": 3329,
      "Ġvir": 3330,
      "Ġmaint": 3331,
      "Ġdead": 3332,
      "ĠBo": 3333,
      "ĠBig": 3334,
      "Ġalong": 3335,
      "peed": 3336,
      "ources": 3337,
      "Ġchoice": 3338,
      "ushing": 3339,
      "emi": 3340,
      "Ġoutcome": 3341,
      "izes": 3342,
      "Ġarchite": 3343,
      "Ġapply": 3344,
      "Exc": 3345,
      "Ġquality": 3346,
      "Ġknown": 3347,
      "ospital": 3348,
      "Ġunderway": 3349,
      "Ġexpendable": 3350,
      "Ġcompletely": 3351,
      "Ġdelay": 3352,
      "Ġconfirm": 3353,
      "Ġwrit": 3354,
      "Ġwrite": 3355,
      "Ġships": 3356,
      "Ġshorts": 3357,
      "Ġapproach": 3358,
      "Ġretro": 3359,
      "Ġcapability": 3360,
      "Ġsecurity": 3361,
      "Ġindividual": 3362,
      "Ġopening": 3363,
      "auts": 3364,
      "Ġiron": 3365,
      "Ġheader": 3366,
      "Ġcreated": 3367,
      "Ġsumm": 3368,
      "Ġpropul": 3369,
      "ĠFriday": 3370,
      "Ġreplace": 3371,
      "Ġfilter": 3372,
      "Ġchalleng": 3373,
      "Ġlaser": 3374,
      "ĠPerformance": 3375,
      "Ġprototype": 3376,
      "ĠChica": 3377,
      "elligence": 3378,
      "Acc": 3379,
      "Hard": 3380,
      "Hoping": 3381,
      "LA": 3382,
      "ball": 3383,
      "cle": 3384,
      "he": 3385,
      "oly": 3386,
      "range": 3387,
      "tr": 3388,
      "vation": 3389,
      "Ġtho": 3390,
      "Ġwild": 3391,
      "att": 3392,
      "Ġfool": 3393,
      "itors": 3394,
      "ene": 3395,
      "Ġmusic": 3396,
      "Ġtogether": 3397,
      "Ġhuge": 3398,
      "Ġinform": 3399,
      "Ġreasons": 3400,
      "otive": 3401,
      "Ġev": 3402,
      "Ġeff": 3403,
      "Ġstations": 3404,
      "ams": 3405,
      "Ġrid": 3406,
      "ĠAd": 3407,
      "ĠAn": 3408,
      "Ġyoud": 3409,
      "Ġtrad": 3410,
      "antage": 3411,
      "ĠBooster": 3412,
      "Ġalone": 3413,
      "Ġaliens": 3414,
      "ĠHa": 3415,
      "ĠNASA": 3416,
      "Ġkid": 3417,
      "Ġimport": 3418,
      "Ġhighest": 3419,
      "Ġfeels": 3420,
      "Ġhealth": 3421,
      "cious": 3422,
      "Ġuses": 3423,
      "Ġhardest": 3424,
      "ansion": 3425,
      "epends": 3426,
      "Ġ%.": 3427,
      "Ġimproving": 3428,
      "Ġteams": 3429,
      "Ġresources": 3430,
      "ression": 3431,
      "Ġsyn": 3432,
      "Ġpowered": 3433,
      "Ġparticul": 3434,
      "Ġdidn": 3435,
      "Ġlift": 3436,
      "Ġthemselves": 3437,
      "remont": 3438,
      "Ġstarting": 3439,
      "Ġstarted": 3440,
      "Ġcontroll": 3441,
      "ĠShanghai": 3442,
      "atively": 3443,
      "Ġguy": 3444,
      "Ġclar": 3445,
      "Ġexceed": 3446,
      "Ġgasoline": 3447,
      "Ġtaxes": 3448,
      "Ġmetric": 3449,
      "Ġpersonally": 3450,
      "Ġautomotive": 3451,
      "Ġbraking": 3452,
      "Ġcrew": 3453,
      "Ġcustomer": 3454,
      "Ġupgraded": 3455,
      "Ġcontinue": 3456,
      "Ġdistance": 3457,
      "ength": 3458,
      "Ġprecise": 3459,
      "Ġprecision": 3460,
      "Ġpaint": 3461,
      "Ġbegin": 3462,
      "Ġmessed": 3463,
      "Ġbehind": 3464,
      "ught": 3465,
      "Ġprovided": 3466,
      "Ġpopulation": 3467,
      "Ġhundreds": 3468,
      "80": 3469,
      "UD": 3470,
      "Up": 3471,
      "Your": 3472,
      "ey": 3473,
      "fr": 3474,
      "ios": 3475,
      "por": 3476,
      "rs": 3477,
      "ration": 3478,
      "round": 3479,
      "yp": 3480,
      "Ġtit": 3481,
      "Ġtube": 3482,
      "erature": 3483,
      "Ġsch": 3484,
      "Ġsil": 3485,
      "Ġswit": 3486,
      "Ġbaby": 3487,
      "Ġcame": 3488,
      "ences": 3489,
      "Ġmarg": 3490,
      "Ġpage": 3491,
      "Ġdying": 3492,
      "Ġnor": 3493,
      "illy": 3494,
      "omb": 3495,
      "enter": 3496,
      "Ġyeah": 3497,
      "ĠIs": 3498,
      "Ġsold": 3499,
      "Ġsocial": 3500,
      "Ġwhether": 3501,
      "Ġweve": 3502,
      "Ġrd": 3503,
      "ops": 3504,
      "opump": 3505,
      "urd": 3506,
      "Ġareas": 3507,
      "Ġcovid": 3508,
      "ĠCould": 3509,
      "Ġvote": 3510,
      "Ġexact": 3511,
      "umer": 3512,
      "ĠFound": 3513,
      "ĠFAA": 3514,
      "Ġrot": 3515,
      "rain": 3516,
      "Ġsuck": 3517,
      "ĠHope": 3518,
      "ĠPl": 3519,
      "Ġchain": 3520,
      "Ġupload": 3521,
      "Ġcomments": 3522,
      "xtrem": 3523,
      "Ġuser": 3524,
      "Ġusers": 3525,
      "Ġtaken": 3526,
      "Ġloop": 3527,
      "ocal": 3528,
      "Ġdoesn": 3529,
      "Ġreco": 3530,
      "ording": 3531,
      "Ġexpla": 3532,
      "Ġregions": 3533,
      "Ġscore": 3534,
      "ivers": 3535,
      "ickel": 3536,
      "Ġoptions": 3537,
      "Ġoffic": 3538,
      "Ġphys": 3539,
      "urren": 3540,
      "Ġcooling": 3541,
      "Ġsignal": 3542,
      "ĠShort": 3543,
      "Ġfires": 3544,
      "Ġsurv": 3545,
      "Ġupdates": 3546,
      "ĠDoes": 3547,
      "Ġcapital": 3548,
      "Ġtalking": 3549,
      "Ġlevels": 3550,
      "Ġeasily": 3551,
      "Ġchanging": 3552,
      "Ġplanet": 3553,
      "Ġinstead": 3554,
      "Ġturned": 3555,
      "Ġoptimized": 3556,
      "Ġcolle": 3557,
      "Ġwords": 3558,
      "Ġsnow": 3559,
      "Ġexisting": 3560,
      "Ġswap": 3561,
      "Seems": 3562,
      "ĠEVs": 3563,
      "Ġconcern": 3564,
      "Ġfigure": 3565,
      "Ġschedule": 3566,
      "Ġhonor": 3567,
      "Ġannouncement": 3568,
      "ĠSmart": 3569,
      "aranteed": 3570,
      "Ġintegrated": 3571,
      "ĠSunday": 3572,
      "Ġcrypto": 3573,
      "Ġmobile": 3574,
      "++": 3575,
      "12": 3576,
      "Cant": 3577,
      "Driving": 3578,
      "Fr": 3579,
      "FSD": 3580,
      "Try": 3581,
      "iet": 3582,
      "pha": 3583,
      "ser": 3584,
      "upp": 3585,
      "wo": 3586,
      "Ġten": 3587,
      "inum": 3588,
      "Ġsl": 3589,
      "Ġsays": 3590,
      "Ġthinking": 3591,
      "Ġwal": 3592,
      "Ġcirc": 3593,
      "Ġpe": 3594,
      "Ġtow": 3595,
      "Ġdied": 3596,
      "Ġdumb": 3597,
      "Ġhate": 3598,
      "Ġhospital": 3599,
      "Ġlic": 3600,
      "Ġisn": 3601,
      "Ġnice": 3602,
      "Ġnets": 3603,
      "Ġnational": 3604,
      "icon": 3605,
      "Ġeg": 3606,
      "Ġearn": 3607,
      "ille": 3608,
      "Ġforg": 3609,
      "ĠSat": 3610,
      "ĠSelf": 3611,
      "ĠSemi": 3612,
      "ighter": 3613,
      "thorne": 3614,
      "ĠMar": 3615,
      "Ġwheels": 3616,
      "Ġweb": 3617,
      "irmed": 3618,
      "abil": 3619,
      "ceed": 3620,
      "Ġexample": 3621,
      "Ġexternal": 3622,
      "Ġsea": 3623,
      "Ġsection": 3624,
      "ĠFremont": 3625,
      "anden": 3626,
      "Ġrole": 3627,
      "ards": 3628,
      "Ġjack": 3629,
      "Ġjud": 3630,
      "ĠBe": 3631,
      "ĠHopper": 3632,
      "ĠNorway": 3633,
      "ĠPar": 3634,
      "ĠDa": 3635,
      "ĠDec": 3636,
      "ĠEU": 3637,
      "Ġchip": 3638,
      "Ġcompared": 3639,
      "Ġmeeting": 3640,
      "Ġcarmak": 3641,
      "ĠLike": 3642,
      "Ġcannot": 3643,
      "Ġbuying": 3644,
      "Ġunc": 3645,
      "Ġunits": 3646,
      "Ġincorrect": 3647,
      "berg": 3648,
      "Ġdeser": 3649,
      "Ġintense": 3650,
      "Ġfake": 3651,
      "Ġspend": 3652,
      "Star": 3653,
      "ensive": 3654,
      "ĠWell": 3655,
      "Ġsympt": 3656,
      "Ġseries": 3657,
      "Ġinterior": 3658,
      "Ġknows": 3659,
      "Ġinsp": 3660,
      "Ġtransfer": 3661,
      "ĠWhy": 3662,
      "Ġincreases": 3663,
      "Ġshortly": 3664,
      "cover": 3665,
      "itional": 3666,
      "Ġapprox": 3667,
      "Ġadvantage": 3668,
      "Ġrefund": 3669,
      "Ġallows": 3670,
      "Ġallowed": 3671,
      "Ġquestions": 3672,
      "ĠQA": 3673,
      "Ġmotors": 3674,
      "Does": 3675,
      "Ġturns": 3676,
      "Ġdrops": 3677,
      "Ġconsidered": 3678,
      "Ġconstra": 3679,
      "Ġsignificantly": 3680,
      "ĠSept": 3681,
      "Ġmemes": 3682,
      "crip": 3683,
      "Important": 3684,
      "Ġchallenge": 3685,
      "Ġvariant": 3686,
      "Physics": 3687,
      "ĠAustral": 3688,
      "Ġautonomous": 3689,
      "Ġessential": 3690,
      "Ġsurprising": 3691,
      "ĠIndia": 3692,
      "week": 3693,
      "Ġcorner": 3694,
      "ĠAugust": 3695,
      "frame": 3696,
      "'d": 3697,
      "Are": 3698,
      "Comp": 3699,
      "Full": 3700,
      "Is": 3701,
      "Max": 3702,
      "Ser": 3703,
      "Something": 3704,
      "TO": 3705,
      "bv": 3706,
      "cone": 3707,
      "gor": 3708,
      "hanced": 3709,
      "ipping": 3710,
      "ker": 3711,
      "lation": 3712,
      "mit": 3713,
      "sc": 3714,
      "ux": 3715,
      "width": 3716,
      "yth": 3717,
      "Ġtour": 3718,
      "Ġaiming": 3719,
      "Ġactions": 3720,
      "Ġson": 3721,
      "Ġsad": 3722,
      "Ġbi": 3723,
      "Ġcross": 3724,
      "Ġcounter": 3725,
      "Ġfight": 3726,
      "Ġfiring": 3727,
      "iterally": 3728,
      "Ġhur": 3729,
      "Ġbeha": 3730,
      "Ġgave": 3731,
      "Ġemb": 3732,
      "verse": 3733,
      "ades": 3734,
      "Ġstainless": 3735,
      "ĠMa": 3736,
      "ĠMot": 3737,
      "Ġrise": 3738,
      "Ġrail": 3739,
      "estri": 3740,
      "uration": 3741,
      "Ġcol": 3742,
      "ĠCon": 3743,
      "Ġenc": 3744,
      "Ġdoll": 3745,
      "umul": 3746,
      "uminum": 3747,
      "Ġmag": 3748,
      "ĠFirst": 3749,
      "Ġcondit": 3750,
      "Ġjam": 3751,
      "Ġability": 3752,
      "Ġalloc": 3753,
      "ĠHave": 3754,
      "arting": 3755,
      "Ġcargo": 3756,
      "Ġimpressive": 3757,
      "Ġhighway": 3758,
      "endent": 3759,
      "Ġprinc": 3760,
      "Ġlaunching": 3761,
      "Ġspent": 3762,
      "ĠStarships": 3763,
      "Ġfewer": 3764,
      "Ġintern": 3765,
      "Ġminute": 3766,
      "Ġexpon": 3767,
      "Ġexpansion": 3768,
      "Ġairframe": 3769,
      "Ġimm": 3770,
      "pected": 3771,
      "Ġmisle": 3772,
      "Ġconscious": 3773,
      "Ġcompleted": 3774,
      "Ġtechn": 3775,
      "Ġsupporting": 3776,
      "Ġjoke": 3777,
      "Ġvalid": 3778,
      "lied": 3779,
      "Ġchanged": 3780,
      "ĠReally": 3781,
      "Ġpassed": 3782,
      "Ġwinds": 3783,
      "Ġtemperature": 3784,
      "Ġlocation": 3785,
      "Ġattach": 3786,
      "Ġpackage": 3787,
      "ĠForce": 3788,
      "Ġconstant": 3789,
      "Ġacceleration": 3790,
      "Ġcomplexity": 3791,
      "Ġinstalled": 3792,
      "Ġturbopump": 3793,
      "Ġsmooth": 3794,
      "Ġpolit": 3795,
      "Ġlayer": 3796,
      "Autopilot": 3797,
      "Going": 3798,
      "Ġrobotax": 3799,
      "Ġcriticism": 3800,
      "Ġfrequ": 3801,
      "Ġpedestri": 3802,
      "Ġarchitecture": 3803,
      "Ġsummary": 3804,
      "Ġsymptoms": 3805,
      "ython": 3806,
      "Ġconditions": 3807,
      "Ġprincip": 3808,
      "BC": 3809,
      "Because": 3810,
      "Could": 3811,
      "Many": 3812,
      "Space": 3813,
      "Tech": 3814,
      "US": 3815,
      "ees": 3816,
      "eor": 3817,
      "eal": 3818,
      "fully": 3819,
      "ov": 3820,
      "pes": 3821,
      "sed": 3822,
      "uild": 3823,
      "umpt": 3824,
      "vant": 3825,
      "ville": 3826,
      "Ġi": 3827,
      "Ġtrend": 3828,
      "erry": 3829,
      "Ġwise": 3830,
      "orter": 3831,
      "orters": 3832,
      "Ġben": 3833,
      "Ġcla": 3834,
      "Ġcandy": 3835,
      "Ġpict": 3836,
      "Ġtool": 3837,
      "Ġdry": 3838,
      "Ġtheory": 3839,
      "str": 3840,
      "stru": 3841,
      "Ġinference": 3842,
      "Ġgonna": 3843,
      "uts": 3844,
      "Ġreuse": 3845,
      "ĠTech": 3846,
      "terday": 3847,
      "Ġstay": 3848,
      "ĠMom": 3849,
      "ĠMart": 3850,
      "ĠMax": 3851,
      "Ġweight": 3852,
      "Ġproject": 3853,
      "Those": 3854,
      "Ġrating": 3855,
      "Ġhavent": 3856,
      "Ġshif": 3857,
      "Ġasp": 3858,
      "Ġassemb": 3859,
      "antic": 3860,
      "uming": 3861,
      "ument": 3862,
      "Ġconvin": 3863,
      "arding": 3864,
      "ĠBay": 3865,
      "Ġaluminum": 3866,
      "rap": 3867,
      "raw": 3868,
      "ĠDr": 3869,
      "ĠEl": 3870,
      "ival": 3871,
      "Ġthank": 3872,
      "duct": 3873,
      "ĠGM": 3874,
      "ĠLo": 3875,
      "ended": 3876,
      "Ġune": 3877,
      "Ġuniverse": 3878,
      "Ġappear": 3879,
      "Ġappears": 3880,
      "Ġhardcore": 3881,
      "Ġsaw": 3882,
      "Ġtested": 3883,
      "Ġsolving": 3884,
      "Ġauthor": 3885,
      "Ġservices": 3886,
      "Ġpowerful": 3887,
      "Ġcouldnt": 3888,
      "Ġscal": 3889,
      "Ġtwice": 3890,
      "Ġbooks": 3891,
      "Ġadded": 3892,
      "ĠUSA": 3893,
      "Ġinsan": 3894,
      "Ġwriting": 3895,
      "Ġ--": 3896,
      "Ġreflight": 3897,
      "ronic": 3898,
      "Ġsimpl": 3899,
      "Ġallowing": 3900,
      "Ġremain": 3901,
      "ĠNote": 3902,
      "dding": 3903,
      "reedom": 3904,
      "Ġposition": 3905,
      "Ġfeeling": 3906,
      "Ġcompetitive": 3907,
      "Doge": 3908,
      "Ġaccept": 3909,
      "Ġclosed": 3910,
      "Ġaccelerate": 3911,
      "Ġaccelerating": 3912,
      "Ġapprovals": 3913,
      "Ġrecommended": 3914,
      "Amazing": 3915,
      "Ġrobots": 3916,
      "Ġjourney": 3917,
      "Ġefficient": 3918,
      "Ġabsurd": 3919,
      "Ġlargest": 3920,
      "ĠStarbase": 3921,
      "Ġfoot": 3922,
      "Ġinterested": 3923,
      "ritical": 3924,
      "ĠMonday": 3925,
      "ponse": 3926,
      "Ġsharehold": 3927,
      "Ġerror": 3928,
      "Turns": 3929,
      "Ġunlikely": 3930,
      "Ġdramatically": 3931,
      "Ġtorque": 3932,
      "Ġchallenges": 3933,
      "Ġeffort": 3934,
      "xtremely": 3935,
      "urrency": 3936,
      "cription": 3937,
      "15": 3938,
      "Big": 3939,
      "Depends": 3940,
      "Earth": 3941,
      "Eng": 3942,
      "FR": 3943,
      "Nothing": 3944,
      "Pl": 3945,
      "Qu": 3946,
      "TA": 3947,
      "UV": 3948,
      "Vac": 3949,
      "cl": 3950,
      "dle": 3951,
      "fit": 3952,
      "hn": 3953,
      "mk": 3954,
      "mas": 3955,
      "ox": 3956,
      "pm": 3957,
      "power": 3958,
      "rid": 3959,
      "rist": 3960,
      "set": 3961,
      "tings": 3962,
      "vest": 3963,
      "Ġest": 3964,
      "Ġtall": 3965,
      "Ġtap": 3966,
      "Ġtires": 3967,
      "Ġaware": 3968,
      "Ġaud": 3969,
      "Ġsqu": 3970,
      "real": 3971,
      "Ġwd": 3972,
      "Ġwall": 3973,
      "Ġbus": 3974,
      "attle": 3975,
      "Ġcamp": 3976,
      "Ġclic": 3977,
      "Ġfict": 3978,
      "Ġmatch": 3979,
      "aring": 3980,
      "ann": 3981,
      "Ġport": 3982,
      "edic": 3983,
      "Ġdoo": 3984,
      "Ġdrag": 3985,
      "Ġdoub": 3986,
      "Ġlink": 3987,
      "rop": 3988,
      "roved": 3989,
      "Ġinert": 3990,
      "icing": 3991,
      "Ġrefer": 3992,
      "ĠToo": 3993,
      "ĠTop": 3994,
      "Ġones": 3995,
      "ctor": 3996,
      "ida": 3997,
      "Ġanten": 3998,
      "alley": 3999,
      "oogle": 4000,
      "Ġiter": 4001,
      "Ġstuff": 4002,
      "ĠMe": 4003,
      "ĠMuch": 4004,
      "ĠMany": 4005,
      "key": 4006,
      "amn": 4007,
      "uries": 4008,
      "urther": 4009,
      "ĠCl": 4010,
      "Ġshut": 4011,
      "Ġtruth": 4012,
      "ĠWed": 4013,
      "ĠThen": 4014,
      "ĠThurs": 4015,
      "Ġseat": 4016,
      "Ġsequ": 4017,
      "Ġsections": 4018,
      "Ġworst": 4019,
      "Ġconver": 4020,
      "ssil": 4021,
      "ĠHaw": 4022,
      "ĠNothing": 4023,
      "ĠPython": 4024,
      "ĠRes": 4025,
      "Ġpolic": 4026,
      "apan": 4027,
      "Ġmeet": 4028,
      "Ġtele": 4029,
      "ĠGPU": 4030,
      "Ġprem": 4031,
      "Ġcomf": 4032,
      "Ġlose": 4033,
      "Ġmyself": 4034,
      "Ġplaces": 4035,
      "moj": 4036,
      "Ġbug": 4037,
      "ĠOct": 4038,
      "attery": 4039,
      "Ġdesc": 4040,
      "ĠJapan": 4041,
      "Ġintelligence": 4042,
      "Ġquick": 4043,
      "Ġsolved": 4044,
      "Ġperhaps": 4045,
      "Ġresult": 4046,
      "Ġresponse": 4047,
      "weet": 4048,
      "wns": 4049,
      "Ġsuppli": 4050,
      "Ġexplan": 4051,
      "Ġpark": 4052,
      "Ġwanted": 4053,
      "Ġimag": 4054,
      "Ġtransit": 4055,
      "Ġtransition": 4056,
      "Ġtechnically": 4057,
      "Ġstartup": 4058,
      "ĠWhen": 4059,
      "Ġconfirmed": 4060,
      "Ġvideos": 4061,
      "Ġjoin": 4062,
      "Ġguys": 4063,
      "Soon": 4064,
      "Ġcapable": 4065,
      "Ġoperation": 4066,
      "vidence": 4067,
      "ĠProduction": 4068,
      "Ġframe": 4069,
      "Ġflamethrower": 4070,
      "Ġboard": 4071,
      "Ġlocations": 4072,
      "arning": 4073,
      "Ġhypersonic": 4074,
      "Ġvacc": 4075,
      "Ġcoverage": 4076,
      "ĠUniverse": 4077,
      "Ġtweets": 4078,
      "lorida": 4079,
      "Ġemploy": 4080,
      "Ġfunctionality": 4081,
      "Ġdebt": 4082,
      "Ġlaws": 4083,
      "Ġfriends": 4084,
      "Ġsuggestions": 4085,
      "Ġblackouts": 4086,
      "Ġpurch": 4087,
      "Ġbehalf": 4088,
      "Ġultra": 4089,
      "Ġdeployed": 4090,
      "ĠAustin": 4091,
      "Ġstores": 4092,
      "ĠApple": 4093,
      "Ġbirthday": 4094,
      "Ġanti": 4095,
      "Ġduty": 4096,
      "Ġwritten": 4097,
      "Ġschool": 4098,
      "Ġmargin": 4099,
      "Ġcollege": 4100,
      "ĠAustralia": 4101,
      "Ġmisleading": 4102,
      "Ġconsciousness": 4103,
      "11": 4104,
      "25": 4105,
      "After": 4106,
      "Per": 4107,
      "Time": 4108,
      "body": 4109,
      "cel": 4110,
      "ique": 4111,
      "nes": 4112,
      "sustain": 4113,
      "tom": 4114,
      "uably": 4115,
      "ye": 4116,
      "ype": 4117,
      "Ġterr": 4118,
      "Ġtroll": 4119,
      "inally": 4120,
      "eric": 4121,
      "eros": 4122,
      "Ġsilly": 4123,
      "Ġwer": 4124,
      "Ġbio": 4125,
      "Ġfat": 4126,
      "Ġfusion": 4127,
      "Ġfurther": 4128,
      "itter": 4129,
      "Ġmil": 4130,
      "arrass": 4131,
      "ances": 4132,
      "Ġden": 4133,
      "Ġdome": 4134,
      "Ġdedic": 4135,
      "Ġhous": 4136,
      "Ġheav": 4137,
      "Ġlines": 4138,
      "roy": 4139,
      "Ġinh": 4140,
      "Ġinvent": 4141,
      "Ġinde": 4142,
      "Ġinput": 4143,
      "Ġnu": 4144,
      "icro": 4145,
      "Ġbeat": 4146,
      "Ġgives": 4147,
      "Ġglad": 4148,
      "Ġreact": 4149,
      "etail": 4150,
      "Ġemoj": 4151,
      "ĠSol": 4152,
      "ĠSUV": 4153,
      "ctural": 4154,
      "verage": 4155,
      "eles": 4156,
      "Ġwebs": 4157,
      "Ġweak": 4158,
      "Ġbutt": 4159,
      "Theres": 4160,
      "ĠAC": 4161,
      "ĠAWD": 4162,
      "opt": 4163,
      "ĠCant": 4164,
      "ĠCurrent": 4165,
      "ĠCyber": 4166,
      "uled": 4167,
      "ersion": 4168,
      "Ġdog": 4169,
      "ĠFlorida": 4170,
      "Ġdemon": 4171,
      "ĠBtw": 4172,
      "Ġsupersonic": 4173,
      "reating": 4174,
      "ĠDefinitely": 4175,
      "ĠEaster": 4176,
      "ĠRed": 4177,
      "ĠRep": 4178,
      "Ġfees": 4179,
      "Ġcomment": 4180,
      "Ġgreatly": 4181,
      "Ġproduced": 4182,
      "Ġplans": 4183,
      "Ġusage": 4184,
      "Ġunit": 4185,
      "Ġdrives": 4186,
      "bert": 4187,
      "ĠJune": 4188,
      "Ġlanded": 4189,
      "Ġlandings": 4190,
      "ultane": 4191,
      "Have": 4192,
      "Ġrecover": 4193,
      "new": 4194,
      "ried": 4195,
      "Ġcrush": 4196,
      "Ġfacto": 4197,
      "Ġhappiness": 4198,
      "Ġhelps": 4199,
      "Ġbecoming": 4200,
      "Ġjobs": 4201,
      "Ġguaranteed": 4202,
      "Ġadvance": 4203,
      "Ġreflect": 4204,
      "Ġexceeds": 4205,
      "Ġsecs": 4206,
      "Ġsecret": 4207,
      "Ġskill": 4208,
      "Ġesth": 4209,
      "Ġrollout": 4210,
      "Ġsimultane": 4211,
      "ondon": 4212,
      "Ġsetting": 4213,
      "Once": 4214,
      "Ġirl": 4215,
      "Ġsubject": 4216,
      "Ġreaching": 4217,
      "Ġcombined": 4218,
      "Ġyesterday": 4219,
      "Ġflu": 4220,
      "Ġletter": 4221,
      "Ġdrop": 4222,
      "Ġsummon": 4223,
      "Ġcaught": 4224,
      "Ġaffects": 4225,
      "ĠBetter": 4226,
      "Ġpropag": 4227,
      "ĠAlmost": 4228,
      "Ġfilters": 4229,
      "irmware": 4230,
      "Ġachieving": 4231,
      "Major": 4232,
      "Ġcalc": 4233,
      "ĠLooks": 4234,
      "Ġnosecone": 4235,
      "Ġleader": 4236,
      "Ġmaximum": 4237,
      "Unfortunately": 4238,
      "Ġincentives": 4239,
      "Ġsituation": 4240,
      "Ġmillions": 4241,
      "Ġhydrogen": 4242,
      "Ġaffordable": 4243,
      "Ġinjuries": 4244,
      "Ġcharac": 4245,
      "Ġadvertising": 4246,
      "Ġmistake": 4247,
      "Ġthousands": 4248,
      "Ġforever": 4249,
      "Ġbandwidth": 4250,
      "Ġsubsidies": 4251,
      "clear": 4252,
      "Ġclarify": 4253,
      "Ġofficial": 4254,
      "Seriously": 4255,
      "Ġembarrass": 4256,
      "Ġallocation": 4257,
      "Ġindeed": 4258,
      "AP": 4259,
      "Dr": 4260,
      "Did": 4261,
      "GI": 4262,
      "Norway": 4263,
      "PS": 4264,
      "People": 4265,
      "Testing": 4266,
      "flight": 4267,
      "ford": 4268,
      "faces": 4269,
      "has": 4270,
      "iot": 4271,
      "ka": 4272,
      "kn": 4273,
      "kra": 4274,
      "lu": 4275,
      "oving": 4276,
      "pay": 4277,
      "poll": 4278,
      "rous": 4279,
      "ula": 4280,
      "Ġaim": 4281,
      "ork": 4282,
      "outer": 4283,
      "iter": 4284,
      "Ġmir": 4285,
      "aning": 4286,
      "ancy": 4287,
      "Ġobs": 4288,
      "ederal": 4289,
      "Ġine": 4290,
      "Ġnickel": 4291,
      "lex": 4292,
      "igation": 4293,
      "uter": 4294,
      "ĠTues": 4295,
      "Ġevidence": 4296,
      "ĠSomething": 4297,
      "elt": 4298,
      "Ġang": 4299,
      "chang": 4300,
      "iment": 4301,
      "ĠMust": 4302,
      "sell": 4303,
      "Ġprote": 4304,
      "ift": 4305,
      "Ġyoull": 4306,
      "ĠCons": 4307,
      "atever": 4308,
      "Ġtrust": 4309,
      "ular": 4310,
      "ĠFe": 4311,
      "ĠFla": 4312,
      "ĠFord": 4313,
      "anda": 4314,
      "Ġjump": 4315,
      "ĠBr": 4316,
      "ĠBest": 4317,
      "ĠBase": 4318,
      "ĠPay": 4319,
      "ĠDel": 4320,
      "acked": 4321,
      "ĠGod": 4322,
      "ĠLong": 4323,
      "Ġwouldnt": 4324,
      "rypt": 4325,
      "izont": 4326,
      "Ġloan": 4327,
      "Ġplate": 4328,
      "Ġunion": 4329,
      "Ġapplied": 4330,
      "ĠOver": 4331,
      "Ġactivate": 4332,
      "ĠValley": 4333,
      "Ġcontrib": 4334,
      "Ġ%,": 4335,
      "Ġquiet": 4336,
      "gring": 4337,
      "Ġfunny": 4338,
      "Ġresist": 4339,
      "Ġseriously": 4340,
      "Ġsupporters": 4341,
      "Ġminutes": 4342,
      "Ġparach": 4343,
      "Ġhowever": 4344,
      "Ġthruster": 4345,
      "Ġimage": 4346,
      "Ġrepres": 4347,
      "noying": 4348,
      "Ġinsurance": 4349,
      "ĠChrist": 4350,
      "Ġconfident": 4351,
      "reciated": 4352,
      "Ġentertain": 4353,
      "Ġgenerate": 4354,
      "comp": 4355,
      "Ġsurround": 4356,
      "Ġcenters": 4357,
      "Ġappreciation": 4358,
      "Ġavg": 4359,
      "Ġcompute": 4360,
      "Ġeasier": 4361,
      "ĠRequ": 4362,
      "Ġmajority": 4363,
      "Ġremember": 4364,
      "Ġsubtle": 4365,
      "Ġstopp": 4366,
      "Ġdeveloping": 4367,
      "Ġputting": 4368,
      "ledge": 4369,
      "Ġcollect": 4370,
      "Ġselling": 4371,
      "Ġmeaning": 4372,
      "ĠDogecoin": 4373,
      "Ġamounts": 4374,
      "Ġlegal": 4375,
      "Ġfailure": 4376,
      "Ġcredibility": 4377,
      "Ġabsor": 4378,
      "Ġspecies": 4379,
      "Ġprimarily": 4380,
      "Ġreleases": 4381,
      "Ġreceive": 4382,
      "Ġsensible": 4383,
      "Ġincredibly": 4384,
      "Ġlabel": 4385,
      "Ġmerch": 4386,
      "Ġmodel": 4387,
      "ĠLooking": 4388,
      "ĠOrder": 4389,
      "Ġincreasingly": 4390,
      "Ġautonomy": 4391,
      "Ġenabled": 4392,
      "Deep": 4393,
      "Ġminimize": 4394,
      "Ġmounted": 4395,
      "Ġtalented": 4396,
      "Ġdangerous": 4397,
      "Ġepic": 4398,
      "Ġpatient": 4399,
      "ĠPCR": 4400,
      "Ġnecessary": 4401,
      "Ġcommunic": 4402,
      "Ġjournalists": 4403,
      "ĠJohn": 4404,
      "Ġfamily": 4405,
      "Ġvirus": 4406,
      "Ġmaintain": 4407,
      "ĠBoeing": 4408,
      "Ġinformation": 4409,
      "Ġevol": 4410,
      "Ġswitch": 4411,
      "Ġcarmakers": 4412,
      "umption": 4413,
      "Ġpicture": 4414,
      "Ġinsanely": 4415,
      "ĠHawthorne": 4416,
      "Ġcomfort": 4417,
      "wnsville": 4418,
      "Ġexplanation": 4419,
      "Ġdedicated": 4420,
      "Ġwebsite": 4421,
      "Ġpropaganda": 4422,
      "kraine": 4423,
      "pollo": 4424,
      "!)": 4425,
      "Be": 4426,
      "Back": 4427,
      "En": 4428,
      "Given": 4429,
      "Hi": 4430,
      "Hell": 4431,
      "IP": 4432,
      "Landing": 4433,
      "NA": 4434,
      "Pr": 4435,
      "Sim": 4436,
      "Uh": 4437,
      "Um": 4438,
      "aks": 4439,
      "aper": 4440,
      "com": 4441,
      "cool": 4442,
      "do": 4443,
      "eward": 4444,
      "ges": 4445,
      "gan": 4446,
      "ki": 4447,
      "mr": 4448,
      "met": 4449,
      "ned": 4450,
      "now": 4451,
      "punk": 4452,
      "rbur": 4453,
      "son": 4454,
      "uit": 4455,
      "ued": 4456,
      "vable": 4457,
      "word": 4458,
      "yd": 4459,
      "years": 4460,
      "ze": 4461,
      "Ġ?": 4462,
      "Ġtype": 4463,
      "Ġtmr": 4464,
      "inter": 4465,
      "Ġaverage": 4466,
      "Ġsat": 4467,
      "Ġscient": 4468,
      "Ġbla": 4469,
      "Ġcath": 4470,
      "Ġfield": 4471,
      "Ġfreedom": 4472,
      "itor": 4473,
      "itud": 4474,
      "ening": 4475,
      "ension": 4476,
      "Ġmine": 4477,
      "Ġmath": 4478,
      "arks": 4479,
      "Ġpet": 4480,
      "Ġpitch": 4481,
      "Ġhes": 4482,
      "Ġluck": 4483,
      "Ġlength": 4484,
      "rogen": 4485,
      "ste": 4486,
      "stood": 4487,
      "Ġnone": 4488,
      "ico": 4489,
      "icrous": 4490,
      "Ġgear": 4491,
      "Ġgreen": 4492,
      "Ġrenew": 4493,
      "ĠTrend": 4494,
      "Ġelect": 4495,
      "Ġemer": 4496,
      "ĠSame": 4497,
      "idering": 4498,
      "Ġannoying": 4499,
      "oof": 4500,
      "Ġsty": 4501,
      "thr": 4502,
      "ĠMr": 4503,
      "ĠMight": 4504,
      "ĠMont": 4505,
      "ĠMarch": 4506,
      "irl": 4507,
      "Ġrace": 4508,
      "ables": 4509,
      "ĠCEO": 4510,
      "ĠCrew": 4511,
      "Ġshown": 4512,
      "Ġtrillion": 4513,
      "ĠThese": 4514,
      "Ġexit": 4515,
      "Ġexec": 4516,
      "Ġseal": 4517,
      "umers": 4518,
      "Ġmap": 4519,
      "ipe": 4520,
      "Ġconvert": 4521,
      "Ġconvers": 4522,
      "andom": 4523,
      "Ġdev": 4524,
      "Ġdele": 4525,
      "Ġjunk": 4526,
      "raul": 4527,
      "ĠNrbur": 4528,
      "ĠPr": 4529,
      "ĠPan": 4530,
      "ĠPac": 4531,
      "ĠPart": 4532,
      "ĠPres": 4533,
      "ĠDid": 4534,
      "Ġchild": 4535,
      "ĠRUD": 4536,
      "apse": 4537,
      "ĠSte": 4538,
      "arted": 4539,
      "iesel": 4540,
      "Ġtiming": 4541,
      "ĠLaunch": 4542,
      "ĠLondon": 4543,
      "endar": 4544,
      "Ġgreatest": 4545,
      "Ġarms": 4546,
      "Ġplane": 4547,
      "Ġadvent": 4548,
      "venue": 4549,
      "Ġsomewhere": 4550,
      "Ġleeward": 4551,
      "Ġengineer": 4552,
      "Ġsave": 4553,
      "Ġdriven": 4554,
      "Ġprint": 4555,
      "Ġprivate": 4556,
      "attern": 4557,
      "udicrous": 4558,
      "Ġmonop": 4559,
      "Ġfault": 4560,
      "Ġspl": 4561,
      "Ġspin": 4562,
      "Ġamb": 4563,
      "Ġaccording": 4564,
      "Ġresp": 4565,
      "Ġreser": 4566,
      "wear": 4567,
      "ocr": 4568,
      "Ġpowert": 4569,
      "Ġrecent": 4570,
      "Ġexpensive": 4571,
      "Ġwants": 4572,
      "Production": 4573,
      "Ġconsist": 4574,
      "Ġphones": 4575,
      "Ġdiscover": 4576,
      "expected": 4577,
      "Ġgrad": 4578,
      "Ġtransaction": 4579,
      "Ġdelta": 4580,
      "fficient": 4581,
      "Ġleak": 4582,
      "Ġgenerator": 4583,
      "Ġapproved": 4584,
      "Ġvalve": 4585,
      "Ġguide": 4586,
      "ĠNov": 4587,
      "Ġwhereas": 4588,
      "Ġcomputers": 4589,
      "Ġmanage": 4590,
      "Ġdepending": 4591,
      "Ġbasic": 4592,
      "Ġbright": 4593,
      "Ġboys": 4594,
      "ĠYork": 4595,
      "Ġsettings": 4596,
      "Really": 4597,
      "Another": 4598,
      "Ġcareful": 4599,
      "Ġcompetitors": 4600,
      "Ġposted": 4601,
      "Ġhyp": 4602,
      "Ġexpert": 4603,
      "Ġroofs": 4604,
      "Ġflat": 4605,
      "shirt": 4606,
      "Ġdeveloped": 4607,
      "Ġletting": 4608,
      "Ġoptimistic": 4609,
      "Ġgraph": 4610,
      "Ġconstruction": 4611,
      "Ġinvestigate": 4612,
      "Ġmiddle": 4613,
      "Ġmemory": 4614,
      "Ġannual": 4615,
      "Ġeventually": 4616,
      "Ġeffective": 4617,
      "Ġdestroy": 4618,
      "Ġprotect": 4619,
      "Ġinitially": 4620,
      "Ġreleased": 4621,
      "Ġarray": 4622,
      "Ġfollowed": 4623,
      "Ġreplaced": 4624,
      "Ġwonder": 4625,
      "Ġfossil": 4626,
      "Ġfinished": 4627,
      "Ġaddressed": 4628,
      "Making": 4629,
      "Meant": 4630,
      "Ġpurp": 4631,
      "Ġstudent": 4632,
      "Ġramping": 4633,
      "Ġopportun": 4634,
      "Ġopposite": 4635,
      "Ġcycle": 4636,
      "Ġdrivers": 4637,
      "Ġfalling": 4638,
      "Ġtricky": 4639,
      "Ġdamage": 4640,
      "Ġelev": 4641,
      "Ġarguably": 4642,
      "burg": 4643,
      "Ġnavigate": 4644,
      "Ġseparate": 4645,
      "Ġmoderate": 4646,
      "ĠRussian": 4647,
      "appreciated": 4648,
      "Ġastronauts": 4649,
      "Ġmeasure": 4650,
      "Ġfiber": 4651,
      "Ġroute": 4652,
      "Ġopin": 4653,
      "Ġholiday": 4654,
      "Ġstraight": 4655,
      "ĠBrownsville": 4656,
      "porate": 4657,
      "Ġwalk": 4658,
      "Ġlicense": 4659,
      "Ġwebcast": 4660,
      "Ġhurt": 4661,
      "Ġmagic": 4662,
      "Ġtechnical": 4663,
      "Ġconstantly": 4664,
      "Ġclaim": 4665,
      "Ġassembly": 4666,
      "Ġantenna": 4667,
      "Ġsuppliers": 4668,
      "sustaining": 4669,
      "optim": 4670,
      "Ġembarrassing": 4671,
      "Ġtmrw": 4672,
      "Ġcathode": 4673,
      "ĠNrburgring": 4674,
      "200": 4675,
      "300": 4676,
      "40": 4677,
      "400": 4678,
      "78": 4679,
      "Ah": 4680,
      "By": 4681,
      "Con": 4682,
      "Current": 4683,
      "EPA": 4684,
      "Gu": 4685,
      "Id": 4686,
      "Ive": 4687,
      "Le": 4688,
      "Lot": 4689,
      "Like": 4690,
      "Power": 4691,
      "Rem": 4692,
      "Read": 4693,
      "Sp": 4694,
      "TC": 4695,
      "TW": 4696,
      "ault": 4697,
      "aiting": 4698,
      "but": 4699,
      "bot": 4700,
      "cur": 4701,
      "how": 4702,
      "land": 4703,
      "lies": 4704,
      "ok": 4705,
      "oint": 4706,
      "pre": 4707,
      "planetary": 4708,
      "rate": 4709,
      "ses": 4710,
      "ystem": 4711,
      "Ġ'": 4712,
      "Ġtun": 4713,
      "inary": 4714,
      "Ġapo": 4715,
      "onic": 4716,
      "Ġsort": 4717,
      "Ġsats": 4718,
      "Ġcapt": 4719,
      "Ġcaut": 4720,
      "Ġcities": 4721,
      "ĠmT": 4722,
      "Ġmix": 4723,
      "Ġpen": 4724,
      "Ġpattern": 4725,
      "Ġda": 4726,
      "Ġdiv": 4727,
      "Ġdraw": 4728,
      "Ġhang": 4729,
      "Ġhorn": 4730,
      "Ġlighter": 4731,
      "alo": 4732,
      "Ġnature": 4733,
      "let": 4734,
      "asically": 4735,
      "aco": 4736,
      "Ġrese": 4737,
      "Ġrepe": 4738,
      "Ġreduction": 4739,
      "Ġeat": 4740,
      "Ġformer": 4741,
      "ĠSil": 4742,
      "ĠShip": 4743,
      "idence": 4744,
      "ches": 4745,
      "ĠIC": 4746,
      "ĠIP": 4747,
      "ĠIron": 4748,
      "Ġstates": 4749,
      "Ġstabil": 4750,
      "ĠMin": 4751,
      "Ġwhatever": 4752,
      "Ġwear": 4753,
      "Ġracing": 4754,
      "ĠAb": 4755,
      "opia": 4756,
      "Ġcoast": 4757,
      "cellent": 4758,
      "ĠCenter": 4759,
      "Ġshipping": 4760,
      "Ġtrouble": 4761,
      "Ġvot": 4762,
      "Ġvary": 4763,
      "Ġvoice": 4764,
      "ants": 4765,
      "anted": 4766,
      "Ġnotice": 4767,
      "Ġexcess": 4768,
      "Ġsever": 4769,
      "ipment": 4770,
      "Ġconven": 4771,
      "ĠBy": 4772,
      "Ġalien": 4773,
      "raph": 4774,
      "Ġ(~": 4775,
      "Ġsuc": 4776,
      "ĠHer": 4777,
      "ĠHouse": 4778,
      "ĠHoping": 4779,
      "Ġlives": 4780,
      "ĠDis": 4781,
      "ĠEast": 4782,
      "Ġche": 4783,
      "Ġpoll": 4784,
      "ainment": 4785,
      "Ġcompression": 4786,
      "Ġmeg": 4787,
      "Ġkill": 4788,
      "ĠGen": 4789,
      "ĠGerm": 4790,
      "Ġhex": 4791,
      "Ġnoise": 4792,
      "Ġloved": 4793,
      "Ġproduce": 4794,
      "Ġunkn": 4795,
      "Ġunexpected": 4796,
      "Ġactu": 4797,
      "Ġoverall": 4798,
      "ĠVac": 4799,
      "ĠVersion": 4800,
      "ĠJan": 4801,
      "ependent": 4802,
      "Ġsolid": 4803,
      "Ġorbits": 4804,
      "Ġperi": 4805,
      "Where": 4806,
      "weight": 4807,
      "Ġbackup": 4808,
      "Ġbackground": 4809,
      "Ġunderstood": 4810,
      "order": 4811,
      "Ġexplo": 4812,
      "Ġregion": 4813,
      "Ġscam": 4814,
      "agree": 4815,
      "Ġworlds": 4816,
      "Ġtwea": 4817,
      "Ġtwitter": 4818,
      "Ġdownload": 4819,
      "Ġconsumption": 4820,
      "Ġartific": 4821,
      "Ġdisagree": 4822,
      "ockh": 4823,
      "ĠWho": 4824,
      "aneu": 4825,
      "Ġdifferences": 4826,
      "aka": 4827,
      "Ġesc": 4828,
      "Ġindic": 4829,
      "Ġfixing": 4830,
      "Ġmedium": 4831,
      "ĠSupercharging": 4832,
      "Ġplanning": 4833,
      "Ġbox": 4834,
      "Ġirre": 4835,
      "Ġremains": 4836,
      "ĠTheyre": 4837,
      "Ġwindward": 4838,
      "Ġposit": 4839,
      "ecking": 4840,
      "egap": 4841,
      "shold": 4842,
      "Ġholding": 4843,
      "Ġdropped": 4844,
      "Ġseconds": 4845,
      "Ġoptimization": 4846,
      "Ġthoughtful": 4847,
      "Ġcollapse": 4848,
      "Ġradio": 4849,
      "Ġdeliveries": 4850,
      "Ġmidnight": 4851,
      "Ġfailed": 4852,
      "Ġwaiting": 4853,
      "Ġkeeps": 4854,
      "Mostly": 4855,
      "Ġspecific": 4856,
      "Ġaffected": 4857,
      "Ġbroad": 4858,
      "Ġbroken": 4859,
      "Ġentirely": 4860,
      "Ġprobable": 4861,
      "Ġunderstanding": 4862,
      "Ġdebate": 4863,
      "cracy": 4864,
      "Ġlabor": 4865,
      "Ġequipment": 4866,
      "Ġeconomy": 4867,
      "Ġeconomics": 4868,
      "Ġthreshold": 4869,
      "play": 4870,
      "Ġshielding": 4871,
      "Ġhydraul": 4872,
      "Ġachieved": 4873,
      "Ġcalendar": 4874,
      "Ġmentioned": 4875,
      "Ġgrowth": 4876,
      "Ġdegrees": 4877,
      "Ġlayers": 4878,
      "irationally": 4879,
      "Ġobjects": 4880,
      "SolarCity": 4881,
      "board": 4882,
      "rasshopper": 4883,
      "Ġduties": 4884,
      "Ġinjury": 4885,
      "Ġcharging": 4886,
      "Ġwarming": 4887,
      "Whoa": 4888,
      "Ġfloor": 4889,
      "Ġterminals": 4890,
      "Ġapart": 4891,
      "Ġreliability": 4892,
      "Ġreplacement": 4893,
      "Accurate": 4894,
      "ĠHappy": 4895,
      "Ġcontrolled": 4896,
      "ĠDoesnt": 4897,
      "upport": 4898,
      "Ġvalidation": 4899,
      "Ġprinciple": 4900,
      "Technically": 4901,
      "Ġbenef": 4902,
      "Ġauthorities": 4903,
      "Ġpolicy": 4904,
      "Perhaps": 4905,
      "Ġterrible": 4906,
      "ĠCyberpunk": 4907,
      "ĠChristmas": 4908,
      "through": 4909,
      "Ġopinion": 4910,
      "Ġresearch": 4911,
      "Ġunknown": 4912,
      "AC": 4913,
      "Bl": 4914,
      "Baby": 4915,
      "Car": 4916,
      "HT": 4917,
      "Hes": 4918,
      "Head": 4919,
      "Huge": 4920,
      "Literally": 4921,
      "Put": 4922,
      "Part": 4923,
      "Res": 4924,
      "SJ": 4925,
      "Sm": 4926,
      "aft": 4927,
      "aoke": 4928,
      "bel": 4929,
      "burn": 4930,
      "based": 4931,
      "cis": 4932,
      "dom": 4933,
      "iest": 4934,
      "ky": 4935,
      "loo": 4936,
      "ma": 4937,
      "man": 4938,
      "ners": 4939,
      "ossibly": 4940,
      "pack": 4941,
      "rding": 4942,
      "sy": 4943,
      "uish": 4944,
      "vada": 4945,
      "wd": 4946,
      "will": 4947,
      "with": 4948,
      "yard": 4949,
      "zen": 4950,
      "Ġ)": 4951,
      "Ġ=": 4952,
      "ĠYes": 4953,
      "Ġouter": 4954,
      "Ġter": 4955,
      "Ġaw": 4956,
      "Ġamp": 4957,
      "rey": 4958,
      "Ġthus": 4959,
      "Ġwins": 4960,
      "Ġwidth": 4961,
      "Ġban": 4962,
      "Ġborn": 4963,
      "Ġbattle": 4964,
      "atest": 4965,
      "Ġcave": 4966,
      "Ġcute": 4967,
      "inge": 4968,
      "Ġfold": 4969,
      "Ġfwd": 4970,
      "ened": 4971,
      "Ġmicro": 4972,
      "Ġmaneu": 4973,
      "anium": 4974,
      "Ġpushing": 4975,
      "edy": 4976,
      "Ġhar": 4977,
      "Ġnat": 4978,
      "Ġnons": 4979,
      "asive": 4980,
      "Ġgar": 4981,
      "Ġgig": 4982,
      "Ġreference": 4983,
      "Ġrevenue": 4984,
      "amping": 4985,
      "etime": 4986,
      "ĠTry": 4987,
      "ĠTree": 4988,
      "ĠSc": 4989,
      "ĠSch": 4990,
      "ĠSur": 4991,
      "ĠSign": 4992,
      "ows": 4993,
      "ided": 4994,
      "Ġancient": 4995,
      "che": 4996,
      "ĠIV": 4997,
      "allel": 4998,
      "Ġsoft": 4999,
      "Ġstat": 5000,
      "Ġstars": 5001,
      "Ġstick": 5002,
      "Ġstole": 5003,
      "ĠMan": 5004,
      "ĠMed": 5005,
      "ĠMass": 5006,
      "ammer": 5007,
      "usted": 5008,
      "ilities": 5009,
      "ĠAct": 5010,
      "ifically": 5011,
      "Ġcov": 5012,
      "ĠCount": 5013,
      "ĠComm": 5014,
      "Ġshorter": 5015,
      "Ġtriv": 5016,
      "Ġtrunk": 5017,
      "Ġasking": 5018,
      "Ġvi": 5019,
      "ĠWW": 5020,
      "Ġdoors": 5021,
      "Ġcond": 5022,
      "Ġrow": 5023,
      "ĠBFR": 5024,
      "Ġalive": 5025,
      "Ġalert": 5026,
      "ĠHEPA": 5027,
      "ĠPre": 5028,
      "ĠPeople": 5029,
      "Ġwasnt": 5030,
      "ĠRocket": 5031,
      "ĠRoof": 5032,
      "Ġcompens": 5033,
      "Ġupon": 5034,
      "ĠGary": 5035,
      "ĠGrasshopper": 5036,
      "ĠLi": 5037,
      "ĠLatter": 5038,
      "Ġlock": 5039,
      "Ġbuff": 5040,
      "ĠUkraine": 5041,
      "ĠOk": 5042,
      "inda": 5043,
      "Ġlease": 5044,
      "Ġoverr": 5045,
      "Ġdrone": 5046,
      "Ġthru": 5047,
      "Ġfaith": 5048,
      "Ġyourself": 5049,
      "Ġconte": 5050,
      "Ġsports": 5051,
      "Ġlands": 5052,
      "Ġresale": 5053,
      "Ġresolution": 5054,
      "Ġsymb": 5055,
      "Ġeverywhere": 5056,
      "Ġunderappreciated": 5057,
      "Ġpupp": 5058,
      "lications": 5059,
      "upiter": 5060,
      "Ġexpand": 5061,
      "Ġvector": 5062,
      "Truth": 5063,
      "Ġlifetime": 5064,
      "ĠNeeds": 5065,
      "Ġspaceport": 5066,
      "Ġended": 5067,
      "novation": 5068,
      "Ġconsumers": 5069,
      "elling": 5070,
      "Ġinsight": 5071,
      "Ġcompleting": 5072,
      "atched": 5073,
      "Ġdefense": 5074,
      "vention": 5075,
      "Ġleave": 5076,
      "Ġsigns": 5077,
      "Needs": 5078,
      "Ġupdated": 5079,
      "Ġpublicly": 5080,
      "Ġrefilling": 5081,
      "ĠCovid": 5082,
      "Ġoperate": 5083,
      "Ġrolls": 5084,
      "Ġplanets": 5085,
      "Ġplanned": 5086,
      "Ġboat": 5087,
      "Ġdecade": 5088,
      "Ġroads": 5089,
      "Ġtempor": 5090,
      "Ġmotion": 5091,
      "Ġbelie": 5092,
      "Ġbrake": 5093,
      "Ġexperts": 5094,
      "Ġoptional": 5095,
      "Ġdetect": 5096,
      "Ġflies": 5097,
      "Ġmultiple": 5098,
      "Ġoptimal": 5099,
      "Ġcommit": 5100,
      "Always": 5101,
      "Already": 5102,
      "ĠZip": 5103,
      "Ġhands": 5104,
      "Ġhandle": 5105,
      "ĠSeems": 5106,
      "Ġdiscount": 5107,
      "Ġdelivering": 5108,
      "Ġpieces": 5109,
      "Ġterms": 5110,
      "Ġspecifically": 5111,
      "ycling": 5112,
      "ĠAtlas": 5113,
      "Ġempty": 5114,
      "Ġfocused": 5115,
      "Ġrelatively": 5116,
      "Ġsubscription": 5117,
      "logies": 5118,
      "going": 5119,
      "Ġstructural": 5120,
      "Makes": 5121,
      "Ġhearing": 5122,
      "Ġstudy": 5123,
      "Ġproviding": 5124,
      "ĠNYT": 5125,
      "toff": 5126,
      "Ġaccounts": 5127,
      "Ġpods": 5128,
      "Ġcauses": 5129,
      "Ġcycles": 5130,
      "Ġlasers": 5131,
      "Ġdegree": 5132,
      "Ġdigging": 5133,
      "Ġincentive": 5134,
      "Beta": 5135,
      "Ġrevolution": 5136,
      "ĠWorking": 5137,
      "Ġbottom": 5138,
      "Ġpushed": 5139,
      "Ġpromising": 5140,
      "Ġpresentation": 5141,
      "Ġseparation": 5142,
      "Ġnecessarily": 5143,
      "ĠEngine": 5144,
      "yram": 5145,
      "Ġastronom": 5146,
      "Ġgeo": 5147,
      "Ġdocking": 5148,
      "force": 5149,
      "ĠEnhanced": 5150,
      "Ġspeaker": 5151,
      "Ġenvironmental": 5152,
      "Ġpropuls": 5153,
      "Ġpropulsion": 5154,
      "Ġparticularly": 5155,
      "Ġbeginning": 5156,
      "Ġrecogn": 5157,
      "Ġphysical": 5158,
      "andenberg": 5159,
      "Ġjacket": 5160,
      "bviously": 5161,
      "ĠMajor": 5162,
      "Ġinternally": 5163,
      "Ġexponential": 5164,
      "Ġrobotaxi": 5165,
      "Engine": 5166,
      "Ġfiction": 5167,
      "ĠThursday": 5168,
      "Ġquickly": 5169,
      "Ġpurchase": 5170,
      "Ġwerent": 5171,
      "Ġreactor": 5172,
      "Ġdemonstr": 5173,
      "Ġrecovered": 5174,
      "Ġprotection": 5175,
      "izontal": 5176,
      "Ġrepresent": 5177,
      "ĠRequires": 5178,
      "Ġlabeling": 5179,
      "ĠPacific": 5180,
      "Ahem": 5181,
      "Ġsucceed": 5182,
      "Ġirrele": 5183,
      "Ġhydraulic": 5184,
      "rdinger": 5185,
      "250": 5186,
      "35": 5187,
      "85": 5188,
      ";&": 5189,
      "Astron": 5190,
      "Busted": 5191,
      "Done": 5192,
      "Getting": 5193,
      "Iron": 5194,
      "Later": 5195,
      "MA": 5196,
      "Mass": 5197,
      "Nu": 5198,
      "Open": 5199,
      "PC": 5200,
      "Pal": 5201,
      "Red": 5202,
      "Tot": 5203,
      "aking": 5204,
      "aign": 5205,
      "car": 5206,
      "cies": 5207,
      "diesel": 5208,
      "fall": 5209,
      "father": 5210,
      "ged": 5211,
      "gering": 5212,
      "high": 5213,
      "hard": 5214,
      "iation": 5215,
      "ibit": 5216,
      "kin": 5217,
      "lus": 5218,
      "oys": 5219,
      "ror": 5220,
      "rust": 5221,
      "toty": 5222,
      "tronic": 5223,
      "uations": 5224,
      "ugg": 5225,
      "vior": 5226,
      "Ġie": 5227,
      "Ġtire": 5228,
      "Ġtable": 5229,
      "Ġtree": 5230,
      "onav": 5231,
      "Ġsle": 5232,
      "Ġsick": 5233,
      "Ġsix": 5234,
      "Ġthick": 5235,
      "Ġthird": 5236,
      "Ġwire": 5237,
      "Ġwider": 5238,
      "orse": 5239,
      "Ġbal": 5240,
      "Ġbreat": 5241,
      "Ġbiz": 5242,
      "Ġbull": 5243,
      "Ġblog": 5244,
      "Ġcop": 5245,
      "Ġcru": 5246,
      "ison": 5247,
      "Ġfac": 5248,
      "Ġfood": 5249,
      "Ġfacing": 5250,
      "enger": 5251,
      "Ġms": 5252,
      "Ġmas": 5253,
      "Ġoh": 5254,
      "Ġdin": 5255,
      "Ġdense": 5256,
      "Ġled": 5257,
      "Ġlane": 5258,
      "Ġlmk": 5259,
      "mph": 5260,
      "rox": 5261,
      "Ġincon": 5262,
      "als": 5263,
      "Ġnar": 5264,
      "ica": 5265,
      "icians": 5266,
      "lying": 5267,
      "Ġgun": 5268,
      "Ġgiving": 5269,
      "igs": 5270,
      "utions": 5271,
      "Ġrent": 5272,
      "ota": 5273,
      "ĠTimes": 5274,
      "ĠTwo": 5275,
      "Ġeye": 5276,
      "illa": 5277,
      "ĠSF": 5278,
      "eless": 5279,
      "allout": 5280,
      "imb": 5281,
      "imler": 5282,
      "imov": 5283,
      "Ġstuck": 5284,
      "thanks": 5285,
      "ĠMc": 5286,
      "ĠMun": 5287,
      "ĠMegap": 5288,
      "Ġweap": 5289,
      "Ġproof": 5290,
      "iler": 5291,
      "Then": 5292,
      "Thought": 5293,
      "Ġrum": 5294,
      "Ġrandom": 5295,
      "ĠAlt": 5296,
      "ĠAng": 5297,
      "ĠAdding": 5298,
      "ĠApollo": 5299,
      "ested": 5300,
      "ifying": 5301,
      "Ġmoved": 5302,
      "Ġmoves": 5303,
      "Ġcoating": 5304,
      "Ġcoinc": 5305,
      "ĠCritical": 5306,
      "Ġtrains": 5307,
      "Ġvid": 5308,
      "ĠWater": 5309,
      "ĠWorth": 5310,
      "ĠWSJ": 5311,
      "Ġexists": 5312,
      "Ġsex": 5313,
      "Ġworry": 5314,
      "umans": 5315,
      "ĠFTW": 5316,
      "ĠBar": 5317,
      "ĠBoth": 5318,
      "ĠBlock": 5319,
      "Ġalign": 5320,
      "rav": 5321,
      "rage": 5322,
      "Ġsuit": 5323,
      "ĠDC": 5324,
      "ĠDon": 5325,
      "ĠEnd": 5326,
      "ĠElectric": 5327,
      "Ġchart": 5328,
      "ĠRock": 5329,
      "used": 5330,
      "ĠStan": 5331,
      "Ġgold": 5332,
      "ĠkWh": 5333,
      "irect": 5334,
      "Ġfee": 5335,
      "Ġheats": 5336,
      "Ġprefer": 5337,
      "Ġpreburn": 5338,
      "Ġadvice": 5339,
      "Ġshouldnt": 5340,
      "Ġbump": 5341,
      "Ġbugs": 5342,
      "ĠOTA": 5343,
      "Ġsafer": 5344,
      "ĠVan": 5345,
      "ĠJupiter": 5346,
      "Ġspo": 5347,
      "Ġspoke": 5348,
      "arglass": 5349,
      "ricks": 5350,
      "Ġaccur": 5351,
      "Strange": 5352,
      "Which": 5353,
      "While": 5354,
      "\"\".": 5355,
      "well": 5356,
      "Ġautopilot": 5357,
      "ressing": 5358,
      "Ġwhenever": 5359,
      "Ġinterse": 5360,
      "Ġunderground": 5361,
      "Ġpuck": 5362,
      "rier": 5363,
      "Ġexpress": 5364,
      "Ġextending": 5365,
      "ĠNevada": 5366,
      "Ġparallel": 5367,
      "ĠIns": 5368,
      "ĠInst": 5369,
      "Ġhelium": 5370,
      "Prob": 5371,
      "Ġsuperall": 5372,
      "Ġendorse": 5373,
      "Ġgrand": 5374,
      "ĠWhere": 5375,
      "Ġclearly": 5376,
      "Ġjokes": 5377,
      "Never": 5378,
      "Ġ-&": 5379,
      "lessly": 5380,
      "Ġsurfaces": 5381,
      "Ġfairly": 5382,
      "Ġtalked": 5383,
      "ermal": 5384,
      "Ġcomputing": 5385,
      "Ġzone": 5386,
      "ĠYoure": 5387,
      "which": 5388,
      "Ġflame": 5389,
      "ĠYour": 5390,
      "Ġpassenger": 5391,
      "Reg": 5392,
      "Ġdecision": 5393,
      "Ġdecades": 5394,
      "gging": 5395,
      "Ġremaining": 5396,
      "Ġordered": 5397,
      "Ġstops": 5398,
      "Ġreached": 5399,
      "Ġfunding": 5400,
      "Dojo": 5401,
      "Ġattention": 5402,
      "Ġexperien": 5403,
      "Ġbuyers": 5404,
      "ĠNews": 5405,
      "Ġdropping": 5406,
      "Ġreasonable": 5407,
      "ĠSoftware": 5408,
      "Ġstream": 5409,
      "standing": 5410,
      "ĠZero": 5411,
      "Ġhandling": 5412,
      "Ġviews": 5413,
      "Ġdealers": 5414,
      "Ġtweeting": 5415,
      "Ġdistract": 5416,
      "Ġanaly": 5417,
      "Ġloads": 5418,
      "Ġabsolutely": 5419,
      "Ġevents": 5420,
      "Ġprograms": 5421,
      "Ġcores": 5422,
      "However": 5423,
      "Ġemphas": 5424,
      "point": 5425,
      "ĠAlpha": 5426,
      "Ġnegatively": 5427,
      "Impressive": 5428,
      "Ġreduced": 5429,
      "ĠMoreover": 5430,
      "Ġoffering": 5431,
      "Ġultimately": 5432,
      "ĠGoing": 5433,
      "ribed": 5434,
      "iki": 5435,
      "Ġassuming": 5436,
      "Ġemission": 5437,
      "Ġconnected": 5438,
      "Ġcausing": 5439,
      "Ġessentially": 5440,
      "Ġprofit": 5441,
      "Ġmaximize": 5442,
      "ĠImportant": 5443,
      "box": 5444,
      "Ġerrors": 5445,
      "Ġhorse": 5446,
      "Ġlearned": 5447,
      "Ġperman": 5448,
      "Anyone": 5449,
      "Ġpatents": 5450,
      "ĠRussia": 5451,
      "Ġmechanical": 5452,
      "ĠEverything": 5453,
      "Ġbreakthrough": 5454,
      "Ġfinancing": 5455,
      "Exciting": 5456,
      "iosis": 5457,
      "rsly": 5458,
      "Ġtitanium": 5459,
      "ĠFoundation": 5460,
      "Ġsucks": 5461,
      "Ġsurvival": 5462,
      "Ġforgot": 5463,
      "ĠParad": 5464,
      "ĠDaimler": 5465,
      "Ġdeserves": 5466,
      "Ġbehavior": 5467,
      "Ġcolors": 5468,
      "Ġattached": 5469,
      "Ġconvinced": 5470,
      "Ġfootage": 5471,
      "Ġcampaign": 5472,
      "Ġdoubt": 5473,
      "Ġinertia": 5474,
      "Ġstartups": 5475,
      "Ġemployees": 5476,
      "Ġemoji": 5477,
      "ĠSolarglass": 5478,
      "Ġbuttons": 5479,
      "Ġesthet": 5480,
      "Ġcharacter": 5481,
      "Ġinevit": 5482,
      "ĠFeb": 5483,
      "ĠFlamethrower": 5484,
      "ĠDelta": 5485,
      "Ġpatients": 5486,
      "Ġstyle": 5487,
      "ĠPresident": 5488,
      "Ġperiod": 5489,
      "Ġartificial": 5490,
      "ockheed": 5491,
      "Ġpositives": 5492,
      "HTSA": 5493,
      "Ġnonsense": 5494,
      "ĠMedtronic": 5495,
      "16": 5496,
      "150": 5497,
      "380": 5498,
      "800": 5499,
      "Build": 5500,
      "Battery": 5501,
      "Cons": 5502,
      "DA": 5503,
      "Don": 5504,
      "Design": 5505,
      "Damn": 5506,
      "Fate": 5507,
      "Found": 5508,
      "Fix": 5509,
      "HD": 5510,
      "His": 5511,
      "IC": 5512,
      "Last": 5513,
      "Lets": 5514,
      "Life": 5515,
      "Must": 5516,
      "Moon": 5517,
      "Moving": 5518,
      "Ro": 5519,
      "Russ": 5520,
      "Roughly": 5521,
      "Sc": 5522,
      "Sun": 5523,
      "Sign": 5524,
      "Tom": 5525,
      "Twitter": 5526,
      "Two": 5527,
      "au": 5528,
      "aur": 5529,
      "bor": 5530,
      "bar": 5531,
      "bed": 5532,
      "cer": 5533,
      "ev": 5534,
      "house": 5535,
      "human": 5536,
      "joy": 5537,
      "kg": 5538,
      "late": 5539,
      "lud": 5540,
      "lantic": 5541,
      "mi": 5542,
      "min": 5543,
      "more": 5544,
      "mber": 5545,
      "mark": 5546,
      "mins": 5547,
      "nage": 5548,
      "plan": 5549,
      "rong": 5550,
      "tage": 5551,
      "Ġ[": 5552,
      "ĠYeah": 5553,
      "Ġtreat": 5554,
      "Ġtrees": 5555,
      "Ġaster": 5556,
      "ona": 5557,
      "Ġsed": 5558,
      "Ġsorry": 5559,
      "rete": 5560,
      "Ġthreat": 5561,
      "Ġwast": 5562,
      "Ġwave": 5563,
      "Ġwarning": 5564,
      "esides": 5565,
      "orbital": 5566,
      "Ġbur": 5567,
      "atr": 5568,
      "Ġcopper": 5569,
      "Ġcook": 5570,
      "Ġfill": 5571,
      "Ġface": 5572,
      "oug": 5573,
      "oul": 5574,
      "itially": 5575,
      "enn": 5576,
      "Ġmere": 5577,
      "arre": 5578,
      "anos": 5579,
      "Ġpull": 5580,
      "Ġpics": 5581,
      "Ġpacks": 5582,
      "Ġpyram": 5583,
      "Ġtox": 5584,
      "Ġdiver": 5585,
      "Ġhal": 5586,
      "Ġhence": 5587,
      "Ġhole": 5588,
      "Ġlol": 5589,
      "stream": 5590,
      "Ġinject": 5591,
      "ionics": 5592,
      "Ġbell": 5593,
      "Ġbear": 5594,
      "Ġbeast": 5595,
      "Ġbeats": 5596,
      "vey": 5597,
      "Ġgain": 5598,
      "acc": 5599,
      "Ġrew": 5600,
      "Ġreverse": 5601,
      "ĠTV": 5602,
      "ĠTX": 5603,
      "Ġeyes": 5604,
      "ĠSw": 5605,
      "ĠSec": 5606,
      "ĠSince": 5607,
      "Ġyoke": 5608,
      "allow": 5609,
      "adian": 5610,
      "imation": 5611,
      "Ġstorm": 5612,
      "ithm": 5613,
      "ĠMakes": 5614,
      "sec": 5615,
      "amine": 5616,
      "irit": 5617,
      "Ġpros": 5618,
      "Ġproport": 5619,
      "Three": 5620,
      "Ġrn": 5621,
      "Ġring": 5622,
      "Ġrates": 5623,
      "Ġrule": 5624,
      "ĠAGI": 5625,
      "opter": 5626,
      "urally": 5627,
      "Ġcoal": 5628,
      "ĠCA": 5629,
      "ĠCongr": 5630,
      "Ġenem": 5631,
      "Ġshape": 5632,
      "Ġshaft": 5633,
      "Ġascent": 5634,
      "ulate": 5635,
      "ulated": 5636,
      "Ġvib": 5637,
      "ĠWar": 5638,
      "ĠWish": 5639,
      "ĠWatch": 5640,
      "Ġsemi": 5641,
      "ips": 5642,
      "ĠFP": 5643,
      "ĠFair": 5644,
      "eaut": 5645,
      "Ġjet": 5646,
      "Ġalpha": 5647,
      "Ġalgor": 5648,
      "rapped": 5649,
      "ssentially": 5650,
      "Ġalloy": 5651,
      "ĠHas": 5652,
      "ĠHad": 5653,
      "Ġlie": 5654,
      "Ġliving": 5655,
      "lose": 5656,
      "Ġwasn": 5657,
      "ĠDM": 5658,
      "ĠDan": 5659,
      "ĠDesign": 5660,
      "ĠDetail": 5661,
      "ĠExtremely": 5662,
      "Ġchoo": 5663,
      "quiv": 5664,
      "ĠRight": 5665,
      "ĠRead": 5666,
      "Ġposs": 5667,
      "aint": 5668,
      "Ġmemb": 5669,
      "usk": 5670,
      "Ġupcoming": 5671,
      "Ġkeros": 5672,
      "ĠGu": 5673,
      "ĠGot": 5674,
      "ĠGoogle": 5675,
      "Ġfear": 5676,
      "rys": 5677,
      "Ġlob": 5678,
      "Ġloves": 5679,
      "Ġgoodness": 5680,
      "Ġarm": 5681,
      "Ġplat": 5682,
      "Ġusable": 5683,
      "Ġunus": 5684,
      "Ġunable": 5685,
      "ĠUI": 5686,
      "ĠULA": 5687,
      "Ġlaugh": 5688,
      "Weve": 5689,
      "Ġsomehow": 5690,
      "Ġsaves": 5691,
      "ĠVandenberg": 5692,
      "Ġpricing": 5693,
      "Ġincome": 5694,
      "ĠJam": 5695,
      "Excellent": 5696,
      "Ġintention": 5697,
      "Ġcontact": 5698,
      "Ġspot": 5699,
      "Ġsolves": 5700,
      "rict": 5701,
      "Ġaccumul": 5702,
      "Whats": 5703,
      "Ġresc": 5704,
      "Ġresidual": 5705,
      "Ġserver": 5706,
      "Ġinterface": 5707,
      "Ġinterplanetary": 5708,
      "osed": 5709,
      "Ġrecall": 5710,
      "Ġrecycling": 5711,
      "ords": 5712,
      "Ġpartially": 5713,
      "Ġexpanding": 5714,
      "Ġregarding": 5715,
      "aggering": 5716,
      "Ġconsidering": 5717,
      "Ġfarm": 5718,
      "Ġdisplay": 5719,
      "Note": 5720,
      "Ġbecomes": 5721,
      "exactly": 5722,
      "Ġtransp": 5723,
      "ĠWhats": 5724,
      "Ġconfusion": 5725,
      "Ġincreased": 5726,
      "Ġenter": 5727,
      "Ġvalu": 5728,
      "Ġfired": 5729,
      "month": 5730,
      "ĠDojo": 5731,
      "gency": 5732,
      "Ġcentral": 5733,
      "Ġcentury": 5734,
      "Ġcloud": 5735,
      "Ġtaxpay": 5736,
      "Ġcontrols": 5737,
      "Ġbother": 5738,
      "Ġshowing": 5739,
      "Ġlimits": 5740,
      "Ġidiot": 5741,
      "Ġdepart": 5742,
      "Ġindependent": 5743,
      "Ġbrief": 5744,
      "Ġvisiting": 5745,
      "Ġpersonal": 5746,
      "Ġvoltage": 5747,
      "Ġuntr": 5748,
      "Ġdecide": 5749,
      "Ġdeclin": 5750,
      "Ancient": 5751,
      "Ġmulti": 5752,
      "Ġplayed": 5753,
      "Ġrisky": 5754,
      "Theyre": 5755,
      "Ġmultiplanet": 5756,
      "spirationally": 5757,
      "Ġstreets": 5758,
      "Ġclosing": 5759,
      "Ġinvestor": 5760,
      "Ġmachines": 5761,
      "obv": 5762,
      "Ġreturned": 5763,
      "Ġrobust": 5764,
      "Ġdistrib": 5765,
      "Ġsteam": 5766,
      "ĠSolarCity": 5767,
      "Order": 5768,
      "ĠAtlantic": 5769,
      "Ġmanufactur": 5770,
      "Ġwinter": 5771,
      "Ġwinning": 5772,
      "Ġsensors": 5773,
      "Ġfollowing": 5774,
      "Ġinfo": 5775,
      "ĠDeep": 5776,
      "Ġfundamentally": 5777,
      "Ġtotally": 5778,
      "Ġredund": 5779,
      "Ġeconomic": 5780,
      "logical": 5781,
      "paring": 5782,
      "Ġsentient": 5783,
      "Ġbegins": 5784,
      "Ġordering": 5785,
      "Ġfactories": 5786,
      "ĠStarhopper": 5787,
      "Ġwishes": 5788,
      "ĠAsia": 5789,
      "Ġsuggests": 5790,
      "ĠMostly": 5791,
      "Ġcatching": 5792,
      "ĠGoal": 5793,
      "ruption": 5794,
      "Ġturbine": 5795,
      "Ġstatement": 5796,
      "Ġincludes": 5797,
      "Ġsources": 5798,
      "Ġatmospheric": 5799,
      "Ġpodcast": 5800,
      "Ġrepairs": 5801,
      "Ġcaused": 5802,
      "poned": 5803,
      "ĠArt": 5804,
      "Ġenables": 5805,
      "Ġenabling": 5806,
      "Ġdamn": 5807,
      "Better": 5808,
      "ĠPhD": 5809,
      "Ġblows": 5810,
      "Ġcurve": 5811,
      "Ġhorizontal": 5812,
      "Ġepis": 5813,
      "Ġvastly": 5814,
      "ynam": 5815,
      "arents": 5816,
      "Ġreporting": 5817,
      "Ġcasting": 5818,
      "Ġmethods": 5819,
      "Ġbankruptcy": 5820,
      "Ġthousand": 5821,
      "Ġboosters": 5822,
      "afety": 5823,
      "Ġapocal": 5824,
      "ĠOtherwise": 5825,
      "ouple": 5826,
      "Ġreliable": 5827,
      "Ġapplying": 5828,
      "Excited": 5829,
      "Ġfoolish": 5830,
      "Ġridicul": 5831,
      "Ġtraditional": 5832,
      "Ġkidding": 5833,
      "Ġcrewed": 5834,
      "ypse": 5835,
      "Ġrecovery": 5836,
      "Ġconcerns": 5837,
      "ĠSaturn": 5838,
      "ĠSeptember": 5839,
      "Ġdollar": 5840,
      "Ġpolitical": 5841,
      "Ġpedestrian": 5842,
      "Ġpedestrians": 5843,
      "Ġunequiv": 5844,
      "Ġabsurdly": 5845,
      "Ġshareholder": 5846,
      "Quil": 5847,
      "Ġiteration": 5848,
      "Ġmilest": 5849,
      "Ġhouses": 5850,
      "ĠReports": 5851,
      "Ġsimultaneously": 5852,
      "Ġobser": 5853,
      "Ġresistance": 5854,
      "Ġstopped": 5855,
      "Ġevolving": 5856,
      "Ġconversation": 5857,
      "Ġrespons": 5858,
      "Ġdaily": 5859,
      "raphy": 5860,
      "ĠGermany": 5861,
      "Ġexplosion": 5862,
      "Ġtweaks": 5863,
      "Ġescape": 5864,
      "Ġbenefit": 5865,
      "Ġampl": 5866,
      "ĠSchrdinger": 5867,
      "Ġsymbiosis": 5868,
      "Ġpuppet": 5869,
      "Ġpropulsive": 5870,
      "totypes": 5871,
      "Ġbalance": 5872,
      "Ġbullet": 5873,
      "ĠStanford": 5874,
      "Ġemphasize": 5875,
      "Ġinevitable": 5876,
      "Ġkerosene": 5877,
      "$$": 5878,
      "%,": 5879,
      "75": 5880,
      "90": 5881,
      "Ar": 5882,
      "Add": 5883,
      "Booster": 5884,
      "Def": 5885,
      "Electric": 5886,
      "Fi": 5887,
      "Fun": 5888,
      "From": 5889,
      "Flight": 5890,
      "Final": 5891,
      "Gen": 5892,
      "Gas": 5893,
      "Had": 5894,
      "Hold": 5895,
      "Int": 5896,
      "Lo": 5897,
      "Live": 5898,
      "Latest": 5899,
      "Min": 5900,
      "Pay": 5901,
      "RO": 5902,
      "Rep": 5903,
      "Su": 5904,
      "Sometimes": 5905,
      "Te": 5906,
      "Tunn": 5907,
      "Tube": 5908,
      "Vide": 5909,
      "VAC": 5910,
      "Wal": 5911,
      "awn": 5912,
      "after": 5913,
      "ban": 5914,
      "bra": 5915,
      "dr": 5916,
      "den": 5917,
      "days": 5918,
      "eer": 5919,
      "fl": 5920,
      "fric": 5921,
      "gus": 5922,
      "hr": 5923,
      "hour": 5924,
      "hopefully": 5925,
      "hield": 5926,
      "ius": 5927,
      "list": 5928,
      "lich": 5929,
      "mare": 5930,
      "ola": 5931,
      "oids": 5932,
      "part": 5933,
      "rant": 5934,
      "si": 5935,
      "space": 5936,
      "satell": 5937,
      "tles": 5938,
      "topia": 5939,
      "uitive": 5940,
      "vanced": 5941,
      "you": 5942,
      "Ġtast": 5943,
      "Ġtile": 5944,
      "inux": 5945,
      "onored": 5946,
      "Ġsigh": 5947,
      "rest": 5948,
      "Ġthin": 5949,
      "Ġthrow": 5950,
      "Ġthinks": 5951,
      "Ġwing": 5952,
      "Ġwif": 5953,
      "Ġboun": 5954,
      "Ġbots": 5955,
      "atory": 5956,
      "Ġcm": 5957,
      "Ġcit": 5958,
      "Ġcam": 5959,
      "Ġcab": 5960,
      "Ġcand": 5961,
      "Ġcour": 5962,
      "Ġcorre": 5963,
      "Ġcurrency": 5964,
      "ingle": 5965,
      "Ġfive": 5966,
      "Ġfirmware": 5967,
      "Ġfederal": 5968,
      "encies": 5969,
      "Ġmor": 5970,
      "Ġmen": 5971,
      "Ġment": 5972,
      "Ġmort": 5973,
      "ana": 5974,
      "ano": 5975,
      "anz": 5976,
      "anes": 5977,
      "Ġpers": 5978,
      "Ġpounds": 5979,
      "Ġpending": 5980,
      "Ġtoast": 5981,
      "edia": 5982,
      "Ġdat": 5983,
      "Ġdial": 5984,
      "Ġdynam": 5985,
      "Ġhop": 5986,
      "Ġhops": 5987,
      "Ġtheore": 5988,
      "Ġlame": 5989,
      "Ġlbs": 5990,
      "roat": 5991,
      "rock": 5992,
      "sts": 5993,
      "stic": 5994,
      "Ġinnovation": 5995,
      "alty": 5996,
      "Ġnom": 5997,
      "icle": 5998,
      "lement": 5999,
      "asy": 6000,
      "Ġgl": 6001,
      "igating": 6002,
      "iginal": 6003,
      "Ġreb": 6004,
      "otes": 6005,
      "otor": 6006,
      "etch": 6007,
      "ĠTot": 6008,
      "ĠTay": 6009,
      "ĠTra": 6010,
      "ĠTurn": 6011,
      "ĠTBC": 6012,
      "Ġeast": 6013,
      "Ġearth": 6014,
      "Ġegg": 6015,
      "Ġforced": 6016,
      "ĠSX": 6017,
      "ĠSen": 6018,
      "ĠSan": 6019,
      "omo": 6020,
      "ayer": 6021,
      "ĠIM": 6022,
      "lam": 6023,
      "launch": 6024,
      "ado": 6025,
      "imizing": 6026,
      "Ġstri": 6027,
      "ĠMex": 6028,
      "ĠMob": 6029,
      "Ġweigh": 6030,
      "amm": 6031,
      "Ġproven": 6032,
      "ili": 6033,
      "ĠAfter": 6034,
      "ĠAsh": 6035,
      "ĠAMA": 6036,
      "oph": 6037,
      "urized": 6038,
      "ung": 6039,
      "under": 6040,
      "Ġmoons": 6041,
      "ĠCol": 6042,
      "ĠCont": 6043,
      "Ġenjoy": 6044,
      "Ġshr": 6045,
      "Ġshop": 6046,
      "Ġtrial": 6047,
      "Ġtraction": 6048,
      "Ġorgan": 6049,
      "antum": 6050,
      "ĠThail": 6051,
      "Ġsees": 6052,
      "Ġselect": 6053,
      "Ġsearch": 6054,
      "umes": 6055,
      "Ġmaster": 6056,
      "ĠFl": 6057,
      "ĠFate": 6058,
      "ĠFeels": 6059,
      "Ġdevice": 6060,
      "ĠBanks": 6061,
      "ĠBaby": 6062,
      "ĠBrit": 6063,
      "inecraft": 6064,
      "ravit": 6065,
      "ĠHel": 6066,
      "ĠHVAC": 6067,
      "Ġlikes": 6068,
      "ĠNice": 6069,
      "ĠNHTSA": 6070,
      "ĠPlan": 6071,
      "ĠDef": 6072,
      "ĠDiff": 6073,
      "ĠDoug": 6074,
      "ĠEs": 6075,
      "ĠEAP": 6076,
      "Ġcho": 6077,
      "Ġchea": 6078,
      "ĠRad": 6079,
      "Ġpoor": 6080,
      "ĠkW": 6081,
      "ĠGear": 6082,
      "ĠGetting": 6083,
      "ĠGeor": 6084,
      "ĠLZ": 6085,
      "ĠLet": 6086,
      "ĠLess": 6087,
      "ĠLife": 6088,
      "olies": 6089,
      "Ġwouldve": 6090,
      "Ġheld": 6091,
      "Ġhasnt": 6092,
      "Ġproduces": 6093,
      "Ġplaced": 6094,
      "Ġunre": 6095,
      "Ġunique": 6096,
      "ĠUlt": 6097,
      "lights": 6098,
      "inds": 6099,
      "Ġactiv": 6100,
      "Ġtherefore": 6101,
      "Ġpract": 6102,
      "Ġtheyd": 6103,
      "Exp": 6104,
      "Ġlaunched": 6105,
      "Ġintro": 6106,
      "Ġintended": 6107,
      "Ġspending": 6108,
      "Ġsolutions": 6109,
      "Ġamong": 6110,
      "\"\",": 6111,
      "ensing": 6112,
      "ressed": 6113,
      "ocurrency": 6114,
      "Ġrecently": 6115,
      "Ġmini": 6116,
      "neum": 6117,
      "ishing": 6118,
      "uphead": 6119,
      "rowser": 6120,
      "ribe": 6121,
      "Ġregard": 6122,
      "ĠEarths": 6123,
      "useum": 6124,
      "Ġliftoff": 6125,
      "Ġparam": 6126,
      "Ġscr": 6127,
      "Ġscen": 6128,
      "ĠInf": 6129,
      "aging": 6130,
      "agic": 6131,
      "Ġsafest": 6132,
      "Ġsafely": 6133,
      "Ġspaceflight": 6134,
      "Ġtwist": 6135,
      "Ġsuperhuman": 6136,
      "Ġadditional": 6137,
      "Ġmiss": 6138,
      "Ġmissing": 6139,
      "Ġmissed": 6140,
      "Ġoffice": 6141,
      "Ġgene": 6142,
      "Ġphased": 6143,
      "Ġinspe": 6144,
      "Ġbecame": 6145,
      "ventions": 6146,
      "Ġpaywall": 6147,
      "Ġthroughout": 6148,
      "Ġdifferential": 6149,
      "Ġjoined": 6150,
      "Ġcounty": 6151,
      "Neuralink": 6152,
      "Ġrefine": 6153,
      "ĠCoast": 6154,
      "Ġavionics": 6155,
      "ermi": 6156,
      "Ġregular": 6157,
      "Ġregulations": 6158,
      "Ġinvasive": 6159,
      "Ġdepends": 6160,
      "Ġmedical": 6161,
      "Ġrolled": 6162,
      "Ġbran": 6163,
      "Ġvisible": 6164,
      "Ġbogus": 6165,
      "Precis": 6166,
      "Review": 6167,
      "Reason": 6168,
      "Ġinstant": 6169,
      "Ġremark": 6170,
      "Ġsubst": 6171,
      "Ann": 6172,
      "ertainly": 6173,
      "undament": 6174,
      "Ġcompeting": 6175,
      "ĠLAX": 6176,
      "Ġmovement": 6177,
      "Ġpostponed": 6178,
      "Ġnightmare": 6179,
      "Ġcombine": 6180,
      "Ġfunds": 6181,
      "Ġturning": 6182,
      "Ġbrakes": 6183,
      "Ġcreation": 6184,
      "Ġdonate": 6185,
      "Ġexperiment": 6186,
      "ĠSoC": 6187,
      "Ġcommand": 6188,
      "Ġcontinues": 6189,
      "Ġcollision": 6190,
      "Ġexcited": 6191,
      "Hey": 6192,
      "urbo": 6193,
      "Ġtrucks": 6194,
      "Ġwidely": 6195,
      "ĠOnion": 6196,
      "Ġlegis": 6197,
      "ublic": 6198,
      "Orbital": 6199,
      "Ġiniti": 6200,
      "Ġarrives": 6201,
      "Ġarrived": 6202,
      "Ġsensor": 6203,
      "Ġsensitive": 6204,
      "Ġunderstands": 6205,
      "ĠInternational": 6206,
      "Ġinstallation": 6207,
      "Ġraised": 6208,
      "ĠFrank": 6209,
      "Ġedge": 6210,
      "Ġrelative": 6211,
      "China": 6212,
      "Ġbreaks": 6213,
      "ĠExc": 6214,
      "Ġconfigur": 6215,
      "Ġconfiguration": 6216,
      "Ġstrongly": 6217,
      "Ġexceptional": 6218,
      "Ġdeployment": 6219,
      "Ġgrowing": 6220,
      "Ġsheep": 6221,
      "methrowers": 6222,
      "Ġinterests": 6223,
      "Ġwatching": 6224,
      "Ġwatched": 6225,
      "Ġcorporate": 6226,
      "Ġemail": 6227,
      "Ġurban": 6228,
      "Ġstories": 6229,
      "Ġdemocracy": 6230,
      "Ġpolar": 6231,
      "Ġventilator": 6232,
      "Ġprofound": 6233,
      "Ġsituations": 6234,
      "Ġrendering": 6235,
      "Ġelements": 6236,
      "ahn": 6237,
      "ahem": 6238,
      "Ġargument": 6239,
      "Ġcurious": 6240,
      "ĠTrue": 6241,
      "Ġpermission": 6242,
      "Ġwindows": 6243,
      "Ġcryogen": 6244,
      "Ġbillions": 6245,
      "Ġprocessing": 6246,
      "Ġphoto": 6247,
      "Ġmodern": 6248,
      "ĠEnglish": 6249,
      "Ġdiscussion": 6250,
      "ĠAnything": 6251,
      "Ġpickup": 6252,
      "Ġfinancial": 6253,
      "Ġcontinuous": 6254,
      "Everyone": 6255,
      "Ġoccup": 6256,
      "Ġretrofit": 6257,
      "balls": 6258,
      "olytopia": 6259,
      "true": 6260,
      "Ġtradem": 6261,
      "Ġsynth": 6262,
      "Upgr": 6263,
      "Ġexplain": 6264,
      "Frank": 6265,
      "Ġpeace": 6266,
      "Ġhospitals": 6267,
      "Ġeggs": 6268,
      "andenburg": 6269,
      "Ġchips": 6270,
      "Ġuncertain": 6271,
      "Starhopper": 6272,
      "Ġconstraints": 6273,
      "ĠMotor": 6274,
      "ĠMotors": 6275,
      "Ġdollars": 6276,
      "umulative": 6277,
      "Ġshareholders": 6278,
      "Play": 6279,
      "Ġsquare": 6280,
      "Ġclicks": 6281,
      "ĠWednes": 6282,
      "Ġsequence": 6283,
      "Ġnuclear": 6284,
      "Ġfluid": 6285,
      "ĠConsumer": 6286,
      "Ġparachutes": 6287,
      "Ġentertaining": 6288,
      "Ġsatis": 6289,
      "itudes": 6290,
      "stein": 6291,
      "ĠMonty": 6292,
      "Ġjunkyard": 6293,
      "Ġchildren": 6294,
      "Ġambient": 6295,
      "Ġpowertrain": 6296,
      "Ġelevator": 6297,
      "ĠSilicon": 6298,
      "Ġsevere": 6299,
      "Ġcheese": 6300,
      "Headed": 6301,
      "looking": 6302,
      "Ġmaneuver": 6303,
      "Ġgarage": 6304,
      "Ġcontext": 6305,
      "Ġirrelevant": 6306,
      "Ġnarrow": 6307,
      "Thoughtful": 6308,
      "Ġheatshield": 6309,
      "Ġemissions": 6310,
      "Ġesthetics": 6311,
      "Ġproportion": 6312,
      "Ġmembers": 6313,
      "Ġvaluable": 6314,
      "Ġuntrue": 6315,
      "Ġdistribution": 6316,
      "Ġmilestone": 6317,
      "Tunnels": 6318,
      "frica": 6319,
      "ĠMexico": 6320,
      "ĠThailand": 6321,
      "ravitas": 6322,
      "Precisely": 6323,
      "ĠWednesday": 6324,
      "%.": 6325,
      "70": 6326,
      ";$": 6327,
      "Ad": 6328,
      "Awesome": 6329,
      "Adding": 6330,
      "Aspirationally": 6331,
      "Bitcoin": 6332,
      "Beaut": 6333,
      "Com": 6334,
      "Cont": 6335,
      "Correct": 6336,
      "California": 6337,
      "DC": 6338,
      "Due": 6339,
      "ED": 6340,
      "ER": 6341,
      "Extremely": 6342,
      "FO": 6343,
      "Feels": 6344,
      "Gre": 6345,
      "Gary": 6346,
      "Here": 6347,
      "Kids": 6348,
      "Kinda": 6349,
      "Ms": 6350,
      "Mer": 6351,
      "Mach": 6352,
      "Merlin": 6353,
      "Motor": 6354,
      "Nope": 6355,
      "Other": 6356,
      "Odd": 6357,
      "PV": 6358,
      "Possibly": 6359,
      "Sat": 6360,
      "Sad": 6361,
      "Spe": 6362,
      "Science": 6363,
      "Top": 6364,
      "Under": 6365,
      "Wr": 6366,
      "Welcome": 6367,
      "aire": 6368,
      "aff": 6369,
      "bet": 6370,
      "ection": 6371,
      "eff": 6372,
      "far": 6373,
      "gi": 6374,
      "get": 6375,
      "graphy": 6376,
      "hammer": 6377,
      "lines": 6378,
      "mous": 6379,
      "nor": 6380,
      "nas": 6381,
      "oh": 6382,
      "rated": 6383,
      "sour": 6384,
      "spect": 6385,
      "sub": 6386,
      "test": 6387,
      "vance": 6388,
      "yi": 6389,
      "zer": 6390,
      "Ġtar": 6391,
      "Ġtune": 6392,
      "Ġteles": 6393,
      "inn": 6394,
      "inction": 6395,
      "erg": 6396,
      "erv": 6397,
      "Ġsen": 6398,
      "Ġsites": 6399,
      "Ġsending": 6400,
      "Ġsweet": 6401,
      "rets": 6402,
      "reasing": 6403,
      "Ġwed": 6404,
      "Ġwom": 6405,
      "Ġwings": 6406,
      "Ġwiki": 6407,
      "esis": 6408,
      "orbit": 6409,
      "Ġbab": 6410,
      "Ġbits": 6411,
      "Ġbounce": 6412,
      "Ġbesides": 6413,
      "Ġbrowser": 6414,
      "aters": 6415,
      "atable": 6416,
      "Ġcow": 6417,
      "Ġcult": 6418,
      "Ġcert": 6419,
      "Ġcyber": 6420,
      "isdom": 6421,
      "inguish": 6422,
      "Ġfru": 6423,
      "Ġfish": 6424,
      "itting": 6425,
      "itrogen": 6426,
      "Ġmit": 6427,
      "Ġmar": 6428,
      "Ġmel": 6429,
      "arry": 6430,
      "Ġpill": 6431,
      "Ġpla": 6432,
      "Ġpilot": 6433,
      "Ġpix": 6434,
      "Ġpatch": 6435,
      "Ġpaper": 6436,
      "Ġparents": 6437,
      "Ġpneum": 6438,
      "Ġtoile": 6439,
      "Ġdom": 6440,
      "Ġdive": 6441,
      "Ġdign": 6442,
      "Ġdream": 6443,
      "Ġdivers": 6444,
      "Ġdamping": 6445,
      "Ġhull": 6446,
      "rown": 6447,
      "alt": 6448,
      "alact": 6449,
      "Ġnuts": 6450,
      "Ġnitrogen": 6451,
      "iced": 6452,
      "icine": 6453,
      "icious": 6454,
      "lee": 6455,
      "lection": 6456,
      "leasing": 6457,
      "Ġbeer": 6458,
      "Ġgather": 6459,
      "Ġgaming": 6460,
      "Ġgrey": 6461,
      "igger": 6462,
      "utur": 6463,
      "ett": 6464,
      "eters": 6465,
      "ĠTO": 6466,
      "ĠTakes": 6467,
      "Ġforcing": 6468,
      "ĠSub": 6469,
      "ĠSpeed": 6470,
      "enty": 6471,
      "entral": 6472,
      "iden": 6473,
      "idden": 6474,
      "Ġund": 6475,
      "Ġya": 6476,
      "ĠII": 6477,
      "ĠInt": 6478,
      "lamed": 6479,
      "adre": 6480,
      "ooh": 6481,
      "ooo": 6482,
      "imated": 6483,
      "Ġstamp": 6484,
      "Ġstable": 6485,
      "Ġstress": 6486,
      "Ġstaggering": 6487,
      "there": 6488,
      "ĠMet": 6489,
      "ĠMain": 6490,
      "ĠMoth": 6491,
      "ĠMoon": 6492,
      "ils": 6493,
      "Ġrig": 6494,
      "ĠAP": 6495,
      "ĠAss": 6496,
      "ĠAri": 6497,
      "ĠAfrica": 6498,
      "Ġcoff": 6499,
      "Ġhaz": 6500,
      "ĠCity": 6501,
      "ĠCost": 6502,
      "Ġenorm": 6503,
      "Ġshall": 6504,
      "ureVac": 6505,
      "ureau": 6506,
      "Ġtri": 6507,
      "Ġtrash": 6508,
      "ulse": 6509,
      "ulating": 6510,
      "Ġvict": 6511,
      "ĠWon": 6512,
      "ĠWest": 6513,
      "gee": 6514,
      "Ġdoom": 6515,
      "Ġdozen": 6516,
      "Ġnotes": 6517,
      "ĠThank": 6518,
      "Ġexchang": 6519,
      "Ġseason": 6520,
      "Ġworried": 6521,
      "umber": 6522,
      "ĠFH": 6523,
      "ĠForm": 6524,
      "ĠFuture": 6525,
      "ĠFermi": 6526,
      "ĠBuff": 6527,
      "ĠBecause": 6528,
      "ĠBTC": 6529,
      "Ġaltern": 6530,
      "essentially": 6531,
      "ĠHis": 6532,
      "ĠHam": 6533,
      "ĠHell": 6534,
      "ĠHuman": 6535,
      "Ġliked": 6536,
      "ĠNight": 6537,
      "ĠNav": 6538,
      "ĠPors": 6539,
      "ĠPadre": 6540,
      "ĠEffect": 6541,
      "ĠEPA": 6542,
      "Ġchem": 6543,
      "Ġchann": 6544,
      "ĠRD": 6545,
      "ĠRom": 6546,
      "Ġcompla": 6547,
      "Ġcompelling": 6548,
      "using": 6549,
      "Ġkilling": 6550,
      "Ġtext": 6551,
      "ĠGiven": 6552,
      "ĠLEO": 6553,
      "ĠLudicrous": 6554,
      "ĠLinux": 6555,
      "ĠLarry": 6556,
      "Ġwouldn": 6557,
      "Ġlogs": 6558,
      "Ġlosing": 6559,
      "Ġgoods": 6560,
      "Ġplot": 6561,
      "Ġplays": 6562,
      "assis": 6563,
      "Ġadm": 6564,
      "Ġunf": 6565,
      "Ġuns": 6566,
      "Ġunfortunately": 6567,
      "Ġappoint": 6568,
      "Ġapplications": 6569,
      "ĠUK": 6570,
      "ĠUN": 6571,
      "Ġsomeones": 6572,
      "Ġsail": 6573,
      "ĠVal": 6574,
      "ĠTheir": 6575,
      "thern": 6576,
      "udi": 6577,
      "orses": 6578,
      "eping": 6579,
      "Ġintent": 6580,
      "Ġagreed": 6581,
      "owner": 6582,
      "velope": 6583,
      "rick": 6584,
      "etheless": 6585,
      "Ġperform": 6586,
      "Starting": 6587,
      "Ġreson": 6588,
      "Ġresol": 6589,
      "ressurized": 6590,
      "Ġinterventions": 6591,
      "Ġspeech": 6592,
      "oco": 6593,
      "angu": 6594,
      "anging": 6595,
      "oses": 6596,
      "Ġpointy": 6597,
      "Ġrecirc": 6598,
      "Ġmining": 6599,
      "Ġknowledge": 6600,
      "Ġsmash": 6601,
      "Ġparties": 6602,
      "Ġpartners": 6603,
      "lowing": 6604,
      "Ġexpl": 6605,
      "Ġexpos": 6606,
      "Ġextension": 6607,
      "ĠNever": 6608,
      "Ġfactors": 6609,
      "ĠInter": 6610,
      "ĠInstru": 6611,
      "Inc": 6612,
      "Inst": 6613,
      "agon": 6614,
      "Ġairport": 6615,
      "Ġfinally": 6616,
      "Ġhumor": 6617,
      "phob": 6618,
      "Ġimages": 6619,
      "Ġfastest": 6620,
      "Ġreports": 6621,
      "Ġafterno": 6622,
      "Ġconsumer": 6623,
      "Ġdisp": 6624,
      "ĠCheck": 6625,
      "ĠChrys": 6626,
      "osting": 6627,
      "Ġthoughts": 6628,
      "Ġgrade": 6629,
      "Ġgroup": 6630,
      "Ġdefe": 6631,
      "Ġdelays": 6632,
      "Ġleaving": 6633,
      "Ġcalling": 6634,
      "Ġrequirement": 6635,
      "Ġsigned": 6636,
      "Ġsignature": 6637,
      "eeling": 6638,
      "Ġgeneration": 6639,
      "Ġjoy": 6640,
      "Ġtraject": 6641,
      "Ġlateral": 6642,
      "Ġadvis": 6643,
      "Ġadvoc": 6644,
      "Ġpublications": 6645,
      "Ġident": 6646,
      "ĠYouTube": 6647,
      "Ġmanip": 6648,
      "Ġoperations": 6649,
      "Ġdepth": 6650,
      "Ġbasis": 6651,
      "Ġsimpler": 6652,
      "Ġmedicine": 6653,
      "Ġopenly": 6654,
      "Ġroller": 6655,
      "Ġamazingly": 6656,
      "Ġbrought": 6657,
      "Ġbranding": 6658,
      "while": 6659,
      "Ġframes": 6660,
      "ĠRec": 6661,
      "Ġflap": 6662,
      "ĠCanadian": 6663,
      "Ġautomak": 6664,
      "olly": 6665,
      "Ġpasses": 6666,
      "Ġpassing": 6667,
      "Ġpassive": 6668,
      "Ġpassword": 6669,
      "Reality": 6670,
      "cessary": 6671,
      "Ġinstr": 6672,
      "Ġreminder": 6673,
      "nesses": 6674,
      "Ġreaders": 6675,
      "Ġcompete": 6676,
      "Ġposting": 6677,
      "Ġblue": 6678,
      "Ġattacking": 6679,
      "Ġpacket": 6680,
      "Ġdifficulty": 6681,
      "Ġhotel": 6682,
      "Ġexpecting": 6683,
      "ĠRob": 6684,
      "Ġgeneralized": 6685,
      "Ġsecondary": 6686,
      "Ġbarrel": 6687,
      "Ġlatitudes": 6688,
      "Ġcovered": 6689,
      "Ġconstit": 6690,
      "Ġcontinent": 6691,
      "arming": 6692,
      "Ġexclus": 6693,
      "obahn": 6694,
      "Ġslowly": 6695,
      "onymous": 6696,
      "Actual": 6697,
      "Ġkeeping": 6698,
      "Ġloaded": 6699,
      "Ġabsolut": 6700,
      "Ġtraveling": 6701,
      "Original": 6702,
      "Ġdetailed": 6703,
      "Ġbroke": 6704,
      "Ġstandards": 6705,
      "Ġreleasing": 6706,
      "Ġrelevant": 6707,
      "Ġinflu": 6708,
      "pologies": 6709,
      "cientists": 6710,
      "Ġedit": 6711,
      "Ġfocusing": 6712,
      "Ġredesign": 6713,
      "Ġrelent": 6714,
      "Ġequal": 6715,
      "Ġeconomies": 6716,
      "Ġfoundation": 6717,
      "plus": 6718,
      "Ġmessage": 6719,
      "Ġmovies": 6720,
      "ĠAsimov": 6721,
      "Ġstronger": 6722,
      "Ġachieves": 6723,
      "Ġsuggested": 6724,
      "Ġsuspect": 6725,
      "Ġoffered": 6726,
      "Ġultimate": 6727,
      "ughty": 6728,
      "Ġturbines": 6729,
      "ĠHighly": 6730,
      "Ġimpacts": 6731,
      "Ġnozzles": 6732,
      "Phone": 6733,
      "Ġanswered": 6734,
      "Fairing": 6735,
      "Ġconnectivity": 6736,
      "Launching": 6737,
      "Ġleaders": 6738,
      "Ġsurprise": 6739,
      "proof": 6740,
      "Ġscheduled": 6741,
      "Ġdigital": 6742,
      "Ġhonored": 6743,
      "Ġminimizes": 6744,
      "ĠImpact": 6745,
      "Ġprototypes": 6746,
      "Between": 6747,
      "Overall": 6748,
      "ĠWorld": 6749,
      "ĠPhil": 6750,
      "Ġhydrophob": 6751,
      "Ġignore": 6752,
      "Ġcharger": 6753,
      "Ġcontractors": 6754,
      "Ġnavigation": 6755,
      "Ġphoton": 6756,
      "arently": 6757,
      "Ġattacked": 6758,
      "Ġillust": 6759,
      "rench": 6760,
      "Ġfloating": 6761,
      "Ġmistakes": 6762,
      "Ġmethane": 6763,
      "Ġmeasured": 6764,
      "Approx": 6765,
      "Ġfiat": 6766,
      "ĠBlack": 6767,
      "Ġopens": 6768,
      "Ġstationary": 6769,
      "Everything": 6770,
      "ĠService": 6771,
      "Ġviral": 6772,
      "Ġconfirmation": 6773,
      "Ġretrospect": 6774,
      "Ġsilicon": 6775,
      "Ġphysically": 6776,
      "Ġdeserve": 6777,
      "Ġinspired": 6778,
      "Ġapproximation": 6779,
      "Ġsurprisingly": 6780,
      "Ġbikes": 6781,
      "Ġencounter": 6782,
      "Ġjamming": 6783,
      "Ġexponentially": 6784,
      "Ġrobotaxis": 6785,
      "structure": 6786,
      "ĠMartian": 6787,
      "raphic": 6788,
      "ĠDrive": 6789,
      "ĠElise": 6790,
      "ĠLoved": 6791,
      "Ġscaling": 6792,
      "Ġsimplify": 6793,
      "Ġdescribe": 6794,
      "Ġimagine": 6795,
      "Ġbiography": 6796,
      "Ġheavier": 6797,
      "Ġinhibit": 6798,
      "Ġinvented": 6799,
      "ĠReddit": 6800,
      "ĠPayPal": 6801,
      "ĠGodot": 6802,
      "rypton": 6803,
      "Ġmeaningful": 6804,
      "Ġcommunication": 6805,
      "metry": 6806,
      "Ġlucky": 6807,
      "Ġrenewables": 6808,
      "ocracy": 6809,
      "Ġdiscovered": 6810,
      "Ġpurpose": 6811,
      "Powerwall": 6812,
      "curve": 6813,
      "Ġcautious": 6814,
      "Ġrepeated": 6815,
      "Ġstabilize": 6816,
      "ĠAbout": 6817,
      "ĠEastern": 6818,
      "Black": 6819,
      "Putting": 6820,
      "Small": 6821,
      "Ġgigantic": 6822,
      "Ġstatistics": 6823,
      "ĠCounty": 6824,
      "Ġtrivial": 6825,
      "Ġcondition": 6826,
      "Ġastronomy": 6827,
      "Totally": 6828,
      "Ġbizarre": 6829,
      "Ġrumor": 6830,
      "Ġcoincidence": 6831,
      "Ġpreburner": 6832,
      "Ġaccuracy": 6833,
      "Ġsuperalloy": 6834,
      "ĠParadox": 6835,
      "Fixing": 6836,
      "Ġhalves": 6837,
      "Ġlobby": 6838,
      "Ġplatform": 6839,
      "Ġepisode": 6840,
      "Ġapocalypse": 6841,
      "Ġridiculous": 6842,
      "Video": 6843,
      "Ġwifi": 6844,
      "Ġcitiz": 6845,
      "Ġmortality": 6846,
      "Ġdialog": 6847,
      "Ġtheoretical": 6848,
      "ĠDifficult": 6849,
      "undamental": 6850,
      "Ġcryogenic": 6851,
      "Ġsynthetic": 6852,
      "Beautiful": 6853,
      "Special": 6854,
      "Ġtelesc": 6855,
      "Ġdignity": 6856,
      "Ġenormous": 6857,
      "ĠPorsche": 6858,
      "ĠInstructions": 6859,
      "ĠChrysler": 6860,
      "Ġtrajectory": 6861,
      "Ġhydrophobic": 6862,
      "*,": 6863,
      "2500": 6864,
      "32": 6865,
      "39": 6866,
      "45": 6867,
      "750": 6868,
      "Apologies": 6869,
      "Bu": 6870,
      "Basically": 6871,
      "Cle": 6872,
      "Close": 6873,
      "Ed": 6874,
      "End": 6875,
      "Fe": 6876,
      "Got": 6877,
      "Germ": 6878,
      "Glass": 6879,
      "IS": 6880,
      "Ide": 6881,
      "LI": 6882,
      "Li": 6883,
      "Lots": 6884,
      "Lockheed": 6885,
      "Mk": 6886,
      "Mem": 6887,
      "Make": 6888,
      "Merry": 6889,
      "NY": 6890,
      "Night": 6891,
      "OG": 6892,
      "OX": 6893,
      "Out": 6894,
      "Obviously": 6895,
      "Prom": 6896,
      "Pass": 6897,
      "Plaid": 6898,
      "Right": 6899,
      "Roc": 6900,
      "ST": 6901,
      "Sw": 6902,
      "Side": 6903,
      "Ship": 6904,
      "System": 6905,
      "TH": 6906,
      "TV": 6907,
      "Ton": 6908,
      "Too": 6909,
      "Tod": 6910,
      "Touch": 6911,
      "UK": 6912,
      "Us": 6913,
      "Using": 6914,
      "View": 6915,
      "Wed": 6916,
      "Way": 6917,
      "Wont": 6918,
      "Watch": 6919,
      "Yay": 6920,
      "Yep": 6921,
      "ait": 6922,
      "bd": 6923,
      "bre": 6924,
      "bing": 6925,
      "backs": 6926,
      "book": 6927,
      "blowing": 6928,
      "cap": 6929,
      "cgi": 6930,
      "dy": 6931,
      "dia": 6932,
      "een": 6933,
      "fire": 6934,
      "fleet": 6935,
      "finder": 6936,
      "gon": 6937,
      "gas": 6938,
      "giving": 6939,
      "hes": 6940,
      "here": 6941,
      "hood": 6942,
      "host": 6943,
      "ias": 6944,
      "iate": 6945,
      "iFi": 6946,
      "lon": 6947,
      "lot": 6948,
      "lative": 6949,
      "map": 6950,
      "nel": 6951,
      "netic": 6952,
      "oe": 6953,
      "oes": 6954,
      "off": 6955,
      "ping": 6956,
      "pts": 6957,
      "pass": 6958,
      "ray": 6959,
      "rich": 6960,
      "sw": 6961,
      "sight": 6962,
      "same": 6963,
      "sounds": 6964,
      "too": 6965,
      "tling": 6966,
      "uh": 6967,
      "uct": 6968,
      "uilt": 6969,
      "was": 6970,
      "wood": 6971,
      "wyn": 6972,
      "watt": 6973,
      "yeah": 6974,
      "Ġtend": 6975,
      "inery": 6976,
      "Ġaka": 6977,
      "era": 6978,
      "erc": 6979,
      "onest": 6980,
      "onge": 6981,
      "Ġsoul": 6982,
      "Ġslam": 6983,
      "read": 6984,
      "Ġwip": 6985,
      "Ġwood": 6986,
      "Ġwarn": 6987,
      "Ġwisdom": 6988,
      "especially": 6989,
      "ories": 6990,
      "orical": 6991,
      "orrow": 6992,
      "Ġble": 6993,
      "Ġbare": 6994,
      "Ġbday": 6995,
      "Ġbrag": 6996,
      "Ġbureau": 6997,
      "atri": 6998,
      "Ġcig": 6999,
      "Ġcard": 7000,
      "Ġcous": 7001,
      "ingly": 7002,
      "Ġfu": 7003,
      "Ġfather": 7004,
      "Ġftw": 7005,
      "Ġfelt": 7006,
      "Ġfutur": 7007,
      "ourage": 7008,
      "iters": 7009,
      "Ġmm": 7010,
      "Ġmad": 7011,
      "Ġmand": 7012,
      "Ġmoth": 7013,
      "Ġmature": 7014,
      "Ġmuseum": 7015,
      "llow": 7016,
      "arad": 7017,
      "ario": 7018,
      "arian": 7019,
      "anese": 7020,
      "ancing": 7021,
      "Ġpeop": 7022,
      "Ġpsi": 7023,
      "eden": 7024,
      "edge": 7025,
      "Ġdow": 7026,
      "Ġdare": 7027,
      "Ġdash": 7028,
      "Ġdomes": 7029,
      "Ġhab": 7030,
      "Ġhide": 7031,
      "Ġhoping": 7032,
      "Ġhrs": 7033,
      "Ġhorses": 7034,
      "Ġlack": 7035,
      "Ġloud": 7036,
      "Ġlanes": 7037,
      "Ġlangu": 7038,
      "rove": 7039,
      "sters": 7040,
      "Ġinduction": 7041,
      "Ġinches": 7042,
      "ald": 7043,
      "almost": 7044,
      "icip": 7045,
      "ley": 7046,
      "asion": 7047,
      "Ġbegging": 7048,
      "veal": 7049,
      "Ġgent": 7050,
      "igible": 7051,
      "Ġrein": 7052,
      "ete": 7053,
      "etry": 7054,
      "ĠTal": 7055,
      "ĠTong": 7056,
      "ĠTile": 7057,
      "Ġeve": 7058,
      "ills": 7059,
      "illiant": 7060,
      "ĠSim": 7061,
      "ĠSound": 7062,
      "ĠSuch": 7063,
      "ĠSupport": 7064,
      "ctors": 7065,
      "iding": 7066,
      "Ġuh": 7067,
      "Ġum": 7068,
      "Ġyield": 7069,
      "Ġyaw": 7070,
      "elming": 7071,
      "ĠIR": 7072,
      "lade": 7073,
      "alled": 7074,
      "adow": 7075,
      "Ġsole": 7076,
      "Ġsock": 7077,
      "Ġitem": 7078,
      "imus": 7079,
      "tered": 7080,
      "Ġstead": 7081,
      "Ġstored": 7082,
      "Ġstiff": 7083,
      "Ġstaged": 7084,
      "ĠMT": 7085,
      "ĠMW": 7086,
      "ĠMs": 7087,
      "ĠMount": 7088,
      "ĠMult": 7089,
      "ĠMark": 7090,
      "ĠMinecraft": 7091,
      "sequ": 7092,
      "Ġwealth": 7093,
      "Ġneut": 7094,
      "Ġneur": 7095,
      "Ġneither": 7096,
      "amb": 7097,
      "amination": 7098,
      "Ġprove": 7099,
      "Ġproper": 7100,
      "ilos": 7101,
      "ĠAlamed": 7102,
      "opulation": 7103,
      "unt": 7104,
      "union": 7105,
      "ifies": 7106,
      "Ġyoung": 7107,
      "Ġcobal": 7108,
      "cell": 7109,
      "cepts": 7110,
      "ĠCom": 7111,
      "ĠCourse": 7112,
      "ĠCureVac": 7113,
      "Ġenvelope": 7114,
      "Ġshear": 7115,
      "Ġshots": 7116,
      "Ġtrim": 7117,
      "Ġtrail": 7118,
      "Ġorgs": 7119,
      "Ġasy": 7120,
      "ulpt": 7121,
      "ulner": 7122,
      "Ġvulner": 7123,
      "ĠWant": 7124,
      "ĠWik": 7125,
      "ĠWiFi": 7126,
      "Ġnoting": 7127,
      "Ġnotable": 7128,
      "ĠThree": 7129,
      "ĠTheres": 7130,
      "ntown": 7131,
      "Ġmaker": 7132,
      "ipedia": 7133,
      "ĠFrom": 7134,
      "ĠFree": 7135,
      "Ġconne": 7136,
      "Ġconcept": 7137,
      "Ġdevices": 7138,
      "actually": 7139,
      "ĠBack": 7140,
      "ĠBob": 7141,
      "ĠBuild": 7142,
      "acebook": 7143,
      "raud": 7144,
      "rastructure": 7145,
      "odes": 7146,
      "ession": 7147,
      "Ġalloys": 7148,
      "ĠHQ": 7149,
      "ĠHar": 7150,
      "ĠHear": 7151,
      "ĠHumans": 7152,
      "ĠHonored": 7153,
      "ĠNor": 7154,
      "ĠPR": 7155,
      "ĠPot": 7156,
      "ĠPol": 7157,
      "ĠPalo": 7158,
      "ĠPolytopia": 7159,
      "lol": 7160,
      "lobal": 7161,
      "losed": 7162,
      "loki": 7163,
      "ĠDad": 7164,
      "ĠDrag": 7165,
      "ĠDamn": 7166,
      "ĠEber": 7167,
      "Ġchamp": 7168,
      "important": 7169,
      "ĠRow": 7170,
      "ĠRWD": 7171,
      "ĠRIP": 7172,
      "ĠRNA": 7173,
      "ĠRHD": 7174,
      "aints": 7175,
      "Ġcompl": 7176,
      "Ġcompar": 7177,
      "Ġcomplic": 7178,
      "apers": 7179,
      "apole": 7180,
      "aren": 7181,
      "usable": 7182,
      "Ġupside": 7183,
      "ĠStr": 7184,
      "Ġkick": 7185,
      "Ġtears": 7186,
      "Ġimpression": 7187,
      "ĠGover": 7188,
      "Ġtimel": 7189,
      "ĠLast": 7190,
      "ĠLimit": 7191,
      "ĠLots": 7192,
      "ĠLaw": 7193,
      "ĠLmk": 7194,
      "Ġhighways": 7195,
      "Ġjustice": 7196,
      "Ġpreference": 7197,
      "Ġoutages": 7198,
      "Ġoutfit": 7199,
      "Ġhash": 7200,
      "izz": 7201,
      "izations": 7202,
      "Ġarriving": 7203,
      "connect": 7204,
      "Ġadults": 7205,
      "Ġuna": 7206,
      "Ġunw": 7207,
      "Ġapplies": 7208,
      "ĠUnder": 7209,
      "ĠUFO": 7210,
      "ĠOx": 7211,
      "ĠOper": 7212,
      "ĠOpt": 7213,
      "ĠOpen": 7214,
      "Ġworkers": 7215,
      "inding": 7216,
      "Ġactivity": 7217,
      "Ġourselves": 7218,
      "Ġthereafter": 7219,
      "Ġsav": 7220,
      "Ġsaved": 7221,
      "Ġprinter": 7222,
      "intelligence": 7223,
      "intuitive": 7224,
      "Ġdescent": 7225,
      "ĠJon": 7226,
      "ĠJeff": 7227,
      "eps": 7228,
      "Ġyours": 7229,
      "Ġconting": 7230,
      "Ġquantum": 7231,
      "Ġmonthly": 7232,
      "ooling": 7233,
      "Ġpercent": 7234,
      "ulture": 7235,
      "Storm": 7236,
      "Ġknew": 7237,
      "Ġresume": 7238,
      "Ġautonav": 7239,
      "ĠWeve": 7240,
      "lected": 7241,
      "Ġloose": 7242,
      "mostly": 7243,
      "ocally": 7244,
      "angers": 7245,
      "Ġbackpack": 7246,
      "Ġunderrated": 7247,
      "Ġminus": 7248,
      "near": 7249,
      "next": 7250,
      "Ġsmarter": 7251,
      "Ġpartly": 7252,
      "rior": 7253,
      "rian": 7254,
      "Ġregen": 7255,
      "Ġregional": 7256,
      "Ġliteral": 7257,
      "Trans": 7258,
      "Ġcrane": 7259,
      "Ġcrushing": 7260,
      "Ġlifting": 7261,
      "Ġbuilds": 7262,
      "Ġbuildings": 7263,
      "Ġfacts": 7264,
      "Ġparked": 7265,
      "Ġsculpt": 7266,
      "redit": 7267,
      "Initially": 7268,
      "ago": 7269,
      "Ġairplan": 7270,
      "Progress": 7271,
      "Prototypes": 7272,
      "Ġtweak": 7273,
      "Ġdownward": 7274,
      "ĠItal": 7275,
      "ĠAutobahn": 7276,
      "Ġending": 7277,
      "nology": 7278,
      "Ġoffset": 7279,
      "Ġphase": 7280,
      "ĠChanos": 7281,
      "arlinks": 7282,
      "Ġdefault": 7283,
      "Ġtransmit": 7284,
      "azilla": 7285,
      "Ġleaked": 7286,
      "Ġcalls": 7287,
      "Ġthroughput": 7288,
      "Ġincrement": 7289,
      "Ġrequirements": 7290,
      "Ġshortages": 7291,
      "ĠShow": 7292,
      "aken": 7293,
      "Need": 7294,
      "Ġretire": 7295,
      "ĠKore": 7296,
      "Ġrefers": 7297,
      "Ġrefuel": 7298,
      "ĠDoing": 7299,
      "ffective": 7300,
      "ashdown": 7301,
      "Ġwherever": 7302,
      "Ġskins": 7303,
      "Ġsketch": 7304,
      "Ġinvesting": 7305,
      "Ġinvited": 7306,
      "Ġmeter": 7307,
      "Ġmetap": 7308,
      "ĠProblem": 7309,
      "Ġplanes": 7310,
      "whelming": 7311,
      "ĠReal": 7312,
      "Ġlooked": 7313,
      "Ġboss": 7314,
      "Ġboats": 7315,
      "Ġautomatic": 7316,
      "ĠYear": 7317,
      "Real": 7318,
      "cession": 7319,
      "Ġrising": 7320,
      "Ġsubway": 7321,
      "Ġsuboptim": 7322,
      "Ġclosely": 7323,
      "Ġownership": 7324,
      "Ġtempting": 7325,
      "ĠQu": 7326,
      "ĠQue": 7327,
      "Ġreaches": 7328,
      "Ġhomeowner": 7329,
      "Ġblood": 7330,
      "Ġheaded": 7331,
      "Ġacid": 7332,
      "Ġacqu": 7333,
      "Ġflip": 7334,
      "ĠSpaceballs": 7335,
      "Ġbuyer": 7336,
      "Ġsustained": 7337,
      "Ġreviews": 7338,
      "Ġholders": 7339,
      "Ġdrove": 7340,
      "Ġrestaur": 7341,
      "Ġcovers": 7342,
      "Ġpriorit": 7343,
      "ĠUnlike": 7344,
      "Ġdeeply": 7345,
      "arman": 7346,
      "ĠSecond": 7347,
      "Ġdealer": 7348,
      "zzle": 7349,
      "Ġslowed": 7350,
      "echazilla": 7351,
      "Ġsteer": 7352,
      "Ġsalt": 7353,
      "arching": 7354,
      "Ġfails": 7355,
      "Ġjourno": 7356,
      "Ġpresum": 7357,
      "Ġhumanitys": 7358,
      "Ġmanufacture": 7359,
      "Ġmarkets": 7360,
      "Ġsnail": 7361,
      "Ġarrive": 7362,
      "Ġarrays": 7363,
      "Ġtoughest": 7364,
      "Ġinfrastructure": 7365,
      "ĠDeus": 7366,
      "Ġswift": 7367,
      "Ġdebris": 7368,
      "Several": 7369,
      "Checking": 7370,
      "Ġfoundry": 7371,
      "Ġfoundational": 7372,
      "Supercharg": 7373,
      "place": 7374,
      "Ġglove": 7375,
      "Ġfog": 7376,
      "Ġmerkin": 7377,
      "Ġachievable": 7378,
      "Ġoriginally": 7379,
      "ĠOrbital": 7380,
      "Ġspacesuit": 7381,
      "Ġavoidance": 7382,
      "ikola": 7383,
      "Ġsheer": 7384,
      "Ġassess": 7385,
      "Ġbeauty": 7386,
      "Ġtells": 7387,
      "Ġtelling": 7388,
      "Ġaccounting": 7389,
      "Ġcorona": 7390,
      "Ġlogic": 7391,
      "Ġconcrete": 7392,
      "Ġpolice": 7393,
      "Ġideal": 7394,
      "Ġsurprised": 7395,
      "Death": 7396,
      "production": 7397,
      "Ġmoments": 7398,
      "Ġpumps": 7399,
      "Ġobjective": 7400,
      "Ġbringing": 7401,
      "Auto": 7402,
      "Ġdamaged": 7403,
      "Ġpathfinder": 7404,
      "Ġsteps": 7405,
      "Ġimmediate": 7406,
      "Ġignite": 7407,
      "Ġwarrant": 7408,
      "ĠTrans": 7409,
      "Ġlearning": 7410,
      "Ġodds": 7411,
      "Ġcommunity": 7412,
      "Ġjournalism": 7413,
      "Ġmechanics": 7414,
      "Ġmethod": 7415,
      "Ġplants": 7416,
      "ĠJoe": 7417,
      "Ġmomentum": 7418,
      "Ġmaterials": 7419,
      "ĠNNs": 7420,
      "Ġdrama": 7421,
      "Ġremove": 7422,
      "Ġremoved": 7423,
      "Ġremoval": 7424,
      "odspeed": 7425,
      "Ġprevented": 7426,
      "Ġoccur": 7427,
      "ĠSeries": 7428,
      "Ġapproaching": 7429,
      "According": 7430,
      "Ġsync": 7431,
      "Ġsynch": 7432,
      "Ġsilver": 7433,
      "Ġswitched": 7434,
      "Ġrotor": 7435,
      "Ġrotation": 7436,
      "Ġexplained": 7437,
      "Ġsignals": 7438,
      "++,": 7439,
      "Trying": 7440,
      "Ġcircle": 7441,
      "Ġcircum": 7442,
      "Ġearnings": 7443,
      "Ġjudge": 7444,
      "ĠParis": 7445,
      "Doesnt": 7446,
      "Ġconstraint": 7447,
      "Ġvariants": 7448,
      "Ġtours": 7449,
      "Ġrails": 7450,
      "Ġencourage": 7451,
      "Ġturbopumps": 7452,
      "Ġpoliticians": 7453,
      "Ġfrequency": 7454,
      "Ġprinciples": 7455,
      "Ġtools": 7456,
      "ĠMartin": 7457,
      "Ġprojects": 7458,
      "ductive": 7459,
      "Ġacceptable": 7460,
      "vestigating": 7461,
      "Ġaudio": 7462,
      "Ġwalls": 7463,
      "ropy": 7464,
      "Ġshutdown": 7465,
      "Ġconverted": 7466,
      "Ġvaccine": 7467,
      "Ġvaccines": 7468,
      "Ġtrolls": 7469,
      "Ġfatal": 7470,
      "Ġfatig": 7471,
      "Ġhousing": 7472,
      "Ġheavily": 7473,
      "Ġinher": 7474,
      "seller": 7475,
      "Ġcontribution": 7476,
      "Ġparachute": 7477,
      "ledgehammer": 7478,
      "Ġviruses": 7479,
      "Been": 7480,
      "Similar": 7481,
      "ydrogen": 7482,
      "Ġscientists": 7483,
      "Ġblade": 7484,
      "Ġrenewable": 7485,
      "Ġemerald": 7486,
      "Ġexecution": 7487,
      "Ġdelete": 7488,
      "ĠSteven": 7489,
      "Ġprinting": 7490,
      "Ġdestroyed": 7491,
      "Ġopportunity": 7492,
      "Ġopportunities": 7493,
      "optimized": 7494,
      "Guess": 7495,
      "Ġtuned": 7496,
      "Ġapogee": 7497,
      "Ġpenalty": 7498,
      "Ġdrawing": 7499,
      "ĠIPO": 7500,
      "ĠIrony": 7501,
      "Ġconvenient": 7502,
      "Ġconvenience": 7503,
      "Ġnatural": 7504,
      "ĠSignal": 7505,
      "Ġcompensation": 7506,
      "Ġcommitted": 7507,
      "Astronauts": 7508,
      "Ġweapons": 7509,
      "ĠAlto": 7510,
      "ĠRockets": 7511,
      "Ġspoken": 7512,
      "Regarding": 7513,
      "Ġdistracted": 7514,
      "Ġanalysts": 7515,
      "Building": 7516,
      "Ġburst": 7517,
      "Ġtoxic": 7518,
      "ĠTVC": 7519,
      "Ġenemy": 7520,
      "Ġalgorithm": 7521,
      "Ġpossibility": 7522,
      "Ġrescue": 7523,
      "Ġpodcasts": 7524,
      "Ġunequivocally": 7525,
      "Ġresponsible": 7526,
      "Ġcandid": 7527,
      "Ġmenu": 7528,
      "Ġdatab": 7529,
      "Ġnominal": 7530,
      "ĠTotal": 7531,
      "ĠTaycan": 7532,
      "iliar": 7533,
      "Ġtrials": 7534,
      "ĠGeorge": 7535,
      "Ġunreason": 7536,
      "Ġscratch": 7537,
      "Ġbranch": 7538,
      "Ġoccupant": 7539,
      "Ġtrademark": 7540,
      "Gregor": 7541,
      "Ġfruit": 7542,
      "ĠTOPS": 7543,
      "oohoo": 7544,
      "Ġcoffee": 7545,
      "ĠBuffett": 7546,
      "Ġchannels": 7547,
      "Ġexposure": 7548,
      "Ġafternoon": 7549,
      "ollywood": 7550,
      "Ġinstrument": 7551,
      "Ġillustrate": 7552,
      "Rococo": 7553,
      "Ġfuturistic": 7554,
      "araday": 7555,
      "Ġpeoples": 7556,
      "Ġdowntown": 7557,
      "ĠTonga": 7558,
      "Ġsteadily": 7559,
      "ilosoph": 7560,
      "ĠAlameda": 7561,
      "Ġcobalt": 7562,
      "ĠWikipedia": 7563,
      "apoleon": 7564,
      "ĠOpenAI": 7565,
      "Ġairplanes": 7566,
      "Ġsuboptimal": 7567,
      "Ġwarranty": 7568,
      "!).": 7569,
      "%)": 7570,
      ".\"\"\"": 7571,
      "14": 7572,
      "18": 7573,
      "120": 7574,
      "2000": 7575,
      "7500": 7576,
      "AT": 7577,
      "Ac": 7578,
      "Av": 7579,
      "Air": 7580,
      "Bought": 7581,
      "Based": 7582,
      "Bring": 7583,
      "Biden": 7584,
      "CH": 7585,
      "CU": 7586,
      "Cl": 7587,
      "Co": 7588,
      "Come": 7589,
      "Cost": 7590,
      "Comes": 7591,
      "Center": 7592,
      "Creating": 7593,
      "Certainly": 7594,
      "Dis": 7595,
      "Detail": 7596,
      "Direct": 7597,
      "EA": 7598,
      "Ent": 7599,
      "Euro": 7600,
      "Essentially": 7601,
      "Fla": 7602,
      "Fred": 7603,
      "Fear": 7604,
      "Fallout": 7605,
      "Fundamental": 7606,
      "Gwyn": 7607,
      "HS": 7608,
      "Homes": 7609,
      "Human": 7610,
      "Jay": 7611,
      "Let": 7612,
      "List": 7613,
      "Luck": 7614,
      "MW": 7615,
      "Mon": 7616,
      "Med": 7617,
      "Mun": 7618,
      "Made": 7619,
      "Miss": 7620,
      "NN": 7621,
      "Old": 7622,
      "Outer": 7623,
      "PT": 7624,
      "Possible": 7625,
      "RI": 7626,
      "Ren": 7627,
      "Rel": 7628,
      "Rad": 7629,
      "Rest": 7630,
      "RIP": 7631,
      "SF": 7632,
      "SW": 7633,
      "Sch": 7634,
      "Slight": 7635,
      "Sens": 7636,
      "Since": 7637,
      "Support": 7638,
      "TE": 7639,
      "TS": 7640,
      "Trag": 7641,
      "Tues": 7642,
      "Wanted": 7643,
      "Woohoo": 7644,
      "aired": 7645,
      "aughty": 7646,
      "bons": 7647,
      "borne": 7648,
      "case": 7649,
      "cord": 7650,
      "class": 7651,
      "comb": 7652,
      "called": 7653,
      "efficient": 7654,
      "fla": 7655,
      "from": 7656,
      "found": 7657,
      "flow": 7658,
      "fix": 7659,
      "gin": 7660,
      "good": 7661,
      "gment": 7662,
      "graphic": 7663,
      "hm": 7664,
      "hand": 7665,
      "ila": 7666,
      "ieter": 7667,
      "kt": 7668,
      "kins": 7669,
      "lar": 7670,
      "lists": 7671,
      "lands": 7672,
      "life": 7673,
      "my": 7674,
      "much": 7675,
      "maybe": 7676,
      "matic": 7677,
      "mission": 7678,
      "pa": 7679,
      "pan": 7680,
      "rac": 7681,
      "right": 7682,
      "rors": 7683,
      "su": 7684,
      "size": 7685,
      "speed": 7686,
      "tra": 7687,
      "uc": 7688,
      "uj": 7689,
      "uz": 7690,
      "vision": 7691,
      "wthorne": 7692,
      "zero": 7693,
      "Ġing": 7694,
      "Ġeth": 7695,
      "Ġtent": 7696,
      "Ġtern": 7697,
      "Ġtyp": 7698,
      "Ġtreating": 7699,
      "inj": 7700,
      "Ġawe": 7701,
      "Ġaward": 7702,
      "Ġaeros": 7703,
      "erly": 7704,
      "eroth": 7705,
      "only": 7706,
      "Ġsir": 7707,
      "Ġsale": 7708,
      "Ġsouth": 7709,
      "rej": 7710,
      "resh": 7711,
      "Ġthermal": 7712,
      "Ġthroat": 7713,
      "Ġwiring": 7714,
      "eship": 7715,
      "ori": 7716,
      "orch": 7717,
      "orporate": 7718,
      "Ġbac": 7719,
      "Ġbunch": 7720,
      "Ġbarg": 7721,
      "Ġbored": 7722,
      "Ġbomb": 7723,
      "Ġborder": 7724,
      "Ġbricks": 7725,
      "atz": 7726,
      "atics": 7727,
      "aturally": 7728,
      "Ġcy": 7729,
      "Ġcart": 7730,
      "Ġcord": 7731,
      "Ġcup": 7732,
      "Ġcoun": 7733,
      "Ġcake": 7734,
      "Ġcures": 7735,
      "Ġcards": 7736,
      "isk": 7737,
      "ises": 7738,
      "Ġfate": 7739,
      "Ġfrag": 7740,
      "Ġfought": 7741,
      "Ġfraud": 7742,
      "oured": 7743,
      "ouched": 7744,
      "iti": 7745,
      "ittle": 7746,
      "itute": 7747,
      "enance": 7748,
      "Ġmi": 7749,
      "Ġmal": 7750,
      "Ġmild": 7751,
      "Ġmug": 7752,
      "Ġmelt": 7753,
      "ara": 7754,
      "arf": 7755,
      "argh": 7756,
      "aries": 7757,
      "araoke": 7758,
      "anoid": 7759,
      "anna": 7760,
      "Ġple": 7761,
      "Ġpist": 7762,
      "Ġpays": 7763,
      "Ġpool": 7764,
      "Ġpair": 7765,
      "Ġplaid": 7766,
      "Ġder": 7767,
      "Ġdim": 7768,
      "Ġdust": 7769,
      "Ġdice": 7770,
      "Ġdia": 7771,
      "Ġdise": 7772,
      "Ġdirt": 7773,
      "Ġduration": 7774,
      "Ġhi": 7775,
      "Ġhod": 7776,
      "Ġhats": 7777,
      "Ġholy": 7778,
      "Ġhidden": 7779,
      "Ġtheater": 7780,
      "Ġlb": 7781,
      "Ġlid": 7782,
      "Ġlets": 7783,
      "Ġludicrous": 7784,
      "Ġlimb": 7785,
      "rol": 7786,
      "rost": 7787,
      "room": 7788,
      "roid": 7789,
      "ston": 7790,
      "story": 7791,
      "stick": 7792,
      "Ġindu": 7793,
      "Ġinner": 7794,
      "Ġinacc": 7795,
      "alop": 7796,
      "also": 7797,
      "alib": 7798,
      "Ġnut": 7799,
      "Ġnames": 7800,
      "icking": 7801,
      "icting": 7802,
      "lets": 7803,
      "asc": 7804,
      "aser": 7805,
      "asic": 7806,
      "assemb": 7807,
      "Ġbeam": 7808,
      "Ġgard": 7809,
      "Ġgend": 7810,
      "Ġgirl": 7811,
      "utal": 7812,
      "acopter": 7813,
      "Ġrech": 7814,
      "Ġrecharg": 7815,
      "oted": 7816,
      "otic": 7817,
      "otely": 7818,
      "otos": 7819,
      "otainment": 7820,
      "etric": 7821,
      "ĠTest": 7822,
      "ĠTarget": 7823,
      "ĠTurbo": 7824,
      "ĠSS": 7825,
      "ĠSn": 7826,
      "ĠSant": 7827,
      "ĠSounds": 7828,
      "ĠScience": 7829,
      "ĠSentry": 7830,
      "ĠSystem": 7831,
      "ĠSafety": 7832,
      "ometer": 7833,
      "omberg": 7834,
      "owers": 7835,
      "ctim": 7836,
      "entation": 7837,
      "idays": 7838,
      "ela": 7839,
      "eloc": 7840,
      "change": 7841,
      "ĠIS": 7842,
      "ĠIrid": 7843,
      "Ġsoph": 7844,
      "Ġitems": 7845,
      "imarily": 7846,
      "Ġstability": 7847,
      "Ġstacking": 7848,
      "this": 7849,
      "ĠMad": 7850,
      "ĠMade": 7851,
      "ĠMechazilla": 7852,
      "Ġwilling": 7853,
      "Ġwhist": 7854,
      "sections": 7855,
      "Ġneuro": 7856,
      "irrel": 7857,
      "ustin": 7858,
      "Ġproving": 7859,
      "Ġproceed": 7860,
      "ilisk": 7861,
      "Third": 7862,
      "Thrust": 7863,
      "Ġrh": 7864,
      "Ġran": 7865,
      "Ġrated": 7866,
      "ĠAF": 7867,
      "ĠAcc": 7868,
      "ĠAster": 7869,
      "ĠAwesome": 7870,
      "ĠAdd": 7871,
      "ĠAudi": 7872,
      "ĠATV": 7873,
      "opes": 7874,
      "opark": 7875,
      "opolies": 7876,
      "unar": 7877,
      "ifting": 7878,
      "abit": 7879,
      "Ġcoaster": 7880,
      "Ġcoefficient": 7881,
      "ceeds": 7882,
      "ĠCt": 7883,
      "ĠCent": 7884,
      "ĠCars": 7885,
      "ĠCap": 7886,
      "ĠComing": 7887,
      "ĠCorre": 7888,
      "ĠCPU": 7889,
      "ĠCreating": 7890,
      "Ġenhanced": 7891,
      "pposite": 7892,
      "Ġshed": 7893,
      "Ġshops": 7894,
      "Ġtrun": 7895,
      "Ġtrain": 7896,
      "Ġtrigger": 7897,
      "ulator": 7898,
      "Ġvat": 7899,
      "Ġvig": 7900,
      "ĠWars": 7901,
      "ĠWont": 7902,
      "ĠWild": 7903,
      "ĠWaiting": 7904,
      "Ġdoc": 7905,
      "Ġdogs": 7906,
      "Ġexha": 7907,
      "Ġseam": 7908,
      "Ġseater": 7909,
      "ĠFil": 7910,
      "ĠFocus": 7911,
      "ĠFallout": 7912,
      "ĠFDA": 7913,
      "ĠFacebook": 7914,
      "ĠFaraday": 7915,
      "eaking": 7916,
      "Ġconference": 7917,
      "ander": 7918,
      "Ġroaming": 7919,
      "ardians": 7920,
      "ĠBot": 7921,
      "ĠBill": 7922,
      "ĠBlo": 7923,
      "ĠBBC": 7924,
      "ĠBlade": 7925,
      "ĠBMW": 7926,
      "Ġsuff": 7927,
      "Ġsudd": 7928,
      "Ġsufficient": 7929,
      "ĠHit": 7930,
      "ĠHert": 7931,
      "ĠHead": 7932,
      "Ġlies": 7933,
      "Ġliber": 7934,
      "Ġlivest": 7935,
      "ĠNet": 7936,
      "ĠNPC": 7937,
      "ĠNikola": 7938,
      "ĠNapoleon": 7939,
      "ĠPenn": 7940,
      "rome": 7941,
      "ĠDep": 7942,
      "ĠDepends": 7943,
      "ĠETH": 7944,
      "ques": 7945,
      "quake": 7946,
      "quila": 7947,
      "improved": 7948,
      "ĠRP": 7949,
      "ĠRen": 7950,
      "ĠRest": 7951,
      "ĠRem": 7952,
      "ĠRange": 7953,
      "Ġpock": 7954,
      "Ġcomposite": 7955,
      "Ġcompiler": 7956,
      "ĠStud": 7957,
      "ĠStarted": 7958,
      "asters": 7959,
      "acker": 7960,
      "Ġcarried": 7961,
      "Ġimped": 7962,
      "Ġimply": 7963,
      "Ġimpulse": 7964,
      "ĠGet": 7965,
      "ĠGWh": 7966,
      "ĠGreen": 7967,
      "ĠGTO": 7968,
      "ĠGravitas": 7969,
      "ĠLe": 7970,
      "ĠLow": 7971,
      "ĠLive": 7972,
      "ĠLos": 7973,
      "mented": 7974,
      "Ġhighlight": 7975,
      "olm": 7976,
      "olume": 7977,
      "Ġprep": 7978,
      "Ġpret": 7979,
      "Ġpreparing": 7980,
      "itement": 7981,
      "emed": 7982,
      "Ġoutstanding": 7983,
      "Ġoutlets": 7984,
      "Ġcomet": 7985,
      "Ġcomedy": 7986,
      "Ġcancel": 7987,
      "Ġhashing": 7988,
      "Ġlogo": 7989,
      "Ġloses": 7990,
      "istent": 7991,
      "Ġproducing": 7992,
      "Ġmyth": 7993,
      "Ġplenty": 7994,
      "cons": 7995,
      "Ġadult": 7996,
      "Ġadmit": 7997,
      "Ġbub": 7998,
      "Ġbud": 7999,
      "ption": 8000,
      "Ġunp": 8001,
      "Ġunne": 8002,
      "Ġunreal": 8003,
      "soft": 8004,
      "ĠUp": 8005,
      "ĠUr": 8006,
      "ĠUsing": 8007,
      "ĠOG": 8008,
      "ĠOS": 8009,
      "ĠOf": 8010,
      "ĠOffic": 8011,
      "ĠOdd": 8012,
      "ĠObviously": 8013,
      "Ġacts": 8014,
      "Ġacting": 8015,
      "Ġours": 8016,
      "venience": 8017,
      "Weird": 8018,
      "Ġlept": 8019,
      "Ġleading": 8020,
      "Ġoverse": 8021,
      "Ġoversight": 8022,
      "Ġoverwhelming": 8023,
      "Ġtail": 8024,
      "Ġtaught": 8025,
      "ĠVR": 8026,
      "ĠVast": 8027,
      "ĠVTO": 8028,
      "ĠVeloc": 8029,
      "Ġprize": 8030,
      "atteries": 8031,
      "intin": 8032,
      "Ġdescription": 8033,
      "Ġmonkey": 8034,
      "eph": 8035,
      "Ġintact": 8036,
      "Ġcontent": 8037,
      "Ġcontest": 8038,
      "Ġspan": 8039,
      "Ġspam": 8040,
      "Ġspirit": 8041,
      "Ġsponge": 8042,
      "Ġquote": 8043,
      "Ġquarks": 8044,
      "Ġrights": 8045,
      "rump": 8046,
      "ructions": 8047,
      "Static": 8048,
      "Strong": 8049,
      "Ġwhos": 8050,
      "Wheres": 8051,
      "Ġknight": 8052,
      "Ġknock": 8053,
      "ĠSpaceXs": 8054,
      "Ġfunctions": 8055,
      "Ġautoc": 8056,
      "ressure": 8057,
      "Having": 8058,
      "Hawthorne": 8059,
      "Ġserving": 8060,
      "Ġserved": 8061,
      "Ġserves": 8062,
      "Ġinterst": 8063,
      "Ġunderest": 8064,
      "Ġpointless": 8065,
      "Ġrecru": 8066,
      "orders": 8067,
      "lick": 8068,
      "licit": 8069,
      "Ġpartial": 8070,
      "Ġexpense": 8071,
      "Ġregime": 8072,
      "Ġregret": 8073,
      "Ġcraters": 8074,
      "Ġparanoid": 8075,
      "ĠXav": 8076,
      "Ġscroll": 8077,
      "ĠInc": 8078,
      "Ġverb": 8079,
      "tech": 8080,
      "Ġfinest": 8081,
      "Ġsuperpower": 8082,
      "Ġadds": 8083,
      "Ġreply": 8084,
      "ĠUSB": 8085,
      "ĠAutom": 8086,
      "Ġends": 8087,
      "pective": 8088,
      "Ġoffers": 8089,
      "Ġelectrical": 8090,
      "Ġconserv": 8091,
      "ellers": 8092,
      "Ġinsert": 8093,
      "ĠSuperdr": 8094,
      "Ġhelped": 8095,
      "Ġdisaster": 8096,
      "erto": 8097,
      "Ġgrief": 8098,
      "Ġtransmission": 8099,
      "azz": 8100,
      "Ġdelight": 8101,
      "ĠWhite": 8102,
      "Ġsupportive": 8103,
      "Ġpaying": 8104,
      "Ġpayments": 8105,
      "Ġconfusing": 8106,
      "Ġobt": 8107,
      "omethings": 8108,
      "formed": 8109,
      "Ġshortage": 8110,
      "Ġgenerated": 8111,
      "Ġjoints": 8112,
      "Ġjoining": 8113,
      "Ġretains": 8114,
      "Ġtrapped": 8115,
      "ĠKnight": 8116,
      "Ġsurvey": 8117,
      "Software": 8118,
      "Ġrefill": 8119,
      "ĠDoD": 8120,
      "Ġseemed": 8121,
      "Ġclimb": 8122,
      "Ġsecure": 8123,
      "roneship": 8124,
      "Ġlowering": 8125,
      "Ġlimitation": 8126,
      "Ġskirt": 8127,
      "Ġinvite": 8128,
      "Ġmanually": 8129,
      "Ġmanual": 8130,
      "Ġmanag": 8131,
      "Ġoperates": 8132,
      "Ġdependent": 8133,
      "vidia": 8134,
      "Ġ\"\"\"": 8135,
      "Ġsimplic": 8136,
      "Ġfixes": 8137,
      "faction": 8138,
      "Ġsimulations": 8139,
      "Ġmeteor": 8140,
      "Ġbrutal": 8141,
      "Ġvisual": 8142,
      "ĠSNL": 8143,
      "ĠProb": 8144,
      "ĠPropellant": 8145,
      "wheel": 8146,
      "ĠReg": 8147,
      "ĠReality": 8148,
      "Ġflamethrowers": 8149,
      "She": 8150,
      "Ġboom": 8151,
      "Ġstrate": 8152,
      "Ġsetbacks": 8153,
      "ustainable": 8154,
      "Rec": 8155,
      "Releasing": 8156,
      "Ġinstructions": 8157,
      "Ġdecent": 8158,
      "Ġdecided": 8159,
      "Ġcritique": 8160,
      "Ġremote": 8161,
      "Ġremotely": 8162,
      "Ġsubcool": 8163,
      "Ġsuborbital": 8164,
      "Ġroadmap": 8165,
      "Ġtemps": 8166,
      "Ġclearing": 8167,
      "Ġtunneling": 8168,
      "Ġlocally": 8169,
      "Ġcareer": 8170,
      "Ġcarefully": 8171,
      "Ġcompetitor": 8172,
      "Ġstands": 8173,
      "aceship": 8174,
      "Doing": 8175,
      "Ġblown": 8176,
      "Ġattacks": 8177,
      "Ġheads": 8178,
      "Ġheadline": 8179,
      "Ġdonated": 8180,
      "Ġdonating": 8181,
      "Ġdetection": 8182,
      "egal": 8183,
      "Ġflown": 8184,
      "Ġflush": 8185,
      "Ġquestionable": 8186,
      "should": 8187,
      "Ġexpectancy": 8188,
      "Ġpayloads": 8189,
      "Ġsustainability": 8190,
      "Ġreviewed": 8191,
      "Ġholds": 8192,
      "Ġholder": 8193,
      "ĠNewton": 8194,
      "Ġreasoning": 8195,
      "Ġreasonably": 8196,
      "Ġcreative": 8197,
      "Ġconsiderably": 8198,
      "Ġgrave": 8199,
      "Ġrestored": 8200,
      "Ġrestrict": 8201,
      "Ġstreaming": 8202,
      "Ġcommission": 8203,
      "ĠUnfortunately": 8204,
      "Ġupgrading": 8205,
      "Ġupgradable": 8206,
      "ternally": 8207,
      "Ġrecommendation": 8208,
      "ĠZee": 8209,
      "ĠZeal": 8210,
      "Ġhandful": 8211,
      "cheduled": 8212,
      "Ġdealing": 8213,
      "irds": 8214,
      "Ġsteal": 8215,
      "Ġsteady": 8216,
      "ĠSolarGlass": 8217,
      "Ascent": 8218,
      "ernel": 8219,
      "ivilization": 8220,
      "Ġpresident": 8221,
      "Ġspecs": 8222,
      "Ġaffecting": 8223,
      "Ġbrother": 8224,
      "Ġforms": 8225,
      "Ġprogrammed": 8226,
      "Ġsnake": 8227,
      "Higher": 8228,
      "Ġpainful": 8229,
      "Ġinfl": 8230,
      "Ġinflation": 8231,
      "ĠWouldnt": 8232,
      "Ġsuggesting": 8233,
      "lished": 8234,
      "Ġpanic": 8235,
      "Ġpanel": 8236,
      "Ġraising": 8237,
      "ception": 8238,
      "ĠThanksgiving": 8239,
      "Ġunveiling": 8240,
      "Ġunveiled": 8241,
      "5000": 8242,
      "Second": 8243,
      "Ġeditor": 8244,
      "Ġlabs": 8245,
      "Ġequally": 8246,
      "Ġequation": 8247,
      "Ġsubsonic": 8248,
      "Check": 8249,
      "onomy": 8250,
      "Ġbegun": 8251,
      "plane": 8252,
      "Ġpotentially": 8253,
      "Ġmerger": 8254,
      "Ġfinishing": 8255,
      "Ġmodes": 8256,
      "World": 8257,
      "Ġutter": 8258,
      "Ġmentioning": 8259,
      "Ġstudio": 8260,
      "Ġgrows": 8261,
      "Ġsheet": 8262,
      "Ġsheets": 8263,
      "Ġvaries": 8264,
      "Ġvarious": 8265,
      "Without": 8266,
      "ritten": 8267,
      "Ġtouching": 8268,
      "Ġtouchdown": 8269,
      "Ġtouchsc": 8270,
      "Ġcorruption": 8271,
      "Ġpopular": 8272,
      "Ġsmoother": 8273,
      "Ġcyclists": 8274,
      "Ġdemographic": 8275,
      "Ġhello": 8276,
      "probably": 8277,
      "Ġtrickery": 8278,
      "Ġminimizing": 8279,
      "Ġrequests": 8280,
      "Ġmillinery": 8281,
      "Ġelement": 8282,
      "ĠPerhaps": 8283,
      "mmetry": 8284,
      "Ġblocks": 8285,
      "Ġblocked": 8286,
      "ĠMachine": 8287,
      "ĠWork": 8288,
      "ĠPhysics": 8289,
      "Ġhydrocar": 8290,
      "Goal": 8291,
      "Ġaffordability": 8292,
      "Ġblowing": 8293,
      "ĠTrack": 8294,
      "Ġpromin": 8295,
      "Ġpromote": 8296,
      "ĠLotus": 8297,
      "Ġpermit": 8298,
      "Canada": 8299,
      "PAC": 8300,
      "Ġprocesses": 8301,
      "Ġrarely": 8302,
      "iffs": 8303,
      "Ġadvertise": 8304,
      "Ġjournalist": 8305,
      "Ġmechanically": 8306,
      "Ġmechanism": 8307,
      "Ġcastle": 8308,
      "Ġcastings": 8309,
      "Ġcryptocurrency": 8310,
      "Ġrouting": 8311,
      "ĠAnyone": 8312,
      "ĠEnergy": 8313,
      "ĠEveryone": 8314,
      "Ġcarrying": 8315,
      "Ġpicked": 8316,
      "Ġholidays": 8317,
      "Ġremoving": 8318,
      "Ġstraw": 8319,
      "ĠWithout": 8320,
      "Ġaborted": 8321,
      "Ġadjusting": 8322,
      "Ġadjusted": 8323,
      "Ġinterviews": 8324,
      "Ġfinancially": 8325,
      "Ġcontinued": 8326,
      "Ġmaintenance": 8327,
      "Ġchallenging": 8328,
      "Ġevolution": 8329,
      "ĠAdams": 8330,
      "ĠAdvanced": 8331,
      "Ġhealthy": 8332,
      "Ġparticular": 8333,
      "Ġcontrolling": 8334,
      "Upd": 8335,
      "Ġtitle": 8336,
      "Ġscores": 8337,
      "ĠShortfall": 8338,
      "Ġsurvive": 8339,
      "Ġlicensing": 8340,
      "ĠMarx": 8341,
      "Ġjudic": 8342,
      "ĠBeyond": 8343,
      "Ġcarmaker": 8344,
      "Ġinspiring": 8345,
      "Ġconstrained": 8346,
      "Comple": 8347,
      "Ġbias": 8348,
      "Ġcolony": 8349,
      "ĠConvention": 8350,
      "Ġjammed": 8351,
      "Ġimmune": 8352,
      "Ġfrequently": 8353,
      "ĠiPhone": 8354,
      "ĠTechn": 8355,
      "ĠTechnically": 8356,
      "Ġshifts": 8357,
      "Ġshifting": 8358,
      "Ġaspire": 8359,
      "Ġconvincing": 8360,
      "ĠElon": 8361,
      "Dogecoin": 8362,
      "Ġaudience": 8363,
      "Ġbusiness": 8364,
      "Ġfictional": 8365,
      "Ġmatches": 8366,
      "Ġreferral": 8367,
      "Ġteleport": 8368,
      "Ġdescribed": 8369,
      "Ġemployee": 8370,
      "Ġbiological": 8371,
      "Ġemojis": 8372,
      "Ġcrushed": 8373,
      "Ġreflective": 8374,
      "Ġskillz": 8375,
      "Ġesthetic": 8376,
      "Ġsimultaneous": 8377,
      "Ġcharacters": 8378,
      "ulah": 8379,
      "Ġmirror": 8380,
      "ĠTuesday": 8381,
      "ĠBrandenburg": 8382,
      "Ġentertainment": 8383,
      "Ġstopping": 8384,
      "Ġcollective": 8385,
      "ĠJohnson": 8386,
      "Price": 8387,
      "itudinal": 8388,
      "Ġelectron": 8389,
      "Ġemergency": 8390,
      "Ġdevil": 8391,
      "ĠDidnt": 8392,
      "ĠSteve": 8393,
      "Ġmonopoly": 8394,
      "Ġsplashdown": 8395,
      "Ġconsistent": 8396,
      "Ġbrightness": 8397,
      "Ġhypocr": 8398,
      "Ġpurple": 8399,
      "Ġelevators": 8400,
      "Reminder": 8401,
      "Ġtuning": 8402,
      "Ġcapture": 8403,
      "Ġcaptured": 8404,
      "ĠIronically": 8405,
      "Ġvoting": 8406,
      "ĠGeneral": 8407,
      "Ġactuator": 8408,
      "ĠVacuum": 8409,
      "Ġawful": 8410,
      "Ġharness": 8411,
      "ĠTrying": 8412,
      "ĠSurface": 8413,
      "Ġviol": 8414,
      "ĠPretty": 8415,
      "Ġcompensate": 8416,
      "ĠLiquid": 8417,
      "Ġoverride": 8418,
      "Ġspaceports": 8419,
      "Ġtemporary": 8420,
      "Ġbelieving": 8421,
      "Ġdetected": 8422,
      "Ġrecognition": 8423,
      "Engineering": 8424,
      "Ironically": 8425,
      "Reddit": 8426,
      "Ġthickness": 8427,
      "Ġbreathing": 8428,
      "Ġmasks": 8429,
      "ĠMcGregor": 8430,
      "ĠMunro": 8431,
      "ĠMegapack": 8432,
      "ĠMegapacks": 8433,
      "ĠAngeles": 8434,
      "Ġsexy": 8435,
      "Ġbumper": 8436,
      "Ġintersect": 8437,
      "ĠInsurance": 8438,
      "Ġendorsements": 8439,
      "Ġexperienced": 8440,
      "Ġprofitable": 8441,
      "Ġpermanent": 8442,
      "Ġasteroids": 8443,
      "Ġsedan": 8444,
      "Ġcookie": 8445,
      "Ġmerely": 8446,
      "Ġpyramids": 8447,
      "Ġinjector": 8448,
      "ĠSecret": 8449,
      "ĠCongratulations": 8450,
      "Ġchoosing": 8451,
      "months": 8452,
      "Ġtaxpayers": 8453,
      "Ġdeclined": 8454,
      "Ġmanufacturers": 8455,
      "Ġredundant": 8456,
      "Success": 8457,
      "satellite": 8458,
      "Ġcabin": 8459,
      "Ġmentions": 8460,
      "Ġglitch": 8461,
      "ĠTurns": 8462,
      "ĠSenate": 8463,
      "ĠAshlee": 8464,
      "ĠFlint": 8465,
      "ĠDouglas": 8466,
      "Ġpractical": 8467,
      "ĠInfinite": 8468,
      "Ġinspection": 8469,
      "Ġsubstant": 8470,
      "Ġconfigurator": 8471,
      "Ġuncertainty": 8472,
      "Ġmaneuvering": 8473,
      "Ġproportionate": 8474,
      "Ġmelting": 8475,
      "Ġpixels": 8476,
      "alactic": 8477,
      "Ġgatherings": 8478,
      "entralized": 8479,
      "thereum": 8480,
      "ĠMetal": 8481,
      "ĠMothers": 8482,
      "ĠFormula": 8483,
      "ĠNavigate": 8484,
      "Ġsmashed": 8485,
      "Ġexplode": 8486,
      "Ġautomakers": 8487,
      "Ġabsolute": 8488,
      "Ġinfluen": 8489,
      "Approximately": 8490,
      "Ġdialogue": 8491,
      "German": 8492,
      "Today": 8493,
      "onestly": 8494,
      "atrix": 8495,
      "Ġmandate": 8496,
      "Ġlanguage": 8497,
      "Ġstiffness": 8498,
      "ĠMountain": 8499,
      "Ġneurons": 8500,
      "Ġconnection": 8501,
      "Ġcomplac": 8502,
      "Ġcomplicated": 8503,
      "ĠGovernor": 8504,
      "Ġtimeline": 8505,
      "ĠOptimus": 8506,
      "Ġsavings": 8507,
      "Ġincremental": 8508,
      "ĠKorea": 8509,
      "Ġmetaphor": 8510,
      "Ġrestaurant": 8511,
      "Ġpresumably": 8512,
      "Ġfatigue": 8513,
      "Listening": 8514,
      "Ġternary": 8515,
      "Ġaerospace": 8516,
      "Ġcounc": 8517,
      "Ġlidar": 8518,
      "Ġlimbic": 8519,
      "Ġinaccurate": 8520,
      "ĠSanta": 8521,
      "ĠIridium": 8522,
      "Ġwhistle": 8523,
      "Ġexhaust": 8524,
      "Ġsudden": 8525,
      "ĠHertz": 8526,
      "ĠVTOL": 8527,
      "ĠXavier": 8528,
      "ĠSuperdraco": 8529,
      "ĠZealand": 8530,
      "Ġtouchscreen": 8531,
      "Ġhydrocarbons": 8532,
      "!\"": 8533,
      ")!": 8534,
      "):": 8535,
      "+,": 8536,
      ".,": 8537,
      "180": 8538,
      "230": 8539,
      "55": 8540,
      "550": 8541,
      "600": 8542,
      "AF": 8543,
      "Ant": 8544,
      "Ass": 8545,
      "April": 8546,
      "Apollo": 8547,
      "Austin": 8548,
      "Br": 8549,
      "Bel": 8550,
      "BFR": 8551,
      "Brav": 8552,
      "Basic": 8553,
      "Call": 8554,
      "Cold": 8555,
      "Cover": 8556,
      "Custom": 8557,
      "Class": 8558,
      "Crew": 8559,
      "Critical": 8560,
      "Crypt": 8561,
      "Cuphead": 8562,
      "Credit": 8563,
      "DT": 8564,
      "Das": 8565,
      "Dest": 8566,
      "EC": 8567,
      "FT": 8568,
      "Fig": 8569,
      "Form": 8570,
      "Future": 8571,
      "Finally": 8572,
      "Firmware": 8573,
      "Flying": 8574,
      "Feeling": 8575,
      "God": 8576,
      "Giant": 8577,
      "Green": 8578,
      "Gonna": 8579,
      "Global": 8580,
      "HC": 8581,
      "HW": 8582,
      "Hate": 8583,
      "Heavy": 8584,
      "Hope": 8585,
      "Hyperloop": 8586,
      "Honestly": 8587,
      "Ich": 8588,
      "Ign": 8589,
      "Je": 8590,
      "July": 8591,
      "Krypton": 8592,
      "Low": 8593,
      "Light": 8594,
      "Lord": 8595,
      "Limit": 8596,
      "ME": 8597,
      "Man": 8598,
      "Met": 8599,
      "May": 8600,
      "Mid": 8601,
      "Mad": 8602,
      "Mind": 8603,
      "Mission": 8604,
      "Non": 8605,
      "None": 8606,
      "Nose": 8607,
      "North": 8608,
      "Naturally": 8609,
      "OP": 8610,
      "Off": 8611,
      "Obv": 8612,
      "PG": 8613,
      "Par": 8614,
      "Pot": 8615,
      "Pics": 8616,
      "Post": 8617,
      "Plan": 8618,
      "RP": 8619,
      "Race": 8620,
      "RNA": 8621,
      "SC": 8622,
      "Sea": 8623,
      "Sha": 8624,
      "Sending": 8625,
      "Saw": 8626,
      "Sentry": 8627,
      "Speed": 8628,
      "Single": 8629,
      "Scientists": 8630,
      "Saints": 8631,
      "Tim": 8632,
      "Tap": 8633,
      "Tower": 8634,
      "Take": 8635,
      "Turb": 8636,
      "Took": 8637,
      "Teslas": 8638,
      "Ur": 8639,
      "Use": 8640,
      "Upper": 8641,
      "UAW": 8642,
      "Wild": 8643,
      "Waiting": 8644,
      "Wait": 8645,
      "aj": 8646,
      "ael": 8647,
      "awesome": 8648,
      "agram": 8649,
      "bl": 8650,
      "br": 8651,
      "big": 8652,
      "bum": 8653,
      "bound": 8654,
      "bru": 8655,
      "boy": 8656,
      "cu": 8657,
      "cont": 8658,
      "count": 8659,
      "correct": 8660,
      "comm": 8661,
      "cribed": 8662,
      "da": 8663,
      "ded": 8664,
      "dep": 8665,
      "diver": 8666,
      "design": 8667,
      "eace": 8668,
      "eper": 8669,
      "early": 8670,
      "eze": 8671,
      "fast": 8672,
      "first": 8673,
      "facing": 8674,
      "flu": 8675,
      "fyi": 8676,
      "gl": 8677,
      "gu": 8678,
      "got": 8679,
      "gers": 8680,
      "his": 8681,
      "hill": 8682,
      "hop": 8683,
      "hol": 8684,
      "hance": 8685,
      "half": 8686,
      "ij": 8687,
      "iess": 8688,
      "ipped": 8689,
      "kk": 8690,
      "kill": 8691,
      "kers": 8692,
      "katch": 8693,
      "layer": 8694,
      "might": 8695,
      "mod": 8696,
      "matter": 8697,
      "muff": 8698,
      "och": 8699,
      "oil": 8700,
      "oqu": 8701,
      "ooth": 8702,
      "oked": 8703,
      "pic": 8704,
      "pad": 8705,
      "pul": 8706,
      "pone": 8707,
      "pri": 8708,
      "phic": 8709,
      "planet": 8710,
      "piration": 8711,
      "ramp": 8712,
      "rout": 8713,
      "rum": 8714,
      "rance": 8715,
      "rational": 8716,
      "rify": 8717,
      "ratr": 8718,
      "sm": 8719,
      "sch": 8720,
      "sha": 8721,
      "srsly": 8722,
      "sentation": 8723,
      "tal": 8724,
      "tag": 8725,
      "tte": 8726,
      "tainment": 8727,
      "uk": 8728,
      "uing": 8729,
      "uet": 8730,
      "ugs": 8731,
      "uits": 8732,
      "uerto": 8733,
      "vac": 8734,
      "vil": 8735,
      "volut": 8736,
      "wing": 8737,
      "xim": 8738,
      "yQuil": 8739,
      "zens": 8740,
      "Ġx": 8741,
      "Ġion": 8742,
      "Ġich": 8743,
      "Ġque": 8744,
      "Ġera": 8745,
      "Ġtick": 8746,
      "Ġtied": 8747,
      "Ġtends": 8748,
      "Ġtub": 8749,
      "Ġtyr": 8750,
      "inf": 8751,
      "ino": 8752,
      "inated": 8753,
      "inations": 8754,
      "inishing": 8755,
      "erd": 8756,
      "erve": 8757,
      "erved": 8758,
      "erbal": 8759,
      "onious": 8760,
      "onizing": 8761,
      "Ġsan": 8762,
      "Ġsac": 8763,
      "Ġsight": 8764,
      "Ġswe": 8765,
      "Ġsque": 8766,
      "Ġsample": 8767,
      "Ġsooo": 8768,
      "Ġsledgehammer": 8769,
      "reg": 8770,
      "reh": 8771,
      "rek": 8772,
      "reet": 8773,
      "really": 8774,
      "Ġthor": 8775,
      "Ġwine": 8776,
      "Ġwanna": 8777,
      "espan": 8778,
      "ora": 8779,
      "orole": 8780,
      "Ġbed": 8781,
      "Ġbul": 8782,
      "Ġbod": 8783,
      "Ġbol": 8784,
      "Ġbatch": 8785,
      "Ġbond": 8786,
      "Ġblad": 8787,
      "atons": 8788,
      "ativity": 8789,
      "Ġce": 8790,
      "Ġcape": 8791,
      "Ġcouple": 8792,
      "isis": 8793,
      "inger": 8794,
      "ingap": 8795,
      "Ġfle": 8796,
      "Ġfab": 8797,
      "Ġfart": 8798,
      "Ġfry": 8799,
      "Ġfist": 8800,
      "Ġfps": 8801,
      "Ġfirm": 8802,
      "itary": 8803,
      "itial": 8804,
      "itted": 8805,
      "ena": 8806,
      "Ġmut": 8807,
      "Ġmall": 8808,
      "Ġmoo": 8809,
      "Ġmcu": 8810,
      "lla": 8811,
      "arp": 8812,
      "around": 8813,
      "arizes": 8814,
      "anny": 8815,
      "Ġpal": 8816,
      "Ġpun": 8817,
      "Ġpace": 8818,
      "Ġpink": 8819,
      "Ġpsy": 8820,
      "Ġpoured": 8821,
      "Ġtoy": 8822,
      "Ġow": 8823,
      "Ġdi": 8824,
      "Ġdot": 8825,
      "Ġdil": 8826,
      "Ġdain": 8827,
      "Ġdish": 8828,
      "Ġdrain": 8829,
      "Ġho": 8830,
      "Ġhire": 8831,
      "Ġhoney": 8832,
      "Ġharm": 8833,
      "Ġhomes": 8834,
      "Ġhinge": 8835,
      "Ġhammer": 8836,
      "Ġhvac": 8837,
      "Ġlil": 8838,
      "Ġlunch": 8839,
      "Ġlapt": 8840,
      "Ġlaps": 8841,
      "Ġlung": 8842,
      "mpe": 8843,
      "mpting": 8844,
      "ropped": 8845,
      "step": 8846,
      "struction": 8847,
      "Ġinver": 8848,
      "aler": 8849,
      "aling": 8850,
      "already": 8851,
      "alax": 8852,
      "Ġnail": 8853,
      "Ġnorth": 8854,
      "Ġnested": 8855,
      "ication": 8856,
      "icide": 8857,
      "icopter": 8858,
      "leg": 8859,
      "asers": 8860,
      "asma": 8861,
      "askatch": 8862,
      "Ġbets": 8863,
      "Ġbeating": 8864,
      "Ġgro": 8865,
      "Ġgant": 8866,
      "Ġgap": 8867,
      "Ġgaps": 8868,
      "Ġgoogle": 8869,
      "Ġgift": 8870,
      "uted": 8871,
      "uters": 8872,
      "Ġren": 8873,
      "Ġrect": 8874,
      "Ġreel": 8875,
      "Ġreward": 8876,
      "Ġrevert": 8877,
      "Ġreaction": 8878,
      "Ġrelaunch": 8879,
      "amples": 8880,
      "oting": 8881,
      "otech": 8882,
      "etr": 8883,
      "eted": 8884,
      "etition": 8885,
      "etta": 8886,
      "ĠTe": 8887,
      "ĠTight": 8888,
      "ĠTime": 8889,
      "ĠTruck": 8890,
      "ĠToy": 8891,
      "ĠTook": 8892,
      "ĠTED": 8893,
      "ĠTintin": 8894,
      "Ġein": 8895,
      "Ġease": 8896,
      "illow": 8897,
      "illions": 8898,
      "illerson": 8899,
      "Ġforum": 8900,
      "ĠSA": 8901,
      "ĠSL": 8902,
      "ĠSon": 8903,
      "ĠSay": 8904,
      "ĠSam": 8905,
      "ĠSure": 8906,
      "ĠSimp": 8907,
      "ĠSpr": 8908,
      "ĠSingle": 8909,
      "ĠSustainable": 8910,
      "ĠSPAC": 8911,
      "ĠSaskatch": 8912,
      "Ġonboard": 8913,
      "Ġongoing": 8914,
      "owea": 8915,
      "lderly": 8916,
      "idity": 8917,
      "elis": 8918,
      "elter": 8919,
      "elvin": 8920,
      "chem": 8921,
      "check": 8922,
      "chassis": 8923,
      "ĠIrel": 8924,
      "laus": 8925,
      "lame": 8926,
      "ader": 8927,
      "adem": 8928,
      "Ġsoci": 8929,
      "teria": 8930,
      "tertainment": 8931,
      "Ġstro": 8932,
      "Ġstow": 8933,
      "Ġstays": 8934,
      "Ġstance": 8935,
      "Ġstated": 8936,
      "Ġstake": 8937,
      "that": 8938,
      "things": 8939,
      "thora": 8940,
      "iths": 8941,
      "ithms": 8942,
      "ĠMel": 8943,
      "ĠMich": 8944,
      "ĠMord": 8945,
      "ĠMitch": 8946,
      "ĠMaster": 8947,
      "ĠMicro": 8948,
      "ĠMoving": 8949,
      "ĠMRI": 8950,
      "Ġwhom": 8951,
      "Ġwhimp": 8952,
      "sea": 8953,
      "Ġwearing": 8954,
      "Ġneigh": 8955,
      "ama": 8956,
      "iral": 8957,
      "irus": 8958,
      "irical": 8959,
      "irgin": 8960,
      "Ġproceeds": 8961,
      "ilicon": 8962,
      "Thurs": 8963,
      "Thinking": 8964,
      "Ġrough": 8965,
      "Ġrich": 8966,
      "Ġrage": 8967,
      "Ġriver": 8968,
      "Ġrpm": 8969,
      "ĠAv": 8970,
      "ĠAnt": 8971,
      "ĠAmb": 8972,
      "estream": 8973,
      "estrel": 8974,
      "urch": 8975,
      "uratively": 8976,
      "unction": 8977,
      "Ġarenas": 8978,
      "ablish": 8979,
      "Ġcoin": 8980,
      "Ġhaven": 8981,
      "ĠCats": 8982,
      "ĠClass": 8983,
      "ĠCook": 8984,
      "ĠCuphead": 8985,
      "ĠCDC": 8986,
      "ĠCulture": 8987,
      "Ġenjo": 8988,
      "Ġenerg": 8989,
      "Ġatoms": 8990,
      "Ġshd": 8991,
      "Ġshock": 8992,
      "Ġshared": 8993,
      "Ġshadow": 8994,
      "ationary": 8995,
      "Ġtrade": 8996,
      "Ġtrading": 8997,
      "Ġtragic": 8998,
      "Ġorient": 8999,
      "ndical": 9000,
      "ulf": 9001,
      "Ġvess": 9002,
      "Ġvital": 9003,
      "ĠWow": 9004,
      "ĠWind": 9005,
      "ĠWitch": 9006,
      "Ġdoci": 9007,
      "Ġdozens": 9008,
      "Ġnoticed": 9009,
      "ĠThird": 9010,
      "Ġexting": 9011,
      "Ġexamination": 9012,
      "Ġexchange": 9013,
      "Ġexternally": 9014,
      "Ġseated": 9015,
      "ntil": 9016,
      "uments": 9017,
      "Ġmaps": 9018,
      "Ġmakers": 9019,
      "ipes": 9020,
      "iple": 9021,
      "ĠFB": 9022,
      "ĠFact": 9023,
      "ĠFire": 9024,
      "ĠFully": 9025,
      "ĠFix": 9026,
      "ĠField": 9027,
      "ĠFUD": 9028,
      "ĠFederal": 9029,
      "ĠFrench": 9030,
      "Ġcones": 9031,
      "Ġcongr": 9032,
      "Ġconcent": 9033,
      "Ġconvey": 9034,
      "Ġconcepts": 9035,
      "andon": 9036,
      "Ġdeck": 9037,
      "Ġdeorbit": 9038,
      "actions": 9039,
      "Ġjazz": 9040,
      "ĠBS": 9041,
      "ĠBu": 9042,
      "ĠBit": 9043,
      "ĠBen": 9044,
      "ĠBel": 9045,
      "ĠBost": 9046,
      "ĠBraz": 9047,
      "ĠBern": 9048,
      "ĠBattery": 9049,
      "ĠBasically": 9050,
      "ĠBricks": 9051,
      "ĠBrian": 9052,
      "Ġabt": 9053,
      "Ġalbum": 9054,
      "orted": 9055,
      "rapt": 9056,
      "rained": 9057,
      "Ġsued": 9058,
      "ouri": 9059,
      "ournal": 9060,
      "Ġallev": 9061,
      "oody": 9062,
      "ĠHat": 9063,
      "ĠHallow": 9064,
      "ĠNon": 9065,
      "ĠNove": 9066,
      "ĠNational": 9067,
      "ĠNvidia": 9068,
      "ĠNyQuil": 9069,
      "ĠPU": 9070,
      "ĠPic": 9071,
      "ĠPri": 9072,
      "ĠPost": 9073,
      "ĠPerson": 9074,
      "ĠPublic": 9075,
      "ĠPuerto": 9076,
      "love": 9077,
      "ĠDie": 9078,
      "ĠDick": 9079,
      "ĠDane": 9080,
      "ĠData": 9081,
      "ĠDoub": 9082,
      "ĠEd": 9083,
      "ĠEg": 9084,
      "ĠEgy": 9085,
      "ĠEric": 9086,
      "ĠEither": 9087,
      "ĠEconom": 9088,
      "ĠEssentially": 9089,
      "ĠEasy": 9090,
      "Ġchess": 9091,
      "Ġchoc": 9092,
      "Ġchick": 9093,
      "Ġchutes": 9094,
      "Ġchief": 9095,
      "Ġcherry": 9096,
      "kings": 9097,
      "ĠRand": 9098,
      "ĠRico": 9099,
      "ivile": 9100,
      "Ġpose": 9101,
      "Ġpoison": 9102,
      "ieval": 9103,
      "apes": 9104,
      "apor": 9105,
      "Ġmeal": 9106,
      "Ġupset": 9107,
      "ĠStars": 9108,
      "ĠStone": 9109,
      "ĠStorm": 9110,
      "ĠStates": 9111,
      "ĠStainless": 9112,
      "ĠStarlinks": 9113,
      "ĠStarman": 9114,
      "Ġyellow": 9115,
      "Ġkit": 9116,
      "Ġkaraoke": 9117,
      "Ġkernel": 9118,
      "Ġcaraoke": 9119,
      "Ġcarrier": 9120,
      "Ġimpressed": 9121,
      "Ġimpellers": 9122,
      "ĠGr": 9123,
      "ĠGold": 9124,
      "ĠGPT": 9125,
      "ĠGreg": 9126,
      "ĠLight": 9127,
      "ĠLink": 9128,
      "ĠLarg": 9129,
      "ĠLake": 9130,
      "ĠLeg": 9131,
      "ĠLoop": 9132,
      "ĠLee": 9133,
      "ĠLiterally": 9134,
      "ĠLockheed": 9135,
      "ĠLOX": 9136,
      "Ġhighs": 9137,
      "olist": 9138,
      "olving": 9139,
      "Ġheh": 9140,
      "Ġengage": 9141,
      "Ġengaged": 9142,
      "Ġpref": 9143,
      "Ġpreval": 9144,
      "emand": 9145,
      "Ġoutdo": 9146,
      "Ġnobody": 9147,
      "Ġcancer": 9148,
      "Ġcancell": 9149,
      "izer": 9150,
      "izon": 9151,
      "istance": 9152,
      "istorical": 9153,
      "xture": 9154,
      "Ġgoodwill": 9155,
      "ores": 9156,
      "Ġarc": 9157,
      "Ġarbit": 9158,
      "Ġarrest": 9159,
      "Ġpls": 9160,
      "Ġplug": 9161,
      "Ġplasma": 9162,
      "Ġbetting": 9163,
      "conf": 9164,
      "Ġanytime": 9165,
      "Ġadapt": 9166,
      "Ġunlock": 9167,
      "Ġunivers": 9168,
      "Ġuncover": 9169,
      "Ġunbel": 9170,
      "Ġappeal": 9171,
      "ccup": 9172,
      "iche": 9173,
      "ĠUs": 9174,
      "ĠUpper": 9175,
      "ĠUta": 9176,
      "ĠOut": 9177,
      "ĠOff": 9178,
      "ĠOwn": 9179,
      "Ġlake": 9180,
      "haul": 9181,
      "Weld": 9182,
      "Ġoverp": 9183,
      "Ġoverst": 9184,
      "Ġovercome": 9185,
      "Ġoverhe": 9186,
      "Ġoverhaul": 9187,
      "Ġdrink": 9188,
      "ĠVF": 9189,
      "ĠVi": 9190,
      "ĠVance": 9191,
      "ĠVirgin": 9192,
      "beit": 9193,
      "bell": 9194,
      "before": 9195,
      "Ġprime": 9196,
      "Ġprivile": 9197,
      "ached": 9198,
      "acheal": 9199,
      "Ġdesert": 9200,
      "oths": 9201,
      "ĠJer": 9202,
      "ĠJim": 9203,
      "ĠJack": 9204,
      "ĠJames": 9205,
      "ĠJared": 9206,
      "uding": 9207,
      "Ġlaunchpad": 9208,
      "epend": 9209,
      "Ġintake": 9210,
      "Ġintub": 9211,
      "Ġcontain": 9212,
      "Ġspare": 9213,
      "Ġspike": 9214,
      "Ġspring": 9215,
      "Ġsphere": 9216,
      "Ġspeaking": 9217,
      "velength": 9218,
      "Ġlongitudinal": 9219,
      "ferential": 9220,
      "Ġquotes": 9221,
      "Ġquieter": 9222,
      "rices": 9223,
      "ricky": 9224,
      "Ġaccomp": 9225,
      "Stay": 9226,
      "Stability": 9227,
      "Ġwhose": 9228,
      "Whether": 9229,
      "Whoop": 9230,
      "Ġknuck": 9231,
      "Ġknife": 9232,
      "\"\".\"": 9233,
      "ensus": 9234,
[...]
