{
  "version": "1.0",
  "truncation": null,
  "padding": null,
  "added_tokens": [
    {
      "id": 0,
      "content": "<s>",
      "single_word": false,
      "lstrip": false,
      "rstrip": false,
      "normalized": false,
      "special": true
    },
    {
      "id": 1,
      "content": "<pad>",
      "single_word": false,
      "lstrip": false,
      "rstrip": false,
      "normalized": false,
      "special": true
    },
    {
      "id": 2,
      "content": "</s>",
      "single_word": false,
      "lstrip": false,
      "rstrip": false,
      "normalized": false,
      "special": true
    },
    {
      "id": 3,
      "content": "<unk>",
      "single_word": false,
      "lstrip": false,
      "rstrip": false,
      "normalized": false,
      "special": true
    },
    {
      "id": 4,
      "content": "<mask>",
      "single_word": false,
      "lstrip": false,
      "rstrip": false,
      "normalized": false,
      "special": true
    }
  ],
  "normalizer": {
    "type": "BertNormalizer",
    "clean_text": true,
    "handle_chinese_chars": true,
    "strip_accents": null,
    "lowercase": false
  },
  "pre_tokenizer": {
    "type": "BertPreTokenizer"
  },
  "post_processor": null,
  "decoder": {
    "type": "BPEDecoder",
    "suffix": "</w>"
  },
  "model": {
    "type": "BPE",
    "dropout": null,
    "unk_token": null,
    "continuing_subword_prefix": null,
    "end_of_word_suffix": "</w>",
    "fuse_unk": false,
    "vocab": {
      "<s>": 0,
      "<pad>": 1,
      "</s>": 2,
      "<unk>": 3,
      "<mask>": 4,
      "!": 5,
      "\"": 6,
      "$": 7,
      "%": 8,
      "&": 9,
      "'": 10,
      "(": 11,
      ")": 12,
      "*": 13,
      "+": 14,
      ",": 15,
      "-": 16,
      ".": 17,
      "/": 18,
      "0": 19,
      "1": 20,
      "2": 21,
      "3": 22,
      "4": 23,
      "5": 24,
      "6": 25,
      "7": 26,
      "8": 27,
      "9": 28,
      ":": 29,
      ";": 30,
      "=": 31,
      "?": 32,
      "A": 33,
      "B": 34,
      "C": 35,
      "D": 36,
      "E": 37,
      "F": 38,
      "G": 39,
      "H": 40,
      "I": 41,
      "J": 42,
      "K": 43,
      "L": 44,
      "M": 45,
      "N": 46,
      "O": 47,
      "P": 48,
      "Q": 49,
      "R": 50,
      "S": 51,
      "T": 52,
      "U": 53,
      "V": 54,
      "W": 55,
      "X": 56,
      "Y": 57,
      "Z": 58,
      "[": 59,
      "]": 60,
      "^": 61,
      "_": 62,
      "a": 63,
      "b": 64,
      "c": 65,
      "d": 66,
      "e": 67,
      "f": 68,
      "g": 69,
      "h": 70,
      "i": 71,
      "j": 72,
      "k": 73,
      "l": 74,
      "m": 75,
      "n": 76,
      "o": 77,
      "p": 78,
      "q": 79,
      "r": 80,
      "s": 81,
      "t": 82,
      "u": 83,
      "v": 84,
      "w": 85,
      "x": 86,
      "y": 87,
      "z": 88,
      "{": 89,
      "|": 90,
      "}": 91,
      "~": 92,
      "g</w>": 93,
      "s</w>": 94,
      "y</w>": 95,
      "n</w>": 96,
      "h</w>": 97,
      "d</w>": 98,
      "e</w>": 99,
      "f</w>": 100,
      "r</w>": 101,
      "m</w>": 102,
      "t</w>": 103,
      "k</w>": 104,
      "L</w>": 105,
      "i</w>": 106,
      "a</w>": 107,
      "4</w>": 108,
      "p</w>": 109,
      "l</w>": 110,
      "M</w>": 111,
      "0</w>": 112,
      "o</w>": 113,
      "B</w>": 114,
      "S</w>": 115,
      "c</w>": 116,
      "w</w>": 117,
      "q</w>": 118,
      "1</w>": 119,
      "9</w>": 120,
      "2</w>": 121,
      "6</w>": 122,
      "A</w>": 123,
      "N</w>": 124,
      "O</w>": 125,
      "T</w>": 126,
      "z</w>": 127,
      "W</w>": 128,
      "x</w>": 129,
      "C</w>": 130,
      "D</w>": 131,
      "u</w>": 132,
      "3</w>": 133,
      "K</w>": 134,
      "I</w>": 135,
      "?</w>": 136,
      ".</w>": 137,
      "v</w>": 138,
      "[</w>": 139,
      "G</w>": 140,
      "R</w>": 141,
      "P</w>": 142,
      "8</w>": 143,
      "5</w>": 144,
      ":</w>": 145,
      "\"</w>": 146,
      "E</w>": 147,
      "b</w>": 148,
      "7</w>": 149,
      "-</w>": 150,
      "Q</w>": 151,
      "{</w>": 152,
      "F</w>": 153,
      "&</w>": 154,
      "V</w>": 155,
      "'</w>": 156,
      "_</w>": 157,
      "U</w>": 158,
      "J</w>": 159,
      "Y</w>": 160,
      ";</w>": 161,
      "Z</w>": 162,
      "H</w>": 163,
      "/</w>": 164,
      "X</w>": 165,
      ")</w>": 166,
      "]</w>": 167,
      "(</w>": 168,
      "%</w>": 169,
      "*</w>": 170,
      "+</w>": 171,
      "!</w>": 172,
      "|</w>": 173,
      "~</w>": 174,
      "j</w>": 175,
      "=</w>": 176,
      "$</w>": 177,
      "}</w>": 178,
      ",</w>": 179,
      "^</w>": 180,
      "in": 181,
      "th": 182,
      "er": 183,
      "ar": 184,
      "ing</w>": 185,
      "re": 186,
      "an": 187,
      "ou": 188,
      "ti": 189,
      "on": 190,
      "is</w>": 191,
      "or": 192,
      "on</w>": 193,
      "er</w>": 194,
      "to</w>": 195,
      "en": 196,
      "al": 197,
      "ly</w>": 198,
      "es": 199,
      "ed</w>": 200,
      "ro": 201,
      "es</w>": 202,
      "it": 203,
      "the</w>": 204,
      "am": 205,
      "at": 206,
      "or</w>": 207,
      "ac": 208,
      "at</w>": 209,
      "il": 210,
      "of</w>": 211,
      "in</w>": 212,
      "st": 213,
      "om": 214,
      "st</w>": 215,
      "ea": 216,
      "ig": 217,
      "amp</w>": 218,
      "el": 219,
      "ve</w>": 220,
      "as</w>": 221,
      "ic": 222,
      "Th": 223,
      "lo": 224,
      "for</w>": 225,
      "al</w>": 226,
      "ur": 227,
      "be</w>": 228,
      "le</w>": 229,
      "an</w>": 230,
      "ab": 231,
      "ill</w>": 232,
      "ec": 233,
      "bu": 234,
      "se</w>": 235,
      "it</w>": 236,
      "pro": 237,
      "li": 238,
      "si": 239,
      "tion</w>": 240,
      "tr": 241,
      "ee": 242,
      "no": 243,
      "un": 244,
      "sh": 245,
      "ts</w>": 246,
      "ma": 247,
      "ld</w>": 248,
      "are</w>": 249,
      "op": 250,
      "wh": 251,
      "la": 252,
      "will</w>": 253,
      "ha": 254,
      "oo": 255,
      "Tes": 256,
      "ex": 257,
      "uc": 258,
      "la</w>": 259,
      "de": 260,
      "Tesla</w>": 261,
      "en</w>": 262,
      "but</w>": 263,
      "com": 264,
      "igh": 265,
      "that</w>": 266,
      "ver": 267,
      "wit": 268,
      "di": 269,
      "ra": 270,
      "with</w>": 271,
      "et": 272,
      "ke</w>": 273,
      "ri": 274,
      "ay</w>": 275,
      "so</w>": 276,
      "ould</w>": 277,
      "mo": 278,
      "po": 279,
      "su": 280,
      "ch": 281,
      "ally</w>": 282,
      "et</w>": 283,
      "ere</w>": 284,
      "ir": 285,
      "out</w>": 286,
      "so": 287,
      "ul": 288,
      "ter</w>": 289,
      "ust</w>": 290,
      "im": 291,
      "ent</w>": 292,
      "sp": 293,
      "ou</w>": 294,
      "wor": 295,
      "this</w>": 296,
      "and</w>": 297,
      "ca": 298,
      "ev": 299,
      "all</w>": 300,
      "ure</w>": 301,
      "ight</w>": 302,
      "ars</w>": 303,
      "ter": 304,
      "ge</w>": 305,
      "to": 306,
      "ad": 307,
      "oun": 308,
      "con": 309,
      "one</w>": 310,
      "ity</w>": 311,
      "not</w>": 312,
      "me</w>": 313,
      "ks</w>": 314,
      "vi": 315,
      "act": 316,
      "th</w>": 317,
      "pp": 318,
      "ore</w>": 319,
      "ne": 320,
      "ate</w>": 321,
      "you</w>": 322,
      "de</w>": 323,
      "ut": 324,
      "by</w>": 325,
      "ce</w>": 326,
      "ta": 327,
      "have</w>": 328,
      "we</w>": 329,
      "do": 330,
      "pl": 331,
      "em": 332,
      "ers</w>": 333,
      "ds</w>": 334,
      "the": 335,
      "ant</w>": 336,
      "ay": 337,
      "co": 338,
      "ons</w>": 339,
      "est</w>": 340,
      "gre": 341,
      "qu": 342,
      "our</w>": 343,
      "is": 344,
      "ood</w>": 345,
      "Mo": 346,
      "rom</w>": 347,
      "ef": 348,
      "was</w>": 349,
      "oug": 350,
      "ely</w>": 351,
      "king</w>": 352,
      "as": 353,
      "from</w>": 354,
      "us": 355,
      "ue</w>": 356,
      "any</w>": 357,
      "St": 358,
      "ding</w>": 359,
      "fa": 360,
      "Yes</w>": 361,
      "ot</w>": 362,
      "ear</w>": 363,
      "pre": 364,
      "per": 365,
      "pac": 366,
      "ome</w>": 367,
      "ine</w>": 368,
      "able</w>": 369,
      "ting</w>": 370,
      "duc": 371,
      "shi": 372,
      "The</w>": 373,
      "eng": 374,
      "af": 375,
      "like</w>": 376,
      "um": 377,
      "about</w>": 378,
      "se": 379,
      "than</w>": 380,
      "do</w>": 381,
      "for": 382,
      "ap": 383,
      "ch</w>": 384,
      "more</w>": 385,
      "uch</w>": 386,
      "ho": 387,
      "Star": 388,
      "ther</w>": 389,
      "ard</w>": 390,
      "ci": 391,
      "ic</w>": 392,
      "wee": 393,
      "just</w>": 394,
      "ess</w>": 395,
      "pe": 396,
      "ation</w>": 397,
      "par": 398,
      "We</w>": 399,
      "igh</w>": 400,
      "would</w>": 401,
      "This</w>": 402,
      "most</w>": 403,
      "del</w>": 404,
      "our": 405,
      "way</w>": 406,
      "ing": 407,
      "can</w>": 408,
      "mon": 409,
      "tic": 410,
      "ad</w>": 411,
      "fl": 412,
      "has</w>": 413,
      "up": 414,
      "ew</w>": 415,
      "ver</w>": 416,
      "sion</w>": 417,
      "Model</w>": 418,
      "lea": 419,
      "thing</w>": 420,
      "now</w>": 421,
      "ough</w>": 422,
      "produc": 423,
      "time</w>": 424,
      "ck": 425,
      "up</w>": 426,
      "ship</w>": 427,
      "ir</w>": 428,
      "ll</w>": 429,
      "day</w>": 430,
      "no</w>": 431,
      "cre": 432,
      "ded</w>": 433,
      "much</w>": 434,
      "der</w>": 435,
      "ss</w>": 436,
      "car</w>": 437,
      "le": 438,
      "ats</w>": 439,
      "good</w>": 440,
      "go": 441,
      "Spac": 442,
      "Will</w>": 443,
      "prob": 444,
      "ong</w>": 445,
      "id</w>": 446,
      "bo": 447,
      "wer</w>": 448,
      "my</w>": 449,
      "tions</w>": 450,
      "bet": 451,
      "ving</w>": 452,
      "ext</w>": 453,
      "very</w>": 454,
      "ell</w>": 455,
      "ame</w>": 456,
      "ted</w>": 457,
      "wi": 458,
      "des": 459,
      "its</w>": 460,
      "nt</w>": 461,
      "be": 462,
      "fir": 463,
      "great</w>": 464,
      "ice</w>": 465,
      "ow": 466,
      "should</w>": 467,
      "pu": 468,
      "ably</w>": 469,
      "tw": 470,
      "ont</w>": 471,
      "ink</w>": 472,
      "ff": 473,
      "if</w>": 474,
      "fu": 475,
      "ack</w>": 476,
      "ell": 477,
      "It</w>": 478,
      "high</w>": 479,
      "use</w>": 480,
      "rec": 481,
      "ople</w>": 482,
      "too</w>": 483,
      "ag": 484,
      "Ex": 485,
      "sure</w>": 486,
      "ays</w>": 487,
      "me": 488,
      "ite</w>": 489,
      "eah</w>": 490,
      "make</w>": 491,
      "Wh": 492,
      "iz": 493,
      "ich</w>": 494,
      "ies</w>": 495,
      "year</w>": 496,
      "work</w>": 497,
      "ound</w>": 498,
      "there</w>": 499,
      "next</w>": 500,
      "por": 501,
      "tive</w>": 502,
      "rock": 503,
      "people</w>": 504,
      "Space": 505,
      "dri": 506,
      "ar</w>": 507,
      "ol": 508,
      "ty</w>": 509,
      "ever</w>": 510,
      "get</w>": 511,
      "cars</w>": 512,
      "anks</w>": 513,
      "ory</w>": 514,
      "ow</w>": 515,
      "thr": 516,
      "Yeah</w>": 517,
      "ey</w>": 518,
      "el</w>": 519,
      "per</w>": 520,
      "SpaceX</w>": 521,
      "low</w>": 522,
      "fin": 523,
      "soon</w>": 524,
      "Starship</w>": 525,
      "ble</w>": 526,
      "ha</w>": 527,
      "end</w>": 528,
      "Al": 529,
      "Its</w>": 530,
      "min": 531,
      "which</w>": 532,
      "In": 533,
      "only</w>": 534,
      "ace</w>": 535,
      "laun": 536,
      "tim": 537,
      "actly</w>": 538,
      "ated</w>": 539,
      "str": 540,
      "enti": 541,
      "ster</w>": 542,
      "sta": 543,
      "ears</w>": 544,
      "he": 545,
      "actu": 546,
      "arg": 547,
      "ener": 548,
      "engin": 549,
      "No</w>": 550,
      "gr": 551,
      "ence</w>": 552,
      "Ha": 553,
      "hi": 554,
      "orb": 555,
      "tly</w>": 556,
      "eam</w>": 557,
      "der": 558,
      "production</w>": 559,
      "us</w>": 560,
      "nee": 561,
      "some</w>": 562,
      "need</w>": 563,
      "ssi": 564,
      "all": 565,
      "If</w>": 566,
      "ser": 567,
      "they</w>": 568,
      "many</w>": 569,
      "ance</w>": 570,
      "loo": 571,
      "ors</w>": 572,
      "acc": 573,
      "prov": 574,
      "oc": 575,
      "right</w>": 576,
      "That</w>": 577,
      "tor</w>": 578,
      "over</w>": 579,
      "your</w>": 580,
      "ange</w>": 581,
      "comp": 582,
      "Pro": 583,
      "other</w>": 584,
      "cl": 585,
      "fi": 586,
      "years</w>": 587,
      "rocket</w>": 588,
      "gy</w>": 589,
      "ully</w>": 590,
      "int</w>": 591,
      "ome": 592,
      "what</w>": 593,
      "pa": 594,
      "Mars</w>": 595,
      "gra": 596,
      "ang": 597,
      "better</w>": 598,
      "ort</w>": 599,
      "ating</w>": 600,
      "ings</w>": 601,
      "ps</w>": 602,
      "Tr": 603,
      "sol": 604,
      "lan": 605,
      "ater</w>": 606,
      "ary</w>": 607,
      "Exactly</w>": 608,
      "Just</w>": 609,
      "wn</w>": 610,
      "team</w>": 611,
      "mil": 612,
      "ying</w>": 613,
      "ents</w>": 614,
      "buil": 615,
      "till</w>": 616,
      "An": 617,
      "sy": 618,
      "alc": 619,
      "ign": 620,
      "lar</w>": 621,
      "even</w>": 622,
      "tion": 623,
      "sm": 624,
      "app": 625,
      "ous</w>": 626,
      "een</w>": 627,
      "cont": 628,
      "gi": 629,
      "id": 630,
      "exp": 631,
      "launch</w>": 632,
      "Good</w>": 633,
      "bi": 634,
      "less</w>": 635,
      "sc": 636,
      "art</w>": 637,
      "few</w>": 638,
      "kes</w>": 639,
      "were</w>": 640,
      "Thanks</w>": 641,
      "true</w>": 642,
      "coming</w>": 643,
      "av": 644,
      "Falc": 645,
      "Falcon</w>": 646,
      "inter": 647,
      "ste": 648,
      "actually</w>": 649,
      "pri": 650,
      "when</w>": 651,
      "first</w>": 652,
      "red</w>": 653,
      "atter": 654,
      "lot</w>": 655,
      "sof": 656,
      "pr": 657,
      "um</w>": 658,
      "ign</w>": 659,
      "new</w>": 660,
      "tware</w>": 661,
      "eed</w>": 662,
      "ough": 663,
      "then</w>": 664,
      "ect</w>": 665,
      "long</w>": 666,
      "and": 667,
      "Ear": 668,
      "hard</w>": 669,
      "ths</w>": 670,
      "res</w>": 671,
      "sel": 672,
      "lif": 673,
      "back</w>": 674,
      "tur": 675,
      "read": 676,
      "supp": 677,
      "week</w>": 678,
      "sec": 679,
      "ool</w>": 680,
      "mis": 681,
      "Ch": 682,
      "Gre": 683,
      "go</w>": 684,
      "sen": 685,
      "any": 686,
      "software</w>": 687,
      "sa": 688,
      "ve": 689,
      "plan": 690,
      "ali": 691,
      "re</w>": 692,
      "els</w>": 693,
      "point</w>": 694,
      "Not</w>": 695,
      "mp": 696,
      "tre": 697,
      "think</w>": 698,
      "les</w>": 699,
      "test</w>": 700,
      "ility</w>": 701,
      "engine</w>": 702,
      "ose</w>": 703,
      "diff": 704,
      "lit": 705,
      "tu": 706,
      "tun": 707,
      "fact": 708,
      "har": 709,
      "some": 710,
      "tle</w>": 711,
      "comm": 712,
      "who</w>": 713,
      "lease</w>": 714,
      "fic": 715,
      "ry</w>": 716,
      "ves</w>": 717,
      "ess": 718,
      "eli": 719,
      "their</w>": 720,
      "probably</w>": 721,
      "ear": 722,
      "try</w>": 723,
      "Earth</w>": 724,
      "ob": 725,
      "ectr": 726,
      "ull</w>": 727,
      "of": 728,
      "te</w>": 729,
      "real</w>": 730,
      "needed</w>": 731,
      "ering</w>": 732,
      "Rap": 733,
      "saf": 734,
      "boo": 735,
      "ked</w>": 736,
      "dont</w>": 737,
      "On": 738,
      "still</w>": 739,
      "how</w>": 740,
      "ep": 741,
      "requ": 742,
      "pres": 743,
      "could</w>": 744,
      "Com": 745,
      "fut": 746,
      "hel": 747,
      "happ": 748,
      "There</w>": 749,
      "Also</w>": 750,
      "Great</w>": 751,
      "been</w>": 752,
      "ment</w>": 753,
      "tec": 754,
      "ous": 755,
      "tic</w>": 756,
      "eel</w>": 757,
      "utop": 758,
      "age</w>": 759,
      "cor": 760,
      "hum": 761,
      "eci": 762,
      "flight</w>": 763,
      "Sh": 764,
      "il</w>": 765,
      "ll": 766,
      "come</w>": 767,
      "hea": 768,
      "ws</w>": 769,
      "also</w>": 770,
      "best</w>": 771,
      "high": 772,
      "well</w>": 773,
      "incre": 774,
      "ilot</w>": 775,
      "power</w>": 776,
      "ets</w>": 777,
      "hop": 778,
      "improv": 779,
      "May": 780,
      "sur": 781,
      "anc": 782,
      "exc": 783,
      "down</w>": 784,
      "ready</w>": 785,
      "Im</w>": 786,
      "know</w>": 787,
      "into</w>": 788,
      "ach</w>": 789,
      "self</w>": 790,
      "future</w>": 791,
      "fe": 792,
      "ans</w>": 793,
      "electr": 794,
      "rag": 795,
      "Haha</w>": 796,
      "utopilot</w>": 797,
      "uck</w>": 798,
      "compl": 799,
      "efully</w>": 800,
      "clo": 801,
      "being</w>": 802,
      "Do": 803,
      "FS": 804,
      "fun": 805,
      "tty</w>": 806,
      "ability</w>": 807,
      "ful</w>": 808,
      "orbit</w>": 809,
      "Maybe</w>": 810,
      "You</w>": 811,
      "au": 812,
      "ber</w>": 813,
      "gu": 814,
      "possi": 815,
      "design</w>": 816,
      "Con": 817,
      "ber": 818,
      "ways</w>": 819,
      "sing</w>": 820,
      "ren": 821,
      "going</w>": 822,
      "really</w>": 823,
      "almost</w>": 824,
      "FSD</w>": 825,
      "Hop": 826,
      "ach": 827,
      "coun": 828,
      "ree</w>": 829,
      "months</w>": 830,
      "Su": 831,
      "ust": 832,
      "world</w>": 833,
      "True</w>": 834,
      "00": 835,
      "lim": 836,
      "Autopilot</w>": 837,
      "US</w>": 838,
      "cur": 839,
      "hy": 840,
      "lev": 841,
      "engine": 842,
      "landing</w>": 843,
      "days</w>": 844,
      "ital</w>": 845,
      "them</w>": 846,
      "port": 847,
      "Drag": 848,
      "car": 849,
      "du": 850,
      "see</w>": 851,
      "Prob": 852,
      "hic": 853,
      "ile</w>": 854,
      "after</w>": 855,
      "ning</w>": 856,
      "ula": 857,
      "side</w>": 858,
      "energy</w>": 859,
      "efore</w>": 860,
      "times</w>": 861,
      "aw": 862,
      "vy</w>": 863,
      "made</w>": 864,
      "veral</w>": 865,
      "serv": 866,
      "Dragon</w>": 867,
      "am</w>": 868,
      "done</w>": 869,
      "same</w>": 870,
      "where</w>": 871,
      "working</w>": 872,
      "far</w>": 873,
      "big</w>": 874,
      "portant</w>": 875,
      "bec": 876,
      "dy</w>": 877,
      "esting</w>": 878,
      "had</w>": 879,
      "cr": 880,
      "ms</w>": 881,
      "see": 882,
      "want</w>": 883,
      "ther": 884,
      "Ro": 885,
      "eve</w>": 886,
      "those</w>": 887,
      "tran": 888,
      "AI</w>": 889,
      "ase</w>": 890,
      "Raptor</w>": 891,
      "ement</w>": 892,
      "cost</w>": 893,
      "ven</w>": 894,
      "though</w>": 895,
      "pub": 896,
      "stem</w>": 897,
      "batter": 898,
      "ld": 899,
      "wr": 900,
      "enc": 901,
      "before</w>": 902,
      "tri": 903,
      "under": 904,
      "oure</w>": 905,
      "vehic": 906,
      "ut</w>": 907,
      "ese</w>": 908,
      "Thats</w>": 909,
      "driving</w>": 910,
      "Re": 911,
      "ni": 912,
      "tal</w>": 913,
      "charg": 914,
      "solar</w>": 915,
      "engines</w>": 916,
      "ain": 917,
      "val": 918,
      "tional</w>": 919,
      "Probably</w>": 920,
      "Lo": 921,
      "tem": 922,
      "air</w>": 923,
      "cen": 924,
      "sed</w>": 925,
      "They</w>": 926,
      "love</w>": 927,
      "lem</w>": 928,
      "date</w>": 929,
      "ten": 930,
      "contro": 931,
      "life</w>": 932,
      "Ab": 933,
      "For</w>": 934,
      "lat": 935,
      "ari": 936,
      "ality</w>": 937,
      "sts</w>": 938,
      "system</w>": 939,
      "aut": 940,
      "fr": 941,
      "ft</w>": 942,
      "around</w>": 943,
      "very": 944,
      "adv": 945,
      "take</w>": 946,
      "Hea": 947,
      "cra": 948,
      "full</w>": 949,
      "reci": 950,
      "ically</w>": 951,
      "last</w>": 952,
      "pers": 953,
      "tical</w>": 954,
      "own": 955,
      "electric</w>": 956,
      "possible</w>": 957,
      "Ok</w>": 958,
      "Were</w>": 959,
      "gener": 960,
      "mat": 961,
      "enough</w>": 962,
      "space</w>": 963,
      "speed</w>": 964,
      "vide": 965,
      "through</w>": 966,
      "Ma": 967,
      "load</w>": 968,
      "with": 969,
      "What</w>": 970,
      "hard": 971,
      "Sure</w>": 972,
      "things</w>": 973,
      "ses</w>": 974,
      "yp": 975,
      "ank</w>": 976,
      "super</w>": 977,
      "problem</w>": 978,
      "In</w>": 979,
      "br": 980,
      "over": 981,
      "win": 982,
      "truck</w>": 983,
      "ety</w>": 984,
      "And</w>": 985,
      "appreci": 986,
      "differ": 987,
      "So</w>": 988,
      "mer": 989,
      "sub": 990,
      "ga": 991,
      "ger</w>": 992,
      "oring</w>": 993,
      "itely</w>": 994,
      "ama": 995,
      "today</w>": 996,
      "All</w>": 997,
      "cri": 998,
      "dic": 999,
      "jo": 1000,
      "link</w>": 1001,
      "man": 1002,
      "yes</w>": 1003,
      "mass</w>": 1004,
      "thrust</w>": 1005,
      "iti": 1006,
      "sk": 1007,
      "tors</w>": 1008,
      "row</w>": 1009,
      "iting</w>": 1010,
      "haha</w>": 1011,
      "little</w>": 1012,
      "sh</w>": 1013,
      "reg": 1014,
      "sum": 1015,
      "hal": 1016,
      "ligh": 1017,
      "zing</w>": 1018,
      "ery</w>": 1019,
      "out": 1020,
      "eep</w>": 1021,
      "important</w>": 1022,
      "ounds</w>": 1023,
      "used</w>": 1024,
      "we": 1025,
      "drive</w>": 1026,
      "off</w>": 1027,
      "publi": 1028,
      "Gig": 1029,
      "he</w>": 1030,
      "kely</w>": 1031,
      "ond</w>": 1032,
      "etting</w>": 1033,
      "does": 1034,
      "every</w>": 1035,
      "inv": 1036,
      "ics</w>": 1037,
      "view</w>": 1038,
      "money</w>": 1039,
      "Super": 1040,
      "vel": 1041,
      "ward</w>": 1042,
      "release</w>": 1043,
      "prop": 1044,
      "form": 1045,
      "gs</w>": 1046,
      "pla": 1047,
      "tiv": 1048,
      "allo": 1049,
      "ates</w>": 1050,
      "change</w>": 1051,
      "ought</w>": 1052,
      "tech": 1053,
      "gas</w>": 1054,
      "tal": 1055,
      "small</w>": 1056,
      "Heavy</w>": 1057,
      "video</w>": 1058,
      "Pre": 1059,
      "op</w>": 1060,
      "ero</w>": 1061,
      "likely</w>": 1062,
      "chang": 1063,
      "upgra": 1064,
      "pressure</w>": 1065,
      "dro": 1066,
      "pay": 1067,
      "artic": 1068,
      "already</w>": 1069,
      "ited</w>": 1070,
      "why</w>": 1071,
      "using</w>": 1072,
      "several</w>": 1073,
      "weeks</w>": 1074,
      "Loo": 1075,
      "SN": 1076,
      "Wor": 1077,
      "ton</w>": 1078,
      "fast</w>": 1079,
      "month</w>": 1080,
      "level</w>": 1081,
      "later</w>": 1082,
      "range</w>": 1083,
      "sign": 1084,
      "vol": 1085,
      "war": 1086,
      "always</w>": 1087,
      "lower</w>": 1088,
      "doing</w>": 1089,
      "aff": 1090,
      "medi": 1091,
      "Inter": 1092,
      "safety</w>": 1093,
      "engineering</w>": 1094,
      "ling</w>": 1095,
      "light</w>": 1096,
      "tom": 1097,
      "ur</w>": 1098,
      "extre": 1099,
      "did</w>": 1100,
      "fun</w>": 1101,
      "rect</w>": 1102,
      "early</w>": 1103,
      "ause</w>": 1104,
      "gen</w>": 1105,
      "mul": 1106,
      "esome</w>": 1107,
      "ick": 1108,
      "support</w>": 1109,
      "cool</w>": 1110,
      "Starlink</w>": 1111,
      "build</w>": 1112,
      "ck</w>": 1113,
      "ei": 1114,
      "thats</w>": 1115,
      "ements</w>": 1116,
      "stain": 1117,
      "said</w>": 1118,
      "say</w>": 1119,
      "two</w>": 1120,
      "ously</w>": 1121,
      "En": 1122,
      "bas": 1123,
      "line</w>": 1124,
      "vs</w>": 1125,
      "ware</w>": 1126,
      "may": 1127,
      "Cy": 1128,
      "ide": 1129,
      "ved</w>": 1130,
      "orry</w>": 1131,
      "makes</w>": 1132,
      "version</w>": 1133,
      "does</w>": 1134,
      "alled</w>": 1135,
      "Supercharg": 1136,
      "maybe</w>": 1137,
      "due</w>": 1138,
      "tons</w>": 1139,
      "onom": 1140,
      "oper": 1141,
      "ult</w>": 1142,
      "impro": 1143,
      "issu": 1144,
      "part</w>": 1145,
      "Li": 1146,
      "jor</w>": 1147,
      "lin": 1148,
      "old</w>": 1149,
      "ze</w>": 1150,
      "als</w>": 1151,
      "tain": 1152,
      "But</w>": 1153,
      "No": 1154,
      "bur": 1155,
      "bra": 1156,
      "dam": 1157,
      "ed": 1158,
      "every": 1159,
      "put</w>": 1160,
      "ago</w>": 1161,
      "clu": 1162,
      "Ac": 1163,
      "My</w>": 1164,
      "reas": 1165,
      "both</w>": 1166,
      "control</w>": 1167,
      "half</w>": 1168,
      "New</w>": 1169,
      "So": 1170,
      "To</w>": 1171,
      "air": 1172,
      "cer": 1173,
      "ina</w>": 1174,
      "cap": 1175,
      "orbital</w>": 1176,
      "sense</w>": 1177,
      "Congr": 1178,
      "battery</w>": 1179,
      "doesnt</w>": 1180,
      "dr": 1181,
      "deli": 1182,
      "mar": 1183,
      "end": 1184,
      "star": 1185,
      "dep": 1186,
      "ters</w>": 1187,
      "factory</w>": 1188,
      "booster</w>": 1189,
      "service</w>": 1190,
      "ency</w>": 1191,
      "Cyber": 1192,
      "never</w>": 1193,
      "pi": 1194,
      "wa": 1195,
      "ack": 1196,
      "eas": 1197,
      "higher</w>": 1198,
      "complet": 1199,
      "public</w>": 1200,
      "dre": 1201,
      "ph": 1202,
      "ould": 1203,
      "stly</w>": 1204,
      "company</w>": 1205,
      "awesome</w>": 1206,
      "ture</w>": 1207,
      "wing</w>": 1208,
      "reus": 1209,
      "lion</w>": 1210,
      "consi": 1211,
      "nel</w>": 1212,
      "ques": 1213,
      "pretty</w>": 1214,
      "needs</w>": 1215,
      "China</w>": 1216,
      "requi": 1217,
      "Should</w>": 1218,
      "Sorry</w>": 1219,
      "night</w>": 1220,
      "pas": 1221,
      "rate</w>": 1222,
      "atell": 1223,
      "ical</w>": 1224,
      "spac": 1225,
      "dea": 1226,
      "may</w>": 1227,
      "while</w>": 1228,
      "col": 1229,
      "ours</w>": 1230,
      "ize</w>": 1231,
      "something</w>": 1232,
      "amazing</w>": 1233,
      "fully</w>": 1234,
      "mely</w>": 1235,
      "int": 1236,
      "goes</w>": 1237,
      "autom": 1238,
      "volu": 1239,
      "Very</w>": 1240,
      "den": 1241,
      "satell": 1242,
      "orrow</w>": 1243,
      "ected</w>": 1244,
      "fire</w>": 1245,
      "LA</w>": 1246,
      "des</w>": 1247,
      "num": 1248,
      "tin": 1249,
      "wel": 1250,
      "esp": 1251,
      "roll": 1252,
      "ature</w>": 1253,
      "least</w>": 1254,
      "happen": 1255,
      "here</w>": 1256,
      "might</w>": 1257,
      "ately</w>": 1258,
      "ulat": 1259,
      "term</w>": 1260,
      "body</w>": 1261,
      "ized</w>": 1262,
      "Bo": 1263,
      "Fir": 1264,
      "mi": 1265,
      "net</w>": 1266,
      "start</w>": 1267,
      "uring</w>": 1268,
      "sions</w>": 1269,
      "max</w>": 1270,
      "help</w>": 1271,
      "vehicle</w>": 1272,
      "without</w>": 1273,
      "Wow</w>": 1274,
      "til</w>": 1275,
      "order</w>": 1276,
      "did": 1277,
      "own</w>": 1278,
      "look</w>": 1279,
      "compan": 1280,
      "anced</w>": 1281,
      "100": 1282,
      "Tex": 1283,
      "Un": 1284,
      "Yup</w>": 1285,
      "free</w>": 1286,
      "ys</w>": 1287,
      "thro": 1288,
      "these</w>": 1289,
      "story</w>": 1290,
      "logy</w>": 1291,
      "moon</w>": 1292,
      "ount</w>": 1293,
      "update</w>": 1294,
      "solut": 1295,
      "anything</w>": 1296,
      "Hopefully</w>": 1297,
      "companies</w>": 1298,
      "Go": 1299,
      "ain</w>": 1300,
      "km</w>": 1301,
      "off": 1302,
      "simp": 1303,
      "making</w>": 1304,
      "ights</w>": 1305,
      "product</w>": 1306,
      "ellant</w>": 1307,
      "tomorrow</w>": 1308,
      "Texas</w>": 1309,
      "Sup": 1310,
      "called</w>": 1311,
      "fac": 1312,
      "ru": 1313,
      "yet</w>": 1314,
      "arge</w>": 1315,
      "sustain": 1316,
      "ish</w>": 1317,
      "close</w>": 1318,
      "hardware</w>": 1319,
      "idea</w>": 1320,
      "Some</w>": 1321,
      "ations</w>": 1322,
      "gg": 1323,
      "his</w>": 1324,
      "led</w>": 1325,
      "sing": 1326,
      "uti": 1327,
      "wer": 1328,
      "inst": 1329,
      "under</w>": 1330,
      "until</w>": 1331,
      "posi": 1332,
      "ire</w>": 1333,
      "case</w>": 1334,
      "ecially</w>": 1335,
      "Super</w>": 1336,
      "00</w>": 1337,
      "lin</w>": 1338,
      "ica</w>": 1339,
      "top</w>": 1340,
      "ween</w>": 1341,
      "ourse</w>": 1342,
      "ential</w>": 1343,
      "tunnel</w>": 1344,
      "because</w>": 1345,
      "owners</w>": 1346,
      "article</w>": 1347,
      "Cybertruck</w>": 1348,
      "away</w>": 1349,
      "ids</w>": 1350,
      "land</w>": 1351,
      "ping</w>": 1352,
      "ple</w>": 1353,
      "oud</w>": 1354,
      "ata</w>": 1355,
      "compu": 1356,
      "approv": 1357,
      "wide</w>": 1358,
      "stage</w>": 1359,
      "hip</w>": 1360,
      "clear</w>": 1361,
      "mission</w>": 1362,
      "improve</w>": 1363,
      "solutely</w>": 1364,
      "Cali": 1365,
      "cam": 1366,
      "gt</w>": 1367,
      "ten</w>": 1368,
      "youre</w>": 1369,
      "achi": 1370,
      "optim": 1371,
      "rap": 1372,
      "iring</w>": 1373,
      "imo</w>": 1374,
      "iming</w>": 1375,
      "forni": 1376,
      "struc": 1377,
      "human</w>": 1378,
      "hopefully</w>": 1379,
      "appreciated</w>": 1380,
      "regulat": 1381,
      "Californi": 1382,
      "Bet": 1383,
      "Boring</w>": 1384,
      "He</w>": 1385,
      "La": 1386,
      "big": 1387,
      "bad</w>": 1388,
      "sk</w>": 1389,
      "ites</w>": 1390,
      "eet</w>": 1391,
      "place</w>": 1392,
      "gress</w>": 1393,
      "tically</w>": 1394,
      "ization</w>": 1395,
      "One</w>": 1396,
      "hys": 1397,
      "multi": 1398,
      "volume</w>": 1399,
      "especially</w>": 1400,
      "Can": 1401,
      "ail": 1402,
      "bly</w>": 1403,
      "erlin</w>": 1404,
      "read</w>": 1405,
      "ean</w>": 1406,
      "nology</w>": 1407,
      "mag": 1408,
      "tation</w>": 1409,
      "ground</w>": 1410,
      "Only</w>": 1411,
      "First</w>": 1412,
      "California</w>": 1413,
      "Cap": 1414,
      "Im": 1415,
      "Would</w>": 1416,
      "cant</w>": 1417,
      "men": 1418,
      "suc": 1419,
      "set</w>": 1420,
      "vil": 1421,
      "action</w>": 1422,
      "sive</w>": 1423,
      "shor": 1424,
      "exper": 1425,
      "via</w>": 1426,
      "beta</w>": 1427,
      "miles</w>": 1428,
      "Giga</w>": 1429,
      "10</w>": 1430,
      "ational</w>": 1431,
      "got</w>": 1432,
      "kin": 1433,
      "ness</w>": 1434,
      "sch": 1435,
      "tw</w>": 1436,
      "water</w>": 1437,
      "size</w>": 1438,
      "major</w>": 1439,
      "move</w>": 1440,
      "Space</w>": 1441,
      "mins</w>": 1442,
      "center</w>": 1443,
      "formance</w>": 1444,
      "Pretty</w>": 1445,
      "extremely</w>": 1446,
      "Def": 1447,
      "beli": 1448,
      "dec": 1449,
      "lic": 1450,
      "site</w>": 1451,
      "rear</w>": 1452,
      "ann": 1453,
      "road</w>": 1454,
      "lass</w>": 1455,
      "gree</w>": 1456,
      "parts</w>": 1457,
      "launch": 1458,
      "fici": 1459,
      "propellant</w>": 1460,
      "To": 1461,
      "del": 1462,
      "hours</w>": 1463,
      "ven": 1464,
      "wed</w>": 1465,
      "inc": 1466,
      "rent</w>": 1467,
      "eak</w>": 1468,
      "devel": 1469,
      "peti": 1470,
      "design": 1471,
      "diffic": 1472,
      "Coming</w>": 1473,
      "Au": 1474,
      "Please</w>": 1475,
      "course</w>": 1476,
      "home</w>": 1477,
      "kno": 1478,
      "sal": 1479,
      "zero</w>": 1480,
      "erally</w>": 1481,
      "ems</w>": 1482,
      "fix": 1483,
      "ulation</w>": 1484,
      "value</w>": 1485,
      "person": 1486,
      "Ne": 1487,
      "blo": 1488,
      "sis</w>": 1489,
      "are": 1490,
      "atch</w>": 1491,
      "witter</w>": 1492,
      "Most</w>": 1493,
      "wrong</w>": 1494,
      "technology</w>": 1495,
      "Amer": 1496,
      "Nor": 1497,
      "Our</w>": 1498,
      "bit</w>": 1499,
      "fal": 1500,
      "ge": 1501,
      "ific": 1502,
      "ser</w>": 1503,
      "sour": 1504,
      "ul</w>": 1505,
      "ution</w>": 1506,
      "wont</w>": 1507,
      "inclu": 1508,
      "ane</w>": 1509,
      "ames</w>": 1510,
      "eler": 1511,
      "ute</w>": 1512,
      "again": 1513,
      "Absolutely</w>": 1514,
      "against</w>": 1515,
      "dent</w>": 1516,
      "data</w>": 1517,
      "getting</w>": 1518,
      "met": 1519,
      "ns</w>": 1520,
      "sci": 1521,
      "tes": 1522,
      "initely</w>": 1523,
      "entry</w>": 1524,
      "att": 1525,
      "tax</w>": 1526,
      "between</w>": 1527,
      "wise</w>": 1528,
      "port</w>": 1529,
      "building</w>": 1530,
      "turn</w>": 1531,
      "ulations</w>": 1532,
      "Definitely</w>": 1533,
      "Am</w>": 1534,
      "De": 1535,
      "Now</w>": 1536,
      "Pow": 1537,
      "fer": 1538,
      "ins</w>": 1539,
      "ith</w>": 1540,
      "steel</w>": 1541,
      "progress</w>": 1542,
      "iron": 1543,
      "means</w>": 1544,
      "rockets</w>": 1545,
      "heat</w>": 1546,
      "price</w>": 1547,
      "easy</w>": 1548,
      "More</w>": 1549,
      "Nice</w>": 1550,
      "Well</w>": 1551,
      "cust": 1552,
      "fla": 1553,
      "mon</w>": 1554,
      "must</w>": 1555,
      "ned</w>": 1556,
      "nec": 1557,
      "name</w>": 1558,
      "inal</w>": 1559,
      "resp": 1560,
      "ech": 1561,
      "forward</w>": 1562,
      "looks</w>": 1563,
      "obvi": 1564,
      "correct</w>": 1565,
      "head</w>": 1566,
      "improvements</w>": 1567,
      "payload</w>": 1568,
      "media</w>": 1569,
      "question</w>": 1570,
      "computer</w>": 1571,
      "Cape</w>": 1572,
      "Power": 1573,
      "Mar": 1574,
      "bal</w>": 1575,
      "ff</w>": 1576,
      "lon": 1577,
      "pe</w>": 1578,
      "wall</w>": 1579,
      "rea": 1580,
      "ank": 1581,
      "abo": 1582,
      "provi": 1583,
      "open</w>": 1584,
      "who": 1585,
      "risk</w>": 1586,
      "qui": 1587,
      "ssive</w>": 1588,
      "mph</w>": 1589,
      "lightly</w>": 1590,
      "reusable</w>": 1591,
      "don</w>": 1592,
      "fil": 1593,
      "yre</w>": 1594,
      "ince</w>": 1595,
      "ord</w>": 1596,
      "ices</w>": 1597,
      "short</w>": 1598,
      "main</w>": 1599,
      "option</w>": 1600,
      "exi": 1601,
      "dis": 1602,
      "direc": 1603,
      "eful</w>": 1604,
      "trans": 1605,
      "underst": 1606,
      "As</w>": 1607,
      "Youre</w>": 1608,
      "ins": 1609,
      "anding</w>": 1610,
      "ouse</w>": 1611,
      "ority</w>": 1612,
      "eship</w>": 1613,
      "atch": 1614,
      "act</w>": 1615,
      "eas</w>": 1616,
      "competi": 1617,
      "add</w>": 1618,
      "tax": 1619,
      "greed</w>": 1620,
      "fav": 1621,
      "human": 1622,
      "increas": 1623,
      "increase</w>": 1624,
      "matter</w>": 1625,
      "changes</w>": 1626,
      "single</w>": 1627,
      "false</w>": 1628,
      "bl": 1629,
      "fol": 1630,
      "gh": 1631,
      "ox": 1632,
      "tro": 1633,
      "typ": 1634,
      "thers</w>": 1635,
      "etary</w>": 1636,
      "speci": 1637,
      "worth</w>": 1638,
      "plac": 1639,
      "quite</w>": 1640,
      "pack</w>": 1641,
      "acceler": 1642,
      "seem</w>": 1643,
      "didnt</w>": 1644,
      "succ": 1645,
      "difficult</w>": 1646,
      "above</w>": 1647,
      "Or": 1648,
      "bar</w>": 1649,
      "base</w>": 1650,
      "core</w>": 1651,
      "feel</w>": 1652,
      "ant": 1653,
      "live</w>": 1654,
      "contin": 1655,
      "planetary</w>": 1656,
      "signific": 1657,
      "Supercharger</w>": 1658,
      "welcome</w>": 1659,
      "designed</w>": 1660,
      "Cool</w>": 1661,
      "Even</w>": 1662,
      "ast</w>": 1663,
      "cha": 1664,
      "ders</w>": 1665,
      "each</w>": 1666,
      "hor": 1667,
      "ion</w>": 1668,
      "mem": 1669,
      "ok</w>": 1670,
      "slightly</w>": 1671,
      "twee": 1672,
      "zy</w>": 1673,
      "recomm": 1674,
      "stop</w>": 1675,
      "effici": 1676,
      "flights</w>": 1677,
      "manu": 1678,
      "develop": 1679,
      "mach": 1680,
      "vo": 1681,
      "xim": 1682,
      "roof</w>": 1683,
      "ator</w>": 1684,
      "sting</w>": 1685,
      "show</w>": 1686,
      "defin": 1687,
      "cover": 1688,
      "fuel</w>": 1689,
      "built</w>": 1690,
      "tually</w>": 1691,
      "ept</w>": 1692,
      "auto</w>": 1693,
      "advanced</w>": 1694,
      "person</w>": 1695,
      "number</w>": 1696,
      "Still</w>": 1697,
      "Twitter</w>": 1698,
      "fine</w>": 1699,
      "ial</w>": 1700,
      "om</w>": 1701,
      "although</w>": 1702,
      "itu": 1703,
      "stu": 1704,
      "ease</w>": 1705,
      "eling</w>": 1706,
      "log": 1707,
      "trying</w>": 1708,
      "traff": 1709,
      "shed</w>": 1710,
      "def</w>": 1711,
      "mostly</w>": 1712,
      "sul": 1713,
      "tage</w>": 1714,
      "eff": 1715,
      "tics</w>": 1716,
      "anyone</w>": 1717,
      "hope</w>": 1718,
      "limited</w>": 1719,
      "general</w>": 1720,
      "automa": 1721,
      "believe</w>": 1722,
      "custom": 1723,
      "traffic</w>": 1724,
      "bel": 1725,
      "dit</w>": 1726,
      "face</w>": 1727,
      "testing</w>": 1728,
      "uly</w>": 1729,
      "ending</w>": 1730,
      "ath</w>": 1731,
      "works</w>": 1732,
      "ock</w>": 1733,
      "scal": 1734,
      "dual</w>": 1735,
      "Love</w>": 1736,
      "inves": 1737,
      "camer": 1738,
      "At</w>": 1739,
      "High</w>": 1740,
      "Ive</w>": 1741,
      "Per": 1742,
      "Some": 1743,
      "city</w>": 1744,
      "deep</w>": 1745,
      "ex</w>": 1746,
      "game</w>": 1747,
      "jour": 1748,
      "nels</w>": 1749,
      "ygen</w>": 1750,
      "reduc": 1751,
      "ouble</w>": 1752,
      "ends</w>": 1753,
      "atulations</w>": 1754,
      "loc": 1755,
      "verse</w>": 1756,
      "fairing</w>": 1757,
      "When</w>": 1758,
      "accur": 1759,
      "literally</w>": 1760,
      "curren": 1761,
      "Road": 1762,
      "critical</w>": 1763,
      "Solar</w>": 1764,
      "piec": 1765,
      "ouldnt</w>": 1766,
      "satellites</w>": 1767,
      "sustainable</w>": 1768,
      "oxygen</w>": 1769,
      "definitely</w>": 1770,
      "Aiming</w>": 1771,
      "Agreed</w>": 1772,
      "Dont</w>": 1773,
      "How</w>": 1774,
      "Me": 1775,
      "Sounds</w>": 1776,
      "fo": 1777,
      "fly</w>": 1778,
      "fig": 1779,
      "mary</w>": 1780,
      "nal</w>": 1781,
      "uro": 1782,
      "review</w>": 1783,
      "anal": 1784,
      "stand": 1785,
      "ook</w>": 1786,
      "exactly</w>": 1787,
      "power": 1788,
      "chec": 1789,
      "faster</w>": 1790,
      "ump</w>": 1791,
      "vehicles</w>": 1792,
      "difference</w>": 1793,
      "Congratulations</w>": 1794,
      "Mon": 1795,
      "Pla": 1796,
      "dra": 1797,
      "pm</w>": 1798,
      "wn": 1799,
      "acking</w>": 1800,
      "stra": 1801,
      "eld</w>": 1802,
      "trav": 1803,
      "fleet</w>": 1804,
      "lear": 1805,
      "Exc": 1806,
      "Doge</w>": 1807,
      "mark": 1808,
      "hysics</w>": 1809,
      "longer</w>": 1810,
      "Fl": 1811,
      "Next</w>": 1812,
      "Po": 1813,
      "jec": 1814,
      "ls</w>": 1815,
      "sound</w>": 1816,
      "ton": 1817,
      "another</w>": 1818,
      "ross</w>": 1819,
      "acu": 1820,
      "disc": 1821,
      "vision</w>": 1822,
      "goal</w>": 1823,
      "loop</w>": 1824,
      "func": 1825,
      "Rock": 1826,
      "About</w>": 1827,
      "crazy</w>": 1828,
      "Looks</w>": 1829,
      "issues</w>": 1830,
      "damen": 1831,
      "regulatory</w>": 1832,
      "area</w>": 1833,
      "Roadster</w>": 1834,
      "O2</w>": 1835,
      "SA</w>": 1836,
      "Tur": 1837,
      "brea": 1838,
      "care</w>": 1839,
      "ker</w>": 1840,
      "others</w>": 1841,
      "pan": 1842,
      "sounds</w>": 1843,
      "thanks</w>": 1844,
      "ands</w>": 1845,
      "titu": 1846,
      "orm": 1847,
      "ently</w>": 1848,
      "ams</w>": 1849,
      "ils</w>": 1850,
      "word</w>": 1851,
      "emp": 1852,
      "isnt</w>": 1853,
      "find</w>": 1854,
      "mind</w>": 1855,
      "atters</w>": 1856,
      "Comp": 1857,
      "whole</w>": 1858,
      "acuum</w>": 1859,
      "Euro": 1860,
      "agree</w>": 1861,
      "cy": 1862,
      "such</w>": 1863,
      "ures</w>": 1864,
      "wea": 1865,
      "thought</w>": 1866,
      "ties</w>": 1867,
      "ens</w>": 1868,
      "amm": 1869,
      "stre": 1870,
      "loy": 1871,
      "buy</w>": 1872,
      "sim": 1873,
      "nothing</w>": 1874,
      "dem": 1875,
      "deta": 1876,
      "moving</w>": 1877,
      "vis": 1878,
      "eft</w>": 1879,
      "access</w>": 1880,
      "solution</w>": 1881,
      "give</w>": 1882,
      "oughly</w>": 1883,
      "second</w>": 1884,
      "either</w>": 1885,
      "run</w>": 1886,
      "analy": 1887,
      "Ad": 1888,
      "bil": 1889,
      "coo": 1890,
      "ious</w>": 1891,
      "kids</w>": 1892,
      "let</w>": 1893,
      "left</w>": 1894,
      "matters</w>": 1895,
      "non</w>": 1896,
      "near</w>": 1897,
      "zz": 1898,
      "ined</w>": 1899,
      "ero": 1900,
      "resul": 1901,
      "stor": 1902,
      "ead</w>": 1903,
      "but": 1904,
      "unch</w>": 1905,
      "shing</w>": 1906,
      "lad</w>": 1907,
      "tain</w>": 1908,
      "plus</w>": 1909,
      "aying</w>": 1910,
      "performance</w>": 1911,
      "appro": 1912,
      "legs</w>": 1913,
      "Almost</w>": 1914,
      "actual</w>": 1915,
      "safe</w>": 1916,
      "tively</w>": 1917,
      "based</w>": 1918,
      "required</w>": 1919,
      "1000</w>": 1920,
      "With</w>": 1921,
      "da</w>": 1922,
      "larg": 1923,
      "ner</w>": 1924,
      "yond</w>": 1925,
      "three</w>": 1926,
      "reach</w>": 1927,
      "stock</w>": 1928,
      "ural</w>": 1929,
      "sic</w>": 1930,
      "eeds</w>": 1931,
      "spi": 1932,
      "ada</w>": 1933,
      "ound": 1934,
      "ppy</w>": 1935,
      "pper</w>": 1936,
      "nega": 1937,
      "ships</w>": 1938,
      "cial</w>": 1939,
      "someone</w>": 1940,
      "front</w>": 1941,
      "positive</w>": 1942,
      "Powerwall</w>": 1943,
      "Boc": 1944,
      "CH": 1945,
      "Was</w>": 1946,
      "flow</w>": 1947,
      "hot</w>": 1948,
      "house</w>": 1949,
      "ise</w>": 1950,
      "ken</w>": 1951,
      "ick</w>": 1952,
      "bus": 1953,
      "wheel</w>": 1954,
      "quid</w>": 1955,
      "form</w>": 1956,
      "again</w>": 1957,
      "million</w>": 1958,
      "giant</w>": 1959,
      "idly</w>": 1960,
      "suppor": 1961,
      "tunnels</w>": 1962,
      "improvement</w>": 1963,
      "different</w>": 1964,
      "everyone</w>": 1965,
      "deliver": 1966,
      "fixed</w>": 1967,
      "humanity</w>": 1968,
      "Boca</w>": 1969,
      "Of</w>": 1970,
      "bs</w>": 1971,
      "bro": 1972,
      "bea": 1973,
      "fy</w>": 1974,
      "im</w>": 1975,
      "las</w>": 1976,
      "initi": 1977,
      "itself</w>": 1978,
      "amount</w>": 1979,
      "eal</w>": 1980,
      "econom": 1981,
      "show": 1982,
      "dist": 1983,
      "eter</w>": 1984,
      "sugg": 1985,
      "cham": 1986,
      "ird</w>": 1987,
      "vid</w>": 1988,
      "news</w>": 1989,
      "costs</w>": 1990,
      "sec</w>": 1991,
      "civil": 1992,
      "probability</w>": 1993,
      "recei": 1994,
      "happen</w>": 1995,
      "seems</w>": 1996,
      "temp": 1997,
      "upgrade</w>": 1998,
      "Interesting</w>": 1999,
      "multiplanetary</w>": 2000,
      "CH4</w>": 2001,
      "foc": 2002,
      "ium</w>": 2003,
      "late</w>": 2004,
      "large</w>": 2005,
      "since</w>": 2006,
      "vt</w>": 2007,
      "ints</w>": 2008,
      "room</w>": 2009,
      "motor</w>": 2010,
      "post</w>": 2011,
      "pping</w>": 2012,
      "week": 2013,
      "stron": 2014,
      "looking</w>": 2015,
      "sky</w>": 2016,
      "Looking</w>": 2017,
      "issue</w>": 2018,
      "reason</w>": 2019,
      "rapidly</w>": 2020,
      "Is": 2021,
      "Sol": 2022,
      "fri": 2023,
      "gest</w>": 2024,
      "sity</w>": 2025,
      "saying</w>": 2026,
      "tank</w>": 2027,
      "vacuum</w>": 2028,
      "thor": 2029,
      "rock</w>": 2030,
      "tries</w>": 2031,
      "unve": 2032,
      "deed</w>": 2033,
      "super": 2034,
      "chance</w>": 2035,
      "vie": 2036,
      "preci": 2037,
      "incredi": 2038,
      "fundamen": 2039,
      "batteries</w>": 2040,
      "ities</w>": 2041,
      "manufact": 2042,
      "automatically</w>": 2043,
      "accurate</w>": 2044,
      "piece</w>": 2045,
      "Company</w>": 2046,
      "Co": 2047,
      "Fe": 2048,
      "Fr": 2049,
      "Hy": 2050,
      "Sum": 2051,
      "during</w>": 2052,
      "mean</w>": 2053,
      "nam": 2054,
      "sil": 2055,
      "ta</w>": 2056,
      "real": 2057,
      "reality</w>": 2058,
      "ans": 2059,
      "online</w>": 2060,
      "sible</w>": 2061,
      "train": 2062,
      "ounc": 2063,
      "please</w>": 2064,
      "uses</w>": 2065,
      "press</w>": 2066,
      "hol": 2067,
      "ingly</w>": 2068,
      "ellent</w>": 2069,
      "Why</w>": 2070,
      "entially</w>": 2071,
      "history</w>": 2072,
      "current</w>": 2073,
      "therwise</w>": 2074,
      "transp": 2075,
      "phone</w>": 2076,
      "approval</w>": 2077,
      "achiev": 2078,
      "machine</w>": 2079,
      "standard</w>": 2080,
      "Europe</w>": 2081,
      "weekend</w>": 2082,
      "Btw</w>": 2083,
      "Full</w>": 2084,
      "Station</w>": 2085,
      "call</w>": 2086,
      "ience</w>": 2087,
      "mor": 2088,
      "ron": 2089,
      "repa": 2090,
      "return</w>": 2091,
      "allow</w>": 2092,
      "Those</w>": 2093,
      "tra": 2094,
      "combus": 2095,
      "cold</w>": 2096,
      "ism</w>": 2097,
      "govt</w>": 2098,
      "past</w>": 2099,
      "countries</w>": 2100,
      "carb": 2101,
      "temp</w>": 2102,
      "Actually</w>": 2103,
      "Congrats</w>": 2104,
      "complete</w>": 2105,
      "tiny</w>": 2106,
      "Beta</w>": 2107,
      "tests</w>": 2108,
      "ght</w>": 2109,
      "combustion</w>": 2110,
      "Ar": 2111,
      "dar</w>": 2112,
      "games</w>": 2113,
      "ne</w>": 2114,
      "pur": 2115,
      "pay</w>": 2116,
      "pad</w>": 2117,
      "yer</w>": 2118,
      "arent</w>": 2119,
      "regi": 2120,
      "Thank</w>": 2121,
      "tra</w>": 2122,
      "whe": 2123,
      "having</w>": 2124,
      "vern": 2125,
      "mosp": 2126,
      "chall": 2127,
      "ules</w>": 2128,
      "spec": 2129,
      "quar": 2130,
      "app</w>": 2131,
      "beyond</w>": 2132,
      "alls</w>": 2133,
      "play</w>": 2134,
      "talk</w>": 2135,
      "Eng": 2136,
      "bigger</w>": 2137,
      "significant</w>": 2138,
      "Rocket</w>": 2139,
      "App": 2140,
      "Bi": 2141,
      "Di": 2142,
      "How": 2143,
      "Ser": 2144,
      "See": 2145,
      "glo": 2146,
      "ments</w>": 2147,
      "na</w>": 2148,
      "os</w>": 2149,
      "seen</w>": 2150,
      "te": 2151,
      "usu": 2152,
      "antly</w>": 2153,
      "ening</w>": 2154,
      "ame": 2155,
      "acy</w>": 2156,
      "sto": 2157,
      "proc": 2158,
      "worked</w>": 2159,
      "totyp": 2160,
      "addre": 2161,
      "conver": 2162,
      "confir": 2163,
      "takes</w>": 2164,
      "dom</w>": 2165,
      "theyre</w>": 2166,
      "useful</w>": 2167,
      "create</w>": 2168,
      "govern": 2169,
      "ells</w>": 2170,
      "Happy</w>": 2171,
      "mile</w>": 2172,
      "given</w>": 2173,
      "expected</w>": 2174,
      "avo": 2175,
      "burn</w>": 2176,
      "America</w>": 2177,
      "favor": 2178,
      "analysis</w>": 2179,
      "chamber</w>": 2180,
      "Berlin</w>": 2181,
      "Can</w>": 2182,
      "Sm": 2183,
      "bar": 2184,
      "back": 2185,
      "flo": 2186,
      "gets</w>": 2187,
      "ide</w>": 2188,
      "nd</w>": 2189,
      "pho": 2190,
      "son</w>": 2191,
      "sigh</w>": 2192,
      "slow</w>": 2193,
      "inten": 2194,
      "arch": 2195,
      "ones</w>": 2196,
      "orig": 2197,
      "robo": 2198,
      "load": 2199,
      "aby</w>": 2200,
      "ecra": 2201,
      "lies</w>": 2202,
      "list</w>": 2203,
      "unless</w>": 2204,
      "rid</w>": 2205,
      "movi": 2206,
      "party</w>": 2207,
      "leg": 2208,
      "fins</w>": 2209,
      "him</w>": 2210,
      "avail": 2211,
      "complex</w>": 2212,
      "usters</w>": 2213,
      "within</w>": 2214,
      "tainly</w>": 2215,
      "density</w>": 2216,
      "Cana": 2217,
      "ference</w>": 2218,
      "scale</w>": 2219,
      "travel</w>": 2220,
      "ecraft</w>": 2221,
      "20</w>": 2222,
      "Bu": 2223,
      "Much</w>": 2224,
      "Sp": 2225,
      "Same</w>": 2226,
      "ba": 2227,
      "cks</w>": 2228,
      "clim": 2229,
      "eg": 2230,
      "fit</w>": 2231,
      "gen": 2232,
      "mu": 2233,
      "rup": 2234,
      "roughly</w>": 2235,
      "spo": 2236,
      "scre": 2237,
      "tou": 2238,
      "tally</w>": 2239,
      "took</w>": 2240,
      "vity</w>": 2241,
      "ines</w>": 2242,
      "eres</w>": 2243,
      "once</w>": 2244,
      "liquid</w>": 2245,
      "nozz": 2246,
      "uni": 2247,
      "comes</w>": 2248,
      "confi": 2249,
      "cover</w>": 2250,
      "fair</w>": 2251,
      "paid</w>": 2252,
      "feature</w>": 2253,
      "consider": 2254,
      "happened</w>": 2255,
      "Launch</w>": 2256,
      "launches</w>": 2257,
      "sales</w>": 2258,
      "obvious</w>": 2259,
      "below</w>": 2260,
      "Plaid</w>": 2261,
      "Summon</w>": 2262,
      "However</w>": 2263,
      "El": 2264,
      "Rus": 2265,
      "UA": 2266,
      "bers</w>": 2267,
      "cell</w>": 2268,
      "double</w>": 2269,
      "hon": 2270,
      "kers</w>": 2271,
      "key</w>": 2272,
      "na": 2273,
      "pic</w>": 2274,
      "sell</w>": 2275,
      "tough</w>": 2276,
      "upper</w>": 2277,
      "orders</w>": 2278,
      "enable</w>": 2279,
      "attemp": 2280,
      "cho": 2281,
      "cause</w>": 2282,
      "harder</w>": 2283,
      "theres</w>": 2284,
      "Gigaf": 2285,
      "Worth</w>": 2286,
      "Working</w>": 2287,
      "wards</w>": 2288,
      "Internet</w>": 2289,
      "basically</w>": 2290,
      "delivery</w>": 2291,
      "sourc": 2292,
      "efficiency</w>": 2293,
      "local</w>": 2294,
      "currently</w>": 2295,
      "titude</w>": 2296,
      "civilization</w>": 2297,
      "carbon</w>": 2298,
      "available</w>": 2299,
      "50</w>": 2300,
      "Best</w>": 2301,
      "May</w>": 2302,
      "Might</w>": 2303,
      "Merlin</w>": 2304,
      "On</w>": 2305,
      "Oh</w>": 2306,
      "bought</w>": 2307,
      "ia</w>": 2308,
      "ark</w>": 2309,
      "ense</w>": 2310,
      "atmosp": 2311,
      "active</w>": 2312,
      "eed": 2313,
      "lation</w>": 2314,
      "deb": 2315,
      "radar</w>": 2316,
      "mode</w>": 2317,
      "pot": 2318,
      "sun</w>": 2319,
      "coin</w>": 2320,
      "duction</w>": 2321,
      "force</w>": 2322,
      "hold</w>": 2323,
      "record</w>": 2324,
      "meant</w>": 2325,
      "serve</w>": 2326,
      "turb": 2327,
      "Raptors</w>": 2328,
      "book</w>": 2329,
      "require</w>": 2330,
      "heavy</w>": 2331,
      "improved</w>": 2332,
      "everything</w>": 2333,
      "consider</w>": 2334,
      "rolling</w>": 2335,
      "flaps</w>": 2336,
      "tonight</w>": 2337,
      "amethro": 2338,
      "favorite</w>": 2339,
      "UAW</w>": 2340,
      "Gigafact": 2341,
      "Bit": 2342,
      "Cre": 2343,
      "Gi": 2344,
      "hand": 2345,
      "iously</w>": 2346,
      "lab": 2347,
      "nically</w>": 2348,
      "pure</w>": 2349,
      "ind</w>": 2350,
      "rest</w>": 2351,
      "relea": 2352,
      "roll</w>": 2353,
      "atures</w>": 2354,
      "easi": 2355,
      "These</w>": 2356,
      "ural": 2357,
      "note</w>": 2358,
      "mation</w>": 2359,
      "dia</w>": 2360,
      "diam": 2361,
      "taking</w>": 2362,
      "que</w>": 2363,
      "predic": 2364,
      "pact</w>": 2365,
      "entire</w>": 2366,
      "entilat": 2367,
      "ocity</w>": 2368,
      "fix</w>": 2369,
      "priority</w>": 2370,
      "tech</w>": 2371,
      "become</w>": 2372,
      "autonom": 2373,
      "deal</w>": 2374,
      "simply</w>": 2375,
      "utiful</w>": 2376,
      "Neural": 2377,
      "recommend</w>": 2378,
      "weather</w>": 2379,
      "sugges": 2380,
      "usually</w>": 2381,
      "screen</w>": 2382,
      "Cant</w>": 2383,
      "Glad</w>": 2384,
      "Long</w>": 2385,
      "Tim": 2386,
      "ject</w>": 2387,
      "tanks</w>": 2388,
      "went</w>": 2389,
      "tin</w>": 2390,
      "loca": 2391,
      "divi": 2392,
      "susp": 2393,
      "total</w>": 2394,
      "pped</w>": 2395,
      "products</w>": 2396,
      "elling</w>": 2397,
      "thrusters</w>": 2398,
      "static</w>": 2399,
      "Any": 2400,
      "internal</w>": 2401,
      "proud</w>": 2402,
      "factor</w>": 2403,
      "obv</w>": 2404,
      "engineers</w>": 2405,
      "arily</w>": 2406,
      "frame</w>": 2407,
      "achieve</w>": 2408,
      "Canada</w>": 2409,
      "known</w>": 2410,
      "market</w>": 2411,
      "negative</w>": 2412,
      "Isp</w>": 2413,
      "fundamental</w>": 2414,
      "government</w>": 2415,
      "Br": 2416,
      "Boo": 2417,
      "Fair</w>": 2418,
      "HW": 2419,
      "Id</w>": 2420,
      "Lot</w>": 2421,
      "Many</w>": 2422,
      "Pe": 2423,
      "bir": 2424,
      "boring</w>": 2425,
      "cal": 2426,
      "keep</w>": 2427,
      "mom": 2428,
      "man</w>": 2429,
      "norm": 2430,
      "otherwise</w>": 2431,
      "pop": 2432,
      "rules</w>": 2433,
      "son": 2434,
      "tor": 2435,
      "table</w>": 2436,
      "uge</w>": 2437,
      "ventilat": 2438,
      "wan": 2439,
      "inj": 2440,
      "tho": 2441,
      "reach": 2442,
      "ended</w>": 2443,
      "stems</w>": 2444,
      "else</w>": 2445,
      "The": 2446,
      "prob</w>": 2447,
      "main": 2448,
      "haps</w>": 2449,
      "vers</w>": 2450,
      "ade</w>": 2451,
      "contr": 2452,
      "neural</w>": 2453,
      "utes</w>": 2454,
      "ass": 2455,
      "shield</w>": 2456,
      "credit</w>": 2457,
      "heard</w>": 2458,
      "Have</w>": 2459,
      "solve</w>": 2460,
      "primary</w>": 2461,
      "prin": 2462,
      "prices</w>": 2463,
      "often</w>": 2464,
      "closer</w>": 2465,
      "Hoping</w>": 2466,
      "craft</w>": 2467,
      "job</w>": 2468,
      "velocity</w>": 2469,
      "satellite</w>": 2470,
      "simple</w>": 2471,
      "personic</w>": 2472,
      "Norway</w>": 2473,
      "insane</w>": 2474,
      "results</w>": 2475,
      "Hyper": 2476,
      "Gigafactory</w>": 2477,
      "diameter</w>": 2478,
      "At": 2479,
      "Dri": 2480,
      "Every": 2481,
      "For": 2482,
      "Jo": 2483,
      "July</w>": 2484,
      "Par": 2485,
      "Ta": 2486,
      "Tech": 2487,
      "ac</w>": 2488,
      "fre": 2489,
      "foo": 2490,
      "lt</w>": 2491,
      "med</w>": 2492,
      "ram": 2493,
      "round</w>": 2494,
      "tb": 2495,
      "wish</w>": 2496,
      "indu": 2497,
      "arri": 2498,
      "outh</w>": 2499,
      "tiles</w>": 2500,
      "enab": 2501,
      "state</w>": 2502,
      "icity</w>": 2503,
      "maxim": 2504,
      "white</w>": 2505,
      "comb": 2506,
      "direct</w>": 2507,
      "down": 2508,
      "ask</w>": 2509,
      "fail": 2510,
      "izing</w>": 2511,
      "stry</w>": 2512,
      "heating</w>": 2513,
      "gram</w>": 2514,
      "avig": 2515,
      "surpri": 2516,
      "owner</w>": 2517,
      "web": 2518,
      "operating</w>": 2519,
      "Nothing</w>": 2520,
      "certainly</w>": 2521,
      "dron": 2522,
      "Both</w>": 2523,
      "irony</w>": 2524,
      "continu": 2525,
      "Something</w>": 2526,
      "unveil</w>": 2527,
      "manufacturing</w>": 2528,
      "movie</w>": 2529,
      "industry</w>": 2530,
      "19</w>": 2531,
      "Cur": 2532,
      "Over</w>": 2533,
      "clea": 2534,
      "fter</w>": 2535,
      "gro": 2536,
      "glass</w>": 2537,
      "ler</w>": 2538,
      "lity</w>": 2539,
      "mid": 2540,
      "mess": 2541,
      "vent</w>": 2542,
      "vari": 2543,
      "thium</w>": 2544,
      "arget</w>": 2545,
      "replac": 2546,
      "tig": 2547,
      "across</w>": 2548,
      "ective</w>": 2549,
      "charge</w>": 2550,
      "plan</w>": 2551,
      "emi</w>": 2552,
      "seats</w>": 2553,
      "upd": 2554,
      "beg": 2555,
      "final</w>": 2556,
      "minim": 2557,
      "aller</w>": 2558,
      "gravity</w>": 2559,
      "missions</w>": 2560,
      "planet</w>": 2561,
      "surface</w>": 2562,
      "excellent</w>": 2563,
      "country</w>": 2564,
      "Really</w>": 2565,
      "wait</w>": 2566,
      "biggest</w>": 2567,
      "kind</w>": 2568,
      "necess": 2569,
      "cameras</w>": 2570,
      "check</w>": 2571,
      "details</w>": 2572,
      "realize</w>": 2573,
      "transport</w>": 2574,
      "Seems</w>": 2575,
      "global</w>": 2576,
      "climate</w>": 2577,
      "nozzle</w>": 2578,
      "Russi": 2579,
      "attempt</w>": 2580,
      "sources</w>": 2581,
      "eedback</w>": 2582,
      "Bitcoin</w>": 2583,
      "Neuralink</w>": 2584,
      "Hyperloop</w>": 2585,
      "clean</w>": 2586,
      "Bl": 2587,
      "City</w>": 2588,
      "Fre": 2589,
      "Qu": 2590,
      "Se": 2591,
      "Str": 2592,
      "Your</w>": 2593,
      "cy</w>": 2594,
      "can": 2595,
      "don": 2596,
      "dly</w>": 2597,
      "dang": 2598,
      "hun": 2599,
      "peak</w>": 2600,
      "rac": 2601,
      "run": 2602,
      "tan": 2603,
      "tful</w>": 2604,
      "wil": 2605,
      "rea</w>": 2606,
      "activ": 2607,
      "sted</w>": 2608,
      "prototyp": 2609,
      "track</w>": 2610,
      "shes</w>": 2611,
      "massive</w>": 2612,
      "exam": 2613,
      "points</w>": 2614,
      "capac": 2615,
      "cases</w>": 2616,
      "ounts</w>": 2617,
      "code</w>": 2618,
      "pressive</w>": 2619,
      "perf": 2620,
      "affor": 2621,
      "wid": 2622,
      "syn": 2623,
      "systems</w>": 2624,
      "turned</w>": 2625,
      "supply</w>": 2626,
      "essful</w>": 2627,
      "happy</w>": 2628,
      "count</w>": 2629,
      "hydro": 2630,
      "crash</w>": 2631,
      "upgrades</w>": 2632,
      "requires</w>": 2633,
      "throt": 2634,
      "structure</w>": 2635,
      "experience</w>": 2636,
      "metal</w>": 2637,
      "science</w>": 2638,
      "respect</w>": 2639,
      "demand</w>": 2640,
      "incredible</w>": 2641,
      "Canaveral</w>": 2642,
      "potential</w>": 2643,
      "droneship</w>": 2644,
      "Fri": 2645,
      "Ph": 2646,
      "Wi": 2647,
      "equ": 2648,
      "feedback</w>": 2649,
      "ily</w>": 2650,
      "lems</w>": 2651,
      "ming</w>": 2652,
      "mid</w>": 2653,
      "national</w>": 2654,
      "od": 2655,
      "oil</w>": 2656,
      "physics</w>": 2657,
      "viron": 2658,
      "won</w>": 2659,
      "tio</w>": 2660,
      "environ": 2661,
      "alized</w>": 2662,
      "ects</w>": 2663,
      "lions</w>": 2664,
      "simil": 2665,
      "unk</w>": 2666,
      "Teslas</w>": 2667,
      "compar": 2668,
      "versions</w>": 2669,
      "chi": 2670,
      "immedi": 2671,
      "connec": 2672,
      "greater</w>": 2673,
      "fortun": 2674,
      "Indeed</w>": 2675,
      "Production</w>": 2676,
      "commun": 2677,
      "help": 2678,
      "exciting</w>": 2679,
      "000</w>": 2680,
      "cry": 2681,
      "appreciate</w>": 2682,
      "lights</w>": 2683,
      "extreme</w>": 2684,
      "Superchargers</w>": 2685,
      "links</w>": 2686,
      "aircraft</w>": 2687,
      "inte": 2688,
      "Important</w>": 2689,
      "source</w>": 2690,
      "respon": 2691,
      "echan": 2692,
      "follo": 2693,
      "tweet</w>": 2694,
      "panels</w>": 2695,
      "simulation</w>": 2696,
      "spira": 2697,
      "training</w>": 2698,
      "original</w>": 2699,
      "Booster</w>": 2700,
      "normal</w>": 2701,
      "width</w>": 2702,
      "Apri": 2703,
      "Hard</w>": 2704,
      "Is</w>": 2705,
      "NY</w>": 2706,
      "Op": 2707,
      "Res": 2708,
      "Tu": 2709,
      "Uni": 2710,
      "Ve": 2711,
      "Wh</w>": 2712,
      "ak": 2713,
      "apo": 2714,
      "ative</w>": 2715,
      "bay</w>": 2716,
      "fer</w>": 2717,
      "fic</w>": 2718,
      "found</w>": 2719,
      "pic": 2720,
      "sent</w>": 2721,
      "vely</w>": 2722,
      "yers</w>": 2723,
      "inside</w>": 2724,
      "thin": 2725,
      "resi": 2726,
      "program</w>": 2727,
      "lier</w>": 2728,
      "shot</w>": 2729,
      "ops</w>": 2730,
      "vertical</w>": 2731,
      "dies</w>": 2732,
      "ras": 2733,
      "ratio</w>": 2734,
      "impossible</w>": 2735,
      "termin": 2736,
      "tower</w>": 2737,
      "adver": 2738,
      "adding</w>": 2739,
      "great": 2740,
      "Mode</w>": 2741,
      "ush</w>": 2742,
      "partic": 2743,
      "problems</w>": 2744,
      "board</w>": 2745,
      "ports</w>": 2746,
      "height</w>": 2747,
      "steering</w>": 2748,
      "selves</w>": 2749,
      "possibly</w>": 2750,
      "writ": 2751,
      "windo": 2752,
      "brain</w>": 2753,
      "deploy": 2754,
      "Going</w>": 2755,
      "Americ": 2756,
      "directly</w>": 2757,
      "special</w>": 2758,
      "itude</w>": 2759,
      "effect</w>": 2760,
      "journ": 2761,
      "button</w>": 2762,
      "larger</w>": 2763,
      "beautiful</w>": 2764,
      "Solar": 2765,
      "answer</w>": 2766,
      "Big</w>": 2767,
      "amethrower</w>": 2768,
      "April</w>": 2769,
      "500</w>": 2770,
      "Bec": 2771,
      "Dep": 2772,
      "Har": 2773,
      "Ob": 2774,
      "Sun": 2775,
      "bor": 2776,
      "bility</w>": 2777,
      "cla": 2778,
      "dig": 2779,
      "grid</w>": 2780,
      "hear</w>": 2781,
      "hell</w>": 2782,
      "mer</w>": 2783,
      "mechan": 2784,
      "nitude</w>": 2785,
      "ss": 2786,
      "uth</w>": 2787,
      "wd</w>": 2788,
      "win</w>": 2789,
      "wers</w>": 2790,
      "thread</w>": 2791,
      "reli": 2792,
      "reentry</w>": 2793,
      "oner</w>": 2794,
      "oned</w>": 2795,
      "alle": 2796,
      "ror</w>": 2797,
      "rote</w>": 2798,
      "acci": 2799,
      "lost</w>": 2800,
      "exten": 2801,
      "ride</w>": 2802,
      "impact</w>": 2803,
      "cash</w>": 2804,
      "towards</w>": 2805,
      "condi": 2806,
      "utting</w>": 2807,
      "door</w>": 2808,
      "istic</w>": 2809,
      "pack": 2810,
      "separ": 2811,
      "destin": 2812,
      "dering</w>": 2813,
      "alling</w>": 2814,
      "interesting</w>": 2815,
      "step</w>": 2816,
      "andy</w>": 2817,
      "features</w>": 2818,
      "cryp": 2819,
      "latter</w>": 2820,
      "spacecraft</w>": 2821,
      "numbers</w>": 2822,
      "utility</w>": 2823,
      "magnitude</w>": 2824,
      "announc": 2825,
      "include</w>": 2826,
      "direction</w>": 2827,
      "successful</w>": 2828,
      "development</w>": 2829,
      "named</w>": 2830,
      "injur": 2831,
      "similar</w>": 2832,
      "fortunately</w>": 2833,
      "integr": 2834,
      "American</w>": 2835,
      "An</w>": 2836,
      "Could</w>": 2837,
      "Da": 2838,
      "Des": 2839,
      "Ea": 2840,
      "EO</w>": 2841,
      "High": 2842,
      "Lat": 2843,
      "Mk": 2844,
      "Mach</w>": 2845,
      "Oc": 2846,
      "WD</w>": 2847,
      "bank": 2848,
      "cop": 2849,
      "deci": 2850,
      "gar": 2851,
      "ges</w>": 2852,
      "gim": 2853,
      "her": 2854,
      "ie</w>": 2855,
      "oke</w>": 2856,
      "slo": 2857,
      "send</w>": 2858,
      "vir": 2859,
      "wrote</w>": 2860,
      "yeah</w>": 2861,
      "enter</w>": 2862,
      "ension</w>": 2863,
      "aming</w>": 2864,
      "ill": 2865,
      "Then</w>": 2866,
      "lithium</w>": 2867,
      "tric</w>": 2868,
      "tracking</w>": 2869,
      "hai</w>": 2870,
      "die</w>": 2871,
      "raise</w>": 2872,
      "etc</w>": 2873,
      "moder": 2874,
      "irl</w>": 2875,
      "asked</w>": 2876,
      "flying</w>": 2877,
      "smaller</w>": 2878,
      "anyway</w>": 2879,
      "commer": 2880,
      "humans</w>": 2881,
      "except</w>": 2882,
      "electricity</w>": 2883,
      "fund</w>": 2884,
      "trip</w>": 2885,
      "latest</w>": 2886,
      "mater": 2887,
      "Major</w>": 2888,
      "outside</w>": 2889,
      "articles</w>": 2890,
      "Note</w>": 2891,
      "reason": 2892,
      "reusability</w>": 2893,
      "color</w>": 2894,
      "happening</w>": 2895,
      "optimized</w>": 2896,
      "kinda</w>": 2897,
      "including</w>": 2898,
      "provide</w>": 2899,
      "covered</w>": 2900,
      "customers</w>": 2901,
      "reduce</w>": 2902,
      "discus": 2903,
      "function</w>": 2904,
      "avoid</w>": 2905,
      "capacity</w>": 2906,
      "adverti": 2907,
      "5k</w>": 2908,
      "Area</w>": 2909,
      "Bro": 2910,
      "F9</w>": 2911,
      "Min": 2912,
      "Need</w>": 2913,
      "Or</w>": 2914,
      "Pl": 2915,
      "Sim": 2916,
      "V1</w>": 2917,
      "V10</w>": 2918,
      "btw</w>": 2919,
      "cells</w>": 2920,
      "dable</w>": 2921,
      "equi": 2922,
      "fe</w>": 2923,
      "goo": 2924,
      "hour</w>": 2925,
      "ior</w>": 2926,
      "mea": 2927,
      "ny</w>": 2928,
      "net": 2929,
      "ramp</w>": 2930,
      "target</w>": 2931,
      "yed</w>": 2932,
      "iness</w>": 2933,
      "them": 2934,
      "arant": 2935,
      "rela": 2936,
      "ented</w>": 2937,
      "ensure</w>": 2938,
      "altitude</w>": 2939,
      "ested</w>": 2940,
      "acked</w>": 2941,
      "stren": 2942,
      "dio</w>": 2943,
      "world": 2944,
      "evol": 2945,
      "told</w>": 2946,
      "ney</w>": 2947,
      "quality</w>": 2948,
      "istics</w>": 2949,
      "fort</w>": 2950,
      "hover</w>": 2951,
      "deser": 2952,
      "ffic": 2953,
      "minor</w>": 2954,
      "angle</w>": 2955,
      "anghai</w>": 2956,
      "soline</w>": 2957,
      "smoo": 2958,
      "expect</w>": 2959,
      "expend": 2960,
      "bio": 2961,
      "turns</w>": 2962,
      "reading</w>": 2963,
      "anywhere</w>": 2964,
      "Shanghai</w>": 2965,
      "guess</w>": 2966,
      "dule</w>": 2967,
      "tried</w>": 2968,
      "bring</w>": 2969,
      "subsi": 2970,
      "weight</w>": 2971,
      "operational</w>": 2972,
      "pass": 2973,
      "intell": 2974,
      "North</w>": 2975,
      "obviously</w>": 2976,
      "understand</w>": 2977,
      "competition</w>": 2978,
      "camera</w>": 2979,
      "billion</w>": 2980,
      "storage</w>": 2981,
      "shows</w>": 2982,
      "stronau": 2983,
      "morning</w>": 2984,
      "atmosphere</w>": 2985,
      "suspension</w>": 2986,
      "People</w>": 2987,
      "ventilators</w>": 2988,
      "perfect</w>": 2989,
      "Vegas</w>": 2990,
      "bankrup": 2991,
      "streng": 2992,
      "worldwide</w>": 2993,
      "10": 2994,
      "100</w>": 2995,
      "30</w>": 2996,
      "Ama": 2997,
      "Are</w>": 2998,
      "By</w>": 2999,
      "He": 3000,
      "Physics</w>": 3001,
      "Stop</w>": 3002,
      "Team</w>": 3003,
      "Up": 3004,
      "aero</w>": 3005,
      "bile</w>": 3006,
      "co</w>": 3007,
      "ef</w>": 3008,
      "fam": 3009,
      "gone</w>": 3010,
      "my": 3011,
      "pite</w>": 3012,
      "pump</w>": 3013,
      "rou": 3014,
      "set": 3015,
      "indivi": 3016,
      "tho</w>": 3017,
      "thous": 3018,
      "rel": 3019,
      "oub": 3020,
      "rocks</w>": 3021,
      "atur": 3022,
      "actions</w>": 3023,
      "sters</w>": 3024,
      "stack</w>": 3025,
      "omes</w>": 3026,
      "lots</w>": 3027,
      "eco": 3028,
      "trick": 3029,
      "une</w>": 3030,
      "law</w>": 3031,
      "ext": 3032,
      "den</w>": 3033,
      "deal": 3034,
      "death</w>": 3035,
      "rain</w>": 3036,
      "posite</w>": 3037,
      "sooner</w>": 3038,
      "worse</w>": 3039,
      "cast</w>": 3040,
      "event</w>": 3041,
      "uty</w>": 3042,
      "hot": 3043,
      "parking</w>": 3044,
      "leg</w>": 3045,
      "despite</w>": 3046,
      "fusion</w>": 3047,
      "meme</w>": 3048,
      "Who</w>": 3049,
      "sections</w>": 3050,
      "sometimes</w>": 3051,
      "request</w>": 3052,
      "highly</w>": 3053,
      "improves</w>": 3054,
      "Does": 3055,
      "Hope</w>": 3056,
      "seeing</w>": 3057,
      "write</w>": 3058,
      "ences</w>": 3059,
      "controll": 3060,
      "latency</w>": 3061,
      "wind</w>": 3062,
      "summer</w>": 3063,
      "output</w>": 3064,
      "tivity</w>": 3065,
      "Like</w>": 3066,
      "starts</w>": 3067,
      "starting</w>": 3068,
      "dreds</w>": 3069,
      "mista": 3070,
      "rapid</w>": 3071,
      "Better</w>": 3072,
      "Performance</w>": 3073,
      "powered</w>": 3074,
      "visit</w>": 3075,
      "received</w>": 3076,
      "focus</w>": 3077,
      "repair</w>": 3078,
      "quarter</w>": 3079,
      "HW2</w>": 3080,
      "tbh</w>": 3081,
      "helpful</w>": 3082,
      "Because</w>": 3083,
      "commercial</w>": 3084,
      "network</w>": 3085,
      "expendable</w>": 3086,
      "intellig": 3087,
      "strength</w>": 3088,
      "Air</w>": 3089,
      "Bas": 3090,
      "Car</w>": 3091,
      "CO2</w>": 3092,
      "C19</w>": 3093,
      "Do</w>": 3094,
      "GP": 3095,
      "Iron": 3096,
      "Mer": 3097,
      "NN</w>": 3098,
      "South</w>": 3099,
      "Top</w>": 3100,
      "Vs</w>": 3101,
      "ball</w>": 3102,
      "cent</w>": 3103,
      "catch</w>": 3104,
      "dge</w>": 3105,
      "dum": 3106,
      "four</w>": 3107,
      "hat</w>": 3108,
      "ip": 3109,
      "imag": 3110,
      "mee": 3111,
      "nor</w>": 3112,
      "situ": 3113,
      "tel": 3114,
      "tell</w>": 3115,
      "ual</w>": 3116,
      "val</w>": 3117,
      "watch": 3118,
      "infor": 3119,
      "thre": 3120,
      "outs</w>": 3121,
      "onal</w>": 3122,
      "onna</w>": 3123,
      "ori": 3124,
      "enter": 3125,
      "acks</w>": 3126,
      "lose</w>": 3127,
      "urity</w>": 3128,
      "truly</w>": 3129,
      "opo": 3130,
      "whats</w>": 3131,
      "exter": 3132,
      "rather</w>": 3133,
      "pose</w>": 3134,
      "irc": 3135,
      "sea</w>": 3136,
      "sequ": 3137,
      "creating</w>": 3138,
      "heal": 3139,
      "serious</w>": 3140,
      "ocean</w>": 3141,
      "fires</w>": 3142,
      "ideas</w>": 3143,
      "expan": 3144,
      "earlier</w>": 3145,
      "helping</w>": 3146,
      "limit</w>": 3147,
      "advan": 3148,
      "playing</w>": 3149,
      "braking</w>": 3150,
      "deaths</w>": 3151,
      "happens</w>": 3152,
      "regulators</w>": 3153,
      "Order</w>": 3154,
      "logistics</w>": 3155,
      "investors</w>": 3156,
      "fore": 3157,
      "figure</w>": 3158,
      "cyc": 3159,
      "cooling</w>": 3160,
      "delivered</w>": 3161,
      "initial</w>": 3162,
      "friend</w>": 3163,
      "address</w>": 3164,
      "music</w>": 3165,
      "population</w>": 3166,
      "throttle</w>": 3167,
      "Friday</w>": 3168,
      "immediately</w>": 3169,
      "Sunday</w>": 3170,
      "destination</w>": 3171,
      "60</w>": 3172,
      "AA</w>": 3173,
      "AC</w>": 3174,
      "ASA</w>": 3175,
      "After</w>": 3176,
      "Be": 3177,
      "FAA</w>": 3178,
      "Gu": 3179,
      "Hum": 3180,
      "Mas": 3181,
      "Needs</w>": 3182,
      "NASA</w>": 3183,
      "Py": 3184,
      "Sel": 3185,
      "Sigh</w>": 3186,
      "Semi</w>": 3187,
      "Wa": 3188,
      "ahead</w>": 3189,
      "bal": 3190,
      "bot</w>": 3191,
      "cat</w>": 3192,
      "dings</w>": 3193,
      "dying</w>": 3194,
      "gust</w>": 3195,
      "ju": 3196,
      "ki</w>": 3197,
      "mm</w>": 3198,
      "moun": 3199,
      "ply</w>": 3200,
      "ption</w>": 3201,
      "sti": 3202,
      "song</w>": 3203,
      "remo": 3204,
      "relev": 3205,
      "resources</w>": 3206,
      "tight</w>": 3207,
      "enge</w>": 3208,
      "along</w>": 3209,
      "est": 3210,
      "itec": 3211,
      "itch</w>": 3212,
      "oming</w>": 3213,
      "abil": 3214,
      "lic</w>": 3215,
      "makers</w>": 3216,
      "opening</w>": 3217,
      "laser</w>": 3218,
      "extra</w>": 3219,
      "poli": 3220,
      "words</w>": 3221,
      "conv": 3222,
      "const": 3223,
      "consum": 3224,
      "concer": 3225,
      "nets</w>": 3226,
      "taken</w>": 3227,
      "doc": 3228,
      "covid</w>": 3229,
      "ustin</w>": 3230,
      "umin": 3231,
      "Starships</w>": 3232,
      "leading</w>": 3233,
      "created</w>": 3234,
      "bot": 3235,
      "box</w>": 3236,
      "descri": 3237,
      "aged</w>": 3238,
      "strong</w>": 3239,
      "strange</w>": 3240,
      "compet": 3241,
      "fied</w>": 3242,
      "tionary</w>": 3243,
      "smart</w>": 3244,
      "section</w>": 3245,
      "security</w>": 3246,
      "Chica</w>": 3247,
      "header</w>": 3248,
      "feels</w>": 3249,
      "cru": 3250,
      "public": 3251,
      "underway</w>": 3252,
      "outcome</w>": 3253,
      "propul": 3254,
      "changing</w>": 3255,
      "changed</w>": 3256,
      "lines</w>": 3257,
      "certain</w>": 3258,
      "capability</w>": 3259,
      "started</w>": 3260,
      "completely</w>": 3261,
      "pass</w>": 3262,
      "spaceship</w>": 3263,
      "dead</w>": 3264,
      "shorts</w>": 3265,
      "gether</w>": 3266,
      "Turns</w>": 3267,
      "distance</w>": 3268,
      "challeng": 3269,
      "Smart</w>": 3270,
      "architec": 3271,
      "choice</w>": 3272,
      "assem": 3273,
      "running</w>": 3274,
      "prototype</w>": 3275,
      "gimbal</w>": 3276,
      "themselves</w>": 3277,
      "intelligence</w>": 3278,
      "Self</w>": 3279,
      "Apo": 3280,
      "Must</w>": 3281,
      "PC": 3282,
      "Tw": 3283,
      "Vi": 3284,
      "Ver": 3285,
      "edule</w>": 3286,
      "fan</w>": 3287,
      "ging</w>": 3288,
      "hit</w>": 3289,
      "hind</w>": 3290,
      "huge</w>": 3291,
      "just": 3292,
      "ke": 3293,
      "kee": 3294,
      "lee": 3295,
      "nice</w>": 3296,
      "navig": 3297,
      "otive</w>": 3298,
      "ring</w>": 3299,
      "rare</w>": 3300,
      "swit": 3301,
      "sav": 3302,
      "tm": 3303,
      "was": 3304,
      "wear</w>": 3305,
      "youd</w>": 3306,
      "ang</w>": 3307,
      "ent": 3308,
      "alone</w>": 3309,
      "ster": 3310,
      "stri": 3311,
      "Theres</w>": 3312,
      "lock</w>": 3313,
      "progr": 3314,
      "simul": 3315,
      "tril": 3316,
      "options</w>": 3317,
      "layer</w>": 3318,
      "died</w>": 3319,
      "mobile</w>": 3320,
      "char": 3321,
      "ching</w>": 3322,
      "ched</w>": 3323,
      "irt</w>": 3324,
      "sold</w>": 3325,
      "together</w>": 3326,
      "consci": 3327,
      "coll": 3328,
      "Mostly</w>": 3329,
      "user</w>": 3330,
      "users</w>": 3331,
      "fake</w>": 3332,
      "presen": 3333,
      "Starbase</w>": 3334,
      "cient</w>": 3335,
      "mont</w>": 3336,
      "flu": 3337,
      "behind</w>": 3338,
      "metric</w>": 3339,
      "Where</w>": 3340,
      "fini": 3341,
      "stations</w>": 3342,
      "argo</w>": 3343,
      "Haw": 3344,
      "lift</w>": 3345,
      "aliens</w>": 3346,
      "tube</w>": 3347,
      "objec": 3348,
      "highest</w>": 3349,
      "closed</w>": 3350,
      "Dog": 3351,
      "guy</w>": 3352,
      "Max</w>": 3353,
      "hardest</w>": 3354,
      "gasoline</w>": 3355,
      "talking</w>": 3356,
      "upgraded</w>": 3357,
      "improving</w>": 3358,
      "reasons</w>": 3359,
      "automotive</w>": 3360,
      "didn</w>": 3361,
      "mention</w>": 3362,
      "August</w>": 3363,
      "personally</w>": 3364,
      "attack</w>": 3365,
      "provided</w>": 3366,
      "filter</w>": 3367,
      "existing</w>": 3368,
      "taxes</w>": 3369,
      "black": 3370,
      "continue</w>": 3371,
      "chain</w>": 3372,
      "customer</w>": 3373,
      "views</w>": 3374,
      "precise</w>": 3375,
      "precision</w>": 3376,
      "teams</w>": 3377,
      "autonomous</w>": 3378,
      "Theyre</w>": 3379,
      "Driving</w>": 3380,
      "messed</w>": 3381,
      "Fremont</w>": 3382,
      "hundreds</w>": 3383,
      "cryo</w>": 3384,
      "written</w>": 3385,
      "journali": 3386,
      "SolarCity</w>": 3387,
      "Depends</w>": 3388,
      "stronauts</w>": 3389,
      "50": 3390,
      "AP</w>": 3391,
      "Austin</w>": 3392,
      "Day</w>": 3393,
      "EU</w>": 3394,
      "EVs</w>": 3395,
      "Fi": 3396,
      "Lit": 3397,
      "Me</w>": 3398,
      "Other</w>": 3399,
      "Sy": 3400,
      "Sec": 3401,
      "baby</w>": 3402,
      "dark</w>": 3403,
      "emo": 3404,
      "fall</w>": 3405,
      "found": 3406,
      "her</w>": 3407,
      "hate</w>": 3408,
      "kil": 3409,
      "let": 3410,
      "marg": 3411,
      "phys": 3412,
      "path</w>": 3413,
      "rd</w>": 3414,
      "squ": 3415,
      "stic": 3416,
      "sign</w>": 3417,
      "swa": 3418,
      "ught</w>": 3419,
      "wal": 3420,
      "weve</w>": 3421,
      "inf": 3422,
      "ining</w>": 3423,
      "thon</w>": 3424,
      "though": 3425,
      "arly</w>": 3426,
      "arra": 3427,
      "areas</w>": 3428,
      "rely</w>": 3429,
      "reco": 3430,
      "repor": 3431,
      "anti": 3432,
      "tip</w>": 3433,
      "stand</w>": 3434,
      "store</w>": 3435,
      "Thur": 3436,
      "lied</w>": 3437,
      "lish</w>": 3438,
      "truc": 3439,
      "union</w>": 3440,
      "exact</w>": 3441,
      "disa": 3442,
      "rav": 3443,
      "ches</w>": 3444,
      "constra": 3445,
      "new": 3446,
      "hold": 3447,
      "parti": 3448,
      "cked</w>": 3449,
      "mean": 3450,
      "finish</w>": 3451,
      "India</w>": 3452,
      "hem</w>": 3453,
      "heart</w>": 3454,
      "series</w>": 3455,
      "pati": 3456,
      "page</w>": 3457,
      "paint</w>": 3458,
      "symp": 3459,
      "tionally</w>": 3460,
      "tionality</w>": 3461,
      "expla": 3462,
      "prior</w>": 3463,
      "secon": 3464,
      "Chec": 3465,
      "comments</w>": 3466,
      "present</w>": 3467,
      "correc": 3468,
      "highway</w>": 3469,
      "hopper</w>": 3470,
      "survi": 3471,
      "surance</w>": 3472,
      "complex": 3473,
      "auto": 3474,
      "levels</w>": 3475,
      "Makes</w>": 3476,
      "critic": 3477,
      "weird</w>": 3478,
      "doesn</w>": 3479,
      "allowed</w>": 3480,
      "drops</w>": 3481,
      "ickel</w>": 3482,
      "depend": 3483,
      "eason</w>": 3484,
      "Unfortunately</w>": 3485,
      "offic": 3486,
      "instead</w>": 3487,
      "schedule</w>": 3488,
      "Too</w>": 3489,
      "delay</w>": 3490,
      "increasing</w>": 3491,
      "vote</w>": 3492,
      "figur": 3493,
      "regions</w>": 3494,
      "whether</w>": 3495,
      "legal</w>": 3496,
      "config</w>": 3497,
      "considered</w>": 3498,
      "Given</w>": 3499,
      "easily</w>": 3500,
      "Current</w>": 3501,
      "updates</w>": 3502,
      "crypto</w>": 3503,
      "announcement</w>": 3504,
      "integrated</w>": 3505,
      "aranteed</w>": 3506,
      "ecoin</w>": 3507,
      "advantage</w>": 3508,
      "swap</w>": 3509,
      "Asi": 3510,
      "Baby</w>": 3511,
      "Car": 3512,
      "EP": 3513,
      "GM</w>": 3514,
      "Pr": 3515,
      "Pri": 3516,
      "QA</w>": 3517,
      "Sta": 3518,
      "Sci": 3519,
      "Sign": 3520,
      "Vac</w>": 3521,
      "War": 3522,
      "came</w>": 3523,
      "class</w>": 3524,
      "da": 3525,
      "eg</w>": 3526,
      "fur": 3527,
      "ist</w>": 3528,
      "jo</w>": 3529,
      "min</w>": 3530,
      "marily</w>": 3531,
      "pha</w>": 3532,
      "ran": 3533,
      "says</w>": 3534,
      "vast</w>": 3535,
      "ination</w>": 3536,
      "ert</w>": 3537,
      "refl": 3538,
      "retro": 3539,
      "tice</w>": 3540,
      "tires</w>": 3541,
      "onic</w>": 3542,
      "ens": 3543,
      "ester": 3544,
      "role</w>": 3545,
      "station</w>": 3546,
      "star</w>": 3547,
      "oms</w>": 3548,
      "icon</w>": 3549,
      "icks</w>": 3550,
      "buying</w>": 3551,
      "units</w>": 3552,
      "maj": 3553,
      "ope</w>": 3554,
      "wher": 3555,
      "uck": 3556,
      "ditional</w>": 3557,
      "rais": 3558,
      "rise</w>": 3559,
      "motors</w>": 3560,
      "spend</w>": 3561,
      "conven": 3562,
      "isn</w>": 3563,
      "ength</w>": 3564,
      "holi": 3565,
      "hosp": 3566,
      "credi": 3567,
      "firing</w>": 3568,
      "Extre": 3569,
      "driver</w>": 3570,
      "strali": 3571,
      "clari": 3572,
      "Try</w>": 3573,
      "solved</w>": 3574,
      "appears</w>": 3575,
      "interior</w>": 3576,
      "anden": 3577,
      "sens": 3578,
      "plane</w>": 3579,
      "common</w>": 3580,
      "essential</w>": 3581,
      "Once</w>": 3582,
      "corner</w>": 3583,
      "Dojo</w>": 3584,
      "berg</w>": 3585,
      "Hopper</w>": 3586,
      "carry</w>": 3587,
      "valu": 3588,
      "temper": 3589,
      "winds</w>": 3590,
      "amatically</w>": 3591,
      "allows</w>": 3592,
      "toms</w>": 3593,
      "questions</w>": 3594,
      "shortly</w>": 3595,
      "Australi": 3596,
      "knows</w>": 3597,
      "tested</w>": 3598,
      "favor</w>": 3599,
      "increases</w>": 3600,
      "acceleration</w>": 3601,
      "significantly</w>": 3602,
      "efficient</w>": 3603,
      "effective</w>": 3604,
      "investig": 3605,
      "supporting</w>": 3606,
      "thorne</w>": 3607,
      "wheels</w>": 3608,
      "challenge</w>": 3609,
      "intense</w>": 3610,
      "Time</w>": 3611,
      "cannot</w>": 3612,
      "example</w>": 3613,
      "compared</w>": 3614,
      "thinking</w>": 3615,
      "window</w>": 3616,
      "extend</w>": 3617,
      "meeting</w>": 3618,
      "expansion</w>": 3619,
      "Two</w>": 3620,
      "Hawthorne</w>": 3621,
      "Dogecoin</w>": 3622,
      "EPA</w>": 3623,
      "Bay</w>": 3624,
      "Cor": 3625,
      "Don</w>": 3626,
      "EV</w>": 3627,
      "Found": 3628,
      "Ger": 3629,
      "Gary</w>": 3630,
      "Getting</w>": 3631,
      "Her": 3632,
      "IP</w>": 3633,
      "Lon": 3634,
      "PC</w>": 3635,
      "Rev": 3636,
      "Sch": 3637,
      "V9</w>": 3638,
      "V2</w>": 3639,
      "Who": 3640,
      "aiming</w>": 3641,
      "bb": 3642,
      "ben": 3643,
      "cu": 3644,
      "clear": 3645,
      "candy</w>": 3646,
      "circ": 3647,
      "cargo</w>": 3648,
      "far": 3649,
      "frequ": 3650,
      "hur": 3651,
      "hanced</w>": 3652,
      "ped</w>": 3653,
      "sad</w>": 3654,
      "tings</w>": 3655,
      "ves": 3656,
      "vice</w>": 3657,
      "watch</w>": 3658,
      "erous</w>": 3659,
      "arti": 3660,
      "ories</w>": 3661,
      "alumin": 3662,
      "road": 3663,
      "iter": 3664,
      "abort</w>": 3665,
      "prof": 3666,
      "proof</w>": 3667,
      "nose</w>": 3668,
      "las": 3669,
      "pod</w>": 3670,
      "iron</w>": 3671,
      "import</w>": 3672,
      "impressive</w>": 3673,
      "spea": 3674,
      "spent</w>": 3675,
      "added</w>": 3676,
      "fault</w>": 3677,
      "packs</w>": 3678,
      "pedes": 3679,
      "park</w>": 3680,
      "Whats</w>": 3681,
      "minute</w>": 3682,
      "minutes</w>": 3683,
      "hear": 3684,
      "graph": 3685,
      "Any</w>": 3686,
      "expon": 3687,
      "explo": 3688,
      "andwidth</w>": 3689,
      "secre": 3690,
      "secone</w>": 3691,
      "tures</w>": 3692,
      "pression</w>": 3693,
      "fewer</w>": 3694,
      "feeling</w>": 3695,
      "render</w>": 3696,
      "transi": 3697,
      "gave</w>": 3698,
      "joke</w>": 3699,
      "summary</w>": 3700,
      "technically</w>": 3701,
      "stainless</w>": 3702,
      "tainment</w>": 3703,
      "Soon</w>": 3704,
      "airframe</w>": 3705,
      "capable</w>": 3706,
      "completed</w>": 3707,
      "passed</w>": 3708,
      "rolls</w>": 3709,
      "offer</w>": 3710,
      "installed</w>": 3711,
      "mental</w>": 3712,
      "launching</w>": 3713,
      "incl</w>": 3714,
      "exist</w>": 3715,
      "competitive</w>": 3716,
      "black</w>": 3717,
      "follow</w>": 3718,
      "memes</w>": 3719,
      "Monday</w>": 3720,
      "employ": 3721,
      "Seriously</w>": 3722,
      "confirmed</w>": 3723,
      "robotax": 3724,
      "Electr": 3725,
      "turbop": 3726,
      "location</w>": 3727,
      "moment</w>": 3728,
      "torque</w>": 3729,
      "princi": 3730,
      "Force</w>": 3731,
      "free": 3732,
      "necessary</w>": 3733,
      "odd</w>": 3734,
      "aka</w>": 3735,
      "conditions</w>": 3736,
      "package</w>": 3737,
      "material</w>": 3738,
      "Amazing</w>": 3739,
      "Doesnt</w>": 3740,
      "dumb</w>": 3741,
      "Python</w>": 3742,
      "architecture</w>": 3743,
      "symptoms</w>": 3744,
      "complexity</w>": 3745,
      "pedestri": 3746,
      "80</w>": 3747,
      "Center</w>": 3748,
      "DC</w>": 3749,
      "Del": 3750,
      "Fate</w>": 3751,
      "Mis": 3752,
      "Never</w>": 3753,
      "Pu": 3754,
      "Read</w>": 3755,
      "Sof": 3756,
      "USA</w>": 3757,
      "ast": 3758,
      "couldnt</w>": 3759,
      "cross</w>": 3760,
      "dle</w>": 3761,
      "ee</w>": 3762,
      "gle</w>": 3763,
      "gonna</w>": 3764,
      "hous": 3765,
      "menti": 3766,
      "non": 3767,
      "ners</w>": 3768,
      "pul": 3769,
      "rating</w>": 3770,
      "selling</w>": 3771,
      "vacc": 3772,
      "would": 3773,
      "you": 3774,
      "yester": 3775,
      "zen</w>": 3776,
      "incorrect</w>": 3777,
      "inference</w>": 3778,
      "thday</w>": 3779,
      "thank</w>": 3780,
      "error</w>": 3781,
      "ards</w>": 3782,
      "red": 3783,
      "reuse</w>": 3784,
      "refund</w>": 3785,
      "tis": 3786,
      "orts</w>": 3787,
      "ensive</w>": 3788,
      "attle</w>": 3789,
      "ild</w>": 3790,
      "stop": 3791,
      "ication</w>": 3792,
      "absur": 3793,
      "ecting</w>": 3794,
      "protec": 3795,
      "unlikely</w>": 3796,
      "share": 3797,
      "map</w>": 3798,
      "lap": 3799,
      "havent</w>": 3800,
      "def": 3801,
      "ultim": 3802,
      "ularly</w>": 3803,
      "worst</w>": 3804,
      "adjust": 3805,
      "conn": 3806,
      "plant</w>": 3807,
      "theory</w>": 3808,
      "Mom</w>": 3809,
      "shiel": 3810,
      "seat</w>": 3811,
      "forc": 3812,
      "Starhopper</w>": 3813,
      "inger</w>": 3814,
      "twice</w>": 3815,
      "izes</w>": 3816,
      "entives</w>": 3817,
      "account</w>": 3818,
      "grap": 3819,
      "solving</w>": 3820,
      "giving</w>": 3821,
      "interested</w>": 3822,
      "primarily</w>": 3823,
      "tural</w>": 3824,
      "saw</w>": 3825,
      "tual</w>": 3826,
      "essing</w>": 3827,
      "essentially</w>": 3828,
      "books</w>": 3829,
      "happiness</w>": 3830,
      "ousness</w>": 3831,
      "guys</w>": 3832,
      "aware</w>": 3833,
      "services</w>": 3834,
      "writing</w>": 3835,
      "charging</w>": 3836,
      "Making</w>": 3837,
      "hardcore</w>": 3838,
      "suming</w>": 3839,
      "allowing</w>": 3840,
      "affect</w>": 3841,
      "Life</w>": 3842,
      "capital</w>": 3843,
      "dramatically</w>": 3844,
      "mark</w>": 3845,
      "approved</w>": 3846,
      "approvals</w>": 3847,
      "optimal</w>": 3848,
      "struction</w>": 3849,
      "ville</w>": 3850,
      "school</w>": 3851,
      "attach": 3852,
      "transfer</w>": 3853,
      "insan": 3854,
      "accelerate</w>": 3855,
      "accelerating</w>": 3856,
      "success</w>": 3857,
      "tweets</w>": 3858,
      "recommended</w>": 3859,
      "Perhaps</w>": 3860,
      "journey</w>": 3861,
      "Meant</w>": 3862,
      "powerful</w>": 3863,
      "drag</w>": 3864,
      "demo</w>": 3865,
      "Adding</w>": 3866,
      "largest</w>": 3867,
      "holder</w>": 3868,
      "Apple</w>": 3869,
      "addres": 3870,
      "robots</w>": 3871,
      "touch</w>": 3872,
      "universe</w>": 3873,
      "honor</w>": 3874,
      "Crew</w>": 3875,
      "Everything</w>": 3876,
      "Technically</w>": 3877,
      "Russian</w>": 3878,
      "affordable</w>": 3879,
      "accident</w>": 3880,
      "convinc": 3881,
      "challenges</w>": 3882,
      "assembly</w>": 3883,
      "consciousness</w>": 3884,
      "holders</w>": 3885,
      "aluminum</w>": 3886,
      "AWD</w>": 3887,
      "BC</w>": 3888,
      "Batter": 3889,
      "Dam": 3890,
      "Det": 3891,
      "Dis": 3892,
      "Ford</w>": 3893,
      "Hon": 3894,
      "IC": 3895,
      "Jap": 3896,
      "Mr</w>": 3897,
      "Pay": 3898,
      "SU": 3899,
      "Sil": 3900,
      "Sur": 3901,
      "UD</w>": 3902,
      "V3</w>": 3903,
      "aw</w>": 3904,
      "bed</w>": 3905,
      "bic</w>": 3906,
      "canc": 3907,
      "dome</w>": 3908,
      "dence</w>": 3909,
      "duty</w>": 3910,
      "ky": 3911,
      "mk</w>": 3912,
      "met</w>": 3913,
      "nally</w>": 3914,
      "ox</w>": 3915,
      "pha": 3916,
      "pment</w>": 3917,
      "sell": 3918,
      "v2</w>": 3919,
      "won": 3920,
      "zil": 3921,
      "arch</w>": 3922,
      "ref": 3923,
      "reover</w>": 3924,
      "regu": 3925,
      "ants</w>": 3926,
      "anten": 3927,
      "tire</w>": 3928,
      "orid": 3929,
      "esday</w>": 3930,
      "roof": 3931,
      "iter</w>": 3932,
      "itable</w>": 3933,
      "stance</w>": 3934,
      "loss</w>": 3935,
      "abs": 3936,
      "ection</w>": 3937,
      "ector</w>": 3938,
      "promis": 3939,
      "train</w>": 3940,
      "nosecone</w>": 3941,
      "maker</w>": 3942,
      "Testing</w>": 3943,
      "explan": 3944,
      "demo": 3945,
      "polic": 3946,
      "sump": 3947,
      "supersonic</w>": 3948,
      "irs</w>": 3949,
      "spla": 3950,
      "cation</w>": 3951,
      "even": 3952,
      "tom</w>": 3953,
      "ades</w>": 3954,
      "configur": 3955,
      "tap</w>": 3956,
      "dog</w>": 3957,
      "doo</w>": 3958,
      "effort</w>": 3959,
      "usable</w>": 3960,
      "fair": 3961,
      "fail</w>": 3962,
      "perhaps</w>": 3963,
      "search</w>": 3964,
      "parach": 3965,
      "flamethrower</w>": 3966,
      "ups</w>": 3967,
      "leak</w>": 3968,
      "lege</w>": 3969,
      "behalf</w>": 3970,
      "ages</w>": 3971,
      "metho": 3972,
      "dered</w>": 3973,
      "ssil</w>": 3974,
      "seriously</w>": 3975,
      "lands</w>": 3976,
      "landed</w>": 3977,
      "sym": 3978,
      "score</w>": 3979,
      "misleading</w>": 3980,
      "fication</w>": 3981,
      "esses</w>": 3982,
      "ancy</w>": 3983,
      "ancing</w>": 3984,
      "ances</w>": 3985,
      "exceed</w>": 3986,
      "excep": 3987,
      "curve</w>": 3988,
      "hypersonic</w>": 3989,
      "tribu": 3990,
      "videos</w>": 3991,
      "wind": 3992,
      "join</w>": 3993,
      "summon</w>": 3994,
      "alloy</w>": 3995,
      "techn": 3996,
      "talent</w>": 3997,
      "operation</w>": 3998,
      "start": 3999,
      "college</w>": 4000,
      "fact</w>": 4001,
      "sale</w>": 4002,
      "block</w>": 4003,
      "scienti": 4004,
      "Dec</w>": 4005,
      "March</w>": 4006,
      "places</w>": 4007,
      "anti</w>": 4008,
      "coverage</w>": 4009,
      "stuff</w>": 4010,
      "currency</w>": 4011,
      "Florid": 4012,
      "functionality</w>": 4013,
      "break": 4014,
      "friends</w>": 4015,
      "purcha": 4016,
      "stores</w>": 4017,
      "loads</w>": 4018,
      "debt</w>": 4019,
      "suggestions</w>": 4020,
      "locations</w>": 4021,
      "birthday</w>": 4022,
      "wanted</w>": 4023,
      "hydrogen</w>": 4024,
      "response</w>": 4025,
      "Universe</w>": 4026,
      "deployed</w>": 4027,
      "alley</w>": 4028,
      "subsidies</w>": 4029,
      "bankrupt</w>": 4030,
      "myself</w>": 4031,
      "route</w>": 4032,
      "individual</w>": 4033,
      "mounted</w>": 4034,
      "blackouts</w>": 4035,
      "letter</w>": 4036,
      "margin</w>": 4037,
      "dependent</w>": 4038,
      "further</w>": 4039,
      "Extremely</w>": 4040,
      "Australia</w>": 4041,
      "Florida</w>": 4042,
      "BF": 4043,
      "Base</w>": 4044,
      "Cri": 4045,
      "CEO</w>": 4046,
      "Did": 4047,
      "FT": 4048,
      "Fin": 4049,
      "Fun": 4050,
      "Goo": 4051,
      "Got</w>": 4052,
      "His</w>": 4053,
      "June</w>": 4054,
      "Landing</w>": 4055,
      "Mun": 4056,
      "NY": 4057,
      "OP": 4058,
      "Pan": 4059,
      "Pol": 4060,
      "Rel": 4061,
      "Right</w>": 4062,
      "Rem": 4063,
      "Ship</w>": 4064,
      "Uk": 4065,
      "Weve</w>": 4066,
      "avi": 4067,
      "bandwidth</w>": 4068,
      "catch": 4069,
      "dy": 4070,
      "din": 4071,
      "doub": 4072,
      "ey": 4073,
      "eing</w>": 4074,
      "fli": 4075,
      "fight</w>": 4076,
      "hes</w>": 4077,
      "ian</w>": 4078,
      "job": 4079,
      "lds</w>": 4080,
      "mas</w>": 4081,
      "mine</w>": 4082,
      "mware</w>": 4083,
      "meet</w>": 4084,
      "nu": 4085,
      "ored</w>": 4086,
      "putting</w>": 4087,
      "rors</w>": 4088,
      "sday</w>": 4089,
      "setting</w>": 4090,
      "ti</w>": 4091,
      "tes</w>": 4092,
      "uster</w>": 4093,
      "yr": 4094,
      "zed</w>": 4095,
      "ine": 4096,
      "inning</w>": 4097,
      "input</w>": 4098,
      "indeed</w>": 4099,
      "eral</w>": 4100,
      "rema": 4101,
      "onics</w>": 4102,
      "alism</w>": 4103,
      "esthe": 4104,
      "estim": 4105,
      "itted</w>": 4106,
      "atten": 4107,
      "stp": 4108,
      "elev": 4109,
      "Three</w>": 4110,
      "lol</w>": 4111,
      "liers</w>": 4112,
      "sident</w>": 4113,
      "nov": 4114,
      "unit</w>": 4115,
      "shirt</w>": 4116,
      "mage</w>": 4117,
      "open": 4118,
      "what": 4119,
      "dedic": 4120,
      "verage</w>": 4121,
      "model</w>": 4122,
      "poin": 4123,
      "sub</w>": 4124,
      "social</w>": 4125,
      "uled</w>": 4126,
      "ultra</w>": 4127,
      "cam</w>": 4128,
      "cap</w>": 4129,
      "caught</w>": 4130,
      "ounce</w>": 4131,
      "plate</w>": 4132,
      "embar": 4133,
      "cores</w>": 4134,
      "usage</w>": 4135,
      "father</w>": 4136,
      "leader</w>": 4137,
      "produced</w>": 4138,
      "destro": 4139,
      "medic": 4140,
      "drives</w>": 4141,
      "driven</w>": 4142,
      "through": 4143,
      "Already</w>": 4144,
      "Always</w>": 4145,
      "argu": 4146,
      "pain</w>": 4147,
      "landings</w>": 4148,
      "millions</w>": 4149,
      "appear</w>": 4150,
      "gives</w>": 4151,
      "ides</w>": 4152,
      "scri": 4153,
      "avg</w>": 4154,
      "anda</w>": 4155,
      "secs</w>": 4156,
      "plans</w>": 4157,
      "helps</w>": 4158,
      "head": 4159,
      "heavi": 4160,
      "exceeds</w>": 4161,
      "fees</w>": 4162,
      "Does</w>": 4163,
      "author": 4164,
      "gun</w>": 4165,
      "guaranteed</w>": 4166,
      "counter": 4167,
      "becoming</w>": 4168,
      "valid": 4169,
      "publish</w>": 4170,
      "propag": 4171,
      "allocation</w>": 4172,
      "affects</w>": 4173,
      "Nov</w>": 4174,
      "consist": 4175,
      "rollout</w>": 4176,
      "faces</w>": 4177,
      "position</w>": 4178,
      "Last</w>": 4179,
      "sched": 4180,
      "delta</w>": 4181,
      "incentives</w>": 4182,
      "filters</w>": 4183,
      "horiz": 4184,
      "simpl": 4185,
      "Feels</w>": 4186,
      "silly</w>": 4187,
      "achieving</w>": 4188,
      "Times</w>": 4189,
      "Anyone</w>": 4190,
      "reaching</w>": 4191,
      "combined</w>": 4192,
      "tane": 4193,
      "activate</w>": 4194,
      "greatly</w>": 4195,
      "injuries</w>": 4196,
      "Easter</w>": 4197,
      "advertising</w>": 4198,
      "thousands</w>": 4199,
      "mistake</w>": 4200,
      "situation</w>": 4201,
      "information</w>": 4202,
      "external</w>": 4203,
      "forever</w>": 4204,
      "relevant</w>": 4205,
      "Version</w>": 4206,
      "simultane": 4207,
      "charac": 4208,
      "Literally</w>": 4209,
      "emoj": 4210,
      "Thursday</w>": 4211,
      "criticism</w>": 4212,
      "majority</w>": 4213,
      "clarify</w>": 4214,
      "temperature</w>": 4215,
      "London</w>": 4216,
      "Electric</w>": 4217,
      "Software</w>": 4218,
      "yesterday</w>": 4219,
      "Damn</w>": 4220,
      "SUV</w>": 4221,
      "BFR</w>": 4222,
      "Ukra": 4223,
      "jobs</w>": 4224,
      "embarras": 4225,
      "12</w>": 4226,
      "2k</w>": 4227,
      "Ap": 4228,
      "Ano": 4229,
      "Co</w>": 4230,
      "Col": 4231,
      "Deep</w>": 4232,
      "Every</w>": 4233,
      "From</w>": 4234,
      "Had</w>": 4235,
      "Ms</w>": 4236,
      "NA</w>": 4237,
      "Rec": 4238,
      "SF</w>": 4239,
      "Since</w>": 4240,
      "Um</w>": 4241,
      "Valley</w>": 4242,
      "Zip": 4243,
      "bla": 4244,
      "bri": 4245,
      "blow</w>": 4246,
      "bital</w>": 4247,
      "calc": 4248,
      "cut</w>": 4249,
      "dry</w>": 4250,
      "dness</w>": 4251,
      "ees</w>": 4252,
      "eum</w>": 4253,
      "falling</w>": 4254,
      "ged</w>": 4255,
      "hand</w>": 4256,
      "io": 4257,
      "image</w>": 4258,
      "lying</w>": 4259,
      "mT</w>": 4260,
      "mel": 4261,
      "nickel</w>": 4262,
      "ore": 4263,
      "punk</w>": 4264,
      "ry": 4265,
      "rated</w>": 4266,
      "rous</w>": 4267,
      "smo": 4268,
      "sely</w>": 4269,
      "snow</w>": 4270,
      "slight</w>": 4271,
      "sna": 4272,
      "sville</w>": 4273,
      "ug": 4274,
      "ux</w>": 4275,
      "uit</w>": 4276,
      "ular</w>": 4277,
      "vate</w>": 4278,
      "wever</w>": 4279,
      "wouldnt</w>": 4280,
      "insurance</w>": 4281,
      "thy</w>": 4282,
      "erti": 4283,
      "ered</w>": 4284,
      "arms</w>": 4285,
      "reflight</w>": 4286,
      "report</w>": 4287,
      "remem": 4288,
      "ano": 4289,
      "ork</w>": 4290,
      "amounts</w>": 4291,
      "ators</w>": 4292,
      "iled</w>": 4293,
      "stay</w>": 4294,
      "eless</w>": 4295,
      "icing</w>": 4296,
      "bug</w>": 4297,
      "tral</w>": 4298,
      "truth</w>": 4299,
      "noying</w>": 4300,
      "shop": 4301,
      "opposite</w>": 4302,
      "exit</w>": 4303,
      "demon": 4304,
      "diff</w>": 4305,
      "ried</w>": 4306,
      "che": 4307,
      "ulate</w>": 4308,
      "evid": 4309,
      "conc": 4310,
      "construction</w>": 4311,
      "contribu": 4312,
      "acting</w>": 4313,
      "neu": 4314,
      "emis": 4315,
      "cov2</w>": 4316,
      "grees</w>": 4317,
      "Motor</w>": 4318,
      "Moreover</w>": 4319,
      "premi": 4320,
      "ford</w>": 4321,
      "however</w>": 4322,
      "monopo": 4323,
      "boys</w>": 4324,
      "drivers</w>": 4325,
      "thruster</w>": 4326,
      "gring</w>": 4327,
      "deral</w>": 4328,
      "accor": 4329,
      "occ": 4330,
      "comput": 4331,
      "compute</w>": 4332,
      "lane</w>": 4333,
      "applied</w>": 4334,
      "interview</w>": 4335,
      "Chri": 4336,
      "sensible</w>": 4337,
      "sage</w>": 4338,
      "earing</w>": 4339,
      "epic</w>": 4340,
      "corpor": 4341,
      "llo</w>": 4342,
      "funny</w>": 4343,
      "00k</w>": 4344,
      "engineer</w>": 4345,
      "carmakers</w>": 4346,
      "served</w>": 4347,
      "cracy</w>": 4348,
      "valve</w>": 4349,
      "centers</w>": 4350,
      "generate</w>": 4351,
      "appreciation</w>": 4352,
      "talented</w>": 4353,
      "drop</w>": 4354,
      "burgring</w>": 4355,
      "Boeing</w>": 4356,
      "Goal</w>": 4357,
      "facing</w>": 4358,
      "facto</w>": 4359,
      "transit</w>": 4360,
      "understanding</w>": 4361,
      "increasingly</w>": 4362,
      "specific": 4363,
      "Orbital</w>": 4364,
      "developing</w>": 4365,
      "wnsville</w>": 4366,
      "Exciting</w>": 4367,
      "Possi": 4368,
      "Turb": 4369,
      "amming</w>": 4370,
      "stream</w>": 4371,
      "supporters</w>": 4372,
      "receive</w>": 4373,
      "incredibly</w>": 4374,
      "species</w>": 4375,
      "process</w>": 4376,
      "confident</w>": 4377,
      "releases</w>": 4378,
      "easier</w>": 4379,
      "autonomy</w>": 4380,
      "Joh": 4381,
      "enabled</w>": 4382,
      "maximum</w>": 4383,
      "failure</w>": 4384,
      "website</w>": 4385,
      "webcast</w>": 4386,
      "minimize</w>": 4387,
      "dangerous</w>": 4388,
      "spiration</w>": 4389,
      "picture</w>": 4390,
      "Design</w>": 4391,
      "Oct</w>": 4392,
      "reasonable</w>": 4393,
      "Brownsville</w>": 4394,
      "measu": 4395,
      "family</w>": 4396,
      "tricky</w>": 4397,
      "health</w>": 4398,
      "cycle</w>": 4399,
      "Apollo</w>": 4400,
      "PCR</w>": 4401,
      "finished</w>": 4402,
      "journalists</w>": 4403,
      "holiday</w>": 4404,
      "credibility</w>": 4405,
      "youll</w>": 4406,
      "insanely</w>": 4407,
      "Japan</w>": 4408,
      "explanation</w>": 4409,
      "Critical</w>": 4410,
      "dedicated</w>": 4411,
      "authorities</w>": 4412,
      "propaganda</w>": 4413,
      "Ukraine</w>": 4414,
      "Another</w>": 4415,
      "Zip2</w>": 4416,
      "evidence</w>": 4417,
      "15</w>": 4418,
      "30": 4419,
      "Aw": 4420,
      "Aut": 4421,
      "Back</w>": 4422,
      "HT": 4423,
      "Hi</w>": 4424,
      "Hes</w>": 4425,
      "House</w>": 4426,
      "Nr": 4427,
      "N2</w>": 4428,
      "Night</w>": 4429,
      "OT": 4430,
      "Pa": 4431,
      "Q4</w>": 4432,
      "SN</w>": 4433,
      "Sing": 4434,
      "Sep": 4435,
      "Ton": 4436,
      "Tren": 4437,
      "UK</w>": 4438,
      "Wed</w>": 4439,
      "York</w>": 4440,
      "astronauts</w>": 4441,
      "average</w>": 4442,
      "cat": 4443,
      "cute</w>": 4444,
      "eu": 4445,
      "em</w>": 4446,
      "eor": 4447,
      "feed</w>": 4448,
      "gn": 4449,
      "glad</w>": 4450,
      "ither</w>": 4451,
      "jack": 4452,
      "lear</w>": 4453,
      "less": 4454,
      "letting</w>": 4455,
      "length</w>": 4456,
      "mic": 4457,
      "mal</w>": 4458,
      "mir": 4459,
      "mus": 4460,
      "pat": 4461,
      "push</w>": 4462,
      "pitch</w>": 4463,
      "rw</w>": 4464,
      "race</w>": 4465,
      "ryp": 4466,
      "sun": 4467,
      "swi": 4468,
      "tour</w>": 4469,
      "udic": 4470,
      "wth</w>": 4471,
      "war</w>": 4472,
      "insp": 4473,
      "indic": 4474,
      "ared</w>": 4475,
      "regre": 4476,
      "renew": 4477,
      "aning</w>": 4478,
      "annoying</w>": 4479,
      "outer</w>": 4480,
      "ontal</w>": 4481,
      "ests</w>": 4482,
      "ession</w>": 4483,
      "esel</w>": 4484,
      "itch": 4485,
      "acts</w>": 4486,
      "ili": 4487,
      "iling</w>": 4488,
      "sty": 4489,
      "stabil": 4490,
      "ich": 4491,
      "ables</w>": 4492,
      "bus</w>": 4493,
      "bust</w>": 4494,
      "lid</w>": 4495,
      "trouble</w>": 4496,
      "noise</w>": 4497,
      "und": 4498,
      "shap": 4499,
      "shown</w>": 4500,
      "opin": 4501,
      "oppor": 4502,
      "uclear</w>": 4503,
      "degrees</w>": 4504,
      "ight": 4505,
      "dian</w>": 4506,
      "diesel</w>": 4507,
      "eting</w>": 4508,
      "mod": 4509,
      "mov": 4510,
      "posted</w>": 4511,
      "sume</w>": 4512,
      "soci": 4513,
      "spir": 4514,
      "worlds</w>": 4515,
      "catho": 4516,
      "terri": 4517,
      "actor</w>": 4518,
      "dot</w>": 4519,
      "emer": 4520,
      "green</w>": 4521,
      "Moving</w>": 4522,
      "ash</w>": 4523,
      "fav</w>": 4524,
      "shif": 4525,
      "shipping</w>": 4526,
      "umps</w>": 4527,
      "sever": 4528,
      "crew</w>": 4529,
      "beat</w>": 4530,
      "recent</w>": 4531,
      "Which</w>": 4532,
      "finan": 4533,
      "Inst": 4534,
      "Initi": 4535,
      "timing</w>": 4536,
      "orbits</w>": 4537,
      "accep": 4538,
      "cling</w>": 4539,
      "fiber</w>": 4540,
      "field</w>": 4541,
      "Truth</w>": 4542,
      "apply</w>": 4543,
      "expensive</w>": 4544,
      "private</w>": 4545,
      "soft</w>": 4546,
      "suppliers</w>": 4547,
      "save</w>": 4548,
      "planning</w>": 4549,
      "alien</w>": 4550,
      "trend</w>": 4551,
      "somewhere</w>": 4552,
      "comment</w>": 4553,
      "boost</w>": 4554,
      "Short</w>": 4555,
      "guide</w>": 4556,
      "counter</w>": 4557,
      "Supp": 4558,
      "careful</w>": 4559,
      "Red": 4560,
      "Requi": 4561,
      "generator</w>": 4562,
      "math</w>": 4563,
      "subtle</w>": 4564,
      "subject</w>": 4565,
      "regar": 4566,
      "inva": 4567,
      "former</w>": 4568,
      "formed</w>": 4569,
      "SN5</w>": 4570,
      "signal</w>": 4571,
      "Enhanced</w>": 4572,
      "Live</w>": 4573,
      "damage</w>": 4574,
      "cape</w>": 4575,
      "endar</w>": 4576,
      "depending</w>": 4577,
      "waiting</w>": 4578,
      "phones</w>": 4579,
      "require": 4580,
      "weld</w>": 4581,
      "God": 4582,
      "simplif": 4583,
      "sustaining</w>": 4584,
      "singly</w>": 4585,
      "computers</w>": 4586,
      "optimistic</w>": 4587,
      "multiple</w>": 4588,
      "ails</w>": 4589,
      "magic</w>": 4590,
      "license</w>": 4591,
      "fixing</w>": 4592,
      "geo": 4593,
      "filling</w>": 4594,
      "transaction</w>": 4595,
      "understood</w>": 4596,
      "competitors</w>": 4597,
      "type</w>": 4598,
      "horn</w>": 4599,
      "memory</w>": 4600,
      "developed</w>": 4601,
      "student</w>": 4602,
      "fossil</w>": 4603,
      "approach</w>": 4604,
      "initially</w>": 4605,
      "economics</w>": 4606,
      "holding</w>": 4607,
      "confirm</w>": 4608,
      "floor</w>": 4609,
      "loaded</w>": 4610,
      "basic</w>": 4611,
      "released</w>": 4612,
      "predict</w>": 4613,
      "wants</w>": 4614,
      "Everyone</w>": 4615,
      "ramping</w>": 4616,
      "middle</w>": 4617,
      "variant</w>": 4618,
      "replaced</w>": 4619,
      "Russia</w>": 4620,
      "environment</w>": 4621,
      "chip</w>": 4622,
      "followed</w>": 4623,
      "greatest</w>": 4624,
      "reliability</w>": 4625,
      "separate</w>": 4626,
      "heric</w>": 4627,
      "moderate</w>": 4628,
      "passeng": 4629,
      "settings</w>": 4630,
      "controlled</w>": 4631,
      "GPU</w>": 4632,
      "constantly</w>": 4633,
      "leeward</w>": 4634,
      "navigate</w>": 4635,
      "tmrw</w>": 4636,
      "trillion</w>": 4637,
      "walk</w>": 4638,
      "array</w>": 4639,
      "seconds</w>": 4640,
      "official</w>": 4641,
      "whereas</w>": 4642,
      "investigate</w>": 4643,
      "Foundation</w>": 4644,
      "Whoa</w>": 4645,
      "freedom</w>": 4646,
      "lapse</w>": 4647,
      "addressed</w>": 4648,
      "Battery</w>": 4649,
      "antenna</w>": 4650,
      "roofs</w>": 4651,
      "sumption</w>": 4652,
      "eventually</w>": 4653,
      "technical</w>": 4654,
      "arguably</w>": 4655,
      "Nrburgring</w>": 4656,
      "udicrous</w>": 4657,
      "opportun": 4658,
      "cathode</w>": 4659,
      "11</w>": 4660,
      "20": 4661,
      "25</w>": 4662,
      "Coun": 4663,
      "Done</w>": 4664,
      "Did</w>": 4665,
      "Fu": 4666,
      "Fut": 4667,
      "Gen": 4668,
      "Gras": 4669,
      "Hol": 4670,
      "Huge</w>": 4671,
      "HEPA</w>": 4672,
      "Kin": 4673,
      "LA": 4674,
      "Od": 4675,
      "Over": 4676,
      "Pac": 4677,
      "Part</w>": 4678,
      "Ra": 4679,
      "Real</w>": 4680,
      "Satur": 4681,
      "We": 4682,
      "Zero</w>": 4683,
      "ax": 4684,
      "autopilot</w>": 4685,
      "astly</w>": 4686,
      "aim</w>": 4687,
      "ban</w>": 4688,
      "bill</w>": 4689,
      "balls</w>": 4690,
      "eal": 4691,
      "gan": 4692,
      "gig": 4693,
      "idi": 4694,
      "ific</w>": 4695,
      "ki": 4696,
      "kn": 4697,
      "kin</w>": 4698,
      "kero": 4699,
      "kWh</w>": 4700,
      "none</w>": 4701,
      "nature</w>": 4702,
      "oh</w>": 4703,
      "pap": 4704,
      "patter": 4705,
      "ro</w>": 4706,
      "sats</w>": 4707,
      "tect</w>": 4708,
      "twitter</w>": 4709,
      "wood</w>": 4710,
      "walls</w>": 4711,
      "inci": 4712,
      "incen": 4713,
      "inerti": 4714,
      "thly</w>": 4715,
      "repe": 4716,
      "refin": 4717,
      "remain</w>": 4718,
      "remain": 4719,
      "tives</w>": 4720,
      "ony</w>": 4721,
      "enjo": 4722,
      "amp": 4723,
      "stat": 4724,
      "states</w>": 4725,
      "standing</w>": 4726,
      "stmas</w>": 4727,
      "easing</w>": 4728,
      "ico</w>": 4729,
      "low": 4730,
      "loan</w>": 4731,
      "loved</w>": 4732,
      "lives</w>": 4733,
      "trust</w>": 4734,
      "unexpected</w>": 4735,
      "unknown</w>": 4736,
      "unky": 4737,
      "she</w>": 4738,
      "matic</w>": 4739,
      "layers</w>": 4740,
      "compression</w>": 4741,
      "radi": 4742,
      "pol": 4743,
      "postp": 4744,
      "sus</w>": 4745,
      "solid</w>": 4746,
      "ults</w>": 4747,
      "ulty</w>": 4748,
      "imp": 4749,
      "spe": 4750,
      "cast": 4751,
      "cave</w>": 4752,
      "toff</w>": 4753,
      "consumption</w>": 4754,
      "viously</w>": 4755,
      "acted</w>": 4756,
      "tages</w>": 4757,
      "dol": 4758,
      "qua": 4759,
      "quick": 4760,
      "Moon</w>": 4761,
      "assuming</w>": 4762,
      "preven": 4763,
      "perio": 4764,
      "aft</w>": 4765,
      "apart</w>": 4766,
      "cities</w>": 4767,
      "weet</w>": 4768,
      "upload</w>": 4769,
      "produce</w>": 4770,
      "probable</w>": 4771,
      "boat</w>": 4772,
      "bots</w>": 4773,
      "beha": 4774,
      "twea": 4775,
      "ello</w>": 4776,
      "meg": 4777,
      "stronom": 4778,
      "entirely</w>": 4779,
      "allout</w>": 4780,
      "compens": 4781,
      "Prob</w>": 4782,
      "cles</w>": 4783,
      "pain": 4784,
      "scen": 4785,
      "interven": 4786,
      "pro</w>": 4787,
      "life": 4788,
      "tury</w>": 4789,
      "turning</w>": 4790,
      "sene</w>": 4791,
      "planes</w>": 4792,
      "alist</w>": 4793,
      "fiction</w>": 4794,
      "curate</w>": 4795,
      "hypo": 4796,
      "hydra": 4797,
      "duties</w>": 4798,
      "Reality</w>": 4799,
      "Lots</w>": 4800,
      "bro</w>": 4801,
      "overall</w>": 4802,
      "differences</w>": 4803,
      "merch</w>": 4804,
      "lighter</w>": 4805,
      "dropped</w>": 4806,
      "SN4</w>": 4807,
      "warming</w>": 4808,
      "affected</w>": 4809,
      "medium</w>": 4810,
      "Supercharging</w>": 4811,
      "tains</w>": 4812,
      "Accurate</w>": 4813,
      "Cyberpunk</w>": 4814,
      "space": 4815,
      "spacef": 4816,
      "collapse</w>": 4817,
      "100k</w>": 4818,
      "gging</w>": 4819,
      "werent</w>": 4820,
      "optimization</w>": 4821,
      "structions</w>": 4822,
      "Impressive</w>": 4823,
      "annual</w>": 4824,
      "venue</w>": 4825,
      "develop</w>": 4826,
      "voice</w>": 4827,
      "reduction</w>": 4828,
      "Mega": 4829,
      "straight</w>": 4830,
      "Excited</w>": 4831,
      "Excellent</w>": 4832,
      "Flamethrower</w>": 4833,
      "break</w>": 4834,
      "ammed</w>": 4835,
      "cooled</w>": 4836,
      "result</w>": 4837,
      "deliveries</w>": 4838,
      "broken</w>": 4839,
      "economy</w>": 4840,
      "focused</w>": 4841,
      "trains</w>": 4842,
      "achieved</w>": 4843,
      "region</w>": 4844,
      "backup</w>": 4845,
      "background</w>": 4846,
      "Buil": 4847,
      "debate</w>": 4848,
      "labeling</w>": 4849,
      "Anything</w>": 4850,
      "calyp": 4851,
      "calendar</w>": 4852,
      "reached</w>": 4853,
      "failed</w>": 4854,
      "surprising</w>": 4855,
      "growth</w>": 4856,
      "midnight</w>": 4857,
      "replacement</w>": 4858,
      "necessarily</w>": 4859,
      "Strange</w>": 4860,
      "danger</w>": 4861,
      "racing</w>": 4862,
      "wild</w>": 4863,
      "spirationally</w>": 4864,
      "terminal</w>": 4865,
      "terminals</w>": 4866,
      "particularly</w>": 4867,
      "Hard": 4868,
      "injury</w>": 4869,
      "Latter</w>": 4870,
      "Mk1</w>": 4871,
      "equipment</w>": 4872,
      "relatively</w>": 4873,
      "ffici": 4874,
      "smooth</w>": 4875,
      "watched</w>": 4876,
      "thresh": 4877,
      "bottom</w>": 4878,
      "keeps</w>": 4879,
      "objects</w>": 4880,
      "thoughtful</w>": 4881,
      "Science</w>": 4882,
      "ucky</w>": 4883,
      "benef": 4884,
      "hurt</w>": 4885,
      "artifici": 4886,
      "turbopump</w>": 4887,
      "principle</w>": 4888,
      "mentioned</w>": 4889,
      "connected</w>": 4890,
      "shielding</w>": 4891,
      "windward</w>": 4892,
      "FTW</w>": 4893,
      "Remin": 4894,
      "remains</w>": 4895,
      "whatever</w>": 4896,
      "scription</w>": 4897,
      "validation</w>": 4898,
      "shopper</w>": 4899,
      "according</w>": 4900,
      "Christmas</w>": 4901,
      "Awesome</w>": 4902,
      "opinion</w>": 4903,
      "terrible</w>": 4904,
      "Reddit</w>": 4905,
      "Grasshopper</w>": 4906,
      "Pacific</w>": 4907,
      "kerosene</w>": 4908,
      "40</w>": 4909,
      "78</w>": 4910,
      "AM": 4911,
      "Am": 4912,
      "Ahem</w>": 4913,
      "BT": 4914,
      "Block</w>": 4915,
      "Cl": 4916,
      "Ess": 4917,
      "FP": 4918,
      "Final</w>": 4919,
      "GI</w>": 4920,
      "Has</w>": 4921,
      "Hell</w>": 4922,
      "IV</w>": 4923,
      "Jan</w>": 4924,
      "Jup": 4925,
      "Let</w>": 4926,
      "Later</w>": 4927,
      "Lets</w>": 4928,
      "Mc": 4929,
      "MW</w>": 4930,
      "Man": 4931,
      "Nu": 4932,
      "Nev": 4933,
      "NHT": 4934,
      "OG</w>": 4935,
      "Por": 4936,
      "Pas": 4937,
      "Plan": 4938,
      "Reason</w>": 4939,
      "RIP</w>": 4940,
      "RUD</w>": 4941,
      "SJ</w>": 4942,
      "Sat</w>": 4943,
      "TO</w>": 4944,
      "Tun": 4945,
      "Tri": 4946,
      "Ul": 4947,
      "Uh</w>": 4948,
      "Using</w>": 4949,
      "Vanden": 4950,
      "Wel": 4951,
      "Wont</w>": 4952,
      "Watch</w>": 4953,
      "WSJ</w>": 4954,
      "You": 4955,
      "aoke</w>": 4956,
      "astronom": 4957,
      "battle</w>": 4958,
      "cro": 4959,
      "cle": 4960,
      "dinger</w>": 4961,
      "eth": 4962,
      "eer</w>": 4963,
      "eway</w>": 4964,
      "etry</w>": 4965,
      "eyes</w>": 4966,
      "fin</w>": 4967,
      "flies</w>": 4968,
      "fwd</w>": 4969,
      "grow</w>": 4970,
      "hr</w>": 4971,
      "iso": 4972,
      "kg</w>": 4973,
      "kid</w>": 4974,
      "mit</w>": 4975,
      "ots</w>": 4976,
      "pen": 4977,
      "rdinger</w>": 4978,
      "sop": 4979,
      "sation</w>": 4980,
      "senti": 4981,
      "top": 4982,
      "tall</w>": 4983,
      "tory</w>": 4984,
      "tles</w>": 4985,
      "ug</w>": 4986,
      "utions</w>": 4987,
      "ulic</w>": 4988,
      "vector</w>": 4989,
      "weak</w>": 4990,
      "xing</w>": 4991,
      "ym": 4992,
      "your": 4993,
      "intu": 4994,
      "thus</w>": 4995,
      "resc": 4996,
      "revolu": 4997,
      "refer": 4998,
      "resolution</w>": 4999,
      "reference</w>": 5000,
      "recovered</w>": 5001,
      "resale</w>": 5002,
      "reactor</w>": 5003,
      "refilling</w>": 5004,
      "revenue</w>": 5005,
      "ancient</w>": 5006,
      "orted</w>": 5007,
      "ordered</w>": 5008,
      "ale</w>": 5009,
      "alo</w>": 5010,
      "alert</w>": 5011,
      "amed</w>": 5012,
      "ambi": 5013,
      "att</w>": 5014,
      "stea": 5015,
      "stars</w>": 5016,
      "bul": 5017,
      "projec": 5018,
      "sim</w>": 5019,
      "sitive</w>": 5020,
      "trunk</w>": 5021,
      "eeded</w>": 5022,
      "mail</w>": 5023,
      "optional</w>": 5024,
      "lations</w>": 5025,
      "exec": 5026,
      "exclu": 5027,
      "deg</w>": 5028,
      "detec": 5029,
      "degree</w>": 5030,
      "rage</w>": 5031,
      "ete</w>": 5032,
      "motion</w>": 5033,
      "pods</w>": 5034,
      "ulated</w>": 5035,
      "speak</w>": 5036,
      "causes</w>": 5037,
      "terms</w>": 5038,
      "neur": 5039,
      "doors</w>": 5040,
      "plat": 5041,
      "they": 5042,
      "quo": 5043,
      "asking</w>": 5044,
      "Stu": 5045,
      "Stan": 5046,
      "faith</w>": 5047,
      "perman": 5048,
      "part": 5049,
      "ingu": 5050,
      "flat</w>": 5051,
      "upon</w>": 5052,
      "leave</w>": 5053,
      "creation</w>": 5054,
      "crewed</w>": 5055,
      "firmware</w>": 5056,
      "pupp": 5057,
      "pushed</w>": 5058,
      "pushing</w>": 5059,
      "aging</w>": 5060,
      "thru</w>": 5061,
      "finite</w>": 5062,
      "stric": 5063,
      "stationary</w>": 5064,
      "server</w>": 5065,
      "accounts</w>": 5066,
      "anging</w>": 5067,
      "Trying</w>": 5068,
      "scra": 5069,
      "internally</w>": 5070,
      "planets</w>": 5071,
      "planned</w>": 5072,
      "alive</w>": 5073,
      "elium</w>": 5074,
      "Compl": 5075,
      "Doing</w>": 5076,
      "Consum": 5077,
      "bert</w>": 5078,
      "usted</w>": 5079,
      "transm": 5080,
      "trivi": 5081,
      "underappreciated</w>": 5082,
      "Lock": 5083,
      "tempor": 5084,
      "tember</w>": 5085,
      "century</w>": 5086,
      "advance</w>": 5087,
      "subscription</w>": 5088,
      "maneu": 5089,
      "SN1</w>": 5090,
      "signs</w>": 5091,
      "warm</w>": 5092,
      "operate</w>": 5093,
      "taining</w>": 5094,
      "burg</w>": 5095,
      "brake</w>": 5096,
      "everywhere</w>": 5097,
      "drone</w>": 5098,
      "deliver</w>": 5099,
      "deplo": 5100,
      "depth</w>": 5101,
      "completing</w>": 5102,
      "colli": 5103,
      "structural</w>": 5104,
      "Improv": 5105,
      "shorter</w>": 5106,
      "expert</w>": 5107,
      "experts</w>": 5108,
      "believ": 5109,
      "decade</w>": 5110,
      "launched</w>": 5111,
      "blowing</w>": 5112,
      "Def</w>": 5113,
      "Marti": 5114,
      "providing</w>": 5115,
      "quiet</w>": 5116,
      "Orig": 5117,
      "study</w>": 5118,
      "logies</w>": 5119,
      "pieces</w>": 5120,
      "learn</w>": 5121,
      "empty</w>": 5122,
      "cycles</w>": 5123,
      "detail</w>": 5124,
      "delivering</w>": 5125,
      "economic</w>": 5126,
      "Covid</w>": 5127,
      "Engine</w>": 5128,
      "Engine": 5129,
      "stole</w>": 5130,
      "stored</w>": 5131,
      "convert</w>": 5132,
      "Small</w>": 5133,
      "handle</w>": 5134,
      "labor</w>": 5135,
      "maintain</w>": 5136,
      "contract</w>": 5137,
      "Atlas</w>": 5138,
      "updated</w>": 5139,
      "beginning</w>": 5140,
      "Black</w>": 5141,
      "environmental</w>": 5142,
      "Tues</w>": 5143,
      "Obviously</w>": 5144,
      "born</w>": 5145,
      "digging</w>": 5146,
      "mechanical</w>": 5147,
      "separation</w>": 5148,
      "Highly</w>": 5149,
      "discuss</w>": 5150,
      "sequence</w>": 5151,
      "Mass</w>": 5152,
      "consumers</w>": 5153,
      "docking</w>": 5154,
      "publicly</w>": 5155,
      "propulsion</w>": 5156,
      "wasnt</w>": 5157,
      "presentation</w>": 5158,
      "Second</w>": 5159,
      "physical</w>": 5160,
      "disagree</w>": 5161,
      "partially</w>": 5162,
      "meaning": 5163,
      "Check</w>": 5164,
      "Revi": 5165,
      "Schrdinger</w>": 5166,
      "roads</w>": 5167,
      "lasers</w>": 5168,
      "speaker</w>": 5169,
      "hearing</w>": 5170,
      "secret</w>": 5171,
      "transition</w>": 5172,
      "robotaxi</w>": 5173,
      "astero": 5174,
      "houses</w>": 5175,
      "protection</w>": 5176,
      "defense</w>": 5177,
      "promising</w>": 5178,
      "policy</w>": 5179,
      "fairly</w>": 5180,
      "purchase</w>": 5181,
      "Google</w>": 5182,
      "novation</w>": 5183,
      "scheduled</w>": 5184,
      "horizontal</w>": 5185,
      "embarrassing</w>": 5186,
      "remember</w>": 5187,
      "demonstr": 5188,
      "specifically</w>": 5189,
      "OTA</w>": 5190,
      "September</w>": 5191,
      "Trend</w>": 5192,
      "jacket</w>": 5193,
      "Requires</w>": 5194,
      "Future</w>": 5195,
      "incentive</w>": 5196,
      "quickly</w>": 5197,
      "lifetime</w>": 5198,
      "hydraulic</w>": 5199,
      "threshold</w>": 5200,
      "Jupiter</w>": 5201,
      "Nevada</w>": 5202,
      "Vandenberg</w>": 5203,
      "yourself</w>": 5204,
      "2O</w>": 5205,
      "Ash": 5206,
      "Ari": 5207,
      "Bar": 5208,
      "Bea": 5209,
      "Big": 5210,
      "Busted</w>": 5211,
      "FH</w>": 5212,
      "Flight</w>": 5213,
      "Fair": 5214,
      "Form": 5215,
      "Fallout</w>": 5216,
      "Ga": 5217,
      "Gener": 5218,
      "Geor": 5219,
      "Here</w>": 5220,
      "H2O</w>": 5221,
      "IS": 5222,
      "Ir": 5223,
      "Lin": 5224,
      "Lim": 5225,
      "Mach": 5226,
      "Med": 5227,
      "Made</w>": 5228,
      "Otherwise</w>": 5229,
      "Pal</w>": 5230,
      "P100": 5231,
      "Ren": 5232,
      "Red</w>": 5233,
      "Rob": 5234,
      "RNA</w>": 5235,
      "Sen": 5236,
      "Saf": 5237,
      "Shi": 5238,
      "Shar": 5239,
      "Sept</w>": 5240,
      "ULA</w>": 5241,
      "Vo": 5242,
      "V8</w>": 5243,
      "WW</w>": 5244,
      "Wal": 5245,
      "Water</w>": 5246,
      "Wish</w>": 5247,
      "Ye": 5248,
      "asp": 5249,
      "ail</w>": 5250,
      "bing</w>": 5251,
      "bes</w>": 5252,
      "dee": 5253,
      "ew": 5254,
      "edy</w>": 5255,
      "fear</w>": 5256,
      "fying</w>": 5257,
      "gly</w>": 5258,
      "hands</w>": 5259,
      "hamm": 5260,
      "helium</w>": 5261,
      "ials</w>": 5262,
      "jus": 5263,
      "jump</w>": 5264,
      "junky": 5265,
      "ket</w>": 5266,
      "kid": 5267,
      "lame</w>": 5268,
      "lmk</w>": 5269,
      "mit": 5270,
      "nar": 5271,
      "nic": 5272,
      "nigh": 5273,
      "nings</w>": 5274,
      "pick": 5275,
      "pellant</w>": 5276,
      "pending</w>": 5277,
      "rs": 5278,
      "ris</w>": 5279,
      "rum": 5280,
      "sl": 5281,
      "sn": 5282,
      "sou": 5283,
      "sight</w>": 5284,
      "sks</w>": 5285,
      "sorry</w>": 5286,
      "sites</w>": 5287,
      "too": 5288,
      "tough": 5289,
      "ured</w>": 5290,
      "vin</w>": 5291,
      "voc": 5292,
      "vary</w>": 5293,
      "vac</w>": 5294,
      "wra": 5295,
      "xi": 5296,
      "zone</w>": 5297,
      "zingly</w>": 5298,
      "inev": 5299,
      "independent</w>": 5300,
      "thin</w>": 5301,
      "thout</w>": 5302,
      "third</w>": 5303,
      "errors</w>": 5304,
      "ark": 5305,
      "reti": 5306,
      "replace</w>": 5307,
      "revie": 5308,
      "tici": 5309,
      "titan": 5310,
      "onally</w>": 5311,
      "ort": 5312,
      "entr": 5313,
      "enever</w>": 5314,
      "alo": 5315,
      "essage</w>": 5316,
      "escape</w>": 5317,
      "itals</w>": 5318,
      "ama</w>": 5319,
      "iler</w>": 5320,
      "ills</w>": 5321,
      "stuck</w>": 5322,
      "stops</w>": 5323,
      "igs</w>": 5324,
      "elected</w>": 5325,
      "loves</w>": 5326,
      "absolutely</w>": 5327,
      "bull": 5328,
      "bugs</w>": 5329,
      "buyers</w>": 5330,
      "propor": 5331,
      "lie</w>": 5332,
      "list": 5333,
      "six</w>": 5334,
      "sively</w>": 5335,
      "trag": 5336,
      "tronic</w>": 5337,
      "noon</w>": 5338,
      "share</w>": 5339,
      "shop</w>": 5340,
      "shouldnt</w>": 5341,
      "whenever</w>": 5342,
      "law": 5343,
      "lab</w>": 5344,
      "laws</w>": 5345,
      "oop</w>": 5346,
      "distr": 5347,
      "rail</w>": 5348,
      "radio</w>": 5349,
      "moons</w>": 5350,
      "moves</w>": 5351,
      "moved</w>": 5352,
      "suit</w>": 5353,
      "chil": 5354,
      "chem": 5355,
      "chart</w>": 5356,
      "ulous</w>": 5357,
      "imler</w>": 5358,
      "sports</w>": 5359,
      "worry</w>": 5360,
      "causing</w>": 5361,
      "events</w>": 5362,
      "tox": 5363,
      "tow</w>": 5364,
      "adly</w>": 5365,
      "vil</w>": 5366,
      "vior</w>": 5367,
      "visible</w>": 5368,
      "ples</w>": 5369,
      "plic": 5370,
      "ember</w>": 5371,
      "com</w>": 5372,
      "coating</w>": 5373,
      "coast</w>": 5374,
      "coinci": 5375,
      "Stor": 5376,
      "prebur": 5377,
      "prevent</w>": 5378,
      "after": 5379,
      "ument</w>": 5380,
      "hole</w>": 5381,
      "Starting</w>": 5382,
      "cies</w>": 5383,
      "ped": 5384,
      "paring</w>": 5385,
      "paralle": 5386,
      "inging</w>": 5387,
      "flat": 5388,
      "lead</w>": 5389,
      "lets</w>": 5390,
      "gold</w>": 5391,
      "wider</w>": 5392,
      "recy": 5393,
      "While</w>": 5394,
      "financing</w>": 5395,
      "Alpha</w>": 5396,
      "mini": 5397,
      "heed</w>": 5398,
      "arglass</w>": 5399,
      "grou": 5400,
      "lood</w>": 5401,
      "Prototyp": 5402,
      "cloud</w>": 5403,
      "fired</w>": 5404,
      "path": 5405,
      "paign</w>": 5406,
      "Ancient</w>": 5407,
      "smar": 5408,
      "interest</w>": 5409,
      "prior": 5410,
      "Earths</w>": 5411,
      "factories</w>": 5412,
      "object</w>": 5413,
      "safer</w>": 5414,
      "cord</w>": 5415,
      "coron": 5416,
      "surfaces</w>": 5417,
      "fee</w>": 5418,
      "funding</w>": 5419,
      "curious</w>": 5420,
      "Roof</w>": 5421,
      "underground</w>": 5422,
      "Reports</w>": 5423,
      "advice</w>": 5424,
      "Headed</w>": 5425,
      "match</w>": 5426,
      "jokes</w>": 5427,
      "sky": 5428,
      "played</w>": 5429,
      "talked</w>": 5430,
      "President</w>": 5431,
      "dropping</w>": 5432,
      "SN8</w>": 5433,
      "World</w>": 5434,
      "damn</w>": 5435,
      "edge</w>": 5436,
      "Actual</w>": 5437,
      "endor": 5438,
      "ouldn</w>": 5439,
      "colors</w>": 5440,
      "rolled</w>": 5441,
      "offering</w>": 5442,
      "instal": 5443,
      "positives</w>": 5444,
      "campaign</w>": 5445,
      "sucks</w>": 5446,
      "experi": 5447,
      "experim": 5448,
      "decades</w>": 5449,
      "Auto": 5450,
      "blog</w>": 5451,
      "exists</w>": 5452,
      "taxpay": 5453,
      "specific</w>": 5454,
      "tweeting</w>": 5455,
      "Sometimes</w>": 5456,
      "reduced</w>": 5457,
      "Monty</w>": 5458,
      "learned</w>": 5459,
      "empha": 5460,
      "weap": 5461,
      "visiting</w>": 5462,
      "buttons</w>": 5463,
      "negatively</w>": 5464,
      "Solarglass</w>": 5465,
      "Cost</w>": 5466,
      "Feb</w>": 5467,
      "silicon</w>": 5468,
      "spoke</w>": 5469,
      "touch": 5470,
      "Creating</w>": 5471,
      "handling</w>": 5472,
      "birth</w>": 5473,
      "footage</w>": 5474,
      "maximize</w>": 5475,
      "Without</w>": 5476,
      "communication</w>": 5477,
      "apocalyp": 5478,
      "extending</w>": 5479,
      "Daimler</w>": 5480,
      "Latest</w>": 5481,
      "decision</w>": 5482,
      "goodness</w>": 5483,
      "measure</w>": 5484,
      "evolving</w>": 5485,
      "deserves</w>": 5486,
      "biosis</w>": 5487,
      "dealers</w>": 5488,
      "Basically</w>": 5489,
      "Ironically</w>": 5490,
      "Guess</w>": 5491,
      "stern</w>": 5492,
      "programs</w>": 5493,
      "stick</w>": 5494,
      "patients</w>": 5495,
      "survival</w>": 5496,
      "Asimo": 5497,
      "Star</w>": 5498,
      "daily</w>": 5499,
      "convenience</w>": 5500,
      "Germany</w>": 5501,
      "clearly</w>": 5502,
      "iteration</w>": 5503,
      "exponential</w>": 5504,
      "employees</w>": 5505,
      "Delta</w>": 5506,
      "nonsense</w>": 5507,
      "ultimately</w>": 5508,
      "graph</w>": 5509,
      "attached</w>": 5510,
      "convinced</w>": 5511,
      "PayPal</w>": 5512,
      "wonder</w>": 5513,
      "splay</w>": 5514,
      "startups</w>": 5515,
      "breakthrough</w>": 5516,
      "eye</w>": 5517,
      "attention</w>": 5518,
      "emoji</w>": 5519,
      "Appro": 5520,
      "computing</w>": 5521,
      "corporate</w>": 5522,
      "patents</w>": 5523,
      "style</w>": 5524,
      "Support</w>": 5525,
      "invasive</w>": 5526,
      "passenger</w>": 5527,
      "Kinda</w>": 5528,
      "inertia</w>": 5529,
      "remaining</w>": 5530,
      "behavior</w>": 5531,
      "artificial</w>": 5532,
      "NHTSA</w>": 5533,
      "Lockheed</w>": 5534,
      "Medtronic</w>": 5535,
      "rsly</w>": 5536,
      "titanium</w>": 5537,
      "parallel</w>": 5538,
      "380</w>": 5539,
      "AC": 5540,
      "Air": 5541,
      "Aspirationally</w>": 5542,
      "AGI</w>": 5543,
      "Ber": 5544,
      "Bra": 5545,
      "Cu": 5546,
      "CA</w>": 5547,
      "Cer": 5548,
      "Cup": 5549,
      "Dee": 5550,
      "Due</w>": 5551,
      "Eff": 5552,
      "Fer": 5553,
      "Flo": 5554,
      "Found</w>": 5555,
      "Grav": 5556,
      "HD</w>": 5557,
      "Hel": 5558,
      "Hey</w>": 5559,
      "Jer": 5560,
      "Ka": 5561,
      "Kar": 5562,
      "Lar": 5563,
      "MT</w>": 5564,
      "Met": 5565,
      "Navig": 5566,
      "Pen": 5567,
      "Prec": 5568,
      "Roughly</w>": 5569,
      "RWD</w>": 5570,
      "SB</w>": 5571,
      "San</w>": 5572,
      "Such</w>": 5573,
      "Sentry</w>": 5574,
      "TX</w>": 5575,
      "Tin": 5576,
      "Tou": 5577,
      "Tal": 5578,
      "Tree</w>": 5579,
      "UI</w>": 5580,
      "Val": 5581,
      "Wr": 5582,
      "Woo": 5583,
      "Want</w>": 5584,
      "Wed": 5585,
      "ahem</w>": 5586,
      "bes": 5587,
      "bom": 5588,
      "cou": 5589,
      "dom": 5590,
      "eat</w>": 5591,
      "fi</w>": 5592,
      "fat": 5593,
      "fel": 5594,
      "food</w>": 5595,
      "fold</w>": 5596,
      "gl": 5597,
      "ger": 5598,
      "gue</w>": 5599,
      "gency</w>": 5600,
      "gori": 5601,
      "hence</w>": 5602,
      "ition</w>": 5603,
      "kW</w>": 5604,
      "kill</w>": 5605,
      "ly": 5606,
      "lbs</w>": 5607,
      "mount</w>": 5608,
      "ner": 5609,
      "nom": 5610,
      "nage</w>": 5611,
      "ota</w>": 5612,
      "py": 5613,
      "pics</w>": 5614,
      "pick</w>": 5615,
      "rn</w>": 5616,
      "rates</w>": 5617,
      "sy</w>": 5618,
      "sort</w>": 5619,
      "stic</w>": 5620,
      "suck</w>": 5621,
      "ssing</w>": 5622,
      "semi</w>": 5623,
      "scam</w>": 5624,
      "tent</w>": 5625,
      "tool</w>": 5626,
      "tdown</w>": 5627,
      "tcy</w>": 5628,
      "ula</w>": 5629,
      "ugg": 5630,
      "vable</w>": 5631,
      "vastly</w>": 5632,
      "yi": 5633,
      "yoke</w>": 5634,
      "zz</w>": 5635,
      "inge</w>": 5636,
      "income</w>": 5637,
      "inspec": 5638,
      "thes": 5639,
      "thane</w>": 5640,
      "aries</w>": 5641,
      "arre</w>": 5642,
      "rel</w>": 5643,
      "remin": 5644,
      "reverse</w>": 5645,
      "returned</w>": 5646,
      "research</w>": 5647,
      "anos</w>": 5648,
      "ona": 5649,
      "ordering</w>": 5650,
      "enem": 5651,
      "enAI</w>": 5652,
      "ental</w>": 5653,
      "encies</w>": 5654,
      "alpha</w>": 5655,
      "algori": 5656,
      "essive</w>": 5657,
      "rot</w>": 5658,
      "robust</w>": 5659,
      "aters</w>": 5660,
      "ilar</w>": 5661,
      "ste</w>": 5662,
      "stable</w>": 5663,
      "steam</w>": 5664,
      "igg": 5665,
      "Third</w>": 5666,
      "ech</w>": 5667,
      "bum": 5668,
      "living</w>": 5669,
      "tro</w>": 5670,
      "traction</w>": 5671,
      "notice</w>": 5672,
      "unable</w>": 5673,
      "untrue</w>": 5674,
      "unequi": 5675,
      "shad": 5676,
      "shut</w>": 5677,
      "shaft</w>": 5678,
      "opter</w>": 5679,
      "has": 5680,
      "oom</w>": 5681,
      "comfort</w>": 5682,
      "vers": 5683,
      "dition</w>": 5684,
      "diag": 5685,
      "display</w>": 5686,
      "eted</w>": 5687,
      "ries</w>": 5688,
      "ribu": 5689,
      "ridic": 5690,
      "risky</w>": 5691,
      "modi": 5692,
      "pod": 5693,
      "pot</w>": 5694,
      "point": 5695,
      "choo": 5696,
      "ulating</w>": 5697,
      "ime</w>": 5698,
      "spin</w>": 5699,
      "caused</w>": 5700,
      "cauti": 5701,
      "casting</w>": 5702,
      "tern": 5703,
      "town</w>": 5704,
      "totally</w>": 5705,
      "adjust</w>": 5706,
      "additional</w>": 5707,
      "ounding</w>": 5708,
      "confusion</w>": 5709,
      "doll": 5710,
      "isely</w>": 5711,
      "ass</w>": 5712,
      "ascent</w>": 5713,
      "umula": 5714,
      "parents</w>": 5715,
      "upcoming</w>": 5716,
      "crete</w>": 5717,
      "led": 5718,
      "wishes</w>": 5719,
      "beats</w>": 5720,
      "methane</w>": 5721,
      "izarre</w>": 5722,
      "ssively</w>": 5723,
      "accum": 5724,
      "proven</w>": 5725,
      "Progress</w>": 5726,
      "grade</w>": 5727,
      "solves</w>": 5728,
      "lantic</w>": 5729,
      "Ann": 5730,
      "tioning</w>": 5731,
      "applying</w>": 5732,
      "expec": 5733,
      "expanding</w>": 5734,
      "interplanetary</w>": 5735,
      "interface</w>": 5736,
      "steer</w>": 5737,
      "pricing</w>": 5738,
      "missing</w>": 5739,
      "Green</w>": 5740,
      "tree</w>": 5741,
      "trees</w>": 5742,
      "somehow</w>": 5743,
      "boosters</w>": 5744,
      "episo": 5745,
      "Short": 5746,
      "closing</w>": 5747,
      "funds</w>": 5748,
      "Sun</w>": 5749,
      "limit": 5750,
      "limits</w>": 5751,
      "Problem</w>": 5752,
      "becomes</w>": 5753,
      "thered</w>": 5754,
      "controls</w>": 5755,
      "Maxim": 5756,
      "wins</w>": 5757,
      "winter</w>": 5758,
      "winning</w>": 5759,
      "manag": 5760,
      "manage</w>": 5761,
      "alloys</w>": 5762,
      "SN2</w>": 5763,
      "SN10</w>": 5764,
      "voltage</w>": 5765,
      "warning</w>": 5766,
      "multi</w>": 5767,
      "End</w>": 5768,
      "bration</w>": 5769,
      "brakes</w>": 5770,
      "Acc": 5771,
      "wave</w>": 5772,
      "ouldve</w>": 5773,
      "Godot</w>": 5774,
      "rule</w>": 5775,
      "multiplanet</w>": 5776,
      "declin": 5777,
      "Total</w>": 5778,
      "Totally</w>": 5779,
      "Auto</w>": 5780,
      "New": 5781,
      "News</w>": 5782,
      "blows</w>": 5783,
      "geo</w>": 5784,
      "includes</w>": 5785,
      "Deus</w>": 5786,
      "increased</w>": 5787,
      "troll</w>": 5788,
      "placed</w>": 5789,
      "machines</w>": 5790,
      "ximately</w>": 5791,
      "logical</w>": 5792,
      "investor</w>": 5793,
      "Rockets</w>": 5794,
      "streets</w>": 5795,
      "approach": 5796,
      "spired</w>": 5797,
      "beast</w>": 5798,
      "showing</w>": 5799,
      "distribu": 5800,
      "tempting</w>": 5801,
      "strongly</w>": 5802,
      "fundamentally</w>": 5803,
      "Frank": 5804,
      "repairs</w>": 5805,
      "trade": 5806,
      "traditional</w>": 5807,
      "purpose</w>": 5808,
      "Service</w>": 5809,
      "processing</w>": 5810,
      "conversation</w>": 5811,
      "loading</w>": 5812,
      "Canadian</w>": 5813,
      "ruption</w>": 5814,
      "spot</w>": 5815,
      "unique</w>": 5816,
      "considering</w>": 5817,
      "atmospheric</w>": 5818,
      "turbine</w>": 5819,
      "suggests</w>": 5820,
      "sonic</w>": 5821,
      "Their</w>": 5822,
      "Atlantic</w>": 5823,
      "Joe</w>": 5824,
      "foolish</w>": 5825,
      "enables</w>": 5826,
      "enabling</w>": 5827,
      "begin</w>": 5828,
      "begins</w>": 5829,
      "Quil</w>": 5830,
      "PhD</w>": 5831,
      "following</w>": 5832,
      "OpenAI</w>": 5833,
      "resistance</w>": 5834,
      "reliable</w>": 5835,
      "copper</w>": 5836,
      "decide</w>": 5837,
      "slow": 5838,
      "virus</w>": 5839,
      "illu": 5840,
      "Similar</w>": 5841,
      "password</w>": 5842,
      "bankruptcy</w>": 5843,
      "thousand</w>": 5844,
      "aturally</w>": 5845,
      "Merry</w>": 5846,
      "Humans</w>": 5847,
      "Waiting</w>": 5848,
      "balance</w>": 5849,
      "estone</w>": 5850,
      "political</w>": 5851,
      "consumer</w>": 5852,
      "concerns</w>": 5853,
      "propulsive</w>": 5854,
      "saves</w>": 5855,
      "wasn</w>": 5856,
      "System</w>": 5857,
      "info</w>": 5858,
      "recovery</w>": 5859,
      "reporting</w>": 5860,
      "trucks</w>": 5861,
      "hospital</w>": 5862,
      "sensors</w>": 5863,
      "farm</w>": 5864,
      "graphy</w>": 5865,
      "pedestrian</w>": 5866,
      "pedestrians</w>": 5867,
      "redund": 5868,
      "stopped</w>": 5869,
      "absurdly</w>": 5870,
      "shareholder</w>": 5871,
      "Silicon</w>": 5872,
      "zilla</w>": 5873,
      "methods</w>": 5874,
      "symbiosis</w>": 5875,
      "scientists</w>": 5876,
      "Didnt</w>": 5877,
      "Poly": 5878,
      "catching</w>": 5879,
      "dynam": 5880,
      "doubt</w>": 5881,
      "simultaneously</w>": 5882,
      "occup": 5883,
      "Possibly</w>": 5884,
      "John": 5885,
      "lessly</w>": 5886,
      "micro": 5887,
      "shape</w>": 5888,
      "Initially</w>": 5889,
      "regarding</w>": 5890,
      "Saturn</w>": 5891,
      "pattern</w>": 5892,
      "statement</w>": 5893,
      "dollar</w>": 5894,
      "tweaks</w>": 5895,
      "Building</w>": 5896,
      "benefit</w>": 5897,
      "AMA</w>": 5898,
      "BTC</w>": 5899,
      "Essentially</w>": 5900,
      "sentient</w>": 5901,
      "topia</w>": 5902,
      "Stanford</w>": 5903,
      "puppet</w>": 5904,
      "Consumer</w>": 5905,
      "deploy</w>": 5906,
      "Engineering</w>": 5907,
      "Fairing</w>": 5908,
      "hammer</w>": 5909,
      "kidding</w>": 5910,
      "inevitable</w>": 5911,
      "proportion": 5912,
      "Storm</w>": 5913,
      "recycling</w>": 5914,
      "Prototypes</w>": 5915,
      "emphasize</w>": 5916,
      "pyram": 5917,
      "algorith": 5918,
      "unequivoc": 5919,
      "200": 5920,
      "400</w>": 5921,
      "90</w>": 5922,
      "As": 5923,
      "AR</w>": 5924,
      "AF</w>": 5925,
      "Afr": 5926,
      "Astronauts</w>": 5927,
      "Ba": 5928,
      "Blo": 5929,
      "Bla": 5930,
      "Bri": 5931,
      "Banks</w>": 5932,
      "Cen": 5933,
      "Cam": 5934,
      "Dr": 5935,
      "Eg": 5936,
      "Ex</w>": 5937,
      "Eli": 5938,
      "EAP</w>": 5939,
      "Fred</w>": 5940,
      "Get</w>": 5941,
      "Gear</w>": 5942,
      "Glass</w>": 5943,
      "HV": 5944,
      "H2</w>": 5945,
      "LZ</w>": 5946,
      "Las": 5947,
      "Low</w>": 5948,
      "LEO</w>": 5949,
      "Ludicrous</w>": 5950,
      "Mk</w>": 5951,
      "Mic": 5952,
      "Mex": 5953,
      "Mad</w>": 5954,
      "Mag": 5955,
      "Q1</w>": 5956,
      "Q2</w>": 5957,
      "Q3</w>": 5958,
      "Ri": 5959,
      "Rom": 5960,
      "Rad": 5961,
      "Sho": 5962,
      "Side</w>": 5963,
      "TV</w>": 5964,
      "Took</w>": 5965,
      "TBC</w>": 5966,
      "TOP": 5967,
      "Us</w>": 5968,
      "UN</w>": 5969,
      "Upper</w>": 5970,
      "Vide": 5971,
      "Yay</w>": 5972,
      "aster</w>": 5973,
      "agreed</w>": 5974,
      "atively</w>": 5975,
      "bright</w>": 5976,
      "bounc": 5977,
      "cm</w>": 5978,
      "cab": 5979,
      "cour": 5980,
      "cali": 5981,
      "dat": 5982,
      "dign": 5983,
      "dden</w>": 5984,
      "email</w>": 5985,
      "gear</w>": 5986,
      "gus</w>": 5987,
      "ggy</w>": 5988,
      "gain": 5989,
      "hn</w>": 5990,
      "ik": 5991,
      "ier</w>": 5992,
      "ish": 5993,
      "ible</w>": 5994,
      "jet</w>": 5995,
      "lucky</w>": 5996,
      "mi</w>": 5997,
      "nor": 5998,
      "nesday</w>": 5999,
      "nuclear</w>": 6000,
      "pet</w>": 6001,
      "pounds</w>": 6002,
      "rich</w>": 6003,
      "sit</w>": 6004,
      "sli": 6005,
      "sno": 6006,
      "sses</w>": 6007,
      "tl": 6008,
      "twi": 6009,
      "wis": 6010,
      "wire</w>": 6011,
      "wser</w>": 6012,
      "xed</w>": 6013,
      "yaw</w>": 6014,
      "inally</w>": 6015,
      "inking</w>": 6016,
      "injec": 6017,
      "innovation</w>": 6018,
      "thick": 6019,
      "thqua": 6020,
      "arm</w>": 6021,
      "aren": 6022,
      "rev</w>": 6023,
      "rever": 6024,
      "remark": 6025,
      "represent</w>": 6026,
      "restric": 6027,
      "ana</w>": 6028,
      "ano</w>": 6029,
      "anted</w>": 6030,
      "anese</w>": 6031,
      "tile</w>": 6032,
      "oning</w>": 6033,
      "ord": 6034,
      "ords</w>": 6035,
      "organ": 6036,
      "alth</w>": 6037,
      "alty</w>": 6038,
      "align</w>": 6039,
      "alization</w>": 6040,
      "estre": 6041,
      "itor</w>": 6042,
      "itas</w>": 6043,
      "itys</w>": 6044,
      "among</w>": 6045,
      "atshield</w>": 6046,
      "ston</w>": 6047,
      "stag": 6048,
      "elements</w>": 6049,
      "icked</w>": 6050,
      "Ther": 6051,
      "Though": 6052,
      "Thail": 6053,
      "Thank": 6054,
      "losing</w>": 6055,
      "lobb": 6056,
      "urant</w>": 6057,
      "urban</w>": 6058,
      "ectively</w>": 6059,
      "bun": 6060,
      "likes</w>": 6061,
      "liber": 6062,
      "notic": 6063,
      "unlike</w>": 6064,
      "unching</w>": 6065,
      "shar": 6066,
      "shee": 6067,
      "express</w>": 6068,
      "dely</w>": 6069,
      "device</w>": 6070,
      "ightful</w>": 6071,
      "posting</w>": 6072,
      "suffici": 6073,
      "chea": 6074,
      "irrelevant</w>": 6075,
      "imm": 6076,
      "spon": 6077,
      "spending</w>": 6078,
      "worth": 6079,
      "caus": 6080,
      "tos</w>": 6081,
      "tocurrency</w>": 6082,
      "ading</w>": 6083,
      "ounded</w>": 6084,
      "conf": 6085,
      "cons</w>": 6086,
      "confl": 6087,
      "actors</w>": 6088,
      "dozen</w>": 6089,
      "thetic</w>": 6090,
      "theore": 6091,
      "coat</w>": 6092,
      "coal</w>": 6093,
      "Motors</w>": 6094,
      "permission</w>": 6095,
      "sed": 6096,
      "sees</w>": 6097,
      "sets</w>": 6098,
      "forgot</w>": 6099,
      "hoo</w>": 6100,
      "Started</w>": 6101,
      "flu</w>": 6102,
      "produces</w>": 6103,
      "ledge</w>": 6104,
      "bogus</w>": 6105,
      "widely</w>": 6106,
      "elled</w>": 6107,
      "recently</w>": 6108,
      "Exp": 6109,
      "Wheres</w>": 6110,
      "Spaceballs</w>": 6111,
      "finally</w>": 6112,
      "mining</w>": 6113,
      "Inves": 6114,
      "strang": 6115,
      "statis": 6116,
      "heatshield</w>": 6117,
      "argument</w>": 6118,
      "grand": 6119,
      "Having</w>": 6120,
      "Propellant</w>": 6121,
      "clicks</w>": 6122,
      "five</w>": 6123,
      "Tran": 6124,
      "solutions</w>": 6125,
      "milestone</w>": 6126,
      "Ang": 6127,
      "applic": 6128,
      "idity</w>": 6129,
      "identi": 6130,
      "expand</w>": 6131,
      "scr": 6132,
      "interests</w>": 6133,
      "stein</w>": 6134,
      "prac": 6135,
      "liftoff</w>": 6136,
      "missed</w>": 6137,
      "sensitive</w>": 6138,
      "satis": 6139,
      "tured</w>": 6140,
      "safest</w>": 6141,
      "safely</w>": 6142,
      "Onion</w>": 6143,
      "pressing</w>": 6144,
      "held</w>": 6145,
      "hops</w>": 6146,
      "surized</w>": 6147,
      "surround</w>": 6148,
      "excited</w>": 6149,
      "federal</w>": 6150,
      "auth": 6151,
      "audi": 6152,
      "Consi": 6153,
      "rendering</w>": 6154,
      "county</w>": 6155,
      "duals</w>": 6156,
      "awatt</w>": 6157,
      "servation</w>": 6158,
      "became</w>": 6159,
      "therefore</w>": 6160,
      "thermal</w>": 6161,
      "enced</w>": 6162,
      "charger</w>": 6163,
      "central</w>": 6164,
      "frames</w>": 6165,
      "advent</w>": 6166,
      "Main</w>": 6167,
      "bran": 6168,
      "bris</w>": 6169,
      "differential</w>": 6170,
      "joined</w>": 6171,
      "sket": 6172,
      "light": 6173,
      "SN6</w>": 6174,
      "International</w>": 6175,
      "damaged</w>": 6176,
      "depends</w>": 6177,
      "spaces": 6178,
      "intenti": 6179,
      "dense</w>": 6180,
      "roller</w>": 6181,
      "Unless</w>": 6182,
      "office</w>": 6183,
      "wered</w>": 6184,
      "install</w>": 6185,
      "Between</w>": 6186,
      "Launching</w>": 6187,
      "sche</w>": 6188,
      "announce</w>": 6189,
      "know": 6190,
      "long": 6191,
      "exist": 6192,
      "understands</w>": 6193,
      "succeed</w>": 6194,
      "Orbit</w>": 6195,
      "antum</w>": 6196,
      "chas": 6197,
      "members</w>": 6198,
      "powertrain</w>": 6199,
      "traveling</w>": 6200,
      "Pot": 6201,
      "Turn</w>": 6202,
      "breaks</w>": 6203,
      "billions</w>": 6204,
      "cook": 6205,
      "storm</w>": 6206,
      "stories</w>": 6207,
      "superhuman</w>": 6208,
      "Coast</w>": 6209,
      "Engines</w>": 6210,
      "English</w>": 6211,
      "Diffic": 6212,
      "photo</w>": 6213,
      "photon</w>": 6214,
      "intended</w>": 6215,
      "legis": 6216,
      "egg</w>": 6217,
      "eggs</w>": 6218,
      "gene</w>": 6219,
      "amethrowers</w>": 6220,
      "suggested</w>": 6221,
      "Branden": 6222,
      "ventilator</w>": 6223,
      "Drive</w>": 6224,
      "Takes</w>": 6225,
      "arrives</w>": 6226,
      "arrived</w>": 6227,
      "combine</w>": 6228,
      "continues</w>": 6229,
      "continuous</w>": 6230,
      "Curren": 6231,
      "growing</w>": 6232,
      "Several</w>": 6233,
      "donate</w>": 6234,
      "afford</w>": 6235,
      "chips</w>": 6236,
      "cryo": 6237,
      "Tube</w>": 6238,
      "Tuesday</w>": 6239,
      "thinks</w>": 6240,
      "windows</w>": 6241,
      "deployment</w>": 6242,
      "Higher</w>": 6243,
      "garage</w>": 6244,
      "modern</w>": 6245,
      "materials</w>": 6246,
      "discussion</w>": 6247,
      "Minecraft</w>": 6248,
      "relative</w>": 6249,
      "related</w>": 6250,
      "Based</w>": 6251,
      "situations</w>": 6252,
      "tele": 6253,
      "watching</w>": 6254,
      "entertaining</w>": 6255,
      "jud": 6256,
      "stit": 6257,
      "compete</w>": 6258,
      "competing</w>": 6259,
      "keeping</w>": 6260,
      "switch</w>": 6261,
      "tmare</w>": 6262,
      "fluid</w>": 6263,
      "50k</w>": 6264,
      "Fixing</w>": 6265,
      "killing</w>": 6266,
      "constraints</w>": 6267,
      "explain</w>": 6268,
      "Checking</w>": 6269,
      "Asia</w>": 6270,
      "Signal</w>": 6271,
      "random</w>": 6272,
      "raised</w>": 6273,
      "hospitals</w>": 6274,
      "sensor</w>": 6275,
      "valuable</w>": 6276,
      "German</w>": 6277,
      "wouldve</w>": 6278,
      "shareholders</w>": 6279,
      "forced</w>": 6280,
      "Honored</w>": 6281,
      "phased</w>": 6282,
      "seller</w>": 6283,
      "regular</w>": 6284,
      "regulations</w>": 6285,
      "absor": 6286,
      "democracy</w>": 6287,
      "configuration</w>": 6288,
      "parachute</w>": 6289,
      "parachutes</w>": 6290,
      "exceptional</w>": 6291,
      "Fundamen": 6292,
      "Munro</w>": 6293,
      "NYT</w>": 6294,
      "avionics</w>": 6295,
      "esthetics</w>": 6296,
      "elevator</w>": 6297,
      "medical</w>": 6298,
      "throughout</w>": 6299,
      "consistent</w>": 6300,
      "character</w>": 6301,
      "cheese</w>": 6302,
      "emissions</w>": 6303,
      "Turbo</w>": 6304,
      "30pm</w>": 6305,
      "Single</w>": 6306,
      "stabilize</w>": 6307,
      "movement</w>": 6308,
      "severe</w>": 6309,
      "LAX</w>": 6310,
      "Overall</w>": 6311,
      "postponed</w>": 6312,
      "period</w>": 6313,
      "spaceflight</w>": 6314,
      "Tunnels</w>": 6315,
      "Ultim": 6316,
      "Welcome</w>": 6317,
      "soph": 6318,
      "ambient</w>": 6319,
      "theyd</w>": 6320,
      "collision</w>": 6321,
      "Original</w>": 6322,
      "Review</w>": 6323,
      "Linux</w>": 6324,
      "P100D</w>": 6325,
      "Safety</w>": 6326,
      "junkyard</w>": 6327,
      "nightmare</w>": 6328,
      "pickup</w>": 6329,
      "prioriti": 6330,
      "endors": 6331,
      "installation</w>": 6332,
      "Cuphead</w>": 6333,
      "Gravitas</w>": 6334,
      "Precisely</w>": 6335,
      "Wednesday</w>": 6336,
      "hasnt</w>": 6337,
      "dollars</w>": 6338,
      "umulative</w>": 6339,
      "distribution</w>": 6340,
      "Polytopia</w>": 6341,
      "Africa</w>": 6342,
      "HVAC</w>": 6343,
      "Mexico</w>": 6344,
      "TOPS</w>": 6345,
      "Thoughtful</w>": 6346,
      "Thailand</w>": 6347,
      "Brandenburg</w>": 6348,
      "18": 6349,
      "150</w>": 6350,
      "250</w>": 6351,
      "3k</w>": 6352,
      "300</w>": 6353,
      "35k</w>": 6354,
      "500k</w>": 6355,
      "70</w>": 6356,
      "Been</w>": 6357,
      "CP": 6358,
      "Cla": 6359,
      "Cul": 6360,
      "Cars</w>": 6361,
      "Cust": 6362,
      "Couldnt</w>": 6363,
      "Dr</w>": 6364,
      "DA</w>": 6365,
      "Dan</w>": 6366,
      "Dec": 6367,
      "Dev": 6368,
      "Day": 6369,
      "Dad</w>": 6370,
      "Dron": 6371,
      "ER": 6372,
      "ES": 6373,
      "Ether": 6374,
      "Either</w>": 6375,
      "Fa": 6376,
      "Fi</w>": 6377,
      "Fac": 6378,
      "Fil": 6379,
      "Fear</w>": 6380,
      "Foc": 6381,
      "Fully</w>": 6382,
      "Fren": 6383,
      "Go</w>": 6384,
      "Glo": 6385,
      "Hi": 6386,
      "Ham": 6387,
      "Hold</w>": 6388,
      "Hello</w>": 6389,
      "IM": 6390,
      "IP": 6391,
      "II</w>": 6392,
      "Ju": 6393,
      "Jack</w>": 6394,
      "Jim</w>": 6395,
      "Ko": 6396,
      "Kids</w>": 6397,
      "LO": 6398,
      "Less</w>": 6399,
      "Mul": 6400,
      "Moun": 6401,
      "Nope</w>": 6402,
      "Ou": 6403,
      "OS</w>": 6404,
      "Oper": 6405,
      "Pad": 6406,
      "Pics</w>": 6407,
      "Putting</w>": 6408,
      "Ru": 6409,
      "Ram": 6410,
      "Rest</w>": 6411,
      "Range</w>": 6412,
      "SX": 6413,
      "Sa": 6414,
      "Si": 6415,
      "TE": 6416,
      "TV": 6417,
      "Tra": 6418,
      "Tim</w>": 6419,
      "Vacuum</w>": 6420,
      "Wouldnt</w>": 6421,
      "Xs</w>": 6422,
      "bon": 6423,
      "band</w>": 6424,
      "bits</w>": 6425,
      "bound</w>": 6426,
      "bounce</w>": 6427,
      "bizarre</w>": 6428,
      "cg": 6429,
      "cul": 6430,
      "calling</w>": 6431,
      "di</w>": 6432,
      "dare</w>": 6433,
      "dary</w>": 6434,
      "dents</w>": 6435,
      "dark": 6436,
      "fy": 6437,
      "fed</w>": 6438,
      "fra": 6439,
      "fool</w>": 6440,
      "ga</w>": 6441,
      "gal": 6442,
      "gni": 6443,
      "gaming</w>": 6444,
      "hr": 6445,
      "home": 6446,
      "hull</w>": 6447,
      "ist": 6448,
      "ify</w>": 6449,
      "jamming</w>": 6450,
      "kni": 6451,
      "lit</w>": 6452,
      "lack</w>": 6453,
      "message</w>": 6454,
      "nit": 6455,
      "oes</w>": 6456,
      "py</w>": 6457,
      "pil": 6458,
      "pers</w>": 6459,
      "plot</w>": 6460,
      "pneu": 6461,
      "rar": 6462,
      "rying</w>": 6463,
      "sam": 6464,
      "sma": 6465,
      "sex": 6466,
      "stitu": 6467,
      "seal</w>": 6468,
      "sler</w>": 6469,
      "slee": 6470,
      "sweet</w>": 6471,
      "srsly</w>": 6472,
      "tari": 6473,
      "tality</w>": 6474,
      "tours</w>": 6475,
      "vic": 6476,
      "vices</w>": 6477,
      "wom": 6478,
      "wings</w>": 6479,
      "yn": 6480,
      "ya</w>": 6481,
      "youn": 6482,
      "zer</w>": 6483,
      "zens</w>": 6484,
      "insu": 6485,
      "inter</w>": 6486,
      "inks</w>": 6487,
      "instr": 6488,
      "inhi": 6489,
      "inner</w>": 6490,
      "influ": 6491,
      "inspired</w>": 6492,
      "era</w>": 6493,
      "arently</w>": 6494,
      "reson": 6495,
      "reports</w>": 6496,
      "reVac</w>": 6497,
      "anity</w>": 6498,
      "antic</w>": 6499,
      "tify</w>": 6500,
      "tification</w>": 6501,
      "onym": 6502,
      "oro": 6503,
      "enty</w>": 6504,
      "ensing</w>": 6505,
      "entation</w>": 6506,
      "enorm": 6507,
      "escop": 6508,
      "rot": 6509,
      "rogen</w>": 6510,
      "robot</w>": 6511,
      "itors</w>": 6512,
      "illi": 6513,
      "stest</w>": 6514,
      "stated</w>": 6515,
      "eafter</w>": 6516,
      "icated</w>": 6517,
      "logs</w>": 6518,
      "uration</w>": 6519,
      "prove</w>": 6520,
      "proving</w>": 6521,
      "project</w>": 6522,
      "profound</w>": 6523,
      "protect</w>": 6524,
      "liqu": 6525,
      "liked</w>": 6526,
      "sional</w>": 6527,
      "trac": 6528,
      "trick</w>": 6529,
      "eeding</w>": 6530,
      "notes</w>": 6531,
      "unfortunately</w>": 6532,
      "sha": 6533,
      "shall</w>": 6534,
      "shock</w>": 6535,
      "shots</w>": 6536,
      "master</w>": 6537,
      "opens</w>": 6538,
      "lau": 6539,
      "latitu": 6540,
      "haz": 6541,
      "ooo</w>": 6542,
      "expo": 6543,
      "depar": 6544,
      "defe": 6545,
      "dive</w>": 6546,
      "dise</w>": 6547,
      "diver</w>": 6548,
      "divers</w>": 6549,
      "dialo": 6550,
      "rier</w>": 6551,
      "rising</w>": 6552,
      "pos": 6553,
      "polar</w>": 6554,
      "poll": 6555,
      "posed</w>": 6556,
      "sole</w>": 6557,
      "imes</w>": 6558,
      "impac": 6559,
      "spect</w>": 6560,
      "worried</w>": 6561,
      "toil": 6562,
      "ader</w>": 6563,
      "advis": 6564,
      "adox</w>": 6565,
      "visu": 6566,
      "netic</w>": 6567,
      "dock</w>": 6568,
      "emetry</w>": 6569,
      "ayed</w>": 6570,
      "coff": 6571,
      "coco</w>": 6572,
      "Ston": 6573,
      "Stay</w>": 6574,
      "fastest</w>": 6575,
      "aps</w>": 6576,
      "hop</w>": 6577,
      "citi": 6578,
      "cially</w>": 6579,
      "parties</w>": 6580,
      "leaving</w>": 6581,
      "productive</w>": 6582,
      "boss</w>": 6583,
      "wiki</w>": 6584,
      "wifi</w>": 6585,
      "beer</w>": 6586,
      "owed</w>": 6587,
      "ffs</w>": 6588,
      "ffer</w>": 6589,
      "ellers</w>": 6590,
      "SpaceXs</w>": 6591,
      "minus</w>": 6592,
      "Instructions</w>": 6593,
      "hex</w>": 6594,
      "gry</w>": 6595,
      "serving</w>": 6596,
      "serves</w>": 6597,
      "looked</w>": 6598,
      "accoun": 6599,
      "accept</w>": 6600,
      "compla": 6601,
      "compelling</w>": 6602,
      "Produc": 6603,
      "fiat</w>": 6604,
      "angu": 6605,
      "Track</w>": 6606,
      "igned</w>": 6607,
      "ignore</w>": 6608,
      "apped</w>": 6609,
      "contact</w>": 6610,
      "idance</w>": 6611,
      "expecting</w>": 6612,
      "bikes</w>": 6613,
      "print</w>": 6614,
      "readers</w>": 6615,
      "secure</w>": 6616,
      "Chry": 6617,
      "Chris</w>": 6618,
      "sending</w>": 6619,
      "tune</w>": 6620,
      "factors</w>": 6621,
      "someones</w>": 6622,
      "pressed</w>": 6623,
      "humor</w>": 6624,
      "ecial</w>": 6625,
      "headed</w>": 6626,
      "augh": 6627,
      "Sub": 6628,
      "Regar": 6629,
      "Lot": 6630,
      "lateral</w>": 6631,
      "ario</w>": 6632,
      "advoc": 6633,
      "generation</w>": 6634,
      "generalized</w>": 6635,
      "Make</w>": 6636,
      "brought</w>": 6637,
      "branding</w>": 6638,
      "amazingly</w>": 6639,
      "joy</w>": 6640,
      "halves</w>": 6641,
      "invest</w>": 6642,
      "invented</w>": 6643,
      "velope</w>": 6644,
      "plays</w>": 6645,
      "upgrading</w>": 6646,
      "signed</w>": 6647,
      "warran": 6648,
      "basis</w>": 6649,
      "iden</w>": 6650,
      "operations</w>": 6651,
      "Liquid</w>": 6652,
      "Nobody</w>": 6653,
      "damping</w>": 6654,
      "edit</w>": 6655,
      "airport</w>": 6656,
      "capit": 6657,
      "pix": 6658,
      "dren</w>": 6659,
      "phil": 6660,
      "passing</w>": 6661,
      "passes</w>": 6662,
      "passive</w>": 6663,
      "spaces</w>": 6664,
      "mix</w>": 6665,
      "Under": 6666,
      "offered</w>": 6667,
      "raptor</w>": 6668,
      "Impact</w>": 6669,
      "menu</w>": 6670,
      "Tom</w>": 6671,
      "delays</w>": 6672,
      "delete</w>": 6673,
      "petition</w>": 6674,
      "difficulty</w>": 6675,
      "fixes</w>": 6676,
      "personal</w>": 6677,
      "gee</w>": 6678,
      "meter</w>": 6679,
      "attacking</w>": 6680,
      "attacked</w>": 6681,
      "Death</w>": 6682,
      "custom</w>": 6683,
      "flap</w>": 6684,
      "reauc": 6685,
      "discovered</w>": 6686,
      "atched</w>": 6687,
      "blue</w>": 6688,
      "scaling</w>": 6689,
      "Person": 6690,
      "journo</w>": 6691,
      "accuracy</w>": 6692,
      "standards</w>": 6693,
      "checking</w>": 6694,
      "learning</w>": 6695,
      "jectory</w>": 6696,
      "discount</w>": 6697,
      "stress</w>": 6698,
      "detailed</w>": 6699,
      "Adv": 6700,
      "approxi": 6701,
      "broke</w>": 6702,
      "browser</w>": 6703,
      "economies</w>": 6704,
      "distingu": 6705,
      "focusing</w>": 6706,
      "stronger</w>": 6707,
      "superalloy</w>": 6708,
      "Frank</w>": 6709,
      "answered</w>": 6710,
      "achieves</w>": 6711,
      "mortality</w>": 6712,
      "trajectory</w>": 6713,
      "confirmation</w>": 6714,
      "floating</w>": 6715,
      "phobic</w>": 6716,
      "movies</w>": 6717,
      "Buff": 6718,
      "Special</w>": 6719,
      "bahn</w>": 6720,
      "genic</w>": 6721,
      "nozzles</w>": 6722,
      "Elon</w>": 6723,
      "honored</w>": 6724,
      "nav</w>": 6725,
      "turbines</w>": 6726,
      "releasing</w>": 6727,
      "suspect</w>": 6728,
      "contractors</w>": 6729,
      "printer</w>": 6730,
      "Paradox</w>": 6731,
      "surprise</w>": 6732,
      "surprisingly</w>": 6733,
      "minimizes</w>": 6734,
      "prototypes</w>": 6735,
      "sync</w>": 6736,
      "synthetic</w>": 6737,
      "hydrophobic</w>": 6738,
      "Phone</w>": 6739,
      "equal</w>": 6740,
      "connectivity</w>": 6741,
      "responsible</w>": 6742,
      "classi": 6743,
      "claim</w>": 6744,
      "digital</w>": 6745,
      "extension</w>": 6746,
      "condition</w>": 6747,
      "packet</w>": 6748,
      "Eastern</w>": 6749,
      "viral</w>": 6750,
      "viruses</w>": 6751,
      "reasonably</w>": 6752,
      "goods</w>": 6753,
      "deserve</w>": 6754,
      "biography</w>": 6755,
      "Upgra": 6756,
      "relent": 6757,
      "dealer</w>": 6758,
      "hotel</w>": 6759,
      "mistakes</w>": 6760,
      "Irony</w>": 6761,
      "images</w>": 6762,
      "imagine</w>": 6763,
      "telescop": 6764,
      "Beyond</w>": 6765,
      "Human</w>": 6766,
      "relevance</w>": 6767,
      "abilities</w>": 6768,
      "concern</w>": 6769,
      "describe</w>": 6770,
      "publications</w>": 6771,
      "Apologies</w>": 6772,
      "navigation</w>": 6773,
      "journalist</w>": 6774,
      "foundation</w>": 6775,
      "physically</w>": 6776,
      "square</w>": 6777,
      "thoughts</w>": 6778,
      "secondary</w>": 6779,
      "correctly</w>": 6780,
      "Scienti": 6781,
      "retrospect</w>": 6782,
      "raising</w>": 6783,
      "exponentially</w>": 6784,
      "explosion</w>": 6785,
      "robotaxis</w>": 6786,
      "pulse</w>": 6787,
      "vaccines</w>": 6788,
      "wouldn</w>": 6789,
      "ultimate</w>": 6790,
      "adjusted</w>": 6791,
      "forcing</w>": 6792,
      "graphic": 6793,
      "Details</w>": 6794,
      "phase</w>": 6795,
      "Releasing</w>": 6796,
      "nuts</w>": 6797,
      "estimate</w>": 6798,
      "estimated</w>": 6799,
      "openly</w>": 6800,
      "pointy</w>": 6801,
      "medicine</w>": 6802,
      "heavier</w>": 6803,
      "simpler</w>": 6804,
      "concept</w>": 6805,
      "measured</w>": 6806,
      "Autonom": 6807,
      "renewables</w>": 6808,
      "financial</w>": 6809,
      "requirement</w>": 6810,
      "simplify</w>": 6811,
      "County</w>": 6812,
      "Fun</w>": 6813,
      "gigantic</w>": 6814,
      "idiot</w>": 6815,
      "paper</w>": 6816,
      "police</w>": 6817,
      "interventions</w>": 6818,
      "Porsche</w>": 6819,
      "YouTube</w>": 6820,
      "astronomy</w>": 6821,
      "etheless</w>": 6822,
      "platform</w>": 6823,
      "trivial</w>": 6824,
      "Improved</w>": 6825,
      "Martian</w>": 6826,
      "meaningful</w>": 6827,
      "asteroids</w>": 6828,
      "Beautiful</w>": 6829,
      "Biggest</w>": 6830,
      "George</w>": 6831,
      "rumor</w>": 6832,
      "children</w>": 6833,
      "toxic</w>": 6834,
      "coincidence</w>": 6835,
      "preburner</w>": 6836,
      "group</w>": 6837,
      "Autobahn</w>": 6838,
      "apocalypse</w>": 6839,
      "Asimov</w>": 6840,
      "CureVac</w>": 6841,
      "Certainly</w>": 6842,
      "Fermi</w>": 6843,
      "Larry</w>": 6844,
      "besides</w>": 6845,
      "reminder</w>": 6846,
      "ridiculous</w>": 6847,
      "cautious</w>": 6848,
      "Announc": 6849,
      "episode</w>": 6850,
      "slowly</w>": 6851,
      "occupant</w>": 6852,
      "Elise</w>": 6853,
      "Video</w>": 6854,
      "dignity</w>": 6855,
      "snow": 6856,
      "theoretical</w>": 6857,
      "statistics</w>": 6858,
      "applications</w>": 6859,
      "knowledge</w>": 6860,
      "chassis</w>": 6861,
      "Currently</w>": 6862,
      "cryogenic</w>": 6863,
      "Fundamental</w>": 6864,
      "French</w>": 6865,
      "Outer</w>": 6866,
      "Padre</w>": 6867,
      "cgi</w>": 6868,
      "fyi</w>": 6869,
      "gnition</w>": 6870,
      "nitrogen</w>": 6871,
      "onymous</w>": 6872,
      "enormous</w>": 6873,
      "latitudes</w>": 6874,
      "impacts</w>": 6875,
      "Chrysler</w>": 6876,
      "approximation</w>": 6877,
      "1M</w>": 6878,
      "16</w>": 6879,
      "2500</w>": 6880,
      "32</w>": 6881,
      "5M</w>": 6882,
      "5D</w>": 6883,
      "60": 6884,
      "Av": 6885,
      "Asc": 6886,
      "Bel": 6887,
      "Bur": 6888,
      "Bought</w>": 6889,
      "Back": 6890,
      "Ca": 6891,
      "Ci": 6892,
      "Cro": 6893,
      "Cats</w>": 6894,
      "Course</w>": 6895,
      "Clear": 6896,
      "Close</w>": 6897,
      "Doug": 6898,
      "Dum": 6899,
      "Data</w>": 6900,
      "Drac": 6901,
      "Doub": 6902,
      "ET": 6903,
      "Ed": 6904,
      "Eas": 6905,
      "Eber": 6906,
      "East</w>": 6907,
      "FB</w>": 6908,
      "Far": 6909,
      "Fal": 6910,
      "Gw": 6911,
      "Gro": 6912,
      "Game</w>": 6913,
      "Gover": 6914,
      "Games</w>": 6915,
      "GWh</w>": 6916,
      "Gonna</w>": 6917,
      "Ho": 6918,
      "Hu": 6919,
      "HQ</w>": 6920,
      "Hor": 6921,
      "Jam</w>": 6922,
      "Knight</w>": 6923,
      "Le": 6924,
      "Lord</w>": 6925,
      "Lmk</w>": 6926,
      "Mu": 6927,
      "Mil": 6928,
      "Mec": 6929,
      "Mus": 6930,
      "NN": 6931,
      "N1</w>": 6932,
      "National</w>": 6933,
      "Napo": 6934,
      "Nickel</w>": 6935,
      "Nik": 6936,
      "Out</w>": 6937,
      "Own": 6938,
      "P8": 6939,
      "Pure</w>": 6940,
      "Palo</w>": 6941,
      "RO</w>": 6942,
      "RP</w>": 6943,
      "Rea": 6944,
      "Ret": 6945,
      "Rol": 6946,
      "Row</w>": 6947,
      "RHD</w>": 6948,
      "SI": 6949,
      "SP": 6950,
      "Suc": 6951,
      "Swit": 6952,
      "Spo": 6953,
      "Sto": 6954,
      "Sad</w>": 6955,
      "Show</w>": 6956,
      "Sain": 6957,
      "Swe": 6958,
      "Stain": 6959,
      "Sending</w>": 6960,
      "TO": 6961,
      "Til": 6962,
      "Tel": 6963,
      "Tay": 6964,
      "Tile</w>": 6965,
      "Target</w>": 6966,
      "UF": 6967,
      "Vel": 6968,
      "Vir": 6969,
      "Way</w>": 6970,
      "Wild</w>": 6971,
      "Year</w>": 6972,
      "ban": 6973,
      "bit": 6974,
      "bday</w>": 6975,
      "bell</w>": 6976,
      "backs</w>": 6977,
      "cig": 6978,
      "cli": 6979,
      "ction</w>": 6980,
      "cous": 6981,
      "calls</w>": 6982,
      "dred</w>": 6983,
      "domes</w>": 6984,
      "ein</w>": 6985,
      "ebook</w>": 6986,
      "fill</w>": 6987,
      "ftw</w>": 6988,
      "gam": 6989,
      "gor</w>": 6990,
      "gli": 6991,
      "gri": 6992,
      "gering</w>": 6993,
      "girl</w>": 6994,
      "hh</w>": 6995,
      "han": 6996,
      "hab": 6997,
      "hood</w>": 6998,
      "ip</w>": 6999,
      "ied</w>": 7000,
      "ired</w>": 7001,
      "ians</w>": 7002,
      "ishing</w>": 7003,
      "ja": 7004,
      "jam</w>": 7005,
      "ky</w>": 7006,
      "knew</w>": 7007,
      "lun": 7008,
      "luck</w>": 7009,
      "loud</w>": 7010,
      "langu": 7011,
      "ma</w>": 7012,
      "mo</w>": 7013,
      "mal": 7014,
      "mere</w>": 7015,
      "mand": 7016,
      "meal</w>": 7017,
      "nat": 7018,
      "nesses</w>": 7019,
      "ola</w>": 7020,
      "ology</w>": 7021,
      "ps": 7022,
      "pou": 7023,
      "par</w>": 7024,
      "pilot</w>": 7025,
      "pumps</w>": 7026,
      "ra</w>": 7027,
      "ran</w>": 7028,
      "rout": 7029,
      "sen</w>": 7030,
      "sile</w>": 7031,
      "sick</w>": 7032,
      "season</w>": 7033,
      "sgiving</w>": 7034,
      "tz</w>": 7035,
      "tears</w>": 7036,
      "tment</w>": 7037,
      "tling</w>": 7038,
      "tells</w>": 7039,
      "telling</w>": 7040,
      "trolls</w>": 7041,
      "ud</w>": 7042,
      "vul": 7043,
      "vents</w>": 7044,
      "vember</w>": 7045,
      "wiring</w>": 7046,
      "yours</w>": 7047,
      "zes</w>": 7048,
      "induc": 7049,
      "inser": 7050,
      "inary</w>": 7051,
      "insul": 7052,
      "induction</w>": 7053,
      "inher": 7054,
      "inches</w>": 7055,
      "ership</w>": 7056,
      "ergy</w>": 7057,
      "arity</w>": 7058,
      "arming</w>": 7059,
      "ret</w>": 7060,
      "resta": 7061,
      "remove</w>": 7062,
      "reviews</w>": 7063,
      "resume</w>": 7064,
      "anz</w>": 7065,
      "outages</w>": 7066,
      "ourage</w>": 7067,
      "tique</w>": 7068,
      "orgs</w>": 7069,
      "ened</w>": 7070,
      "enting</w>": 7071,
      "envelope</w>": 7072,
      "ald</w>": 7073,
      "alf</w>": 7074,
      "alize</w>": 7075,
      "rotor</w>": 7076,
      "rotation</w>": 7077,
      "itting</w>": 7078,
      "item</w>": 7079,
      "amed": 7080,
      "atr": 7081,
      "atory</w>": 7082,
      "aco</w>": 7083,
      "acid</w>": 7084,
      "achel": 7085,
      "sty</w>": 7086,
      "stam": 7087,
      "stone</w>": 7088,
      "staged</w>": 7089,
      "stanti": 7090,
      "east</w>": 7091,
      "igible</w>": 7092,
      "ellation</w>": 7093,
      "iced</w>": 7094,
      "Thr": 7095,
      "Thinking</w>": 7096,
      "lows</w>": 7097,
      "urers</w>": 7098,
      "uristic</w>": 7099,
      "buyer</w>": 7100,
      "bureauc": 7101,
      "lists</w>": 7102,
      "trail": 7103,
      "trash</w>": 7104,
      "noting</w>": 7105,
      "notable</w>": 7106,
      "unning</w>": 7107,
      "unelected</w>": 7108,
      "shr": 7109,
      "shut": 7110,
      "shear</w>": 7111,
      "shdown</w>": 7112,
      "sheep</w>": 7113,
      "sheer</w>": 7114,
      "oples</w>": 7115,
      "whel": 7116,
      "whim": 7117,
      "lam</w>": 7118,
      "lative</w>": 7119,
      "hazilla</w>": 7120,
      "ooling</w>": 7121,
      "Test</w>": 7122,
      "dev</w>": 7123,
      "default</w>": 7124,
      "debris</w>": 7125,
      "devices</w>": 7126,
      "comfor": 7127,
      "comedy</w>": 7128,
      "dir": 7129,
      "dig</w>": 7130,
      "dily</w>": 7131,
      "diver": 7132,
      "disp": 7133,
      "dium</w>": 7134,
      "dians</w>": 7135,
      "ration</w>": 7136,
      "rails</w>": 7137,
      "rastructure</w>": 7138,
      "ett</w>": 7139,
      "ette</w>": 7140,
      "poor</w>": 7141,
      "sue</w>": 7142,
      "che</w>": 7143,
      "chann": 7144,
      "irdly</w>": 7145,
      "ulp": 7146,
      "impression</w>": 7147,
      "span</w>": 7148,
      "sphere</w>": 7149,
      "workers</w>": 7150,
      "casts</w>": 7151,
      "evit": 7152,
      "ads</w>": 7153,
      "aday</w>": 7154,
      "advi": 7155,
      "adap": 7156,
      "admi": 7157,
      "adults</w>": 7158,
      "conel</w>": 7159,
      "conserv": 7160,
      "concrete</w>": 7161,
      "near": 7162,
      "neither</w>": 7163,
      "tail</w>": 7164,
      "plum": 7165,
      "cow": 7166,
      "cobal": 7167,
      "grey</w>": 7168,
      "quantum</w>": 7169,
      "ising</w>": 7170,
      "ases</w>": 7171,
      "Steven</w>": 7172,
      "fails</w>": 7173,
      "presum": 7174,
      "prefer": 7175,
      "preference</w>": 7176,
      "pace</w>": 7177,
      "ums</w>": 7178,
      "forms</w>": 7179,
      "host</w>": 7180,
      "Starlinks</w>": 7181,
      "pedia</w>": 7182,
      "peoples</w>": 7183,
      "partly</w>": 7184,
      "parked</w>": 7185,
      "parano": 7186,
      "ourselves</w>": 7187,
      "monkey</w>": 7188,
      "monthly</w>": 7189,
      "flame</w>": 7190,
      "upside</w>": 7191,
      "leaked</w>": 7192,
      "leaders</w>": 7193,
      "cred": 7194,
      "lee</w>": 7195,
      "leon</w>": 7196,
      "boats</w>": 7197,
      "descent</w>": 7198,
      "begging</w>": 7199,
      "tweak</w>": 7200,
      "recall</w>": 7201,
      "White</w>": 7202,
      "Whoop</w>": 7203,
      "izations</w>": 7204,
      "finder</w>": 7205,
      "Alto</w>": 7206,
      "Although</w>": 7207,
      "Alamed": 7208,
      "mini</w>": 7209,
      "Ins": 7210,
      "Insurance</w>": 7211,
      "timel": 7212,
      "strate</w>": 7213,
      "heh</w>": 7214,
      "hide</w>": 7215,
      "loose</w>": 7216,
      "ocks</w>": 7217,
      "fire": 7218,
      "gradu": 7219,
      "lanes</w>": 7220,
      "builds</w>": 7221,
      "buildings</w>": 7222,
      "Ans": 7223,
      "ignite</w>": 7224,
      "tioned</w>": 7225,
      "applies</w>": 7226,
      "conting": 7227,
      "context</w>": 7228,
      "ideal</w>": 7229,
      "sculp": 7230,
      "steps</w>": 7231,
      "Early</w>": 7232,
      "lifts</w>": 7233,
      "lifting</w>": 7234,
      "missi": 7235,
      "Chanos</w>": 7236,
      "Gregor</w>": 7237,
      "sail</w>": 7238,
      "plants</w>": 7239,
      "literal</w>": 7240,
      "tuned</w>": 7241,
      "command</w>": 7242,
      "committed</w>": 7243,
      "earn</w>": 7244,
      "earnings</w>": 7245,
      "eption</w>": 7246,
      "Compu": 7247,
      "futuristic</w>": 7248,
      "cording</w>": 7249,
      "She</w>": 7250,
      "heads</w>": 7251,
      "highways</w>": 7252,
      "hoping</w>": 7253,
      "surr": 7254,
      "excess</w>": 7255,
      "closely</w>": 7256,
      "funded</w>": 7257,
      "audio</w>": 7258,
      "guar": 7259,
      "possibility</w>": 7260,
      "Conven": 7261,
      "00km</w>": 7262,
      "crane</w>": 7263,
      "crush</w>": 7264,
      "thern</w>": 7265,
      "thereafter</w>": 7266,
      "Rococo</w>": 7267,
      "encourage</w>": 7268,
      "trials</w>": 7269,
      "underrated</w>": 7270,
      "Report</w>": 7271,
      "charged</w>": 7272,
      "Loved</w>": 7273,
      "fruit</w>": 7274,
      "ownership</w>": 7275,
      "generated</w>": 7276,
      "mature</w>": 7277,
      "bringing</w>": 7278,
      "merkin</w>": 7279,
      "subway</w>": 7280,
      "suboptimal</w>": 7281,
      "manip": 7282,
      "skins</w>": 7283,
      "skill": 7284,
      "regen</w>": 7285,
      "outfit</w>": 7286,
      "weigh": 7287,
      "wealth</w>": 7288,
      "investing</w>": 7289,
      "invited</w>": 7290,
      "player</w>": 7291,
      "alloc": 7292,
      "Pres": 7293,
      "drove</w>": 7294,
      "payment</w>": 7295,
      "paywall</w>": 7296,
      "Look</w>": 7297,
      "SNL</w>": 7298,
      "SN9</w>": 7299,
      "signals</w>": 7300,
      "volum": 7301,
      "Energy</w>": 7302,
      "Lif": 7303,
      "tainty</w>": 7304,
      "November</w>": 7305,
      "brag</w>": 7306,
      "According</w>": 7307,
      "SoC</w>": 7308,
      "airplanes</w>": 7309,
      "certainty</w>": 7310,
      "drama</w>": 7311,
      "acker</w>": 7312,
      "question": 7313,
      "Bob</w>": 7314,
      "Under</w>": 7315,
      "offset</w>": 7316,
      "facts</w>": 7317,
      "sustained</w>": 7318,
      "sustainability</w>": 7319,
      "shortages</w>": 7320,
      "salt</w>": 7321,
      "blocked</w>": 7322,
      "gehammer</w>": 7323,
      "metap": 7324,
      "flation</w>": 7325,
      "Martin</w>": 7326,
      "whos</w>": 7327,
      "humanitys</w>": 7328,
      "continent</w>": 7329,
      "horse": 7330,
      "horses</w>": 7331,
      "voted</w>": 7332,
      "covers</w>": 7333,
      "covering</w>": 7334,
      "logic</w>": 7335,
      "automatic</w>": 7336,
      "check": 7337,
      "checked</w>": 7338,
      "drawing</w>": 7339,
      "markets</w>": 7340,
      "analysts</w>": 7341,
      "Add</w>": 7342,
      "butt</w>": 7343,
      "beauty</w>": 7344,
      "suggest</w>": 7345,
      "Isnt</w>": 7346,
      "manufacture</w>": 7347,
      "Federal</w>": 7348,
      "Hydro": 7349,
      "silver</w>": 7350,
      "achievable</w>": 7351,
      "regional</w>": 7352,
      "Series</w>": 7353,
      "Seeing</w>": 7354,
      "converted</w>": 7355,
      "avoidance</w>": 7356,
      "barrel</w>": 7357,
      "backpack</w>": 7358,
      "arching</w>": 7359,
      "originally</w>": 7360,
      "Spir": 7361,
      "spoken</w>": 7362,
      "Credit</w>": 7363,
      "Giant</w>": 7364,
      "moments</w>": 7365,
      "moment": 7366,
      "reaches</w>": 7367,
      "printing</w>": 7368,
      "Paris</w>": 7369,
      "Technology</w>": 7370,
      "arrive</w>": 7371,
      "arriving</w>": 7372,
      "download</w>": 7373,
      "downward</w>": 7374,
      "downtown</w>": 7375,
      "surprised</w>": 7376,
      "variants</w>": 7377,
      "tigating</w>": 7378,
      "Sea</w>": 7379,
      "wild": 7380,
      "activity</w>": 7381,
      "Wiki": 7382,
      "WiFi</w>": 7383,
      "odds</w>": 7384,
      "immediate</w>": 7385,
      "communic": 7386,
      "community</w>": 7387,
      "Optim": 7388,
      "apogee</w>": 7389,
      "picked</w>": 7390,
      "residual</w>": 7391,
      "journalism</w>": 7392,
      "Obv</w>": 7393,
      "claim": 7394,
      "mechanics</w>": 7395,
      "acciden": 7396,
      "Mk3</w>": 7397,
      "slowed</w>": 7398,
      "Place</w>": 7399,
      "subsidi": 7400,
      "Heard</w>": 7401,
      "famili": 7402,
      "routing</w>": 7403,
      "Doesn</w>": 7404,
      "entertainment</w>": 7405,
      "Massive</w>": 7406,
      "Wait</w>": 7407,
      "judge</w>": 7408,
      "stiff": 7409,
      "removed</w>": 7410,
      "removal</w>": 7411,
      "politici": 7412,
      "described</w>": 7413,
      "PCs</w>": 7414,
      "View</w>": 7415,
      "switched</w>": 7416,
      "saved</w>": 7417,
      "programmed</w>": 7418,
      "objective</w>": 7419,
      "foundry</w>": 7420,
      "foundational</w>": 7421,
      "infrastructure</w>": 7422,
      "arrays</w>": 7423,
      "recogn": 7424,
      "constraint</w>": 7425,
      "constrained</w>": 7426,
      "patient</w>": 7427,
      "explained</w>": 7428,
      "Static</w>": 7429,
      "wherever</w>": 7430,
      "conveni": 7431,
      "Correct</w>": 7432,
      "Herbert</w>": 7433,
      "circle</w>": 7434,
      "circum": 7435,
      "frequency</w>": 7436,
      "turbopumps</w>": 7437,
      "principles</w>": 7438,
      "Mission</w>": 7439,
      "Pub": 7440,
      "housing</w>": 7441,
      "vaccine</w>": 7442,
      "absurd</w>": 7443,
      "sellers</w>": 7444,
      "refers</w>": 7445,
      "absorb": 7446,
      "method</w>": 7447,
      "startup</w>": 7448,
      "Didn</w>": 7449,
      "Finally</w>": 7450,
      "flip</w>": 7451,
      "destroy</w>": 7452,
      "destroyed</w>": 7453,
      "throughput</w>": 7454,
      "heavily</w>": 7455,
      "blade</w>": 7456,
      "snail</w>": 7457,
      "contribution</w>": 7458,
      "monopoly</w>": 7459,
      "Autom": 7460,
      "Tonga</w>": 7461,
      "museum</w>": 7462,
      "rypton</w>": 7463,
      "inspiring</w>": 7464,
      "renewable</w>": 7465,
      "ightness</w>": 7466,
      "Instead</w>": 7467,
      "acceptable</w>": 7468,
      "requirements</w>": 7469,
      "opportunity</w>": 7470,
      "opportunities</w>": 7471,
      "Holly": 7472,
      "speech</w>": 7473,
      "castle</w>": 7474,
      "prevented</w>": 7475,
      "compensation</w>": 7476,
      "spaceport</w>": 7477,
      "Megapack</w>": 7478,
      "Megapacks</w>": 7479,
      "Hardcore</w>": 7480,
      "Reminder</w>": 7481,
      "McGregor</w>": 7482,
      "penalty</w>": 7483,
      "rescue</w>": 7484,
      "revolution</w>": 7485,
      "steadily</w>": 7486,
      "projects</w>": 7487,
      "execution</w>": 7488,
      "permanent</w>": 7489,
      "Ashlee</w>": 7490,
      "Machine</w>": 7491,
      "Yep</w>": 7492,
      "deeply</w>": 7493,
      "justice</w>": 7494,
      "tools</w>": 7495,
      "toughest</w>": 7496,
      "wrapped</w>": 7497,
      "retired</w>": 7498,
      "bullet</w>": 7499,
      "distracted</w>": 7500,
      "afternoon</w>": 7501,
      "pathfinder</w>": 7502,
      "smarter</w>": 7503,
      "corona</w>": 7504,
      "taxpayers</w>": 7505,
      "weapons</w>": 7506,
      "Floki</w>": 7507,
      "Metal</w>": 7508,
      "Navigate</w>": 7509,
      "Penn</w>": 7510,
      "Woohoo</w>": 7511,
      "felt</w>": 7512,
      "nominal</w>": 7513,
      "thesis</w>": 7514,
      "enemy</w>": 7515,
      "podcasts</w>": 7516,
      "ledgehammer</w>": 7517,
      "expect": 7518,
      "approaching</w>": 7519,
      "illustrate</w>": 7520,
      "algorithm</w>": 7521,
      "unequivocally</w>": 7522,
      "Blade</w>": 7523,
      "Radar</w>": 7524,
      "datab": 7525,
      "twist</w>": 7526,
      "wisdom</w>": 7527,
      "Thanksgiving</w>": 7528,
      "sheets</w>": 7529,
      "Investigating</w>": 7530,
      "Angel": 7531,
      "scratch</w>": 7532,
      "spacesuit</w>": 7533,
      "stitute</w>": 7534,
      "Culture</w>": 7535,
      "Facebook</w>": 7536,
      "IPO</w>": 7537,
      "LOX</w>": 7538,
      "Mountain</w>": 7539,
      "TVC</w>": 7540,
      "hrs</w>": 7541,
      "homeowner</w>": 7542,
      "young</w>": 7543,
      "illiant</w>": 7544,
      "exposure</w>": 7545,
      "coffee</w>": 7546,
      "accounting</w>": 7547,
      "Product</w>": 7548,
      "aughty</w>": 7549,
      "Regarding</w>": 7550,
      "warranty</w>": 7551,
      "philo": 7552,
      "Advanced</w>": 7553,
      "Buffett</w>": 7554,
      "graphics</w>": 7555,
      "Ascent</w>": 7556,
      "Civil": 7557,
      "Clearly</w>": 7558,
      "Douglas</w>": 7559,
      "Draco</w>": 7560,
      "ETH</w>": 7561,
      "Easy</w>": 7562,
      "Faraday</w>": 7563,
      "Gwyn": 7564,
      "Music</w>": 7565,
      "Mechazilla</w>": 7566,
      "NNs</w>": 7567,
      "Napoleon</w>": 7568,
      "Nikola</w>": 7569,
      "Succ": 7570,
      "Saints</w>": 7571,
      "Sweden</w>": 7572,
      "Stainless</w>": 7573,
      "Taycan</w>": 7574,
      "natural</w>": 7575,
      "psi</w>": 7576,
      "vulner": 7577,
      "shutdown</w>": 7578,
      "channels</w>": 7579,
      "cobalt</w>": 7580,
      "Alameda</w>": 7581,
      "momentum</w>": 7582,
      "Wikipedia</w>": 7583,
      "politicians</w>": 7584,
      "Hollywood</w>": 7585,
      "1k</w>": 7586,
      "120</w>": 7587,
      "45</w>": 7588,
      "5B</w>": 7589,
      "5000</w>": 7590,
      "7500</w>": 7591,
      "Adam": 7592,
      "Ask</w>": 7593,
      "ATV</w>": 7594,
      "BS</w>": 7595,
      "Bill</w>": 7596,
      "Bot</w>": 7597,
      "Bad</w>": 7598,
      "Beli": 7599,
      "BBC</w>": 7600,
      "BMW</w>": 7601,
      "Biden</w>": 7602,
      "Cou": 7603,
      "Cal": 7604,
      "Clo": 7605,
      "Cha": 7606,
      "Come</w>": 7607,
      "Clim": 7608,
      "Chad</w>": 7609,
      "Cover": 7610,
      "Cook</w>": 7611,
      "COP": 7612,
      "Cumulative</w>": 7613,
      "DM": 7614,
      "Du": 7615,
      "Den": 7616,
      "Dro": 7617,
      "Das</w>": 7618,
      "Dra": 7619,
      "Dark</w>": 7620,
      "Eri": 7621,
      "Emp": 7622,
      "Fro": 7623,
      "Fig": 7624,
      "FDA</w>": 7625,
      "GA": 7626,
      "Gat": 7627,
      "Gas</w>": 7628,
      "Gra": 7629,
      "Grid</w>": 7630,
      "GTO</w>": 7631,
      "Hen": 7632,
      "Hit": 7633,
      "Hun": 7634,
      "Hate</w>": 7635,
      "Homes</w>": 7636,
      "Halo</w>": 7637,
      "Iri": 7638,
      "Ich</w>": 7639,
      "Jay</w>": 7640,
      "Jef": 7641,
      "Ker": 7642,
      "Larg": 7643,
      "Loc": 7644,
      "Leg": 7645,
      "Mat": 7646,
      "Man</w>": 7647,
      "Mem": 7648,
      "None</w>": 7649,
      "Nvi": 7650,
      "Neither</w>": 7651,
      "Needed</w>": 7652,
      "Offic": 7653,
      "PR</w>": 7654,
      "Pay</w>": 7655,
      "Pho": 7656,
      "RE": 7657,
      "RD</w>": 7658,
      "Rac": 7659,
      "Resp": 7660,
      "Revol": 7661,
      "SE": 7662,
      "SS": 7663,
      "Sha": 7664,
      "Spe": 7665,
      "Sant": 7666,
      "Sandy</w>": 7667,
      "TS": 7668,
      "Ter": 7669,
      "Tight</w>": 7670,
      "Tough</w>": 7671,
      "Trag": 7672,
      "Us": 7673,
      "USB</w>": 7674,
      "VA": 7675,
      "Vol": 7676,
      "Vance</w>": 7677,
      "VTO": 7678,
      "Wo": 7679,
      "Wil": 7680,
      "Wars</w>": 7681,
      "West</w>": 7682,
      "Wings</w>": 7683,
      "Wanted</w>": 7684,
      "Xavi": 7685,
      "Yet</w>": 7686,
      "Zee": 7687,
      "Zeal": 7688,
      "ai</w>": 7689,
      "ati": 7690,
      "awe</w>": 7691,
      "aero": 7692,
      "adise</w>": 7693,
      "ba</w>": 7694,
      "bac": 7695,
      "bear</w>": 7696,
      "bble</w>": 7697,
      "barg": 7698,
      "beam</w>": 7699,
      "blower</w>": 7700,
      "bled</w>": 7701,
      "blood</w>": 7702,
      "card</w>": 7703,
      "ced": 7704,
      "cures</w>": 7705,
      "dd": 7706,
      "dust</w>": 7707,
      "dating</w>": 7708,
      "dability</w>": 7709,
      "dinal</w>": 7710,
      "duration</w>": 7711,
      "etion</w>": 7712,
      "eball</w>": 7713,
      "fate</w>": 7714,
      "factu": 7715,
      "fought</w>": 7716,
      "fish</w>": 7717,
      "gan</w>": 7718,
      "glit": 7719,
      "gment</w>": 7720,
      "glas": 7721,
      "hi</w>": 7722,
      "hat": 7723,
      "hill</w>": 7724,
      "hex": 7725,
      "hour": 7726,
      "hats</w>": 7727,
      "hang</w>": 7728,
      "hello</w>": 7729,
      "ided</w>": 7730,
      "itive</w>": 7731,
      "ius</w>": 7732,
      "iPhone</w>": 7733,
      "jammed</w>": 7734,
      "ka</w>": 7735,
      "luc": 7736,
      "lem": 7737,
      "lich</w>": 7738,
      "ludicrous</w>": 7739,
      "mut": 7740,
      "mic</w>": 7741,
      "nes": 7742,
      "names</w>": 7743,
      "neling</w>": 7744,
      "naturally</w>": 7745,
      "oid</w>": 7746,
      "pes</w>": 7747,
      "pet": 7748,
      "pays</w>": 7749,
      "pool</w>": 7750,
      "rig": 7751,
      "ral</w>": 7752,
      "rights</w>": 7753,
      "racy</w>": 7754,
      "sars</w>": 7755,
      "seas</w>": 7756,
      "south</w>": 7757,
      "scores</w>": 7758,
      "slam</w>": 7759,
      "tar": 7760,
      "tely</w>": 7761,
      "tine</w>": 7762,
      "text</w>": 7763,
      "targ": 7764,
      "tank": 7765,
      "uts</w>": 7766,
      "ume</w>": 7767,
      "utionary</w>": 7768,
      "vit": 7769,
      "vat</w>": 7770,
      "vig": 7771,
      "varies</w>": 7772,
      "wav": 7773,
      "yn</w>": 7774,
      "ye</w>": 7775,
      "yable</w>": 7776,
      "yota</w>": 7777,
      "za</w>": 7778,
      "zero": 7779,
      "ind": 7780,
      "inver": 7781,
      "info": 7782,
      "inaccurate</w>": 7783,
      "informed</w>": 7784,
      "instructions</w>": 7785,
      "infinite</w>": 7786,
      "erc": 7787,
      "arl</w>": 7788,
      "aring</w>": 7789,
      "reb": 7790,
      "ren</w>": 7791,
      "refu": 7792,
      "redesign</w>": 7793,
      "rels</w>": 7794,
      "removing</w>": 7795,
      "refer</w>": 7796,
      "reinfor": 7797,
      "reply</w>": 7798,
      "retains</w>": 7799,
      "restored</w>": 7800,
      "aner</w>": 7801,
      "timon": 7802,
      "tible</w>": 7803,
      "title</w>": 7804,
      "ori</w>": 7805,
      "orous</w>": 7806,
      "ordin": 7807,
      "eng</w>": 7808,
      "enhanced</w>": 7809,
      "encounter": 7810,
      "albe": 7811,
      "estly</w>": 7812,
      "roaming</w>": 7813,
      "rooms</w>": 7814,
      "iti</w>": 7815,
      "itter</w>": 7816,
      "iters</w>": 7817,
      "itement</w>": 7818,
      "items</w>": 7819,
      "ampo": 7820,
      "amine</w>": 7821,
      "aten</w>": 7822,
      "actic</w>": 7823,
      "acopter</w>": 7824,
      "ila</w>": 7825,
      "ilis": 7826,
      "stro": 7827,
      "stes</w>": 7828,
      "stability</w>": 7829,
      "stacking</w>": 7830,
      "stands</w>": 7831,
      "steal</w>": 7832,
      "stening</w>": 7833,
      "omo</w>": 7834,
      "omberg</w>": 7835,
      "eled</w>": 7836,
      "element</w>": 7837,
      "Thought</w>": 7838,
      "logo</w>": 7839,
      "loses</w>": 7840,
      "locked</w>": 7841,
      "abies</w>": 7842,
      "absolut": 7843,
      "aborted</w>": 7844,
      "ectors</w>": 7845,
      "bud": 7846,
      "buff</w>": 7847,
      "pros</w>": 7848,
      "promo": 7849,
      "promin": 7850,
      "lip": 7851,
      "lion": 7852,
      "liest</w>": 7853,
      "lidar</w>": 7854,
      "lives": 7855,
      "sir</w>": 7856,
      "sized</w>": 7857,
      "tru": 7858,
      "trun": 7859,
      "tration</w>": 7860,
      "trading</w>": 7861,
      "trapped</w>": 7862,
      "uncertainty</w>": 7863,
      "shell</w>": 7864,
      "sheet</w>": 7865,
      "shops</w>": 7866,
      "mad</w>": 7867,
      "mask</w>": 7868,
      "mainten": 7869,
      "masks</w>": 7870,
      "oper</w>": 7871,
      "whist": 7872,
      "lair</w>": 7873,
      "laps</w>": 7874,
      "hashing</w>": 7875,
      "exha": 7876,
      "extin": 7877,
      "extra": 7878,
      "ucker</w>": 7879,
      "detect</w>": 7880,
      "devil</w>": 7881,
      "comet</w>": 7882,
      "composite</w>": 7883,
      "vering</w>": 7884,
      "dient</w>": 7885,
      "diap": 7886,
      "dimen": 7887,
      "ram</w>": 7888,
      "rational</w>": 7889,
      "eters</w>": 7890,
      "rif": 7891,
      "rix</w>": 7892,
      "modes</w>": 7893,
      "pock": 7894,
      "poll</w>": 7895,
      "sup": 7896,
      "chron": 7897,
      "irc</w>": 7898,
      "impl": 7899,
      "import": 7900,
      "immen": 7901,
      "imply</w>": 7902,
      "impulse</w>": 7903,
      "work": 7904,
      "cake</w>": 7905,
      "tering</w>": 7906,
      "terly</w>": 7907,
      "tow": 7908,
      "toast</w>": 7909,
      "ado</w>": 7910,
      "adds</w>": 7911,
      "adult</w>": 7912,
      "conduc": 7913,
      "concen": 7914,
      "conference</w>": 7915,
      "constitu": 7916,
      "utal</w>": 7917,
      "taught</w>": 7918,
      "door": 7919,
      "dogs</w>": 7920,
      "plenty</w>": 7921,
      "theater</w>": 7922,
      "coefficient</w>": 7923,
      "coaster</w>": 7924,
      "ques</w>": 7925,
      "ission</w>": 7926,
      "isms</w>": 7927,
      "effor": 7928,
      "Steve</w>": 7929,
      "fatig": 7930,
      "preh": 7931,
      "prefer</w>": 7932,
      "president</w>": 7933,
      "preparing</w>": 7934,
      "permit</w>": 7935,
      "seal": 7936,
      "seam": 7937,
      "seater</w>": 7938,
      "hod": 7939,
      "holy</w>": 7940,
      "Starfleet</w>": 7941,
      "Starman</w>": 7942,
      "cip": 7943,
      "peace</w>": 7944,
      "pearl</w>": 7945,
      "flush</w>": 7946,
      "flamethrowers</w>": 7947,
      "producing</w>": 7948,
      "creative</w>": 7949,
      "lep": 7950,
      "ley</w>": 7951,
      "Spaceship</w>": 7952,
      "bother</w>": 7953,
      "wipe</w>": 7954,
      "destruc": 7955,
      "beg</w>": 7956,
      "begun</w>": 7957,
      "puff</w>": 7958,
      "recru": 7959,
      "recirc</w>": 7960,
      "metry</w>": 7961,
      "Whe": 7962,
      "porting</w>": 7963,
      "drive": 7964,
      "finest</w>": 7965,
      "Int": 7966,
      "Inten": 7967,
      "Infinite</w>": 7968,
      "strat": 7969,
      "actuator</w>": 7970,
      "argh</w>": 7971,
      "hidden</w>": 7972,
      "compiler</w>": 7973,
      "Provi": 7974,
      "angers</w>": 7975,
      "Trick": 7976,
      "Trans": 7977,
      "millin": 7978,
      "Andre": 7979,
      "content</w>": 7980,
      "contest</w>": 7981,
      "expense</w>": 7982,
      "expects</w>": 7983,
      "bias</w>": 7984,
      "interviews</w>": 7985,
      "prize</w>": 7986,
      "pre</w>": 7987,
      "andw": 7988,
      "reads</w>": 7989,
      "Change</w>": 7990,
      "sentation</w>": 7991,
      "sations</w>": 7992,
      "alities</w>": 7993,
      "tren": 7994,
      "treating</w>": 7995,
      "liter": 7996,
      "tuning</w>": 7997,
      "tunneling</w>": 7998,
      "commit": 7999,
      "earthqua": 8000,
      "boom</w>": 8001,
      "requests</w>": 8002,
      "pressurized</w>": 8003,
      "Comes</w>": 8004,
      "Comments</w>": 8005,
      "utopark</w>": 8006,
      "corruption</w>": 8007,
      "incremental</w>": 8008,
      "ancements</w>": 8009,
      "anctimon": 8010,
      "electrical</w>": 8011,
      "complac": 8012,
      "complicated</w>": 8013,
      "clock</w>": 8014,
      "DoD</w>": 8015,
      "counts</w>": 8016,
      "Sustain": 8017,
      "00M</w>": 8018,
      "limiting</w>": 8019,
      "limbic</w>": 8020,
      "curated</w>": 8021,
      "cards</w>": 8022,
      "carefully</w>": 8023,
      "carmaker</w>": 8024,
      "carried</w>": 8025,
      "career</w>": 8026,
      "carrying</w>": 8027,
      "ulah</w>": 8028,
      "award</w>": 8029,
      "awful</w>": 8030,
      "craters</w>": 8031,
      "seemed</w>": 8032,
      "therings</w>": 8033,
      "encing</w>": 8034,
      "trim</w>": 8035,
      "valves</w>": 8036,
      "Los</w>": 8037,
      "temps</w>": 8038,
      "adven": 8039,
      "owns</w>": 8040,
      "owned</w>": 8041,
      "matches</w>": 8042,
      "Max": 8043,
      "brand</w>": 8044,
      "bricks</w>": 8045,
      "brightness</w>": 8046,
      "brutal</w>": 8047,
      "overla": 8048,
      "override</w>": 8049,
      "oversight</w>": 8050,
      "overwhel": 8051,
      "merely</w>": 8052,
      "merger</w>": 8053,
      "suborbital</w>": 8054,
      "subsonic</w>": 8055,
      "substanti": 8056,
      "gain</w>": 8057,
      "gatherings</w>": 8058,
      "critique</w>": 8059,
      "joints</w>": 8060,
      "joining</w>": 8061,
      "mani": 8062,
      "skull</w>": 8063,
      "skirt</w>": 8064,
      "regime</w>": 8065,
      "outstanding</w>": 8066,
      "outlets</w>": 8067,
      "invite</w>": 8068,
      "Superdr": 8069,
      "plaid</w>": 8070,
      "Presentation</w>": 8071,
      "upgradable</w>": 8072,
      "paying</w>": 8073,
      "payments</w>": 8074,
      "payloads</w>": 8075,
      "Work</w>": 8076,
      "signature</w>": 8077,
      "affecting</w>": 8078,
      "icker</w>": 8079,
      "operates</w>": 8080,
      "Likely</w>": 8081,
      "Lithium</w>": 8082,
      "Listening</w>": 8083,
      "tained</w>": 8084,
      "burst</w>": 8085,
      "brave</w>": 8086,
      "editor</w>": 8087,
      "Active</w>": 8088,
      "capture</w>": 8089,
      "captured</w>": 8090,
      "endation</w>": 8091,
      "colony</w>": 8092,
      "intro": 8093,
      "intent</w>": 8094,
      "intact</w>": 8095,
      "ulator</w>": 8096,
      "Fire</w>": 8097,
      "mise</w>": 8098,
      "Unlike</w>": 8099,
      "Unlikely</w>": 8100,
      "throat</w>": 8101,
      "GoT</w>": 8102,
      "offers</w>": 8103,
      "Law</w>": 8104,
      "Lake</w>": 8105,
      "ailed</w>": 8106,
      "mentions</w>": 8107,
      "mented</w>": 8108,
      "shortage</w>": 8109,
      "kins</w>": 8110,
      "decent</w>": 8111,
      "decreas": 8112,
      "lick</w>": 8113,
      "licensing</w>": 8114,
      "anna</w>": 8115,
      "Today</w>": 8116,
      "Tower</w>": 8117,
      "Toyota</w>": 8118,
      "incent</w>": 8119,
      "Audi</w>": 8120,
      "blown</w>": 8121,
      "blocks</w>": 8122,
      "attacks</w>": 8123,
      "Powerpack</w>": 8124,
      "filled</w>": 8125,
      "competitor</w>": 8126,
      "taxi</w>": 8127,
      "tropy</w>": 8128,
      "horse</w>": 8129,
      "recommendation</w>": 8130,
      "manual</w>": 8131,
      "manually</w>": 8132,
      "voting</w>": 8133,
      "itudinal</w>": 8134,
      "studio</w>": 8135,
      "automakers</w>": 8136,
      "belted</w>": 8137,
      "Someone</w>": 8138,
      "locally</w>": 8139,
      "Meaning</w>": 8140,
      "Excession</w>": 8141,
      "Flint</w>": 8142,
      "Post</w>": 8143,
      "Power</w>": 8144,
      "tonnage</w>": 8145,
      "disclo": 8146,
      "functions</w>": 8147,
      "breaking</w>": 8148,
      "breathing</w>": 8149,
      "panic</w>": 8150,
      "panel</w>": 8151,
      "cyber": 8152,
      "streams</w>": 8153,
      "streaming</w>": 8154,
      "simulations</w>": 8155,
      "approx</w>": 8156,
      "spires</w>": 8157,
      "business</w>": 8158,
      "supportive</w>": 8159,
      "brother</w>": 8160,
      "suggesting</w>": 8161,
      "champi": 8162,
      "unveiled</w>": 8163,
      "unveiling</w>": 8164,
      "superpower</w>": 8165,
      "viewing</w>": 8166,
      "manufacturers</w>": 8167,
      "Feature</w>": 8168,
      "Franz</w>": 8169,
      "holds</w>": 8170,
      "transpor": 8171,
      "carbons</w>": 8172,
      "purple</w>": 8173,
      "specs</w>": 8174,
      "spective</w>": 8175,
      "quarks</w>": 8176,
      "Apparently</w>": 8177,
      "usual</w>": 8178,
      "processes</w>": 8179,
      "flown</w>": 8180,
      "Build</w>": 8181,
      "mug</w>": 8182,
      "touching</w>": 8183,
      "considerably</w>": 8184,
      "sourced</w>": 8185,
      "potentially</w>": 8186,
      "handful</w>": 8187,
      "labs</w>": 8188,
      "Bring</w>": 8189,
      "Bricks</w>": 8190,
      "HW1</w>": 8191,
      "popular</w>": 8192,
      "Atmosp": 8193,
      "Tap</w>": 8194,
      "Take</w>": 8195,
      "Taking</w>": 8196,
      "Techn": 8197,
      "fresh</w>": 8198,
      "continued</w>": 8199,
      "grows</w>": 8200,
      "various</w>": 8201,
      "replacing</w>": 8202,
      "minimizing</w>": 8203,
      "Blue</w>": 8204,
      "Free": 8205,
      "Quite</w>": 8206,
      "donated</w>": 8207,
      "donating</w>": 8208,
      "hundred</w>": 8209,
      "affordability</w>": 8210,
      "synchron": 8211,
      "hydrocarbons</w>": 8212,
      "Phili": 8213,
      "equally</w>": 8214,
      "equation</w>": 8215,
      "chief</w>": 8216,
      "connection</w>": 8217,
      "connecting</w>": 8218,
      "connector</w>": 8219,
      "helped</w>": 8220,
      "Opposite</w>": 8221,
      "particular</w>": 8222,
      "SolarGlass</w>": 8223,
      "borne</w>": 8224,
      "mechanically</w>": 8225,
      "ssy</w>": 8226,
      "cryptocurrency</w>": 8227,
      "Dave</w>": 8228,
      "Dawn</w>": 8229,
      "decided</w>": 8230,
      "reasoning</w>": 8231,
      "advertise</w>": 8232,
      "Plan</w>": 8233,
      "smoother</w>": 8234,
      "biological</w>": 8235,
      "10k</w>": 8236,
      "Heat</w>": 8237,
      "Heart</w>": 8238,
      "Upcoming</w>": 8239,
      "myth</w>": 8240,
      "setbacks</w>": 8241,
      "trickery</w>": 8242,
      "dealing</w>": 8243,
      "controlling</w>": 8244,
      "GPT</w>": 8245,
      "Ironic</w>": 8246,
      "entering</w>": 8247,
      "opolies</w>": 8248,
      "sequel</w>": 8249,
      "healthy</w>": 8250,
      "cyclists</w>": 8251,
      "Guaranteed</w>": 8252,
      "judic": 8253,
      "remote</w>": 8254,
      "remotely</w>": 8255,
      "constant</w>": 8256,
      "description</w>": 8257,
      "competed</w>": 8258,
      "crushed</w>": 8259,
      "crushing</w>": 8260,
      "challenging</w>": 8261,
      "assembled</w>": 8262,
      "savings</w>": 8263,
      "collective</w>": 8264,
      "finishing</w>": 8265,
      "50M</w>": 8266,
      "Little</w>": 8267,
      "Secret</w>": 8268,
      "recognition</w>": 8269,
      "Thurs</w>": 8270,
      "disaster</w>": 8271,
      "news": 8272,
      "partial</w>": 8273,
      "meaning</w>": 8274,
      "survive</w>": 8275,
      "Price</w>": 8276,
      "Signing</w>": 8277,
      "Signific": 8278,
      "Warning</w>": 8279,
      "Warren</w>": 8280,
      "dash": 8281,
      "reflective</w>": 8282,
      "retrofit</w>": 8283,
      "holidays</w>": 8284,
      "Hertz</w>": 8285,
      "clearing</w>": 8286,
      "frequently</w>": 8287,
      "roadmap</w>": 8288,
      "profitable</w>": 8289,
      "graphic</w>": 8290,
      "explode</w>": 8291,
      "employee</w>": 8292,
      "mentioning</w>": 8293,
      "stopping</w>": 8294,
      "adjusting</w>": 8295,
      "connect</w>": 8296,
      "convincing</w>": 8297,
      "Detail</w>": 8298,
      "Honestly</w>": 8299,
      "Surface</w>": 8300,
      "cancel</w>": 8301,
      "promised</w>": 8302,
      "splashdown</w>": 8303,
      "configurator</w>": 8304,
      "esthetic</w>": 8305,
      "elevators</w>": 8306,
      "opened</w>": 8307,
      "pointed</w>": 8308,
      "headline</w>": 8309,
      "simultaneous</w>": 8310,
      "characters</w>": 8311,
      "emojis</w>": 8312,
      "brief</w>": 8313,
      "melting</w>": 8314,
      "snake</w>": 8315,
      "Possible</w>": 8316,
      "mirror</w>": 8317,
      "spirit</w>": 8318,
      "emergency</w>": 8319,
      "emerald</w>": 8320,
      "shifts</w>": 8321,
      "shifting</w>": 8322,
      "financially</w>": 8323,
      "Godspeed</w>": 8324,
      "Odds</w>": 8325,
      "Weird</w>": 8326,
      "repeated</w>": 8327,
      "lowering</w>": 8328,
      "castings</w>": 8329,
      "compensate</w>": 8330,
      "painted</w>": 8331,
      "painful</w>": 8332,
      "hypocr": 8333,
      "spaceports</w>": 8334,
      "FP32</w>": 8335,
      "Manu": 8336,
      "Planning</w>": 8337,
      "intuitive</w>": 8338,
      "referral</w>": 8339,
      "steady</w>": 8340,
      "detection</w>": 8341,
      "detected</w>": 8342,
      "neurons</w>": 8343,
      "quote</w>": 8344,
      "partners</w>": 8345,
      "Complet": 8346,
      "transmission</w>": 8347,
      "temporary</w>": 8348,
      "maneuvering</w>": 8349,
      "believing</w>": 8350,
      "Ariane</w>": 8351,
      "Formula</w>": 8352,
      "Limited</w>": 8353,
      "Senate</w>": 8354,
      "aspire</w>": 8355,
      "narrow</w>": 8356,
      "soul</w>": 8357,
      "reviewed</w>": 8358,
      "entralized</w>": 8359,
      "flatable</w>": 8360,
      "experienced</w>": 8361,
      "touchdown</w>": 8362,
      "touchscreen</w>": 8363,
      "Approximately</w>": 8364,
      "Effect</w>": 8365,
      "Tintin</w>": 8366,
      "Touch</w>": 8367,
      "Talulah</w>": 8368,
      "Value</w>": 8369,
      "inspection</w>": 8370,
      "bumper</w>": 8371,
      "modified</w>": 8372,
      "pointless</w>": 8373,
      "choosing</w>": 8374,
      "ternary</w>": 8375,
      "Shortfall</w>": 8376,
[...]
