{
  "version": "1.0",
  "truncation": null,
  "padding": null,
  "added_tokens": [
    {
      "id": 0,
      "content": "<s>",
      "single_word": false,
      "lstrip": false,
      "rstrip": false,
      "normalized": false,
      "special": true
    },
    {
      "id": 1,
      "content": "<pad>",
      "single_word": false,
      "lstrip": false,
      "rstrip": false,
      "normalized": false,
      "special": true
    },
    {
      "id": 2,
      "content": "</s>",
      "single_word": false,
      "lstrip": false,
      "rstrip": false,
      "normalized": false,
      "special": true
    },
    {
      "id": 3,
      "content": "<unk>",
      "single_word": false,
      "lstrip": false,
      "rstrip": false,
      "normalized": false,
      "special": true
    },
    {
      "id": 4,
      "content": "<mask>",
      "single_word": false,
      "lstrip": false,
      "rstrip": false,
      "normalized": false,
      "special": true
    }
  ],
  "normalizer": {
    "type": "BertNormalizer",
    "clean_text": true,
    "handle_chinese_chars": true,
    "strip_accents": null,
    "lowercase": false
  },
  "pre_tokenizer": {
    "type": "BertPreTokenizer"
  },
  "post_processor": null,
  "decoder": {
    "type": "BPEDecoder",
    "suffix": "</w>"
  },
  "model": {
    "type": "BPE",
    "dropout": null,
    "unk_token": null,
    "continuing_subword_prefix": null,
    "end_of_word_suffix": "</w>",
    "fuse_unk": false,
    "vocab": {
      "<s>": 0,
      "<pad>": 1,
      "</s>": 2,
      "<unk>": 3,
      "<mask>": 4,
      "!": 5,
      "$": 6,
      "(": 7,
      ")": 8,
      "*": 9,
      ",": 10,
      "-": 11,
      ".": 12,
      "0": 13,
      "1": 14,
      "2": 15,
      "3": 16,
      "4": 17,
      "5": 18,
      "6": 19,
      "7": 20,
      "8": 21,
      "9": 22,
      ":": 23,
      ";": 24,
      "?": 25,
      "A": 26,
      "B": 27,
      "C": 28,
      "D": 29,
      "E": 30,
      "F": 31,
      "G": 32,
      "H": 33,
      "I": 34,
      "J": 35,
      "K": 36,
      "L": 37,
      "M": 38,
      "N": 39,
      "O": 40,
      "P": 41,
      "Q": 42,
      "R": 43,
      "S": 44,
      "T": 45,
      "U": 46,
      "V": 47,
      "W": 48,
      "X": 49,
      "Y": 50,
      "[": 51,
      "]": 52,
      "a": 53,
      "b": 54,
      "c": 55,
      "d": 56,
      "e": 57,
      "f": 58,
      "g": 59,
      "h": 60,
      "i": 61,
      "j": 62,
      "k": 63,
      "l": 64,
      "m": 65,
      "n": 66,
      "o": 67,
      "p": 68,
      "q": 69,
      "r": 70,
      "s": 71,
      "t": 72,
      "u": 73,
      "v": 74,
      "w": 75,
      "x": 76,
      "y": 77,
      "z": 78,
      "ç": 79,
      "é": 80,
      "ê": 81,
      "ô": 82,
      "—": 83,
      "‘": 84,
      "’": 85,
      "“": 86,
      "”": 87,
      "…": 88,
      "r</w>": 89,
      "l</w>": 90,
      "t</w>": 91,
      "w</w>": 92,
      "g</w>": 93,
      "e</w>": 94,
      "y</w>": 95,
      "n</w>": 96,
      "p</w>": 97,
      "d</w>": 98,
      "a</w>": 99,
      "s</w>": 100,
      "k</w>": 101,
      "h</w>": 102,
      "c</w>": 103,
      "I</w>": 104,
      "m</w>": 105,
      "i</w>": 106,
      "o</w>": 107,
      "z</w>": 108,
      "6</w>": 109,
      "]</w>": 110,
      "b</w>": 111,
      "f</w>": 112,
      "G</w>": 113,
      "x</w>": 114,
      "V</w>": 115,
      "’</w>": 116,
      "R</w>": 117,
      "9</w>": 118,
      "F</w>": 119,
      "2</w>": 120,
      "C</w>": 121,
      "”</w>": 122,
      "0</w>": 123,
      "(</w>": 124,
      "3</w>": 125,
      "“</w>": 126,
      "$</w>": 127,
      "5</w>": 128,
      "S</w>": 129,
      ")</w>": 130,
      "é</w>": 131,
      ":</w>": 132,
      "B</w>": 133,
      "A</w>": 134,
      "W</w>": 135,
      "4</w>": 136,
      "u</w>": 137,
      "-</w>": 138,
      "‘</w>": 139,
      "L</w>": 140,
      "D</w>": 141,
      "N</w>": 142,
      ",</w>": 143,
      "v</w>": 144,
      ";</w>": 145,
      "—</w>": 146,
      "X</w>": 147,
      "7</w>": 148,
      "8</w>": 149,
      ".</w>": 150,
      "[</w>": 151,
      "!</w>": 152,
      "*</w>": 153,
      "?</w>": 154,
      "…</w>": 155,
      "T</w>": 156,
      "M</w>": 157,
      "J</w>": 158,
      "P</w>": 159,
      "O</w>": 160,
      "th": 161,
      "in": 162,
      "an": 163,
      "ed</w>": 164,
      "the</w>": 165,
      "ou": 166,
      "er": 167,
      "and</w>": 168,
      "er</w>": 169,
      "ing</w>": 170,
      "wa": 171,
      "at</w>": 172,
      "to</w>": 173,
      "he</w>": 174,
      "hi": 175,
      "ar": 176,
      "en": 177,
      "of</w>": 178,
      "or": 179,
      "on": 180,
      "re": 181,
      "it": 182,
      "on</w>": 183,
      "st": 184,
      "in</w>": 185,
      "ha": 186,
      "ly</w>": 187,
      "en</w>": 188,
      "me</w>": 189,
      "at": 190,
      "ro": 191,
      "al": 192,
      "was</w>": 193,
      "an</w>": 194,
      "el": 195,
      "es</w>": 196,
      "ai": 197,
      "that</w>": 198,
      "st</w>": 199,
      "lo": 200,
      "or</w>": 201,
      "ac": 202,
      "ere</w>": 203,
      "le</w>": 204,
      "li": 205,
      "gh": 206,
      "ri": 207,
      "ou</w>": 208,
      "it</w>": 209,
      "be": 210,
      "his</w>": 211,
      "ve</w>": 212,
      "no": 213,
      "wh": 214,
      "ti": 215,
      "ol": 216,
      "ith</w>": 217,
      "se</w>": 218,
      "om": 219,
      "si": 220,
      "with</w>": 221,
      "you</w>": 222,
      "le": 223,
      "un": 224,
      "ur": 225,
      "out</w>": 226,
      "ght</w>": 227,
      "by</w>": 228,
      "had</w>": 229,
      "her</w>": 230,
      "ca": 231,
      "do": 232,
      "di": 233,
      "ent</w>": 234,
      "ev": 235,
      "ab": 236,
      "la": 237,
      "he": 238,
      "ic": 239,
      "is</w>": 240,
      "ra": 241,
      "ut</w>": 242,
      "for</w>": 243,
      "the": 244,
      "she</w>": 245,
      "om</w>": 246,
      "sh": 247,
      "il": 248,
      "him</w>": 249,
      "ss</w>": 250,
      "se": 251,
      "one</w>": 252,
      "as</w>": 253,
      "Gat": 254,
      "su": 255,
      "ne": 256,
      "to": 257,
      "ir": 258,
      "all</w>": 259,
      "sp": 260,
      "sby</w>": 261,
      "Gatsby</w>": 262,
      "oun": 263,
      "ov": 264,
      "aid</w>": 265,
      "ag": 266,
      "ke</w>": 267,
      "He</w>": 268,
      "wn</w>": 269,
      "de": 270,
      "my</w>": 271,
      "fro": 272,
      "ked</w>": 273,
      "for": 274,
      "said</w>": 275,
      "ch</w>": 276,
      "ther</w>": 277,
      "ome</w>": 278,
      "from</w>": 279,
      "pp": 280,
      "as": 281,
      "et</w>": 282,
      "ad": 283,
      "ted</w>": 284,
      "go": 285,
      "em": 286,
      "ter</w>": 287,
      "ce</w>": 288,
      "ais": 289,
      "thing</w>": 290,
      "oul": 291,
      "our</w>": 292,
      "whi": 293,
      "now</w>": 294,
      "Tom</w>": 295,
      "up</w>": 296,
      "but</w>": 297,
      "con": 298,
      "Dais": 299,
      "Daisy</w>": 300,
      "bo": 301,
      "ut": 302,
      "ter": 303,
      "The</w>": 304,
      "ch": 305,
      "way</w>": 306,
      "there</w>": 307,
      "ll</w>": 308,
      "sa": 309,
      "were</w>": 310,
      "ex": 311,
      "into</w>": 312,
      "loo": 313,
      "Th": 314,
      "we</w>": 315,
      "am": 316,
      "Wh": 317,
      "ust</w>": 318,
      "old</w>": 319,
      "dn</w>": 320,
      "sed</w>": 321,
      "op": 322,
      "qu": 323,
      "It</w>": 324,
      "ound</w>": 325,
      "oo": 326,
      "ent": 327,
      "al</w>": 328,
      "gh</w>": 329,
      "af": 330,
      "over</w>": 331,
      "ing": 332,
      "ati": 333,
      "about</w>": 334,
      "ad</w>": 335,
      "king</w>": 336,
      "de</w>": 337,
      "tle</w>": 338,
      "ded</w>": 339,
      "ell</w>": 340,
      "ar</w>": 341,
      "ru": 342,
      "this</w>": 343,
      "ome": 344,
      "man</w>": 345,
      "ong</w>": 346,
      "led</w>": 347,
      "have</w>": 348,
      "ever</w>": 349,
      "be</w>": 350,
      "po": 351,
      "if</w>": 352,
      "mi": 353,
      "ant</w>": 354,
      "ack</w>": 355,
      "ta": 356,
      "ould</w>": 357,
      "She</w>": 358,
      "mo": 359,
      "so</w>": 360,
      "war": 361,
      "like</w>": 362,
      "ds</w>": 363,
      "ec": 364,
      "ough</w>": 365,
      "tw": 366,
      "down</w>": 367,
      "ep": 368,
      "ey": 369,
      "ely</w>": 370,
      "came</w>": 371,
      "they</w>": 372,
      "hou": 373,
      "ered</w>": 374,
      "res": 375,
      "fu": 376,
      "ni": 377,
      "ay</w>": 378,
      "tur": 379,
      "some": 380,
      "dy</w>": 381,
      "mor": 382,
      "sc": 383,
      "et": 384,
      "You</w>": 385,
      "back</w>": 386,
      "of": 387,
      "ice</w>": 388,
      "lit": 389,
      "min": 390,
      "ous</w>": 391,
      "wor": 392,
      "been</w>": 393,
      "ought</w>": 394,
      "when</w>": 395,
      "fi": 396,
      "ery</w>": 397,
      "fac": 398,
      "son</w>": 399,
      "ir</w>": 400,
      "little</w>": 401,
      "ge</w>": 402,
      "im": 403,
      "other</w>": 404,
      "ity</w>": 405,
      "ned</w>": 406,
      "ried</w>": 407,
      "know</w>": 408,
      "ord": 409,
      "who</w>": 410,
      "house</w>": 411,
      "some</w>": 412,
      "ally</w>": 413,
      "est": 414,
      "per": 415,
      "par": 416,
      "sel": 417,
      "vi": 418,
      "und": 419,
      "ck</w>": 420,
      "com": 421,
      "able</w>": 422,
      "ear": 423,
      "then</w>": 424,
      "side</w>": 425,
      "fe": 426,
      "tr": 427,
      "wi": 428,
      "went</w>": 429,
      "any</w>": 430,
      "ard</w>": 431,
      "aga": 432,
      "ho": 433,
      "ort</w>": 434,
      "fore</w>": 435,
      "just</w>": 436,
      "ty</w>": 437,
      "got</w>": 438,
      "eyes</w>": 439,
      "ink</w>": 440,
      "what</w>": 441,
      "pe": 442,
      "ting</w>": 443,
      "before</w>": 444,
      "est</w>": 445,
      "ul": 446,
      "looked</w>": 447,
      "ation</w>": 448,
      "Mr</w>": 449,
      "ding</w>": 450,
      "go</w>": 451,
      "ts</w>": 452,
      "low": 453,
      "time</w>": 454,
      "Wil": 455,
      "don</w>": 456,
      "re</w>": 457,
      "ys</w>": 458,
      "ers</w>": 459,
      "didn</w>": 460,
      "ward</w>": 461,
      "them</w>": 462,
      "self</w>": 463,
      "gar": 464,
      "get</w>": 465,
      "te</w>": 466,
      "lu": 467,
      "rem": 468,
      "room</w>": 469,
      "new</w>": 470,
      "ci": 471,
      "mom": 472,
      "our": 473,
      "ate</w>": 474,
      "night</w>": 475,
      "tly</w>": 476,
      "vo": 477,
      "star": 478,
      "Wilson</w>": 479,
      "ss": 480,
      "see</w>": 481,
      "away</w>": 482,
      "gre": 483,
      "me": 484,
      "th</w>": 485,
      "ved</w>": 486,
      "are</w>": 487,
      "more</w>": 488,
      "Jord": 489,
      "We</w>": 490,
      "clo": 491,
      "car</w>": 492,
      "Jordan</w>": 493,
      "come</w>": 494,
      "den": 495,
      "sn</w>": 496,
      "us</w>": 497,
      "ine</w>": 498,
      "ous": 499,
      "gir": 500,
      "around</w>": 501,
      "tion</w>": 502,
      "lea": 503,
      "turned</w>": 504,
      "moment</w>": 505,
      "But</w>": 506,
      "ble</w>": 507,
      "do</w>": 508,
      "here</w>": 509,
      "no</w>": 510,
      "um": 511,
      "use</w>": 512,
      "ated</w>": 513,
      "beg": 514,
      "where</w>": 515,
      "chan": 516,
      "sm": 517,
      "sw": 518,
      "light</w>": 519,
      "door</w>": 520,
      "ade</w>": 521,
      "going</w>": 522,
      "fir": 523,
      "sur": 524,
      "not</w>": 525,
      "two</w>": 526,
      "An": 527,
      "ning</w>": 528,
      "rough</w>": 529,
      "right</w>": 530,
      "mu": 531,
      "ok</w>": 532,
      "pro": 533,
      "pres": 534,
      "win": 535,
      "think</w>": 536,
      "after</w>": 537,
      "co": 538,
      "gi": 539,
      "hand</w>": 540,
      "ons</w>": 541,
      "which</w>": 542,
      "body</w>": 543,
      "day</w>": 544,
      "made</w>": 545,
      "rs</w>": 546,
      "ten": 547,
      "your</w>": 548,
      "through</w>": 549,
      "ever": 550,
      "too</w>": 551,
      "ople</w>": 552,
      "up": 553,
      "something</w>": 554,
      "bro": 555,
      "could</w>": 556,
      "fin": 557,
      "never</w>": 558,
      "shi": 559,
      "ving</w>": 560,
      "shed</w>": 561,
      "What</w>": 562,
      "people</w>": 563,
      "can</w>": 564,
      "dri": 565,
      "ling</w>": 566,
      "pl": 567,
      "us": 568,
      "ying</w>": 569,
      "hal": 570,
      "low</w>": 571,
      "voice</w>": 572,
      "dre": 573,
      "ran": 574,
      "ach</w>": 575,
      "pped</w>": 576,
      "exc": 577,
      "face</w>": 578,
      "The": 579,
      "ce": 580,
      "ck": 581,
      "ee": 582,
      "fe</w>": 583,
      "ls</w>": 584,
      "ob": 585,
      "want</w>": 586,
      "car": 587,
      "der</w>": 588,
      "ps</w>": 589,
      "very</w>": 590,
      "ence</w>": 591,
      "ill</w>": 592,
      "That</w>": 593,
      "ast</w>": 594,
      "man": 595,
      "mov": 596,
      "na": 597,
      "head</w>": 598,
      "again</w>": 599,
      "ak": 600,
      "cha": 601,
      "han": 602,
      "knew</w>": 603,
      "sit": 604,
      "any": 605,
      "sion</w>": 606,
      "their</w>": 607,
      "And</w>": 608,
      "ose</w>": 609,
      "wal": 610,
      "age</w>": 611,
      "saw</w>": 612,
      "first</w>": 613,
      "ew</w>": 614,
      "ess</w>": 615,
      "ft</w>": 616,
      "ga": 617,
      "red</w>": 618,
      "would</w>": 619,
      "ined</w>": 620,
      "ouldn</w>": 621,
      "cont": 622,
      "ently</w>": 623,
      "They</w>": 624,
      "br": 625,
      "gg": 626,
      "gra": 627,
      "ks</w>": 628,
      "od</w>": 629,
      "pri": 630,
      "ree</w>": 631,
      "noon</w>": 632,
      "ute</w>": 633,
      "ood</w>": 634,
      "after": 635,
      "ously</w>": 636,
      "began</w>": 637,
      "long</w>": 638,
      "end</w>": 639,
      "only</w>": 640,
      "took</w>": 641,
      "Then</w>": 642,
      "ears</w>": 643,
      "ma": 644,
      "men</w>": 645,
      "sha": 646,
      "thought</w>": 647,
      "its</w>": 648,
      "even</w>": 649,
      "while</w>": 650,
      "off</w>": 651,
      "du": 652,
      "ow</w>": 653,
      "pla": 654,
      "youn": 655,
      "ness</w>": 656,
      "sport</w>": 657,
      "most</w>": 658,
      "girl</w>": 659,
      "bel": 660,
      "gu": 661,
      "mon": 662,
      "tal": 663,
      "wan": 664,
      "tim": 665,
      "cause</w>": 666,
      "heard</w>": 667,
      "toward</w>": 668,
      "emb": 669,
      "white</w>": 670,
      "There</w>": 671,
      "ings</w>": 672,
      "fa": 673,
      "lan": 674,
      "te": 675,
      "tra": 676,
      "told</w>": 677,
      "because</w>": 678,
      "last</w>": 679,
      "half</w>": 680,
      "New</w>": 681,
      "ld</w>": 682,
      "mar": 683,
      "ver": 684,
      "ws</w>": 685,
      "unti": 686,
      "young</w>": 687,
      "ced</w>": 688,
      "gr": 689,
      "ged</w>": 690,
      "ies</w>": 691,
      "stan": 692,
      "happ": 693,
      "asked</w>": 694,
      "name</w>": 695,
      "Well</w>": 696,
      "bre": 697,
      "cor": 698,
      "cre": 699,
      "cal": 700,
      "ened</w>": 701,
      "less</w>": 702,
      "ick</w>": 703,
      "When</w>": 704,
      "afternoon</w>": 705,
      "until</w>": 706,
      "His</w>": 707,
      "dden": 708,
      "ea": 709,
      "ep</w>": 710,
      "em</w>": 711,
      "sto": 712,
      "stor": 713,
      "row": 714,
      "air</w>": 715,
      "every": 716,
      "upon</w>": 717,
      "Bak": 718,
      "Mi": 719,
      "Oh</w>": 720,
      "dar": 721,
      "den</w>": 722,
      "hour</w>": 723,
      "pre": 724,
      "inter": 725,
      "ways</w>": 726,
      "ited</w>": 727,
      "sist": 728,
      "left</w>": 729,
      "lau": 730,
      "seem": 731,
      "ful</w>": 732,
      "windo": 733,
      "ddenly</w>": 734,
      "Baker</w>": 735,
      "dly</w>": 736,
      "found</w>": 737,
      "ion</w>": 738,
      "ily</w>": 739,
      "ser": 740,
      "years</w>": 741,
      "ening</w>": 742,
      "ace</w>": 743,
      "seemed</w>": 744,
      "West</w>": 745,
      "ge": 746,
      "hel": 747,
      "ment</w>": 748,
      "wasn</w>": 749,
      "did</w>": 750,
      "hands</w>": 751,
      "da": 752,
      "ff": 753,
      "pa": 754,
      "ple": 755,
      "sol": 756,
      "wom": 757,
      "how</w>": 758,
      "much</w>": 759,
      "chi": 760,
      "col": 761,
      "che": 762,
      "dro": 763,
      "fr": 764,
      "fel": 765,
      "fam": 766,
      "les</w>": 767,
      "med</w>": 768,
      "ph": 769,
      "por": 770,
      "ssed</w>": 771,
      "table</w>": 772,
      "three</w>": 773,
      "ork</w>": 774,
      "sil": 775,
      "ired</w>": 776,
      "say</w>": 777,
      "look</w>": 778,
      "looking</w>": 779,
      "ool</w>": 780,
      "under": 781,
      "York</w>": 782,
      "app": 783,
      "cu": 784,
      "een</w>": 785,
      "ear</w>": 786,
      "lat": 787,
      "mat": 788,
      "own</w>": 789,
      "ver</w>": 790,
      "ves</w>": 791,
      "though</w>": 792,
      "another</w>": 793,
      "ary</w>": 794,
      "ach": 795,
      "let</w>": 796,
      "minute</w>": 797,
      "No</w>": 798,
      "fri": 799,
      "gg</w>": 800,
      "pi": 801,
      "ry</w>": 802,
      "ven</w>": 803,
      "than</w>": 804,
      "stood</w>": 805,
      "always</w>": 806,
      "five</w>": 807,
      "with": 808,
      "small</w>": 809,
      "Miss</w>": 810,
      "fron": 811,
      "This</w>": 812,
      "cer": 813,
      "each</w>": 814,
      "lar": 815,
      "sh</w>": 816,
      "ten</w>": 817,
      "tel": 818,
      "yed</w>": 819,
      "ind</w>": 820,
      "alone</w>": 821,
      "nothing</w>": 822,
      "ure</w>": 823,
      "over": 824,
      "ook</w>": 825,
      "ept</w>": 826,
      "front</w>": 827,
      "In</w>": 828,
      "Wol": 829,
      "bed</w>": 830,
      "ey</w>": 831,
      "fshi": 832,
      "sat</w>": 833,
      "tre": 834,
      "vely</w>": 835,
      "inst</w>": 836,
      "inqu": 837,
      "ath</w>": 838,
      "ale</w>": 839,
      "along</w>": 840,
      "supp": 841,
      "suddenly</w>": 842,
      "off": 843,
      "under</w>": 844,
      "against</w>": 845,
      "gether</w>": 846,
      "Wolfshi": 847,
      "Wolfshiem</w>": 848,
      "At</w>": 849,
      "Egg</w>": 850,
      "Mrs</w>": 851,
      "ath": 852,
      "bu": 853,
      "cried</w>": 854,
      "gro": 855,
      "iz": 856,
      "must</w>": 857,
      "inv": 858,
      "once</w>": 859,
      "ligh": 860,
      "seen</w>": 861,
      "together</w>": 862,
      "clock</w>": 863,
      "cou": 864,
      "gla": 865,
      "kno": 866,
      "tter</w>": 867,
      "tell</w>": 868,
      "well</w>": 869,
      "xt</w>": 870,
      "int": 871,
      "ality</w>": 872,
      "next</w>": 873,
      "ched</w>": 874,
      "ect</w>": 875,
      "times</w>": 876,
      "Her</w>": 877,
      "bl": 878,
      "fol": 879,
      "mur": 880,
      "mself</w>": 881,
      "ne</w>": 882,
      "pas": 883,
      "sing</w>": 884,
      "iness</w>": 885,
      "himself</w>": 886,
      "still</w>": 887,
      "life</w>": 888,
      "sho": 889,
      "morning</w>": 890,
      "rememb": 891,
      "As</w>": 892,
      "couldn</w>": 893,
      "ner</w>": 894,
      "ses</w>": 895,
      "things</w>": 896,
      "answ": 897,
      "ite</w>": 898,
      "take</w>": 899,
      "garage</w>": 900,
      "laugh": 901,
      "Bu": 902,
      "bi": 903,
      "ct": 904,
      "ei": 905,
      "home</w>": 906,
      "ky</w>": 907,
      "ance</w>": 908,
      "sta": 909,
      "sti": 910,
      "str": 911,
      "ross</w>": 912,
      "every</w>": 913,
      "emp": 914,
      "tered</w>": 915,
      "ents</w>": 916,
      "beli": 917,
      "wanted</w>": 918,
      "called</w>": 919,
      "without</w>": 920,
      "am</w>": 921,
      "but": 922,
      "cour": 923,
      "glan": 924,
      "har": 925,
      "ken</w>": 926,
      "land</w>": 927,
      "sen": 928,
      "wee": 929,
      "ong": 930,
      "ster</w>": 931,
      "step": 932,
      "row</w>": 933,
      "road</w>": 934,
      "sum": 935,
      "Why</w>": 936,
      "might</w>": 937,
      "world</w>": 938,
      "manded</w>": 939,
      "moved</w>": 940,
      "gave</w>": 941,
      "make</w>": 942,
      "certa": 943,
      "inquired</w>": 944,
      "steps</w>": 945,
      "Af": 946,
      "dr": 947,
      "dra": 948,
      "four</w>": 949,
      "ler</w>": 950,
      "ms</w>": 951,
      "van": 952,
      "yel": 953,
      "those</w>": 954,
      "stand</w>": 955,
      "stre": 956,
      "ately</w>": 957,
      "airs</w>": 958,
      "across</w>": 959,
      "cal</w>": 960,
      "ably</w>": 961,
      "exp": 962,
      "ingly</w>": 963,
      "few</w>": 964,
      "garden</w>": 965,
      "started</w>": 966,
      "great</w>": 967,
      "pression</w>": 968,
      "everything</w>": 969,
      "dark</w>": 970,
      "later</w>": 971,
      "Buchan": 972,
      "God</w>": 973,
      "How</w>": 974,
      "My": 975,
      "Nick</w>": 976,
      "au": 977,
      "aut": 978,
      "cur": 979,
      "flo": 980,
      "gone</w>": 981,
      "hus": 982,
      "id</w>": 983,
      "ped</w>": 984,
      "so": 985,
      "tu": 986,
      "int</w>": 987,
      "art</w>": 988,
      "read": 989,
      "betw": 990,
      "rather</w>": 991,
      "demanded</w>": 992,
      "ement</w>": 993,
      "ected</w>": 994,
      "lowed</w>": 995,
      "remar": 996,
      "surpri": 997,
      "dress</w>": 998,
      "anything</w>": 999,
      "married</w>": 1000,
      "felt</w>": 1001,
      "After</w>": 1002,
      "between</w>": 1003,
      "el</w>": 1004,
      "ee</w>": 1005,
      "my": 1006,
      "nam": 1007,
      "rtle</w>": 1008,
      "sort</w>": 1009,
      "used</w>": 1010,
      "arri": 1011,
      "love</w>": 1012,
      "lean": 1013,
      "lawn</w>": 1014,
      "hear</w>": 1015,
      "ick": 1016,
      "these</w>": 1017,
      "open</w>": 1018,
      "poli": 1019,
      "ful": 1020,
      "word</w>": 1021,
      "ested</w>": 1022,
      "feet</w>": 1023,
      "wife</w>": 1024,
      "broke</w>": 1025,
      "walked</w>": 1026,
      "money</w>": 1027,
      "Myrtle</w>": 1028,
      "All</w>": 1029,
      "Don</w>": 1030,
      "East</w>": 1031,
      "Mic": 1032,
      "So</w>": 1033,
      "ide": 1034,
      "jo": 1035,
      "mp": 1036,
      "mer</w>": 1037,
      "ot</w>": 1038,
      "pic": 1039,
      "out": 1040,
      "rec": 1041,
      "hael": 1042,
      "hair</w>": 1043,
      "rain</w>": 1044,
      "illed</w>": 1045,
      "sugg": 1046,
      "eph": 1047,
      "place</w>": 1048,
      "days</w>": 1049,
      "teleph": 1050,
      "course</w>": 1051,
      "yellow</w>": 1052,
      "Buchanan</w>": 1053,
      "Michael": 1054,
      "Michaelis</w>": 1055,
      "Come</w>": 1056,
      "Do</w>": 1057,
      "bri": 1058,
      "bur": 1059,
      "blu": 1060,
      "del": 1061,
      "dered</w>": 1062,
      "dres": 1063,
      "get": 1064,
      "lun": 1065,
      "pol": 1066,
      "tri": 1067,
      "wouldn</w>": 1068,
      "year</w>": 1069,
      "outh</w>": 1070,
      "ering</w>": 1071,
      "arra": 1072,
      "enti": 1073,
      "hadn</w>": 1074,
      "rose</w>": 1075,
      "loved</w>": 1076,
      "acc": 1077,
      "liar</w>": 1078,
      "beside</w>": 1079,
      "lar</w>": 1080,
      "rup": 1081,
      "full</w>": 1082,
      "medi": 1083,
      "sure</w>": 1084,
      "drive</w>": 1085,
      "contin": 1086,
      "woman</w>": 1087,
      "matter</w>": 1088,
      "summer</w>": 1089,
      "fully</w>": 1090,
      "blue</w>": 1091,
      "Chi": 1092,
      "Mc": 1093,
      "Some": 1094,
      "bus": 1095,
      "city</w>": 1096,
      "crow": 1097,
      "ed": 1098,
      "met</w>": 1099,
      "many</w>": 1100,
      "ns</w>": 1101,
      "put</w>": 1102,
      "tor": 1103,
      "ins</w>": 1104,
      "inten": 1105,
      "antly</w>": 1106,
      "ste": 1107,
      "nod": 1108,
      "oms</w>": 1109,
      "leep</w>": 1110,
      "cago</w>": 1111,
      "dog</w>": 1112,
      "iled</w>": 1113,
      "such</w>": 1114,
      "among</w>": 1115,
      "fact</w>": 1116,
      "parti": 1117,
      "party</w>": 1118,
      "try</w>": 1119,
      "lowly</w>": 1120,
      "ssly</w>": 1121,
      "girls</w>": 1122,
      "stopped</w>": 1123,
      "windows</w>": 1124,
      "butler</w>": 1125,
      "continu": 1126,
      "Chicago</w>": 1127,
      "Do": 1128,
      "Yes</w>": 1129,
      "cir": 1130,
      "fl": 1131,
      "fun": 1132,
      "hur": 1133,
      "hard</w>": 1134,
      "ished</w>": 1135,
      "pu": 1136,
      "pul": 1137,
      "sin": 1138,
      "squ": 1139,
      "sing": 1140,
      "tou": 1141,
      "tried</w>": 1142,
      "ven": 1143,
      "won": 1144,
      "wil": 1145,
      "zen</w>": 1146,
      "inc": 1147,
      "wat": 1148,
      "arm</w>": 1149,
      "ond</w>": 1150,
      "res</w>": 1151,
      "rest": 1152,
      "stairs</w>": 1153,
      "haps</w>": 1154,
      "who": 1155,
      "evening</w>": 1156,
      "heart</w>": 1157,
      "shoul": 1158,
      "town</w>": 1159,
      "ago</w>": 1160,
      "ford</w>": 1161,
      "good</w>": 1162,
      "whisp": 1163,
      "immedi": 1164,
      "trying</w>": 1165,
      "hot</w>": 1166,
      "give</w>": 1167,
      "cess": 1168,
      "chair</w>": 1169,
      "window</w>": 1170,
      "fami": 1171,
      "ached</w>": 1172,
      "idea</w>": 1173,
      "telephone</w>": 1174,
      "If</w>": 1175,
      "cked</w>": 1176,
      "ef": 1177,
      "esn</w>": 1178,
      "far</w>": 1179,
      "hu": 1180,
      "hund": 1181,
      "hind</w>": 1182,
      "is": 1183,
      "mer": 1184,
      "rac": 1185,
      "sound</w>": 1186,
      "tru": 1187,
      "vil": 1188,
      "xi</w>": 1189,
      "inside</w>": 1190,
      "oned</w>": 1191,
      "itself</w>": 1192,
      "stra": 1193,
      "ating</w>": 1194,
      "better</w>": 1195,
      "behind</w>": 1196,
      "why</w>": 1197,
      "dozen</w>": 1198,
      "shor": 1199,
      "sub": 1200,
      "spea": 1201,
      "aff": 1202,
      "scen": 1203,
      "grey</w>": 1204,
      "mean</w>": 1205,
      "coat</w>": 1206,
      "brought</w>": 1207,
      "standing</w>": 1208,
      "happened</w>": 1209,
      "curi": 1210,
      "friend</w>": 1211,
      "office</w>": 1212,
      "passed</w>": 1213,
      "big</w>": 1214,
      "belie": 1215,
      "ready</w>": 1216,
      "McK": 1217,
      "business</w>": 1218,
      "familiar</w>": 1219,
      "Co": 1220,
      "For</w>": 1221,
      "My</w>": 1222,
      "One</w>": 1223,
      "ast": 1224,
      "bor": 1225,
      "blo": 1226,
      "call</w>": 1227,
      "din": 1228,
      "fell</w>": 1229,
      "igh": 1230,
      "len": 1231,
      "long": 1232,
      "past</w>": 1233,
      "sor": 1234,
      "sun": 1235,
      "sent</w>": 1236,
      "slowly</w>": 1237,
      "tan": 1238,
      "will</w>": 1239,
      "zy</w>": 1240,
      "indi": 1241,
      "insist": 1242,
      "and": 1243,
      "waited</w>": 1244,
      "itely</w>": 1245,
      "has</w>": 1246,
      "almost</w>": 1247,
      "shook</w>": 1248,
      "set</w>": 1249,
      "opened</w>": 1250,
      "quick": 1251,
      "comm": 1252,
      "green</w>": 1253,
      "everal</w>": 1254,
      "find</w>": 1255,
      "except</w>": 1256,
      "plained</w>": 1257,
      "talked</w>": 1258,
      "story</w>": 1259,
      "remember</w>": 1260,
      "answered</w>": 1261,
      "certain</w>": 1262,
      "myself</w>": 1263,
      "whole</w>": 1264,
      "Ab": 1265,
      "Cath": 1266,
      "Did</w>": 1267,
      "Ge": 1268,
      "Ha": 1269,
      "Is": 1270,
      "Look</w>": 1271,
      "Mon": 1272,
      "aw": 1273,
      "bought</w>": 1274,
      "bright</w>": 1275,
      "cem": 1276,
      "fing": 1277,
      "ist": 1278,
      "ki": 1279,
      "ming</w>": 1280,
      "oc": 1281,
      "pe</w>": 1282,
      "ssi": 1283,
      "sky</w>": 1284,
      "wing</w>": 1285,
      "anc": 1286,
      "ane</w>": 1287,
      "stu": 1288,
      "hall</w>": 1289,
      "live</w>": 1290,
      "being</w>": 1291,
      "tic</w>": 1292,
      "sig": 1293,
      "disa": 1294,
      "shar": 1295,
      "spec": 1296,
      "boo": 1297,
      "same</w>": 1298,
      "expression</w>": 1299,
      "Who</w>": 1300,
      "quest": 1301,
      "ations</w>": 1302,
      "eared</w>": 1303,
      "excit": 1304,
      "obj": 1305,
      "porch</w>": 1306,
      "arrived</w>": 1307,
      "leaned</w>": 1308,
      "getting</w>": 1309,
      "nodded</w>": 1310,
      "circ": 1311,
      "immediately</w>": 1312,
      "believe</w>": 1313,
      "McKee</w>": 1314,
      "insisted</w>": 1315,
      "Geor": 1316,
      "Island</w>": 1317,
      "disapp": 1318,
      "Su": 1319,
      "band</w>": 1320,
      "cra": 1321,
      "coun": 1322,
      "dent</w>": 1323,
      "dam": 1324,
      "eat</w>": 1325,
      "ff</w>": 1326,
      "gen": 1327,
      "her": 1328,
      "hor": 1329,
      "ious</w>": 1330,
      "isn</w>": 1331,
      "ju": 1332,
      "mil": 1333,
      "ny</w>": 1334,
      "ow": 1335,
      "oke</w>": 1336,
      "tty</w>": 1337,
      "tten</w>": 1338,
      "wer</w>": 1339,
      "won</w>": 1340,
      "ining</w>": 1341,
      "inted</w>": 1342,
      "incre": 1343,
      "high</w>": 1344,
      "enough</w>": 1345,
      "orrow</w>": 1346,
      "real": 1347,
      "reas": 1348,
      "read</w>": 1349,
      "reached</w>": 1350,
      "rooms</w>": 1351,
      "omorrow</w>": 1352,
      "disc": 1353,
      "lay</w>": 1354,
      "short</w>": 1355,
      "confu": 1356,
      "book</w>": 1357,
      "mid": 1358,
      "somebody</w>": 1359,
      "ets</w>": 1360,
      "words</w>": 1361,
      "viol": 1362,
      "visi": 1363,
      "comple": 1364,
      "oured</w>": 1365,
      "stared</w>": 1366,
      "close</w>": 1367,
      "least</w>": 1368,
      "sitting</w>": 1369,
      "train</w>": 1370,
      "pleas": 1371,
      "women</w>": 1372,
      "drove</w>": 1373,
      "followed</w>": 1374,
      "laughed</w>": 1375,
      "glanced</w>": 1376,
      "floor</w>": 1377,
      "outside</w>": 1378,
      "Cody</w>": 1379,
      "quickly</w>": 1380,
      "Just</w>": 1381,
      "Ox": 1382,
      "apar": 1383,
      "bal": 1384,
      "cl": 1385,
      "cold</w>": 1386,
      "care</w>": 1387,
      "cool</w>": 1388,
      "foo": 1389,
      "flow": 1390,
      "ic</w>": 1391,
      "mouth</w>": 1392,
      "od": 1393,
      "pan": 1394,
      "pale</w>": 1395,
      "rais": 1396,
      "sli": 1397,
      "several</w>": 1398,
      "trem": 1399,
      "tomorrow</w>": 1400,
      "ur</w>": 1401,
      "vag": 1402,
      "thin": 1403,
      "thir": 1404,
      "oud</w>": 1405,
      "erine</w>": 1406,
      "orm": 1407,
      "repe": 1408,
      "stran": 1409,
      "rol": 1410,
      "already</w>": 1411,
      "doesn</w>": 1412,
      "heat</w>": 1413,
      "hesit": 1414,
      "sun</w>": 1415,
      "suit</w>": 1416,
      "deci": 1417,
      "forward</w>": 1418,
      "ask</w>": 1419,
      "utes</w>": 1420,
      "ching</w>": 1421,
      "explained</w>": 1422,
      "ture</w>": 1423,
      "minutes</w>": 1424,
      "umb": 1425,
      "rang</w>": 1426,
      "cars</w>": 1427,
      "shado": 1428,
      "stop</w>": 1429,
      "pretty</w>": 1430,
      "held</w>": 1431,
      "family</w>": 1432,
      "understand</w>": 1433,
      "trees</w>": 1434,
      "coup": 1435,
      "known</w>": 1436,
      "either</w>": 1437,
      "week</w>": 1438,
      "husband</w>": 1439,
      "policem": 1440,
      "suggested</w>": 1441,
      "effor": 1442,
      "hundred</w>": 1443,
      "speak</w>": 1444,
      "longer</w>": 1445,
      "Catherine</w>": 1446,
      "George</w>": 1447,
      "realiz": 1448,
      "Oxford</w>": 1449,
      "policeman</w>": 1450,
      "Long</w>": 1451,
      "Ma": 1452,
      "Of</w>": 1453,
      "With</w>": 1454,
      "bb": 1455,
      "ben": 1456,
      "der": 1457,
      "dle</w>": 1458,
      "dru": 1459,
      "eag": 1460,
      "fan": 1461,
      "ging</w>": 1462,
      "hol": 1463,
      "hop": 1464,
      "late</w>": 1465,
      "nice</w>": 1466,
      "per</w>": 1467,
      "ran</w>": 1468,
      "ye</w>": 1469,
      "zed</w>": 1470,
      "arms</w>": 1471,
      "ory</w>": 1472,
      "onal</w>": 1473,
      "real</w>": 1474,
      "stly</w>": 1475,
      "ail</w>": 1476,
      "ack": 1477,
      "act</w>": 1478,
      "list": 1479,
      "tions</w>": 1480,
      "sight</w>": 1481,
      "casu": 1482,
      "diff": 1483,
      "ici": 1484,
      "new": 1485,
      "spr": 1486,
      "ounded</w>": 1487,
      "overed</w>": 1488,
      "deep</w>": 1489,
      "added</w>": 1490,
      "gotten</w>": 1491,
      "boy</w>": 1492,
      "mile</w>": 1493,
      "mine</w>": 1494,
      "fif": 1495,
      "person</w>": 1496,
      "leaving</w>": 1497,
      "change</w>": 1498,
      "smiled</w>": 1499,
      "promi": 1500,
      "wind</w>": 1501,
      "eep</w>": 1502,
      "grass</w>": 1503,
      "duc": 1504,
      "sister</w>": 1505,
      "lights</w>": 1506,
      "ctor</w>": 1507,
      "picture</w>": 1508,
      "lunch</w>": 1509,
      "continued</w>": 1510,
      "pulled</w>": 1511,
      "shoulder</w>": 1512,
      "whispered</w>": 1513,
      "dinner</w>": 1514,
      "effort</w>": 1515,
      "Jay</w>": 1516,
      "Sound</w>": 1517,
      "bly</w>": 1518,
      "bling</w>": 1519,
      "cr": 1520,
      "fer": 1521,
      "fla": 1522,
      "fted</w>": 1523,
      "gs</w>": 1524,
      "gol": 1525,
      "kept</w>": 1526,
      "killed</w>": 1527,
      "ner": 1528,
      "pool</w>": 1529,
      "sit</w>": 1530,
      "sof": 1531,
      "sation</w>": 1532,
      "ths</w>": 1533,
      "inst": 1534,
      "oub": 1535,
      "wait": 1536,
      "wait</w>": 1537,
      "wall</w>": 1538,
      "ends</w>": 1539,
      "enorm": 1540,
      "rest</w>": 1541,
      "really</w>": 1542,
      "haven</w>": 1543,
      "ele": 1544,
      "lim": 1545,
      "lips</w>": 1546,
      "nose</w>": 1547,
      "lege</w>": 1548,
      "doing</w>": 1549,
      "hea": 1550,
      "ices</w>": 1551,
      "shing</w>": 1552,
      "agre": 1553,
      "desp": 1554,
      "dead</w>": 1555,
      "forever</w>": 1556,
      "pping</w>": 1557,
      "adm": 1558,
      "aded</w>": 1559,
      "both</w>": 1560,
      "qui": 1561,
      "run</w>": 1562,
      "warm</w>": 1563,
      "turning</w>": 1564,
      "somewhere</w>": 1565,
      "mind</w>": 1566,
      "faces</w>": 1567,
      "peri": 1568,
      "perhaps</w>": 1569,
      "lowing</w>": 1570,
      "broken</w>": 1571,
      "shir": 1572,
      "talk</w>": 1573,
      "dark": 1574,
      "suppose</w>": 1575,
      "lightly</w>": 1576,
      "laughter</w>": 1577,
      "drink</w>": 1578,
      "remarked</w>": 1579,
      "surprised</w>": 1580,
      "crowd</w>": 1581,
      "hurried</w>": 1582,
      "since</w>": 1583,
      "single</w>": 1584,
      "true</w>": 1585,
      "curious</w>": 1586,
      "crazy</w>": 1587,
      "raised</w>": 1588,
      "coupé</w>": 1589,
      "Bi": 1590,
      "Carra": 1591,
      "Fi": 1592,
      "Fin": 1593,
      "Good</w>": 1594,
      "In": 1595,
      "Is</w>": 1596,
      "Now</w>": 1597,
      "On": 1598,
      "On</w>": 1599,
      "ash": 1600,
      "aking</w>": 1601,
      "bad</w>": 1602,
      "cri": 1603,
      "cent": 1604,
      "dol": 1605,
      "dust</w>": 1606,
      "dge</w>": 1607,
      "hy": 1608,
      "ig": 1609,
      "nat": 1610,
      "wr": 1611,
      "wel": 1612,
      "wet</w>": 1613,
      "ysi": 1614,
      "yond</w>": 1615,
      "war</w>": 1616,
      "ors</w>": 1617,
      "itch": 1618,
      "ities</w>": 1619,
      "att": 1620,
      "roman": 1621,
      "als</w>": 1622,
      "eless</w>": 1623,
      "lost</w>": 1624,
      "lived</w>": 1625,
      "rible</w>": 1626,
      "beyond</w>": 1627,
      "sick</w>": 1628,
      "secre": 1629,
      "Gatz</w>": 1630,
      "susp": 1631,
      "neigh": 1632,
      "form": 1633,
      "ash</w>": 1634,
      "asleep</w>": 1635,
      "conce": 1636,
      "conver": 1637,
      "utter": 1638,
      "saying</w>": 1639,
      "Where</w>": 1640,
      "quality</w>": 1641,
      "enty</w>": 1642,
      "pock": 1643,
      "ware</w>": 1644,
      "sci": 1645,
      "imp": 1646,
      "comp": 1647,
      "coming</w>": 1648,
      "luct": 1649,
      "voices</w>": 1650,
      "leave</w>": 1651,
      "changed</w>": 1652,
      "play</w>": 1653,
      "tea</w>": 1654,
      "phone</w>": 1655,
      "physi": 1656,
      "silver</w>": 1657,
      "large</w>": 1658,
      "couch</w>": 1659,
      "glad</w>": 1660,
      "black</w>": 1661,
      "stic</w>": 1662,
      "autom": 1663,
      "parties</w>": 1664,
      "scene</w>": 1665,
      "About</w>": 1666,
      "fingers</w>": 1667,
      "repeated</w>": 1668,
      "eager": 1669,
      "enormous</w>": 1670,
      "neighb": 1671,
      "Al": 1672,
      "Amer": 1673,
      "No": 1674,
      "Ro": 1675,
      "Slo": 1676,
      "Some</w>": 1677,
      "ba": 1678,
      "bit": 1679,
      "ble": 1680,
      "cle": 1681,
      "dur": 1682,
      "ffe": 1683,
      "fine</w>": 1684,
      "ges</w>": 1685,
      "kes</w>": 1686,
      "kind</w>": 1687,
      "keep</w>": 1688,
      "lo</w>": 1689,
      "line</w>": 1690,
      "pur": 1691,
      "raid</w>": 1692,
      "sy</w>": 1693,
      "sity</w>": 1694,
      "ue</w>": 1695,
      "uffe": 1696,
      "vin": 1697,
      "ze</w>": 1698,
      "intly</w>": 1699,
      "ouble</w>": 1700,
      "ere": 1701,
      "having</w>": 1702,
      "road": 1703,
      "lovely</w>": 1704,
      "acci": 1705,
      "gho": 1706,
      "ght": 1707,
      "whee": 1708,
      "sive</w>": 1709,
      "lessly</w>": 1710,
      "uni": 1711,
      "une</w>": 1712,
      "unk</w>": 1713,
      "urch</w>": 1714,
      "cap": 1715,
      "cau": 1716,
      "dis": 1717,
      "died</w>": 1718,
      "eved</w>": 1719,
      "ically</w>": 1720,
      "should</w>": 1721,
      "secon": 1722,
      "togra": 1723,
      "ire</w>": 1724,
      "spa": 1725,
      "spoke</w>": 1726,
      "ages</w>": 1727,
      "defin": 1728,
      "forget</w>": 1729,
      "forgotten</w>": 1730,
      "cho": 1731,
      "rushed</w>": 1732,
      "taking</w>": 1733,
      "taken</w>": 1734,
      "mother</w>": 1735,
      "turn</w>": 1736,
      "someone</w>": 1737,
      "scar": 1738,
      "work</w>": 1739,
      "pers": 1740,
      "feel</w>": 1741,
      "garet": 1742,
      "garden": 1743,
      "cigaret": 1744,
      "lease</w>": 1745,
      "finally</w>": 1746,
      "driving</w>": 1747,
      "dream": 1748,
      "moving</w>": 1749,
      "chauffe": 1750,
      "anyone</w>": 1751,
      "anyhow</w>": 1752,
      "brary</w>": 1753,
      "making</w>": 1754,
      "talking</w>": 1755,
      "wants</w>": 1756,
      "faintly</w>": 1757,
      "happen</w>": 1758,
      "breath</w>": 1759,
      "interrup": 1760,
      "coloured</w>": 1761,
      "glass</w>": 1762,
      "remembered</w>": 1763,
      "funny</w>": 1764,
      "wild</w>": 1765,
      "villa": 1766,
      "question</w>": 1767,
      "visible</w>": 1768,
      "apart": 1769,
      "trembling</w>": 1770,
      "newspa": 1771,
      "fifty</w>": 1772,
      "Carraway</w>": 1773,
      "romantic</w>": 1774,
      "conversation</w>": 1775,
      "Americ": 1776,
      "Sloane</w>": 1777,
      "wheel</w>": 1778,
      "second</w>": 1779,
      "By</w>": 1780,
      "Lu": 1781,
      "Let</w>": 1782,
      "Please</w>": 1783,
      "St": 1784,
      "aware</w>": 1785,
      "ban": 1786,
      "bul": 1787,
      "blan": 1788,
      "bye</w>": 1789,
      "cy</w>": 1790,
      "cat": 1791,
      "ces</w>": 1792,
      "cally</w>": 1793,
      "ders</w>": 1794,
      "dently</w>": 1795,
      "doub": 1796,
      "ece</w>": 1797,
      "egr": 1798,
      "fal": 1799,
      "fur": 1800,
      "fas": 1801,
      "fres": 1802,
      "ger</w>": 1803,
      "gstor": 1804,
      "hon": 1805,
      "hun": 1806,
      "iv": 1807,
      "il</w>": 1808,
      "ight</w>": 1809,
      "ilight</w>": 1810,
      "jum": 1811,
      "kitch": 1812,
      "lai": 1813,
      "mel": 1814,
      "ners</w>": 1815,
      "ove</w>": 1816,
      "ply</w>": 1817,
      "pho": 1818,
      "sal": 1819,
      "sev": 1820,
      "smo": 1821,
      "sna": 1822,
      "sleep</w>": 1823,
      "slightly</w>": 1824,
      "we": 1825,
      "wer": 1826,
      "wire</w>": 1827,
      "xed</w>": 1828,
      "thro": 1829,
      "inly</w>": 1830,
      "incess": 1831,
      "ans</w>": 1832,
      "eral</w>": 1833,
      "eng": 1834,
      "ended</w>": 1835,
      "rev": 1836,
      "reluct": 1837,
      "sty</w>": 1838,
      "stru": 1839,
      "eling</w>": 1840,
      "lot</w>": 1841,
      "loxi</w>": 1842,
      "living</w>": 1843,
      "library</w>": 1844,
      "ghten": 1845,
      "rich</w>": 1846,
      "became</w>": 1847,
      "whom</w>": 1848,
      "whose</w>": 1849,
      "sic</w>": 1850,
      "side": 1851,
      "sively</w>": 1852,
      "unfamiliar</w>": 1853,
      "absol": 1854,
      "irre": 1855,
      "aged</w>": 1856,
      "form</w>": 1857,
      "ements</w>": 1858,
      "uttered</w>": 1859,
      "ters</w>": 1860,
      "church</w>": 1861,
      "ental</w>": 1862,
      "afraid</w>": 1863,
      "poor</w>": 1864,
      "posit": 1865,
      "taxi</w>": 1866,
      "moon</w>": 1867,
      "move</w>": 1868,
      "twilight</w>": 1869,
      "fied</w>": 1870,
      "perf": 1871,
      "part</w>": 1872,
      "feeling</w>": 1873,
      "tran": 1874,
      "trouble</w>": 1875,
      "rema": 1876,
      "ours</w>": 1877,
      "cloth": 1878,
      "mur</w>": 1879,
      "presence</w>": 1880,
      "upstairs</w>": 1881,
      "drew</w>": 1882,
      "exclai": 1883,
      "walk</w>": 1884,
      "walking</w>": 1885,
      "gradu": 1886,
      "embarra": 1887,
      "father</w>": 1888,
      "corner</w>": 1889,
      "everyone</w>": 1890,
      "laugh</w>": 1891,
      "pause</w>": 1892,
      "solem": 1893,
      "child</w>": 1894,
      "silence</w>": 1895,
      "piece</w>": 1896,
      "intro": 1897,
      "murmur": 1898,
      "murmur</w>": 1899,
      "answer</w>": 1900,
      "stayed</w>": 1901,
      "hardly</w>": 1902,
      "weeks</w>": 1903,
      "drunk</w>": 1904,
      "stret": 1905,
      "curred</w>": 1906,
      "named</w>": 1907,
      "names</w>": 1908,
      "Doctor</w>": 1909,
      "touch</w>": 1910,
      "wonder</w>": 1911,
      "inclu": 1912,
      "watch</w>": 1913,
      "strained</w>": 1914,
      "shore</w>": 1915,
      "occurred</w>": 1916,
      "complete</w>": 1917,
      "thirty</w>": 1918,
      "rolled</w>": 1919,
      "hesitated</w>": 1920,
      "shadow</w>": 1921,
      "drugstor": 1922,
      "differ": 1923,
      "agreed</w>": 1924,
      "darkness</w>": 1925,
      "Biloxi</w>": 1926,
      "eagerly</w>": 1927,
      "chauffeur</w>": 1928,
      "kitchen</w>": 1929,
      "photogra": 1930,
      "exclaimed</w>": 1931,
      "00</w>": 1932,
      "Dan</w>": 1933,
      "Eck": 1934,
      "June</w>": 1935,
      "Lou": 1936,
      "Not</w>": 1937,
      "Re": 1938,
      "Stre": 1939,
      "Tw": 1940,
      "Wor": 1941,
      "bra": 1942,
      "cro": 1943,
      "cep": 1944,
      "cely</w>": 1945,
      "ction</w>": 1946,
      "done</w>": 1947,
      "dul": 1948,
      "ef</w>": 1949,
      "fre": 1950,
      "fli": 1951,
      "fool</w>": 1952,
      "faded</w>": 1953,
      "gli": 1954,
      "gold</w>": 1955,
      "gni": 1956,
      "gay</w>": 1957,
      "gate</w>": 1958,
      "ia</w>": 1959,
      "ive</w>": 1960,
      "iously</w>": 1961,
      "ja": 1962,
      "ket</w>": 1963,
      "la</w>": 1964,
      "nal</w>": 1965,
      "opp": 1966,
      "pr": 1967,
      "ren": 1968,
      "run": 1969,
      "rying</w>": 1970,
      "sk</w>": 1971,
      "she": 1972,
      "smile</w>": 1973,
      "ton</w>": 1974,
      "usu": 1975,
      "wns</w>": 1976,
      "yet</w>": 1977,
      "yach": 1978,
      "thu": 1979,
      "than": 1980,
      "thre": 1981,
      "thin</w>": 1982,
      "thick</w>": 1983,
      "aning</w>": 1984,
      "ern</w>": 1985,
      "water</w>": 1986,
      "high": 1987,
      "arly</w>": 1988,
      "arily</w>": 1989,
      "end": 1990,
      "enjo": 1991,
      "rely</w>": 1992,
      "itality</w>": 1993,
      "station</w>": 1994,
      "rol</w>": 1995,
      "elev": 1996,
      "elled</w>": 1997,
      "ail": 1998,
      "beat</w>": 1999,
      "beach</w>": 2000,
      "beau": 2001,
      "where": 2002,
      "till</w>": 2003,
      "does</w>": 2004,
      "dim</w>": 2005,
      "dies</w>": 2006,
      "abor": 2007,
      "laz": 2008,
      "lady</w>": 2009,
      "head": 2010,
      "ille</w>": 2011,
      "dec": 2012,
      "deter": 2013,
      "formed</w>": 2014,
      "pper</w>": 2015,
      "emo": 2016,
      "conne": 2017,
      "bot": 2018,
      "utely</w>": 2019,
      "terrible</w>": 2020,
      "sad</w>": 2021,
      "opening</w>": 2022,
      "quite</w>": 2023,
      "inger</w>": 2024,
      "ative</w>": 2025,
      "point</w>": 2026,
      "eyed</w>": 2027,
      "houses</w>": 2028,
      "sometimes</w>": 2029,
      "ety</w>": 2030,
      "often</w>": 2031,
      "impression</w>": 2032,
      "order</w>": 2033,
      "start": 2034,
      "start</w>": 2035,
      "meet</w>": 2036,
      "closed</w>": 2037,
      "Any": 2038,
      "music</w>": 2039,
      "cock": 2040,
      "tenegr": 2041,
      "plac": 2042,
      "obli": 2043,
      "obvi": 2044,
      "champ": 2045,
      "shape</w>": 2046,
      "guest": 2047,
      "months</w>": 2048,
      "faint</w>": 2049,
      "tel</w>": 2050,
      "stance</w>": 2051,
      "correc": 2052,
      "calling</w>": 2053,
      "rowing</w>": 2054,
      "interested</w>": 2055,
      "chil": 2056,
      "colour</w>": 2057,
      "cheer": 2058,
      "port": 2059,
      "silent</w>": 2060,
      "appro": 2061,
      "appeared</w>": 2062,
      "cular</w>": 2063,
      "friends</w>": 2064,
      "lars</w>": 2065,
      "supper</w>": 2066,
      "buy</w>": 2067,
      "invited</w>": 2068,
      "eigh": 2069,
      "street</w>": 2070,
      "expected</w>": 2071,
      "burg</w>": 2072,
      "dressed</w>": 2073,
      "politely</w>": 2074,
      "crowded</w>": 2075,
      "flat</w>": 2076,
      "pushed</w>": 2077,
      "ville</w>": 2078,
      "subj": 2079,
      "Montenegr": 2080,
      "ancing</w>": 2081,
      "Suddenly</w>": 2082,
      "gener": 2083,
      "incredul": 2084,
      "confused</w>": 2085,
      "pleasant</w>": 2086,
      "foot</w>": 2087,
      "flowers</w>": 2088,
      "thinking</w>": 2089,
      "bene": 2090,
      "hope</w>": 2091,
      "listening</w>": 2092,
      "nerv": 2093,
      "soft</w>": 2094,
      "impati": 2095,
      "physical</w>": 2096,
      "during</w>": 2097,
      "caught</w>": 2098,
      "dreams</w>": 2099,
      "clothes</w>": 2100,
      "Street</w>": 2101,
      "cockt": 2102,
      "19": 2103,
      "Be": 2104,
      "Ch": 2105,
      "Con": 2106,
      "Col": 2107,
      "En": 2108,
      "For": 2109,
      "Fran": 2110,
      "Go</w>": 2111,
      "Kli": 2112,
      "Mey": 2113,
      "Per": 2114,
      "ak</w>": 2115,
      "ber": 2116,
      "bar": 2117,
      "bon": 2118,
      "bit</w>": 2119,
      "bay</w>": 2120,
      "back": 2121,
      "can": 2122,
      "cli": 2123,
      "cut</w>": 2124,
      "cop": 2125,
      "cof": 2126,
      "clu": 2127,
      "cous": 2128,
      "dit": 2129,
      "des</w>": 2130,
      "dev": 2131,
      "eas": 2132,
      "eter": 2133,
      "edly</w>": 2134,
      "fo": 2135,
      "flu": 2136,
      "fast</w>": 2137,
      "gar</w>": 2138,
      "ither</w>": 2139,
      "ial</w>": 2140,
      "ister</w>": 2141,
      "ke": 2142,
      "len</w>": 2143,
      "mem": 2144,
      "met": 2145,
      "ost</w>": 2146,
      "osed</w>": 2147,
      "ph</w>": 2148,
      "pat": 2149,
      "pair</w>": 2150,
      "pspr": 2151,
      "swa": 2152,
      "ton": 2153,
      "tro": 2154,
      "tes</w>": 2155,
      "tun": 2156,
      "vic": 2157,
      "vel</w>": 2158,
      "wre": 2159,
      "your": 2160,
      "thor": 2161,
      "inet": 2162,
      "intim": 2163,
      "ang": 2164,
      "ant": 2165,
      "enever</w>": 2166,
      "enthu": 2167,
      "orche": 2168,
      "reach</w>": 2169,
      "sts</w>": 2170,
      "hat": 2171,
      "ats</w>": 2172,
      "ator</w>": 2173,
      "atten": 2174,
      "elu": 2175,
      "else</w>": 2176,
      "best</w>": 2177,
      "tiful</w>": 2178,
      "simp": 2179,
      "letter</w>": 2180,
      "leburg</w>": 2181,
      "urged</w>": 2182,
      "abrup": 2183,
      "absor": 2184,
      "above</w>": 2185,
      "show</w>": 2186,
      "iles</w>": 2187,
      "sea</w>": 2188,
      "sear": 2189,
      "suc": 2190,
      "near</w>": 2191,
      "today</w>": 2192,
      "spor": 2193,
      "ounted</w>": 2194,
      "agne</w>": 2195,
      "ased</w>": 2196,
      "good": 2197,
      "whisky</w>": 2198,
      "consci": 2199,
      "boat</w>": 2200,
      "board</w>": 2201,
      "uth</w>": 2202,
      "char": 2203,
      "says</w>": 2204,
      "ames</w>": 2205,
      "inging</w>": 2206,
      "atic</w>": 2207,
      "pow": 2208,
      "possi": 2209,
      "mist": 2210,
      "tastic</w>": 2211,
      "twenty</w>": 2212,
      "epted</w>": 2213,
      "eye": 2214,
      "hours</w>": 2215,
      "fig": 2216,
      "pers</w>": 2217,
      "fee</w>": 2218,
      "trac": 2219,
      "wide</w>": 2220,
      "host</w>": 2221,
      "lower</w>": 2222,
      "ssing</w>": 2223,
      "denti": 2224,
      "leaves</w>": 2225,
      "begin": 2226,
      "sured</w>": 2227,
      "given</w>": 2228,
      "brown</w>": 2229,
      "driver</w>": 2230,
      "dren</w>": 2231,
      "excited</w>": 2232,
      "cei": 2233,
      "anybody</w>": 2234,
      "gath": 2235,
      "contemp": 2236,
      "control</w>": 2237,
      "played</w>": 2238,
      "month</w>": 2239,
      "ground</w>": 2240,
      "breath": 2241,
      "serv": 2242,
      "servan": 2243,
      "help</w>": 2244,
      "dropped</w>": 2245,
      "fellow</w>": 2246,
      "appar": 2247,
      "overhead</w>": 2248,
      "believed</w>": 2249,
      "glance</w>": 2250,
      "certainly</w>": 2251,
      "drawing</w>": 2252,
      "vanished</w>": 2253,
      "tuous</w>": 2254,
      "remark</w>": 2255,
      "police</w>": 2256,
      "suggest": 2257,
      "dresses</w>": 2258,
      "accepted</w>": 2259,
      "edge</w>": 2260,
      "stead</w>": 2261,
      "human</w>": 2262,
      "isville</w>": 2263,
      "racti": 2264,
      "Have</w>": 2265,
      "Haven</w>": 2266,
      "sharp</w>": 2267,
      "sharply</w>": 2268,
      "books</w>": 2269,
      "excitement</w>": 2270,
      "object</w>": 2271,
      "disappeared</w>": 2272,
      "herself</w>": 2273,
      "realized</w>": 2274,
      "fantastic</w>": 2275,
      "holding</w>": 2276,
      "golf</w>": 2277,
      "waiting</w>": 2278,
      "shirts</w>": 2279,
      "Fif": 2280,
      "Once</w>": 2281,
      "ashes</w>": 2282,
      "dollars</w>": 2283,
      "wrong</w>": 2284,
      "secret</w>": 2285,
      "automob": 2286,
      "neighbour</w>": 2287,
      "blew</w>": 2288,
      "scarcely</w>": 2289,
      "personal</w>": 2290,
      "interrupted</w>": 2291,
      "village</w>": 2292,
      "apartment</w>": 2293,
      "newspaper</w>": 2294,
      "fresh</w>": 2295,
      "jumped</w>": 2296,
      "weren</w>": 2297,
      "engaged</w>": 2298,
      "strugg": 2299,
      "position</w>": 2300,
      "solemn</w>": 2301,
      "Eckleburg</w>": 2302,
      "Louisville</w>": 2303,
      "World</w>": 2304,
      "threw</w>": 2305,
      "beautiful</w>": 2306,
      "whereupon</w>": 2307,
      "determin": 2308,
      "champagne</w>": 2309,
      "guests</w>": 2310,
      "children</w>": 2311,
      "cheerful</w>": 2312,
      "subject</w>": 2313,
      "Montenegro</w>": 2314,
      "impatiently</w>": 2315,
      "Klipspr": 2316,
      "Meyer</w>": 2317,
      "Perhaps</w>": 2318,
      "coffee</w>": 2319,
      "yourself</w>": 2320,
      "enthusi": 2321,
      "goodbye</w>": 2322,
      "servants</w>": 2323,
      "Klipspringer</w>": 2324,
      "Ba": 2325,
      "Ex": 2326,
      "Ever": 2327,
      "Even</w>": 2328,
      "Fro": 2329,
      "Ho": 2330,
      "Hot</w>": 2331,
      "How": 2332,
      "James</w>": 2333,
      "List": 2334,
      "Most</w>": 2335,
      "Nex": 2336,
      "Pe": 2337,
      "Par": 2338,
      "See</w>": 2339,
      "To</w>": 2340,
      "Very</w>": 2341,
      "Whi": 2342,
      "Your</w>": 2343,
      "ake</w>": 2344,
      "bably</w>": 2345,
      "cy": 2346,
      "cla": 2347,
      "cup": 2348,
      "cille</w>": 2349,
      "dden</w>": 2350,
      "dance</w>": 2351,
      "dering</w>": 2352,
      "ddle</w>": 2353,
      "ea</w>": 2354,
      "eful</w>": 2355,
      "eff": 2356,
      "essed</w>": 2357,
      "fall</w>": 2358,
      "fting</w>": 2359,
      "filled</w>": 2360,
      "gl": 2361,
      "gn": 2362,
      "gor": 2363,
      "gas</w>": 2364,
      "gent": 2365,
      "gest": 2366,
      "ions</w>": 2367,
      "ker</w>": 2368,
      "ling": 2369,
      "loud</w>": 2370,
      "mly</w>": 2371,
      "mir": 2372,
      "mag": 2373,
      "ments</w>": 2374,
      "muttered</w>": 2375,
      "nine</w>": 2376,
      "nstairs</w>": 2377,
      "numb": 2378,
      "ninet": 2379,
      "oth": 2380,
      "pen": 2381,
      "pink</w>": 2382,
      "practi": 2383,
      "ring</w>": 2384,
      "sk": 2385,
      "san": 2386,
      "sou": 2387,
      "sse": 2388,
      "sati": 2389,
      "song</w>": 2390,
      "tac": 2391,
      "tely</w>": 2392,
      "tree</w>": 2393,
      "tears</w>": 2394,
      "un</w>": 2395,
      "ugh": 2396,
      "var": 2397,
      "val": 2398,
      "vered</w>": 2399,
      "wea": 2400,
      "what": 2401,
      "wnstairs</w>": 2402,
      "yes</w>": 2403,
      "yard</w>": 2404,
      "thri": 2405,
      "thous": 2406,
      "iny</w>": 2407,
      "inting</w>": 2408,
      "inci": 2409,
      "infin": 2410,
      "invisible</w>": 2411,
      "ared</w>": 2412,
      "arran": 2413,
      "enchan": 2414,
      "ency</w>": 2415,
      "orn</w>": 2416,
      "onlight</w>": 2417,
      "reli": 2418,
      "requ": 2419,
      "returned</w>": 2420,
      "resta": 2421,
      "stat": 2422,
      "stri": 2423,
      "stay</w>": 2424,
      "step</w>": 2425,
      "stily</w>": 2426,
      "aled</w>": 2427,
      "alled</w>": 2428,
      "elabor": 2429,
      "action</w>": 2430,
      "lie</w>": 2431,
      "list</w>": 2432,
      "liked</w>": 2433,
      "beaut": 2434,
      "noti": 2435,
      "tired</w>": 2436,
      "sim": 2437,
      "six</w>": 2438,
      "case</w>": 2439,
      "doors</w>": 2440,
      "downstairs</w>": 2441,
      "direc": 2442,
      "abs": 2443,
      "lap</w>": 2444,
      "laven": 2445,
      "shining</w>": 2446,
      "iling</w>": 2447,
      "see": 2448,
      "set": 2449,
      "sued</w>": 2450,
      "sumed</w>": 2451,
      "neck</w>": 2452,
      "neither</w>": 2453,
      "ounced</w>": 2454,
      "desi": 2455,
      "frow": 2456,
      "assured</w>": 2457,
      "ada": 2458,
      "advan": 2459,
      "goes</w>": 2460,
      "emer": 2461,
      "confi": 2462,
      "sal</w>": 2463,
      "extra": 2464,
      "looks</w>": 2465,
      "qua": 2466,
      "quar": 2467,
      "rum": 2468,
      "rubb": 2469,
      "posse": 2470,
      "mista": 2471,
      "tains</w>": 2472,
      "motor": 2473,
      "moonlight</w>": 2474,
      "wards</w>": 2475,
      "eting</w>": 2476,
      "mint</w>": 2477,
      "worn</w>": 2478,
      "imag": 2479,
      "ordered</w>": 2480,
      "pardon</w>": 2481,
      "vivi": 2482,
      "view</w>": 2483,
      "comes</w>": 2484,
      "early</w>": 2485,
      "truth</w>": 2486,
      "moment": 2487,
      "staring</w>": 2488,
      "sses</w>": 2489,
      "grew</w>": 2490,
      "umn</w>": 2491,
      "changing</w>": 2492,
      "present</w>": 2493,
      "pressed</w>": 2494,
      "finding</w>": 2495,
      "dream</w>": 2496,
      "cks</w>": 2497,
      "movement</w>": 2498,
      "movements</w>": 2499,
      "priv": 2500,
      "shaking</w>": 2501,
      "duced</w>": 2502,
      "guessed</w>": 2503,
      "ember</w>": 2504,
      "teen</w>": 2505,
      "tesqu": 2506,
      "verand": 2507,
      "grou": 2508,
      "happy</w>": 2509,
      "rowed</w>": 2510,
      "helped</w>": 2511,
      "dawn</w>": 2512,
      "college</w>": 2513,
      "chee": 2514,
      "phra": 2515,
      "understood</w>": 2516,
      "frighten": 2517,
      "within</w>": 2518,
      "supposed</w>": 2519,
      "offic": 2520,
      "buil": 2521,
      "grotesqu": 2522,
      "ized</w>": 2523,
      "invest": 2524,
      "stiff</w>": 2525,
      "stra</w>": 2526,
      "strai": 2527,
      "drawn</w>": 2528,
      "autumn</w>": 2529,
      "curtains</w>": 2530,
      "floated</w>": 2531,
      "soon</w>": 2532,
      "myst": 2533,
      "leaning</w>": 2534,
      "polite</w>": 2535,
      "Something</w>": 2536,
      "Sometimes</w>": 2537,
      "particular</w>": 2538,
      "funeral</w>": 2539,
      "singing</w>": 2540,
      "wondered</w>": 2541,
      "rested</w>": 2542,
      "affair</w>": 2543,
      "sorry</w>": 2544,
      "kissed</w>": 2545,
      "objected</w>": 2546,
      "circle</w>": 2547,
      "circum": 2548,
      "damp</w>": 2549,
      "reason</w>": 2550,
      "confusion</w>": 2551,
      "middle</w>": 2552,
      "strange</w>": 2553,
      "casual</w>": 2554,
      "casually</w>": 2555,
      "spring</w>": 2556,
      "promise</w>": 2557,
      "instinc": 2558,
      "heaps</w>": 2559,
      "quiet</w>": 2560,
      "natur": 2561,
      "attemp": 2562,
      "Nobody</w>": 2563,
      "accident</w>": 2564,
      "ghostly</w>": 2565,
      "definitely</w>": 2566,
      "American</w>": 2567,
      "Lucille</w>": 2568,
      "fashi": 2569,
      "incessantly</w>": 2570,
      "stretched</w>": 2571,
      "included</w>": 2572,
      "Two</w>": 2573,
      "bottle</w>": 2574,
      "obviously</w>": 2575,
      "beneath</w>": 2576,
      "nervous</w>": 2577,
      "backward</w>": 2578,
      "copy</w>": 2579,
      "easy</w>": 2580,
      "orchestra</w>": 2581,
      "attention</w>": 2582,
      "abruptly</w>": 2583,
      "figure</w>": 2584,
      "beginning</w>": 2585,
      "apparently</w>": 2586,
      "suggestion</w>": 2587,
      "Every": 2588,
      "From</w>": 2589,
      "However</w>": 2590,
      "Listen</w>": 2591,
      "Next</w>": 2592,
      "gentle": 2593,
      "nineteen</w>": 2594,
      "satis": 2595,
      "whatever</w>": 2596,
      "thousand</w>": 2597,
      "request</w>": 2598,
      "restaur": 2599,
      "beauty</w>": 2600,
      "lavender</w>": 2601,
      "mistake</w>": 2602,
      "grotesque</w>": 2603,
      "An</w>": 2604,
      "Car": 2605,
      "Can</w>": 2606,
      "Di": 2607,
      "Evi": 2608,
      "Hel": 2609,
      "Here</w>": 2610,
      "Ju": 2611,
      "Jim": 2612,
      "Le": 2613,
      "Li": 2614,
      "Nor": 2615,
      "Sat": 2616,
      "To": 2617,
      "Tell</w>": 2618,
      "Taking</w>": 2619,
      "avo": 2620,
      "bil": 2621,
      "bir": 2622,
      "ball</w>": 2623,
      "bas": 2624,
      "bru": 2625,
      "bath": 2626,
      "bond</w>": 2627,
      "cing</w>": 2628,
      "cul": 2629,
      "cently</w>": 2630,
      "cry</w>": 2631,
      "covered</w>": 2632,
      "droom</w>": 2633,
      "dum": 2634,
      "dran": 2635,
      "ede": 2636,
      "fai": 2637,
      "fic": 2638,
      "fra": 2639,
      "fut": 2640,
      "gon": 2641,
      "gai": 2642,
      "glo": 2643,
      "gri": 2644,
      "gle": 2645,
      "gust</w>": 2646,
      "gru": 2647,
      "glowing</w>": 2648,
      "ior</w>": 2649,
      "ise</w>": 2650,
      "ially</w>": 2651,
      "je": 2652,
      "kly</w>": 2653,
      "lin": 2654,
      "lon": 2655,
      "lling</w>": 2656,
      "lying</w>": 2657,
      "men": 2658,
      "may</w>": 2659,
      "maga": 2660,
      "mach": 2661,
      "mounted</w>": 2662,
      "nur": 2663,
      "ot": 2664,
      "osity</w>": 2665,
      "ping</w>": 2666,
      "pal": 2667,
      "pop": 2668,
      "pec": 2669,
      "pick</w>": 2670,
      "rent</w>": 2671,
      "race</w>": 2672,
      "rhy": 2673,
      "sy": 2674,
      "sp</w>": 2675,
      "sm</w>": 2676,
      "sob": 2677,
      "ssion</w>": 2678,
      "seven</w>": 2679,
      "slen": 2680,
      "sounded</w>": 2681,
      "tor</w>": 2682,
      "tle": 2683,
      "tone</w>": 2684,
      "tem": 2685,
      "tfully</w>": 2686,
      "um</w>": 2687,
      "ures</w>": 2688,
      "upper</w>": 2689,
      "vas</w>": 2690,
      "vitality</w>": 2691,
      "wed</w>": 2692,
      "wit": 2693,
      "wed": 2694,
      "xes</w>": 2695,
      "ybe</w>": 2696,
      "thy</w>": 2697,
      "inn": 2698,
      "inno": 2699,
      "inds</w>": 2700,
      "inary</w>": 2701,
      "informed</w>": 2702,
      "ann": 2703,
      "ano</w>": 2704,
      "anno": 2705,
      "ought": 2706,
      "erse": 2707,
      "erable</w>": 2708,
      "eries</w>": 2709,
      "waved</w>": 2710,
      "hilar": 2711,
      "arti": 2712,
      "army</w>": 2713,
      "ards</w>": 2714,
      "ens</w>": 2715,
      "ented</w>": 2716,
      "resp": 2717,
      "reds</w>": 2718,
      "reco": 2719,
      "repor": 2720,
      "recei": 2721,
      "itted</w>": 2722,
      "sted</w>": 2723,
      "hastily</w>": 2724,
      "rope</w>": 2725,
      "aler": 2726,
      "along": 2727,
      "aloud</w>": 2728,
      "alive</w>": 2729,
      "elt</w>": 2730,
      "elec": 2731,
      "ait</w>": 2732,
      "ails</w>": 2733,
      "locked</w>": 2734,
      "actu": 2735,
      "lic</w>": 2736,
      "lied</w>": 2737,
      "lifted</w>": 2738,
      "ghts</w>": 2739,
      "ride</w>": 2740,
      "beg</w>": 2741,
      "become</w>": 2742,
      "beating</w>": 2743,
      "bedroom</w>": 2744,
      "whe": 2745,
      "tip": 2746,
      "ties</w>": 2747,
      "tight</w>": 2748,
      "tically</w>": 2749,
      "olding</w>": 2750,
      "unusu": 2751,
      "urday</w>": 2752,
      "cable</w>": 2753,
      "dom</w>": 2754,
      "div": 2755,
      "dism": 2756,
      "distance</w>": 2757,
      "lap": 2758,
      "ral</w>": 2759,
      "radi": 2760,
      "shly</w>": 2761,
      "shine</w>": 2762,
      "sement</w>": 2763,
      "sudden</w>": 2764,
      "nee": 2765,
      "necess": 2766,
      "top</w>": 2767,
      "towards</w>": 2768,
      "sped</w>": 2769,
      "spir": 2770,
      "spot</w>": 2771,
      "spread</w>": 2772,
      "ount</w>": 2773,
      "agg": 2774,
      "det": 2775,
      "defi": 2776,
      "deser": 2777,
      "death</w>": 2778,
      "force</w>": 2779,
      "adv": 2780,
      "ading</w>": 2781,
      "address</w>": 2782,
      "concent": 2783,
      "convin": 2784,
      "bow</w>": 2785,
      "chor": 2786,
      "aming</w>": 2787,
      "ingu": 2788,
      "atively</w>": 2789,
      "mixed</w>": 2790,
      "tain</w>": 2791,
      "eces</w>": 2792,
      "ects</w>": 2793,
      "scu": 2794,
      "etro": 2795,
      "worried</w>": 2796,
      "imming</w>": 2797,
      "import": 2798,
      "esting</w>": 2799,
      "persist": 2800,
      "selves</w>": 2801,
      "vili": 2802,
      "earing</w>": 2803,
      "earne": 2804,
      "trust</w>": 2805,
      "hosp": 2806,
      "ult</w>": 2807,
      "lows</w>": 2808,
      "cious</w>": 2809,
      "stars</w>": 2810,
      "ssness</w>": 2811,
      "ssment</w>": 2812,
      "meant</w>": 2813,
      "leather</w>": 2814,
      "begun</w>": 2815,
      "chance</w>": 2816,
      "prot": 2817,
      "colo": 2818,
      "gic</w>": 2819,
      "drifted</w>": 2820,
      "plane</w>": 2821,
      "careless</w>": 2822,
      "mansion</w>": 2823,
      "movies</w>": 2824,
      "hand": 2825,
      "gger</w>": 2826,
      "grave</w>": 2827,
      "afterward</w>": 2828,
      "marble</w>": 2829,
      "gry</w>": 2830,
      "bree": 2831,
      "corners</w>": 2832,
      "everybody</w>": 2833,
      "Middle</w>": 2834,
      "interest</w>": 2835,
      "interesting</w>": 2836,
      "series</w>": 2837,
      "geous</w>": 2838,
      "piano</w>": 2839,
      "pieces</w>": 2840,
      "groaning</w>": 2841,
      "glasses</w>": 2842,
      "knows</w>": 2843,
      "blind</w>": 2844,
      "following</w>": 2845,
      "passi": 2846,
      "shot</w>": 2847,
      "shoes</w>": 2848,
      "shock</w>": 2849,
      "sentim": 2850,
      "husky</w>": 2851,
      "surprise</w>": 2852,
      "picked</w>": 2853,
      "brick</w>": 2854,
      "bridge</w>": 2855,
      "delic": 2856,
      "dressing</w>": 2857,
      "polo</w>": 2858,
      "trium": 2859,
      "intensity</w>": 2860,
      "stepped</w>": 2861,
      "continually</w>": 2862,
      "touched</w>": 2863,
      "touching</w>": 2864,
      "watched</w>": 2865,
      "restless</w>": 2866,
      "shoulders</w>": 2867,
      "straw</w>": 2868,
      "sunlight</w>": 2869,
      "common</w>": 2870,
      "ances</w>": 2871,
      "signi": 2872,
      "excitedly</w>": 2873,
      "country</w>": 2874,
      "damned</w>": 2875,
      "milli": 2876,
      "owl</w>": 2877,
      "discovered</w>": 2878,
      "midnight</w>": 2879,
      "violent</w>": 2880,
      "violently</w>": 2881,
      "cler": 2882,
      "vague</w>": 2883,
      "decisively</w>": 2884,
      "umbled</w>": 2885,
      "icial</w>": 2886,
      "golden</w>": 2887,
      "waiter</w>": 2888,
      "elebr": 2889,
      "perior</w>": 2890,
      "formation</w>": 2891,
      "concealed</w>": 2892,
      "pockets</w>": 2893,
      "Almost</w>": 2894,
      "univer": 2895,
      "gardens</w>": 2896,
      "gardener</w>": 2897,
      "cigarette</w>": 2898,
      "cigarettes</w>": 2899,
      "doubt</w>": 2900,
      "further</w>": 2901,
      "snapped</w>": 2902,
      "reluctant</w>": 2903,
      "absolutely</w>": 2904,
      "remained</w>": 2905,
      "gradually</w>": 2906,
      "embarrassment</w>": 2907,
      "introduc": 2908,
      "murmured</w>": 2909,
      "drugstore</w>": 2910,
      "difference</w>": 2911,
      "photograph</w>": 2912,
      "running</w>": 2913,
      "yacht</w>": 2914,
      "thanks</w>": 2915,
      "enjoyed</w>": 2916,
      "elevator</w>": 2917,
      "emotion</w>": 2918,
      "connection</w>": 2919,
      "startled</w>": 2920,
      "incredulously</w>": 2921,
      "cocktails</w>": 2922,
      "France</w>": 2923,
      "canvas</w>": 2924,
      "cousin</w>": 2925,
      "memory</w>": 2926,
      "intimate</w>": 2927,
      "success": 2928,
      "gathered</w>": 2929,
      "automobiles</w>": 2930,
      "Baede": 2931,
      "Exc": 2932,
      "Hotel</w>": 2933,
      "gorgeous</w>": 2934,
      "thrilling</w>": 2935,
      "enchanted</w>": 2936,
      "elaborate</w>": 2937,
      "emerged</w>": 2938,
      "circumstan": 2939,
      "Everybody</w>": 2940,
      "satisfac": 2941,
      "restaurant</w>": 2942,
      "Evidently</w>": 2943,
      "Hello</w>": 2944,
      "Jimmy</w>": 2945,
      "Saturday</w>": 2946,
      "basket</w>": 2947,
      "drank</w>": 2948,
      "future</w>": 2949,
      "magaz": 2950,
      "nurse</w>": 2951,
      "pecu": 2952,
      "rhyth": 2953,
      "slender</w>": 2954,
      "innocently</w>": 2955,
      "respon": 2956,
      "receiver</w>": 2957,
      "necessary</w>": 2958,
      "concentr": 2959,
      "convinced</w>": 2960,
      "important</w>": 2961,
      "persistent</w>": 2962,
      "Baedeker</w>": 2963,
      "15</w>": 2964,
      "30</w>": 2965,
      "Ar": 2966,
      "Au": 2967,
      "Are</w>": 2968,
      "Aven": 2969,
      "Bar": 2970,
      "Broad": 2971,
      "Che": 2972,
      "Eu": 2973,
      "Fer": 2974,
      "Fir": 2975,
      "Fren": 2976,
      "Go": 2977,
      "Ga</w>": 2978,
      "Get</w>": 2979,
      "Hi": 2980,
      "Hill</w>": 2981,
      "II</w>": 2982,
      "Ka": 2983,
      "Lake</w>": 2984,
      "Never</w>": 2985,
      "Oc": 2986,
      "Or": 2987,
      "Or</w>": 2988,
      "Ogg": 2989,
      "Plaz": 2990,
      "Qu": 2991,
      "Roo": 2992,
      "Sund": 2993,
      "Series</w>": 2994,
      "Un": 2995,
      "Wal": 2996,
      "West": 2997,
      "Yale</w>": 2998,
      "az": 2999,
      "aun": 3000,
      "ather</w>": 3001,
      "apo": 3002,
      "aside</w>": 3003,
      "ahead</w>": 3004,
      "ayed</w>": 3005,
      "bs</w>": 3006,
      "ber</w>": 3007,
      "bing</w>": 3008,
      "bent</w>": 3009,
      "bound</w>": 3010,
      "bled</w>": 3011,
      "bare</w>": 3012,
      "cher</w>": 3013,
      "cted</w>": 3014,
      "cking</w>": 3015,
      "card</w>": 3016,
      "celebr": 3017,
      "dard</w>": 3018,
      "dus": 3019,
      "dness</w>": 3020,
      "drow": 3021,
      "dancing</w>": 3022,
      "educ": 3023,
      "fen": 3024,
      "foun": 3025,
      "free</w>": 3026,
      "flan": 3027,
      "gon</w>": 3028,
      "gant</w>": 3029,
      "gest</w>": 3030,
      "gul": 3031,
      "gum": 3032,
      "gland</w>": 3033,
      "glistening</w>": 3034,
      "hat</w>": 3035,
      "hold</w>": 3036,
      "hers</w>": 3037,
      "ied</w>": 3038,
      "ian</w>": 3039,
      "ish</w>": 3040,
      "identi": 3041,
      "ker": 3042,
      "kne": 3043,
      "kely</w>": 3044,
      "key</w>": 3045,
      "lined</w>": 3046,
      "lingly</w>": 3047,
      "lla</w>": 3048,
      "mp</w>": 3049,
      "mas</w>": 3050,
      "mas": 3051,
      "mad</w>": 3052,
      "mps</w>": 3053,
      "mmed</w>": 3054,
      "menti": 3055,
      "mselves</w>": 3056,
      "nor</w>": 3057,
      "osit": 3058,
      "pit": 3059,
      "pes</w>": 3060,
      "put": 3061,
      "pay</w>": 3062,
      "pear": 3063,
      "plu": 3064,
      "pum": 3065,
      "rail": 3066,
      "sno": 3067,
      "sle": 3068,
      "sla": 3069,
      "snow</w>": 3070,
      "sold</w>": 3071,
      "slow</w>": 3072,
      "slowed</w>": 3073,
      "sford</w>": 3074,
      "ssal</w>": 3075,
      "tent</w>": 3076,
      "tut</w>": 3077,
      "tting</w>": 3078,
      "tour": 3079,
      "uely</w>": 3080,
      "ular</w>": 3081,
      "wra": 3082,
      "wls</w>": 3083,
      "wings</w>": 3084,
      "wear</w>": 3085,
      "xiously</w>": 3086,
      "yer</w>": 3087,
      "youth</w>": 3088,
      "yaw": 3089,
      "yards</w>": 3090,
      "zz": 3091,
      "ther": 3092,
      "throw</w>": 3093,
      "theless</w>": 3094,
      "ink": 3095,
      "ines</w>": 3096,
      "inity</w>": 3097,
      "ination</w>": 3098,
      "information</w>": 3099,
      "anxiously</w>": 3100,
      "outh": 3101,
      "ough": 3102,
      "wan</w>": 3103,
      "wast": 3104,
      "wagon</w>": 3105,
      "history</w>": 3106,
      "ari": 3107,
      "arse</w>": 3108,
      "argum": 3109,
      "enter": 3110,
      "entered</w>": 3111,
      "oran": 3112,
      "ones</w>": 3113,
      "onged</w>": 3114,
      "rel": 3115,
      "rear</w>": 3116,
      "remo": 3117,
      "refu": 3118,
      "remin": 3119,
      "regar": 3120,
      "itable</w>": 3121,
      "stle</w>": 3122,
      "stur": 3123,
      "stic": 3124,
      "stant</w>": 3125,
      "strolled</w>": 3126,
      "stmas</w>": 3127,
      "hase</w>": 3128,
      "haun": 3129,
      "hate</w>": 3130,
      "haugh": 3131,
      "ror</w>": 3132,
      "rock</w>": 3133,
      "also</w>": 3134,
      "elf</w>": 3135,
      "elds</w>": 3136,
      "acy</w>": 3137,
      "acqua": 3138,
      "lit</w>": 3139,
      "liqu": 3140,
      "likely</w>": 3141,
      "ripp": 3142,
      "riage</w>": 3143,
      "ristmas</w>": 3144,
      "note</w>": 3145,
      "whel": 3146,
      "whenever</w>": 3147,
      "tip</w>": 3148,
      "tive</w>": 3149,
      "tici": 3150,
      "tible</w>": 3151,
      "tipped</w>": 3152,
      "tisement</w>": 3153,
      "olved</w>": 3154,
      "omp": 3155,
      "omed</w>": 3156,
      "six": 3157,
      "leg": 3158,
      "lem": 3159,
      "ley</w>": 3160,
      "unt": 3161,
      "unch</w>": 3162,
      "unutter": 3163,
      "uneasy</w>": 3164,
      "door": 3165,
      "dock</w>": 3166,
      "digni": 3167,
      "ables</w>": 3168,
      "lawns</w>": 3169,
      "raw": 3170,
      "raw</w>": 3171,
      "themselves</w>": 3172,
      "shou": 3173,
      "shes</w>": 3174,
      "shness</w>": 3175,
      "sem": 3176,
      "seas": 3177,
      "seem</w>": 3178,
      "sul": 3179,
      "suff": 3180,
      "news</w>": 3181,
      "tower</w>": 3182,
      "irs</w>": 3183,
      "spent</w>": 3184,
      "spired</w>": 3185,
      "splen": 3186,
      "sprang</w>": 3187,
      "oved</w>": 3188,
      "deca": 3189,
      "deal</w>": 3190,
      "desc": 3191,
      "desol": 3192,
      "descen": 3193,
      "desk</w>": 3194,
      "forgot</w>": 3195,
      "asm</w>": 3196,
      "asser": 3197,
      "assumed</w>": 3198,
      "ads</w>": 3199,
      "adver": 3200,
      "conv": 3201,
      "consi": 3202,
      "confir": 3203,
      "concep": 3204,
      "constant</w>": 3205,
      "boys</w>": 3206,
      "boxes</w>": 3207,
      "sav": 3208,
      "exam": 3209,
      "amed</w>": 3210,
      "amount</w>": 3211,
      "quick</w>": 3212,
      "ooked</w>": 3213,
      "enteen</w>": 3214,
      "post": 3215,
      "posed</w>": 3216,
      "pointed</w>": 3217,
      "pointing</w>": 3218,
      "miss</w>": 3219,
      "miser": 3220,
      "missed</w>": 3221,
      "motor</w>": 3222,
      "ecst": 3223,
      "ection</w>": 3224,
      "eping</w>": 3225,
      "nish</w>": 3226,
      "nights</w>": 3227,
      "scre": 3228,
      "scep": 3229,
      "scorn</w>": 3230,
      "etly</w>": 3231,
      "liter": 3232,
      "worked</w>": 3233,
      "fic</w>": 3234,
      "impres": 3235,
      "impassi": 3236,
      "ordinary</w>": 3237,
      "percep": 3238,
      "parted</w>": 3239,
      "parents</w>": 3240,
      "comfor": 3241,
      "earth</w>": 3242,
      "wives</w>": 3243,
      "wiped</w>": 3244,
      "ulking</w>": 3245,
      "cies</w>": 3246,
      "starting</w>": 3247,
      "swinging</w>": 3248,
      "swimming</w>": 3249,
      "fire</w>": 3250,
      "propri": 3251,
      "profound</w>": 3252,
      "probably</w>": 3253,
      "cool": 3254,
      "costu": 3255,
      "coher": 3256,
      "gible</w>": 3257,
      "giving</w>": 3258,
      "gives</w>": 3259,
      "evertheless</w>": 3260,
      "broad</w>": 3261,
      "finished</w>": 3262,
      "drift</w>": 3263,
      "plan</w>": 3264,
      "plun": 3265,
      "carried</w>": 3266,
      "carry</w>": 3267,
      "manner</w>": 3268,
      "akfast</w>": 3269,
      "chatter</w>": 3270,
      "gau": 3271,
      "game</w>": 3272,
      "bring</w>": 3273,
      "gged</w>": 3274,
      "gravel</w>": 3275,
      "pride</w>": 3276,
      "maj": 3277,
      "bells</w>": 3278,
      "below</w>": 3279,
      "belonged</w>": 3280,
      "gular</w>": 3281,
      "wandered</w>": 3282,
      "tedly</w>": 3283,
      "trains</w>": 3284,
      "tragic</w>": 3285,
      "grac": 3286,
      "stantly</w>": 3287,
      "brea": 3288,
      "breaking</w>": 3289,
      "breakfast</w>": 3290,
      "store</w>": 3291,
      "preten": 3292,
      "interior</w>": 3293,
      "sisti": 3294,
      "served</w>": 3295,
      "helple": 3296,
      "ffled</w>": 3297,
      "papers</w>": 3298,
      "chin</w>": 3299,
      "cheon</w>": 3300,
      "drop</w>": 3301,
      "droplane</w>": 3302,
      "overwhel": 3303,
      "tress</w>": 3304,
      "grow</w>": 3305,
      "izing</w>": 3306,
      "invite</w>": 3307,
      "lighted</w>": 3308,
      "blur": 3309,
      "follow</w>": 3310,
      "shows</w>": 3311,
      "eight</w>": 3312,
      "string</w>": 3313,
      "empty</w>": 3314,
      "harsh</w>": 3315,
      "sense</w>": 3316,
      "drawer</w>": 3317,
      "expec": 3318,
      "author": 3319,
      "soci": 3320,
      "surprising</w>": 3321,
      "join</w>": 3322,
      "deli": 3323,
      "gets</w>": 3324,
      "luncheon</w>": 3325,
      "entirely</w>": 3326,
      "accus": 3327,
      "Someone</w>": 3328,
      "intention</w>": 3329,
      "nodding</w>": 3330,
      "Doesn</w>": 3331,
      "sinister</w>": 3332,
      "square</w>": 3333,
      "huge</w>": 3334,
      "hundreds</w>": 3335,
      "merely</w>": 3336,
      "raced</w>": 3337,
      "shortly</w>": 3338,
      "speaking</w>": 3339,
      "curiosity</w>": 3340,
      "aston": 3341,
      "blown</w>": 3342,
      "ighted</w>": 3343,
      "leng": 3344,
      "sunshine</w>": 3345,
      "indign": 3346,
      "finger</w>": 3347,
      "kiss</w>": 3348,
      "stuff</w>": 3349,
      "signs</w>": 3350,
      "bootle": 3351,
      "questions</w>": 3352,
      "disappo": 3353,
      "disappro": 3354,
      "counter</w>": 3355,
      "milk</w>": 3356,
      "miles</w>": 3357,
      "increased</w>": 3358,
      "completely</w>": 3359,
      "apart</w>": 3360,
      "balls</w>": 3361,
      "balancing</w>": 3362,
      "foot": 3363,
      "panic</w>": 3364,
      "slid</w>": 3365,
      "vaguely</w>": 3366,
      "third</w>": 3367,
      "stranger</w>": 3368,
      "decided</w>": 3369,
      "realize</w>": 3370,
      "Maybe</w>": 3371,
      "diffic": 3372,
      "ferred</w>": 3373,
      "instant</w>": 3374,
      "elessly</w>": 3375,
      "admired</w>": 3376,
      "admitted</w>": 3377,
      "Finn</w>": 3378,
      "Only</w>": 3379,
      "hydroplane</w>": 3380,
      "wels</w>": 3381,
      "suspected</w>": 3382,
      "suspici": 3383,
      "utterly</w>": 3384,
      "pocket</w>": 3385,
      "compli": 3386,
      "Rosy</w>": 3387,
      "purpo": 3388,
      "pursued</w>": 3389,
      "accid": 3390,
      "uniform</w>": 3391,
      "capac": 3392,
      "blankly</w>": 3393,
      "hung</w>": 3394,
      "sevelt</w>": 3395,
      "seventeen</w>": 3396,
      "smoke</w>": 3397,
      "weal": 3398,
      "thrown</w>": 3399,
      "sidewalk</w>": 3400,
      "absolute</w>": 3401,
      "irresisti": 3402,
      "perfect</w>": 3403,
      "embarrassed</w>": 3404,
      "drugstores</w>": 3405,
      "different</w>": 3406,
      "crossed</w>": 3407,
      "glimp": 3408,
      "higher</w>": 3409,
      "heads</w>": 3410,
      "places</w>": 3411,
      "corrected</w>": 3412,
      "Before</w>": 3413,
      "Christmas</w>": 3414,
      "College</w>": 3415,
      "England</w>": 3416,
      "eternal</w>": 3417,
      "tonight</w>": 3418,
      "simply</w>": 3419,
      "absorbed</w>": 3420,
      "charming</w>": 3421,
      "possible</w>": 3422,
      "mistak": 3423,
      "eyebro": 3424,
      "determined</w>": 3425,
      "Park</w>": 3426,
      "gesture</w>": 3427,
      "number</w>": 3428,
      "others</w>": 3429,
      "sank</w>": 3430,
      "various</w>": 3431,
      "weather</w>": 3432,
      "statement</w>": 3433,
      "direction</w>": 3434,
      "seeing</w>": 3435,
      "adame</w>": 3436,
      "advant": 3437,
      "quarter</w>": 3438,
      "vivid</w>": 3439,
      "private</w>": 3440,
      "veranda</w>": 3441,
      "group</w>": 3442,
      "phrase</w>": 3443,
      "frightened</w>": 3444,
      "investig": 3445,
      "straight</w>": 3446,
      "naturally</w>": 3447,
      "attempt</w>": 3448,
      "fashion": 3449,
      "gentleman</w>": 3450,
      "July</w>": 3451,
      "gaiety</w>": 3452,
      "gleaming</w>": 3453,
      "popular</w>": 3454,
      "wedding</w>": 3455,
      "announced</w>": 3456,
      "oughtn</w>": 3457,
      "ersey</w>": 3458,
      "recogni": 3459,
      "electri": 3460,
      "tipto": 3461,
      "inguished</w>": 3462,
      "colossal</w>": 3463,
      "sentimental</w>": 3464,
      "signific": 3465,
      "introduction</w>": 3466,
      "Excuse</w>": 3467,
      "circumstances</w>": 3468,
      "rhythm</w>": 3469,
      "Avenue</w>": 3470,
      "Broadway</w>": 3471,
      "Chester</w>": 3472,
      "Europe</w>": 3473,
      "First</w>": 3474,
      "French</w>": 3475,
      "Going</w>": 3476,
      "Oggsford</w>": 3477,
      "Plaza</w>": 3478,
      "Roosevelt</w>": 3479,
      "Sunday</w>": 3480,
      "Walter</w>": 3481,
      "apolo": 3482,
      "dusk</w>": 3483,
      "mentioned</w>": 3484,
      "railroad</w>": 3485,
      "tournam": 3486,
      "yawned</w>": 3487,
      "reminded</w>": 3488,
      "acquaint": 3489,
      "dignified</w>": 3490,
      "season</w>": 3491,
      "descri": 3492,
      "desolate</w>": 3493,
      "advertisement</w>": 3494,
      "impassioned</w>": 3495,
      "propriet": 3496,
      "costume</w>": 3497,
      "helplessly</w>": 3498,
      "19</w>": 3499,
      "Ai": 3500,
      "Ah</w>": 3501,
      "Bo": 3502,
      "Bri": 3503,
      "Cro": 3504,
      "Civ": 3505,
      "Du": 3506,
      "Dad": 3507,
      "Ella</w>": 3508,
      "Flu": 3509,
      "Ger": 3510,
      "Gre": 3511,
      "Hu": 3512,
      "Hor": 3513,
      "Ital": 3514,
      "Jersey</w>": 3515,
      "Mor": 3516,
      "Mul": 3517,
      "Metro": 3518,
      "Nevertheless</w>": 3519,
      "Our</w>": 3520,
      "Po": 3521,
      "Pro": 3522,
      "Sch": 3523,
      "Sim": 3524,
      "Several</w>": 3525,
      "Sant": 3526,
      "Tat": 3527,
      "Tur": 3528,
      "Town</w>": 3529,
      "Want</w>": 3530,
      "Wait</w>": 3531,
      "Yea": 3532,
      "ap</w>": 3533,
      "au</w>": 3534,
      "bar</w>": 3535,
      "bute</w>": 3536,
      "bend</w>": 3537,
      "bies</w>": 3538,
      "bath</w>": 3539,
      "biz": 3540,
      "brain</w>": 3541,
      "blaz": 3542,
      "cer</w>": 3543,
      "cle</w>": 3544,
      "cand": 3545,
      "clim": 3546,
      "crushed</w>": 3547,
      "dry</w>": 3548,
      "dale</w>": 3549,
      "dang": 3550,
      "dances</w>": 3551,
      "ew": 3552,
      "eer</w>": 3553,
      "eut": 3554,
      "ess": 3555,
      "eously</w>": 3556,
      "egg</w>": 3557,
      "echo": 3558,
      "edom</w>": 3559,
      "far": 3560,
      "fle": 3561,
      "fway</w>": 3562,
      "fru": 3563,
      "flow</w>": 3564,
      "fran": 3565,
      "flat": 3566,
      "founded</w>": 3567,
      "ficial</w>": 3568,
      "gy": 3569,
      "gled</w>": 3570,
      "gers</w>": 3571,
      "gtion</w>": 3572,
      "glow</w>": 3573,
      "gran": 3574,
      "gement</w>": 3575,
      "gements</w>": 3576,
      "hen</w>": 3577,
      "hood</w>": 3578,
      "hint</w>": 3579,
      "hovered</w>": 3580,
      "hulking</w>": 3581,
      "ile</w>": 3582,
      "isol": 3583,
      "ical</w>": 3584,
      "idently</w>": 3585,
      "jer": 3586,
      "kn": 3587,
      "ly": 3588,
      "lur": 3589,
      "mand</w>": 3590,
      "mal": 3591,
      "mson</w>": 3592,
      "mation</w>": 3593,
      "mpa": 3594,
      "nor": 3595,
      "nit": 3596,
      "nings</w>": 3597,
      "nment</w>": 3598,
      "oh</w>": 3599,
      "ots</w>": 3600,
      "py": 3601,
      "pt</w>": 3602,
      "pun": 3603,
      "pet": 3604,
      "phan": 3605,
      "pless</w>": 3606,
      "phase</w>": 3607,
      "ry": 3608,
      "rut": 3609,
      "rty</w>": 3610,
      "sand</w>": 3611,
      "ser</w>": 3612,
      "sne": 3613,
      "sad": 3614,
      "sent": 3615,
      "sell</w>": 3616,
      "sought</w>": 3617,
      "sour": 3618,
      "swal": 3619,
      "singly</w>": 3620,
      "sail": 3621,
      "tin": 3622,
      "tted</w>": 3623,
      "tum": 3624,
      "tons</w>": 3625,
      "uation</w>": 3626,
      "ve": 3627,
      "vel": 3628,
      "vac": 3629,
      "vol": 3630,
      "vour</w>": 3631,
      "vest": 3632,
      "vul": 3633,
      "vast</w>": 3634,
      "vals</w>": 3635,
      "wro": 3636,
      "wic": 3637,
      "wel</w>": 3638,
      "woke</w>": 3639,
      "zation</w>": 3640,
      "throwing</w>": 3641,
      "inev": 3642,
      "inex": 3643,
      "inking</w>": 3644,
      "inated</w>": 3645,
      "indly</w>": 3646,
      "inion</w>": 3647,
      "indefin": 3648,
      "instead</w>": 3649,
      "incoher": 3650,
      "ouds</w>": 3651,
      "erci": 3652,
      "ernal</w>": 3653,
      "erial</w>": 3654,
      "waving</w>": 3655,
      "hips</w>": 3656,
      "ark": 3657,
      "ars</w>": 3658,
      "aring</w>": 3659,
      "aren</w>": 3660,
      "arity</w>": 3661,
      "arre</w>": 3662,
      "argu": 3663,
      "armist": 3664,
      "enn": 3665,
      "enly</w>": 3666,
      "enter</w>": 3667,
      "endo</w>": 3668,
      "ored</w>": 3669,
      "orchi": 3670,
      "ortun": 3671,
      "ony</w>": 3672,
      "oner</w>": 3673,
      "reci": 3674,
      "repro": 3675,
      "repres": 3676,
      "rever": 3677,
      "reality</w>": 3678,
      "reaction</w>": 3679,
      "resem": 3680,
      "regular</w>": 3681,
      "reau</w>": 3682,
      "redale</w>": 3683,
      "itu": 3684,
      "ittle</w>": 3685,
      "itation</w>": 3686,
      "ition</w>": 3687,
      "itably</w>": 3688,
      "stun": 3689,
      "stout</w>": 3690,
      "star</w>": 3691,
      "stered</w>": 3692,
      "stir</w>": 3693,
      "stable</w>": 3694,
      "stoff</w>": 3695,
      "stiny</w>": 3696,
      "stables</w>": 3697,
      "habit</w>": 3698,
      "atically</w>": 3699,
      "attrac": 3700,
      "aling</w>": 3701,
      "alar": 3702,
      "elve</w>": 3703,
      "eliness</w>": 3704,
      "elbow</w>": 3705,
      "lor</w>": 3706,
      "loves</w>": 3707,
      "acing</w>": 3708,
      "acter</w>": 3709,
      "actly</w>": 3710,
      "acks</w>": 3711,
      "lies</w>": 3712,
      "lious</w>": 3713,
      "lished</w>": 3714,
      "licable</w>": 3715,
      "rill</w>": 3716,
      "riding</w>": 3717,
      "rigi": 3718,
      "ripped</w>": 3719,
      "rising</w>": 3720,
      "bedro": 3721,
      "beads</w>": 3722,
      "nod</w>": 3723,
      "nobody</w>": 3724,
      "nostri": 3725,
      "tily</w>": 3726,
      "tick": 3727,
      "tively</w>": 3728,
      "oline</w>": 3729,
      "older</w>": 3730,
      "ollen</w>": 3731,
      "sir</w>": 3732,
      "sions</w>": 3733,
      "sides</w>": 3734,
      "lep</w>": 3735,
      "lear": 3736,
      "lead": 3737,
      "leash</w>": 3738,
      "untered</w>": 3739,
      "unwil": 3740,
      "uncertain</w>": 3741,
      "untrue</w>": 3742,
      "unexpected</w>": 3743,
      "unsuccess": 3744,
      "unmistak": 3745,
      "ured</w>": 3746,
      "cap</w>": 3747,
      "dogs</w>": 3748,
      "die</w>": 3749,
      "disp": 3750,
      "diss": 3751,
      "distor": 3752,
      "eving</w>": 3753,
      "evidently</w>": 3754,
      "absur": 3755,
      "abstr": 3756,
      "lad": 3757,
      "ladies</w>": 3758,
      "ray</w>": 3759,
      "rage</w>": 3760,
      "rapi": 3761,
      "ragged</w>": 3762,
      "shut</w>": 3763,
      "share</w>": 3764,
      "shment</w>": 3765,
      "shrubb": 3766,
      "shrill</w>": 3767,
      "illu": 3768,
      "sequ": 3769,
      "separ": 3770,
      "secur": 3771,
      "suits</w>": 3772,
      "nel</w>": 3773,
      "need</w>": 3774,
      "negtion</w>": 3775,
      "towns</w>": 3776,
      "tober</w>": 3777,
      "towel</w>": 3778,
      "sper": 3779,
      "sping</w>": 3780,
      "spla": 3781,
      "spend</w>": 3782,
      "space</w>": 3783,
      "spark": 3784,
      "ounds</w>": 3785,
      "deep": 3786,
      "demand</w>": 3787,
      "destiny</w>": 3788,
      "forty</w>": 3789,
      "forth</w>": 3790,
      "ppose</w>": 3791,
      "asing</w>": 3792,
      "asoline</w>": 3793,
      "addressed</w>": 3794,
      "goin</w>": 3795,
      "contr": 3796,
      "concer": 3797,
      "consequ": 3798,
      "box</w>": 3799,
      "both": 3800,
      "bother</w>": 3801,
      "utter</w>": 3802,
      "utting</w>": 3803,
      "ches</w>": 3804,
      "safe</w>": 3805,
      "sauntered</w>": 3806,
      "ext": 3807,
      "extr": 3808,
      "exerci": 3809,
      "exactly</w>": 3810,
      "Through</w>": 3811,
      "ambit": 3812,
      "Whenever</w>": 3813,
      "oper": 3814,
      "opinion</w>": 3815,
      "entu": 3816,
      "ational</w>": 3817,
      "rush</w>": 3818,
      "rubies</w>": 3819,
      "pole</w>": 3820,
      "pool": 3821,
      "point": 3822,
      "power</w>": 3823,
      "mist</w>": 3824,
      "mistre": 3825,
      "mission</w>": 3826,
      "tax": 3827,
      "tapped</w>": 3828,
      "tained</w>": 3829,
      "moder": 3830,
      "warm": 3831,
      "warned</w>": 3832,
      "ectly</w>": 3833,
      "twist": 3834,
      "twink": 3835,
      "twelve</w>": 3836,
      "eye</w>": 3837,
      "eys</w>": 3838,
      "reser": 3839,
      "resolved</w>": 3840,
      "turbul": 3841,
      "somehow</w>": 3842,
      "scolding</w>": 3843,
      "scrut": 3844,
      "etable</w>": 3845,
      "minister</w>": 3846,
      "work": 3847,
      "wore</w>": 3848,
      "worse</w>": 3849,
      "worth</w>": 3850,
      "fight</w>": 3851,
      "fixed</w>": 3852,
      "fields</w>": 3853,
      "faced</w>": 3854,
      "orders</w>": 3855,
      "estab": 3856,
      "perv": 3857,
      "part": 3858,
      "park</w>": 3859,
      "seless</w>": 3860,
      "vigi": 3861,
      "visit": 3862,
      "complained</w>": 3863,
      "compan": 3864,
      "track</w>": 3865,
      "wires</w>": 3866,
      "ulty</w>": 3867,
      "ultan": 3868,
      "Will</w>": 3869,
      "removed</w>": 3870,
      "civili": 3871,
      "moments</w>": 3872,
      "ouring</w>": 3873,
      "meaning</w>": 3874,
      "close": 3875,
      "ousine</w>": 3876,
      "ousness</w>": 3877,
      "leaf</w>": 3878,
      "umerable</w>": 3879,
      "begin</w>": 3880,
      "sma": 3881,
      "swe": 3882,
      "sweat</w>": 3883,
      "swollen</w>": 3884,
      "musc": 3885,
      "muffled</w>": 3886,
      "presently</w>": 3887,
      "pressure</w>": 3888,
      "winter</w>": 3889,
      "tense</w>": 3890,
      "brother</w>": 3891,
      "final</w>": 3892,
      "ship</w>": 3893,
      "shivered</w>": 3894,
      "drifting</w>": 3895,
      "plan": 3896,
      "halt</w>": 3897,
      "halfway</w>": 3898,
      "Their</w>": 3899,
      "ceiling</w>": 3900,
      "cker</w>": 3901,
      "cared</w>": 3902,
      "carri": 3903,
      "carrying</w>": 3904,
      "careful</w>": 3905,
      "chain</w>": 3906,
      "handed</w>": 3907,
      "situation</w>": 3908,
      "walks</w>": 3909,
      "wallet</w>": 3910,
      "content</w>": 3911,
      "contact</w>": 3912,
      "privi": 3913,
      "priate</w>": 3914,
      "shake</w>": 3915,
      "dull</w>": 3916,
      "playing</w>": 3917,
      "player</w>": 3918,
      "younger</w>": 3919,
      "belong</w>": 3920,
      "guil": 3921,
      "guest</w>": 3922,
      "guess</w>": 3923,
      "timetable</w>": 3924,
      "faster</w>": 3925,
      "fainted</w>": 3926,
      "fault</w>": 3927,
      "tray</w>": 3928,
      "marriage</w>": 3929,
      "vering</w>": 3930,
      "verge</w>": 3931,
      "grat": 3932,
      "cordi": 3933,
      "cream</w>": 3934,
      "calmly</w>": 3935,
      "ease</w>": 3936,
      "easi": 3937,
      "stopping</w>": 3938,
      "prece": 3939,
      "hello</w>": 3940,
      "ffer": 3941,
      "paper</w>": 3942,
      "solutely</w>": 3943,
      "chief</w>": 3944,
      "collap": 3945,
      "famous</w>": 3946,
      "silk</w>": 3947,
      "understanding</w>": 3948,
      "undergradu": 3949,
      "mattered</w>": 3950,
      "mattress</w>": 3951,
      "material</w>": 3952,
      "telling</w>": 3953,
      "overing</w>": 3954,
      "bureau</w>": 3955,
      "grown</w>": 3956,
      "courage</w>": 3957,
      "knowing</w>": 3958,
      "intri": 3959,
      "intently</w>": 3960,
      "folds</w>": 3961,
      "shoe</w>": 3962,
      "bid</w>": 3963,
      "stile</w>": 3964,
      "buttons</w>": 3965,
      "glancing</w>": 3966,
      "sensu": 3967,
      "sump": 3968,
      "drinking</w>": 3969,
      "streets</w>": 3970,
      "explo": 3971,
      "explicable</w>": 3972,
      "Buchanans</w>": 3973,
      "audi": 3974,
      "hush</w>": 3975,
      "soli": 3976,
      "tuously</w>": 3977,
      "remarks</w>": 3978,
      "surprisingly</w>": 3979,
      "ideas</w>": 3980,
      "outdoors</w>": 3981,
      "telephoned</w>": 3982,
      "burst</w>": 3983,
      "delighted</w>": 3984,
      "tribute</w>": 3985,
      "Somebody</w>": 3986,
      "tory</w>": 3987,
      "intense</w>": 3988,
      "intended</w>": 3989,
      "Does</w>": 3990,
      "veness</w>": 3991,
      "wondering</w>": 3992,
      "whisper</w>": 3993,
      "immediate</w>": 3994,
      "ism</w>": 3995,
      "short": 3996,
      "affairs</w>": 3997,
      "affected</w>": 3998,
      "astically</w>": 3999,
      "astern</w>": 4000,
      "bore</w>": 4001,
      "bored</w>": 4002,
      "borrowed</w>": 4003,
      "bloomed</w>": 4004,
      "longest</w>": 4005,
      "tangible</w>": 4006,
      "indic": 4007,
      "indiffer": 4008,
      "commun": 4009,
      "commut": 4010,
      "Absolutely</w>": 4011,
      "awed</w>": 4012,
      "awful</w>": 4013,
      "ists</w>": 4014,
      "occup": 4015,
      "stuck</w>": 4016,
      "sign</w>": 4017,
      "boots</w>": 4018,
      "exciting</w>": 4019,
      "objects</w>": 4020,
      "Superior</w>": 4021,
      "Suppose</w>": 4022,
      "damn</w>": 4023,
      "horns</w>": 4024,
      "jud": 4025,
      "julep</w>": 4026,
      "reassur": 4027,
      "discu": 4028,
      "discre": 4029,
      "violence</w>": 4030,
      "clan</w>": 4031,
      "clouds</w>": 4032,
      "flower</w>": 4033,
      "odour</w>": 4034,
      "pantry</w>": 4035,
      "tremend": 4036,
      "thinning</w>": 4037,
      "thinks</w>": 4038,
      "repeat</w>": 4039,
      "hesitation</w>": 4040,
      "decision</w>": 4041,
      "shadows</w>": 4042,
      "bending</w>": 4043,
      "fantry</w>": 4044,
      "hoped</w>": 4045,
      "listen</w>": 4046,
      "promised</w>": 4047,
      "promising</w>": 4048,
      "crit": 4049,
      "fero": 4050,
      "flashed</w>": 4051,
      "limited</w>": 4052,
      "limousine</w>": 4053,
      "despi": 4054,
      "desper": 4055,
      "despai": 4056,
      "admir": 4057,
      "shirt": 4058,
      "Finally</w>": 4059,
      "Finnish</w>": 4060,
      "Instead</w>": 4061,
      "crimson</w>": 4062,
      "centre</w>": 4063,
      "well": 4064,
      "uttering</w>": 4065,
      "compelled</w>": 4066,
      "physically</w>": 4067,
      "automatically</w>": 4068,
      "baby</w>": 4069,
      "bitch</w>": 4070,
      "clean</w>": 4071,
      "clear</w>": 4072,
      "scared</w>": 4073,
      "person": 4074,
      "apartments</w>": 4075,
      "newspapers</w>": 4076,
      "Station</w>": 4077,
      "cater": 4078,
      "doubtfully</w>": 4079,
      "falling</w>": 4080,
      "fallen</w>": 4081,
      "furnit": 4082,
      "fasc": 4083,
      "melo": 4084,
      "snap</w>": 4085,
      "throat</w>": 4086,
      "incessant</w>": 4087,
      "revol": 4088,
      "reluctance</w>": 4089,
      "perfectly</w>": 4090,
      "introduced</w>": 4091,
      "including</w>": 4092,
      "photograph": 4093,
      "Really</w>": 4094,
      "brakes</w>": 4095,
      "flipped</w>": 4096,
      "opposit": 4097,
      "opportun": 4098,
      "sheer</w>": 4099,
      "usually</w>": 4100,
      "yachting</w>": 4101,
      "elevated</w>": 4102,
      "emotions</w>": 4103,
      "Anything</w>": 4104,
      "Anyhow</w>": 4105,
      "oblivi": 4106,
      "approached</w>": 4107,
      "appropriate</w>": 4108,
      "eighteen</w>": 4109,
      "incredulous</w>": 4110,
      "cocktail</w>": 4111,
      "1919</w>": 4112,
      "berately</w>": 4113,
      "bara</w>": 4114,
      "bonds</w>": 4115,
      "dition</w>": 4116,
      "devil</w>": 4117,
      "flushed</w>": 4118,
      "keeping</w>": 4119,
      "keenly</w>": 4120,
      "metal</w>": 4121,
      "swaying</w>": 4122,
      "vicinity</w>": 4123,
      "wreck</w>": 4124,
      "wreath</w>": 4125,
      "angle</w>": 4126,
      "eluded</w>": 4127,
      "searched</w>": 4128,
      "sports</w>": 4129,
      "conscienti": 4130,
      "character</w>": 4131,
      "powdered</w>": 4132,
      "contemptuous</w>": 4133,
      "breathless</w>": 4134,
      "breathlessly</w>": 4135,
      "service</w>": 4136,
      "Fifth</w>": 4137,
      "enthusiasm</w>": 4138,
      "enthusiastically</w>": 4139,
      "People</w>": 4140,
      "While</w>": 4141,
      "effect</w>": 4142,
      "lingered</w>": 4143,
      "mirror</w>": 4144,
      "practical</w>": 4145,
      "skin</w>": 4146,
      "tacles</w>": 4147,
      "valley</w>": 4148,
      "incident</w>": 4149,
      "infinitely</w>": 4150,
      "arrange</w>": 4151,
      "relieved</w>": 4152,
      "notice</w>": 4153,
      "noticed</w>": 4154,
      "absence</w>": 4155,
      "absently</w>": 4156,
      "frowned</w>": 4157,
      "frowning</w>": 4158,
      "extraordinary</w>": 4159,
      "rumours</w>": 4160,
      "possessed</w>": 4161,
      "possessi": 4162,
      "momentarily</w>": 4163,
      "cheek</w>": 4164,
      "officer</w>": 4165,
      "officers</w>": 4166,
      "built</w>": 4167,
      "mystery</w>": 4168,
      "instinct</w>": 4169,
      "Like</w>": 4170,
      "Tostoff</w>": 4171,
      "avoi": 4172,
      "dumb</w>": 4173,
      "failed</w>": 4174,
      "frag": 4175,
      "gonnegtion</w>": 4176,
      "gloom": 4177,
      "mention</w>": 4178,
      "machine</w>": 4179,
      "palace</w>": 4180,
      "sympa": 4181,
      "sober</w>": 4182,
      "tempor": 4183,
      "innumerable</w>": 4184,
      "annoyed</w>": 4185,
      "artificial</w>": 4186,
      "alert</w>": 4187,
      "alongshore</w>": 4188,
      "actually</w>": 4189,
      "whether</w>": 4190,
      "unusual</w>": 4191,
      "divor": 4192,
      "radiant</w>": 4193,
      "needed</w>": 4194,
      "aggres": 4195,
      "earnestly</w>": 4196,
      "hospitality</w>": 4197,
      "handker": 4198,
      "breeze</w>": 4199,
      "clerks</w>": 4200,
      "universe</w>": 4201,
      "satisfaction</w>": 4202,
      "magazine</w>": 4203,
      "peculiar</w>": 4204,
      "Barbara</w>": 4205,
      "Kaye</w>": 4206,
      "October</w>": 4207,
      "aunt</w>": 4208,
      "educated</w>": 4209,
      "knee</w>": 4210,
      "pearls</w>": 4211,
      "plum</w>": 4212,
      "pump</w>": 4213,
      "argument</w>": 4214,
      "oranges</w>": 4215,
      "sticated</w>": 4216,
      "haunted</w>": 4217,
      "liquor</w>": 4218,
      "ticism</w>": 4219,
      "sixty</w>": 4220,
      "lemons</w>": 4221,
      "untarily</w>": 4222,
      "unutterable</w>": 4223,
      "doorway</w>": 4224,
      "shouted</w>": 4225,
      "decade</w>": 4226,
      "asserted</w>": 4227,
      "conception</w>": 4228,
      "ecstatic</w>": 4229,
      "scepticism</w>": 4230,
      "perceptible</w>": 4231,
      "breathing</w>": 4232,
      "blurred</w>": 4233,
      "deliberately</w>": 4234,
      "astoni": 4235,
      "length</w>": 4236,
      "indignantly</w>": 4237,
      "bootlegger</w>": 4238,
      "difficulty</w>": 4239,
      "purposeless</w>": 4240,
      "accidental</w>": 4241,
      "capacity</w>": 4242,
      "wealthy</w>": 4243,
      "irresistible</w>": 4244,
      "glimpse</w>": 4245,
      "eyebrows</w>": 4246,
      "advantage</w>": 4247,
      "investigation</w>": 4248,
      "electric</w>": 4249,
      "significance</w>": 4250,
      "tournament</w>": 4251,
      "described</w>": 4252,
      "proprietor</w>": 4253,
      "Airedale</w>": 4254,
      "Civet</w>": 4255,
      "Daddy</w>": 4256,
      "Italian</w>": 4257,
      "Metropole</w>": 4258,
      "Santa</w>": 4259,
      "Tattle</w>": 4260,
      "Yeah</w>": 4261,
      "bizarre</w>": 4262,
      "candles</w>": 4263,
      "flattered</w>": 4264,
      "jerk</w>": 4265,
      "source</w>": 4266,
      "vesti": 4267,
      "wrote</w>": 4268,
      "incoherent</w>": 4269,
      "armistice</w>": 4270,
      "bedrooms</w>": 4271,
      "absurd</w>": 4272,
      "shrubbery</w>": 4273,
      "consequence</w>": 4274,
      "mistress</w>": 4275,
      "vigil</w>": 4276,
      "ultaneously</w>": 4277,
      "undergraduate</w>": 4278,
      "furniture</w>": 4279,
      "opposite</w>": 4280,
      "opportunity</w>": 4281,
      "handkerchief</w>": 4282,
      "Aga": 4283,
      "Astor": 4284,
      "Bl": 4285,
      "Be</w>": 4286,
      "Bel": 4287,
      "Bec": 4288,
      "Bea": 4289,
      "Belu": 4290,
      "Blin": 4291,
      "Ci": 4292,
      "Can": 4293,
      "Cer": 4294,
      "Cra": 4295,
      "Cam": 4296,
      "Cent": 4297,
      "Cec": 4298,
      "City</w>": 4299,
      "Clau": 4300,
      "Called</w>": 4301,
      "Comp": 4302,
      "Dan": 4303,
      "Don": 4304,
      "Detro": 4305,
      "Ed": 4306,
      "Ear": 4307,
      "Each</w>": 4308,
      "Ewing</w>": 4309,
      "Eastern</w>": 4310,
      "Fri": 4311,
      "Filled</w>": 4312,
      "Father</w>": 4313,
      "Gr": 4314,
      "Gen": 4315,
      "Goo": 4316,
      "Gad</w>": 4317,
      "Hen": 4318,
      "Hal": 4319,
      "Has</w>": 4320,
      "Holding</w>": 4321,
      "Imag": 4322,
      "III</w>": 4323,
      "Jaz": 4324,
      "Jew": 4325,
      "Kat": 4326,
      "Lea": 4327,
      "Love</w>": 4328,
      "Lots</w>": 4329,
      "Little</w>": 4330,
      "Mu": 4331,
      "Min": 4332,
      "Mar": 4333,
      "Madame</w>": 4334,
      "Nov": 4335,
      "Neither</w>": 4336,
      "Op": 4337,
      "Ow": 4338,
      "Old</w>": 4339,
      "Over</w>": 4340,
      "Pal": 4341,
      "Port</w>": 4342,
      "Penn": 4343,
      "Right</w>": 4344,
      "Rise</w>": 4345,
      "Si": 4346,
      "Sn": 4347,
      "St</w>": 4348,
      "Sh</w>": 4349,
      "Sor": 4350,
      "Sit": 4351,
      "Sit</w>": 4352,
      "Sep": 4353,
      "Say</w>": 4354,
      "Sure</w>": 4355,
      "Stu": 4356,
      "Shall</w>": 4357,
      "Still</w>": 4358,
      "Sea</w>": 4359,
      "South": 4360,
      "Self</w>": 4361,
      "Ta": 4362,
      "Tr": 4363,
      "Tu": 4364,
      "Tri": 4365,
      "Twel": 4366,
      "Ver": 4367,
      "Vol": 4368,
      "Vlad": 4369,
      "Won": 4370,
      "Won</w>": 4371,
      "Was</w>": 4372,
      "War</w>": 4373,
      "Would</w>": 4374,
      "aj": 4375,
      "azed</w>": 4376,
      "by": 4377,
      "bla": 4378,
      "bloo": 4379,
      "bust</w>": 4380,
      "bum": 4381,
      "bach</w>": 4382,
      "bbed</w>": 4383,
      "bbi": 4384,
      "barri": 4385,
      "brushed</w>": 4386,
      "bunch</w>": 4387,
      "ct</w>": 4388,
      "cel": 4389,
      "cery</w>": 4390,
      "cting</w>": 4391,
      "cation</w>": 4392,
      "chal": 4393,
      "cute</w>": 4394,
      "cles</w>": 4395,
      "cure</w>": 4396,
      "crac": 4397,
      "cooked</w>": 4398,
      "cutting</w>": 4399,
      "da</w>": 4400,
      "din</w>": 4401,
      "dom": 4402,
      "dour</w>": 4403,
      "dal</w>": 4404,
      "ddy</w>": 4405,
      "dery</w>": 4406,
      "dding</w>": 4407,
      "dingly</w>": 4408,
      "dbye</w>": 4409,
      "dboard</w>": 4410,
      "es": 4411,
      "ees</w>": 4412,
      "eter</w>": 4413,
      "eal</w>": 4414,
      "eover</w>": 4415,
      "ehead</w>": 4416,
      "efully</w>": 4417,
      "espec": 4418,
      "fs</w>": 4419,
      "fou": 4420,
      "fer</w>": 4421,
      "fem": 4422,
      "flight</w>": 4423,
      "fling</w>": 4424,
      "fence</w>": 4425,
      "food</w>": 4426,
      "farm</w>": 4427,
      "fluct": 4428,
      "gy</w>": 4429,
      "ga</w>": 4430,
      "gha": 4431,
      "gan</w>": 4432,
      "gle</w>": 4433,
      "gun": 4434,
      "gent</w>": 4435,
      "gam": 4436,
      "glea": 4437,
      "gated</w>": 4438,
      "gence</w>": 4439,
      "gover": 4440,
      "glowed</w>": 4441,
      "gins</w>": 4442,
      "gically</w>": 4443,
      "gsty</w>": 4444,
      "growing</w>": 4445,
      "gasoline</w>": 4446,
      "hn</w>": 4447,
      "hom": 4448,
      "hell</w>": 4449,
      "hovering</w>": 4450,
      "ie</w>": 4451,
      "ion": 4452,
      "ist</w>": 4453,
      "ica": 4454,
      "iative</w>": 4455,
      "iety</w>": 4456,
      "ieting</w>": 4457,
      "jan": 4458,
      "jut</w>": 4459,
      "jov": 4460,
      "jam": 4461,
      "jing": 4462,
      "jour": 4463,
      "jail</w>": 4464,
      "kends</w>": 4465,
      "kinds</w>": 4466,
      "kindly</w>": 4467,
      "keys</w>": 4468,
      "lous</w>": 4469,
      "link</w>": 4470,
      "lroom</w>": 4471,
      "lence</w>": 4472,
      "lvan": 4473,
      "mit": 4474,
      "maid</w>": 4475,
      "mad": 4476,
      "mour</w>": 4477,
      "ming": 4478,
      "mers</w>": 4479,
      "mness</w>": 4480,
      "mumbled</w>": 4481,
      "mbled</w>": 4482,
      "mouth": 4483,
      "madame</w>": 4484,
      "muttering</w>": 4485,
      "nou": 4486,
      "nar": 4487,
      "non": 4488,
      "nly</w>": 4489,
      "nis</w>": 4490,
      "none</w>": 4491,
      "nant</w>": 4492,
      "nful</w>": 4493,
      "norm": 4494,
      "national</w>": 4495,
      "oon": 4496,
      "olo": 4497,
      "owe</w>": 4498,
      "oce": 4499,
      "ocu": 4500,
      "oil</w>": 4501,
      "olic</w>": 4502,
      "ohn</w>": 4503,
      "pac": 4504,
      "phe": 4505,
      "pra": 4506,
      "paid</w>": 4507,
      "pet</w>": 4508,
      "pest": 4509,
      "pre</w>": 4510,
      "pus": 4511,
      "pened</w>": 4512,
      "path</w>": 4513,
      "pairs</w>": 4514,
      "poured</w>": 4515,
      "pages</w>": 4516,
      "pton</w>": 4517,
      "pomp": 4518,
      "pouring</w>": 4519,
      "ron</w>": 4520,
      "rable</w>": 4521,
      "rate</w>": 4522,
      "rare</w>": 4523,
      "ringly</w>": 4524,
      "rounded</w>": 4525,
      "rough": 4526,
      "rored</w>": 4527,
      "sen</w>": 4528,
      "sac": 4529,
      "som": 4530,
      "sher</w>": 4531,
      "sch": 4532,
      "sop": 4533,
      "soo": 4534,
      "swi": 4535,
      "slu": 4536,
      "send</w>": 4537,
      "sary</w>": 4538,
      "sstand</w>": 4539,
      "slun": 4540,
      "south</w>": 4541,
      "sand": 4542,
      "snat": 4543,
      "sworn</w>": 4544,
      "swore</w>": 4545,
      "ty": 4546,
      "ta</w>": 4547,
      "tz</w>": 4548,
      "tat": 4549,
      "tom</w>": 4550,
      "tall</w>": 4551,
      "tent": 4552,
      "tough</w>": 4553,
      "test": 4554,
      "tation</w>": 4555,
      "tless</w>": 4556,
      "tful</w>": 4557,
      "temp": 4558,
      "tably</w>": 4559,
      "tantly</w>": 4560,
      "tters</w>": 4561,
      "tiny</w>": 4562,
      "tember</w>": 4563,
      "tumbled</w>": 4564,
      "uk": 4565,
      "uk</w>": 4566,
      "ued</w>": 4567,
      "uno": 4568,
      "ual</w>": 4569,
      "usti": 4570,
      "uendo</w>": 4571,
      "vir": 4572,
      "val</w>": 4573,
      "wle": 4574,
      "wever</w>": 4575,
      "west": 4576,
      "wick": 4577,
      "weigh": 4578,
      "wearing</w>": 4579,
      "xop": 4580,
      "xim": 4581,
      "yside</w>": 4582,
      "ylor</w>": 4583,
      "zz</w>": 4584,
      "zable</w>": 4585,
      "és</w>": 4586,
      "thed</w>": 4587,
      "thenti": 4588,
      "ina</w>": 4589,
      "init": 4590,
      "inha": 4591,
      "insp": 4592,
      "inate</w>": 4593,
      "inth</w>": 4594,
      "intel": 4595,
      "inher": 4596,
      "influ": 4597,
      "inized</w>": 4598,
      "instantly</w>": 4599,
      "inexplicable</w>": 4600,
      "infantry</w>": 4601,
      "aned</w>": 4602,
      "anch": 4603,
      "ants</w>": 4604,
      "anwhile</w>": 4605,
      "anged</w>": 4606,
      "ancho": 4607,
      "angry</w>": 4608,
      "erever</w>": 4609,
      "erously</w>": 4610,
      "erious</w>": 4611,
      "wave</w>": 4612,
      "wash": 4613,
      "wake</w>": 4614,
      "washed</w>": 4615,
      "waves</w>": 4616,
      "wadays</w>": 4617,
      "waste": 4618,
      "wail</w>": 4619,
      "wavered</w>": 4620,
      "waist</w>": 4621,
      "hide</w>": 4622,
      "histicated</w>": 4623,
      "arro": 4624,
      "arest</w>": 4625,
      "arder</w>": 4626,
      "enant</w>": 4627,
      "enced</w>": 4628,
      "enlar": 4629,
      "engro": 4630,
      "encies</w>": 4631,
      "ority</w>": 4632,
      "ories</w>": 4633,
      "orid</w>": 4634,
      "orig": 4635,
      "ornful</w>": 4636,
      "one": 4637,
      "onai": 4638,
      "onless</w>": 4639,
      "onic</w>": 4640,
      "rep": 4641,
      "ret</w>": 4642,
      "rect": 4643,
      "repu": 4644,
      "respec": 4645,
      "rector</w>": 4646,
      "refer": 4647,
      "returning</w>": 4648,
      "redol": 4649,
      "reply</w>": 4650,
      "replac": 4651,
      "reappeared</w>": 4652,
      "iter": 4653,
      "itor</w>": 4654,
      "itary</w>": 4655,
      "ste</w>": 4656,
      "ster": 4657,
      "sting</w>": 4658,
      "stro": 4659,
      "stir": 4660,
      "stup": 4661,
      "stale</w>": 4662,
      "stinguished</w>": 4663,
      "hated</w>": 4664,
      "hats</w>": 4665,
      "hamed</w>": 4666,
      "haired</w>": 4667,
      "hasty</w>": 4668,
      "hausti": 4669,
      "ates</w>": 4670,
      "atory</w>": 4671,
      "atform</w>": 4672,
      "atures</w>": 4673,
      "attain</w>": 4674,
      "roof": 4675,
      "rows</w>": 4676,
      "robor": 4677,
      "rotten</w>": 4678,
      "rosy</w>": 4679,
      "roared</w>": 4680,
      "alto</w>": 4681,
      "alle": 4682,
      "allic</w>": 4683,
      "alists</w>": 4684,
      "eled</w>": 4685,
      "elic": 4686,
      "eline</w>": 4687,
      "eleven</w>": 4688,
      "elves</w>": 4689,
      "elations</w>": 4690,
      "ellence</w>": 4691,
      "aids</w>": 4692,
      "loaf": 4693,
      "lock</w>": 4694,
      "local</w>": 4695,
      "aces</w>": 4696,
      "acti": 4697,
      "acting</w>": 4698,
      "acute</w>": 4699,
      "accu": 4700,
      "accompan": 4701,
      "lick</w>": 4702,
      "liable</w>": 4703,
      "liday</w>": 4704,
      "licity</w>": 4705,
      "liarly</w>": 4706,
      "lieut": 4707,
      "ghter</w>": 4708,
      "rid": 4709,
      "ric</w>": 4710,
      "rise</w>": 4711,
      "river</w>": 4712,
      "rical</w>": 4713,
      "ripe</w>": 4714,
      "ribly</w>": 4715,
      "riot": 4716,
      "bear</w>": 4717,
      "beard</w>": 4718,
      "bewil": 4719,
      "beamed</w>": 4720,
      "nosed</w>": 4721,
      "noons</w>": 4722,
      "notor": 4723,
      "notes</w>": 4724,
      "whol": 4725,
      "wheat</w>": 4726,
      "wherever</w>": 4727,
      "tie</w>": 4728,
      "tide</w>": 4729,
      "tighten": 4730,
      "tionless</w>": 4731,
      "oluntarily</w>": 4732,
      "sion": 4733,
      "sible</w>": 4734,
      "sident</w>": 4735,
      "siveness</w>": 4736,
      "lev": 4737,
      "leg</w>": 4738,
      "legs</w>": 4739,
      "level</w>": 4740,
      "lessness</w>": 4741,
      "letters</w>": 4742,
      "ung</w>": 4743,
      "unfor": 4744,
      "unty</w>": 4745,
      "unhapp": 4746,
      "unrest": 4747,
      "unpleas": 4748,
      "unknown</w>": 4749,
      "unreal</w>": 4750,
      "unbroken</w>": 4751,
      "unrolled</w>": 4752,
      "unpleasant</w>": 4753,
      "unhappy</w>": 4754,
      "uncomfor": 4755,
      "unexpec": 4756,
      "ury</w>": 4757,
      "cake</w>": 4758,
      "caus": 4759,
      "cakes</w>": 4760,
      "doon</w>": 4761,
      "dic": 4762,
      "dic</w>": 4763,
      "dily</w>": 4764,
      "dish": 4765,
      "dimin": 4766,
      "dious</w>": 4767,
      "dilat": 4768,
      "dish</w>": 4769,
      "dista": 4770,
      "disqu": 4771,
      "divisi": 4772,
      "diction</w>": 4773,
      "distur": 4774,
      "dirty</w>": 4775,
      "director</w>": 4776,
      "distinguished</w>": 4777,
      "events</w>": 4778,
      "eventu": 4779,
      "aby": 4780,
      "aband": 4781,
      "las</w>": 4782,
      "lather</w>": 4783,
      "laund": 4784,
      "laden</w>": 4785,
      "lasted</w>": 4786,
      "hemi": 4787,
      "hedu": 4788,
      "hedge</w>": 4789,
      "hearse</w>": 4790,
      "ics</w>": 4791,
      "icking</w>": 4792,
      "icious</w>": 4793,
      "rag</w>": 4794,
      "rami": 4795,
      "raining</w>": 4796,
      "theat": 4797,
      "thetic</w>": 4798,
      "shu": 4799,
      "shout</w>": 4800,
      "shelf</w>": 4801,
      "shelves</w>": 4802,
      "seat</w>": 4803,
      "sely</w>": 4804,
      "sees</w>": 4805,
      "seas</w>": 4806,
      "seats</w>": 4807,
      "seized</w>": 4808,
      "secure</w>": 4809,
      "sue</w>": 4810,
      "super": 4811,
      "suite</w>": 4812,
      "suspec": 4813,
      "superf": 4814,
      "superior</w>": 4815,
      "ney</w>": 4816,
      "negr": 4817,
      "neath</w>": 4818,
      "neso": 4819,
      "need": 4820,
      "nearly</w>": 4821,
      "nephe": 4822,
      "tot": 4823,
      "tossed</w>": 4824,
      "towels</w>": 4825,
      "ird</w>": 4826,
      "spi": 4827,
      "spat</w>": 4828,
      "sphere</w>": 4829,
      "spee": 4830,
      "spree</w>": 4831,
      "spau": 4832,
      "spilled</w>": 4833,
      "spraw": 4834,
      "ounting</w>": 4835,
      "ounding</w>": 4836,
      "dew</w>": 4837,
      "dear</w>": 4838,
      "degre": 4839,
      "desm": 4840,
      "deft</w>": 4841,
      "dedness</w>": 4842,
      "designs</w>": 4843,
      "deferred</w>": 4844,
      "forced</w>": 4845,
      "forms</w>": 4846,
      "forehead</w>": 4847,
      "asn</w>": 4848,
      "associ": 4849,
      "aselessly</w>": 4850,
      "ashamed</w>": 4851,
      "ady</w>": 4852,
      "ada</w>": 4853,
      "ador": 4854,
      "adour</w>": 4855,
      "advi": 4856,
      "adding</w>": 4857,
      "adju": 4858,
      "admission</w>": 4859,
      "gown</w>": 4860,
      "gossi": 4861,
      "white": 4862,
      "whistle</w>": 4863,
      "confe": 4864,
      "consol": 4865,
      "conserv": 4866,
      "condescen": 4867,
      "contained</w>": 4868,
      "bob</w>": 4869,
      "boom</w>": 4870,
      "boats</w>": 4871,
      "bowls</w>": 4872,
      "boarder</w>": 4873,
      "uts</w>": 4874,
      "terms</w>": 4875,
      "choo": 4876,
      "save</w>": 4877,
      "savag": 4878,
      "saxop": 4879,
      "exul": 4880,
      "exten": 4881,
      "expre": 4882,
      "exist": 4883,
      "experi": 4884,
      "exchanged</w>": 4885,
      "explan": 4886,
      "Those</w>": 4887,
      "Three</w>": 4888,
      "Things</w>": 4889,
      "Throwing</w>": 4890,
      "ament</w>": 4891,
      "amused</w>": 4892,
      "amaz": 4893,
      "amazed</w>": 4894,
      "ampton</w>": 4895,
      "Wha</w>": 4896,
      "ops</w>": 4897,
      "entur": 4898,
      "entous</w>": 4899,
      "rule</w>": 4900,
      "rules</w>": 4901,
      "rugated</w>": 4902,
      "pose</w>": 4903,
      "power": 4904,
      "mis": 4905,
      "mir</w>": 4906,
      "missing</w>": 4907,
      "tainly</w>": 4908,
      "tapest": 4909,
      "tauk</w>": 4910,
      "motion</w>": 4911,
      "moths</w>": 4912,
      "motionless</w>": 4913,
      "ectu": 4914,
      "epi": 4915,
      "houet": 4916,
      "ressed</w>": 4917,
      "fur</w>": 4918,
      "fun</w>": 4919,
      "fumbled</w>": 4920,
      "nib": 4921,
      "nished</w>": 4922,
      "niless</w>": 4923,
      "nical</w>": 4924,
      "night": 4925,
      "morously</w>": 4926,
      "morbid</w>": 4927,
      "sco</w>": 4928,
      "scal": 4929,
      "scur": 4930,
      "scand": 4931,
      "scraw": 4932,
      "scornful</w>": 4933,
      "schedu": 4934,
      "ett</w>": 4935,
      "eth</w>": 4936,
      "etc</w>": 4937,
      "lity</w>": 4938,
      "minable</w>": 4939,
      "mindedness</w>": 4940,
      "working</w>": 4941,
      "worry</w>": 4942,
      "fier": 4943,
      "fide</w>": 4944,
      "figu": 4945,
      "fish</w>": 4946,
      "impro": 4947,
      "impl": 4948,
      "impul": 4949,
      "impersonal</w>": 4950,
      "impossible</w>": 4951,
      "imony</w>": 4952,
      "ording</w>": 4953,
      "perman": 4954,
      "peremp": 4955,
      "percei": 4956,
      "perspir": 4957,
      "perament</w>": 4958,
      "selling</w>": 4959,
      "vily</w>": 4960,
      "vided</w>": 4961,
      "vidu": 4962,
      "comin</w>": 4963,
      "compre": 4964,
      "comment</w>": 4965,
      "commanded</w>": 4966,
      "complac": 4967,
      "composed</w>": 4968,
      "commotion</w>": 4969,
      "earance</w>": 4970,
      "trous": 4971,
      "wist": 4972,
      "wise</w>": 4973,
      "wish</w>": 4974,
      "wiping</w>": 4975,
      "wisp</w>": 4976,
      "hotel</w>": 4977,
      "hostile</w>": 4978,
      "however</w>": 4979,
      "holiday</w>": 4980,
      "peered</w>": 4981,
      "peering</w>": 4982,
      "pebb": 4983,
      "ulation</w>": 4984,
      "ulated</w>": 4985,
      "ulating</w>": 4986,
      "ultuous</w>": 4987,
      "garnished</w>": 4988,
      "lux": 4989,
      "luck": 4990,
      "cial</w>": 4991,
      "cigar</w>": 4992,
      "cilious</w>": 4993,
      "ourhood</w>": 4994,
      "vot</w>": 4995,
      "stare</w>": 4996,
      "starts</w>": 4997,
      "ssage</w>": 4998,
      "great": 4999,
      "mee</w>": 5000,
      "meas": 5001,
      "means</w>": 5002,
      "meeting</w>": 5003,
      "message</w>": 5004,
      "closing</w>": 5005,
      "closer</w>": 5006,
      "dening</w>": 5007,
      "dence</w>": 5008,
      "denied</w>": 5009,
      "girders</w>": 5010,
      "leaking</w>": 5011,
      "umble</w>": 5012,
      "begged</w>": 5013,
      "begins</w>": 5014,
      "sms</w>": 5015,
      "swing</w>": 5016,
      "swit": 5017,
      "swell</w>": 5018,
      "swee": 5019,
      "swept</w>": 5020,
      "sweep</w>": 5021,
      "swung</w>": 5022,
      "firm</w>": 5023,
      "firmly</w>": 5024,
      "surer</w>": 5025,
      "surface</w>": 5026,
      "Any</w>": 5027,
      "Angry</w>": 5028,
      "musty</w>": 5029,
      "promo": 5030,
      "proce": 5031,
      "produc": 5032,
      "provin": 5033,
      "produced</w>": 5034,
      "profoun": 5035,
      "prosper": 5036,
      "proxim": 5037,
      "provided</w>": 5038,
      "preser": 5039,
      "pressing</w>": 5040,
      "winked</w>": 5041,
      "windy</w>": 5042,
      "cot": 5043,
      "coward</w>": 5044,
      "coinci": 5045,
      "gion</w>": 5046,
      "tenor</w>": 5047,
      "tennis</w>": 5048,
      "broo": 5049,
      "shif": 5050,
      "shifted</w>": 5051,
      "shifting</w>": 5052,
      "driven</w>": 5053,
      "drizz": 5054,
      "ples</w>": 5055,
      "platform</w>": 5056,
      "halls</w>": 5057,
      "excused</w>": 5058,
      "These</w>": 5059,
      "ceased</w>": 5060,
      "ceaselessly</w>": 5061,
      "cken</w>": 5062,
      "eezed</w>": 5063,
      "obst": 5064,
      "obscene</w>": 5065,
      "obscu": 5066,
      "career</w>": 5067,
      "cardboard</w>": 5068,
      "carpet</w>": 5069,
      "mantel": 5070,
      "akes</w>": 5071,
      "cham": 5072,
      "chairs</w>": 5073,
      "hangs</w>": 5074,
      "anywhere</w>": 5075,
      "gazed</w>": 5076,
      "gasping</w>": 5077,
      "contri": 5078,
      "contour</w>": 5079,
      "conting": 5080,
      "brace</w>": 5081,
      "bringing</w>": 5082,
      "ggy</w>": 5083,
      "ggers</w>": 5084,
      "gram</w>": 5085,
      "gravely</w>": 5086,
      "afternoons</w>": 5087,
      "main</w>": 5088,
      "shame</w>": 5089,
      "shall</w>": 5090,
      "shade</w>": 5091,
      "shaved</w>": 5092,
      "due</w>": 5093,
      "duck</w>": 5094,
      "duster</w>": 5095,
      "dulity</w>": 5096,
      "plain</w>": 5097,
      "gui": 5098,
      "gue</w>": 5099,
      "guing</w>": 5100,
      "ember": 5101,
      "faith</w>": 5102,
      "favour</w>": 5103,
      "tee</w>": 5104,
      "tesy</w>": 5105,
      "tradition</w>": 5106,
      "tragically</w>": 5107,
      "marred</w>": 5108,
      "marrying</w>": 5109,
      "marshes</w>": 5110,
      "marvel": 5111,
      "untily</w>": 5112,
      "standard</w>": 5113,
      "standingly</w>": 5114,
      "happiness</w>": 5115,
      "happens</w>": 5116,
      "breast</w>": 5117,
      "break</w>": 5118,
      "corn": 5119,
      "corrup": 5120,
      "corrobor": 5121,
      "corrugated</w>": 5122,
      "creative</w>": 5123,
      "crept</w>": 5124,
      "cality</w>": 5125,
      "stove</w>": 5126,
      "everywhere</w>": 5127,
      "prep</w>": 5128,
      "preci": 5129,
      "preven": 5130,
      "president</w>": 5131,
      "intermit": 5132,
      "interminable</w>": 5133,
      "helpless</w>": 5134,
      "daugh": 5135,
      "ffon</w>": 5136,
      "ffly</w>": 5137,
      "paused</w>": 5138,
      "painting</w>": 5139,
      "plest</w>": 5140,
      "soldi": 5141,
      "solitary</w>": 5142,
      "chicken</w>": 5143,
      "chiffon</w>": 5144,
      "colle": 5145,
      "coldly</w>": 5146,
      "collar</w>": 5147,
      "cheap</w>": 5148,
      "drops</w>": 5149,
      "fella</w>": 5150,
      "fellas</w>": 5151,
      "silly</w>": 5152,
      "silhouet": 5153,
      "underwear</w>": 5154,
      "underneath</w>": 5155,
      "understandingly</w>": 5156,
      "appalled</w>": 5157,
      "appearance</w>": 5158,
      "cuff</w>": 5159,
      "latest</w>": 5160,
      "match</w>": 5161,
      "matters</w>": 5162,
      "pigsty</w>": 5163,
      "cerem": 5164,
      "largest</w>": 5165,
      "overtaking</w>": 5166,
      "overseas</w>": 5167,
      "inquir": 5168,
      "inquest</w>": 5169,
      "support</w>": 5170,
      "offered</w>": 5171,
      "offended</w>": 5172,
      "buck</w>": 5173,
      "groped</w>": 5174,
      "grocer</w>": 5175,
      "groaned</w>": 5176,
      "invent</w>": 5177,
      "inventi": 5178,
      "invented</w>": 5179,
      "invari": 5180,
      "invitation</w>": 5181,
      "involuntarily</w>": 5182,
      "couples</w>": 5183,
      "glazed</w>": 5184,
      "knocked</w>": 5185,
      "knowle": 5186,
      "intment</w>": 5187,
      "blin": 5188,
      "blond</w>": 5189,
      "blinds</w>": 5190,
      "passing</w>": 5191,
      "shocked</w>": 5192,
      "remembering</w>": 5193,
      "answering</w>": 5194,
      "biscu": 5195,
      "stained</w>": 5196,
      "emplo": 5197,
      "button</w>": 5198,
      "courtesy</w>": 5199,
      "hard": 5200,
      "harm</w>": 5201,
      "sends</w>": 5202,
      "sensation</w>": 5203,
      "weekends</w>": 5204,
      "ongs</w>": 5205,
      "draw</w>": 5206,
      "drain</w>": 5207,
      "expan": 5208,
      "expect</w>": 5209,
      "authenti": 5210,
      "current</w>": 5211,
      "floating</w>": 5212,
      "sob</w>": 5213,
      "soever</w>": 5214,
      "soggy</w>": 5215,
      "reading</w>": 5216,
      "arrive</w>": 5217,
      "arrivals</w>": 5218,
      "fulness</w>": 5219,
      "joy</w>": 5220,
      "joined</w>": 5221,
      "mpered</w>": 5222,
      "brief": 5223,
      "brisk</w>": 5224,
      "burning</w>": 5225,
      "burden</w>": 5226,
      "bursts</w>": 5227,
      "delight</w>": 5228,
      "delayed</w>": 5229,
      "polit": 5230,
      "trip</w>": 5231,
      "tries</w>": 5232,
      "ential</w>": 5233,
      "entific</w>": 5234,
      "accounting</w>": 5235,
      "according</w>": 5236,
      "medium</w>": 5237,
      "busy</w>": 5238,
      "torn</w>": 5239,
      "torily</w>": 5240,
      "intending</w>": 5241,
      "intentions</w>": 5242,
      "steady</w>": 5243,
      "Doc</w>": 5244,
      "circular</w>": 5245,
      "flutter</w>": 5246,
      "florid</w>": 5247,
      "hurt</w>": 5248,
      "hurry</w>": 5249,
      "hurrying</w>": 5250,
      "pupp": 5251,
      "pull</w>": 5252,
      "pushing</w>": 5253,
      "squeezed</w>": 5254,
      "willing</w>": 5255,
      "wildly</w>": 5256,
      "watch": 5257,
      "watching</w>": 5258,
      "resting</w>": 5259,
      "restlessly</w>": 5260,
      "whispers</w>": 5261,
      "hushed</w>": 5262,
      "island</w>": 5263,
      "issued</w>": 5264,
      "merged</w>": 5265,
      "racy</w>": 5266,
      "subway</w>": 5267,
      "submerged</w>": 5268,
      "affect</w>": 5269,
      "affection</w>": 5270,
      "scenes</w>": 5271,
      "belief</w>": 5272,
      "McKees</w>": 5273,
      "asting</w>": 5274,
      "block</w>": 5275,
      "bloss": 5276,
      "blocked</w>": 5277,
      "dining</w>": 5278,
      "sore</w>": 5279,
      "sung</w>": 5280,
      "sunken</w>": 5281,
      "tanned</w>": 5282,
      "tangled</w>": 5283,
      "individu": 5284,
      "Catholic</w>": 5285,
      "Monte</w>": 5286,
      "Montauk</w>": 5287,
      "awoke</w>": 5288,
      "cemeter": 5289,
      "occa": 5290,
      "ancest": 5291,
      "study</w>": 5292,
      "studies</w>": 5293,
      "signed</w>": 5294,
      "speci": 5295,
      "specim": 5296,
      "special</w>": 5297,
      "spectacles</w>": 5298,
      "book": 5299,
      "question": 5300,
      "circles</w>": 5301,
      "Georgi": 5302,
      "count</w>": 5303,
      "gency</w>": 5304,
      "genially</w>": 5305,
      "horse</w>": 5306,
      "horses</w>": 5307,
      "horrible</w>": 5308,
      "horribly</w>": 5309,
      "jug</w>": 5310,
      "owned</w>": 5311,
      "increasing</w>": 5312,
      "reasons</w>": 5313,
      "reassure</w>": 5314,
      "midsummer</w>": 5315,
      "visibly</w>": 5316,
      "pleasantly</w>": 5317,
      "ballo": 5318,
      "ballroom</w>": 5319,
      "flowered</w>": 5320,
      "oddly</w>": 5321,
      "raising</w>": 5322,
      "slip</w>": 5323,
      "slipped</w>": 5324,
      "strangest</w>": 5325,
      "couple</w>": 5326,
      "realizing</w>": 5327,
      "bench</w>": 5328,
      "derly</w>": 5329,
      "deranged</w>": 5330,
      "drums</w>": 5331,
      "eager</w>": 5332,
      "hollow</w>": 5333,
      "hollowly</w>": 5334,
      "listened</w>": 5335,
      "iciency</w>": 5336,
      "newsstand</w>": 5337,
      "fifteen</w>": 5338,
      "crou": 5339,
      "flashing</w>": 5340,
      "sofa</w>": 5341,
      "softly</w>": 5342,
      "elegant</w>": 5343,
      "limit</w>": 5344,
      "heavily</w>": 5345,
      "agreement</w>": 5346,
      "despair</w>": 5347,
      "quieter</w>": 5348,
      "period</w>": 5349,
      "shirt</w>": 5350,
      "Five</w>": 5351,
      "ashen</w>": 5352,
      "cries</w>": 5353,
      "crick": 5354,
      "crisp</w>": 5355,
      "central</w>": 5356,
      "nature</w>": 5357,
      "writ": 5358,
      "welcome</w>": 5359,
      "itches</w>": 5360,
      "attach</w>": 5361,
      "suspicious</w>": 5362,
      "formal</w>": 5363,
      "formality</w>": 5364,
      "conceal</w>": 5365,
      "conceiv": 5366,
      "science</w>": 5367,
      "scientific</w>": 5368,
      "company</w>": 5369,
      "eagerness</w>": 5370,
      "neighbourhood</w>": 5371,
      "Nothing</w>": 5372,
      "bag</w>": 5373,
      "vines</w>": 5374,
      "roadhouse</w>": 5375,
      "roadster</w>": 5376,
      "ghost</w>": 5377,
      "ghosts</w>": 5378,
      "capit": 5379,
      "capable</w>": 5380,
      "dismissed</w>": 5381,
      "choked</w>": 5382,
      "dreamed</w>": 5383,
      "interrupt</w>": 5384,
      "villages</w>": 5385,
      "America</w>": 5386,
      "Americans</w>": 5387,
      "Luther": 5388,
      "Star</w>": 5389,
      "banners</w>": 5390,
      "blance</w>": 5391,
      "blanket</w>": 5392,
      "catching</w>": 5393,
      "falls</w>": 5394,
      "hones</w>": 5395,
      "honour</w>": 5396,
      "honest</w>": 5397,
      "honey</w>": 5398,
      "hunted</w>": 5399,
      "jumping</w>": 5400,
      "melted</w>": 5401,
      "melancho": 5402,
      "salo": 5403,
      "smoking</w>": 5404,
      "struck</w>": 5405,
      "sideways</w>": 5406,
      "sidewalks</w>": 5407,
      "irregul": 5408,
      "transit": 5409,
      "remain</w>": 5410,
      "solemnly</w>": 5411,
      "murmurous</w>": 5412,
      "stretch</w>": 5413,
      "Twenty</w>": 5414,
      "brave</w>": 5415,
      "brass</w>": 5416,
      "crossly</w>": 5417,
      "frequ": 5418,
      "freshness</w>": 5419,
      "freedom</w>": 5420,
      "flicker</w>": 5421,
      "jazz</w>": 5422,
      "jaunty</w>": 5423,
      "jauntily</w>": 5424,
      "oppres": 5425,
      "printed</w>": 5426,
      "proud</w>": 5427,
      "rented</w>": 5428,
      "runs</w>": 5429,
      "highballs</w>": 5430,
      "endure</w>": 5431,
      "abortive</w>": 5432,
      "headlights</w>": 5433,
      "declar": 5434,
      "decency</w>": 5435,
      "connected</w>": 5436,
      "startlingly</w>": 5437,
      "oblig": 5438,
      "obliged</w>": 5439,
      "obvious</w>": 5440,
      "correct</w>": 5441,
      "correction</w>": 5442,
      "portentous</w>": 5443,
      "eighty</w>": 5444,
      "general": 5445,
      "generation</w>": 5446,
      "benediction</w>": 5447,
      "nervously</w>": 5448,
      "190": 5449,
      "Chry": 5450,
      "Coney</w>": 5451,
      "Engli": 5452,
      "Forty</w>": 5453,
      "Forest</w>": 5454,
      "bona</w>": 5455,
      "cannot</w>": 5456,
      "clicked</w>": 5457,
      "clustered</w>": 5458,
      "cousins</w>": 5459,
      "ditch</w>": 5460,
      "devo": 5461,
      "foli": 5462,
      "memories</w>": 5463,
      "metallic</w>": 5464,
      "patent</w>": 5465,
      "paternal</w>": 5466,
      "patron</w>": 5467,
      "swamps</w>": 5468,
      "tongue</w>": 5469,
      "thorough": 5470,
      "antness</w>": 5471,
      "simplicity</w>": 5472,
      "absorbing</w>": 5473,
      "searching</w>": 5474,
      "consciously</w>": 5475,
      "consciousness</w>": 5476,
      "powder</w>": 5477,
      "possibly</w>": 5478,
      "eyesore</w>": 5479,
      "gathering</w>": 5480,
      "contempt</w>": 5481,
      "contemptuously</w>": 5482,
      "Fifty</w>": 5483,
      "automobile</w>": 5484,
      "struggle</w>": 5485,
      "struggling</w>": 5486,
      "struggles</w>": 5487,
      "Peter</w>": 5488,
      "cycle</w>": 5489,
      "cynical</w>": 5490,
      "cups</w>": 5491,
      "glare</w>": 5492,
      "gestures</w>": 5493,
      "mirrored</w>": 5494,
      "magic</w>": 5495,
      "numbers</w>": 5496,
      "penniless</w>": 5497,
      "practice</w>": 5498,
      "sang</w>": 5499,
      "soul</w>": 5500,
      "souven": 5501,
      "infinite</w>": 5502,
      "arrangement</w>": 5503,
      "relief</w>": 5504,
      "simultaneously</w>": 5505,
      "simplest</w>": 5506,
      "directly</w>": 5507,
      "sett": 5508,
      "settee</w>": 5509,
      "desire</w>": 5510,
      "desired</w>": 5511,
      "adap": 5512,
      "confident</w>": 5513,
      "confidenti": 5514,
      "extravag": 5515,
      "quart": 5516,
      "rubbing</w>": 5517,
      "motorcycle</w>": 5518,
      "imagined</w>": 5519,
      "imagination</w>": 5520,
      "momentary</w>": 5521,
      "verandas</w>": 5522,
      "groups</w>": 5523,
      "cheeks</w>": 5524,
      "phrases</w>": 5525,
      "frightening</w>": 5526,
      "mysterious</w>": 5527,
      "instinctively</w>": 5528,
      "natural</w>": 5529,
      "attempting</w>": 5530,
      "Carlo</w>": 5531,
      "Didn</w>": 5532,
      "Legion</w>": 5533,
      "North</w>": 5534,
      "avoid</w>": 5535,
      "bility</w>": 5536,
      "bilities</w>": 5537,
      "bird</w>": 5538,
      "baths</w>": 5539,
      "bathrooms</w>": 5540,
      "culent</w>": 5541,
      "gonne</w>": 5542,
      "gloom</w>": 5543,
      "grief</w>": 5544,
      "gruff</w>": 5545,
      "jewels</w>": 5546,
      "jewell": 5547,
      "linen</w>": 5548,
      "lonely</w>": 5549,
      "loneliness</w>": 5550,
      "machines</w>": 5551,
      "sylvan": 5552,
      "temperament</w>": 5553,
      "witness</w>": 5554,
      "innuendo</w>": 5555,
      "hilarity</w>": 5556,
      "hilariously</w>": 5557,
      "reporter</w>": 5558,
      "reports</w>": 5559,
      "alertly</w>": 5560,
      "alongside</w>": 5561,
      "actual</w>": 5562,
      "wheeled</w>": 5563,
      "unusually</w>": 5564,
      "dismayed</w>": 5565,
      "lapsed</w>": 5566,
      "detail</w>": 5567,
      "defiant</w>": 5568,
      "defiantly</w>": 5569,
      "deserted</w>": 5570,
      "advice</w>": 5571,
      "chords</w>": 5572,
      "chorus</w>": 5573,
      "protest</w>": 5574,
      "handsome</w>": 5575,
      "breeding</w>": 5576,
      "delicately</w>": 5577,
      "triumph</w>": 5578,
      "triumphan": 5579,
      "millions</w>": 5580,
      "millionai": 5581,
      "magazines</w>": 5582,
      "peculiarly</w>": 5583,
      "concentration</w>": 5584,
      "concentrated</w>": 5585,
      "Argonne</w>": 5586,
      "August</w>": 5587,
      "Ferdie</w>": 5588,
      "Ferret</w>": 5589,
      "History</w>": 5590,
      "Que": 5591,
      "Under</w>": 5592,
      "Western</w>": 5593,
      "celebrated</w>": 5594,
      "drowned</w>": 5595,
      "fender</w>": 5596,
      "flannel</w>": 5597,
      "identical</w>": 5598,
      "identified</w>": 5599,
      "massed</w>": 5600,
      "snobbi": 5601,
      "slapping</w>": 5602,
      "wrapped</w>": 5603,
      "wrapping</w>": 5604,
      "waste</w>": 5605,
      "wasting</w>": 5606,
      "remote</w>": 5607,
      "remotely</w>": 5608,
      "refuse</w>": 5609,
      "regarded</w>": 5610,
      "regarding</w>": 5611,
      "sturdy</w>": 5612,
      "haughty</w>": 5613,
      "haughtily</w>": 5614,
      "splendid</w>": 5615,
      "splendour</w>": 5616,
      "descended</w>": 5617,
      "considered</w>": 5618,
      "confirmed</w>": 5619,
      "confirmation</w>": 5620,
      "savage</w>": 5621,
      "examined</w>": 5622,
      "examining</w>": 5623,
      "miserable</w>": 5624,
      "miserably</w>": 5625,
      "literally</w>": 5626,
      "impressive</w>": 5627,
      "coolly</w>": 5628,
      "plunged</w>": 5629,
      "major</w>": 5630,
      "graceful</w>": 5631,
      "pretended</w>": 5632,
      "overwhelming</w>": 5633,
      "expectantly</w>": 5634,
      "authorit": 5635,
      "society</w>": 5636,
      "accusingly</w>": 5637,
      "accusations</w>": 5638,
      "disappointed</w>": 5639,
      "disappointment</w>": 5640,
      "footsteps</w>": 5641,
      "football</w>": 5642,
      "suspicions</w>": 5643,
      "suspiciously</w>": 5644,
      "compliment</w>": 5645,
      "fashionable</w>": 5646,
      "fashionably</w>": 5647,
      "recognized</w>": 5648,
      "recognizable</w>": 5649,
      "tiptoed</w>": 5650,
      "tiptoes</w>": 5651,
      "apology</w>": 5652,
      "acquaintance</w>": 5653,
      "acquaintances</w>": 5654,
      "Bridge</w>": 5655,
      "Crossing</w>": 5656,
      "Flushing</w>": 5657,
      "German</w>": 5658,
      "Muldoon</w>": 5659,
      "Point</w>": 5660,
      "Probably</w>": 5661,
      "Simon</w>": 5662,
      "Turning</w>": 5663,
      "blazing</w>": 5664,
      "essential</w>": 5665,
      "farther</w>": 5666,
      "flected</w>": 5667,
      "granted</w>": 5668,
      "isolated</w>": 5669,
      "pyjam": 5670,
      "sadness</w>": 5671,
      "sentence</w>": 5672,
      "swallowed</w>": 5673,
      "sailles</w>": 5674,
      "tumultuous</w>": 5675,
      "veiled</w>": 5676,
      "vulgar</w>": 5677,
      "wich</w>": 5678,
      "inevitable</w>": 5679,
      "inexhausti": 5680,
      "indefinite</w>": 5681,
      "orchids</w>": 5682,
      "reproach</w>": 5683,
      "represented</w>": 5684,
      "resemblance</w>": 5685,
      "itude</w>": 5686,
      "stunts</w>": 5687,
      "attracted</w>": 5688,
      "alarmed</w>": 5689,
      "rigidly</w>": 5690,
      "nostrils</w>": 5691,
      "ticket</w>": 5692,
      "learn</w>": 5693,
      "leader</w>": 5694,
      "unwillingly</w>": 5695,
      "unsuccessfully</w>": 5696,
      "unmistakable</w>": 5697,
      "dissol": 5698,
      "distorted</w>": 5699,
      "abstrac": 5700,
      "rapidly</w>": 5701,
      "separated</w>": 5702,
      "securities</w>": 5703,
      "sparkling</w>": 5704,
      "deeper</w>": 5705,
      "contralto</w>": 5706,
      "concerned</w>": 5707,
      "bothering</w>": 5708,
      "extinguished</w>": 5709,
      "extra</w>": 5710,
      "exercise</w>": 5711,
      "ambitious</w>": 5712,
      "pointlessly</w>": 5713,
      "taxica": 5714,
      "warmth</w>": 5715,
      "twisting</w>": 5716,
      "twinkle</w>": 5717,
      "reserve</w>": 5718,
      "turbulent</w>": 5719,
      "scrutinized</w>": 5720,
      "workmen</w>": 5721,
      "established</w>": 5722,
      "pervading</w>": 5723,
      "civilization</w>": 5724,
      "closest</w>": 5725,
      "smashed</w>": 5726,
      "sweet</w>": 5727,
      "muscle</w>": 5728,
      "carriages</w>": 5729,
      "privilege</w>": 5730,
      "guilty</w>": 5731,
      "gratitude</w>": 5732,
      "cordial</w>": 5733,
      "easier</w>": 5734,
      "collapse</w>": 5735,
      "intriguing</w>": 5736,
      "sensuous</w>": 5737,
      "sumptuous</w>": 5738,
      "exploded</w>": 5739,
      "audible</w>": 5740,
      "solid</w>": 5741,
      "shortcut</w>": 5742,
      "indifferent</w>": 5743,
      "communic": 5744,
      "commuting</w>": 5745,
      "occupation</w>": 5746,
      "judgements</w>": 5747,
      "discuss</w>": 5748,
      "discreetly</w>": 5749,
      "tremendous</w>": 5750,
      "critic": 5751,
      "ferocious</w>": 5752,
      "desperately</w>": 5753,
      "despairingly</w>": 5754,
      "admiration</w>": 5755,
      "shirtwaist</w>": 5756,
      "personality</w>": 5757,
      "fascinated</w>": 5758,
      "melody</w>": 5759,
      "photographers</w>": 5760,
      "oblivion</w>": 5761,
      "conscientious</w>": 5762,
      "possessions</w>": 5763,
      "avoided</w>": 5764,
      "fragment</w>": 5765,
      "gloomily</w>": 5766,
      "sympath": 5767,
      "divorce</w>": 5768,
      "aggressively</w>": 5769,
      "astonishment</w>": 5770,
      "Again</w>": 5771,
      "Astoria</w>": 5772,
      "Black": 5773,
      "Beluga</w>": 5774,
      "Certainly</w>": 5775,
      "Crazy</w>": 5776,
      "Camp</w>": 5777,
      "Central</w>": 5778,
      "Cecil</w>": 5779,
      "Company</w>": 5780,
      "Detroit</w>": 5781,
      "Edgar</w>": 5782,
      "Earl</w>": 5783,
      "Goodbye</w>": 5784,
      "Henry</w>": 5785,
      "Half</w>": 5786,
      "Jazz</w>": 5787,
      "Katspau": 5788,
      "Minneso": 5789,
      "November</w>": 5790,
      "Open</w>": 5791,
      "Owl</w>": 5792,
      "Pennsylvan": 5793,
      "Sorry</w>": 5794,
      "Sitting</w>": 5795,
      "September</w>": 5796,
      "Study</w>": 5797,
      "Southampton</w>": 5798,
      "Taylor</w>": 5799,
      "Tuolo": 5800,
      "Twelve</w>": 5801,
      "Versailles</w>": 5802,
      "Vladmir</w>": 5803,
      "ajar</w>": 5804,
      "barrier</w>": 5805,
      "cellar</w>": 5806,
      "cracked</w>": 5807,
      "domin": 5808,
      "especially</w>": 5809,
      "foul</w>": 5810,
      "fluctu": 5811,
      "ghastly</w>": 5812,
      "guns</w>": 5813,
      "gleam</w>": 5814,
      "government</w>": 5815,
      "janitor</w>": 5816,
      "madman</w>": 5817,
      "narrowed</w>": 5818,
      "normal</w>": 5819,
      "prac</w>": 5820,
      "push</w>": 5821,
      "pompadour</w>": 5822,
      "school</w>": 5823,
      "soothing</w>": 5824,
      "tyre</w>": 5825,
      "tentatively</w>": 5826,
      "testimony</w>": 5827,
      "wicker</w>": 5828,
      "initiative</w>": 5829,
      "intelli": 5830,
      "inherited</w>": 5831,
      "influence</w>": 5832,
      "anchor</w>": 5833,
      "arrogant</w>": 5834,
      "engrossed</w>": 5835,
      "redolent</w>": 5836,
      "replaced</w>": 5837,
      "stroke</w>": 5838,
      "stupid</w>": 5839,
      "roofs</w>": 5840,
      "elicited</w>": 5841,
      "loafing</w>": 5842,
      "accused</w>": 5843,
      "lieutenant</w>": 5844,
      "riotous</w>": 5845,
      "unhappily</w>": 5846,
      "unpleasantness</w>": 5847,
      "uncomfortably</w>": 5848,
      "unexpectedly</w>": 5849,
      "causing</w>": 5850,
      "diminished</w>": 5851,
      "dilatory</w>": 5852,
      "disquieting</w>": 5853,
      "eventually</w>": 5854,
      "abandoned</w>": 5855,
      "supercilious</w>": 5856,
      "negro</w>": 5857,
      "nephew</w>": 5858,
      "speech</w>": 5859,
      "degree</w>": 5860,
      "advised</w>": 5861,
      "gossip</w>": 5862,
      "whitewashed</w>": 5863,
      "consoling</w>": 5864,
      "savagely</w>": 5865,
      "saxophones</w>": 5866,
      "express</w>": 5867,
      "explanations</w>": 5868,
      "amazing</w>": 5869,
      "powerful</w>": 5870,
      "scandal</w>": 5871,
      "schedule</w>": 5872,
      "figures</w>": 5873,
      "improving</w>": 5874,
      "impulse</w>": 5875,
      "perceived</w>": 5876,
      "perspiration</w>": 5877,
      "compreh": 5878,
      "trousers</w>": 5879,
      "pebbles</w>": 5880,
      "procession</w>": 5881,
      "provincial</w>": 5882,
      "profoundly</w>": 5883,
      "prosperous</w>": 5884,
      "proximity</w>": 5885,
      "coincidence</w>": 5886,
      "drizzle</w>": 5887,
      "obscurely</w>": 5888,
      "mantelpiece</w>": 5889,
      "prevented</w>": 5890,
      "intermittent</w>": 5891,
      "daughter</w>": 5892,
      "silhouette</w>": 5893,
      "inventions</w>": 5894,
      "invariably</w>": 5895,
      "biscuits</w>": 5896,
      "cemetery</w>": 5897,
      "Lutheran</w>": 5898,
      "melancholy</w>": 5899,
      "jewellery</w>": 5900,
      "triumphantly</w>": 5901,
      "snobbishly</w>": 5902,
      "inexhaustible</w>": 5903,
      "taxicabs</w>": 5904,
      "Katspaugh</w>": 5905,
      "Minnesota</w>": 5906,
      "Pennsylvania</w>": 5907,
      "Tuolomee</w>": 5908
    },
    "merges": [
      "t h",
      "i n",
      "a n",
      "e d</w>",
      "th e</w>",
      "o u",
      "e r",
      "an d</w>",
      "e r</w>",
      "in g</w>",
      "w a",
      "a t</w>",
      "t o</w>",
      "h e</w>",
      "h i",
      "a r",
      "e n",
      "o f</w>",
      "o r",
      "o n",
      "r e",
      "i t",
      "o n</w>",
      "s t",
      "i n</w>",
      "h a",
      "l y</w>",
      "e n</w>",
      "m e</w>",
      "a t",
      "r o",
      "a l",
      "wa s</w>",
      "a n</w>",
      "e l",
      "e s</w>",
      "a i",
      "th at</w>",
      "s t</w>",
      "l o",
      "o r</w>",
      "a c",
      "er e</w>",
      "l e</w>",
      "l i",
      "g h",
      "r i",
      "o u</w>",
      "i t</w>",
      "b e",
      "hi s</w>",
      "v e</w>",
      "n o",
      "w h",
      "t i",
      "o l",
      "it h</w>",
      "s e</w>",
      "o m",
      "s i",
      "w ith</w>",
      "y ou</w>",
      "l e",
      "u n",
      "u r",
      "ou t</w>",
      "gh t</w>",
      "b y</w>",
      "ha d</w>",
      "h er</w>",
      "c a",
      "d o",
      "d i",
      "en t</w>",
      "e v",
      "a b",
      "l a",
      "h e",
      "i c",
      "i s</w>",
      "r a",
      "u t</w>",
      "f or</w>",
      "th e",
      "s he</w>",
      "o m</w>",
      "s h",
      "i l",
      "hi m</w>",
      "s s</w>",
      "s e",
      "on e</w>",
      "a s</w>",
      "G at",
      "s u",
      "n e",
      "t o",
      "i r",
      "al l</w>",
      "s p",
      "s by</w>",
      "Gat sby</w>",
      "ou n",
      "o v",
      "ai d</w>",
      "a g",
      "k e</w>",
      "H e</w>",
      "w n</w>",
      "d e",
      "m y</w>",
      "f ro",
      "k ed</w>",
      "f or",
      "s aid</w>",
      "c h</w>",
      "th er</w>",
      "o me</w>",
      "fro m</w>",
      "p p",
      "a s",
      "e t</w>",
      "a d",
      "t ed</w>",
      "g o",
      "e m",
      "t er</w>",
      "c e</w>",
      "ai s",
      "th ing</w>",
      "ou l",
      "ou r</w>",
      "w hi",
      "no w</w>",
      "T om</w>",
      "u p</w>",
      "b ut</w>",
      "c on",
      "D ais",
      "Dais y</w>",
      "b o",
      "u t",
      "t er",
      "T he</w>",
      "c h",
      "wa y</w>",
      "th ere</w>",
      "l l</w>",
      "s a",
      "w ere</w>",
      "e x",
      "in to</w>",
      "lo o",
      "T h",
      "w e</w>",
      "a m",
      "W h",
      "u st</w>",
      "ol d</w>",
      "d n</w>",
      "s ed</w>",
      "o p",
      "q u",
      "I t</w>",
      "oun d</w>",
      "o o",
      "en t",
      "a l</w>",
      "g h</w>",
      "a f",
      "ov er</w>",
      "in g",
      "at i",
      "ab out</w>",
      "a d</w>",
      "k ing</w>",
      "d e</w>",
      "t le</w>",
      "d ed</w>",
      "el l</w>",
      "a r</w>",
      "r u",
      "th is</w>",
      "om e",
      "m an</w>",
      "on g</w>",
      "l ed</w>",
      "ha ve</w>",
      "ev er</w>",
      "b e</w>",
      "p o",
      "i f</w>",
      "m i",
      "an t</w>",
      "ac k</w>",
      "t a",
      "oul d</w>",
      "S he</w>",
      "m o",
      "s o</w>",
      "wa r",
      "li ke</w>",
      "d s</w>",
      "e c",
      "ou gh</w>",
      "t w",
      "do wn</w>",
      "e p",
      "e y",
      "e ly</w>",
      "ca me</w>",
      "the y</w>",
      "h ou",
      "er ed</w>",
      "re s",
      "f u",
      "n i",
      "a y</w>",
      "t ur",
      "s ome",
      "d y</w>",
      "m or",
      "s c",
      "e t",
      "Y ou</w>",
      "b ack</w>",
      "o f",
      "ic e</w>",
      "l it",
      "m in",
      "ou s</w>",
      "w or",
      "be en</w>",
      "ou ght</w>",
      "wh en</w>",
      "f i",
      "er y</w>",
      "f ac",
      "s on</w>",
      "i r</w>",
      "lit tle</w>",
      "g e</w>",
      "i m",
      "o ther</w>",
      "it y</w>",
      "n ed</w>",
      "ri ed</w>",
      "k now</w>",
      "or d",
      "wh o</w>",
      "hou se</w>",
      "s ome</w>",
      "al ly</w>",
      "e st",
      "p er",
      "p ar",
      "s el",
      "v i",
      "un d",
      "c k</w>",
      "c om",
      "ab le</w>",
      "e ar",
      "th en</w>",
      "si de</w>",
      "f e",
      "t r",
      "w i",
      "w ent</w>",
      "an y</w>",
      "ar d</w>",
      "ag a",
      "h o",
      "or t</w>",
      "for e</w>",
      "j ust</w>",
      "t y</w>",
      "go t</w>",
      "ey es</w>",
      "in k</w>",
      "wh at</w>",
      "p e",
      "t ing</w>",
      "be fore</w>",
      "e st</w>",
      "u l",
      "loo ked</w>",
      "ati on</w>",
      "M r</w>",
      "d ing</w>",
      "g o</w>",
      "t s</w>",
      "lo w",
      "ti me</w>",
      "W il",
      "d on</w>",
      "r e</w>",
      "y s</w>",
      "er s</w>",
      "di dn</w>",
      "war d</w>",
      "the m</w>",
      "sel f</w>",
      "g ar",
      "g et</w>",
      "t e</w>",
      "l u",
      "re m",
      "ro om</w>",
      "ne w</w>",
      "c i",
      "m om",
      "ou r",
      "at e</w>",
      "ni ght</w>",
      "t ly</w>",
      "v o",
      "st ar",
      "Wil son</w>",
      "s s",
      "se e</w>",
      "a way</w>",
      "g re",
      "m e",
      "t h</w>",
      "v ed</w>",
      "ar e</w>",
      "mor e</w>",
      "J ord",
      "W e</w>",
      "c lo",
      "ca r</w>",
      "Jord an</w>",
      "c ome</w>",
      "d en",
      "s n</w>",
      "u s</w>",
      "in e</w>",
      "ou s",
      "g ir",
      "ar ound</w>",
      "ti on</w>",
      "le a",
      "tur ned</w>",
      "mom ent</w>",
      "B ut</w>",
      "b le</w>",
      "d o</w>",
      "h ere</w>",
      "n o</w>",
      "u m",
      "u se</w>",
      "at ed</w>",
      "be g",
      "wh ere</w>",
      "ch an",
      "s m",
      "s w",
      "li ght</w>",
      "do or</w>",
      "ad e</w>",
      "go ing</w>",
      "f ir",
      "s ur",
      "no t</w>",
      "tw o</w>",
      "A n",
      "n ing</w>",
      "r ough</w>",
      "ri ght</w>",
      "m u",
      "o k</w>",
      "p ro",
      "p res",
      "w in",
      "th ink</w>",
      "af ter</w>",
      "c o",
      "g i",
      "h and</w>",
      "on s</w>",
      "whi ch</w>",
      "bo dy</w>",
      "d ay</w>",
      "m ade</w>",
      "r s</w>",
      "t en",
      "y our</w>",
      "th rough</w>",
      "ev er",
      "to o</w>",
      "op le</w>",
      "u p",
      "some thing</w>",
      "b ro",
      "c ould</w>",
      "f in",
      "n ever</w>",
      "s hi",
      "v ing</w>",
      "sh ed</w>",
      "Wh at</w>",
      "pe ople</w>",
      "c an</w>",
      "d ri",
      "l ing</w>",
      "p l",
      "u s",
      "y ing</w>",
      "ha l",
      "lo w</w>",
      "vo ice</w>",
      "d re",
      "r an",
      "ac h</w>",
      "pp ed</w>",
      "ex c",
      "fac e</w>",
      "T he",
      "c e",
      "c k",
      "e e",
      "f e</w>",
      "l s</w>",
      "o b",
      "w ant</w>",
      "c ar",
      "d er</w>",
      "p s</w>",
      "v ery</w>",
      "en ce</w>",
      "il l</w>",
      "Th at</w>",
      "a st</w>",
      "m an",
      "m ov",
      "n a",
      "he ad</w>",
      "aga in</w>",
      "a k",
      "c ha",
      "h an",
      "k new</w>",
      "s it",
      "an y",
      "si on</w>",
      "the ir</w>",
      "An d</w>",
      "o se</w>",
      "wa l",
      "ag e</w>",
      "sa w</w>",
      "fir st</w>",
      "e w</w>",
      "e ss</w>",
      "f t</w>",
      "g a",
      "r ed</w>",
      "w ould</w>",
      "in ed</w>",
      "oul dn</w>",
      "con t",
      "ent ly</w>",
      "The y</w>",
      "b r",
      "g g",
      "g ra",
      "k s</w>",
      "o d</w>",
      "p ri",
      "re e</w>",
      "no on</w>",
      "ut e</w>",
      "oo d</w>",
      "af ter",
      "ous ly</w>",
      "beg an</w>",
      "l ong</w>",
      "en d</w>",
      "on ly</w>",
      "to ok</w>",
      "Th en</w>",
      "ear s</w>",
      "m a",
      "m en</w>",
      "s ha",
      "th ought</w>",
      "it s</w>",
      "ev en</w>",
      "whi le</w>",
      "of f</w>",
      "d u",
      "o w</w>",
      "p la",
      "y oun",
      "ne ss</w>",
      "sp ort</w>",
      "mo st</w>",
      "gir l</w>",
      "b el",
      "g u",
      "m on",
      "t al",
      "w an",
      "ti m",
      "ca use</w>",
      "he ard</w>",
      "to ward</w>",
      "em b",
      "whi te</w>",
      "Th ere</w>",
      "ing s</w>",
      "f a",
      "l an",
      "t e",
      "t ra",
      "t old</w>",
      "be cause</w>",
      "la st</w>",
      "hal f</w>",
      "N ew</w>",
      "l d</w>",
      "m ar",
      "v er",
      "w s</w>",
      "un ti",
      "youn g</w>",
      "c ed</w>",
      "g r",
      "g ed</w>",
      "i es</w>",
      "st an",
      "ha pp",
      "as ked</w>",
      "na me</w>",
      "W ell</w>",
      "b re",
      "c or",
      "c re",
      "c al",
      "en ed</w>",
      "le ss</w>",
      "ic k</w>",
      "Wh en</w>",
      "after noon</w>",
      "unti l</w>",
      "H is</w>",
      "d den",
      "e a",
      "e p</w>",
      "e m</w>",
      "st o",
      "st or",
      "ro w",
      "ai r</w>",
      "ever y",
      "up on</w>",
      "B ak",
      "M i",
      "O h</w>",
      "d ar",
      "d en</w>",
      "h our</w>",
      "p re",
      "in ter",
      "wa ys</w>",
      "it ed</w>",
      "si st",
      "le ft</w>",
      "la u",
      "se em",
      "fu l</w>",
      "win do",
      "dden ly</w>",
      "Bak er</w>",
      "d ly</w>",
      "f ound</w>",
      "i on</w>",
      "i ly</w>",
      "s er",
      "y ears</w>",
      "en ing</w>",
      "ac e</w>",
      "seem ed</w>",
      "W est</w>",
      "g e",
      "h el",
      "m ent</w>",
      "wa sn</w>",
      "di d</w>",
      "han ds</w>",
      "d a",
      "f f",
      "p a",
      "p le",
      "s ol",
      "w om",
      "ho w</w>",
      "mu ch</w>",
      "c hi",
      "c ol",
      "c he",
      "d ro",
      "f r",
      "f el",
      "f am",
      "l es</w>",
      "m ed</w>",
      "p h",
      "p or",
      "s sed</w>",
      "t able</w>",
      "th ree</w>",
      "or k</w>",
      "si l",
      "ir ed</w>",
      "sa y</w>",
      "loo k</w>",
      "loo king</w>",
      "oo l</w>",
      "und er",
      "Y ork</w>",
      "a pp",
      "c u",
      "e en</w>",
      "e ar</w>",
      "l at",
      "m at",
      "o wn</w>",
      "v er</w>",
      "v es</w>",
      "th ough</w>",
      "an other</w>",
      "ar y</w>",
      "ac h",
      "le t</w>",
      "min ute</w>",
      "N o</w>",
      "f ri",
      "g g</w>",
      "p i",
      "r y</w>",
      "v en</w>",
      "th an</w>",
      "st ood</w>",
      "al ways</w>",
      "fi ve</w>",
      "wi th",
      "sm all</w>",
      "Mi ss</w>",
      "fr on",
      "T his</w>",
      "c er",
      "e ach</w>",
      "l ar",
      "s h</w>",
      "t en</w>",
      "t el",
      "y ed</w>",
      "in d</w>",
      "al one</w>",
      "no thing</w>",
      "ur e</w>",
      "ov er",
      "oo k</w>",
      "ep t</w>",
      "fron t</w>",
      "I n</w>",
      "W ol",
      "b ed</w>",
      "e y</w>",
      "f shi",
      "s at</w>",
      "t re",
      "v ely</w>",
      "in st</w>",
      "in qu",
      "at h</w>",
      "al e</w>",
      "al ong</w>",
      "su pp",
      "su ddenly</w>",
      "of f",
      "und er</w>",
      "aga inst</w>",
      "ge ther</w>",
      "Wol fshi",
      "Wolfshi em</w>",
      "A t</w>",
      "E gg</w>",
      "M rs</w>",
      "a th",
      "b u",
      "c ried</w>",
      "g ro",
      "i z",
      "m ust</w>",
      "in v",
      "on ce</w>",
      "li gh",
      "se en</w>",
      "to gether</w>",
      "clo ck</w>",
      "c ou",
      "g la",
      "k no",
      "t ter</w>",
      "t ell</w>",
      "w ell</w>",
      "x t</w>",
      "in t",
      "al ity</w>",
      "ne xt</w>",
      "ch ed</w>",
      "ec t</w>",
      "tim es</w>",
      "H er</w>",
      "b l",
      "f ol",
      "m ur",
      "m self</w>",
      "n e</w>",
      "p as",
      "s ing</w>",
      "in ess</w>",
      "hi mself</w>",
      "st ill</w>",
      "li fe</w>",
      "sh o",
      "mor ning</w>",
      "rem emb",
      "A s</w>",
      "c ouldn</w>",
      "n er</w>",
      "s es</w>",
      "th ings</w>",
      "an sw",
      "it e</w>",
      "ta ke</w>",
      "gar age</w>",
      "lau gh",
      "B u",
      "b i",
      "c t",
      "e i",
      "h ome</w>",
      "k y</w>",
      "an ce</w>",
      "st a",
      "st i",
      "st r",
      "ro ss</w>",
      "ev ery</w>",
      "em p",
      "ter ed</w>",
      "ent s</w>",
      "bel i",
      "wan ted</w>",
      "cal led</w>",
      "with out</w>",
      "a m</w>",
      "b ut",
      "c our",
      "g lan",
      "h ar",
      "k en</w>",
      "l and</w>",
      "s en",
      "w ee",
      "on g",
      "st er</w>",
      "st ep",
      "ro w</w>",
      "ro ad</w>",
      "su m",
      "Wh y</w>",
      "mi ght</w>",
      "wor ld</w>",
      "man ded</w>",
      "mov ed</w>",
      "ga ve</w>",
      "ma ke</w>",
      "cer ta",
      "inqu ired</w>",
      "step s</w>",
      "A f",
      "d r",
      "d ra",
      "f our</w>",
      "l er</w>",
      "m s</w>",
      "v an",
      "y el",
      "th ose</w>",
      "st and</w>",
      "st re",
      "at ely</w>",
      "ai rs</w>",
      "ac ross</w>",
      "ca l</w>",
      "ab ly</w>",
      "ex p",
      "ing ly</w>",
      "fe w</w>",
      "gar den</w>",
      "star ted</w>",
      "gre at</w>",
      "pres sion</w>",
      "every thing</w>",
      "dar k</w>",
      "lat er</w>",
      "Bu chan",
      "G od</w>",
      "H ow</w>",
      "M y",
      "N ick</w>",
      "a u",
      "a ut",
      "c ur",
      "f lo",
      "g one</w>",
      "h us",
      "i d</w>",
      "p ed</w>",
      "s o",
      "t u",
      "in t</w>",
      "ar t</w>",
      "re ad",
      "be tw",
      "ra ther</w>",
      "de manded</w>",
      "em ent</w>",
      "ec ted</w>",
      "low ed</w>",
      "rem ar",
      "sur pri",
      "dre ss</w>",
      "any thing</w>",
      "mar ried</w>",
      "fel t</w>",
      "Af ter</w>",
      "betw een</w>",
      "e l</w>",
      "e e</w>",
      "m y",
      "n am",
      "r tle</w>",
      "s ort</w>",
      "u sed</w>",
      "ar ri",
      "lo ve</w>",
      "le an",
      "la wn</w>",
      "he ar</w>",
      "ic k",
      "the se</w>",
      "op en</w>",
      "po li",
      "fu l",
      "wor d</w>",
      "est ed</w>",
      "fe et</w>",
      "wi fe</w>",
      "bro ke</w>",
      "wal ked</w>",
      "mon ey</w>",
      "My rtle</w>",
      "A ll</w>",
      "D on</w>",
      "E ast</w>",
      "M ic",
      "S o</w>",
      "i de",
      "j o",
      "m p",
      "m er</w>",
      "o t</w>",
      "p ic",
      "ou t",
      "re c",
      "ha el",
      "ha ir</w>",
      "ra in</w>",
      "il led</w>",
      "su gg",
      "ep h",
      "pl ace</w>",
      "da ys</w>",
      "tel eph",
      "cour se</w>",
      "yel low</w>",
      "Buchan an</w>",
      "Mic hael",
      "Michael is</w>",
      "C ome</w>",
      "D o</w>",
      "b ri",
      "b ur",
      "b lu",
      "d el",
      "d ered</w>",
      "d res",
      "g et",
      "l un",
      "p ol",
      "t ri",
      "w ouldn</w>",
      "y ear</w>",
      "ou th</w>",
      "er ing</w>",
      "ar ra",
      "en ti",
      "ha dn</w>",
      "ro se</w>",
      "lo ved</w>",
      "ac c",
      "li ar</w>",
      "be side</w>",
      "la r</w>",
      "ru p",
      "fu ll</w>",
      "me di",
      "sur e</w>",
      "dri ve</w>",
      "cont in",
      "wom an</w>",
      "mat ter</w>",
      "sum mer</w>",
      "ful ly</w>",
      "blu e</w>",
      "C hi",
      "M c",
      "S ome",
      "b us",
      "c ity</w>",
      "c row",
      "e d",
      "m et</w>",
      "m any</w>",
      "n s</w>",
      "p ut</w>",
      "t or",
      "in s</w>",
      "in ten",
      "an tly</w>",
      "st e",
      "no d",
      "om s</w>",
      "le ep</w>",
      "ca go</w>",
      "do g</w>",
      "il ed</w>",
      "su ch</w>",
      "am ong</w>",
      "fac t</w>",
      "par ti",
      "par ty</w>",
      "tr y</w>",
      "low ly</w>",
      "ss ly</w>",
      "gir ls</w>",
      "sto pped</w>",
      "windo ws</w>",
      "but ler</w>",
      "contin u",
      "Chi cago</w>",
      "D o",
      "Y es</w>",
      "c ir",
      "f l",
      "f un",
      "h ur",
      "h ard</w>",
      "i shed</w>",
      "p u",
      "p ul",
      "s in",
      "s qu",
      "s ing",
      "t ou",
      "t ried</w>",
      "v en",
      "w on",
      "w il",
      "z en</w>",
      "in c",
      "wa t",
      "ar m</w>",
      "on d</w>",
      "re s</w>",
      "re st",
      "st airs</w>",
      "ha ps</w>",
      "wh o",
      "ev ening</w>",
      "he art</w>",
      "sh oul",
      "to wn</w>",
      "ag o</w>",
      "for d</w>",
      "go od</w>",
      "whi sp",
      "im medi",
      "tr ying</w>",
      "ho t</w>",
      "gi ve</w>",
      "ce ss",
      "cha ir</w>",
      "windo w</w>",
      "fam i",
      "ach ed</w>",
      "ide a</w>",
      "teleph one</w>",
      "I f</w>",
      "c ked</w>",
      "e f",
      "e sn</w>",
      "f ar</w>",
      "h u",
      "h und",
      "h ind</w>",
      "i s",
      "m er",
      "r ac",
      "s ound</w>",
      "t ru",
      "v il",
      "x i</w>",
      "in side</w>",
      "on ed</w>",
      "it self</w>",
      "st ra",
      "at ing</w>",
      "be tter</w>",
      "be hind</w>",
      "wh y</w>",
      "do zen</w>",
      "sh or",
      "su b",
      "sp ea",
      "af f",
      "sc en",
      "gre y</w>",
      "me an</w>",
      "co at</w>",
      "br ought</w>",
      "stan ding</w>",
      "happ ened</w>",
      "cu ri",
      "fri end</w>",
      "off ice</w>",
      "pas sed</w>",
      "bi g</w>",
      "beli e",
      "read y</w>",
      "Mc K",
      "bus iness</w>",
      "fami liar</w>",
      "C o",
      "F or</w>",
      "M y</w>",
      "O ne</w>",
      "a st",
      "b or",
      "b lo",
      "c all</w>",
      "d in",
      "f ell</w>",
      "i gh",
      "l en",
      "l ong",
      "p ast</w>",
      "s or",
      "s un",
      "s ent</w>",
      "s lowly</w>",
      "t an",
      "w ill</w>",
      "z y</w>",
      "in di",
      "in sist",
      "an d",
      "wa ited</w>",
      "it ely</w>",
      "ha s</w>",
      "al most</w>",
      "sh ook</w>",
      "se t</w>",
      "op ened</w>",
      "qu ick",
      "com m",
      "gre en</w>",
      "ever al</w>",
      "fin d</w>",
      "exc ept</w>",
      "pla ined</w>",
      "tal ked</w>",
      "stor y</w>",
      "rememb er</w>",
      "answ ered</w>",
      "certa in</w>",
      "my self</w>",
      "who le</w>",
      "A b",
      "C ath",
      "D id</w>",
      "G e",
      "H a",
      "I s",
      "L ook</w>",
      "M on",
      "a w",
      "b ought</w>",
      "b right</w>",
      "c em",
      "f ing",
      "i st",
      "k i",
      "m ing</w>",
      "o c",
      "p e</w>",
      "s si",
      "s ky</w>",
      "w ing</w>",
      "an c",
      "an e</w>",
      "st u",
      "ha ll</w>",
      "li ve</w>",
      "be ing</w>",
      "ti c</w>",
      "si g",
      "di sa",
      "sh ar",
      "sp ec",
      "bo o",
      "sa me</w>",
      "ex pression</w>",
      "Wh o</w>",
      "qu est",
      "ati ons</w>",
      "ear ed</w>",
      "exc it",
      "ob j",
      "por ch</w>",
      "arri ved</w>",
      "lean ed</w>",
      "get ting</w>",
      "nod ded</w>",
      "cir c",
      "immedi ately</w>",
      "belie ve</w>",
      "McK ee</w>",
      "insist ed</w>",
      "Ge or",
      "Is land</w>",
      "disa pp",
      "S u",
      "b and</w>",
      "c ra",
      "c oun",
      "d ent</w>",
      "d am",
      "e at</w>",
      "f f</w>",
      "g en",
      "h er",
      "h or",
      "i ous</w>",
      "i sn</w>",
      "j u",
      "m il",
      "n y</w>",
      "o w",
      "o ke</w>",
      "t ty</w>",
      "t ten</w>",
      "w er</w>",
      "w on</w>",
      "in ing</w>",
      "in ted</w>",
      "in cre",
      "hi gh</w>",
      "en ough</w>",
      "or row</w>",
      "re al",
      "re as",
      "re ad</w>",
      "re ached</w>",
      "ro oms</w>",
      "om orrow</w>",
      "di sc",
      "la y</w>",
      "sh ort</w>",
      "con fu",
      "bo ok</w>",
      "mi d",
      "some body</w>",
      "et s</w>",
      "wor ds</w>",
      "vi ol",
      "vi si",
      "com ple",
      "our ed</w>",
      "star ed</w>",
      "clo se</w>",
      "lea st</w>",
      "sit ting</w>",
      "tra in</w>",
      "ple as",
      "wom en</w>",
      "dro ve</w>",
      "fol lowed</w>",
      "laugh ed</w>",
      "glan ced</w>",
      "flo or</w>",
      "out side</w>",
      "Co dy</w>",
      "quick ly</w>",
      "J ust</w>",
      "O x",
      "a par",
      "b al",
      "c l",
      "c old</w>",
      "c are</w>",
      "c ool</w>",
      "f oo",
      "f low",
      "i c</w>",
      "m outh</w>",
      "o d",
      "p an",
      "p ale</w>",
      "r ais",
      "s li",
      "s everal</w>",
      "t rem",
      "t omorrow</w>",
      "u r</w>",
      "v ag",
      "th in",
      "th ir",
      "ou d</w>",
      "er ine</w>",
      "or m",
      "re pe",
      "st ran",
      "ro l",
      "al ready</w>",
      "do esn</w>",
      "he at</w>",
      "he sit",
      "su n</w>",
      "su it</w>",
      "de ci",
      "for ward</w>",
      "as k</w>",
      "ut es</w>",
      "ch ing</w>",
      "ex plained</w>",
      "tur e</w>",
      "min utes</w>",
      "um b",
      "ran g</w>",
      "car s</w>",
      "sha do",
      "sto p</w>",
      "pre tty</w>",
      "hel d</w>",
      "fam ily</w>",
      "under stand</w>",
      "tre es</w>",
      "cou p",
      "kno wn</w>",
      "ei ther</w>",
      "wee k</w>",
      "hus band</w>",
      "poli cem",
      "sugg ested</w>",
      "ef for",
      "hund red</w>",
      "spea k</w>",
      "long er</w>",
      "Cath erine</w>",
      "Geor ge</w>",
      "real iz",
      "Ox ford</w>",
      "policem an</w>",
      "L ong</w>",
      "M a",
      "O f</w>",
      "W ith</w>",
      "b b",
      "b en",
      "d er",
      "d le</w>",
      "d ru",
      "e ag",
      "f an",
      "g ing</w>",
      "h ol",
      "h op",
      "l ate</w>",
      "n ice</w>",
      "p er</w>",
      "r an</w>",
      "y e</w>",
      "z ed</w>",
      "ar ms</w>",
      "or y</w>",
      "on al</w>",
      "re al</w>",
      "st ly</w>",
      "ai l</w>",
      "ac k",
      "ac t</w>",
      "li st",
      "ti ons</w>",
      "si ght</w>",
      "ca su",
      "di ff",
      "ic i",
      "ne w",
      "sp r",
      "oun ded</w>",
      "ov ered</w>",
      "de ep</w>",
      "ad ded</w>",
      "go tten</w>",
      "bo y</w>",
      "mi le</w>",
      "min e</w>",
      "fi f",
      "per son</w>",
      "lea ving</w>",
      "chan ge</w>",
      "sm iled</w>",
      "pro mi",
      "win d</w>",
      "ee p</w>",
      "gra ss</w>",
      "du c",
      "sist er</w>",
      "ligh ts</w>",
      "ct or</w>",
      "pic ture</w>",
      "lun ch</w>",
      "continu ed</w>",
      "pul led</w>",
      "shoul der</w>",
      "whisp ered</w>",
      "din ner</w>",
      "effor t</w>",
      "J ay</w>",
      "S ound</w>",
      "b ly</w>",
      "b ling</w>",
      "c r",
      "f er",
      "f la",
      "f ted</w>",
      "g s</w>",
      "g ol",
      "k ept</w>",
      "k illed</w>",
      "n er",
      "p ool</w>",
      "s it</w>",
      "s of",
      "s ation</w>",
      "th s</w>",
      "in st",
      "ou b",
      "wa it",
      "wa it</w>",
      "wa ll</w>",
      "en ds</w>",
      "en orm",
      "re st</w>",
      "re ally</w>",
      "ha ven</w>",
      "el e",
      "li m",
      "li ps</w>",
      "no se</w>",
      "le ge</w>",
      "do ing</w>",
      "he a",
      "ic es</w>",
      "sh ing</w>",
      "ag re",
      "de sp",
      "de ad</w>",
      "for ever</w>",
      "pp ing</w>",
      "ad m",
      "ad ed</w>",
      "bo th</w>",
      "qu i",
      "ru n</w>",
      "war m</w>",
      "tur ning</w>",
      "some where</w>",
      "min d</w>",
      "fac es</w>",
      "per i",
      "per haps</w>",
      "low ing</w>",
      "bro ken</w>",
      "shi r",
      "tal k</w>",
      "dar k",
      "supp ose</w>",
      "ligh tly</w>",
      "laugh ter</w>",
      "dr ink</w>",
      "remar ked</w>",
      "surpri sed</w>",
      "crow d</w>",
      "hur ried</w>",
      "sin ce</w>",
      "sing le</w>",
      "tru e</w>",
      "curi ous</w>",
      "cra zy</w>",
      "rais ed</w>",
      "coup é</w>",
      "B i",
      "C arra",
      "F i",
      "F in",
      "G ood</w>",
      "I n",
      "I s</w>",
      "N ow</w>",
      "O n",
      "O n</w>",
      "a sh",
      "a king</w>",
      "b ad</w>",
      "c ri",
      "c ent",
      "d ol",
      "d ust</w>",
      "d ge</w>",
      "h y",
      "i g",
      "n at",
      "w r",
      "w el",
      "w et</w>",
      "y si",
      "y ond</w>",
      "wa r</w>",
      "or s</w>",
      "it ch",
      "it ies</w>",
      "at t",
      "ro man",
      "al s</w>",
      "el ess</w>",
      "lo st</w>",
      "li ved</w>",
      "ri ble</w>",
      "be yond</w>",
      "si ck</w>",
      "se cre",
      "Gat z</w>",
      "su sp",
      "ne igh",
      "for m",
      "as h</w>",
      "as leep</w>",
      "con ce",
      "con ver",
      "ut ter",
      "sa ying</w>",
      "Wh ere</w>",
      "qu ality</w>",
      "ent y</w>",
      "po ck",
      "war e</w>",
      "sc i",
      "im p",
      "com p",
      "com ing</w>",
      "lu ct",
      "vo ices</w>",
      "lea ve</w>",
      "chan ged</w>",
      "pla y</w>",
      "te a</w>",
      "ph one</w>",
      "ph ysi",
      "sil ver</w>",
      "lar ge</w>",
      "cou ch</w>",
      "gla d</w>",
      "bl ack</w>",
      "sti c</w>",
      "aut om",
      "parti es</w>",
      "scen e</w>",
      "Ab out</w>",
      "fing ers</w>",
      "repe ated</w>",
      "eag er",
      "enorm ous</w>",
      "neigh b",
      "A l",
      "A mer",
      "N o",
      "R o",
      "S lo",
      "S ome</w>",
      "b a",
      "b it",
      "b le",
      "c le",
      "d ur",
      "f fe",
      "f ine</w>",
      "g es</w>",
      "k es</w>",
      "k ind</w>",
      "k eep</w>",
      "l o</w>",
      "l ine</w>",
      "p ur",
      "r aid</w>",
      "s y</w>",
      "s ity</w>",
      "u e</w>",
      "u ffe",
      "v in",
      "z e</w>",
      "in tly</w>",
      "ou ble</w>",
      "er e",
      "ha ving</w>",
      "ro ad",
      "lo vely</w>",
      "ac ci",
      "gh o",
      "gh t",
      "wh ee",
      "si ve</w>",
      "le ssly</w>",
      "un i",
      "un e</w>",
      "un k</w>",
      "ur ch</w>",
      "ca p",
      "ca u",
      "di s",
      "di ed</w>",
      "ev ed</w>",
      "ic ally</w>",
      "sh ould</w>",
      "se con",
      "to gra",
      "ir e</w>",
      "sp a",
      "sp oke</w>",
      "ag es</w>",
      "de fin",
      "for get</w>",
      "for gotten</w>",
      "ch o",
      "ru shed</w>",
      "ta king</w>",
      "ta ken</w>",
      "mo ther</w>",
      "tur n</w>",
      "some one</w>",
      "sc ar",
      "wor k</w>",
      "per s",
      "fe el</w>",
      "gar et",
      "gar den",
      "ci garet",
      "lea se</w>",
      "fin ally</w>",
      "dri ving</w>",
      "dre am",
      "mov ing</w>",
      "cha uffe",
      "any one</w>",
      "any how</w>",
      "br ary</w>",
      "ma king</w>",
      "tal king</w>",
      "wan ts</w>",
      "fa intly</w>",
      "happ en</w>",
      "bre ath</w>",
      "inter rup",
      "col oured</w>",
      "gla ss</w>",
      "rememb ered</w>",
      "fun ny</w>",
      "wil d</w>",
      "vil la",
      "quest ion</w>",
      "visi ble</w>",
      "apar t",
      "trem bling</w>",
      "new spa",
      "fif ty</w>",
      "Carra way</w>",
      "roman tic</w>",
      "conver sation</w>",
      "Amer ic",
      "Slo ane</w>",
      "whee l</w>",
      "secon d</w>",
      "B y</w>",
      "L u",
      "L et</w>",
      "P lease</w>",
      "S t",
      "a ware</w>",
      "b an",
      "b ul",
      "b lan",
      "b ye</w>",
      "c y</w>",
      "c at",
      "c es</w>",
      "c ally</w>",
      "d ers</w>",
      "d ently</w>",
      "d oub",
      "e ce</w>",
      "e gr",
      "f al",
      "f ur",
      "f as",
      "f res",
      "g er</w>",
      "g stor",
      "h on",
      "h un",
      "i v",
      "i l</w>",
      "i ght</w>",
      "i light</w>",
      "j um",
      "k itch",
      "l ai",
      "m el",
      "n ers</w>",
      "o ve</w>",
      "p ly</w>",
      "p ho",
      "s al",
      "s ev",
      "s mo",
      "s na",
      "s leep</w>",
      "s lightly</w>",
      "w e",
      "w er",
      "w ire</w>",
      "x ed</w>",
      "th ro",
      "in ly</w>",
      "in cess",
      "an s</w>",
      "er al</w>",
      "en g",
      "en ded</w>",
      "re v",
      "re luct",
      "st y</w>",
      "st ru",
      "el ing</w>",
      "lo t</w>",
      "lo xi</w>",
      "li ving</w>",
      "li brary</w>",
      "gh ten",
      "ri ch</w>",
      "be came</w>",
      "wh om</w>",
      "wh ose</w>",
      "si c</w>",
      "si de",
      "si vely</w>",
      "un familiar</w>",
      "ab sol",
      "ir re",
      "ag ed</w>",
      "for m</w>",
      "em ents</w>",
      "ut tered</w>",
      "ter s</w>",
      "ch urch</w>",
      "ent al</w>",
      "af raid</w>",
      "po or</w>",
      "po sit",
      "ta xi</w>",
      "mo on</w>",
      "mo ve</w>",
      "tw ilight</w>",
      "fi ed</w>",
      "per f",
      "par t</w>",
      "fe eling</w>",
      "tr an",
      "tr ouble</w>",
      "rem a",
      "our s</w>",
      "clo th",
      "mu r</w>",
      "pres ence</w>",
      "up stairs</w>",
      "dre w</w>",
      "exc lai",
      "wal k</w>",
      "wal king</w>",
      "gra du",
      "emb arra",
      "fa ther</w>",
      "cor ner</w>",
      "every one</w>",
      "lau gh</w>",
      "pa use</w>",
      "sol em",
      "chi ld</w>",
      "sil ence</w>",
      "pi ece</w>",
      "int ro",
      "mur mur",
      "mur mur</w>",
      "answ er</w>",
      "sta yed</w>",
      "har dly</w>",
      "wee ks</w>",
      "dr unk</w>",
      "stre t",
      "cur red</w>",
      "nam ed</w>",
      "nam es</w>",
      "Do ctor</w>",
      "tou ch</w>",
      "won der</w>",
      "inc lu",
      "wat ch</w>",
      "stra ined</w>",
      "shor e</w>",
      "oc curred</w>",
      "comple te</w>",
      "thir ty</w>",
      "rol led</w>",
      "hesit ated</w>",
      "shado w</w>",
      "dru gstor",
      "diff er",
      "agre ed</w>",
      "dark ness</w>",
      "Bi loxi</w>",
      "eager ly</w>",
      "chauffe ur</w>",
      "kitch en</w>",
      "pho togra",
      "exclai med</w>",
      "0 0</w>",
      "D an</w>",
      "E ck",
      "J une</w>",
      "L ou",
      "N ot</w>",
      "R e",
      "S tre",
      "T w",
      "W or",
      "b ra",
      "c ro",
      "c ep",
      "c ely</w>",
      "c tion</w>",
      "d one</w>",
      "d ul",
      "e f</w>",
      "f re",
      "f li",
      "f ool</w>",
      "f aded</w>",
      "g li",
      "g old</w>",
      "g ni",
      "g ay</w>",
      "g ate</w>",
      "i a</w>",
      "i ve</w>",
      "i ously</w>",
      "j a",
      "k et</w>",
      "l a</w>",
      "n al</w>",
      "o pp",
      "p r",
      "r en",
      "r un",
      "r ying</w>",
      "s k</w>",
      "s he",
      "s mile</w>",
      "t on</w>",
      "u su",
      "w ns</w>",
      "y et</w>",
      "y ach",
      "th u",
      "th an",
      "th re",
      "th in</w>",
      "th ick</w>",
      "an ing</w>",
      "er n</w>",
      "wa ter</w>",
      "hi gh",
      "ar ly</w>",
      "ar ily</w>",
      "en d",
      "en jo",
      "re ly</w>",
      "it ality</w>",
      "st ation</w>",
      "ro l</w>",
      "el ev",
      "el led</w>",
      "ai l",
      "be at</w>",
      "be ach</w>",
      "be au",
      "wh ere",
      "ti ll</w>",
      "do es</w>",
      "di m</w>",
      "di es</w>",
      "ab or",
      "la z",
      "la dy</w>",
      "he ad",
      "il le</w>",
      "de c",
      "de ter",
      "for med</w>",
      "pp er</w>",
      "em o",
      "con ne",
      "bo t",
      "ut ely</w>",
      "ter rible</w>",
      "sa d</w>",
      "op ening</w>",
      "qu ite</w>",
      "ing er</w>",
      "ati ve</w>",
      "po int</w>",
      "ey ed</w>",
      "hou ses</w>",
      "some times</w>",
      "et y</w>",
      "of ten</w>",
      "im pression</w>",
      "ord er</w>",
      "star t",
      "star t</w>",
      "me et</w>",
      "clo sed</w>",
      "An y",
      "mu sic</w>",
      "co ck",
      "ten egr",
      "pl ac",
      "ob li",
      "ob vi",
      "cha mp",
      "sha pe</w>",
      "gu est",
      "mon ths</w>",
      "fa int</w>",
      "te l</w>",
      "stan ce</w>",
      "cor rec",
      "cal ling</w>",
      "row ing</w>",
      "inter ested</w>",
      "chi l",
      "col our</w>",
      "che er",
      "por t",
      "sil ent</w>",
      "app ro",
      "app eared</w>",
      "cu lar</w>",
      "fri ends</w>",
      "lar s</w>",
      "supp er</w>",
      "bu y</w>",
      "inv ited</w>",
      "ei gh",
      "stre et</w>",
      "exp ected</w>",
      "bur g</w>",
      "dres sed</w>",
      "pol itely</w>",
      "crow ded</w>",
      "fl at</w>",
      "pu shed</w>",
      "vil le</w>",
      "sub j",
      "Mon tenegr",
      "anc ing</w>",
      "Su ddenly</w>",
      "gen er",
      "incre dul",
      "confu sed</w>",
      "pleas ant</w>",
      "foo t</w>",
      "flow ers</w>",
      "thin king</w>",
      "ben e",
      "hop e</w>",
      "list ening</w>",
      "ner v",
      "sof t</w>",
      "imp ati",
      "physi cal</w>",
      "dur ing</w>",
      "cau ght</w>",
      "dream s</w>",
      "cloth es</w>",
      "Stre et</w>",
      "cock t",
      "1 9",
      "B e",
      "C h",
      "C on",
      "C ol",
      "E n",
      "F or",
      "F ran",
      "G o</w>",
      "K li",
      "M ey",
      "P er",
      "a k</w>",
      "b er",
      "b ar",
      "b on",
      "b it</w>",
      "b ay</w>",
      "b ack",
      "c an",
      "c li",
      "c ut</w>",
      "c op",
      "c of",
      "c lu",
      "c ous",
      "d it",
      "d es</w>",
      "d ev",
      "e as",
      "e ter",
      "e dly</w>",
      "f o",
      "f lu",
      "f ast</w>",
      "g ar</w>",
      "i ther</w>",
      "i al</w>",
      "i ster</w>",
      "k e",
      "l en</w>",
      "m em",
      "m et",
      "o st</w>",
      "o sed</w>",
      "p h</w>",
      "p at",
      "p air</w>",
      "p spr",
      "s wa",
      "t on",
      "t ro",
      "t es</w>",
      "t un",
      "v ic",
      "v el</w>",
      "w re",
      "y our",
      "th or",
      "in et",
      "in tim",
      "an g",
      "an t",
      "en ever</w>",
      "en thu",
      "or che",
      "re ach</w>",
      "st s</w>",
      "ha t",
      "at s</w>",
      "at or</w>",
      "at ten",
      "el u",
      "el se</w>",
      "be st</w>",
      "ti ful</w>",
      "si mp",
      "le tter</w>",
      "le burg</w>",
      "ur ged</w>",
      "ab rup",
      "ab sor",
      "ab ove</w>",
      "sh ow</w>",
      "il es</w>",
      "se a</w>",
      "se ar",
      "su c",
      "ne ar</w>",
      "to day</w>",
      "sp or",
      "oun ted</w>",
      "ag ne</w>",
      "as ed</w>",
      "go od",
      "whi sky</w>",
      "con sci",
      "bo at</w>",
      "bo ard</w>",
      "ut h</w>",
      "ch ar",
      "sa ys</w>",
      "am es</w>",
      "ing ing</w>",
      "ati c</w>",
      "po w",
      "po ssi",
      "mi st",
      "ta stic</w>",
      "tw enty</w>",
      "ep ted</w>",
      "ey e",
      "hou rs</w>",
      "fi g",
      "per s</w>",
      "fe e</w>",
      "tr ac",
      "wi de</w>",
      "ho st</w>",
      "low er</w>",
      "ss ing</w>",
      "den ti",
      "lea ves</w>",
      "beg in",
      "sur ed</w>",
      "gi ven</w>",
      "bro wn</w>",
      "dri ver</w>",
      "dre n</w>",
      "exc ited</w>",
      "ce i",
      "any body</w>",
      "ga th",
      "cont emp",
      "cont rol</w>",
      "pla yed</w>",
      "mon th</w>",
      "gr ound</w>",
      "bre ath",
      "ser v",
      "ser van",
      "hel p</w>",
      "dro pped</w>",
      "fel low</w>",
      "app ar",
      "over head</w>",
      "beli eved</w>",
      "glan ce</w>",
      "certa inly</w>",
      "dra wing</w>",
      "van ished</w>",
      "tu ous</w>",
      "remar k</w>",
      "poli ce</w>",
      "sugg est",
      "dres ses</w>",
      "acc epted</w>",
      "ed ge</w>",
      "ste ad</w>",
      "hu man</w>",
      "is ville</w>",
      "rac ti",
      "Ha ve</w>",
      "Ha ven</w>",
      "shar p</w>",
      "shar ply</w>",
      "boo ks</w>",
      "excit ement</w>",
      "obj ect</w>",
      "disapp eared</w>",
      "her self</w>",
      "realiz ed</w>",
      "fan tastic</w>",
      "hol ding</w>",
      "gol f</w>",
      "wait ing</w>",
      "shir ts</w>",
      "Fi f",
      "On ce</w>",
      "ash es</w>",
      "dol lars</w>",
      "wr ong</w>",
      "secre t</w>",
      "autom ob",
      "neighb our</w>",
      "ble w</w>",
      "scar cely</w>",
      "pers onal</w>",
      "interrup ted</w>",
      "villa ge</w>",
      "apart ment</w>",
      "newspa per</w>",
      "fres h</w>",
      "jum ped</w>",
      "wer en</w>",
      "eng aged</w>",
      "stru gg",
      "posit ion</w>",
      "solem n</w>",
      "Eck leburg</w>",
      "Lou isville</w>",
      "Wor ld</w>",
      "thre w</w>",
      "beau tiful</w>",
      "where upon</w>",
      "deter min",
      "champ agne</w>",
      "guest s</w>",
      "chil dren</w>",
      "cheer ful</w>",
      "subj ect</w>",
      "Montenegr o</w>",
      "impati ently</w>",
      "Kli pspr",
      "Mey er</w>",
      "Per haps</w>",
      "cof fee</w>",
      "your self</w>",
      "enthu si",
      "good bye</w>",
      "servan ts</w>",
      "Klipspr inger</w>",
      "B a",
      "E x",
      "E ver",
      "E ven</w>",
      "F ro",
      "H o",
      "H ot</w>",
      "H ow",
      "J ames</w>",
      "L ist",
      "M ost</w>",
      "N ex",
      "P e",
      "P ar",
      "S ee</w>",
      "T o</w>",
      "V ery</w>",
      "W hi",
      "Y our</w>",
      "a ke</w>",
      "b ably</w>",
      "c y",
      "c la",
      "c up",
      "c ille</w>",
      "d den</w>",
      "d ance</w>",
      "d ering</w>",
      "d dle</w>",
      "e a</w>",
      "e ful</w>",
      "e ff",
      "e ssed</w>",
      "f all</w>",
      "f ting</w>",
      "f illed</w>",
      "g l",
      "g n",
      "g or",
      "g as</w>",
      "g ent",
      "g est",
      "i ons</w>",
      "k er</w>",
      "l ing",
      "l oud</w>",
      "m ly</w>",
      "m ir",
      "m ag",
      "m ents</w>",
      "m uttered</w>",
      "n ine</w>",
      "n stairs</w>",
      "n umb",
      "n inet",
      "o th",
      "p en",
      "p ink</w>",
      "p racti",
      "r ing</w>",
      "s k",
      "s an",
      "s ou",
      "s se",
      "s ati",
      "s ong</w>",
      "t ac",
      "t ely</w>",
      "t ree</w>",
      "t ears</w>",
      "u n</w>",
      "u gh",
      "v ar",
      "v al",
      "v ered</w>",
      "w ea",
      "w hat",
      "w nstairs</w>",
      "y es</w>",
      "y ard</w>",
      "th ri",
      "th ous",
      "in y</w>",
      "in ting</w>",
      "in ci",
      "in fin",
      "in visible</w>",
      "ar ed</w>",
      "ar ran",
      "en chan",
      "en cy</w>",
      "or n</w>",
      "on light</w>",
      "re li",
      "re qu",
      "re turned</w>",
      "re sta",
      "st at",
      "st ri",
      "st ay</w>",
      "st ep</w>",
      "st ily</w>",
      "al ed</w>",
      "al led</w>",
      "el abor",
      "ac tion</w>",
      "li e</w>",
      "li st</w>",
      "li ked</w>",
      "be aut",
      "no ti",
      "ti red</w>",
      "si m",
      "si x</w>",
      "ca se</w>",
      "do ors</w>",
      "do wnstairs</w>",
      "di rec",
      "ab s",
      "la p</w>",
      "la ven",
      "sh ining</w>",
      "il ing</w>",
      "se e",
      "se t",
      "su ed</w>",
      "su med</w>",
      "ne ck</w>",
      "ne ither</w>",
      "oun ced</w>",
      "de si",
      "fro w",
      "as sured</w>",
      "ad a",
      "ad van",
      "go es</w>",
      "em er",
      "con fi",
      "sa l</w>",
      "ex tra",
      "loo ks</w>",
      "qu a",
      "qu ar",
      "ru m",
      "ru bb",
      "po sse",
      "mi sta",
      "ta ins</w>",
      "mo tor",
      "mo onlight</w>",
      "war ds</w>",
      "et ing</w>",
      "min t</w>",
      "wor n</w>",
      "im ag",
      "ord ered</w>",
      "par don</w>",
      "vi vi",
      "vi ew</w>",
      "com es</w>",
      "ear ly</w>",
      "tr uth</w>",
      "mom ent",
      "star ing</w>",
      "ss es</w>",
      "gre w</w>",
      "um n</w>",
      "chan ging</w>",
      "pres ent</w>",
      "pres sed</w>",
      "fin ding</w>",
      "dre am</w>",
      "ck s</w>",
      "mov ement</w>",
      "mov ements</w>",
      "pri v",
      "sha king</w>",
      "du ced</w>",
      "gu essed</w>",
      "emb er</w>",
      "te en</w>",
      "te squ",
      "ver and",
      "gr ou",
      "happ y</w>",
      "row ed</w>",
      "hel ped</w>",
      "da wn</w>",
      "col lege</w>",
      "che e",
      "ph ra",
      "under stood</w>",
      "fri ghten",
      "with in</w>",
      "supp osed</w>",
      "off ic",
      "bu il",
      "gro tesqu",
      "iz ed</w>",
      "inv est",
      "sti ff</w>",
      "str a</w>",
      "str ai",
      "dra wn</w>",
      "aut umn</w>",
      "cur tains</w>",
      "flo ated</w>",
      "so on</w>",
      "my st",
      "lean ing</w>",
      "pol ite</w>",
      "Some thing</w>",
      "Some times</w>",
      "parti cular</w>",
      "fun eral</w>",
      "sing ing</w>",
      "won dered</w>",
      "rest ed</w>",
      "aff air</w>",
      "sor ry</w>",
      "ki ssed</w>",
      "obj ected</w>",
      "circ le</w>",
      "circ um",
      "dam p</w>",
      "reas on</w>",
      "confu sion</w>",
      "mid dle</w>",
      "stran ge</w>",
      "casu al</w>",
      "casu ally</w>",
      "spr ing</w>",
      "promi se</w>",
      "inst inc",
      "hea ps</w>",
      "qui et</w>",
      "nat ur",
      "att emp",
      "No body</w>",
      "acci dent</w>",
      "gho stly</w>",
      "defin itely</w>",
      "Americ an</w>",
      "Lu cille</w>",
      "fas hi",
      "incess antly</w>",
      "stret ched</w>",
      "inclu ded</w>",
      "Tw o</w>",
      "bot tle</w>",
      "obvi ously</w>",
      "bene ath</w>",
      "nerv ous</w>",
      "back ward</w>",
      "cop y</w>",
      "eas y</w>",
      "orche stra</w>",
      "atten tion</w>",
      "abrup tly</w>",
      "fig ure</w>",
      "begin ning</w>",
      "appar ently</w>",
      "suggest ion</w>",
      "Ever y",
      "Fro m</w>",
      "How ever</w>",
      "List en</w>",
      "Nex t</w>",
      "gent le",
      "ninet een</w>",
      "sati s",
      "what ever</w>",
      "thous and</w>",
      "requ est</w>",
      "resta ur",
      "beaut y</w>",
      "laven der</w>",
      "mista ke</w>",
      "grotesqu e</w>",
      "A n</w>",
      "C ar",
      "C an</w>",
      "D i",
      "E vi",
      "H el",
      "H ere</w>",
      "J u",
      "J im",
      "L e",
      "L i",
      "N or",
      "S at",
      "T o",
      "T ell</w>",
      "T aking</w>",
      "a vo",
      "b il",
      "b ir",
      "b all</w>",
      "b as",
      "b ru",
      "b ath",
      "b ond</w>",
      "c ing</w>",
      "c ul",
      "c ently</w>",
      "c ry</w>",
      "c overed</w>",
      "d room</w>",
      "d um",
      "d ran",
      "e de",
      "f ai",
      "f ic",
      "f ra",
      "f ut",
      "g on",
      "g ai",
      "g lo",
      "g ri",
      "g le",
      "g ust</w>",
      "g ru",
      "g lowing</w>",
      "i or</w>",
      "i se</w>",
      "i ally</w>",
      "j e",
      "k ly</w>",
      "l in",
      "l on",
      "l ling</w>",
      "l ying</w>",
      "m en",
      "m ay</w>",
      "m aga",
      "m ach",
      "m ounted</w>",
      "n ur",
      "o t",
      "o sity</w>",
      "p ing</w>",
      "p al",
      "p op",
      "p ec",
      "p ick</w>",
      "r ent</w>",
      "r ace</w>",
      "r hy",
      "s y",
      "s p</w>",
      "s m</w>",
      "s ob",
      "s sion</w>",
      "s even</w>",
      "s len",
      "s ounded</w>",
      "t or</w>",
      "t le",
      "t one</w>",
      "t em",
      "t fully</w>",
      "u m</w>",
      "u res</w>",
      "u pper</w>",
      "v as</w>",
      "v itality</w>",
      "w ed</w>",
      "w it",
      "w ed",
      "x es</w>",
      "y be</w>",
      "th y</w>",
      "in n",
      "in no",
      "in ds</w>",
      "in ary</w>",
      "in formed</w>",
      "an n",
      "an o</w>",
      "an no",
      "ou ght",
      "er se",
      "er able</w>",
      "er ies</w>",
      "wa ved</w>",
      "hi lar",
      "ar ti",
      "ar my</w>",
      "ar ds</w>",
      "en s</w>",
      "en ted</w>",
      "re sp",
      "re ds</w>",
      "re co",
      "re por",
      "re cei",
      "it ted</w>",
      "st ed</w>",
      "ha stily</w>",
      "ro pe</w>",
      "al er",
      "al ong",
      "al oud</w>",
      "al ive</w>",
      "el t</w>",
      "el ec",
      "ai t</w>",
      "ai ls</w>",
      "lo cked</w>",
      "ac tu",
      "li c</w>",
      "li ed</w>",
      "li fted</w>",
      "gh ts</w>",
      "ri de</w>",
      "be g</w>",
      "be come</w>",
      "be ating</w>",
      "be droom</w>",
      "wh e",
      "ti p",
      "ti es</w>",
      "ti ght</w>",
      "ti cally</w>",
      "ol ding</w>",
      "un usu",
      "ur day</w>",
      "ca ble</w>",
      "do m</w>",
      "di v",
      "di sm",
      "di stance</w>",
      "la p",
      "ra l</w>",
      "ra di",
      "sh ly</w>",
      "sh ine</w>",
      "se ment</w>",
      "su dden</w>",
      "ne e",
      "ne cess",
      "to p</w>",
      "to wards</w>",
      "sp ed</w>",
      "sp ir",
      "sp ot</w>",
      "sp read</w>",
      "oun t</w>",
      "ag g",
      "de t",
      "de fi",
      "de ser",
      "de ath</w>",
      "for ce</w>",
      "ad v",
      "ad ing</w>",
      "ad dress</w>",
      "con cent",
      "con vin",
      "bo w</w>",
      "ch or",
      "am ing</w>",
      "ing u",
      "ati vely</w>",
      "mi xed</w>",
      "ta in</w>",
      "ec es</w>",
      "ec ts</w>",
      "sc u",
      "et ro",
      "wor ried</w>",
      "im ming</w>",
      "im port",
      "est ing</w>",
      "per sist",
      "sel ves</w>",
      "vi li",
      "ear ing</w>",
      "ear ne",
      "tr ust</w>",
      "ho sp",
      "ul t</w>",
      "low s</w>",
      "ci ous</w>",
      "star s</w>",
      "ss ness</w>",
      "ss ment</w>",
      "me ant</w>",
      "lea ther</w>",
      "beg un</w>",
      "chan ce</w>",
      "pro t",
      "co lo",
      "gi c</w>",
      "dri fted</w>",
      "pl ane</w>",
      "car eless</w>",
      "man sion</w>",
      "mov ies</w>",
      "han d",
      "gg er</w>",
      "gra ve</w>",
      "after ward</w>",
      "mar ble</w>",
      "gr y</w>",
      "bre e",
      "cor ners</w>",
      "every body</w>",
      "Mi ddle</w>",
      "inter est</w>",
      "inter esting</w>",
      "ser ies</w>",
      "ge ous</w>",
      "pi ano</w>",
      "pi eces</w>",
      "gro aning</w>",
      "gla sses</w>",
      "kno ws</w>",
      "bl ind</w>",
      "fol lowing</w>",
      "pas si",
      "sho t</w>",
      "sho es</w>",
      "sho ck</w>",
      "sen tim",
      "hus ky</w>",
      "surpri se</w>",
      "pic ked</w>",
      "bri ck</w>",
      "bri dge</w>",
      "del ic",
      "dres sing</w>",
      "pol o</w>",
      "tri um",
      "inten sity</w>",
      "ste pped</w>",
      "continu ally</w>",
      "tou ched</w>",
      "tou ching</w>",
      "wat ched</w>",
      "rest less</w>",
      "shoul ders</w>",
      "stra w</w>",
      "sun light</w>",
      "comm on</w>",
      "anc es</w>",
      "sig ni",
      "excit edly</w>",
      "coun try</w>",
      "dam ned</w>",
      "mil li",
      "ow l</w>",
      "disc overed</w>",
      "mid night</w>",
      "viol ent</w>",
      "viol ently</w>",
      "cl er",
      "vag ue</w>",
      "deci sively</w>",
      "umb led</w>",
      "ici al</w>",
      "gol den</w>",
      "wait er</w>",
      "ele br",
      "peri or</w>",
      "form ation</w>",
      "conce aled</w>",
      "pock ets</w>",
      "Al most</w>",
      "uni ver",
      "garden s</w>",
      "garden er</w>",
      "cigaret te</w>",
      "cigaret tes</w>",
      "doub t</w>",
      "fur ther</w>",
      "sna pped</w>",
      "reluct ant</w>",
      "absol utely</w>",
      "rema ined</w>",
      "gradu ally</w>",
      "embarra ssment</w>",
      "intro duc",
      "murmur ed</w>",
      "drugstor e</w>",
      "differ ence</w>",
      "photogra ph</w>",
      "run ning</w>",
      "yach t</w>",
      "than ks</w>",
      "enjo yed</w>",
      "elev ator</w>",
      "emo tion</w>",
      "conne ction</w>",
      "start led</w>",
      "incredul ously</w>",
      "cockt ails</w>",
      "Fran ce</w>",
      "can vas</w>",
      "cous in</w>",
      "mem ory</w>",
      "intim ate</w>",
      "suc cess",
      "gath ered</w>",
      "automob iles</w>",
      "Ba ede",
      "Ex c",
      "Ho tel</w>",
      "gor geous</w>",
      "thri lling</w>",
      "enchan ted</w>",
      "elabor ate</w>",
      "emer ged</w>",
      "circum stan",
      "Every body</w>",
      "satis fac",
      "restaur ant</w>",
      "Evi dently</w>",
      "Hel lo</w>",
      "Jim my</w>",
      "Sat urday</w>",
      "bas ket</w>",
      "dran k</w>",
      "fut ure</w>",
      "maga z",
      "nur se</w>",
      "pec u",
      "rhy th",
      "slen der</w>",
      "inno cently</w>",
      "resp on",
      "recei ver</w>",
      "necess ary</w>",
      "concent r",
      "convin ced</w>",
      "import ant</w>",
      "persist ent</w>",
      "Baede ker</w>",
      "1 5</w>",
      "3 0</w>",
      "A r",
      "A u",
      "A re</w>",
      "A ven",
      "B ar",
      "B road",
      "C he",
      "E u",
      "F er",
      "F ir",
      "F ren",
      "G o",
      "G a</w>",
      "G et</w>",
      "H i",
      "H ill</w>",
      "I I</w>",
      "K a",
      "L ake</w>",
      "N ever</w>",
      "O c",
      "O r",
      "O r</w>",
      "O gg",
      "P laz",
      "Q u",
      "R oo",
      "S und",
      "S eries</w>",
      "U n",
      "W al",
      "W est",
      "Y ale</w>",
      "a z",
      "a un",
      "a ther</w>",
      "a po",
      "a side</w>",
      "a head</w>",
      "a yed</w>",
      "b s</w>",
      "b er</w>",
      "b ing</w>",
      "b ent</w>",
      "b ound</w>",
      "b led</w>",
      "b are</w>",
      "c her</w>",
      "c ted</w>",
      "c king</w>",
      "c ard</w>",
      "c elebr",
      "d ard</w>",
      "d us",
      "d ness</w>",
      "d row",
      "d ancing</w>",
      "e duc",
      "f en",
      "f oun",
      "f ree</w>",
      "f lan",
      "g on</w>",
      "g ant</w>",
      "g est</w>",
      "g ul",
      "g um",
      "g land</w>",
      "g listening</w>",
      "h at</w>",
      "h old</w>",
      "h ers</w>",
      "i ed</w>",
      "i an</w>",
      "i sh</w>",
      "i denti",
      "k er",
      "k ne",
      "k ely</w>",
      "k ey</w>",
      "l ined</w>",
      "l ingly</w>",
      "l la</w>",
      "m p</w>",
      "m as</w>",
      "m as",
      "m ad</w>",
      "m ps</w>",
      "m med</w>",
      "m enti",
      "m selves</w>",
      "n or</w>",
      "o sit",
      "p it",
      "p es</w>",
      "p ut",
      "p ay</w>",
      "p ear",
      "p lu",
      "p um",
      "r ail",
      "s no",
      "s le",
      "s la",
      "s now</w>",
      "s old</w>",
      "s low</w>",
      "s lowed</w>",
      "s ford</w>",
      "s sal</w>",
      "t ent</w>",
      "t ut</w>",
      "t ting</w>",
      "t our",
      "u ely</w>",
      "u lar</w>",
      "w ra",
      "w ls</w>",
      "w ings</w>",
      "w ear</w>",
      "x iously</w>",
      "y er</w>",
      "y outh</w>",
      "y aw",
      "y ards</w>",
      "z z",
      "th er",
      "th row</w>",
      "th eless</w>",
      "in k",
      "in es</w>",
      "in ity</w>",
      "in ation</w>",
      "in formation</w>",
      "an xiously</w>",
      "ou th",
      "ou gh",
      "wa n</w>",
      "wa st",
      "wa gon</w>",
      "hi story</w>",
      "ar i",
      "ar se</w>",
      "ar gum",
      "en ter",
      "en tered</w>",
      "or an",
      "on es</w>",
      "on ged</w>",
      "re l",
      "re ar</w>",
      "re mo",
      "re fu",
      "re min",
      "re gar",
      "it able</w>",
      "st le</w>",
      "st ur",
      "st ic",
      "st ant</w>",
      "st rolled</w>",
      "st mas</w>",
      "ha se</w>",
      "ha un",
      "ha te</w>",
      "ha ugh",
      "ro r</w>",
      "ro ck</w>",
      "al so</w>",
      "el f</w>",
      "el ds</w>",
      "ac y</w>",
      "ac qua",
      "li t</w>",
      "li qu",
      "li kely</w>",
      "ri pp",
      "ri age</w>",
      "ri stmas</w>",
      "no te</w>",
      "wh el",
      "wh enever</w>",
      "ti p</w>",
      "ti ve</w>",
      "ti ci",
      "ti ble</w>",
      "ti pped</w>",
      "ti sement</w>",
      "ol ved</w>",
      "om p",
      "om ed</w>",
      "si x",
      "le g",
      "le m",
      "le y</w>",
      "un t",
      "un ch</w>",
      "un utter",
      "un easy</w>",
      "do or",
      "do ck</w>",
      "di gni",
      "ab les</w>",
      "la wns</w>",
      "ra w",
      "ra w</w>",
      "the mselves</w>",
      "sh ou",
      "sh es</w>",
      "sh ness</w>",
      "se m",
      "se as",
      "se em</w>",
      "su l",
      "su ff",
      "ne ws</w>",
      "to wer</w>",
      "ir s</w>",
      "sp ent</w>",
      "sp ired</w>",
      "sp len",
      "sp rang</w>",
      "ov ed</w>",
      "de ca",
      "de al</w>",
      "de sc",
      "de sol",
      "de scen",
      "de sk</w>",
      "for got</w>",
      "as m</w>",
      "as ser",
      "as sumed</w>",
      "ad s</w>",
      "ad ver",
      "con v",
      "con si",
      "con fir",
      "con cep",
      "con stant</w>",
      "bo ys</w>",
      "bo xes</w>",
      "sa v",
      "ex am",
      "am ed</w>",
      "am ount</w>",
      "qu ick</w>",
      "oo ked</w>",
      "ent een</w>",
      "po st",
      "po sed</w>",
      "po inted</w>",
      "po inting</w>",
      "mi ss</w>",
      "mi ser",
      "mi ssed</w>",
      "mo tor</w>",
      "ec st",
      "ec tion</w>",
      "ep ing</w>",
      "ni sh</w>",
      "ni ghts</w>",
      "sc re",
      "sc ep",
      "sc orn</w>",
      "et ly</w>",
      "lit er",
      "wor ked</w>",
      "fi c</w>",
      "im pres",
      "im passi",
      "ord inary</w>",
      "per cep",
      "par ted</w>",
      "par ents</w>",
      "com for",
      "ear th</w>",
      "wi ves</w>",
      "wi ped</w>",
      "ul king</w>",
      "ci es</w>",
      "star ting</w>",
      "sw inging</w>",
      "sw imming</w>",
      "fir e</w>",
      "pro pri",
      "pro found</w>",
      "pro bably</w>",
      "co ol",
      "co stu",
      "co her",
      "gi ble</w>",
      "gi ving</w>",
      "gi ves</w>",
      "ever theless</w>",
      "bro ad</w>",
      "fin ished</w>",
      "dri ft</w>",
      "pl an</w>",
      "pl un",
      "car ried</w>",
      "car ry</w>",
      "man ner</w>",
      "ak fast</w>",
      "cha tter</w>",
      "ga u",
      "ga me</w>",
      "br ing</w>",
      "gg ed</w>",
      "gra vel</w>",
      "pri de</w>",
      "ma j",
      "bel ls</w>",
      "bel ow</w>",
      "bel onged</w>",
      "gu lar</w>",
      "wan dered</w>",
      "te dly</w>",
      "tra ins</w>",
      "tra gic</w>",
      "gr ac",
      "stan tly</w>",
      "bre a",
      "bre aking</w>",
      "bre akfast</w>",
      "stor e</w>",
      "pre ten",
      "inter ior</w>",
      "sist i",
      "ser ved</w>",
      "hel ple",
      "ff led</w>",
      "pa pers</w>",
      "chi n</w>",
      "che on</w>",
      "dro p</w>",
      "dro plane</w>",
      "over whel",
      "tre ss</w>",
      "gro w</w>",
      "iz ing</w>",
      "inv ite</w>",
      "ligh ted</w>",
      "bl ur",
      "fol low</w>",
      "sho ws</w>",
      "ei ght</w>",
      "str ing</w>",
      "emp ty</w>",
      "har sh</w>",
      "sen se</w>",
      "dra wer</w>",
      "exp ec",
      "au thor",
      "so ci",
      "surpri sing</w>",
      "jo in</w>",
      "del i",
      "get s</w>",
      "lun cheon</w>",
      "enti rely</w>",
      "acc us",
      "Some one</w>",
      "inten tion</w>",
      "nod ding</w>",
      "Do esn</w>",
      "sin ister</w>",
      "squ are</w>",
      "hu ge</w>",
      "hund reds</w>",
      "mer ely</w>",
      "rac ed</w>",
      "shor tly</w>",
      "spea king</w>",
      "curi osity</w>",
      "ast on",
      "blo wn</w>",
      "igh ted</w>",
      "len g",
      "sun shine</w>",
      "indi gn",
      "fing er</w>",
      "ki ss</w>",
      "stu ff</w>",
      "sig ns</w>",
      "boo tle",
      "quest ions</w>",
      "disapp o",
      "disapp ro",
      "coun ter</w>",
      "mil k</w>",
      "mil es</w>",
      "incre ased</w>",
      "comple tely</w>",
      "apar t</w>",
      "bal ls</w>",
      "bal ancing</w>",
      "foo t",
      "pan ic</w>",
      "sli d</w>",
      "vag uely</w>",
      "thir d</w>",
      "stran ger</w>",
      "deci ded</w>",
      "realiz e</w>",
      "Ma ybe</w>",
      "diff ic",
      "fer red</w>",
      "inst ant</w>",
      "ele ssly</w>",
      "adm ired</w>",
      "adm itted</w>",
      "Fin n</w>",
      "On ly</w>",
      "hy droplane</w>",
      "wel s</w>",
      "susp ected</w>",
      "susp ici",
      "utter ly</w>",
      "pock et</w>",
      "comp li",
      "Ro sy</w>",
      "pur po",
      "pur sued</w>",
      "acci d",
      "uni form</w>",
      "cap ac",
      "blan kly</w>",
      "hun g</w>",
      "sev elt</w>",
      "sev enteen</w>",
      "smo ke</w>",
      "we al",
      "thro wn</w>",
      "side walk</w>",
      "absol ute</w>",
      "irre sisti",
      "perf ect</w>",
      "embarra ssed</w>",
      "drugstor es</w>",
      "differ ent</w>",
      "cro ssed</w>",
      "gli mp",
      "high er</w>",
      "head s</w>",
      "plac es</w>",
      "correc ted</w>",
      "Be fore</w>",
      "Ch ristmas</w>",
      "Col lege</w>",
      "En gland</w>",
      "eter nal</w>",
      "ton ight</w>",
      "simp ly</w>",
      "absor bed</w>",
      "char ming</w>",
      "possi ble</w>",
      "mist ak",
      "eye bro",
      "determin ed</w>",
      "Par k</w>",
      "gest ure</w>",
      "numb er</w>",
      "oth ers</w>",
      "san k</w>",
      "var ious</w>",
      "wea ther</w>",
      "stat ement</w>",
      "direc tion</w>",
      "see ing</w>",
      "ada me</w>",
      "advan t",
      "quar ter</w>",
      "vivi d</w>",
      "priv ate</w>",
      "verand a</w>",
      "grou p</w>",
      "phra se</w>",
      "frighten ed</w>",
      "invest ig",
[...]
