{
  "version": "1.0",
  "truncation": null,
  "padding": null,
  "added_tokens": [
    {
      "id": 0,
      "content": "<s>",
      "single_word": false,
      "lstrip": false,
      "rstrip": false,
      "normalized": false,
      "special": true
    },
    {
      "id": 1,
      "content": "<pad>",
      "single_word": false,
      "lstrip": false,
      "rstrip": false,
      "normalized": false,
      "special": true
    },
    {
      "id": 2,
      "content": "</s>",
      "single_word": false,
      "lstrip": false,
      "rstrip": false,
      "normalized": false,
      "special": true
    },
    {
      "id": 3,
      "content": "<unk>",
      "single_word": false,
      "lstrip": false,
      "rstrip": false,
      "normalized": false,
      "special": true
    },
    {
      "id": 4,
      "content": "<mask>",
      "single_word": false,
      "lstrip": false,
      "rstrip": false,
      "normalized": false,
      "special": true
    }
  ],
  "normalizer": {
    "type": "BertNormalizer",
    "clean_text": true,
    "handle_chinese_chars": true,
    "strip_accents": null,
    "lowercase": false
  },
  "pre_tokenizer": {
    "type": "BertPreTokenizer"
  },
  "post_processor": null,
  "decoder": {
    "type": "BPEDecoder",
    "suffix": "</w>"
  },
  "model": {
    "type": "BPE",
    "dropout": null,
    "unk_token": null,
    "continuing_subword_prefix": null,
    "end_of_word_suffix": "</w>",
    "fuse_unk": false,
    "vocab": {
      "<s>": 0,
      "<pad>": 1,
      "</s>": 2,
      "<unk>": 3,
      "<mask>": 4,
      "!": 5,
      "\"": 6,
      "$": 7,
      "%": 8,
      "&": 9,
      "'": 10,
      "(": 11,
      ")": 12,
      "*": 13,
      "+": 14,
      ",": 15,
      "-": 16,
      ".": 17,
      "/": 18,
      "0": 19,
      "1": 20,
      "2": 21,
      "3": 22,
      "4": 23,
      "5": 24,
      "6": 25,
      "7": 26,
      "8": 27,
      "9": 28,
      ":": 29,
      ";": 30,
      "=": 31,
      "?": 32,
      "A": 33,
      "B": 34,
      "C": 35,
      "D": 36,
      "E": 37,
      "F": 38,
      "G": 39,
      "H": 40,
      "I": 41,
      "J": 42,
      "K": 43,
      "L": 44,
      "M": 45,
      "N": 46,
      "O": 47,
      "P": 48,
      "Q": 49,
      "R": 50,
      "S": 51,
      "T": 52,
      "U": 53,
      "V": 54,
      "W": 55,
      "X": 56,
      "Y": 57,
      "Z": 58,
      "[": 59,
      "]": 60,
      "^": 61,
      "_": 62,
      "a": 63,
      "b": 64,
      "c": 65,
      "d": 66,
      "e": 67,
      "f": 68,
      "g": 69,
      "h": 70,
      "i": 71,
      "j": 72,
      "k": 73,
      "l": 74,
      "m": 75,
      "n": 76,
      "o": 77,
      "p": 78,
      "q": 79,
      "r": 80,
      "s": 81,
      "t": 82,
      "u": 83,
      "v": 84,
      "w": 85,
      "x": 86,
      "y": 87,
      "z": 88,
      "{": 89,
      "|": 90,
      "}": 91,
      "~": 92,
      "g</w>": 93,
      "s</w>": 94,
      "T</w>": 95,
      "t</w>": 96,
      "e</w>": 97,
      "p</w>": 98,
      "k</w>": 99,
      "d</w>": 100,
      "l</w>": 101,
      "m</w>": 102,
      "n</w>": 103,
      "y</w>": 104,
      "r</w>": 105,
      "c</w>": 106,
      "a</w>": 107,
      "X</w>": 108,
      "h</w>": 109,
      "0</w>": 110,
      "M</w>": 111,
      "E</w>": 112,
      "5</w>": 113,
      "F</w>": 114,
      "x</w>": 115,
      "B</w>": 116,
      "V</w>": 117,
      "f</w>": 118,
      "1</w>": 119,
      "G</w>": 120,
      "u</w>": 121,
      "o</w>": 122,
      "C</w>": 123,
      "i</w>": 124,
      "~</w>": 125,
      "3</w>": 126,
      "9</w>": 127,
      "v</w>": 128,
      "W</w>": 129,
      "N</w>": 130,
      "D</w>": 131,
      "6</w>": 132,
      "z</w>": 133,
      "w</w>": 134,
      "P</w>": 135,
      "R</w>": 136,
      "2</w>": 137,
      "4</w>": 138,
      "Y</w>": 139,
      "H</w>": 140,
      "b</w>": 141,
      "A</w>": 142,
      "K</w>": 143,
      "O</w>": 144,
      "J</w>": 145,
      "'</w>": 146,
      "S</w>": 147,
      "L</w>": 148,
      "\"</w>": 149,
      ";</w>": 150,
      "U</w>": 151,
      "8</w>": 152,
      "I</w>": 153,
      "q</w>": 154,
      "]</w>": 155,
      "7</w>": 156,
      "/</w>": 157,
      "&</w>": 158,
      "Q</w>": 159,
      "Z</w>": 160,
      "!</w>": 161,
      "j</w>": 162,
      "{</w>": 163,
      "+</w>": 164,
      "?</w>": 165,
      "$</w>": 166,
      "[</w>": 167,
      "|</w>": 168,
      ")</w>": 169,
      "(</w>": 170,
      "%</w>": 171,
      ",</w>": 172,
      "-</w>": 173,
      ":</w>": 174,
      "^</w>": 175,
      "*</w>": 176,
      "=</w>": 177,
      ".</w>": 178,
      "_</w>": 179,
      "}</w>": 180,
      "in": 181,
      "th": 182,
      "er": 183,
      "ing</w>": 184,
      "re": 185,
      "an": 186,
      "ar": 187,
      "ou": 188,
      "on</w>": 189,
      "ti": 190,
      "to</w>": 191,
      "on": 192,
      "or": 193,
      "er</w>": 194,
      "al": 195,
      "is</w>": 196,
      "en": 197,
      "the</w>": 198,
      "es": 199,
      "ed</w>": 200,
      "ro": 201,
      "ly</w>": 202,
      "it": 203,
      "es</w>": 204,
      "ac": 205,
      "at</w>": 206,
      "at": 207,
      "or</w>": 208,
      "of</w>": 209,
      "il": 210,
      "am": 211,
      "in</w>": 212,
      "st": 213,
      "st</w>": 214,
      "om": 215,
      "li": 216,
      "ea": 217,
      "lo": 218,
      "ve</w>": 219,
      "ri": 220,
      "as</w>": 221,
      "for</w>": 222,
      "amp</w>": 223,
      "de": 224,
      "Th": 225,
      "si": 226,
      "al</w>": 227,
      "an</w>": 228,
      "le</w>": 229,
      "el": 230,
      "be</w>": 231,
      "bu": 232,
      "ill</w>": 233,
      "it</w>": 234,
      "ab": 235,
      "ur": 236,
      "un": 237,
      "ec": 238,
      "no": 239,
      "se</w>": 240,
      "tion</w>": 241,
      "en</w>": 242,
      "gh": 243,
      "hi": 244,
      "pro": 245,
      "ne": 246,
      "oo": 247,
      "Tes": 248,
      "ra": 249,
      "la</w>": 250,
      "la": 251,
      "Tesla</w>": 252,
      "op": 253,
      "ld</w>": 254,
      "di": 255,
      "ts</w>": 256,
      "ma": 257,
      "and</w>": 258,
      "are</w>": 259,
      "that</w>": 260,
      "ha": 261,
      "will</w>": 262,
      "com": 263,
      "et</w>": 264,
      "ch</w>": 265,
      "su": 266,
      "but</w>": 267,
      "et": 268,
      "ver": 269,
      "wh": 270,
      "ay</w>": 271,
      "wit": 272,
      "ce</w>": 273,
      "ke</w>": 274,
      "vi": 275,
      "out</w>": 276,
      "ch": 277,
      "ex": 278,
      "po": 279,
      "mo": 280,
      "with</w>": 281,
      "ght</w>": 282,
      "fi": 283,
      "ally</w>": 284,
      "ust</w>": 285,
      "ould</w>": 286,
      "so</w>": 287,
      "ca": 288,
      "sh": 289,
      "tr": 290,
      "ere</w>": 291,
      "ter</w>": 292,
      "sp": 293,
      "ou</w>": 294,
      "so": 295,
      "ee": 296,
      "ul": 297,
      "all</w>": 298,
      "ers</w>": 299,
      "ent</w>": 300,
      "Mo": 301,
      "oun": 302,
      "by</w>": 303,
      "me</w>": 304,
      "ck": 305,
      "to": 306,
      "ge</w>": 307,
      "con": 308,
      "wor": 309,
      "ad": 310,
      "this</w>": 311,
      "ars</w>": 312,
      "one</w>": 313,
      "ate</w>": 314,
      "not</w>": 315,
      "ure</w>": 316,
      "ta": 317,
      "pp": 318,
      "ity</w>": 319,
      "you</w>": 320,
      "do": 321,
      "de</w>": 322,
      "ver</w>": 323,
      "act": 324,
      "gh</w>": 325,
      "ks</w>": 326,
      "ore</w>": 327,
      "im": 328,
      "th</w>": 329,
      "be": 330,
      "du": 331,
      "we</w>": 332,
      "em": 333,
      "ds</w>": 334,
      "ter": 335,
      "est</w>": 336,
      "ood</w>": 337,
      "ut": 338,
      "pl": 339,
      "is": 340,
      "rom</w>": 341,
      "the": 342,
      "from</w>": 343,
      "del</w>": 344,
      "ding</w>": 345,
      "per": 346,
      "our</w>": 347,
      "co": 348,
      "ci": 349,
      "Model</w>": 350,
      "have</w>": 351,
      "was</w>": 352,
      "qu": 353,
      "se": 354,
      "ay": 355,
      "ons</w>": 356,
      "pac": 357,
      "le": 358,
      "ant</w>": 359,
      "king</w>": 360,
      "ot</w>": 361,
      "any</w>": 362,
      "as": 363,
      "fa": 364,
      "gre": 365,
      "about</w>": 366,
      "for": 367,
      "ome</w>": 368,
      "ear</w>": 369,
      "ir": 370,
      "pre": 371,
      "like</w>": 372,
      "ting</w>": 373,
      "ve": 374,
      "just</w>": 375,
      "us": 376,
      "The</w>": 377,
      "do</w>": 378,
      "af": 379,
      "ig": 380,
      "ine</w>": 381,
      "ho": 382,
      "Yes</w>": 383,
      "now</w>": 384,
      "ew</w>": 385,
      "our": 386,
      "pe": 387,
      "rock": 388,
      "ther</w>": 389,
      "able</w>": 390,
      "day</w>": 391,
      "ely</w>": 392,
      "um": 393,
      "tic": 394,
      "more</w>": 395,
      "than</w>": 396,
      "Spac": 397,
      "good</w>": 398,
      "way</w>": 399,
      "can</w>": 400,
      "car</w>": 401,
      "ir</w>": 402,
      "ue</w>": 403,
      "sion</w>": 404,
      "par": 405,
      "duc": 406,
      "We</w>": 407,
      "most</w>": 408,
      "ad</w>": 409,
      "thing</w>": 410,
      "fir": 411,
      "ing": 412,
      "mu": 413,
      "my</w>": 414,
      "Will</w>": 415,
      "ni": 416,
      "up": 417,
      "time</w>": 418,
      "cre": 419,
      "ation</w>": 420,
      "ess</w>": 421,
      "ll</w>": 422,
      "mon": 423,
      "ev": 424,
      "ap": 425,
      "ard</w>": 426,
      "eng": 427,
      "St": 428,
      "ough</w>": 429,
      "has</w>": 430,
      "would</w>": 431,
      "hip</w>": 432,
      "no</w>": 433,
      "up</w>": 434,
      "ded</w>": 435,
      "ow": 436,
      "rocket</w>": 437,
      "lea": 438,
      "go": 439,
      "ted</w>": 440,
      "fu": 441,
      "tri": 442,
      "ong</w>": 443,
      "tw": 444,
      "arg": 445,
      "This</w>": 446,
      "tions</w>": 447,
      "It</w>": 448,
      "ack</w>": 449,
      "fin": 450,
      "pu": 451,
      "bo": 452,
      "unch</w>": 453,
      "produc": 454,
      "id</w>": 455,
      "ople</w>": 456,
      "der</w>": 457,
      "if</w>": 458,
      "ame</w>": 459,
      "des": 460,
      "bet": 461,
      "thr": 462,
      "end</w>": 463,
      "ving</w>": 464,
      "ck</w>": 465,
      "rec": 466,
      "wee": 467,
      "wer</w>": 468,
      "very</w>": 469,
      "me": 470,
      "ell</w>": 471,
      "ss</w>": 472,
      "anks</w>": 473,
      "ort</w>": 474,
      "much</w>": 475,
      "ays</w>": 476,
      "nex": 477,
      "next</w>": 478,
      "people</w>": 479,
      "ol": 480,
      "ful": 481,
      "Space": 482,
      "ite</w>": 483,
      "con</w>": 484,
      "cars</w>": 485,
      "ag": 486,
      "lan": 487,
      "prob": 488,
      "Fal": 489,
      "dri": 490,
      "pri": 491,
      "should</w>": 492,
      "sure</w>": 493,
      "use</w>": 494,
      "there</w>": 495,
      "ats</w>": 496,
      "ound</w>": 497,
      "SpaceX</w>": 498,
      "low</w>": 499,
      "its</w>": 500,
      "Falcon</w>": 501,
      "ali": 502,
      "great</w>": 503,
      "Wh": 504,
      "ar</w>": 505,
      "ell": 506,
      "per</w>": 507,
      "ated</w>": 508,
      "wi": 509,
      "ory</w>": 510,
      "ink</w>": 511,
      "nt</w>": 512,
      "too</w>": 513,
      "Ex": 514,
      "he": 515,
      "gi": 516,
      "make</w>": 517,
      "comp": 518,
      "year</w>": 519,
      "loo": 520,
      "light</w>": 521,
      "Just</w>": 522,
      "cl": 523,
      "min": 524,
      "ace</w>": 525,
      "In": 526,
      "work</w>": 527,
      "ow</w>": 528,
      "launch</w>": 529,
      "eah</w>": 530,
      "tive</w>": 531,
      "ont</w>": 532,
      "ably</w>": 533,
      "ster</w>": 534,
      "pi": 535,
      "ence</w>": 536,
      "high</w>": 537,
      "soon</w>": 538,
      "sta": 539,
      "red</w>": 540,
      "actu": 541,
      "mis": 542,
      "ey</w>": 543,
      "over</w>": 544,
      "Star": 545,
      "ry</w>": 546,
      "tly</w>": 547,
      "Al": 548,
      "ship</w>": 549,
      "ty</w>": 550,
      "right</w>": 551,
      "ange</w>": 552,
      "only</w>": 553,
      "ser": 554,
      "us</w>": 555,
      "ener": 556,
      "wn</w>": 557,
      "der": 558,
      "No</w>": 559,
      "ating</w>": 560,
      "they</w>": 561,
      "ome": 562,
      "That</w>": 563,
      "ance</w>": 564,
      "app": 565,
      "get</w>": 566,
      "need</w>": 567,
      "Yeah</w>": 568,
      "all": 569,
      "ies</w>": 570,
      "gr": 571,
      "por": 572,
      "of": 573,
      "mil": 574,
      "enti": 575,
      "some</w>": 576,
      "eam</w>": 577,
      "gra": 578,
      "what</w>": 579,
      "better</w>": 580,
      "we": 581,
      "hich</w>": 582,
      "ble</w>": 583,
      "ears</w>": 584,
      "rag": 585,
      "your</w>": 586,
      "ight</w>": 587,
      "actly</w>": 588,
      "first</w>": 589,
      "gy</w>": 590,
      "bi": 591,
      "pa": 592,
      "If</w>": 593,
      "str": 594,
      "which</w>": 595,
      "sa": 596,
      "ying</w>": 597,
      "ors</w>": 598,
      "test</w>": 599,
      "orb": 600,
      "Thanks</w>": 601,
      "production</w>": 602,
      "back</w>": 603,
      "ft</w>": 604,
      "ents</w>": 605,
      "Drag": 606,
      "other</w>": 607,
      "int</w>": 608,
      "sy": 609,
      "nee": 610,
      "Mars</w>": 611,
      "acc": 612,
      "ater</w>": 613,
      "ings</w>": 614,
      "ary</w>": 615,
      "Good</w>": 616,
      "Dragon</w>": 617,
      "many</w>": 618,
      "ous</w>": 619,
      "eed</w>": 620,
      "ves</w>": 621,
      "lar</w>": 622,
      "Su": 623,
      "kes</w>": 624,
      "years</w>": 625,
      "buil": 626,
      "exp": 627,
      "tion": 628,
      "ssi": 629,
      "sti": 630,
      "new</w>": 631,
      "actually</w>": 632,
      "ever</w>": 633,
      "cont": 634,
      "when</w>": 635,
      "team</w>": 636,
      "Pro": 637,
      "An": 638,
      "go</w>": 639,
      "coming</w>": 640,
      "ful</w>": 641,
      "tor</w>": 642,
      "res</w>": 643,
      "engin": 644,
      "even</w>": 645,
      "read": 646,
      "fully</w>": 647,
      "impro": 648,
      "ool</w>": 649,
      "comm": 650,
      "sc": 651,
      "any": 652,
      "tu": 653,
      "sm": 654,
      "some": 655,
      "and": 656,
      "art</w>": 657,
      "te</w>": 658,
      "were</w>": 659,
      "flight</w>": 660,
      "true</w>": 661,
      "few</w>": 662,
      "desig": 663,
      "tra": 664,
      "really</w>": 665,
      "down</w>": 666,
      "week</w>": 667,
      "re</w>": 668,
      "tim": 669,
      "ste": 670,
      "long</w>": 671,
      "think</w>": 672,
      "ff": 673,
      "sel": 674,
      "then</w>": 675,
      "who</w>": 676,
      "sol": 677,
      "tur": 678,
      "lot</w>": 679,
      "their</w>": 680,
      "landing</w>": 681,
      "Ha": 682,
      "inter": 683,
      "try</w>": 684,
      "boo": 685,
      "ic": 686,
      "less</w>": 687,
      "Its</w>": 688,
      "Re": 689,
      "ect</w>": 690,
      "plan": 691,
      "ths</w>": 692,
      "Exactly</w>": 693,
      "il</w>": 694,
      "after</w>": 695,
      "ps</w>": 696,
      "tun": 697,
      "ang": 698,
      "Ch": 699,
      "um</w>": 700,
      "att": 701,
      "Com": 702,
      "tware</w>": 703,
      "mp": 704,
      "ws</w>": 705,
      "charg": 706,
      "utop": 707,
      "lit": 708,
      "pres": 709,
      "happ": 710,
      "ilot</w>": 711,
      "ility</w>": 712,
      "Ro": 713,
      "supp": 714,
      "ning</w>": 715,
      "ose</w>": 716,
      "ust": 717,
      "Sh": 718,
      "ree</w>": 719,
      "sof": 720,
      "atter": 721,
      "Ear": 722,
      "ha</w>": 723,
      "know</w>": 724,
      "Not</w>": 725,
      "hel": 726,
      "ze</w>": 727,
      "fe": 728,
      "software</w>": 729,
      "au": 730,
      "sec": 731,
      "De": 732,
      "also</w>": 733,
      "saf": 734,
      "ess": 735,
      "point</w>": 736,
      "utopilot</w>": 737,
      "bli": 738,
      "ear": 739,
      "ked</w>": 740,
      "ren": 741,
      "uture</w>": 742,
      "exc": 743,
      "elec": 744,
      "am</w>": 745,
      "tec": 746,
      "lease</w>": 747,
      "gu": 748,
      "anc": 749,
      "You</w>": 750,
      "Gre": 751,
      "being</w>": 752,
      "going</w>": 753,
      "hea": 754,
      "fact": 755,
      "ved</w>": 756,
      "come</w>": 757,
      "fl": 758,
      "real</w>": 759,
      "best</w>": 760,
      "tle</w>": 761,
      "Starship</w>": 762,
      "ways</w>": 763,
      "els</w>": 764,
      "hum": 765,
      "ans</w>": 766,
      "compl": 767,
      "coun": 768,
      "Lo": 769,
      "could</w>": 770,
      "ering</w>": 771,
      "Super": 772,
      "ready</w>": 773,
      "view</w>": 774,
      "tic</w>": 775,
      "lim": 776,
      "Tr": 777,
      "future</w>": 778,
      "power</w>": 779,
      "publi": 780,
      "fun": 781,
      "world</w>": 782,
      "US</w>": 783,
      "ffi": 784,
      "artic": 785,
      "cor": 786,
      "ic</w>": 787,
      "ob": 788,
      "May": 789,
      "sto": 790,
      "veral</w>": 791,
      "how</w>": 792,
      "sen": 793,
      "esting</w>": 794,
      "them</w>": 795,
      "Earth</w>": 796,
      "ll": 797,
      "self</w>": 798,
      "still</w>": 799,
      "ph": 800,
      "reci": 801,
      "ach</w>": 802,
      "high": 803,
      "ets</w>": 804,
      "been</w>": 805,
      "Autopilot</w>": 806,
      "hard</w>": 807,
      "sing</w>": 808,
      "sed</w>": 809,
      "today</w>": 810,
      "electri": 811,
      "On": 812,
      "aw": 813,
      "ned</w>": 814,
      "lif": 815,
      "ext": 816,
      "batter": 817,
      "el</w>": 818,
      "eel</w>": 819,
      "Also</w>": 820,
      "Great</w>": 821,
      "needed</w>": 822,
      "design</w>": 823,
      "love</w>": 824,
      "qui": 825,
      "see</w>": 826,
      "cr": 827,
      "same</w>": 828,
      "yes</w>": 829,
      "dy</w>": 830,
      "There</w>": 831,
      "Con": 832,
      "well</w>": 833,
      "Maybe</w>": 834,
      "engine</w>": 835,
      "cen": 836,
      "tran": 837,
      "probably</w>": 838,
      "ber</w>": 839,
      "pe</w>": 840,
      "want</w>": 841,
      "side</w>": 842,
      "ement</w>": 843,
      "fore</w>": 844,
      "vy</w>": 845,
      "tru": 846,
      "clo": 847,
      "har": 848,
      "ment</w>": 849,
      "solar</w>": 850,
      "pers": 851,
      "into</w>": 852,
      "Hop": 853,
      "ous": 854,
      "almost</w>": 855,
      "made</w>": 856,
      "had</w>": 857,
      "age</w>": 858,
      "ile</w>": 859,
      "ligh": 860,
      "date</w>": 861,
      "ven</w>": 862,
      "ach": 863,
      "dont</w>": 864,
      "days</w>": 865,
      "hop": 866,
      "oc": 867,
      "sur": 868,
      "done</w>": 869,
      "incre": 870,
      "ability</w>": 871,
      "aga": 872,
      "zing</w>": 873,
      "sts</w>": 874,
      "vide": 875,
      "before</w>": 876,
      "months</w>": 877,
      "port": 878,
      "orbit</w>": 879,
      "sub": 880,
      "air</w>": 881,
      "LA</w>": 882,
      "cri": 883,
      "ice</w>": 884,
      "tical</w>": 885,
      "where</w>": 886,
      "through</w>": 887,
      "Supercharg": 888,
      "wr": 889,
      "energy</w>": 890,
      "stem</w>": 891,
      "possi": 892,
      "ron": 893,
      "big</w>": 894,
      "row</w>": 895,
      "change</w>": 896,
      "ms</w>": 897,
      "over": 898,
      "those</w>": 899,
      "ld": 900,
      "appreci": 901,
      "cra": 902,
      "speed</w>": 903,
      "drive</w>": 904,
      "off</w>": 905,
      "see": 906,
      "Hea": 907,
      "bec": 908,
      "super</w>": 909,
      "All</w>": 910,
      "ital</w>": 911,
      "Ma": 912,
      "gas</w>": 913,
      "sh</w>": 914,
      "ari": 915,
      "last</w>": 916,
      "space</w>": 917,
      "vehi": 918,
      "efully</w>": 919,
      "vel</w>": 920,
      "oring</w>": 921,
      "ety</w>": 922,
      "take</w>": 923,
      "Loo": 924,
      "eci": 925,
      "city</w>": 926,
      "gs</w>": 927,
      "id": 928,
      "eve</w>": 929,
      "les</w>": 930,
      "around</w>": 931,
      "engine": 932,
      "video</w>": 933,
      "They</w>": 934,
      "far</w>": 935,
      "tional</w>": 936,
      "Am</w>": 937,
      "itely</w>": 938,
      "finitely</w>": 939,
      "AI</w>": 940,
      "under": 941,
      "velo": 942,
      "iting</w>": 943,
      "article</w>": 944,
      "portant</w>": 945,
      "car": 946,
      "with": 947,
      "ep": 948,
      "esome</w>": 949,
      "own": 950,
      "What</w>": 951,
      "thrust</w>": 952,
      "contro": 953,
      "Ab": 954,
      "gener": 955,
      "val": 956,
      "spac": 957,
      "medi": 958,
      "system</w>": 959,
      "ber": 960,
      "full</w>": 961,
      "ther": 962,
      "ought</w>": 963,
      "ank</w>": 964,
      "dep": 965,
      "working</w>": 966,
      "oure</w>": 967,
      "electric</w>": 968,
      "Im</w>": 969,
      "ut</w>": 970,
      "doing</w>": 971,
      "00": 972,
      "don</w>": 973,
      "form": 974,
      "ger</w>": 975,
      "Space</w>": 976,
      "Wor": 977,
      "sum": 978,
      "adv": 979,
      "war": 980,
      "used</w>": 981,
      "driving</w>": 982,
      "sic": 983,
      "mer": 984,
      "Prob": 985,
      "iz": 986,
      "ality</w>": 987,
      "tation</w>": 988,
      "ses</w>": 989,
      "shi": 990,
      "rect</w>": 991,
      "ba": 992,
      "br": 993,
      "cur": 994,
      "call": 995,
      "though</w>": 996,
      "why</w>": 997,
      "In</w>": 998,
      "win": 999,
      "always</w>": 1000,
      "did</w>": 1001,
      "cost</w>": 1002,
      "Inter": 1003,
      "life</w>": 1004,
      "La": 1005,
      "Do": 1006,
      "cy</w>": 1007,
      "eship</w>": 1008,
      "ama": 1009,
      "deli": 1010,
      "sig": 1011,
      "vice</w>": 1012,
      "enough</w>": 1013,
      "very": 1014,
      "En": 1015,
      "cle</w>": 1016,
      "lat": 1017,
      "int": 1018,
      "sk": 1019,
      "ero</w>": 1020,
      "low": 1021,
      "mat": 1022,
      "wa": 1023,
      "things</w>": 1024,
      "out": 1025,
      "little</w>": 1026,
      "My</w>": 1027,
      "appro": 1028,
      "something</w>": 1029,
      "help</w>": 1030,
      "battery</w>": 1031,
      "For</w>": 1032,
      "So</w>": 1033,
      "pr": 1034,
      "possible</w>": 1035,
      "des</w>": 1036,
      "tty</w>": 1037,
      "times</w>": 1038,
      "complet": 1039,
      "gen</w>": 1040,
      "pas": 1041,
      "tal</w>": 1042,
      "inv": 1043,
      "ese</w>": 1044,
      "pla": 1045,
      "Heavy</w>": 1046,
      "jo": 1047,
      "etting</w>": 1048,
      "does": 1049,
      "ga": 1050,
      "ond</w>": 1051,
      "safety</w>": 1052,
      "say</w>": 1053,
      "vs</w>": 1054,
      "mission</w>": 1055,
      "fr": 1056,
      "tal": 1057,
      "And</w>": 1058,
      "ur</w>": 1059,
      "ann": 1060,
      "ours</w>": 1061,
      "month</w>": 1062,
      "range</w>": 1063,
      "ery</w>": 1064,
      "rem": 1065,
      "already</w>": 1066,
      "night</w>": 1067,
      "To": 1068,
      "tom": 1069,
      "lem</w>": 1070,
      "upgra": 1071,
      "every</w>": 1072,
      "gg": 1073,
      "ki": 1074,
      "vo": 1075,
      "due</w>": 1076,
      "tech": 1077,
      "Li": 1078,
      "ide": 1079,
      "emp": 1080,
      "small</w>": 1081,
      "Probably</w>": 1082,
      "ause</w>": 1083,
      "miles</w>": 1084,
      "public</w>": 1085,
      "aut": 1086,
      "dea": 1087,
      "fast</w>": 1088,
      "Rap": 1089,
      "hal": 1090,
      "awesome</w>": 1091,
      "here</w>": 1092,
      "line</w>": 1093,
      "ough": 1094,
      "stage</w>": 1095,
      "ounds</w>": 1096,
      "company</w>": 1097,
      "New</w>": 1098,
      "orrow</w>": 1099,
      "using</w>": 1100,
      "part</w>": 1101,
      "said</w>": 1102,
      "Cap": 1103,
      "cer": 1104,
      "ula": 1105,
      "True</w>": 1106,
      "hard": 1107,
      "ces</w>": 1108,
      "va": 1109,
      "makes</w>": 1110,
      "pressure</w>": 1111,
      "hy": 1112,
      "iti": 1113,
      "tors</w>": 1114,
      "important</w>": 1115,
      "fire</w>": 1116,
      "Fir": 1117,
      "cool</w>": 1118,
      "weeks</w>": 1119,
      "dre": 1120,
      "kely</w>": 1121,
      "ens</w>": 1122,
      "load</w>": 1123,
      "ys</w>": 1124,
      "does</w>": 1125,
      "problem</w>": 1126,
      "ge": 1127,
      "mi": 1128,
      "sal": 1129,
      "nel</w>": 1130,
      "Haha</w>": 1131,
      "Can": 1132,
      "Cali": 1133,
      "he</w>": 1134,
      "ward</w>": 1135,
      "forni": 1136,
      "Californi": 1137,
      "ack": 1138,
      "clu": 1139,
      "man": 1140,
      "ina</w>": 1141,
      "orry</w>": 1142,
      "likely</w>": 1143,
      "California</w>": 1144,
      "ited</w>": 1145,
      "ates</w>": 1146,
      "ture</w>": 1147,
      "story</w>": 1148,
      "tain": 1149,
      "called</w>": 1150,
      "Ok</w>": 1151,
      "den": 1152,
      "diff": 1153,
      "Should</w>": 1154,
      "land</w>": 1155,
      "mar": 1156,
      "ature</w>": 1157,
      "ei": 1158,
      "ling</w>": 1159,
      "na": 1160,
      "vol": 1161,
      "money</w>": 1162,
      "met": 1163,
      "atell": 1164,
      "Thats</w>": 1165,
      "fun</w>": 1166,
      "support</w>": 1167,
      "tomorrow</w>": 1168,
      "Hi": 1169,
      "did": 1170,
      "control</w>": 1171,
      "Gig": 1172,
      "via</w>": 1173,
      "put</w>": 1174,
      "Go": 1175,
      "Now</w>": 1176,
      "To</w>": 1177,
      "cul": 1178,
      "tw</w>": 1179,
      "dent</w>": 1180,
      "act</w>": 1181,
      "engines</w>": 1182,
      "inst</w>": 1183,
      "release</w>": 1184,
      "version</w>": 1185,
      "two</w>": 1186,
      "China</w>": 1187,
      "truck</w>": 1188,
      "against</w>": 1189,
      "engineering</w>": 1190,
      "free</w>": 1191,
      "his</w>": 1192,
      "sk</w>": 1193,
      "satell": 1194,
      "may": 1195,
      "several</w>": 1196,
      "differ": 1197,
      "ements</w>": 1198,
      "service</w>": 1199,
      "vehicle</w>": 1200,
      "maybe</w>": 1201,
      "bra": 1202,
      "level</w>": 1203,
      "ously</w>": 1204,
      "jor</w>": 1205,
      "oper": 1206,
      "factory</w>": 1207,
      "First</w>": 1208,
      "ould": 1209,
      "ques": 1210,
      "Pre": 1211,
      "prop": 1212,
      "Sorry</w>": 1213,
      "got</w>": 1214,
      "arge</w>": 1215,
      "formance</w>": 1216,
      "rent</w>": 1217,
      "stu": 1218,
      "start</w>": 1219,
      "look</w>": 1220,
      "Bo": 1221,
      "dro": 1222,
      "cam": 1223,
      "ru": 1224,
      "ton</w>": 1225,
      "bur": 1226,
      "cial</w>": 1227,
      "tunnel</w>": 1228,
      "Supercharger</w>": 1229,
      "Cape</w>": 1230,
      "every": 1231,
      "later</w>": 1232,
      "uti": 1233,
      "water</w>": 1234,
      "inc": 1235,
      "reg": 1236,
      "reas": 1237,
      "ean</w>": 1238,
      "both</w>": 1239,
      "mins</w>": 1240,
      "Station</w>": 1241,
      "cal</w>": 1242,
      "ping</w>": 1243,
      "oud</w>": 1244,
      "action</w>": 1245,
      "mass</w>": 1246,
      "early</w>": 1247,
      "No": 1248,
      "unch": 1249,
      "col": 1250,
      "update</w>": 1251,
      "clear</w>": 1252,
      "build</w>": 1253,
      "booster</w>": 1254,
      "Nor": 1255,
      "cant</w>": 1256,
      "ten</w>": 1257,
      "thro": 1258,
      "never</w>": 1259,
      "issu": 1260,
      "improv": 1261,
      "amazing</w>": 1262,
      "idea</w>": 1263,
      "half</w>": 1264,
      "onom": 1265,
      "goes</w>": 1266,
      "without</w>": 1267,
      "Au": 1268,
      "Tex": 1269,
      "gree</w>": 1270,
      "Would</w>": 1271,
      "roll": 1272,
      "eas": 1273,
      "size</w>": 1274,
      "Some</w>": 1275,
      "live</w>": 1276,
      "ground</w>": 1277,
      "Texas</w>": 1278,
      "uc": 1279,
      "read</w>": 1280,
      "logy</w>": 1281,
      "while</w>": 1282,
      "anything</w>": 1283,
      "sense</w>": 1284,
      "Boring</w>": 1285,
      "blo": 1286,
      "bad</w>": 1287,
      "cour": 1288,
      "ware</w>": 1289,
      "term</w>": 1290,
      "Love</w>": 1291,
      "higher</w>": 1292,
      "But</w>": 1293,
      "hours</w>": 1294,
      "lion</w>": 1295,
      "under</w>": 1296,
      "beli": 1297,
      "body</w>": 1298,
      "ustom": 1299,
      "anced</w>": 1300,
      "media</w>": 1301,
      "So": 1302,
      "ed": 1303,
      "wer": 1304,
      "yet</w>": 1305,
      "ish</w>": 1306,
      "FS": 1307,
      "mul": 1308,
      "chang": 1309,
      "cap": 1310,
      "short</w>": 1311,
      "ago</w>": 1312,
      "needs</w>": 1313,
      "wea": 1314,
      "thers</w>": 1315,
      "rear</w>": 1316,
      "mph</w>": 1317,
      "Sure</w>": 1318,
      "top</w>": 1319,
      "loop</w>": 1320,
      "orbital</w>": 1321,
      "kids</w>": 1322,
      "Cool</w>": 1323,
      "nec": 1324,
      "lower</w>": 1325,
      "may</w>": 1326,
      "exper": 1327,
      "Congr": 1328,
      "bit</w>": 1329,
      "pay": 1330,
      "max</w>": 1331,
      "ounc": 1332,
      "Raptor</w>": 1333,
      "FSD</w>": 1334,
      "dam": 1335,
      "sive</w>": 1336,
      "peti": 1337,
      "Rock": 1338,
      "person": 1339,
      "cc": 1340,
      "custom": 1341,
      "stly</w>": 1342,
      "risk</w>": 1343,
      "link</w>": 1344,
      "old</w>": 1345,
      "set</w>": 1346,
      "entry</w>": 1347,
      "sions</w>": 1348,
      "iring</w>": 1349,
      "bly</w>": 1350,
      "num": 1351,
      "ending</w>": 1352,
      "star": 1353,
      "uni": 1354,
      "unve": 1355,
      "looks</w>": 1356,
      "stain": 1357,
      "km</w>": 1358,
      "led</w>": 1359,
      "ata</w>": 1360,
      "shor": 1361,
      "show": 1362,
      "ems</w>": 1363,
      "compan": 1364,
      "piec": 1365,
      "Wow</w>": 1366,
      "men": 1367,
      "sci": 1368,
      "thanks</w>": 1369,
      "til</w>": 1370,
      "order</w>": 1371,
      "achi": 1372,
      "nology</w>": 1373,
      "tax</w>": 1374,
      "pack</w>": 1375,
      "ire</w>": 1376,
      "Please</w>": 1377,
      "ff</w>": 1378,
      "ator</w>": 1379,
      "moon</w>": 1380,
      "elcome</w>": 1381,
      "companies</w>": 1382,
      "Were</w>": 1383,
      "lin": 1384,
      "ven": 1385,
      "inst": 1386,
      "consi": 1387,
      "until</w>": 1388,
      "ns</w>": 1389,
      "retur": 1390,
      "uring</w>": 1391,
      "ext</w>": 1392,
      "show</w>": 1393,
      "product</w>": 1394,
      "head</w>": 1395,
      "remely</w>": 1396,
      "ple</w>": 1397,
      "ution</w>": 1398,
      "ils</w>": 1399,
      "net</w>": 1400,
      "limate</w>": 1401,
      "Only</w>": 1402,
      "About</w>": 1403,
      "Un": 1404,
      "gin": 1405,
      "kin": 1406,
      "others</w>": 1407,
      "sing": 1408,
      "tem": 1409,
      "requ": 1410,
      "ord</w>": 1411,
      "making</w>": 1412,
      "ase</w>": 1413,
      "place</w>": 1414,
      "human": 1415,
      "because</w>": 1416,
      "owners</w>": 1417,
      "Very</w>": 1418,
      "tin": 1419,
      "recomm": 1420,
      "requi": 1421,
      "ount</w>": 1422,
      "site</w>": 1423,
      "review</w>": 1424,
      "ately</w>": 1425,
      "appreciated</w>": 1426,
      "Ac": 1427,
      "Amer": 1428,
      "He</w>": 1429,
      "Mer": 1430,
      "Our</w>": 1431,
      "dr": 1432,
      "might</w>": 1433,
      "develo": 1434,
      "dic": 1435,
      "case</w>": 1436,
      "least</w>": 1437,
      "struc": 1438,
      "ket</w>": 1439,
      "sha": 1440,
      "sour": 1441,
      "zy</w>": 1442,
      "zero</w>": 1443,
      "ith</w>": 1444,
      "fav": 1445,
      "vely</w>": 1446,
      "auto</w>": 1447,
      "center</w>": 1448,
      "ok</w>": 1449,
      "rate</w>": 1450,
      "rea": 1451,
      "ening</w>": 1452,
      "launch": 1453,
      "open</w>": 1454,
      "pper</w>": 1455,
      "Definitely</w>": 1456,
      "dis": 1457,
      "iming</w>": 1458,
      "tons</w>": 1459,
      "reus": 1460,
      "esp": 1461,
      "pretty</w>": 1462,
      "built</w>": 1463,
      "Hopefully</w>": 1464,
      "Mar": 1465,
      "dit</w>": 1466,
      "pm</w>": 1467,
      "anding</w>": 1468,
      "deplo": 1469,
      "Launch</w>": 1470,
      "technology</w>": 1471,
      "ders</w>": 1472,
      "ane</w>": 1473,
      "road</w>": 1474,
      "ames</w>": 1475,
      "posi": 1476,
      "person</w>": 1477,
      "wrong</w>": 1478,
      "lin</w>": 1479,
      "close</w>": 1480,
      "autom": 1481,
      "Cana": 1482,
      "course</w>": 1483,
      "Hy": 1484,
      "away</w>": 1485,
      "ouse</w>": 1486,
      "ju": 1487,
      "eler": 1488,
      "improve</w>": 1489,
      "name</w>": 1490,
      "inclu": 1491,
      "thats</w>": 1492,
      "move</w>": 1493,
      "Road": 1494,
      "regul": 1495,
      "00</w>": 1496,
      "lon": 1497,
      "vered</w>": 1498,
      "doesnt</w>": 1499,
      "resp": 1500,
      "end": 1501,
      "lation</w>": 1502,
      "speci": 1503,
      "value</w>": 1504,
      "inves": 1505,
      "camer": 1506,
      "kno": 1507,
      "simp": 1508,
      "own</w>": 1509,
      "means</w>": 1510,
      "price</w>": 1511,
      "Rocket</w>": 1512,
      "Pow": 1513,
      "data</w>": 1514,
      "fri": 1515,
      "witter</w>": 1516,
      "eep</w>": 1517,
      "hardware</w>": 1518,
      "volu": 1519,
      "must</w>": 1520,
      "succ": 1521,
      "advanced</w>": 1522,
      "Can</w>": 1523,
      "hor": 1524,
      "ant": 1525,
      "exi": 1526,
      "big": 1527,
      "fal": 1528,
      "getting</w>": 1529,
      "sch": 1530,
      "tes": 1531,
      "uro": 1532,
      "youre</w>": 1533,
      "ites</w>": 1534,
      "competi": 1535,
      "plac": 1536,
      "forward</w>": 1537,
      "Btw</w>": 1538,
      "Ne": 1539,
      "ep</w>": 1540,
      "provi": 1541,
      "lass</w>": 1542,
      "cks</w>": 1543,
      "building</w>": 1544,
      "stop</w>": 1545,
      "piece</w>": 1546,
      "jour": 1547,
      "rea</w>": 1548,
      "ency</w>": 1549,
      "haha</w>": 1550,
      "trying</w>": 1551,
      "ween</w>": 1552,
      "human</w>": 1553,
      "obvi": 1554,
      "Sol": 1555,
      "ast</w>": 1556,
      "erally</w>": 1557,
      "cation</w>": 1558,
      "add</w>": 1559,
      "crazy</w>": 1560,
      "humanity</w>": 1561,
      "Euro": 1562,
      "air": 1563,
      "core</w>": 1564,
      "climate</w>": 1565,
      "fol": 1566,
      "yed</w>": 1567,
      "these</w>": 1568,
      "als</w>": 1569,
      "deta": 1570,
      "sustain": 1571,
      "aying</w>": 1572,
      "ential</w>": 1573,
      "Im": 1574,
      "Sti": 1575,
      "Yup</w>": 1576,
      "dra": 1577,
      "port</w>": 1578,
      "ters</w>": 1579,
      "atch": 1580,
      "def</w>": 1581,
      "fix": 1582,
      "ull</w>": 1583,
      "Most</w>": 1584,
      "find</w>": 1585,
      "anyone</w>": 1586,
      "Coming</w>": 1587,
      "One</w>": 1588,
      "hopefully</w>": 1589,
      "Roadster</w>": 1590,
      "chec": 1591,
      "worth</w>": 1592,
      "acceler": 1593,
      "Canaveral</w>": 1594,
      "Sup": 1595,
      "Youre</w>": 1596,
      "welcome</w>": 1597,
      "ref": 1598,
      "allo": 1599,
      "ook</w>": 1600,
      "who": 1601,
      "ute</w>": 1602,
      "lightly</w>": 1603,
      "Looks</w>": 1604,
      "believe</w>": 1605,
      "Hyper": 1606,
      "Per": 1607,
      "gt</w>": 1608,
      "vil": 1609,
      "ince</w>": 1610,
      "confi": 1611,
      "Comp": 1612,
      "announc": 1613,
      "Ar": 1614,
      "City</w>": 1615,
      "More</w>": 1616,
      "Next</w>": 1617,
      "vt</w>": 1618,
      "thought</w>": 1619,
      "ected</w>": 1620,
      "eting</w>": 1621,
      "rockets</w>": 1622,
      "Still</w>": 1623,
      "can": 1624,
      "home</w>": 1625,
      "stor": 1626,
      "dem": 1627,
      "lad</w>": 1628,
      "main</w>": 1629,
      "arget</w>": 1630,
      "sales</w>": 1631,
      "agree</w>": 1632,
      "brea": 1633,
      "dly</w>": 1634,
      "ken</w>": 1635,
      "vity</w>": 1636,
      "ority</w>": 1637,
      "major</w>": 1638,
      "imo</w>": 1639,
      "Hyperloop</w>": 1640,
      "care</w>": 1641,
      "ox": 1642,
      "ser</w>": 1643,
      "ins</w>": 1644,
      "three</w>": 1645,
      "definitely</w>": 1646,
      "abo": 1647,
      "heat</w>": 1648,
      "correct</w>": 1649,
      "ecially</w>": 1650,
      "ept</w>": 1651,
      "especially</w>": 1652,
      "false</w>": 1653,
      "100": 1654,
      "SA</w>": 1655,
      "wing</w>": 1656,
      "acking</w>": 1657,
      "dual</w>": 1658,
      "When</w>": 1659,
      "wide</w>": 1660,
      "fficul": 1661,
      "Mon": 1662,
      "fine</w>": 1663,
      "ends</w>": 1664,
      "tically</w>": 1665,
      "Exc": 1666,
      "volume</w>": 1667,
      "Super</w>": 1668,
      "For": 1669,
      "da</w>": 1670,
      "feel</w>": 1671,
      "ty": 1672,
      "another</w>": 1673,
      "news</w>": 1674,
      "sec</w>": 1675,
      "parts</w>": 1676,
      "extremely</w>": 1677,
      "matter</w>": 1678,
      "longer</w>": 1679,
      "At</w>": 1680,
      "Was</w>": 1681,
      "non</w>": 1682,
      "val</w>": 1683,
      "ank": 1684,
      "deal": 1685,
      "ech": 1686,
      "power": 1687,
      "performance</w>": 1688,
      "someone</w>": 1689,
      "roneship</w>": 1690,
      "Cy": 1691,
      "Fl": 1692,
      "inal</w>": 1693,
      "ense</w>": 1694,
      "shing</w>": 1695,
      "spec": 1696,
      "ased</w>": 1697,
      "govt</w>": 1698,
      "Bet": 1699,
      "Even</w>": 1700,
      "Gra": 1701,
      "Some": 1702,
      "sting</w>": 1703,
      "puter</w>": 1704,
      "lights</w>": 1705,
      "critical</w>": 1706,
      "bal</w>": 1707,
      "fo": 1708,
      "saying</w>": 1709,
      "testing</w>": 1710,
      "allow</w>": 1711,
      "ead</w>": 1712,
      "post</w>": 1713,
      "works</w>": 1714,
      "cover</w>": 1715,
      "ness</w>": 1716,
      "sis</w>": 1717,
      "zed</w>": 1718,
      "stre": 1719,
      "ound": 1720,
      "lear": 1721,
      "hol": 1722,
      "phy": 1723,
      "upgrade</w>": 1724,
      "Of</w>": 1725,
      "Twitter</w>": 1726,
      "cha": 1727,
      "cally</w>": 1728,
      "face</w>": 1729,
      "om</w>": 1730,
      "slightly</w>": 1731,
      "roof</w>": 1732,
      "ath</w>": 1733,
      "atch</w>": 1734,
      "having</w>": 1735,
      "chance</w>": 1736,
      "wise</w>": 1737,
      "solution</w>": 1738,
      "hope</w>": 1739,
      "multi": 1740,
      "Europe</w>": 1741,
      "upper</w>": 1742,
      "ygen</w>": 1743,
      "eal</w>": 1744,
      "deep</w>": 1745,
      "option</w>": 1746,
      "sugg": 1747,
      "exactly</w>": 1748,
      "between</w>": 1749,
      "Starlink</w>": 1750,
      "question</w>": 1751,
      "Power": 1752,
      "oxygen</w>": 1753,
      "physic": 1754,
      "bs</w>": 1755,
      "larg": 1756,
      "near</w>": 1757,
      "etary</w>": 1758,
      "transp": 1759,
      "easy</w>": 1760,
      "single</w>": 1761,
      "fac": 1762,
      "fil": 1763,
      "mach": 1764,
      "wn": 1765,
      "ints</w>": 1766,
      "itu": 1767,
      "stra": 1768,
      "direct</w>": 1769,
      "eter</w>": 1770,
      "SN": 1771,
      "sound</w>": 1772,
      "ale</w>": 1773,
      "gress</w>": 1774,
      "trans": 1775,
      "ease</w>": 1776,
      "disc": 1777,
      "shed</w>": 1778,
      "planetary</w>": 1779,
      "seem</w>": 1780,
      "Interesting</w>": 1781,
      "front</w>": 1782,
      "empt</w>": 1783,
      "ulations</w>": 1784,
      "Well</w>": 1785,
      "mary</w>": 1786,
      "te": 1787,
      "ton": 1788,
      "eri": 1789,
      "ams</w>": 1790,
      "tain</w>": 1791,
      "ump</w>": 1792,
      "ellent</w>": 1793,
      "tually</w>": 1794,
      "Solar": 1795,
      "Me": 1796,
      "nam": 1797,
      "tro": 1798,
      "target</w>": 1799,
      "wall</w>": 1800,
      "vie": 1801,
      "tax": 1802,
      "left</w>": 1803,
      "beta</w>": 1804,
      "contin": 1805,
      "suppor": 1806,
      "again</w>": 1807,
      "underst": 1808,
      "recommend</w>": 1809,
      "regulat": 1810,
      "O2</w>": 1811,
      "See": 1812,
      "bro": 1813,
      "ark</w>": 1814,
      "ony</w>": 1815,
      "eld</w>": 1816,
      "nothing</w>": 1817,
      "difficul": 1818,
      "computer</w>": 1819,
      "wheel</w>": 1820,
      "usters</w>": 1821,
      "rently</w>": 1822,
      "improvements</w>": 1823,
      "announcement</w>": 1824,
      "above</w>": 1825,
      "bea": 1826,
      "fly</w>": 1827,
      "im</w>": 1828,
      "rid</w>": 1829,
      "tage</w>": 1830,
      "hold</w>": 1831,
      "fuel</w>": 1832,
      "week": 1833,
      "cles</w>": 1834,
      "literally</w>": 1835,
      "spaceship</w>": 1836,
      "Gigaf": 1837,
      "fle": 1838,
      "ls</w>": 1839,
      "ming</w>": 1840,
      "pad</w>": 1841,
      "ross</w>": 1842,
      "buy</w>": 1843,
      "direc": 1844,
      "sul": 1845,
      "charge</w>": 1846,
      "actory</w>": 1847,
      "fairing</w>": 1848,
      "func": 1849,
      "Looking</w>": 1850,
      "Worth</w>": 1851,
      "High</w>": 1852,
      "unveil</w>": 1853,
      "Company</w>": 1854,
      "10</w>": 1855,
      "Tur": 1856,
      "med</w>": 1857,
      "sem": 1858,
      "vac": 1859,
      "ride</w>": 1860,
      "ects</w>": 1861,
      "opper</w>": 1862,
      "pic</w>": 1863,
      "happen</w>": 1864,
      "ffici": 1865,
      "complete</w>": 1866,
      "market</w>": 1867,
      "didnt</w>": 1868,
      "number</w>": 1869,
      "return</w>": 1870,
      "Aiming</w>": 1871,
      "eff": 1872,
      "fect</w>": 1873,
      "mor": 1874,
      "man</w>": 1875,
      "wont</w>": 1876,
      "yond</w>": 1877,
      "ining</w>": 1878,
      "sually</w>": 1879,
      "legs</w>": 1880,
      "form</w>": 1881,
      "twe": 1882,
      "Why</w>": 1883,
      "give</w>": 1884,
      "talk</w>": 1885,
      "manu": 1886,
      "reusable</w>": 1887,
      "How</w>": 1888,
      "bon</w>": 1889,
      "tally</w>": 1890,
      "motor</w>": 1891,
      "utely</w>": 1892,
      "Almost</w>": 1893,
      "solutely</w>": 1894,
      "satellites</w>": 1895,
      "weather</w>": 1896,
      "whole</w>": 1897,
      "SolarCity</w>": 1898,
      "Gigafactory</w>": 1899,
      "Co": 1900,
      "bl": 1901,
      "ex</w>": 1902,
      "ima": 1903,
      "ne</w>": 1904,
      "nal</w>": 1905,
      "use": 1906,
      "ures</w>": 1907,
      "uum</w>": 1908,
      "ans": 1909,
      "ties</w>": 1910,
      "ently</w>": 1911,
      "dist": 1912,
      "confir": 1913,
      "ada</w>": 1914,
      "plus</w>": 1915,
      "que</w>": 1916,
      "leg": 1917,
      "usti": 1918,
      "probability</w>": 1919,
      "syst": 1920,
      "atters</w>": 1921,
      "velocity</w>": 1922,
      "weekend</w>": 1923,
      "Ad": 1924,
      "Po": 1925,
      "droneship</w>": 1926,
      "mean</w>": 1927,
      "son</w>": 1928,
      "ined</w>": 1929,
      "thor": 1930,
      "but": 1931,
      "vid</w>": 1932,
      "faster</w>": 1933,
      "increase</w>": 1934,
      "sustainable</w>": 1935,
      "Rus": 1936,
      "With</w>": 1937,
      "lu": 1938,
      "late</w>": 1939,
      "matters</w>": 1940,
      "took</w>": 1941,
      "orders</w>": 1942,
      "room</w>": 1943,
      "load": 1944,
      "sit</w>": 1945,
      "sic</w>": 1946,
      "record</w>": 1947,
      "ellant</w>": 1948,
      "heard</w>": 1949,
      "mile</w>": 1950,
      "ffic</w>": 1951,
      "ities</w>": 1952,
      "difference</w>": 1953,
      "burn</w>": 1954,
      "achiev": 1955,
      "coo": 1956,
      "dar</w>": 1957,
      "pur": 1958,
      "aly": 1959,
      "progress</w>": 1960,
      "super": 1961,
      "cking</w>": 1962,
      "press</w>": 1963,
      "nifi": 1964,
      "designed</w>": 1965,
      "payload</w>": 1966,
      "Sounds</w>": 1967,
      "fit</w>": 1968,
      "itself</w>": 1969,
      "ame": 1970,
      "state</w>": 1971,
      "lies</w>": 1972,
      "goal</w>": 1973,
      "giant</w>": 1974,
      "ization</w>": 1975,
      "run</w>": 1976,
      "uge</w>": 1977,
      "initi": 1978,
      "regi": 1979,
      "vie</w>": 1980,
      "pic": 1981,
      "ssive</w>": 1982,
      "Have</w>": 1983,
      "tech</w>": 1984,
      "didn</w>": 1985,
      "everyone</w>": 1986,
      "systems</w>": 1987,
      "As</w>": 1988,
      "ise</w>": 1989,
      "las</w>": 1990,
      "wd</w>": 1991,
      "arri": 1992,
      "ecra": 1993,
      "proc": 1994,
      "poli": 1995,
      "spi": 1996,
      "tics</w>": 1997,
      "thrusters</w>": 1998,
      "elling</w>": 1999,
      "actual</w>": 2000,
      "traffic</w>": 2001,
      "doesn</w>": 2002,
      "satellite</w>": 2003,
      "reason</w>": 2004,
      "fleet</w>": 2005,
      "ecraft</w>": 2006,
      "bil": 2007,
      "steel</w>": 2008,
      "prob</w>": 2009,
      "word</w>": 2010,
      "takes</w>": 2011,
      "book</w>": 2012,
      "attempt</w>": 2013,
      "country</w>": 2014,
      "carbon</w>": 2015,
      "general</w>": 2016,
      "either</w>": 2017,
      "Cyber": 2018,
      "difficult</w>": 2019,
      "Best</w>": 2020,
      "Or": 2021,
      "bar</w>": 2022,
      "ner</w>": 2023,
      "sounds</w>": 2024,
      "ta</w>": 2025,
      "won</w>": 2026,
      "yre</w>": 2027,
      "repa": 2028,
      "ands</w>": 2029,
      "ended</w>": 2030,
      "atulations</w>": 2031,
      "cham": 2032,
      "cause</w>": 2033,
      "taking</w>": 2034,
      "off": 2035,
      "stron": 2036,
      "lowing</w>": 2037,
      "vacuum</w>": 2038,
      "Russi": 2039,
      "amethro": 2040,
      "Gi": 2041,
      "NY</w>": 2042,
      "each</w>": 2043,
      "history</w>": 2044,
      "recei": 2045,
      "web": 2046,
      "safe</w>": 2047,
      "stock</w>": 2048,
      "wards</w>": 2049,
      "Congratulations</w>": 2050,
      "On</w>": 2051,
      "ations</w>": 2052,
      "fy</w>": 2053,
      "flo": 2054,
      "gets</w>": 2055,
      "hand": 2056,
      "tor": 2057,
      "est": 2058,
      "sible</w>": 2059,
      "eling</w>": 2060,
      "addre": 2061,
      "duction</w>": 2062,
      "batteries</w>": 2063,
      "cry": 2064,
      "increas": 2065,
      "Pretty</w>": 2066,
      "issues</w>": 2067,
      "changes</w>": 2068,
      "Bi": 2069,
      "Dont</w>": 2070,
      "cy": 2071,
      "during</w>": 2072,
      "nels</w>": 2073,
      "reach</w>": 2074,
      "rock</w>": 2075,
      "quid</w>": 2076,
      "ports</w>": 2077,
      "limited</w>": 2078,
      "owner</w>": 2079,
      "base</w>": 2080,
      "proud</w>": 2081,
      "Giga</w>": 2082,
      "Fe": 2083,
      "Ju": 2084,
      "Pe": 2085,
      "ience</w>": 2086,
      "ject</w>": 2087,
      "mon</w>": 2088,
      "son": 2089,
      "ero": 2090,
      "titu": 2091,
      "deb": 2092,
      "cked</w>": 2093,
      "costs</w>": 2094,
      "seri": 2095,
      "happy</w>": 2096,
      "signifi": 2097,
      "utiful</w>": 2098,
      "fixed</w>": 2099,
      "tonight</w>": 2100,
      "App": 2101,
      "UA": 2102,
      "ium</w>": 2103,
      "since</w>": 2104,
      "usually</w>": 2105,
      "thin": 2106,
      "reentry</w>": 2107,
      "tig": 2108,
      "roll</w>": 2109,
      "such</w>": 2110,
      "mosp": 2111,
      "please</w>": 2112,
      "fair</w>": 2113,
      "preci": 2114,
      "looking</w>": 2115,
      "expected</w>": 2116,
      "Really</w>": 2117,
      "sically</w>": 2118,
      "current</w>": 2119,
      "job</w>": 2120,
      "certain": 2121,
      "propellant</w>": 2122,
      "customers</w>": 2123,
      "At": 2124,
      "Happ": 2125,
      "let</w>": 2126,
      "tively</w>": 2127,
      "cations</w>": 2128,
      "bring</w>": 2129,
      "play</w>": 2130,
      "issue</w>": 2131,
      "personic</w>": 2132,
      "UAW</w>": 2133,
      "Di": 2134,
      "HW": 2135,
      "game</w>": 2136,
      "hot</w>": 2137,
      "house</w>": 2138,
      "ssh": 2139,
      "resul": 2140,
      "ouble</w>": 2141,
      "acy</w>": 2142,
      "lay</w>": 2143,
      "verse</w>": 2144,
      "mostly</w>": 2145,
      "pping</w>": 2146,
      "impac": 2147,
      "dered</w>": 2148,
      "exciting</w>": 2149,
      "phone</w>": 2150,
      "Norway</w>": 2151,
      "Grassh": 2152,
      "sugges": 2153,
      "Grasshopper</w>": 2154,
      "Don</w>": 2155,
      "Fr": 2156,
      "How": 2157,
      "May</w>": 2158,
      "Par": 2159,
      "eg": 2160,
      "hon": 2161,
      "stand": 2162,
      "list</w>": 2163,
      "eak</w>": 2164,
      "optim": 2165,
      "plan</w>": 2166,
      "sequ": 2167,
      "greed</w>": 2168,
      "credit</w>": 2169,
      "million</w>": 2170,
      "seems</w>": 2171,
      "vehicles</w>": 2172,
      "ouldnt</w>": 2173,
      "tiny</w>": 2174,
      "automa": 2175,
      "respon": 2176,
      "obvious</w>": 2177,
      "Ive</w>": 2178,
      "Sun": 2179,
      "equ": 2180,
      "games</w>": 2181,
      "wan": 2182,
      "ension</w>": 2183,
      "econom": 2184,
      "dom</w>": 2185,
      "beyond</w>": 2186,
      "isn</w>": 2187,
      "ird</w>": 2188,
      "trip</w>": 2189,
      "accur": 2190,
      "feature</w>": 2191,
      "incredi": 2192,
      "Americ": 2193,
      "Be": 2194,
      "Nice</w>": 2195,
      "boring</w>": 2196,
      "gest</w>": 2197,
      "key</w>": 2198,
      "ened</w>": 2199,
      "atures</w>": 2200,
      "moving</w>": 2201,
      "ingly</w>": 2202,
      "fins</w>": 2203,
      "second</w>": 2204,
      "within</w>": 2205,
      "ouldn</w>": 2206,
      "Solar</w>": 2207,
      "chamber</w>": 2208,
      "Happy</w>": 2209,
      "keep</w>": 2210,
      "large</w>": 2211,
      "went</w>": 2212,
      "ori": 2213,
      "atmosp": 2214,
      "ili": 2215,
      "lobal</w>": 2216,
      "cho": 2217,
      "movie</w>": 2218,
      "tra</w>": 2219,
      "eeds</w>": 2220,
      "lev": 2221,
      "mind</w>": 2222,
      "Merlin</w>": 2223,
      "favor": 2224,
      "launches</w>": 2225,
      "morning</w>": 2226,
      "titude</w>": 2227,
      "Full</w>": 2228,
      "Si": 2229,
      "ava": 2230,
      "bri": 2231,
      "bers</w>": 2232,
      "nor": 2233,
      "pan": 2234,
      "tank</w>": 2235,
      "zz": 2236,
      "Thank</w>": 2237,
      "him</w>": 2238,
      "radar</w>": 2239,
      "heavy</w>": 2240,
      "High": 2241,
      "required</w>": 2242,
      "details</w>": 2243,
      "Ea": 2244,
      "based</w>": 2245,
      "ped</w>": 2246,
      "pay</w>": 2247,
      "liquid</w>": 2248,
      "ective</w>": 2249,
      "dust": 2250,
      "ism</w>": 2251,
      "ask</w>": 2252,
      "force</w>": 2253,
      "partic": 2254,
      "priority</w>": 2255,
      "access</w>": 2256,
      "interesting</w>": 2257,
      "oughly</w>": 2258,
      "transport</w>": 2259,
      "machine</w>": 2260,
      "Cre": 2261,
      "Long</w>": 2262,
      "Wh</w>": 2263,
      "cu": 2264,
      "don": 2265,
      "flow</w>": 2266,
      "foc": 2267,
      "mal</w>": 2268,
      "rup": 2269,
      "lost</w>": 2270,
      "local</w>": 2271,
      "unless</w>": 2272,
      "fix</w>": 2273,
      "taken</w>": 2274,
      "firing</w>": 2275,
      "lowed</w>": 2276,
      "necess": 2277,
      "positive</w>": 2278,
      "However</w>": 2279,
      "area</w>": 2280,
      "back": 2281,
      "dge</w>": 2282,
      "ker</w>": 2283,
      "spo": 2284,
      "scre": 2285,
      "indust": 2286,
      "rote</w>": 2287,
      "Those</w>": 2288,
      "ural</w>": 2289,
      "points</w>": 2290,
      "imes</w>": 2291,
      "code</w>": 2292,
      "past</w>": 2293,
      "tunnels</w>": 2294,
      "appreciate</w>": 2295,
      "arily</w>": 2296,
      "Congrats</w>": 2297,
      "Cybertruck</w>": 2298,
      "El": 2299,
      "Jo": 2300,
      "call</w>": 2301,
      "effici": 2302,
      "pment</w>": 2303,
      "rac": 2304,
      "tough</w>": 2305,
      "online</w>": 2306,
      "white</w>": 2307,
      "track</w>": 2308,
      "connec": 2309,
      "quite</w>": 2310,
      "party</w>": 2311,
      "scale</w>": 2312,
      "subsi": 2313,
      "Working</w>": 2314,
      "delivery</w>": 2315,
      "sky</w>": 2316,
      "type</w>": 2317,
      "America</w>": 2318,
      "Air</w>": 2319,
      "Need</w>": 2320,
      "Ti": 2321,
      "swa": 2322,
      "reality</w>": 2323,
      "lions</w>": 2324,
      "bus": 2325,
      "nega": 2326,
      "diam": 2327,
      "fic</w>": 2328,
      "eed": 2329,
      "civil": 2330,
      "reading</w>": 2331,
      "improvement</w>": 2332,
      "temp</w>": 2333,
      "useful</w>": 2334,
      "swap</w>": 2335,
      "four</w>": 2336,
      "wrote</w>": 2337,
      "actions</w>": 2338,
      "ilable</w>": 2339,
      "amount</w>": 2340,
      "note</w>": 2341,
      "cky</w>": 2342,
      "covered</w>": 2343,
      "static</w>": 2344,
      "gram</w>": 2345,
      "therwise</w>": 2346,
      "national</w>": 2347,
      "success": 2348,
      "bigger</w>": 2349,
      "Seems</w>": 2350,
      "tweet</w>": 2351,
      "Apri": 2352,
      "Mas": 2353,
      "apo": 2354,
      "avo": 2355,
      "dings</w>": 2356,
      "ef</w>": 2357,
      "let": 2358,
      "mer</w>": 2359,
      "slow</w>": 2360,
      "wers</w>": 2361,
      "xim": 2362,
      "inf": 2363,
      "enable</w>": 2364,
      "iled</w>": 2365,
      "stop": 2366,
      "lig": 2367,
      "aby</w>": 2368,
      "whe": 2369,
      "mode</w>": 2370,
      "utes</w>": 2371,
      "seats</w>": 2372,
      "create</w>": 2373,
      "ics</w>": 2374,
      "Absolutely</w>": 2375,
      "tests</w>": 2376,
      "favorite</w>": 2377,
      "industry</w>": 2378,
      "April</w>": 2379,
      "Bu": 2380,
      "Glad</w>": 2381,
      "Is": 2382,
      "bor": 2383,
      "nu": 2384,
      "ny</w>": 2385,
      "rul": 2386,
      "arly</w>": 2387,
      "outh</w>": 2388,
      "eas</w>": 2389,
      "post": 2390,
      "affor": 2391,
      "tries</w>": 2392,
      "meant</w>": 2393,
      "happens</w>": 2394,
      "ocean</w>": 2395,
      "damen": 2396,
      "Actually</w>": 2397,
      "Powerwall</w>": 2398,
      "regulatory</w>": 2399,
      "beautiful</w>": 2400,
      "eedback</w>": 2401,
      "Mu": 2402,
      "Tech": 2403,
      "dence</w>": 2404,
      "gn": 2405,
      "mom": 2406,
      "os</w>": 2407,
      "pure</w>": 2408,
      "analy": 2409,
      "ones</w>": 2410,
      "alle": 2411,
      "acked</w>": 2412,
      "vig": 2413,
      "shes</w>": 2414,
      "seen</w>": 2415,
      "irony</w>": 2416,
      "missions</w>": 2417,
      "series</w>": 2418,
      "Superchargers</w>": 2419,
      "completed</w>": 2420,
      "autonom": 2421,
      "ulation</w>": 2422,
      "source</w>": 2423,
      "oundation</w>": 2424,
      "CO2</w>": 2425,
      "He": 2426,
      "Har": 2427,
      "Must</w>": 2428,
      "Oh</w>": 2429,
      "Ta": 2430,
      "bility</w>": 2431,
      "foo": 2432,
      "feedback</w>": 2433,
      "igh": 2434,
      "lt</w>": 2435,
      "sity</w>": 2436,
      "yeah</w>": 2437,
      "arra": 2438,
      "oned</w>": 2439,
      "although</w>": 2440,
      "active</w>": 2441,
      "Then</w>": 2442,
      "dia</w>": 2443,
      "dies</w>": 2444,
      "divi": 2445,
      "towards</w>": 2446,
      "leg</w>": 2447,
      "ign</w>": 2448,
      "given</w>": 2449,
      "complex</w>": 2450,
      "Hoping</w>": 2451,
      "writ": 2452,
      "basically</w>": 2453,
      "camera</w>": 2454,
      "Performance</w>": 2455,
      "multiplanetary</w>": 2456,
      "physics</w>": 2457,
      "manufact": 2458,
      "standard</w>": 2459,
      "automatically</w>": 2460,
      "accurate</w>": 2461,
      "screen</w>": 2462,
      "diameter</w>": 2463,
      "ran": 2464,
      "squ": 2465,
      "yer</w>": 2466,
      "envi": 2467,
      "lic": 2468,
      "net": 2469,
      "rain</w>": 2470,
      "comes</w>": 2471,
      "vertical</w>": 2472,
      "chall": 2473,
      "shot</w>": 2474,
      "isnt</w>": 2475,
      "assem": 2476,
      "created</w>": 2477,
      "final</w>": 2478,
      "travel</w>": 2479,
      "countries</w>": 2480,
      "dead</w>": 2481,
      "operating</w>": 2482,
      "Nothing</w>": 2483,
      "rolling</w>": 2484,
      "friend</w>": 2485,
      "July</w>": 2486,
      "Sunday</w>": 2487,
      "available</w>": 2488,
      "environ": 2489,
      "Da": 2490,
      "F9</w>": 2491,
      "cing</w>": 2492,
      "fla": 2493,
      "glass</w>": 2494,
      "ia</w>": 2495,
      "pop": 2496,
      "rely</w>": 2497,
      "arch": 2498,
      "orig": 2499,
      "ellig": 2500,
      "vers</w>": 2501,
      "tracking</w>": 2502,
      "asked</w>": 2503,
      "hover</w>": 2504,
      "paid</w>": 2505,
      "factor</w>": 2506,
      "Major</w>": 2507,
      "intellig": 2508,
      "approval</w>": 2509,
      "techni": 2510,
      "kind</w>": 2511,
      "cameras</w>": 2512,
      "successful</w>": 2513,
      "network</w>": 2514,
      "5k</w>": 2515,
      "50</w>": 2516,
      "Dri": 2517,
      "ational</w>": 2518,
      "her</w>": 2519,
      "ican</w>": 2520,
      "ler</w>": 2521,
      "mem": 2522,
      "ments</w>": 2523,
      "run": 2524,
      "sell</w>": 2525,
      "ensure</w>": 2526,
      "ries</w>": 2527,
      "sho": 2528,
      "duce</w>": 2529,
      "cold</w>": 2530,
      "gic</w>": 2531,
      "entire</w>": 2532,
      "happened</w>": 2533,
      "spacecraft</w>": 2534,
      "Going</w>": 2535,
      "experience</w>": 2536,
      "science</w>": 2537,
      "American</w>": 2538,
      "30</w>": 2539,
      "Asi": 2540,
      "Ph": 2541,
      "grid</w>": 2542,
      "oil</w>": 2543,
      "sil": 2544,
      "tell</w>": 2545,
      "simu": 2546,
      "rais": 2547,
      "susp": 2548,
      "perfect</w>": 2549,
      "deser": 2550,
      "alize</w>": 2551,
      "dering</w>": 2552,
      "articles</w>": 2553,
      "obv</w>": 2554,
      "Hope</w>": 2555,
      "become</w>": 2556,
      "prin": 2557,
      "different</w>": 2558,
      "shows</w>": 2559,
      "include</w>": 2560,
      "journ": 2561,
      "Something</w>": 2562,
      "amethrower</w>": 2563,
      "impact</w>": 2564,
      "Agreed</w>": 2565,
      "Ber": 2566,
      "Min": 2567,
      "Many</w>": 2568,
      "Same</w>": 2569,
      "my": 2570,
      "thank</w>": 2571,
      "reach": 2572,
      "lier</w>": 2573,
      "deed</w>": 2574,
      "ult</w>": 2575,
      "total</w>": 2576,
      "predic": 2577,
      "primary</w>": 2578,
      "ells</w>": 2579,
      "serve</w>": 2580,
      "often</w>": 2581,
      "anyway</w>": 2582,
      "soline</w>": 2583,
      "berg</w>": 2584,
      "ships</w>": 2585,
      "vote</w>": 2586,
      "metal</w>": 2587,
      "scienti": 2588,
      "favor</w>": 2589,
      "known</w>": 2590,
      "dealers</w>": 2591,
      "continu": 2592,
      "certainly</w>": 2593,
      "Des": 2594,
      "Fri": 2595,
      "Up": 2596,
      "WD</w>": 2597,
      "chi": 2598,
      "fe</w>": 2599,
      "flights</w>": 2600,
      "once</w>": 2601,
      "program</w>": 2602,
      "worked</w>": 2603,
      "pped</w>": 2604,
      "door</w>": 2605,
      "down": 2606,
      "ush</w>": 2607,
      "app</w>": 2608,
      "commer": 2609,
      "features</w>": 2610,
      "excellent</w>": 2611,
      "fundamen": 2612,
      "extre": 2613,
      "sumer</w>": 2614,
      "latest</w>": 2615,
      "pass</w>": 2616,
      "customer</w>": 2617,
      "provide</w>": 2618,
      "People</w>": 2619,
      "atmosphere</w>": 2620,
      "Might</w>": 2621,
      "Ve": 2622,
      "ced</w>": 2623,
      "ily</w>": 2624,
      "pho": 2625,
      "tan": 2626,
      "was": 2627,
      "tho</w>": 2628,
      "across</w>": 2629,
      "deci": 2630,
      "opening</w>": 2631,
      "cast</w>": 2632,
      "conver": 2633,
      "uses</w>": 2634,
      "upd": 2635,
      "weight</w>": 2636,
      "planet</w>": 2637,
      "closer</w>": 2638,
      "currently</w>": 2639,
      "delivered</w>": 2640,
      "Canada</w>": 2641,
      "achieve</w>": 2642,
      "demand</w>": 2643,
      "answer</w>": 2644,
      "Fre": 2645,
      "NY": 2646,
      "cla": 2647,
      "cent</w>": 2648,
      "gar": 2649,
      "hun": 2650,
      "ramp</w>": 2651,
      "song</w>": 2652,
      "tful</w>": 2653,
      "altitude</w>": 2654,
      "dio</w>": 2655,
      "pot": 2656,
      "moder": 2657,
      "creating</w>": 2658,
      "fini": 2659,
      "descri": 2660,
      "aller</w>": 2661,
      "entially</w>": 2662,
      "propul": 2663,
      "North</w>": 2664,
      "torque</w>": 2665,
      "intelligence</w>": 2666,
      "CH": 2667,
      "Lon": 2668,
      "Ob": 2669,
      "Res": 2670,
      "gen": 2671,
      "hour</w>": 2672,
      "huge</w>": 2673,
      "ize</w>": 2674,
      "tm": 2675,
      "tou": 2676,
      "vate</w>": 2677,
      "oner</w>": 2678,
      "alone</w>": 2679,
      "combus": 2680,
      "pod</w>": 2681,
      "contr": 2682,
      "quar": 2683,
      "tube</w>": 2684,
      "flying</w>": 2685,
      "crash</w>": 2686,
      "seeing</w>": 2687,
      "Internet</w>": 2688,
      "frame</w>": 2689,
      "density</w>": 2690,
      "significant</w>": 2691,
      "HW2</w>": 2692,
      "Much</w>": 2693,
      "combustion</w>": 2694,
      "60</w>": 2695,
      "ASA</w>": 2696,
      "Mach</w>": 2697,
      "NASA</w>": 2698,
      "Sem": 2699,
      "av": 2700,
      "cat</w>": 2701,
      "send</w>": 2702,
      "rest</w>": 2703,
      "reli": 2704,
      "ested</w>": 2705,
      "raise</w>": 2706,
      "mation</w>": 2707,
      "haps</w>": 2708,
      "below</w>": 2709,
      "leading</w>": 2710,
      "alls</w>": 2711,
      "gravity</w>": 2712,
      "turb": 2713,
      "fund</w>": 2714,
      "electricity</w>": 2715,
      "theres</w>": 2716,
      "shield</w>": 2717,
      "wait</w>": 2718,
      "Too</w>": 2719,
      "gether</w>": 2720,
      "simple</w>": 2721,
      "picture</w>": 2722,
      "afford": 2723,
      "commercial</w>": 2724,
      "CH4</w>": 2725,
      "Bl": 2726,
      "SF</w>": 2727,
      "Times</w>": 2728,
      "ain</w>": 2729,
      "hell</w>": 2730,
      "od": 2731,
      "wish</w>": 2732,
      "watch": 2733,
      "ins": 2734,
      "rema": 2735,
      "itch</w>": 2736,
      "greater</w>": 2737,
      "Ext": 2738,
      "steering</w>": 2739,
      "selves</w>": 2740,
      "charging</w>": 2741,
      "publish</w>": 2742,
      "passed</w>": 2743,
      "require</w>": 2744,
      "special</w>": 2745,
      "investig": 2746,
      "named</w>": 2747,
      "Big</w>": 2748,
      "results</w>": 2749,
      "Br": 2750,
      "Cant</w>": 2751,
      "Id</w>": 2752,
      "Lat": 2753,
      "Sim": 2754,
      "btw</w>": 2755,
      "global</w>": 2756,
      "hate</w>": 2757,
      "rd</w>": 2758,
      "inju": 2759,
      "though": 2760,
      "relea": 2761,
      "ester": 2762,
      "sters</w>": 2763,
      "Thur": 2764,
      "rapi": 2765,
      "vision</w>": 2766,
      "event</w>": 2767,
      "Production</w>": 2768,
      "deal</w>": 2769,
      "deaths</w>": 2770,
      "mista": 2771,
      "numbers</w>": 2772,
      "request</w>": 2773,
      "competition</w>": 2774,
      "placed</w>": 2775,
      "check</w>": 2776,
      "extreme</w>": 2777,
      "rapidly</w>": 2778,
      "Bec": 2779,
      "Every": 2780,
      "bir": 2781,
      "bought</w>": 2782,
      "cell</w>": 2783,
      "dark</w>": 2784,
      "hear</w>": 2785,
      "ram": 2786,
      "says</w>": 2787,
      "wed</w>": 2788,
      "ind</w>": 2789,
      "ang</w>": 2790,
      "orts</w>": 2791,
      "easi": 2792,
      "death</w>": 2793,
      "sigh</w>": 2794,
      "ficial</w>": 2795,
      "Motor</w>": 2796,
      "ounts</w>": 2797,
      "together</w>": 2798,
      "theyre</w>": 2799,
      "aff": 2800,
      "landed</w>": 2801,
      "improved</w>": 2802,
      "Haw": 2803,
      "count</w>": 2804,
      "surface</w>": 2805,
      "outside</w>": 2806,
      "gasoline</w>": 2807,
      "mention</w>": 2808,
      "AC</w>": 2809,
      "Rec": 2810,
      "Wi": 2811,
      "ak": 2812,
      "hat</w>": 2813,
      "ior</w>": 2814,
      "sent</w>": 2815,
      "ual</w>": 2816,
      "arant": 2817,
      "These</w>": 2818,
      "law</w>": 2819,
      "sun</w>": 2820,
      "capac": 2821,
      "eets</w>": 2822,
      "concer": 2823,
      "fortun": 2824,
      "tried</w>": 2825,
      "prices</w>": 2826,
      "andy</w>": 2827,
      "rend</w>": 2828,
      "000</w>": 2829,
      "ized</w>": 2830,
      "Eng": 2831,
      "latter</w>": 2832,
      "questions</w>": 2833,
      "deployed</w>": 2834,
      "investors</w>": 2835,
      "10": 2836,
      "Do</w>": 2837,
      "Mis": 2838,
      "Over</w>": 2839,
      "Sum": 2840,
      "Uni": 2841,
      "clea": 2842,
      "dy": 2843,
      "ee</w>": 2844,
      "ke": 2845,
      "mess": 2846,
      "nor</w>": 2847,
      "otherwise</w>": 2848,
      "pul": 2849,
      "situ": 2850,
      "iness</w>": 2851,
      "else</w>": 2852,
      "une</w>": 2853,
      "massive</w>": 2854,
      "cape</w>": 2855,
      "quality</w>": 2856,
      "credi": 2857,
      "landings</w>": 2858,
      "secon": 2859,
      "windo": 2860,
      "deliver": 2861,
      "sign</w>": 2862,
      "Engin": 2863,
      "materi": 2864,
      "everything</w>": 2865,
      "shorts</w>": 2866,
      "sources</w>": 2867,
      "1000</w>": 2868,
      "powered</w>": 2869,
      "Time</w>": 2870,
      "suspension</w>": 2871,
      "esterday</w>": 2872,
      "clean</w>": 2873,
      "Ama": 2874,
      "Jap": 2875,
      "Tu": 2876,
      "Tri": 2877,
      "Vi": 2878,
      "ca</w>": 2879,
      "cal": 2880,
      "ion</w>": 2881,
      "lab": 2882,
      "ply</w>": 2883,
      "roughly</w>": 2884,
      "tel": 2885,
      "vent</w>": 2886,
      "err": 2887,
      "aring</w>": 2888,
      "role</w>": 2889,
      "iling</w>": 2890,
      "store</w>": 2891,
      "station</w>": 2892,
      "star</w>": 2893,
      "deca": 2894,
      "unk</w>": 2895,
      "ney</w>": 2896,
      "versions</w>": 2897,
      "visit</w>": 2898,
      "fig": 2899,
      "care": 2900,
      "adding</w>": 2901,
      "music</w>": 2902,
      "gover": 2903,
      "solve</w>": 2904,
      "earlier</w>": 2905,
      "guys</w>": 2906,
      "underway</w>": 2907,
      "wind</w>": 2908,
      "throt": 2909,
      "union</w>": 2910,
      "kinda</w>": 2911,
      "Important</w>": 2912,
      "Force</w>": 2913,
      "discus": 2914,
      "thinking</w>": 2915,
      "particul": 2916,
      "avoid</w>": 2917,
      "Because</w>": 2918,
      "fortunately</w>": 2919,
      "Blo": 2920,
      "Pla": 2921,
      "Sec": 2922,
      "Your</w>": 2923,
      "found</w>": 2924,
      "gro": 2925,
      "just": 2926,
      "kers</w>": 2927,
      "wil": 2928,
      "ines</w>": 2929,
      "erence</w>": 2930,
      "ensive</w>": 2931,
      "lose</w>": 2932,
      "char": 2933,
      "Mode</w>": 2934,
      "told</w>": 2935,
      "heal": 2936,
      "comput": 2937,
      "strong</w>": 2938,
      "syn": 2939,
      "comments</w>": 2940,
      "anywhere</w>": 2941,
      "turned</w>": 2942,
      "ical</w>": 2943,
      "flu": 2944,
      "critic": 2945,
      "Does": 2946,
      "personally</w>": 2947,
      "thorne</w>": 2948,
      "billion</w>": 2949,
      "Semi</w>": 2950,
      "Hawthorne</w>": 2951,
      "Are</w>": 2952,
      "Lot</w>": 2953,
      "Pri": 2954,
      "arent</w>": 2955,
      "fam": 2956,
      "ges</w>": 2957,
      "ids</w>": 2958,
      "nd</w>": 2959,
      "realize</w>": 2960,
      "robo": 2961,
      "aming</w>": 2962,
      "lied</w>": 2963,
      "proto": 2964,
      "opo": 2965,
      "adver": 2966,
      "ember</w>": 2967,
      "board</w>": 2968,
      "mean": 2969,
      "meeting</w>": 2970,
      "aliens</w>": 2971,
      "heating</w>": 2972,
      "closed</w>": 2973,
      "becom": 2974,
      "Max</w>": 2975,
      "simply</w>": 2976,
      "break": 2977,
      "directly</w>": 2978,
      "distance</w>": 2979,
      "stronau": 2980,
      "received</w>": 2981,
      "civilization</w>": 2982,
      "rules</w>": 2983,
      "assembly</w>": 2984,
      "avg</w>": 2985,
      "capacity</w>": 2986,
      "Ba": 2987,
      "Boc": 2988,
      "Chi": 2989,
      "TX</w>": 2990,
      "ai</w>": 2991,
      "aw</w>": 2992,
      "dang": 2993,
      "double</w>": 2994,
      "gle</w>": 2995,
      "her": 2996,
      "hand</w>": 2997,
      "rw</w>": 2998,
      "infor": 2999,
      "rel": 3000,
      "ented</w>": 3001,
      "lots</w>": 3002,
      "neural</w>": 3003,
      "disa": 3004,
      "vis": 3005,
      "tral</w>": 3006,
      "spend</w>": 3007,
      "condi": 3008,
      "immedi": 3009,
      "separ": 3010,
      "park</w>": 3011,
      "tionary</w>": 3012,
      "stic</w>": 3013,
      "auto": 3014,
      "guy</w>": 3015,
      "guess</w>": 3016,
      "depen": 3017,
      "Doge</w>": 3018,
      "geo": 3019,
      "braking</w>": 3020,
      "requires</w>": 3021,
      "biggest</w>": 3022,
      "demo</w>": 3023,
      "Better</w>": 3024,
      "fore": 3025,
      "effect</w>": 3026,
      "confirmed</w>": 3027,
      "wanted</w>": 3028,
      "zzle</w>": 3029,
      "analysis</w>": 3030,
      "written</w>": 3031,
      "running</w>": 3032,
      "London</w>": 3033,
      "tmrw</w>": 3034,
      "govern": 3035,
      "Boca</w>": 3036,
      "By</w>": 3037,
      "Cor": 3038,
      "Cur": 3039,
      "Ser": 3040,
      "equi": 3041,
      "lity</w>": 3042,
      "na</w>": 3043,
      "rou": 3044,
      "them": 3045,
      "logi": 3046,
      "den</w>": 3047,
      "ury</w>": 3048,
      "oogle</w>": 3049,
      "exam": 3050,
      "fic": 3051,
      "coast</w>": 3052,
      "fort</w>": 3053,
      "products</w>": 3054,
      "thru</w>": 3055,
      "height</w>": 3056,
      "minor</w>": 3057,
      "explo": 3058,
      "Any": 3059,
      "harder</w>": 3060,
      "surpri": 3061,
      "craft</w>": 3062,
      "carry</w>": 3063,
      "pass": 3064,
      "sale</w>": 3065,
      "Both</w>": 3066,
      "response</w>": 3067,
      "Easter</w>": 3068,
      "efficiency</w>": 3069,
      "Techni": 3070,
      "original</w>": 3071,
      "An</w>": 3072,
      "Pl": 3073,
      "bank": 3074,
      "fer</w>": 3075,
      "fan</w>": 3076,
      "kil": 3077,
      "kee": 3078,
      "mm</w>": 3079,
      "inj": 3080,
      "lift</w>": 3081,
      "ric</w>": 3082,
      "demo": 3083,
      "pods</w>": 3084,
      "probl": 3085,
      "prior</w>": 3086,
      "smoo": 3087,
      "smaller</w>": 3088,
      "boost</w>": 3089,
      "ically</w>": 3090,
      "feels</w>": 3091,
      "Top</w>": 3092,
      "blog</w>": 3093,
      "consider</w>": 3094,
      "exist</w>": 3095,
      "normal</w>": 3096,
      "necessary</w>": 3097,
      "negative</w>": 3098,
      "challeng": 3099,
      "journali": 3100,
      "affordable</w>": 3101,
      "Summon</w>": 3102,
      "30": 3103,
      "Could</w>": 3104,
      "Gu": 3105,
      "House</w>": 3106,
      "Sm": 3107,
      "are": 3108,
      "aero</w>": 3109,
      "eing</w>": 3110,
      "hit</w>": 3111,
      "ide</w>": 3112,
      "mea": 3113,
      "mid</w>": 3114,
      "ners</w>": 3115,
      "rating</w>": 3116,
      "vari": 3117,
      "inside</w>": 3118,
      "tis": 3119,
      "acci": 3120,
      "options</w>": 3121,
      "cases</w>": 3122,
      "tower</w>": 3123,
      "ade</w>": 3124,
      "com</w>": 3125,
      "seat</w>": 3126,
      "great": 3127,
      "irre": 3128,
      "hot": 3129,
      "hold": 3130,
      "evol": 3131,
      "clari": 3132,
      "India</w>": 3133,
      "bio": 3134,
      "supply</w>": 3135,
      "stores</w>": 3136,
      "highest</w>": 3137,
      "engineers</w>": 3138,
      "gging</w>": 3139,
      "color</w>": 3140,
      "instead</w>": 3141,
      "considered</w>": 3142,
      "structure</w>": 3143,
      "anti</w>": 3144,
      "cannot</w>": 3145,
      "ustin</w>": 3146,
      "Joh": 3147,
      "Isp</w>": 3148,
      "manufacturing</w>": 3149,
      "simulation</w>": 3150,
      "Berlin</w>": 3151,
      "Aw": 3152,
      "Bro": 3153,
      "Op": 3154,
      "Read</w>": 3155,
      "South</w>": 3156,
      "Wa": 3157,
      "bot</w>": 3158,
      "ef": 3159,
      "ema": 3160,
      "fall</w>": 3161,
      "table</w>": 3162,
      "tdown</w>": 3163,
      "yers</w>": 3164,
      "yesterday</w>": 3165,
      "antly</w>": 3166,
      "acti": 3167,
      "The": 3168,
      "bus</w>": 3169,
      "Teslas</w>": 3170,
      "rap": 3171,
      "eted</w>": 3172,
      "premi": 3173,
      "parking</w>": 3174,
      "tweets</w>": 3175,
      "internal</w>": 3176,
      "Chec": 3177,
      "certain</w>": 3178,
      "including</w>": 3179,
      "acceleration</w>": 3180,
      "larger</w>": 3181,
      "understand</w>": 3182,
      "button</w>": 3183,
      "initial</w>": 3184,
      "webcast</w>": 3185,
      "address</w>": 3186,
      "potential</w>": 3187,
      "injuries</w>": 3188,
      "20</w>": 3189,
      "Car": 3190,
      "IP</w>": 3191,
      "Se": 3192,
      "ative</w>": 3193,
      "ddit</w>": 3194,
      "ist</w>": 3195,
      "mas</w>": 3196,
      "moun": 3197,
      "mid": 3198,
      "ss": 3199,
      "smo": 3200,
      "snow</w>": 3201,
      "oub": 3202,
      "comb": 3203,
      "fication</w>": 3204,
      "sold</w>": 3205,
      "cker</w>": 3206,
      "const": 3207,
      "words</w>": 3208,
      "doors</w>": 3209,
      "cir": 3210,
      "father</w>": 3211,
      "alized</w>": 3212,
      "saw</w>": 3213,
      "expla": 3214,
      "smart</w>": 3215,
      "interior</w>": 3216,
      "plane</w>": 3217,
      "present</w>": 3218,
      "correc": 3219,
      "cracy</w>": 3220,
      "upgraded</w>": 3221,
      "eason</w>": 3222,
      "shortly</w>": 3223,
      "drone</w>": 3224,
      "storage</w>": 3225,
      "Beta</w>": 3226,
      "largest</w>": 3227,
      "letter</w>": 3228,
      "Friday</w>": 3229,
      "bankrup": 3230,
      "Car</w>": 3231,
      "Got</w>": 3232,
      "Google</w>": 3233,
      "NN</w>": 3234,
      "Or</w>": 3235,
      "ball</w>": 3236,
      "baby</w>": 3237,
      "dying</w>": 3238,
      "fact</w>": 3239,
      "nature</w>": 3240,
      "pat": 3241,
      "pite</w>": 3242,
      "tre": 3243,
      "revie": 3244,
      "tight</w>": 3245,
      "stri": 3246,
      "lic</w>": 3247,
      "buying</w>": 3248,
      "ector</w>": 3249,
      "ops</w>": 3250,
      "opter</w>": 3251,
      "die</w>": 3252,
      "utting</w>": 3253,
      "fusion</w>": 3254,
      "argu": 3255,
      "finite</w>": 3256,
      "despite</w>": 3257,
      "page</w>": 3258,
      "anden": 3259,
      "except</w>": 3260,
      "upgrades</w>": 3261,
      "hysic": 3262,
      "Boeing</w>": 3263,
      "utility</w>": 3264,
      "reasons</w>": 3265,
      "starts</w>": 3266,
      "obviously</w>": 3267,
      "Meant</w>": 3268,
      "supporting</w>": 3269,
      "repair</w>": 3270,
      "handle</w>": 3271,
      "precision</w>": 3272,
      "scientists</w>": 3273,
      "material</w>": 3274,
      "throttle</w>": 3275,
      "stronauts</w>": 3276,
      "50": 3277,
      "Base</w>": 3278,
      "CE": 3279,
      "Cen": 3280,
      "Col": 3281,
      "Fair</w>": 3282,
      "Foundation</w>": 3283,
      "Landing</w>": 3284,
      "Right</w>": 3285,
      "bay</w>": 3286,
      "cli": 3287,
      "da": 3288,
      "fter</w>": 3289,
      "ie</w>": 3290,
      "ris</w>": 3291,
      "round</w>": 3292,
      "sell": 3293,
      "wal": 3294,
      "wom": 3295,
      "thre": 3296,
      "enter": 3297,
      "atur": 3298,
      "neu": 3299,
      "map</w>": 3300,
      "etc</w>": 3301,
      "cash</w>": 3302,
      "nice</w>": 3303,
      "tricky</w>": 3304,
      "aged</w>": 3305,
      "weet</w>": 3306,
      "expan": 3307,
      "hypersonic</w>": 3308,
      "incl</w>": 3309,
      "reason": 3310,
      "Auto</w>": 3311,
      "weap": 3312,
      "deploy</w>": 3313,
      "config</w>": 3314,
      "function</w>": 3315,
      "legal</w>": 3316,
      "incredible</w>": 3317,
      "Highly</w>": 3318,
      "myself</w>": 3319,
      "Vegas</w>": 3320,
      "finished</w>": 3321,
      "Japan</w>": 3322,
      "particularly</w>": 3323,
      "government</w>": 3324,
      "holders</w>": 3325,
      "Awesome</w>": 3326,
      "500</w>": 3327,
      "Austin</w>": 3328,
      "Fi": 3329,
      "Ger": 3330,
      "Hum": 3331,
      "Sp": 3332,
      "Sy": 3333,
      "Sen": 3334,
      "Wish</w>": 3335,
      "autopilot</w>": 3336,
      "ahead</w>": 3337,
      "co</w>": 3338,
      "canc": 3339,
      "fre": 3340,
      "goo": 3341,
      "marily</w>": 3342,
      "ular</w>": 3343,
      "win</w>": 3344,
      "thium</w>": 3345,
      "ered</w>": 3346,
      "rela": 3347,
      "ana</w>": 3348,
      "tio</w>": 3349,
      "orted</w>": 3350,
      "ators</w>": 3351,
      "simil": 3352,
      "new": 3353,
      "Testing</w>": 3354,
      "ched</w>": 3355,
      "Mostly</w>": 3356,
      "construc": 3357,
      "impossible</w>": 3358,
      "begin": 3359,
      "termin": 3360,
      "fake</w>": 3361,
      "rocks</w>": 3362,
      "Who</w>": 3363,
      "Int": 3364,
      "tures</w>": 3365,
      "sometimes</w>": 3366,
      "plans</w>": 3367,
      "attack</w>": 3368,
      "survi": 3369,
      "appreciation</w>": 3370,
      "controll": 3371,
      "inte": 3372,
      "outcome</w>": 3373,
      "Life</w>": 3374,
      "operation</w>": 3375,
      "Note</w>": 3376,
      "starting</w>": 3377,
      "lines</w>": 3378,
      "Marti": 3379,
      "Turns</w>": 3380,
      "Russian</w>": 3381,
      "autonomous</w>": 3382,
      "wasn</w>": 3383,
      "prototype</w>": 3384,
      "themselves</w>": 3385,
      "rapid</w>": 3386,
      "BF": 3387,
      "Bri": 3388,
      "GM</w>": 3389,
      "Hi</w>": 3390,
      "Pa": 3391,
      "Pu": 3392,
      "bile</w>": 3393,
      "din": 3394,
      "hur": 3395,
      "od</w>": 3396,
      "pump</w>": 3397,
      "vation</w>": 3398,
      "resi": 3399,
      "resources</w>": 3400,
      "enab": 3401,
      "def": 3402,
      "prof": 3403,
      "ratio</w>": 3404,
      "diff</w>": 3405,
      "vidence</w>": 3406,
      "che": 3407,
      "chil": 3408,
      "poll": 3409,
      "fired</w>": 3410,
      "she</w>": 3411,
      "sooner</w>": 3412,
      "conven": 3413,
      "worse</w>": 3414,
      "sea</w>": 3415,
      "crew</w>": 3416,
      "mont</w>": 3417,
      "even": 3418,
      "tribu": 3419,
      "produced</w>": 3420,
      "driven</w>": 3421,
      "minim": 3422,
      "strange</w>": 3423,
      "expon": 3424,
      "step</w>": 3425,
      "turn</w>": 3426,
      "ico</w>": 3427,
      "happening</w>": 3428,
      "Dep": 3429,
      "humans</w>": 3430,
      "winds</w>": 3431,
      "output</w>": 3432,
      "Live</w>": 3433,
      "share": 3434,
      "respect</w>": 3435,
      "Excellent</w>": 3436,
      "Fremont</w>": 3437,
      "adverti": 3438,
      "route</w>": 3439,
      "challenges</w>": 3440,
      "BFR</w>": 3441,
      "Bit": 3442,
      "EV</w>": 3443,
      "His</w>": 3444,
      "MT</w>": 3445,
      "SU": 3446,
      "Str": 3447,
      "Sig": 3448,
      "Sing": 3449,
      "dth</w>": 3450,
      "glad</w>": 3451,
      "jects</w>": 3452,
      "ssing</w>": 3453,
      "ssed</w>": 3454,
      "indepen": 3455,
      "repor": 3456,
      "remain</w>": 3457,
      "arti": 3458,
      "tires</w>": 3459,
      "escape</w>": 3460,
      "stren": 3461,
      "delay</w>": 3462,
      "urity</w>": 3463,
      "coll": 3464,
      "ford</w>": 3465,
      "irl</w>": 3466,
      "umin": 3467,
      "width</w>": 3468,
      "minus</w>": 3469,
      "entives</w>": 3470,
      "improves</w>": 3471,
      "Reports</w>": 3472,
      "summer</w>": 3473,
      "dreds</w>": 3474,
      "returned</w>": 3475,
      "development</w>": 3476,
      "position</w>": 3477,
      "provided</w>": 3478,
      "itude</w>": 3479,
      "teams</w>": 3480,
      "taxes</w>": 3481,
      "cryo</w>": 3482,
      "Elec": 3483,
      "fundamental</w>": 3484,
      "quarter</w>": 3485,
      "insane</w>": 3486,
      "investigate</w>": 3487,
      "problems</w>": 3488,
      "integr": 3489,
      "streng": 3490,
      "AWD</w>": 3491,
      "DC</w>": 3492,
      "Mr</w>": 3493,
      "Py": 3494,
      "Team</w>": 3495,
      "Trend</w>": 3496,
      "Va": 3497,
      "lbs</w>": 3498,
      "min</w>": 3499,
      "non": 3500,
      "pse</w>": 3501,
      "ption</w>": 3502,
      "rare</w>": 3503,
      "set": 3504,
      "thon</w>": 3505,
      "ert</w>": 3506,
      "eres</w>": 3507,
      "eral</w>": 3508,
      "report</w>": 3509,
      "iter</w>": 3510,
      "del": 3511,
      "nozzle</w>": 3512,
      "supersonic</w>": 3513,
      "vir": 3514,
      "tril": 3515,
      "contribu": 3516,
      "world": 3517,
      "misleading</w>": 3518,
      "graph": 3519,
      "strali": 3520,
      "Supp": 3521,
      "tionality</w>": 3522,
      "interview</w>": 3523,
      "subject</w>": 3524,
      "Like</w>": 3525,
      "Australi": 3526,
      "reusability</w>": 3527,
      "endable</w>": 3528,
      "Monday</w>": 3529,
      "powerful</w>": 3530,
      "black</w>": 3531,
      "serious</w>": 3532,
      "seriously</w>": 3533,
      "suggestions</w>": 3534,
      "choice</w>": 3535,
      "levels</w>": 3536,
      "turbop": 3537,
      "seconds</w>": 3538,
      "disagree</w>": 3539,
      "worldwide</w>": 3540,
      "Batter": 3541,
      "Gen": 3542,
      "Lu": 3543,
      "Me</w>": 3544,
      "V1</w>": 3545,
      "came</w>": 3546,
      "ged</w>": 3547,
      "marg": 3548,
      "ox</w>": 3549,
      "pha</w>": 3550,
      "thous": 3551,
      "ano": 3552,
      "tiles</w>": 3553,
      "onal</w>": 3554,
      "allowed</w>": 3555,
      "log": 3556,
      "sident</w>": 3557,
      "ural": 3558,
      "rather</w>": 3559,
      "opti": 3560,
      "ckup</w>": 3561,
      "constra": 3562,
      "added</w>": 3563,
      "tap</w>": 3564,
      "dum": 3565,
      "dule</w>": 3566,
      "quo": 3567,
      "irs</w>": 3568,
      "driver</w>": 3569,
      "alien</w>": 3570,
      "alling</w>": 3571,
      "millions</w>": 3572,
      "ssil</w>": 3573,
      "interested</w>": 3574,
      "sections</w>": 3575,
      "essing</w>": 3576,
      "counter": 3577,
      "extend</w>": 3578,
      "write</w>": 3579,
      "warming</w>": 3580,
      "playing</w>": 3581,
      "metric</w>": 3582,
      "study</w>": 3583,
      "deploy": 3584,
      "existing</w>": 3585,
      "tested</w>": 3586,
      "Neural": 3587,
      "aircraft</w>": 3588,
      "drau": 3589,
      "holding</w>": 3590,
      "transfer</w>": 3591,
      "panels</w>": 3592,
      "focus</w>": 3593,
      "subsidies</w>": 3594,
      "aka</w>": 3595,
      "Amazing</w>": 3596,
      "Plaid</w>": 3597,
      "immediately</w>": 3598,
      "similar</w>": 3599,
      "100</w>": 3600,
      "Ari": 3601,
      "Dam": 3602,
      "Kin": 3603,
      "MA</w>": 3604,
      "Oc": 3605,
      "Physic": 3606,
      "Ver": 3607,
      "ared</w>": 3608,
      "cou": 3609,
      "cut</w>": 3610,
      "cells</w>": 3611,
      "evidence</w>": 3612,
      "gone</w>": 3613,
      "job": 3614,
      "kWh</w>": 3615,
      "tb": 3616,
      "tanks</w>": 3617,
      "ux</w>": 3618,
      "uster</w>": 3619,
      "indivi": 3620,
      "thread</w>": 3621,
      "rep": 3622,
      "arry</w>": 3623,
      "tivity</w>": 3624,
      "bug</w>": 3625,
      "magn": 3626,
      "verage</w>": 3627,
      "mobile</w>": 3628,
      "cap</w>": 3629,
      "soci": 3630,
      "ultra</w>": 3631,
      "conf": 3632,
      "holi": 3633,
      "finish</w>": 3634,
      "pushing</w>": 3635,
      "thruster</w>": 3636,
      "lands</w>": 3637,
      "minutes</w>": 3638,
      "mistic</w>": 3639,
      "servi": 3640,
      "grap": 3641,
      "account</w>": 3642,
      "improving</w>": 3643,
      "books</w>": 3644,
      "security</w>": 3645,
      "flamethrower</w>": 3646,
      "complex": 3647,
      "stored</w>": 3648,
      "highway</w>": 3649,
      "Consumer</w>": 3650,
      "Makes</w>": 3651,
      "generator</w>": 3652,
      "suming</w>": 3653,
      "started</w>": 3654,
      "mental</w>": 3655,
      "knows</w>": 3656,
      "achieved</w>": 3657,
      "Russia</w>": 3658,
      "posted</w>": 3659,
      "alley</w>": 3660,
      "messed</w>": 3661,
      "figure</w>": 3662,
      "patents</w>": 3663,
      "construction</w>": 3664,
      "Physics</w>": 3665,
      "jobs</w>": 3666,
      "magnitude</w>": 3667,
      "Ko": 3668,
      "Lit": 3669,
      "Na": 3670,
      "Sat</w>": 3671,
      "Sci": 3672,
      "Vanden": 3673,
      "bed</w>": 3674,
      "ban</w>": 3675,
      "clear": 3676,
      "gim": 3677,
      "izing</w>": 3678,
      "pful</w>": 3679,
      "pitch</w>": 3680,
      "reco": 3681,
      "tial</w>": 3682,
      "allowing</w>": 3683,
      "lish</w>": 3684,
      "locations</w>": 3685,
      "ridi": 3686,
      "elev": 3687,
      "magic</w>": 3688,
      "explan": 3689,
      "pose</w>": 3690,
      "posite</w>": 3691,
      "spent</w>": 3692,
      "Mom</w>": 3693,
      "adjust": 3694,
      "beer</w>": 3695,
      "istics</w>": 3696,
      "green</w>": 3697,
      "ign": 3698,
      "argo</w>": 3699,
      "box</w>": 3700,
      "meth": 3701,
      "meme</w>": 3702,
      "expect</w>": 3703,
      "anda</w>": 3704,
      "section</w>": 3705,
      "Making</w>": 3706,
      "valve</w>": 3707,
      "completely</w>": 3708,
      "hardcore</w>": 3709,
      "hydro": 3710,
      "acker</w>": 3711,
      "rollout</w>": 3712,
      "block</w>": 3713,
      "changing</w>": 3714,
      "capability</w>": 3715,
      "follow</w>": 3716,
      "filter</w>": 3717,
      "cooling</w>": 3718,
      "incredibly</w>": 3719,
      "moment</w>": 3720,
      "Asimo": 3721,
      "Design</w>": 3722,
      "situation</w>": 3723,
      "window</w>": 3724,
      "strength</w>": 3725,
      "Vandenberg</w>": 3726,
      "BC</w>": 3727,
      "Iron": 3728,
      "Part</w>": 3729,
      "Qu": 3730,
      "Valley</w>": 3731,
      "ben": 3732,
      "emo": 3733,
      "sation</w>": 3734,
      "thday</w>": 3735,
      "ret</w>": 3736,
      "remo": 3737,
      "resc": 3738,
      "arch</w>": 3739,
      "ork</w>": 3740,
      "ror</w>": 3741,
      "atever</w>": 3742,
      "ston</w>": 3743,
      "lium</w>": 3744,
      "Three</w>": 3745,
      "simul": 3746,
      "nose</w>": 3747,
      "sump": 3748,
      "extra</w>": 3749,
      "fied</w>": 3750,
      "fires</w>": 3751,
      "conv": 3752,
      "peri": 3753,
      "coin</w>": 3754,
      "coating</w>": 3755,
      "search</w>": 3756,
      "pack": 3757,
      "lege</w>": 3758,
      "bot": 3759,
      "lantic</w>": 3760,
      "primarily</w>": 3761,
      "gives</w>": 3762,
      "paint</w>": 3763,
      "Prob</w>": 3764,
      "turns</w>": 3765,
      "Review</w>": 3766,
      "angle</w>": 3767,
      "Chri": 3768,
      "earing</w>": 3769,
      "guarant": 3770,
      "possibly</w>": 3771,
      "generated</w>": 3772,
      "gave</w>": 3773,
      "annual</w>": 3774,
      "Raptors</w>": 3775,
      "college</w>": 3776,
      "develop</w>": 3777,
      "March</w>": 3778,
      "journey</w>": 3779,
      "accelerate</w>": 3780,
      "allows</w>": 3781,
      "holder</w>": 3782,
      "direction</w>": 3783,
      "loaded</w>": 3784,
      "regions</w>": 3785,
      "Given</w>": 3786,
      "increasing</w>": 3787,
      "sonic</w>": 3788,
      "Atlantic</w>": 3789,
      "flaps</w>": 3790,
      "hundreds</w>": 3791,
      "Extremely</w>": 3792,
      "Technically</w>": 3793,
      "mounted</w>": 3794,
      "SUV</w>": 3795,
      "Python</w>": 3796,
      "optimistic</w>": 3797,
      "After</w>": 3798,
      "Cl": 3799,
      "Fa": 3800,
      "Hon": 3801,
      "Here</w>": 3802,
      "Other</w>": 3803,
      "TS": 3804,
      "Try</w>": 3805,
      "York</w>": 3806,
      "aiming</w>": 3807,
      "bal": 3808,
      "catch</w>": 3809,
      "feed</w>": 3810,
      "ored</w>": 3811,
      "pes</w>": 3812,
      "sun": 3813,
      "swit": 3814,
      "tour</w>": 3815,
      "vali": 3816,
      "watch</w>": 3817,
      "zen</w>": 3818,
      "reduce</w>": 3819,
      "orid": 3820,
      "alumin": 3821,
      "ences</w>": 3822,
      "acks</w>": 3823,
      "states</w>": 3824,
      "abort</w>": 3825,
      "main": 3826,
      "maxim": 3827,
      "model</w>": 3828,
      "acting</w>": 3829,
      "import</w>": 3830,
      "faith</w>": 3831,
      "hole</w>": 3832,
      "monopo": 3833,
      "ages</w>": 3834,
      "hem</w>": 3835,
      "helium</w>": 3836,
      "cling</w>": 3837,
      "mini": 3838,
      "expensive</w>": 3839,
      "expendable</w>": 3840,
      "timate</w>": 3841,
      "helpful</w>": 3842,
      "exceeds</w>": 3843,
      "truly</w>": 3844,
      "ideas</w>": 3845,
      "intense</w>": 3846,
      "approach</w>": 3847,
      "voice</w>": 3848,
      "brain</w>": 3849,
      "operational</w>": 3850,
      "incentives</w>": 3851,
      "edul": 3852,
      "changed</w>": 3853,
      "developing</w>": 3854,
      "success</w>": 3855,
      "ville</w>": 3856,
      "echan": 3857,
      "Florid": 3858,
      "addressed</w>": 3859,
      "sequence</w>": 3860,
      "population</w>": 3861,
      "careful</w>": 3862,
      "Second</w>": 3863,
      "criticism</w>": 3864,
      "information</w>": 3865,
      "arguably</w>": 3866,
      "Neuralink</w>": 3867,
      "Florida</w>": 3868,
      "Bra": 3869,
      "CA</w>": 3870,
      "Del": 3871,
      "Did": 3872,
      "Fate</w>": 3873,
      "Is</w>": 3874,
      "Ni": 3875,
      "V9</w>": 3876,
      "V2</w>": 3877,
      "candy</w>": 3878,
      "mit": 3879,
      "nes": 3880,
      "peak</w>": 3881,
      "ry": 3882,
      "rs</w>": 3883,
      "sna": 3884,
      "tes</w>": 3885,
      "vector</w>": 3886,
      "insp": 3887,
      "resale</w>": 3888,
      "ark": 3889,
      "enge</w>": 3890,
      "illi": 3891,
      "lid</w>": 3892,
      "lithium</w>": 3893,
      "loy": 3894,
      "Tha": 3895,
      "died</w>": 3896,
      "whats</w>": 3897,
      "motors</w>": 3898,
      "ounded</w>": 3899,
      "consum": 3900,
      "fail</w>": 3901,
      "pressive</w>": 3902,
      "nition</w>": 3903,
      "ength</w>": 3904,
      "boat</w>": 3905,
      "through": 3906,
      "weve</w>": 3907,
      "excep": 3908,
      "funny</w>": 3909,
      "highly</w>": 3910,
      "crous</w>": 3911,
      "approved</w>": 3912,
      "remember</w>": 3913,
      "hydrau": 3914,
      "navig": 3915,
      "drops</w>": 3916,
      "capable</w>": 3917,
      "install": 3918,
      "school</w>": 3919,
      "Perhaps</w>": 3920,
      "functionality</w>": 3921,
      "Coast</w>": 3922,
      "ustice</w>": 3923,
      "website</w>": 3924,
      "floor</w>": 3925,
      "debate</w>": 3926,
      "whether</w>": 3927,
      "credibility</w>": 3928,
      "journalists</w>": 3929,
      "accident</w>": 3930,
      "weapons</w>": 3931,
      "Depends</w>": 3932,
      "Electri": 3933,
      "Battery</w>": 3934,
      "complexity</w>": 3935,
      "package</w>": 3936,
      "AA</w>": 3937,
      "FAA</w>": 3938,
      "Jup": 3939,
      "Needs</w>": 3940,
      "P100": 3941,
      "War": 3942,
      "cop": 3943,
      "cross</w>": 3944,
      "fur": 3945,
      "hind</w>": 3946,
      "met</w>": 3947,
      "otive</w>": 3948,
      "sad</w>": 3949,
      "tall</w>": 3950,
      "won": 3951,
      "retro": 3952,
      "refund</w>": 3953,
      "onna</w>": 3954,
      "along</w>": 3955,
      "sty": 3956,
      "lie</w>": 3957,
      "units</w>": 3958,
      "lam</w>": 3959,
      "sus</w>": 3960,
      "suit</w>": 3961,
      "worry</w>": 3962,
      "ads</w>": 3963,
      "dot</w>": 3964,
      "behalf</w>": 3965,
      "behind</w>": 3966,
      "plant</w>": 3967,
      "fault</w>": 3968,
      "affect</w>": 3969,
      "inging</w>": 3970,
      "twice</w>": 3971,
      "destin": 3972,
      "recent</w>": 3973,
      "probable</w>": 3974,
      "private</w>": 3975,
      "minute</w>": 3976,
      "entilat": 3977,
      "Any</w>": 3978,
      "solved</w>": 3979,
      "tural</w>": 3980,
      "Reddit</w>": 3981,
      "fewer</w>": 3982,
      "feeling</w>": 3983,
      "gun</w>": 3984,
      "truth</w>": 3985,
      "Supercharging</w>": 3986,
      "Headed</w>": 3987,
      "deliver</w>": 3988,
      "vast</w>": 3989,
      "stuff</w>": 3990,
      "Unfortunately</w>": 3991,
      "automotive</w>": 3992,
      "horiz": 3993,
      "schedul": 3994,
      "News</w>": 3995,
      "confident</w>": 3996,
      "regulators</w>": 3997,
      "image</w>": 3998,
      "process</w>": 3999,
      "spira": 4000,
      "offer</w>": 4001,
      "cryp": 4002,
      "increases</w>": 4003,
      "Sigh</w>": 4004,
      "birthday</w>": 4005,
      "injury</w>": 4006,
      "clarify</w>": 4007,
      "Australia</w>": 4008,
      "margin</w>": 4009,
      "logistics</w>": 4010,
      "Ariane</w>": 4011,
      "hydraulic</w>": 4012,
      "Jupiter</w>": 4013,
      "further</w>": 4014,
      "Boo": 4015,
      "Deep</w>": 4016,
      "Getting</w>": 4017,
      "Her": 4018,
      "Huge</w>": 4019,
      "June</w>": 4020,
      "OT": 4021,
      "astronauts</w>": 4022,
      "eg</w>": 4023,
      "ither</w>": 4024,
      "mk</w>": 4025,
      "menti": 4026,
      "sl": 4027,
      "sday</w>": 4028,
      "wear</w>": 4029,
      "wouldn</w>": 4030,
      "incorrect</w>": 4031,
      "reti": 4032,
      "oull</w>": 4033,
      "ent": 4034,
      "itable</w>": 4035,
      "sight</w>": 4036,
      "layer</w>": 4037,
      "ditional</w>": 4038,
      "sub</w>": 4039,
      "vil</w>": 4040,
      "exact</w>": 4041,
      "cave</w>": 4042,
      "solid</w>": 4043,
      "imp": 4044,
      "cient</w>": 4045,
      "paring</w>": 4046,
      "boys</w>": 4047,
      "Where</w>": 4048,
      "While</w>": 4049,
      "compelling</w>": 4050,
      "Indeed</w>": 4051,
      "Already</w>": 4052,
      "apply</w>": 4053,
      "Dec</w>": 4054,
      "ancing</w>": 4055,
      "heavi": 4056,
      "limit</w>": 4057,
      "sens": 4058,
      "Once</w>": 4059,
      "World</w>": 4060,
      "warran": 4061,
      "shiel": 4062,
      "tains</w>": 4063,
      "mark</w>": 4064,
      "President</w>": 4065,
      "universe</w>": 4066,
      "friends</w>": 4067,
      "places</w>": 4068,
      "purcha": 4069,
      "optimized</w>": 4070,
      "Crew</w>": 4071,
      "postp": 4072,
      "Thursday</w>": 4073,
      "Current</w>": 4074,
      "Check</w>": 4075,
      "Damn</w>": 4076,
      "consumers</w>": 4077,
      "AMA</w>": 4078,
      "Det": 4079,
      "Dee": 4080,
      "Hard</w>": 4081,
      "Jer": 4082,
      "Pac": 4083,
      "Sta": 4084,
      "Stop</w>": 4085,
      "Welcome</w>": 4086,
      "cum": 4087,
      "ific</w>": 4088,
      "jack": 4089,
      "kid</w>": 4090,
      "rc</w>": 4091,
      "ran</w>": 4092,
      "race</w>": 4093,
      "sweet</w>": 4094,
      "ves": 4095,
      "ventilat": 4096,
      "indeed</w>": 4097,
      "reser": 4098,
      "arm</w>": 4099,
      "alism</w>": 4100,
      "ention</w>": 4101,
      "itec": 4102,
      "acts</w>": 4103,
      "ster": 4104,
      "lives</w>": 4105,
      "licen": 4106,
      "ried</w>": 4107,
      "righ": 4108,
      "promis": 4109,
      "las": 4110,
      "dicrous</w>": 4111,
      "maj": 4112,
      "makers</w>": 4113,
      "fight</w>": 4114,
      "shdown</w>": 4115,
      "soft</w>": 4116,
      "social</w>": 4117,
      "ounce</w>": 4118,
      "adjust</w>": 4119,
      "duty</w>": 4120,
      "fail": 4121,
      "preven": 4122,
      "part": 4123,
      "drives</w>": 4124,
      "alist</w>": 4125,
      "heart</w>": 4126,
      "giving</w>": 4127,
      "stations</w>": 4128,
      "Always</w>": 4129,
      "communi": 4130,
      "train</w>": 4131,
      "ances</w>": 4132,
      "head": 4133,
      "transit</w>": 4134,
      "summary</w>": 4135,
      "International</w>": 4136,
      "talking</w>": 4137,
      "propag": 4138,
      "student</w>": 4139,
      "drop</w>": 4140,
      "rolls</w>": 4141,
      "links</w>": 4142,
      "accelerating</w>": 4143,
      "cantly</w>": 4144,
      "dealer</w>": 4145,
      "effective</w>": 4146,
      "loads</w>": 4147,
      "Order</w>": 4148,
      "architec": 4149,
      "reaching</w>": 4150,
      "updated</w>": 4151,
      "contract</w>": 4152,
      "affects</w>": 4153,
      "family</w>": 4154,
      "John": 4155,
      "Theyre</w>": 4156,
      "expansion</w>": 4157,
      "eventually</w>": 4158,
      "Bitcoin</w>": 4159,
      "explanation</w>": 4160,
      "sumption</w>": 4161,
      "aluminum</w>": 4162,
      "Pacific</w>": 4163,
      "Area</w>": 4164,
      "Cam": 4165,
      "From</w>": 4166,
      "Flight</w>": 4167,
      "HT": 4168,
      "Had</w>": 4169,
      "IM": 4170,
      "LZ</w>": 4171,
      "Larry</w>": 4172,
      "Mex": 4173,
      "Never</w>": 4174,
      "RIP</w>": 4175,
      "Sept</w>": 4176,
      "UI</w>": 4177,
      "Upper</w>": 4178,
      "Vs</w>": 4179,
      "Yay</w>": 4180,
      "batt": 4181,
      "cat": 4182,
      "class</w>": 4183,
      "dd": 4184,
      "ey": 4185,
      "flies</w>": 4186,
      "gust</w>": 4187,
      "ip": 4188,
      "mechan": 4189,
      "oke</w>": 4190,
      "ro</w>": 4191,
      "ught</w>": 4192,
      "youd</w>": 4193,
      "inted</w>": 4194,
      "erous</w>": 4195,
      "refin": 4196,
      "reover</w>": 4197,
      "angh": 4198,
      "tially</w>": 4199,
      "aco</w>": 4200,
      "acopter</w>": 4201,
      "sted</w>": 4202,
      "standing</w>": 4203,
      "liber": 4204,
      "suck</w>": 4205,
      "exter": 4206,
      "exacopter</w>": 4207,
      "trust</w>": 4208,
      "sports</w>": 4209,
      "toff</w>": 4210,
      "docking</w>": 4211,
      "umps</w>": 4212,
      "leader</w>": 4213,
      "lane</w>": 4214,
      "save</w>": 4215,
      "sym": 4216,
      "Sun</w>": 4217,
      "score</w>": 4218,
      "training</w>": 4219,
      "anging</w>": 4220,
      "Short</w>": 4221,
      "Shangh": 4222,
      "exceed</w>": 4223,
      "Lock": 4224,
      "extending</w>": 4225,
      "cru": 4226,
      "central</w>": 4227,
      "transi": 4228,
      "bert</w>": 4229,
      "advan": 4230,
      "Totally</w>": 4231,
      "hardest</w>": 4232,
      "Goal</w>": 4233,
      "believ": 4234,
      "showing</w>": 4235,
      "thinks</w>": 4236,
      "ilicon</w>": 4237,
      "racing</w>": 4238,
      "wheels</w>": 4239,
      "Buil": 4240,
      "Drive</w>": 4241,
      "tane": 4242,
      "updates</w>": 4243,
      "propulsion</w>": 4244,
      "Latest</w>": 4245,
      "mistake</w>": 4246,
      "easily</w>": 4247,
      "Tues</w>": 4248,
      "View</w>": 4249,
      "computing</w>": 4250,
      "conditions</w>": 4251,
      "30pm</w>": 4252,
      "free": 4253,
      "Vac</w>": 4254,
      "sett": 4255,
      "delta</w>": 4256,
      "Support</w>": 4257,
      "dumb</w>": 4258,
      "Asimov</w>": 4259,
      "simultane": 4260,
      "propaganda</w>": 4261,
      "Mexico</w>": 4262,
      "Shanghai</w>": 4263,
      "19</w>": 4264,
      "Dou": 4265,
      "GP": 4266,
      "RU": 4267,
      "Rem": 4268,
      "Ship</w>": 4269,
      "Since</w>": 4270,
      "TE": 4271,
      "Tw": 4272,
      "Til": 4273,
      "Using</w>": 4274,
      "Wed</w>": 4275,
      "apart</w>": 4276,
      "bill</w>": 4277,
      "blow</w>": 4278,
      "cro": 4279,
      "doub": 4280,
      "gur": 4281,
      "none</w>": 4282,
      "nounc": 4283,
      "ring</w>": 4284,
      "selling</w>": 4285,
      "inhi": 4286,
      "input</w>": 4287,
      "thy</w>": 4288,
      "reports</w>": 4289,
      "tip</w>": 4290,
      "ordered</w>": 4291,
      "enem": 4292,
      "entation</w>": 4293,
      "demon": 4294,
      "dedic": 4295,
      "ecting</w>": 4296,
      "progr": 4297,
      "ete</w>": 4298,
      "ches</w>": 4299,
      "tro</w>": 4300,
      "ults</w>": 4301,
      "worst</w>": 4302,
      "cow": 4303,
      "packs</w>": 4304,
      "pedes": 4305,
      "ingu": 4306,
      "leak</w>": 4307,
      "appears</w>": 4308,
      "accor": 4309,
      "Announc": 4310,
      "Requi": 4311,
      "planes</w>": 4312,
      "helping</w>": 4313,
      "limits</w>": 4314,
      "writing</w>": 4315,
      "amatically</w>": 4316,
      "talent</w>": 4317,
      "brakes</w>": 4318,
      "damage</w>": 4319,
      "recommended</w>": 4320,
      "Merry</w>": 4321,
      "launching</w>": 4322,
      "competitive</w>": 4323,
      "drag</w>": 4324,
      "break</w>": 4325,
      "stream</w>": 4326,
      "semi</w>": 4327,
      "Adding</w>": 4328,
      "backup</w>": 4329,
      "Mass</w>": 4330,
      "technical</w>": 4331,
      "moderate</w>": 4332,
      "odd</w>": 4333,
      "thoughts</w>": 4334,
      "dynam": 4335,
      "Engines</w>": 4336,
      "example</w>": 4337,
      "email</w>": 4338,
      "beginning</w>": 4339,
      "valid": 4340,
      "destination</w>": 4341,
      "Two</w>": 4342,
      "pedestri": 4343,
      "Ford</w>": 4344,
      "Ga": 4345,
      "Hearing</w>": 4346,
      "Lin": 4347,
      "Let</w>": 4348,
      "Mach": 4349,
      "P8": 4350,
      "Ra": 4351,
      "Sha": 4352,
      "Sof": 4353,
      "Tal": 4354,
      "arently</w>": 4355,
      "bla": 4356,
      "dness</w>": 4357,
      "eat</w>": 4358,
      "edule</w>": 4359,
      "idi": 4360,
      "less": 4361,
      "mel": 4362,
      "tect</w>": 4363,
      "your": 4364,
      "zes</w>": 4365,
      "ination</w>": 4366,
      "tici": 4367,
      "tire</w>": 4368,
      "onic</w>": 4369,
      "ate": 4370,
      "att</w>": 4371,
      "amed</w>": 4372,
      "ambi": 4373,
      "oms</w>": 4374,
      "abs": 4375,
      "unlikely</w>": 4376,
      "proof</w>": 4377,
      "produce</w>": 4378,
      "laws</w>": 4379,
      "etry</w>": 4380,
      "causing</w>": 4381,
      "trunk</w>": 4382,
      "consumption</w>": 4383,
      "actor</w>": 4384,
      "beha": 4385,
      "emb": 4386,
      "sever": 4387,
      "fair": 4388,
      "user</w>": 4389,
      "ument</w>": 4390,
      "ups</w>": 4391,
      "destro": 4392,
      "meet</w>": 4393,
      "heed</w>": 4394,
      "hearing</w>": 4395,
      "official</w>": 4396,
      "weigh": 4397,
      "planning</w>": 4398,
      "pression</w>": 4399,
      "tection</w>": 4400,
      "counter</w>": 4401,
      "Tru": 4402,
      "funds</w>": 4403,
      "corpor": 4404,
      "valu": 4405,
      "Last</w>": 4406,
      "lateral</w>": 4407,
      "pro</w>": 4408,
      "played</w>": 4409,
      "brake</w>": 4410,
      "experts</w>": 4411,
      "experim": 4412,
      "pieces</w>": 4413,
      "temper": 4414,
      "judge</w>": 4415,
      "schedule</w>": 4416,
      "airframe</w>": 4417,
      "fossil</w>": 4418,
      "continue</w>": 4419,
      "achieving</w>": 4420,
      "pics</w>": 4421,
      "policy</w>": 4422,
      "Feels</w>": 4423,
      "precise</w>": 4424,
      "economy</w>": 4425,
      "focused</w>": 4426,
      "info</w>": 4427,
      "footage</w>": 4428,
      "technically</w>": 4429,
      "Engine</w>": 4430,
      "fluid</w>": 4431,
      "Doesnt</w>": 4432,
      "becoming</w>": 4433,
      "forever</w>": 4434,
      "smoking</w>": 4435,
      "Version</w>": 4436,
      "holiday</w>": 4437,
      "Booster</w>": 4438,
      "OTA</w>": 4439,
      "failure</w>": 4440,
      "Lockheed</w>": 4441,
      "yourself</w>": 4442,
      "Ap": 4443,
      "AP</w>": 4444,
      "Apoll": 4445,
      "Cri": 4446,
      "Dis": 4447,
      "Final</w>": 4448,
      "Rel": 4449,
      "Sch": 4450,
      "Seri": 4451,
      "Tra": 4452,
      "Um</w>": 4453,
      "Vir": 4454,
      "bel": 4455,
      "bital</w>": 4456,
      "dry</w>": 4457,
      "gin</w>": 4458,
      "mic": 4459,
      "nar": 4460,
      "pha": 4461,
      "path</w>": 4462,
      "un</w>": 4463,
      "replac": 4464,
      "replaced</w>": 4465,
      "ants</w>": 4466,
      "ort": 4467,
      "ories</w>": 4468,
      "alert</w>": 4469,
      "stand</w>": 4470,
      "stack</w>": 4471,
      "noon</w>": 4472,
      "lations</w>": 4473,
      "ope</w>": 4474,
      "opin": 4475,
      "whatever</w>": 4476,
      "exit</w>": 4477,
      "exclu": 4478,
      "caused</w>": 4479,
      "Moreover</w>": 4480,
      "tow</w>": 4481,
      "consci": 4482,
      "cores</w>": 4483,
      "sely</w>": 4484,
      "ash</w>": 4485,
      "iron</w>": 4486,
      "users</w>": 4487,
      "hosp": 4488,
      "monkey</w>": 4489,
      "Stay</w>": 4490,
      "Whats</w>": 4491,
      "pickup</w>": 4492,
      "missing</w>": 4493,
      "bic</w>": 4494,
      "tionally</w>": 4495,
      "commun": 4496,
      "comment</w>": 4497,
      "andfather</w>": 4498,
      "usted</w>": 4499,
      "rency</w>": 4500,
      "corner</w>": 4501,
      "ides</w>": 4502,
      "engineer</w>": 4503,
      "sket": 4504,
      "joke</w>": 4505,
      "geo</w>": 4506,
      "Godot</w>": 4507,
      "August</w>": 4508,
      "edit": 4509,
      "capit": 4510,
      "venue</w>": 4511,
      "dramatically</w>": 4512,
      "alloy</w>": 4513,
      "legis": 4514,
      "Orbital</w>": 4515,
      "Feb</w>": 4516,
      "honor</w>": 4517,
      "equal</w>": 4518,
      "Driving</w>": 4519,
      "NYTimes</w>": 4520,
      "delivering</w>": 4521,
      "areas</w>": 4522,
      "effort</w>": 4523,
      "constantly</w>": 4524,
      "survival</w>": 4525,
      "Single</w>": 4526,
      "independent</w>": 4527,
      "period</w>": 4528,
      "Electric</w>": 4529,
      "warranty</w>": 4530,
      "Deta": 4531,
      "architecture</w>": 4532,
      "Apollo</w>": 4533,
      "500": 4534,
      "Bea": 4535,
      "Baby</w>": 4536,
      "CP</w>": 4537,
      "Get</w>": 4538,
      "Gary</w>": 4539,
      "IP": 4540,
      "Mc": 4541,
      "MW</w>": 4542,
      "PC</w>": 4543,
      "Por": 4544,
      "Pay": 4545,
      "Sel": 4546,
      "Saw</w>": 4547,
      "V8</w>": 4548,
      "We": 4549,
      "Which</w>": 4550,
      "Zip": 4551,
      "ast": 4552,
      "avi": 4553,
      "cle": 4554,
      "dan</w>": 4555,
      "ga</w>": 4556,
      "ham": 4557,
      "hanced</w>": 4558,
      "letting</w>": 4559,
      "meal</w>": 4560,
      "push</w>": 4561,
      "slam</w>": 4562,
      "vin</w>": 4563,
      "ym": 4564,
      "youll</w>": 4565,
      "zingly</w>": 4566,
      "inspec": 4567,
      "titan": 4568,
      "ona": 4569,
      "ama</w>": 4570,
      "stat": 4571,
      "absur": 4572,
      "absolutely</w>": 4573,
      "aborted</w>": 4574,
      "nets</w>": 4575,
      "rail</w>": 4576,
      "dig": 4577,
      "digging</w>": 4578,
      "wher": 4579,
      "moves</w>": 4580,
      "cken</w>": 4581,
      "inger</w>": 4582,
      "events</w>": 4583,
      "owed</w>": 4584,
      "recently</w>": 4585,
      "wishes</w>": 4586,
      "compared</w>": 4587,
      "cloud</w>": 4588,
      "stationary</w>": 4589,
      "missi": 4590,
      "pain</w>": 4591,
      "scen": 4592,
      "happiness</w>": 4593,
      "sensible</w>": 4594,
      "occ": 4595,
      "videos</w>": 4596,
      "Look</w>": 4597,
      "mani": 4598,
      "unveiling</w>": 4599,
      "structions</w>": 4600,
      "discovered</w>": 4601,
      "specifi": 4602,
      "horse": 4603,
      "Flamethrower</w>": 4604,
      "learn</w>": 4605,
      "Apple</w>": 4606,
      "wants</w>": 4607,
      "necessarily</w>": 4608,
      "autonomy</w>": 4609,
      "chicken</w>": 4610,
      "propulsive</w>": 4611,
      "watched</w>": 4612,
      "Everything</w>": 4613,
      "deliveries</w>": 4614,
      "discussion</w>": 4615,
      "robots</w>": 4616,
      "Chica</w>": 4617,
      "keeps</w>": 4618,
      "neuma": 4619,
      "German</w>": 4620,
      "Martin</w>": 4621,
      "advertising</w>": 4622,
      "integrated</w>": 4623,
      "graphy</w>": 4624,
      "turbopump</w>": 4625,
      "Kinda</w>": 4626,
      "Oct</w>": 4627,
      "emoj": 4628,
      "P100D</w>": 4629,
      "horizon": 4630,
      "scheduled</w>": 4631,
      "advantage</w>": 4632,
      "dedicated</w>": 4633,
      "validation</w>": 4634,
      "Critical</w>": 4635,
      "Seriously</w>": 4636,
      "Self</w>": 4637,
      "Zip2</w>": 4638,
      "titanium</w>": 4639,
      "Banks</w>": 4640,
      "Cer": 4641,
      "Hol": 4642,
      "Nev": 4643,
      "Pr": 4644,
      "Reason</w>": 4645,
      "V10</w>": 4646,
      "West</w>": 4647,
      "ce": 4648,
      "cargo</w>": 4649,
      "dden</w>": 4650,
      "foundation</w>": 4651,
      "gly</w>": 4652,
      "gig": 4653,
      "gori": 4654,
      "hood</w>": 4655,
      "py": 4656,
      "pending</w>": 4657,
      "rated</w>": 4658,
      "setting</w>": 4659,
      "ti</w>": 4660,
      "tough": 4661,
      "erm": 4662,
      "ardi": 4663,
      "outer</w>": 4664,
      "algori": 4665,
      "iti</w>": 4666,
      "stmas</w>": 4667,
      "rise</w>": 4668,
      "rich</w>": 4669,
      "ooh</w>": 4670,
      "havent</w>": 4671,
      "expo": 4672,
      "motion</w>": 4673,
      "spea": 4674,
      "ppy</w>": 4675,
      "dog</w>": 4676,
      "beat</w>": 4677,
      "emer": 4678,
      "coal</w>": 4679,
      "packet</w>": 4680,
      "vey</w>": 4681,
      "after": 4682,
      "Stu": 4683,
      "Inst": 4684,
      "Starships</w>": 4685,
      "deral</w>": 4686,
      "entirely</w>": 4687,
      "weird</w>": 4688,
      "sage</w>": 4689,
      "satis": 4690,
      "commit": 4691,
      "timing</w>": 4692,
      "tuned</w>": 4693,
      "Chris</w>": 4694,
      "attention</w>": 4695,
      "charger</w>": 4696,
      "secs</w>": 4697,
      "ancy</w>": 4698,
      "hopper</w>": 4699,
      "surance</w>": 4700,
      "spaces": 4701,
      "summon</w>": 4702,
      "Launch": 4703,
      "latency</w>": 4704,
      "employ": 4705,
      "vac</w>": 4706,
      "incent</w>": 4707,
      "Auto": 4708,
      "capital</w>": 4709,
      "petition</w>": 4710,
      "stainless</w>": 4711,
      "horse</w>": 4712,
      "competitors</w>": 4713,
      "detail</w>": 4714,
      "chain</w>": 4715,
      "confirm</w>": 4716,
      "region</w>": 4717,
      "significantly</w>": 4718,
      "Side</w>": 4719,
      "array</w>": 4720,
      "squirre": 4721,
      "environment</w>": 4722,
      "environmental</w>": 4723,
      "touch</w>": 4724,
      "reliability</w>": 4725,
      "Black</w>": 4726,
      "remains</w>": 4727,
      "health</w>": 4728,
      "breakthrough</w>": 4729,
      "Anyone</w>": 4730,
      "greatest</w>": 4731,
      "Center</w>": 4732,
      "women</w>": 4733,
      "exponential</w>": 4734,
      "tbh</w>": 4735,
      "services</w>": 4736,
      "Literally</w>": 4737,
      "Christmas</w>": 4738,
      "installed</w>": 4739,
      "wonder</w>": 4740,
      "jacket</w>": 4741,
      "ingui": 4742,
      "Requires</w>": 4743,
      "Nevada</w>": 4744,
      "algorith": 4745,
      "Launching</w>": 4746,
      "5D</w>": 4747,
      "Am": 4748,
      "Busted</w>": 4749,
      "Climate</w>": 4750,
      "DM": 4751,
      "Done</w>": 4752,
      "Eg": 4753,
      "East</w>": 4754,
      "Mk": 4755,
      "Mic": 4756,
      "Nu": 4757,
      "NHT": 4758,
      "Offi": 4759,
      "Rea": 4760,
      "V3</w>": 4761,
      "Vide": 4762,
      "WW</w>": 4763,
      "Wal": 4764,
      "Water</w>": 4765,
      "Weve</w>": 4766,
      "ax": 4767,
      "bar": 4768,
      "cute</w>": 4769,
      "couldnt</w>": 4770,
      "dom": 4771,
      "falling</w>": 4772,
      "gine</w>": 4773,
      "hr</w>": 4774,
      "hexacopter</w>": 4775,
      "kill</w>": 4776,
      "lds</w>": 4777,
      "mine</w>": 4778,
      "mware</w>": 4779,
      "nom": 4780,
      "oes</w>": 4781,
      "ota</w>": 4782,
      "rt</w>": 4783,
      "sam": 4784,
      "temp": 4785,
      "uit</w>": 4786,
      "war</w>": 4787,
      "wouldnt</w>": 4788,
      "inno": 4789,
      "inally</w>": 4790,
      "reuse</w>": 4791,
      "restored</w>": 4792,
      "reactor</w>": 4793,
      "ards</w>": 4794,
      "ordering</w>": 4795,
      "iland</w>": 4796,
      "ilities</w>": 4797,
      "amounts</w>": 4798,
      "stay</w>": 4799,
      "lol</w>": 4800,
      "loss</w>": 4801,
      "location</w>": 4802,
      "rit</w>": 4803,
      "Theres</w>": 4804,
      "und": 4805,
      "ect": 4806,
      "laser</w>": 4807,
      "opens</w>": 4808,
      "visible</w>": 4809,
      "exec": 4810,
      "cam</w>": 4811,
      "traction</w>": 4812,
      "spla": 4813,
      "eeded</w>": 4814,
      "ckel</w>": 4815,
      "totally</w>": 4816,
      "consumer</w>": 4817,
      "duals</w>": 4818,
      "perhaps</w>": 4819,
      "assuming</w>": 4820,
      "hoo</w>": 4821,
      "howe": 4822,
      "ourse</w>": 4823,
      "parach": 4824,
      "upcoming</w>": 4825,
      "creation</w>": 4826,
      "elled</w>": 4827,
      "applied</w>": 4828,
      "sav": 4829,
      "common</w>": 4830,
      "helps</w>": 4831,
      "Superdr": 4832,
      "Trying</w>": 4833,
      "recirc</w>": 4834,
      "awatt</w>": 4835,
      "liftoff</w>": 4836,
      "light": 4837,
      "join</w>": 4838,
      "announce</w>": 4839,
      "gee</w>": 4840,
      "Soon</w>": 4841,
      "consist": 4842,
      "jud": 4843,
      "Impro": 4844,
      "fixing</w>": 4845,
      "Monty</w>": 4846,
      "Exciting</w>": 4847,
      "species</w>": 4848,
      "supporters</w>": 4849,
      "purple</w>": 4850,
      "arrives</w>": 4851,
      "amethrowers</w>": 4852,
      "egg</w>": 4853,
      "Creating</w>": 4854,
      "background</w>": 4855,
      "subsidi": 4856,
      "Hard": 4857,
      "PhD</w>": 4858,
      "conversation</w>": 4859,
      "thoughtful</w>": 4860,
      "released</w>": 4861,
      "releases</w>": 4862,
      "Thurs</w>": 4863,
      "Mission</w>": 4864,
      "Engine": 4865,
      "decades</w>": 4866,
      "dangerous</w>": 4867,
      "visiting</w>": 4868,
      "equipment</w>": 4869,
      "fiction</w>": 4870,
      "thousands</w>": 4871,
      "deployment</w>": 4872,
      "Navig": 4873,
      "style</w>": 4874,
      "Remin": 4875,
      "Linux</w>": 4876,
      "opinion</w>": 4877,
      "horizontal</w>": 4878,
      "NHTSA</w>": 4879,
      "however</w>": 4880,
      "Superdraco</w>": 4881,
      "15</w>": 4882,
      "Ano": 4883,
      "BS</w>": 4884,
      "Ca": 4885,
      "Co</w>": 4886,
      "CR</w>": 4887,
      "Did</w>": 4888,
      "EU</w>": 4889,
      "Every</w>": 4890,
      "EVs</w>": 4891,
      "FT": 4892,
      "Fun": 4893,
      "HD</w>": 4894,
      "IV</w>": 4895,
      "Moun": 4896,
      "OP": 4897,
      "Ox": 4898,
      "Pan": 4899,
      "Plan": 4900,
      "SJ</w>": 4901,
      "Sur": 4902,
      "USA</w>": 4903,
      "Woo": 4904,
      "WSJ</w>": 4905,
      "bday</w>": 4906,
      "caly": 4907,
      "em</w>": 4908,
      "ees</w>": 4909,
      "fel": 4910,
      "gonna</w>": 4911,
      "hands</w>": 4912,
      "ian</w>": 4913,
      "lame</w>": 4914,
      "mper</w>": 4915,
      "pneuma": 4916,
      "yn": 4917,
      "inting</w>": 4918,
      "intu": 4919,
      "red": 4920,
      "replace</w>": 4921,
      "outs</w>": 4922,
      "onics</w>": 4923,
      "alo": 4924,
      "alac": 4925,
      "esthe": 4926,
      "roads</w>": 4927,
      "ills</w>": 4928,
      "illu": 4929,
      "stone</w>": 4930,
      "stest</w>": 4931,
      "loved</w>": 4932,
      "deg</w>": 4933,
      "defe": 4934,
      "Third</w>": 4935,
      "six</w>": 4936,
      "ables</w>": 4937,
      "oom</w>": 4938,
      "law": 4939,
      "oppor": 4940,
      "chart</w>": 4941,
      "posed</w>": 4942,
      "mov": 4943,
      "Moon</w>": 4944,
      "advice</w>": 4945,
      "acted</w>": 4946,
      "terri": 4947,
      "theme</w>": 4948,
      "permission</w>": 4949,
      "fav</w>": 4950,
      "usable</w>": 4951,
      "mula</w>": 4952,
      "nigh": 4953,
      "lead</w>": 4954,
      "leave</w>": 4955,
      "twea": 4956,
      "ello</w>": 4957,
      "Inves": 4958,
      "pick</w>": 4959,
      "missed</w>": 4960,
      "grou": 4961,
      "pati": 4962,
      "contact</w>": 4963,
      "tum</w>": 4964,
      "tual</w>": 4965,
      "Haiti</w>": 4966,
      "interplanetary</w>": 4967,
      "boosters</w>": 4968,
      "Regar": 4969,
      "author": 4970,
      "secone</w>": 4971,
      "secret</w>": 4972,
      "safer</w>": 4973,
      "subsonic</w>": 4974,
      "vals</w>": 4975,
      "Does</w>": 4976,
      "empha": 4977,
      "meter</w>": 4978,
      "operate</w>": 4979,
      "studio</w>": 4980,
      "everywhere</w>": 4981,
      "regar": 4982,
      "colli": 4983,
      "instal": 4984,
      "configur": 4985,
      "filters</w>": 4986,
      "straight</w>": 4987,
      "views</w>": 4988,
      "understanding</w>": 4989,
      "apogee</w>": 4990,
      "stopped</w>": 4991,
      "born</w>": 4992,
      "random</w>": 4993,
      "silly</w>": 4994,
      "princi": 4995,
      "NYT</w>": 4996,
      "touch": 4997,
      "Everyone</w>": 4998,
      "labor</w>": 4999,
      "errors</w>": 5000,
      "Doesn</w>": 5001,
      "separate</w>": 5002,
      "separation</w>": 5003,
      "democracy</w>": 5004,
      "measure</w>": 5005,
      "reasonable</w>": 5006,
      "shareholders</w>": 5007,
      "Ludicrous</w>": 5008,
      "clearly</w>": 5009,
      "illiant</w>": 5010,
      "mentioned</w>": 5011,
      "postponed</w>": 5012,
      "ventilators</w>": 5013,
      "majority</w>": 5014,
      "P85D</w>": 5015,
      "IPO</w>": 5016,
      "exposure</w>": 5017,
      "Video</w>": 5018,
      "splashdown</w>": 5019,
      "savings</w>": 5020,
      "Another</w>": 5021,
      "Oxford</w>": 5022,
      "opportun": 5023,
      "12</w>": 5024,
      "AF</w>": 5025,
      "Bill</w>": 5026,
      "Future</w>": 5027,
      "Ferm": 5028,
      "Ge": 5029,
      "Gener": 5030,
      "Man": 5031,
      "Od": 5032,
      "Ori": 5033,
      "Pi": 5034,
      "Ri": 5035,
      "Ren": 5036,
      "Sto": 5037,
      "Sep": 5038,
      "Zero</w>": 5039,
      "cly</w>": 5040,
      "dle</w>": 5041,
      "epi": 5042,
      "frequ": 5043,
      "gan": 5044,
      "gan</w>": 5045,
      "gec": 5046,
      "glas</w>": 5047,
      "kg</w>": 5048,
      "lying</w>": 5049,
      "length</w>": 5050,
      "mir": 5051,
      "sile</w>": 5052,
      "tcy</w>": 5053,
      "twitter</w>": 5054,
      "walls</w>": 5055,
      "thi": 5056,
      "reduc": 5057,
      "reflight</w>": 5058,
      "rement</w>": 5059,
      "research</w>": 5060,
      "ancient</w>": 5061,
      "roof": 5062,
      "iter": 5063,
      "iler</w>": 5064,
      "likes</w>": 5065,
      "life": 5066,
      "lications</w>": 5067,
      "loan</w>": 5068,
      "lock</w>": 5069,
      "loves</w>": 5070,
      "lows</w>": 5071,
      "logs</w>": 5072,
      "decl": 5073,
      "sim</w>": 5074,
      "bust</w>": 5075,
      "neigh": 5076,
      "radi": 5077,
      "field</w>": 5078,
      "she": 5079,
      "trouble</w>": 5080,
      "worlds</w>": 5081,
      "adox</w>": 5082,
      "duties</w>": 5083,
      "emetry</w>": 5084,
      "coverage</w>": 5085,
      "fastest</w>": 5086,
      "grees</w>": 5087,
      "pret": 5088,
      "parties</w>": 5089,
      "paralle": 5090,
      "upload</w>": 5091,
      "prior": 5092,
      "White</w>": 5093,
      "tioning</w>": 5094,
      "command</w>": 5095,
      "tured</w>": 5096,
      "solving</w>": 5097,
      "Reality</w>": 5098,
      "Compl": 5099,
      "esses</w>": 5100,
      "excited</w>": 5101,
      "countdown</w>": 5102,
      "publicly</w>": 5103,
      "underground</w>": 5104,
      "formed</w>": 5105,
      "shipping</w>": 5106,
      "curve</w>": 5107,
      "Doing</w>": 5108,
      "approvals</w>": 5109,
      "completing</w>": 5110,
      "vative</w>": 5111,
      "mark": 5112,
      "volcan": 5113,
      "following</w>": 5114,
      "followed</w>": 5115,
      "types</w>": 5116,
      "imagine</w>": 5117,
      "Orbit</w>": 5118,
      "handling</w>": 5119,
      "debt</w>": 5120,
      "Paradox</w>": 5121,
      "eggs</w>": 5122,
      "stops</w>": 5123,
      "Phone</w>": 5124,
      "raised</w>": 5125,
      "deserves</w>": 5126,
      "watching</w>": 5127,
      "remaining</w>": 5128,
      "easier</w>": 5129,
      "becomes</w>": 5130,
      "killing</w>": 5131,
      "Smart</w>": 5132,
      "bankrupt</w>": 5133,
      "bankruptcy</w>": 5134,
      "thresh": 5135,
      "Humans</w>": 5136,
      "System</w>": 5137,
      "Senate</w>": 5138,
      "terminal</w>": 5139,
      "controlled</w>": 5140,
      "conveni": 5141,
      "artificial</w>": 5142,
      "Korea</w>": 5143,
      "ridicul": 5144,
      "Thailand</w>": 5145,
      "lasers</w>": 5146,
      "Douglas</w>": 5147,
      "RUD</w>": 5148,
      "according</w>": 5149,
      "embarra": 5150,
      "Appro": 5151,
      "inspection</w>": 5152,
      "pyram": 5153,
      "satisf": 5154,
      "DMV</w>": 5155,
      "terrible</w>": 5156,
      "Fermi</w>": 5157,
      "parallel</w>": 5158,
      "Bay</w>": 5159,
      "C19</w>": 5160,
      "Course</w>": 5161,
      "DT</w>": 5162,
      "Day</w>": 5163,
      "Global</w>": 5164,
      "LA": 5165,
      "Made</w>": 5166,
      "Rest</w>": 5167,
      "Vo": 5168,
      "Wr": 5169,
      "ahem</w>": 5170,
      "bb": 5171,
      "bas": 5172,
      "cer</w>": 5173,
      "eu": 5174,
      "fra": 5175,
      "gear</w>": 5176,
      "gency</w>": 5177,
      "hrs</w>": 5178,
      "len": 5179,
      "lout</w>": 5180,
      "mal": 5181,
      "mit</w>": 5182,
      "oin</w>": 5183,
      "pen": 5184,
      "putting</w>": 5185,
      "sen</w>": 5186,
      "senti": 5187,
      "slow": 5188,
      "vacc": 5189,
      "wood</w>": 5190,
      "wser</w>": 5191,
      "yard</w>": 5192,
      "thout</w>": 5193,
      "revenue</w>": 5194,
      "aning</w>": 5195,
      "alth</w>": 5196,
      "acter</w>": 5197,
      "atable</w>": 5198,
      "steam</w>": 5199,
      "omberg</w>": 5200,
      "list": 5201,
      "rious</w>": 5202,
      "degrees</w>": 5203,
      "untrue</w>": 5204,
      "noying</w>": 5205,
      "nosecone</w>": 5206,
      "disp": 5207,
      "distr": 5208,
      "comfort</w>": 5209,
      "sual</w>": 5210,
      "sucks</w>": 5211,
      "pos": 5212,
      "five</w>": 5213,
      "share</w>": 5214,
      "adults</w>": 5215,
      "dol": 5216,
      "impressive</w>": 5217,
      "plat": 5218,
      "plate</w>": 5219,
      "coff": 5220,
      "failed</w>": 5221,
      "forgot</w>": 5222,
      "prevent</w>": 5223,
      "upon</w>": 5224,
      "Stan": 5225,
      "argument</w>": 5226,
      "recall</w>": 5227,
      "pricing</w>": 5228,
      "tioned</w>": 5229,
      "scri": 5230,
      "scra": 5231,
      "timately</w>": 5232,
      "planned</w>": 5233,
      "essential</w>": 5234,
      "humor</w>": 5235,
      "funding</w>": 5236,
      "centers</w>": 5237,
      "Hopper</w>": 5238,
      "space": 5239,
      "thermal</w>": 5240,
      "warm</w>": 5241,
      "merch</w>": 5242,
      "basic</w>": 5243,
      "calling</w>": 5244,
      "wind": 5245,
      "Dogec": 5246,
      "amazingly</w>": 5247,
      "End</w>": 5248,
      "hypo": 5249,
      "colors</w>": 5250,
      "shown</w>": 5251,
      "checking</w>": 5252,
      "Excited</w>": 5253,
      "Sometimes</w>": 5254,
      "facing</w>": 5255,
      "Cost</w>": 5256,
      "loading</w>": 5257,
      "spired</w>": 5258,
      "receive</w>": 5259,
      "estone</w>": 5260,
      "Atlas</w>": 5261,
      "efficient</w>": 5262,
      "apocaly": 5263,
      "Asia</w>": 5264,
      "mistakes</w>": 5265,
      "Without</w>": 5266,
      "concerns</w>": 5267,
      "Bloomberg</w>": 5268,
      "character</w>": 5269,
      "computers</w>": 5270,
      "logical</w>": 5271,
      "greatly</w>": 5272,
      "activate</w>": 5273,
      "sellers</w>": 5274,
      "walk</w>": 5275,
      "monopoly</w>": 5276,
      "Delta</w>": 5277,
      "inspiring</w>": 5278,
      "crypto</w>": 5279,
      "freedom</w>": 5280,
      "Software</w>": 5281,
      "temperature</w>": 5282,
      "specifically</w>": 5283,
      "inguish": 5284,
      "tempting</w>": 5285,
      "alactic</w>": 5286,
      "emphasize</w>": 5287,
      "installation</w>": 5288,
      "lifetime</w>": 5289,
      "AP": 5290,
      "Bar": 5291,
      "Back</w>": 5292,
      "EP": 5293,
      "ES": 5294,
      "Eff": 5295,
      "GWh</w>": 5296,
      "Mun": 5297,
      "Night</w>": 5298,
      "OS</w>": 5299,
      "Own": 5300,
      "Pal": 5301,
      "QA</w>": 5302,
      "Sho": 5303,
      "Satur": 5304,
      "UN</w>": 5305,
      "ULA</w>": 5306,
      "VT": 5307,
      "Vol": 5308,
      "Who": 5309,
      "Watch</w>": 5310,
      "cs</w>": 5311,
      "cm</w>": 5312,
      "ction</w>": 5313,
      "cali": 5314,
      "dome</w>": 5315,
      "ew": 5316,
      "fin</w>": 5317,
      "fli": 5318,
      "fting</w>": 5319,
      "hes</w>": 5320,
      "iPhone</w>": 5321,
      "ko": 5322,
      "ki</w>": 5323,
      "lmk</w>": 5324,
      "sville</w>": 5325,
      "vel": 5326,
      "vents</w>": 5327,
      "inci": 5328,
      "indic": 5329,
      "era</w>": 5330,
      "repe": 5331,
      "regu": 5332,
      "refl": 5333,
      "resolution</w>": 5334,
      "ara": 5335,
      "arms</w>": 5336,
      "ession</w>": 5337,
      "itch": 5338,
      "ace": 5339,
      "riding</w>": 5340,
      "depar": 5341,
      "buff": 5342,
      "abili": 5343,
      "urban</w>": 5344,
      "unknown</w>": 5345,
      "hic</w>": 5346,
      "lapse</w>": 5347,
      "optional</w>": 5348,
      "maker</w>": 5349,
      "viol": 5350,
      "spon": 5351,
      "spin</w>": 5352,
      "adly</w>": 5353,
      "beats</w>": 5354,
      "begin</w>": 5355,
      "theory</w>": 5356,
      "coa": 5357,
      "covid</w>": 5358,
      "cies</w>": 5359,
      "search": 5360,
      "boy</w>": 5361,
      "picked</w>": 5362,
      "Alpha</w>": 5363,
      "served</w>": 5364,
      "grandfather</w>": 5365,
      "symp": 5366,
      "stitu": 5367,
      "somehow</w>": 5368,
      "andwidth</w>": 5369,
      "tury</w>": 5370,
      "Having</w>": 5371,
      "Def</w>": 5372,
      "render</w>": 5373,
      "header</w>": 5374,
      "crisis</w>": 5375,
      "depth</w>": 5376,
      "bro</w>": 5377,
      "currency</w>": 5378,
      "winter</w>": 5379,
      "sign": 5380,
      "signed</w>": 5381,
      "talented</w>": 5382,
      "dren</w>": 5383,
      "tainly</w>": 5384,
      "Preparing</w>": 5385,
      "stuck</w>": 5386,
      "drove</w>": 5387,
      "singly</w>": 5388,
      "launched</w>": 5389,
      "allocation</w>": 5390,
      "Arti": 5391,
      "storm</w>": 5392,
      "learned</w>": 5393,
      "physical</w>": 5394,
      "faces</w>": 5395,
      "wnsville</w>": 5396,
      "understood</w>": 5397,
      "processing</w>": 5398,
      "strongly</w>": 5399,
      "certainty</w>": 5400,
      "economic</w>": 5401,
      "curious</w>": 5402,
      "connected</w>": 5403,
      "nuclear</w>": 5404,
      "popular</w>": 5405,
      "reached</w>": 5406,
      "fundamentally</w>": 5407,
      "Obvi": 5408,
      "decade</w>": 5409,
      "smooth</w>": 5410,
      "Brownsville</w>": 5411,
      "CEO</w>": 5412,
      "Fix": 5413,
      "goodness</w>": 5414,
      "children</w>": 5415,
      "reporting</w>": 5416,
      "gimbal</w>": 5417,
      "bene": 5418,
      "guaranteed</w>": 5419,
      "maintain</w>": 5420,
      "Niko": 5421,
      "shielding</w>": 5422,
      "purchase</w>": 5423,
      "battle</w>": 5424,
      "doubt</w>": 5425,
      "severe</w>": 5426,
      "Certainly</w>": 5427,
      "Woohoo</w>": 5428,
      "group</w>": 5429,
      "Regarding</w>": 5430,
      "Origin": 5431,
      "Dogecoin</w>": 5432,
      "EPA</w>": 5433,
      "Nikola</w>": 5434,
      "11</w>": 5435,
      "20": 5436,
      "80</w>": 5437,
      "Air": 5438,
      "BT": 5439,
      "Big": 5440,
      "Coun": 5441,
      "Cash</w>": 5442,
      "Fo": 5443,
      "Fear</w>": 5444,
      "Hell</w>": 5445,
      "Hold</w>": 5446,
      "Ms</w>": 5447,
      "Red</w>": 5448,
      "RWD</w>": 5449,
      "Silicon</w>": 5450,
      "Tun": 5451,
      "US": 5452,
      "Xmas</w>": 5453,
      "bing</w>": 5454,
      "bom": 5455,
      "chip</w>": 5456,
      "cats</w>": 5457,
      "cated</w>": 5458,
      "catch": 5459,
      "hh</w>": 5460,
      "hous": 5461,
      "ier</w>": 5462,
      "kero": 5463,
      "nings</w>": 5464,
      "pet</w>": 5465,
      "sli": 5466,
      "sno": 5467,
      "slight</w>": 5468,
      "uri": 5469,
      "yaw</w>": 5470,
      "inser": 5471,
      "error</w>": 5472,
      "renew": 5473,
      "ano</w>": 5474,
      "annoying</w>": 5475,
      "tia</w>": 5476,
      "one": 5477,
      "aling</w>": 5478,
      "aler</w>": 5479,
      "acid</w>": 5480,
      "amm": 5481,
      "amp": 5482,
      "stance</w>": 5483,
      "bun": 5484,
      "buyers</w>": 5485,
      "bumper</w>": 5486,
      "unit</w>": 5487,
      "unfortunately</w>": 5488,
      "noise</w>": 5489,
      "Test</w>": 5490,
      "radio</w>": 5491,
      "dig</w>": 5492,
      "dive</w>": 5493,
      "divers</w>": 5494,
      "chem": 5495,
      "fies</w>": 5496,
      "fice</w>": 5497,
      "fiber</w>": 5498,
      "spe": 5499,
      "sphere</w>": 5500,
      "Motors</w>": 5501,
      "conel</w>": 5502,
      "tering</w>": 5503,
      "pler</w>": 5504,
      "cious</w>": 5505,
      "igned</w>": 5506,
      "Spaceship</w>": 5507,
      "parano": 5508,
      "firmware</w>": 5509,
      "crete</w>": 5510,
      "trick": 5511,
      "bots</w>": 5512,
      "produces</w>": 5513,
      "compen": 5514,
      "compute</w>": 5515,
      "competing</w>": 5516,
      "Starbase</w>": 5517,
      "wealth</w>": 5518,
      "strate</w>": 5519,
      "orbits</w>": 5520,
      "expanding</w>": 5521,
      "Ang": 5522,
      "smar": 5523,
      "steer</w>": 5524,
      "charged</w>": 5525,
      "Short": 5526,
      "Death</w>": 5527,
      "Dealer</w>": 5528,
      "essentially</w>": 5529,
      "Lots</w>": 5530,
      "sene</w>": 5531,
      "aware</w>": 5532,
      "extension</w>": 5533,
      "ached</w>": 5534,
      "hops</w>": 5535,
      "subtle</w>": 5536,
      "override</w>": 5537,
      "identi": 5538,
      "generation</w>": 5539,
      "adven": 5540,
      "approx</w>": 5541,
      "maneu": 5542,
      "deni": 5543,
      "ouldve</w>": 5544,
      "rule</w>": 5545,
      "Nov</w>": 5546,
      "roller</w>": 5547,
      "start": 5548,
      "shorter</w>": 5549,
      "menu</w>": 5550,
      "tempor": 5551,
      "structural</w>": 5552,
      "specific</w>": 5553,
      "reference</w>": 5554,
      "spective</w>": 5555,
      "streets</w>": 5556,
      "holds</w>": 5557,
      "multiple</w>": 5558,
      "machines</w>": 5559,
      "taxpay": 5560,
      "broke</w>": 5561,
      "tweeting</w>": 5562,
      "black": 5563,
      "political</w>": 5564,
      "spirit</w>": 5565,
      "repairs</w>": 5566,
      "Giant</w>": 5567,
      "cycles</w>": 5568,
      "Peace</w>": 5569,
      "suggests</w>": 5570,
      "donate</w>": 5571,
      "ruption</w>": 5572,
      "Taking</w>": 5573,
      "memes</w>": 5574,
      "photo</w>": 5575,
      "claim</w>": 5576,
      "Reco": 5577,
      "Universe</w>": 5578,
      "Block</w>": 5579,
      "charact": 5580,
      "measu": 5581,
      "biography</w>": 5582,
      "Several</w>": 5583,
      "50k</w>": 5584,
      "seller</w>": 5585,
      "cheese</w>": 5586,
      "individual</w>": 5587,
      "graph</w>": 5588,
      "Science</w>": 5589,
      "elevator</w>": 5590,
      "convinc": 5591,
      "Didn</w>": 5592,
      "retired</w>": 5593,
      "license</w>": 5594,
      "communication</w>": 5595,
      "Johnny</w>": 5596,
      "settings</w>": 5597,
      "inhibit</w>": 5598,
      "lessly</w>": 5599,
      "experiment</w>": 5600,
      "manipul": 5601,
      "judg": 5602,
      "symptom": 5603,
      "houses</w>": 5604,
      "kerosene</w>": 5605,
      "2k</w>": 5606,
      "40</w>": 5607,
      "As": 5608,
      "Aut": 5609,
      "Bel": 5610,
      "BMW</w>": 5611,
      "Couldn</w>": 5612,
      "Droneship</w>": 5613,
      "FH</w>": 5614,
      "Gear</w>": 5615,
      "Hel": 5616,
      "Le": 5617,
      "Lic": 5618,
      "Pal</w>": 5619,
      "Sa": 5620,
      "Scre": 5621,
      "Sam</w>": 5622,
      "TO</w>": 5623,
      "bright</w>": 5624,
      "blowing</w>": 5625,
      "fill</w>": 5626,
      "fear</w>": 5627,
      "fwd</w>": 5628,
      "grow</w>": 5629,
      "hn</w>": 5630,
      "hom": 5631,
      "jump</w>": 5632,
      "kid": 5633,
      "loud</w>": 5634,
      "pilot</w>": 5635,
      "pounds</w>": 5636,
      "vit": 5637,
      "vable</w>": 5638,
      "vary</w>": 5639,
      "zil": 5640,
      "iner": 5641,
      "thly</w>": 5642,
      "third</w>": 5643,
      "erred</w>": 5644,
      "ership</w>": 5645,
      "recovered</w>": 5646,
      "organ": 5647,
      "enever</w>": 5648,
      "enjo": 5649,
      "esides</w>": 5650,
      "amming</w>": 5651,
      "stars</w>": 5652,
      "stable</w>": 5653,
      "liers</w>": 5654,
      "easing</w>": 5655,
      "eless</w>": 5656,
      "abt</w>": 5657,
      "uration</w>": 5658,
      "noti": 5659,
      "noting</w>": 5660,
      "hips</w>": 5661,
      "propor": 5662,
      "ration</w>": 5663,
      "opposite</w>": 5664,
      "dian</w>": 5665,
      "whenever</w>": 5666,
      "vior</w>": 5667,
      "cast": 5668,
      "ulate</w>": 5669,
      "ultimately</w>": 5670,
      "ckly</w>": 5671,
      "conc": 5672,
      "dock</w>": 5673,
      "cities</w>": 5674,
      "qua": 5675,
      "sedan</w>": 5676,
      "ascent</w>": 5677,
      "pref": 5678,
      "ignition</w>": 5679,
      "Stor": 5680,
      "pushed</w>": 5681,
      "bow</w>": 5682,
      "Fallout</w>": 5683,
      "drivers</w>": 5684,
      "Exp": 5685,
      "compla": 5686,
      "Ins": 5687,
      "Starhopper</w>": 5688,
      "milestone</w>": 5689,
      "strate": 5690,
      "content</w>": 5691,
      "selec": 5692,
      "planets</w>": 5693,
      "attacked</w>": 5694,
      "pressed</w>": 5695,
      "rents</w>": 5696,
      "guide</w>": 5697,
      "cord</w>": 5698,
      "quickly</w>": 5699,
      "lighter</w>": 5700,
      "surr": 5701,
      "suborbital</w>": 5702,
      "Main</w>": 5703,
      "underappreciated</w>": 5704,
      "eport</w>": 5705,
      "generate</w>": 5706,
      "spaceport</w>": 5707,
      "thern</w>": 5708,
      "depends</w>": 5709,
      "calls</w>": 5710,
      "tainment</w>": 5711,
      "Bob</w>": 5712,
      "burg</w>": 5713,
      "wered</w>": 5714,
      "experi": 5715,
      "endor": 5716,
      "endar</w>": 5717,
      "exist": 5718,
      "physically</w>": 5719,
      "tee</w>": 5720,
      "browser</w>": 5721,
      "answered</w>": 5722,
      "cooled</w>": 5723,
      "arriving</w>": 5724,
      "tigating</w>": 5725,
      "result</w>": 5726,
      "Paris</w>": 5727,
      "honored</w>": 5728,
      "levant</w>": 5729,
      "Easi": 5730,
      "spot</w>": 5731,
      "Elon</w>": 5732,
      "negatively</w>": 5733,
      "arrays</w>": 5734,
      "challenge</w>": 5735,
      "healthy</w>": 5736,
      "meaning": 5737,
      "danger</w>": 5738,
      "explode</w>": 5739,
      "passeng": 5740,
      "keeping</w>": 5741,
      "Guarant": 5742,
      "Waiting</w>": 5743,
      "middle</w>": 5744,
      "aturally</w>": 5745,
      "news": 5746,
      "trillion</w>": 5747,
      "quote</w>": 5748,
      "recovery</w>": 5749,
      "ignore</w>": 5750,
      "methane</w>": 5751,
      "TSLA</w>": 5752,
      "balance</w>": 5753,
      "promising</w>": 5754,
      "simultaneously</w>": 5755,
      "behavior</w>": 5756,
      "weighs</w>": 5757,
      "corporate</w>": 5758,
      "editor</w>": 5759,
      "PayPal</w>": 5760,
      "Investigating</w>": 5761,
      "authorities</w>": 5762,
      "Geor": 5763,
      "ridiculous</w>": 5764,
      "embarrassing</w>": 5765,
      "satisfaction</w>": 5766,
      "coffee</w>": 5767,
      "snow": 5768,
      "adventure</w>": 5769,
      "License</w>": 5770,
      "But": 5771,
      "Back": 5772,
      "Due</w>": 5773,
      "Drac": 5774,
      "Either</w>": 5775,
      "Evil</w>": 5776,
      "HQ</w>": 5777,
      "IS": 5778,
      "Jim</w>": 5779,
      "Otherwise</w>": 5780,
      "Pic</w>": 5781,
      "San</w>": 5782,
      "TV</w>": 5783,
      "Want</w>": 5784,
      "Yel": 5785,
      "agreed</w>": 5786,
      "ban": 5787,
      "bandwidth</w>": 5788,
      "epic</w>": 5789,
      "fec": 5790,
      "fts</w>": 5791,
      "found": 5792,
      "farm</w>": 5793,
      "gri": 5794,
      "hou": 5795,
      "hence</w>": 5796,
      "jo</w>": 5797,
      "justice</w>": 5798,
      "mate</w>": 5799,
      "nested</w>": 5800,
      "rum": 5801,
      "sn": 5802,
      "sses</w>": 5803,
      "sorry</w>": 5804,
      "seas</w>": 5805,
      "top": 5806,
      "telling</w>": 5807,
      "infl": 5808,
      "incen": 5809,
      "thes": 5810,
      "reb": 5811,
      "rel</w>": 5812,
      "real": 5813,
      "arre</w>": 5814,
      "oning</w>": 5815,
      "alpha</w>": 5816,
      "entr": 5817,
      "enting</w>": 5818,
      "esel</w>": 5819,
      "ste</w>": 5820,
      "stea": 5821,
      "liked</w>": 5822,
      "dec": 5823,
      "dela": 5824,
      "sitive</w>": 5825,
      "ech</w>": 5826,
      "ght": 5827,
      "hide</w>": 5828,
      "lau": 5829,
      "dition</w>": 5830,
      "diesel</w>": 5831,
      "suffici": 5832,
      "veri": 5833,
      "vering</w>": 5834,
      "express</w>": 5835,
      "tom</w>": 5836,
      "cons</w>": 5837,
      "conser": 5838,
      "imler</w>": 5839,
      "isms</w>": 5840,
      "sets</w>": 5841,
      "seball</w>": 5842,
      "ledge</w>": 5843,
      "asking</w>": 5844,
      "grey</w>": 5845,
      "wif": 5846,
      "gian</w>": 5847,
      "competed</w>": 5848,
      "Instructions</w>": 5849,
      "Starting</w>": 5850,
      "grade</w>": 5851,
      "accounts</w>": 5852,
      "ssively</w>": 5853,
      "traditional</w>": 5854,
      "interest</w>": 5855,
      "She</w>": 5856,
      "Deus</w>": 5857,
      "headed</w>": 5858,
      "funded</w>": 5859,
      "object</w>": 5860,
      "phones</w>": 5861,
      "quiet</w>": 5862,
      "transm": 5863,
      "ousness</w>": 5864,
      "survey</w>": 5865,
      "increased</w>": 5866,
      "former</w>": 5867,
      "merger</w>": 5868,
      "brought</w>": 5869,
      "bringing</w>": 5870,
      "winning</w>": 5871,
      "Dojo</w>": 5872,
      "signs</w>": 5873,
      "sky": 5874,
      "waiting</w>": 5875,
      "talked</w>": 5876,
      "empty</w>": 5877,
      "vastly</w>": 5878,
      "dream</w>": 5879,
      "expert</w>": 5880,
      "damaged</w>": 5881,
      "ginia</w>": 5882,
      "developed</w>": 5883,
      "providing</w>": 5884,
      "journo</w>": 5885,
      "refer</w>": 5886,
      "Formula</w>": 5887,
      "chas": 5888,
      "discount</w>": 5889,
      "Turb": 5890,
      "Turn</w>": 5891,
      "offering</w>": 5892,
      "increasingly</w>": 5893,
      "Apparently</w>": 5894,
      "impacts</w>": 5895,
      "optimal</w>": 5896,
      "sequel</w>": 5897,
      "Beyond</w>": 5898,
      "brief</w>": 5899,
      "Highest</w>": 5900,
      "particular</w>": 5901,
      "civiliz": 5902,
      "Heard</w>": 5903,
      "Daimler</w>": 5904,
      "raising</w>": 5905,
      "deserve</w>": 5906,
      "Minnes": 5907,
      "predict</w>": 5908,
      "wasnt</w>": 5909,
      "decide</w>": 5910,
      "English</w>": 5911,
      "meaning</w>": 5912,
      "related</w>": 5913,
      "Correc": 5914,
      "Series</w>": 5915,
      "combined</w>": 5916,
      "stric": 5917,
      "daily</w>": 5918,
      "woman</w>": 5919,
      "relative</w>": 5920,
      "Intense</w>": 5921,
      "dinner</w>": 5922,
      "minimize</w>": 5923,
      "shareholder</w>": 5924,
      "collective</w>": 5925,
      "nonsense</w>": 5926,
      "Braz": 5927,
      "spirationally</w>": 5928,
      "heavily</w>": 5929,
      "sensors</w>": 5930,
      "Star</w>": 5931,
      "believing</w>": 5932,
      "GPU</w>": 5933,
      "dynamic</w>": 5934,
      "idiot</w>": 5935,
      "fairly</w>": 5936,
      "Virginia</w>": 5937,
      "consciousness</w>": 5938,
      "hospital</w>": 5939,
      "statement</w>": 5940,
      "digital</w>": 5941,
      "occup": 5942,
      "algorithm</w>": 5943,
      "innovation</w>": 5944,
      "Mountain</w>": 5945,
      "intui": 5946,
      "tweaks</w>": 5947,
      "episo": 5948,
      "threshold</w>": 5949,
      "platform</w>": 5950,
      "violence</w>": 5951,
      "Obviously</w>": 5952,
      "benefit</w>": 5953,
      "kidding</w>": 5954,
      "proportion": 5955,
      "Draco</w>": 5956,
      "housing</w>": 5957,
      "Minnesota</w>": 5958,
      "25</w>": 5959,
      "250</w>": 5960,
      "35k</w>": 5961,
      "400</w>": 5962,
      "Ash": 5963,
      "Cha": 5964,
      "Dan</w>": 5965,
      "Data</w>": 5966,
      "Fro": 5967,
      "Gw": 5968,
      "Hen": 5969,
      "Has</w>": 5970,
      "Jan</w>": 5971,
      "Kany": 5972,
      "Knight</w>": 5973,
      "Mem": 5974,
      "NI": 5975,
      "N2</w>": 5976,
      "Q4</w>": 5977,
      "RO": 5978,
      "Ru": 5979,
      "Sl": 5980,
      "Tin": 5981,
      "Target</w>": 5982,
      "Uk": 5983,
      "Ul": 5984,
      "V7</w>": 5985,
      "Won</w>": 5986,
      "aim</w>": 5987,
      "di</w>": 5988,
      "dare</w>": 5989,
      "dru": 5990,
      "duration</w>": 5991,
      "ges": 5992,
      "hull</w>": 5993,
      "kni": 5994,
      "nally</w>": 5995,
      "ods</w>": 5996,
      "pap": 5997,
      "patter": 5998,
      "sks</w>": 5999,
      "slower</w>": 6000,
      "season</w>": 6001,
      "wth</w>": 6002,
      "wis": 6003,
      "inev": 6004,
      "infinite</w>": 6005,
      "insurance</w>": 6006,
      "regre": 6007,
      "ream</w>": 6008,
      "restart</w>": 6009,
      "reduction</w>": 6010,
      "recharging</w>": 6011,
      "represent</w>": 6012,
      "arke</w>": 6013,
      "orting</w>": 6014,
      "enter</w>": 6015,
      "robot</w>": 6016,
      "robust</w>": 6017,
      "itting</w>": 6018,
      "atory</w>": 6019,
      "ill": 6020,
      "ilar</w>": 6021,
      "living</w>": 6022,
      "losing</w>": 6023,
      "Though": 6024,
      "sim": 6025,
      "sie</w>": 6026,
      "sively</w>": 6027,
      "elements</w>": 6028,
      "abin</w>": 6029,
      "unexpected</w>": 6030,
      "projects</w>": 6031,
      "protect</w>": 6032,
      "dise</w>": 6033,
      "sue</w>": 6034,
      "chose</w>": 6035,
      "poll</w>": 6036,
      "powers</w>": 6037,
      "moons</w>": 6038,
      "cauti": 6039,
      "cause": 6040,
      "causes</w>": 6041,
      "caught</w>": 6042,
      "shear</w>": 6043,
      "ultra": 6044,
      "Moving</w>": 6045,
      "ounding</w>": 6046,
      "cket</w>": 6047,
      "ckets</w>": 6048,
      "conf</w>": 6049,
      "ader</w>": 6050,
      "taire</w>": 6051,
      "doo</w>": 6052,
      "terms</w>": 6053,
      "perspective</w>": 6054,
      "citi": 6055,
      "usage</w>": 6056,
      "Steven</w>": 6057,
      "owned</w>": 6058,
      "financing</w>": 6059,
      "compete</w>": 6060,
      "mini</w>": 6061,
      "Incredi": 6062,
      "Infinite</w>": 6063,
      "appear</w>": 6064,
      "accep": 6065,
      "readers</w>": 6066,
      "trains</w>": 6067,
      "interface</w>": 6068,
      "presentation</w>": 6069,
      "Earths</w>": 6070,
      "Tran": 6071,
      "advoc": 6072,
      "Interview</w>": 6073,
      "Enhanced</w>": 6074,
      "joined</w>": 6075,
      "frames</w>": 6076,
      "Today</w>": 6077,
      "Total</w>": 6078,
      "deny</w>": 6079,
      "nav</w>": 6080,
      "dropped</w>": 6081,
      "rolled</w>": 6082,
      "blocked</w>": 6083,
      "multi</w>": 6084,
      "unveiled</w>": 6085,
      "singing</w>": 6086,
      "tember</w>": 6087,
      "Power</w>": 6088,
      "referr": 6089,
      "storical</w>": 6090,
      "suggesting</w>": 6091,
      "facto</w>": 6092,
      "taxi</w>": 6093,
      "arrived</w>": 6094,
      "floating</w>": 6095,
      "cycle</w>": 6096,
      "eroth</w>": 6097,
      "Franc": 6098,
      "Frank": 6099,
      "optimization</w>": 6100,
      "economics</w>": 6101,
      "stopping</w>": 6102,
      "ruled</w>": 6103,
      "Heart</w>": 6104,
      "Harris</w>": 6105,
      "members</w>": 6106,
      "shop</w>": 6107,
      "shock</w>": 6108,
      "printing</w>": 6109,
      "decision</w>": 6110,
      "describe</w>": 6111,
      "description</w>": 6112,
      "reliable</w>": 6113,
      "Latter</w>": 6114,
      "Similar</w>": 6115,
      "ramping</w>": 6116,
      "situations</w>": 6117,
      "breakfast</w>": 6118,
      "heric</w>": 6119,
      "surprising</w>": 6120,
      "password</w>": 6121,
      "democra": 6122,
      "evolving</w>": 6123,
      "premise</w>": 6124,
      "midnight</w>": 6125,
      "circle</w>": 6126,
      "explain</w>": 6127,
      "Brian</w>": 6128,
      "hurt</w>": 6129,
      "contribution</w>": 6130,
      "Scienti": 6131,
      "rescue</w>": 6132,
      "Clarke</w>": 6133,
      "throughout</w>": 6134,
      "navigation</w>": 6135,
      "external</w>": 6136,
      "Building</w>": 6137,
      "Truth</w>": 6138,
      "micro": 6139,
      "phase</w>": 6140,
      "sketch</w>": 6141,
      "avionics</w>": 6142,
      "hammer</w>": 6143,
      "ardians</w>": 6144,
      "spacesuit</w>": 6145,
      "September</w>": 6146,
      "Saturn</w>": 6147,
      "Voltaire</w>": 6148,
      "Biggest</w>": 6149,
      "symptoms</w>": 6150,
      "inertia</w>": 6151,
      "notice</w>": 6152,
      "experien": 6153,
      "chassis</w>": 6154,
      "intuitive</w>": 6155,
      "Gwyn": 6156,
      "Kanye</w>": 6157,
      "Ukra": 6158,
      "Thoughtful</w>": 6159,
      "Incredibly</w>": 6160,
      "60": 6161,
      "Asc": 6162,
      "Du": 6163,
      "Ex</w>": 6164,
      "Econ": 6165,
      "Fin": 6166,
      "Hor": 6167,
      "Hes</w>": 6168,
      "IC": 6169,
      "Justice</w>": 6170,
      "Kim</w>": 6171,
      "LE": 6172,
      "Mil": 6173,
      "Mul": 6174,
      "Needed</w>": 6175,
      "Oni": 6176,
      "Pol": 6177,
      "Play</w>": 6178,
      "Ris": 6179,
      "Roughly</w>": 6180,
      "RHD</w>": 6181,
      "SE": 6182,
      "UNI": 6183,
      "Wil": 6184,
      "Went</w>": 6185,
      "Wed": 6186,
      "asp": 6187,
      "bes</w>": 6188,
      "biting</w>": 6189,
      "bled</w>": 6190,
      "edy</w>": 6191,
      "fying</w>": 6192,
      "fold</w>": 6193,
      "gue</w>": 6194,
      "gus</w>": 6195,
      "galactic</w>": 6196,
      "ler": 6197,
      "oh</w>": 6198,
      "pil": 6199,
      "rying</w>": 6200,
      "sop": 6201,
      "scam</w>": 6202,
      "uz</w>": 6203,
      "utions</w>": 6204,
      "ured</w>": 6205,
      "wra": 6206,
      "yn</w>": 6207,
      "zone</w>": 6208,
      "zarre</w>": 6209,
      "inner</w>": 6210,
      "influ": 6211,
      "inspired</w>": 6212,
      "tho": 6213,
      "thus</w>": 6214,
      "ren</w>": 6215,
      "remin": 6216,
      "regen</w>": 6217,
      "anos</w>": 6218,
      "ouch</w>": 6219,
      "onally</w>": 6220,
      "enty</w>": 6221,
      "rot": 6222,
      "ampo": 6223,
      "stes</w>": 6224,
      "omist</w>": 6225,
      "lidar</w>": 6226,
      "Thought</w>": 6227,
      "ung</w>": 6228,
      "protection</w>": 6229,
      "rage</w>": 6230,
      "lab</w>": 6231,
      "master</w>": 6232,
      "comet</w>": 6233,
      "comfor": 6234,
      "compression</w>": 6235,
      "sume</w>": 6236,
      "vers": 6237,
      "che</w>": 6238,
      "choo": 6239,
      "shouldnt</w>": 6240,
      "span</w>": 6241,
      "sole</w>": 6242,
      "eeward</w>": 6243,
      "constitu": 6244,
      "advis": 6245,
      "docks</w>": 6246,
      "import": 6247,
      "beach</w>": 6248,
      "tered</w>": 6249,
      "uty</w>": 6250,
      "they": 6251,
      "coat</w>": 6252,
      "sey</w>": 6253,
      "seum</w>": 6254,
      "ass": 6255,
      "ped": 6256,
      "parked</w>": 6257,
      "museum</w>": 6258,
      "nickel</w>": 6259,
      "creative</w>": 6260,
      "trick</w>": 6261,
      "finan": 6262,
      "finally</w>": 6263,
      "bogus</w>": 6264,
      "descent</w>": 6265,
      "mega</w>": 6266,
      "bizarre</w>": 6267,
      "parents</w>": 6268,
      "saved</w>": 6269,
      "conting": 6270,
      "somewhere</w>": 6271,
      "attacking</w>": 6272,
      "Comments</w>": 6273,
      "federal</w>": 6274,
      "flat</w>": 6275,
      "flamethrowers</w>": 6276,
      "cracker</w>": 6277,
      "centri": 6278,
      "surfaces</w>": 6279,
      "velope</w>": 6280,
      "there": 6281,
      "depending</w>": 6282,
      "shirt</w>": 6283,
      "bahn</w>": 6284,
      "Law</w>": 6285,
      "DoD</w>": 6286,
      "signal</w>": 6287,
      "outfit</w>": 6288,
      "passing</w>": 6289,
      "ulah</w>": 6290,
      "ulative</w>": 6291,
      "taining</w>": 6292,
      "volution</w>": 6293,
      "God": 6294,
      "inction</w>": 6295,
      "Norwe": 6296,
      "Soci": 6297,
      "edge</w>": 6298,
      "captured</w>": 6299,
      "weak</w>": 6300,
      "Rockets</w>": 6301,
      "considering</w>": 6302,
      "simplif": 6303,
      "New": 6304,
      "detailed</w>": 6305,
      "sustaining</w>": 6306,
      "checks</w>": 6307,
      "stormy</w>": 6308,
      "powertrain</w>": 6309,
      "tea</w>": 6310,
      "troll</w>": 6311,
      "viewing</w>": 6312,
      "Seemed</w>": 6313,
      "broken</w>": 6314,
      "imation</w>": 6315,
      "achieves</w>": 6316,
      "superalloy</w>": 6317,
      "police</w>": 6318,
      "Giving</w>": 6319,
      "suggested</w>": 6320,
      "Front</w>": 6321,
      "donating</w>": 6322,
      "spoke</w>": 6323,
      "inference</w>": 6324,
      "assembled</w>": 6325,
      "memory</w>": 6326,
      "silver</w>": 6327,
      "Free": 6328,
      "modern</w>": 6329,
      "insan": 6330,
      "Brit": 6331,
      "windows</w>": 6332,
      "growth</w>": 6333,
      "Corre": 6334,
      "logies</w>": 6335,
      "Small</w>": 6336,
      "CEF</w>": 6337,
      "Germany</w>": 6338,
      "cancer</w>": 6339,
      "defense</w>": 6340,
      "recog": 6341,
      "hydrogen</w>": 6342,
      "Honored</w>": 6343,
      "Jersey</w>": 6344,
      "stern</w>": 6345,
      "rights</w>": 6346,
      "liberty</w>": 6347,
      "enemies</w>": 6348,
      "Talulah</w>": 6349,
      "capita</w>": 6350,
      "whereas</w>": 6351,
      "emoji</w>": 6352,
      "Autobahn</w>": 6353,
      "nominal</w>": 6354,
      "consistent</w>": 6355,
      "FTW</w>": 6356,
      "felt</w>": 6357,
      "regarding</w>": 6358,
      "collision</w>": 6359,
      "principle</w>": 6360,
      "neighbor": 6361,
      "pyramids</w>": 6362,
      "slowly</w>": 6363,
      "Stanford</w>": 6364,
      "windward</w>": 6365,
      "APJ</w>": 6366,
      "Effect</w>": 6367,
      "buffer</w>": 6368,
      "Artists</w>": 6369,
      "Original</w>": 6370,
      "Angel": 6371,
      "Recovery</w>": 6372,
      "characters</w>": 6373,
      "Storm</w>": 6374,
      "passenger</w>": 6375,
      "George</w>": 6376,
      "inevitable</w>": 6377,
      "Ukraine</w>": 6378,
      "Ascent</w>": 6379,
      "Economist</w>": 6380,
      "Onion</w>": 6381,
      "UNICEF</w>": 6382,
      "Adam": 6383,
      "BBC</w>": 6384,
      "Cal": 6385,
      "Cul": 6386,
      "Dr": 6387,
      "Ed": 6388,
      "Grid</w>": 6389,
      "HV": 6390,
      "Ini": 6391,
      "Je": 6392,
      "Jon</w>": 6393,
      "Kids</w>": 6394,
      "Lim": 6395,
      "Lord</w>": 6396,
      "NA</w>": 6397,
      "RT</w>": 6398,
      "Rand</w>": 6399,
      "Rough</w>": 6400,
      "Resp": 6401,
      "SX": 6402,
      "Sentry</w>": 6403,
      "Ton": 6404,
      "Wont</w>": 6405,
      "Watch": 6406,
      "adise</w>": 6407,
      "dating</w>": 6408,
      "food</w>": 6409,
      "fought</w>": 6410,
      "glit": 6411,
      "han": 6412,
      "hero</w>": 6413,
      "henge</w>": 6414,
      "ired</w>": 6415,
      "justi": 6416,
      "kn": 6417,
      "kies</w>": 6418,
      "knew</w>": 6419,
      "mus": 6420,
      "naturally</w>": 6421,
      "pun": 6422,
      "pers</w>": 6423,
      "pumps</w>": 6424,
      "ra</w>": 6425,
      "stic": 6426,
      "ten": 6427,
      "tles</w>": 6428,
      "trend</w>": 6429,
      "v2</w>": 6430,
      "wel": 6431,
      "yuz</w>": 6432,
      "inde": 6433,
      "inver": 6434,
      "inge</w>": 6435,
      "inty</w>": 6436,
      "inaccurate</w>": 6437,
      "erable</w>": 6438,
      "revolu": 6439,
      "anti": 6440,
      "anted</w>": 6441,
      "anese</w>": 6442,
      "tied</w>": 6443,
      "tique</w>": 6444,
      "ords</w>": 6445,
      "alty</w>": 6446,
      "eng</w>": 6447,
      "enAI</w>": 6448,
      "envelope</w>": 6449,
      "escop": 6450,
      "stag": 6451,
      "rising</w>": 6452,
      "deorbit</w>": 6453,
      "Thr": 6454,
      "bul": 6455,
      "layers</w>": 6456,
      "dience</w>": 6457,
      "posting</w>": 6458,
      "moved</w>": 6459,
      "figh": 6460,
      "figu": 6461,
      "eeding</w>": 6462,
      "congr": 6463,
      "confusion</w>": 6464,
      "concrete</w>": 6465,
      "advi": 6466,
      "doll": 6467,
      "emis": 6468,
      "ples</w>": 6469,
      "perfec": 6470,
      "coinci": 6471,
      "cially</w>": 6472,
      "led": 6473,
      "lets</w>": 6474,
      "forget</w>": 6475,
      "ourselves</w>": 6476,
      "ums</w>": 6477,
      "ticle</w>": 6478,
      "cred": 6479,
      "leaving</w>": 6480,
      "pupp": 6481,
      "alive</w>": 6482,
      "lood</w>": 6483,
      "server</w>": 6484,
      "energi": 6485,
      "pairs</w>": 6486,
      "stronom": 6487,
      "saves</w>": 6488,
      "trait</w>": 6489,
      "Reply</w>": 6490,
      "suppliers</w>": 6491,
      "held</w>": 6492,
      "safely</w>": 6493,
      "Green</w>": 6494,
      "Los</w>": 6495,
      "Loved</w>": 6496,
      "SuperDraco</w>": 6497,
      "Mayans</w>": 6498,
      "award</w>": 6499,
      "lifting</w>": 6500,
      "Make</w>": 6501,
      "thered</w>": 6502,
      "therine</w>": 6503,
      "advent</w>": 6504,
      "warning</w>": 6505,
      "Problem</w>": 6506,
      "inten": 6507,
      "match</w>": 6508,
      "mature</w>": 6509,
      "wave</w>": 6510,
      "approach": 6511,
      "invited</w>": 6512,
      "metap": 6513,
      "Audi</w>": 6514,
      "courses</w>": 6515,
      "Soyuz</w>": 6516,
      "damn</w>": 6517,
      "personal</w>": 6518,
      "lining</w>": 6519,
      "install</w>": 6520,
      "Under</w>": 6521,
      "Actual</w>": 6522,
      "Canadian</w>": 6523,
      "long": 6524,
      "investor</w>": 6525,
      "anten": 6526,
      "sche</w>": 6527,
      "airport</w>": 6528,
      "Improbability</w>": 6529,
      "checked</w>": 6530,
      "Article</w>": 6531,
      "breaks</w>": 6532,
      "transl": 6533,
      "transaction</w>": 6534,
      "taxing</w>": 6535,
      "beast</w>": 6536,
      "Adjust": 6537,
      "Possi": 6538,
      "cookies</w>": 6539,
      "initially</w>": 6540,
      "Appreci": 6541,
      "Difficul": 6542,
      "northern</w>": 6543,
      "Massie</w>": 6544,
      "Technology</w>": 6545,
      "moments</w>": 6546,
      "analysts</w>": 6547,
      "Takes</w>": 6548,
      "writer</w>": 6549,
      "journalism</w>": 6550,
      "Upgra": 6551,
      "affected</w>": 6552,
      "concern</w>": 6553,
      "telescop": 6554,
      "growing</w>": 6555,
      "wild</w>": 6556,
      "Basically</w>": 6557,
      "Baseball</w>": 6558,
      "condition</w>": 6559,
      "geostationary</w>": 6560,
      "explosion</w>": 6561,
      "biosis</w>": 6562,
      "John</w>": 6563,
      "OpenAI</w>": 6564,
      "reasonably</w>": 6565,
      "goods</w>": 6566,
      "enabled</w>": 6567,
      "exponentially</w>": 6568,
      "Strange</w>": 6569,
      "Signing</w>": 6570,
      "nonstop</w>": 6571,
      "viruses</w>": 6572,
      "Gen3</w>": 6573,
      "constraint</w>": 6574,
      "couple</w>": 6575,
      "Ironically</w>": 6576,
      "miniature</w>": 6577,
      "nesday</w>": 6578,
      "ryp": 6579,
      "snail</w>": 6580,
      "prevented</w>": 6581,
      "IMF</w>": 6582,
      "eye</w>": 6583,
      "programs</w>": 6584,
      "Announcing</w>": 6585,
      "pedestrian</w>": 6586,
      "meltdown</w>": 6587,
      "ambient</w>": 6588,
      "replacement</w>": 6589,
      "500M</w>": 6590,
      "Beautiful</w>": 6591,
      "horsef</w>": 6592,
      "squirrel</w>": 6593,
      "parachutes</w>": 6594,
      "Engineering</w>": 6595,
      "Catherine</w>": 6596,
      "Odds</w>": 6597,
      "Stock</w>": 6598,
      "pretending</w>": 6599,
      "volcano</w>": 6600,
      "LAX</w>": 6601,
      "sentient</w>": 6602,
      "spaceflight</w>": 6603,
      "Owner</w>": 6604,
      "blackouts</w>": 6605,
      "convinced</w>": 6606,
      "grief</w>": 6607,
      "incentive</w>": 6608,
      "conservative</w>": 6609,
      "civilizations</w>": 6610,
      "cautious</w>": 6611,
      "Wednesday</w>": 6612,
      "Britain</w>": 6613,
      "neighborhood</w>": 6614,
      "Angeles</w>": 6615,
      "Adams</w>": 6616,
      "HVAC</w>": 6617,
      "Jeff</w>": 6618,
      "glitch</w>": 6619,
      "Adjusting</w>": 6620,
      "200": 6621,
      "2500</w>": 6622,
      "Bought</w>": 6623,
      "Cars</w>": 6624,
      "DO": 6625,
      "DJ</w>": 6626,
      "Dual</w>": 6627,
      "Equ": 6628,
      "Eas": 6629,
      "FB</w>": 6630,
      "Fren": 6631,
      "Go</w>": 6632,
      "Games</w>": 6633,
      "Hu": 6634,
      "Iridi": 6635,
      "Lets</w>": 6636,
      "Mk</w>": 6637,
      "Mad</w>": 6638,
      "Ol": 6639,
      "Over": 6640,
      "PR</w>": 6641,
      "Pra": 6642,
      "Puti": 6643,
      "PDT</w>": 6644,
      "Q1</w>": 6645,
      "Rol": 6646,
      "Real</w>": 6647,
      "SN</w>": 6648,
      "Sad</w>": 6649,
      "Spi": 6650,
      "Show</w>": 6651,
      "Sending</w>": 6652,
      "Tom": 6653,
      "Took</w>": 6654,
      "Uh</w>": 6655,
      "UK</w>": 6656,
      "Van</w>": 6657,
      "Win": 6658,
      "Year</w>": 6659,
      "bacc": 6660,
      "cd</w>": 6661,
      "dary</w>": 6662,
      "eyes</w>": 6663,
      "hour": 6664,
      "hats</w>": 6665,
      "jective</w>": 6666,
      "ka</w>": 6667,
      "mT</w>": 6668,
      "mun": 6669,
      "ots</w>": 6670,
      "pull</w>": 6671,
      "rn</w>": 6672,
      "targ": 6673,
      "tree</w>": 6674,
      "tari": 6675,
      "text</w>": 6676,
      "ud</w>": 6677,
      "whi": 6678,
      "zo": 6679,
      "zard</w>": 6680,
      "zens</w>": 6681,
      "insi": 6682,
      "inking</w>": 6683,
      "income</w>": 6684,
      "inces</w>": 6685,
      "insul": 6686,
      "intro</w>": 6687,
      "thin</w>": 6688,
      "ernel</w>": 6689,
      "rev</w>": 6690,
      "anz": 6691,
      "ander</w>": 6692,
      "ante</w>": 6693,
      "arc</w>": 6694,
      "arby</w>": 6695,
      "tives</w>": 6696,
      "orgs</w>": 6697,
      "ordin": 6698,
      "enly</w>": 6699,
      "eness</w>": 6700,
      "enroute</w>": 6701,
      "encies</w>": 6702,
      "essive</w>": 6703,
      "estimate</w>": 6704,
      "stan": 6705,
      "stery</w>": 6706,
      "stabili": 6707,
      "logo</w>": 6708,
      "devi": 6709,
      "degree</w>": 6710,
      "delet": 6711,
      "sides</w>": 6712,
      "absol": 6713,
      "unk": 6714,
      "uncertainty</w>": 6715,
      "pros</w>": 6716,
      "neither</w>": 6717,
      "nearby</w>": 6718,
      "oop</w>": 6719,
      "lair</w>": 6720,
      "comm</w>": 6721,
      "suff": 6722,
      "pol": 6723,
      "modi": 6724,
      "shouldn</w>": 6725,
      "speak</w>": 6726,
      "tox": 6727,
      "tobacc": 6728,
      "adap": 6729,
      "dude</w>": 6730,
      "uttle</w>": 6731,
      "perman": 6732,
      "pact</w>": 6733,
      "asing</w>": 6734,
      "asks</w>": 6735,
      "preh": 6736,
      "igs</w>": 6737,
      "hop</w>": 6738,
      "peace</w>": 6739,
      "partially</w>": 6740,
      "upid</w>": 6741,
      "crewed</w>": 6742,
      "creasing</w>": 6743,
      "gold</w>": 6744,
      "trippy</w>": 6745,
      "twist</w>": 6746,
      "recy": 6747,
      "helic": 6748,
      "stain</w>": 6749,
      "actuator</w>": 6750,
      "missile</w>": 6751,
      "Starman</w>": 6752,
      "Alto</w>": 6753,
      "applies</w>": 6754,
      "applications</w>": 6755,
      "biz</w>": 6756,
      "path": 6757,
      "painted</w>": 6758,
      "accum": 6759,
      "Such</w>": 6760,
      "trav": 6761,
      "turning</w>": 6762,
      "interven": 6763,
      "Char": 6764,
      "pressing</w>": 6765,
      "Shuttle</w>": 6766,
      "fees</w>": 6767,
      "auth": 6768,
      "safest</w>": 6769,
      "factories</w>": 6770,
      "flame</w>": 6771,
      "Lot": 6772,
      "cording</w>": 6773,
      "sensitive</w>": 6774,
      "phil": 6775,
      "awa": 6776,
      "lifts</w>": 6777,
      "crane</w>": 6778,
      "Contin": 6779,
      "century</w>": 6780,
      "overall</w>": 6781,
      "carried</w>": 6782,
      "carmakers</w>": 6783,
      "advance</w>": 6784,
      "intenti": 6785,
      "intended</w>": 6786,
      "skit</w>": 6787,
      "math</w>": 6788,
      "inva": 6789,
      "invest</w>": 6790,
      "joy</w>": 6791,
      "ggage</w>": 6792,
      "deadly</w>": 6793,
      "Capit": 6794,
      "voltage</w>": 6795,
      "bration</w>": 6796,
      "unveils</w>": 6797,
      "consider": 6798,
      "Under": 6799,
      "Unless</w>": 6800,
      "According</w>": 6801,
      "shape</w>": 6802,
      "launchpad</w>": 6803,
      "Market</w>": 6804,
      "judi": 6805,
      "succeed</w>": 6806,
      "horn</w>": 6807,
      "check": 6808,
      "alloys</w>": 6809,
      "stories</w>": 6810,
      "100k</w>": 6811,
      "Cycling</w>": 6812,
      "Flint</w>": 6813,
      "specs</w>": 6814,
      "stress</w>": 6815,
      "streams</w>": 6816,
      "Powerpack</w>": 6817,
      "Seeing</w>": 6818,
      "brother</w>": 6819,
      "Turning</w>": 6820,
      "butt</w>": 6821,
      "luggage</w>": 6822,
      "purpose</w>": 6823,
      "superhuman</w>": 6824,
      "estate</w>": 6825,
      "HW1</w>": 6826,
      "bricks</w>": 6827,
      "nuts</w>": 6828,
      "foolish</w>": 6829,
      "shots</w>": 6830,
      "printer</w>": 6831,
      "mystery</w>": 6832,
      "prediction</w>": 6833,
      "Upcoming</w>": 6834,
      "claim": 6835,
      "classi": 6836,
      "garage</w>": 6837,
      "odds</w>": 6838,
      "birth</w>": 6839,
      "secondary</w>": 6840,
      "telemetry</w>": 6841,
      "criticisms</w>": 6842,
      "meantime</w>": 6843,
      "autosequence</w>": 6844,
      "journalist</w>": 6845,
      "30k</w>": 6846,
      "clarification</w>": 6847,
      "reviews</w>": 6848,
      "relatively</w>": 6849,
      "enabling</w>": 6850,
      "profitable</w>": 6851,
      "thousand</w>": 6852,
      "individuals</w>": 6853,
      "adjusted</w>": 6854,
      "convinces</w>": 6855,
      "maximize</w>": 6856,
      "Didnt</w>": 6857,
      "exceptional</w>": 6858,
      "preventing</w>": 6859,
      "headline</w>": 6860,
      "pedestrians</w>": 6861,
      "narrow</w>": 6862,
      "legislation</w>": 6863,
      "toughest</w>": 6864,
      "afternoon</w>": 6865,
      "Officer</w>": 6866,
      "Reading</w>": 6867,
      "sample</w>": 6868,
      "lightning</w>": 6869,
      "defeated</w>": 6870,
      "sheer</w>": 6871,
      "display</w>": 6872,
      "Palo</w>": 6873,
      "sponge</w>": 6874,
      "BTC</w>": 6875,
      "bomb</w>": 6876,
      "insertion</w>": 6877,
      "ampli": 6878,
      "bunch</w>": 6879,
      "strategy</w>": 6880,
      "Butt": 6881,
      "rumor</w>": 6882,
      "gestures</w>": 6883,
      "reminder</w>": 6884,
      "Culture</w>": 6885,
      "Easy</w>": 6886,
      "French</w>": 6887,
      "Iridium</w>": 6888,
      "Putin</w>": 6889,
      "Tomorrow</w>": 6890,
      "tobacco</w>": 6891,
      "helicopter</w>": 6892,
      "45</w>": 6893,
      "5B</w>": 6894,
      "70</w>": 6895,
      "Amis": 6896,
      "Afri": 6897,
      "Aston</w>": 6898,
      "Ahem</w>": 6899,
      "Bus": 6900,
      "Cover": 6901,
      "Cause</w>": 6902,
      "Class</w>": 6903,
      "CNN</w>": 6904,
      "Dark</w>": 6905,
      "Eli": 6906,
      "Ess": 6907,
      "FP": 6908,
      "Fil": 6909,
      "Fit</w>": 6910,
      "Ful": 6911,
      "Found</w>": 6912,
      "Free</w>": 6913,
      "Face": 6914,
      "Gover": 6915,
      "Glen": 6916,
      "Ham": 6917,
      "Hey</w>": 6918,
      "HEPA</w>": 6919,
      "IM</w>": 6920,
      "IR</w>": 6921,
      "Jour": 6922,
      "Mi": 6923,
      "Met": 6924,
      "Mag": 6925,
      "Nature</w>": 6926,
      "OL</w>": 6927,
      "Pin": 6928,
      "Prec": 6929,
      "Pics</w>": 6930,
      "PCR</w>": 6931,
      "Rad": 6932,
      "Saf": 6933,
      "Stain": 6934,
      "Ter": 6935,
      "TBC</w>": 6936,
      "TCP</w>": 6937,
      "Vac": 6938,
      "average</w>": 6939,
      "bon": 6940,
      "bars</w>": 6941,
      "bear</w>": 6942,
      "balls</w>": 6943,
      "dat": 6944,
      "dred</w>": 6945,
      "eph": 6946,
      "fed</w>": 6947,
      "ggy</w>": 6948,
      "hello</w>": 6949,
      "ious</w>": 6950,
      "jury</w>": 6951,
      "kW</w>": 6952,
      "kin</w>": 6953,
      "kale</w>": 6954,
      "leeward</w>": 6955,
      "names</w>": 6956,
      "ol</w>": 6957,
      "ogy</w>": 6958,
      "osa": 6959,
      "ps": 6960,
      "par</w>": 6961,
      "plot</w>": 6962,
      "punk</w>": 6963,
      "ron</w>": 6964,
      "sac": 6965,
      "sma": 6966,
      "sby</w>": 6967,
      "sest</w>": 6968,
      "sements</w>": 6969,
      "too": 6970,
      "wings</w>": 6971,
      "zz</w>": 6972,
      "thering</w>": 6973,
      "reson": 6974,
      "reverse</w>": 6975,
      "restric": 6976,
      "anom": 6977,
      "aries</w>": 6978,
      "ales</w>": 6979,
      "estim": 6980,
      "essage</w>": 6981,
      "itation</w>": 6982,
      "ilers</w>": 6983,
      "amo": 6984,
      "ammed</w>": 6985,
      "std</w>": 6986,
      "locked</w>": 6987,
      "rig</w>": 6988,
      "dev</w>": 6989,
      "deep": 6990,
      "Thru": 6991,
      "sional</w>": 6992,
      "aborts</w>": 6993,
      "ectors</w>": 6994,
      "historical</w>": 6995,
      "prod</w>": 6996,
      "project</w>": 6997,
      "div</w>": 6998,
      "has": 6999,
      "suri": 7000,
      "vic": 7001,
      "chutes</w>": 7002,
      "mod": 7003,
      "mos</w>": 7004,
      "moths</w>": 7005,
      "shd</w>": 7006,
      "shar": 7007,
      "shut</w>": 7008,
      "ulit": 7009,
      "ultimate</w>": 7010,
      "Movie</w>": 7011,
      "tocurrency</w>": 7012,
      "additional</w>": 7013,
      "taught</w>": 7014,
      "pls</w>": 7015,
      "cows</w>": 7016,
      "cov2</w>": 7017,
      "que": 7018,
      "pace</w>": 7019,
      "lee</w>": 7020,
      "prebur": 7021,
      "holo": 7022,
      "Spacecraft</w>": 7023,
      "partly</w>": 7024,
      "partial</w>": 7025,
      "aps</w>": 7026,
      "leaders</w>": 7027,
      "fuels</w>": 7028,
      "trim</w>": 7029,
      "purely</w>": 7030,
      "meds</w>": 7031,
      "drift</w>": 7032,
      "alies</w>": 7033,
      "wipe</w>": 7034,
      "gring</w>": 7035,
      "paign</w>": 7036,
      "strang": 7037,
      "accept</w>": 7038,
      "buildings</w>": 7039,
      "expand</w>": 7040,
      "Project</w>": 7041,
      "Ans": 7042,
      "andoned</w>": 7043,
      "Change</w>": 7044,
      "Chanos</w>": 7045,
      "Commissi": 7046,
      "liter": 7047,
      "presents</w>": 7048,
      "elected</w>": 7049,
      "flu</w>": 7050,
      "flush</w>": 7051,
      "objects</w>": 7052,
      "crush</w>": 7053,
      "Consi": 7054,
      "trucks</w>": 7055,
      "ownership</w>": 7056,
      "medium</w>": 7057,
      "ski": 7058,
      "prac": 7059,
      "plastic</w>": 7060,
      "jokes</w>": 7061,
      "rements</w>": 7062,
      "Tom</w>": 7063,
      "mix": 7064,
      "salt</w>": 7065,
      "manag": 7066,
      "dense</w>": 7067,
      "dently</w>": 7068,
      "marks</w>": 7069,
      "differences</w>": 7070,
      "dropping</w>": 7071,
      "campaign</w>": 7072,
      "burgring</w>": 7073,
      "collapse</w>": 7074,
      "blows</w>": 7075,
      "shade</w>": 7076,
      "know": 7077,
      "exists</w>": 7078,
      "airplanes</w>": 7079,
      "Ars</w>": 7080,
      "Between</w>": 7081,
      "facts</w>": 7082,
      "facility</w>": 7083,
      "stration</w>": 7084,
      "initiated</w>": 7085,
      "regime</w>": 7086,
      "offered</w>": 7087,
      "stronger</w>": 7088,
      "Bio": 7089,
      "Paradise</w>": 7090,
      "Credit</w>": 7091,
      "business</w>": 7092,
      "Harder</w>": 7093,
      "environments</w>": 7094,
      "Dawn</w>": 7095,
      "chief</w>": 7096,
      "download</w>": 7097,
      "decided</w>": 7098,
      "described</w>": 7099,
      "Obama</w>": 7100,
      "calendar</w>": 7101,
      "tele": 7102,
      "Anything</w>": 7103,
      "Plan</w>": 7104,
      "Guess</w>": 7105,
      "Wait</w>": 7106,
      "combine</w>": 7107,
      "clicks</w>": 7108,
      "entering</w>": 7109,
      "resistance</w>": 7110,
      "convenience</w>": 7111,
      "independently</w>": 7112,
      "virus</w>": 7113,
      "trilogy</w>": 7114,
      "turbopumps</w>": 7115,
      "constrained</w>": 7116,
      "replies</w>": 7117,
      "guarantee</w>": 7118,
      "Honda</w>": 7119,
      "sunset</w>": 7120,
      "maximum</w>": 7121,
      "navigate</w>": 7122,
      "sensor</w>": 7123,
      "Deeply</w>": 7124,
      "symbiosis</w>": 7125,
      "transition</w>": 7126,
      "enemy</w>": 7127,
      "absor": 7128,
      "committed</w>": 7129,
      "domain</w>": 7130,
      "Navigation</w>": 7131,
      "redund": 7132,
      "movement</w>": 7133,
      "General</w>": 7134,
      "Reno</w>": 7135,
      "reduced</w>": 7136,
      "convenient</w>": 7137,
      "dollar</w>": 7138,
      "VTOL</w>": 7139,
      "Whoa</w>": 7140,
      "regulations</w>": 7141,
      "Fixed</w>": 7142,
      "Easier</w>": 7143,
      "meaningful</w>": 7144,
      "occupant</w>": 7145,
      "Ashlee</w>": 7146,
      "Slacker</w>": 7147,
      "wisdom</w>": 7148,
      "democratic</w>": 7149,
      "comfortable</w>": 7150,
      "Norwegian</w>": 7151,
      "insanely</w>": 7152,
      "DOE</w>": 7153,
      "stabilize</w>": 7154,
      "recycling</w>": 7155,
      "Capitol</w>": 7156,
      "Amish</w>": 7157,
      "Africa</w>": 7158,
      "Business</w>": 7159,
      "Fully</w>": 7160,
      "Facebook</w>": 7161,
      "Glenn</w>": 7162,
      "Radar</w>": 7163,
      "Stainless</w>": 7164,
      "psi</w>": 7165,
      "sacri": 7166,
      "anomalies</w>": 7167,
      "deeply</w>": 7168,
      "Thruster</w>": 7169,
      "Commissioner</w>": 7170,
      "90</w>": 7171,
      "9R</w>": 7172,
      "AR</w>": 7173,
      "A4</w>": 7174,
      "Astronauts</w>": 7175,
      "BB": 7176,
      "Bon": 7177,
      "CP": 7178,
      "Clo": 7179,
      "Cra": 7180,
      "Close</w>": 7181,
      "COP": 7182,
      "DA</w>": 7183,
      "F9R</w>": 7184,
      "GI</w>": 7185,
      "Her</w>": 7186,
      "Hal": 7187,
      "Ice</w>": 7188,
      "Less</w>": 7189,
      "Later</w>": 7190,
      "Mac": 7191,
      "Man</w>": 7192,
      "Nr": 7193,
      "None</w>": 7194,
      "National</w>": 7195,
      "Pas": 7196,
      "Pho": 7197,
      "Revol": 7198,
      "Shi": 7199,
      "Sara": 7200,
      "TE</w>": 7201,
      "Tel": 7202,
      "Us</w>": 7203,
      "Used</w>": 7204,
      "Val": 7205,
      "Wo": 7206,
      "aero": 7207,
      "atively</w>": 7208,
      "barri": 7209,
      "bang</w>": 7210,
      "cand": 7211,
      "cabin</w>": 7212,
      "dinger</w>": 7213,
      "fat": 7214,
      "fet": 7215,
      "gl": 7216,
      "gli": 7217,
      "gar</w>": 7218,
      "hits</w>": 7219,
      "hang": 7220,
      "ial</w>": 7221,
      "ius</w>": 7222,
      "ishing</w>": 7223,
      "ja": 7224,
      "kt</w>": 7225,
      "ma</w>": 7226,
      "mount</w>": 7227,
      "mkt</w>": 7228,
      "pon</w>": 7229,
      "psy": 7230,
      "rs": 7231,
      "rally</w>": 7232,
      "rates</w>": 7233,
      "rdinger</w>": 7234,
      "sou": 7235,
      "slo": 7236,
      "sex": 7237,
      "sites</w>": 7238,
      "sler</w>": 7239,
      "tely</w>": 7240,
      "tours</w>": 7241,
      "ul</w>": 7242,
      "voc": 7243,
      "weld</w>": 7244,
      "yal</w>": 7245,
      "yay</w>": 7246,
      "yrs</w>": 7247,
      "induction</w>": 7248,
      "ergy</w>": 7249,
      "redesign</w>": 7250,
      "reply</w>": 7251,
      "reinfor": 7252,
      "reddit</w>": 7253,
      "retro</w>": 7254,
      "revolution</w>": 7255,
      "anec": 7256,
      "timon": 7257,
      "tish</w>": 7258,
      "ticket</w>": 7259,
      "onym": 7260,
      "alter": 7261,
      "alax": 7262,
      "eno": 7263,
      "ental</w>": 7264,
      "esday</w>": 7265,
      "rot</w>": 7266,
      "itt</w>": 7267,
      "achel": 7268,
      "amend": 7269,
      "stant</w>": 7270,
      "stated</w>": 7271,
      "stating</w>": 7272,
      "eapon</w>": 7273,
      "log</w>": 7274,
      "loses</w>": 7275,
      "lovely</w>": 7276,
      "locally</w>": 7277,
      "ribu": 7278,
      "deck</w>": 7279,
      "sibility</w>": 7280,
      "buyer</w>": 7281,
      "abilities</w>": 7282,
      "urance</w>": 7283,
      "uncompeted</w>": 7284,
      "ectively</w>": 7285,
      "hidden</w>": 7286,
      "prove</w>": 7287,
      "promo": 7288,
      "protest</w>": 7289,
      "proven</w>": 7290,
      "rails</w>": 7291,
      "diver</w>": 7292,
      "dialo": 7293,
      "haven</w>": 7294,
      "haul</w>": 7295,
      "compar": 7296,
      "comedy</w>": 7297,
      "vibe</w>": 7298,
      "chea": 7299,
      "chron": 7300,
      "pot</w>": 7301,
      "poor</w>": 7302,
      "catho": 7303,
      "shut": 7304,
      "shops</w>": 7305,
      "trac": 7306,
      "spir": 7307,
      "spring</w>": 7308,
      "Moon": 7309,
      "tos</w>": 7310,
      "town</w>": 7311,
      "towers</w>": 7312,
      "contains</w>": 7313,
      "admi": 7314,
      "dozen</w>": 7315,
      "impression</w>": 7316,
      "plu": 7317,
      "istic</w>": 7318,
      "coco</w>": 7319,
      "cist</w>": 7320,
      "ower</w>": 7321,
      "oweapon</w>": 7322,
      "bodies</w>": 7323,
      "Started</w>": 7324,
      "applying</w>": 7325,
      "accoun": 7326,
      "Sub": 7327,
      "explic": 7328,
      "stit": 7329,
      "Produc": 7330,
      "trade": 7331,
      "trading</w>": 7332,
      "ffs</w>": 7333,
      "internally</w>": 7334,
      "boom</w>": 7335,
      "anged</w>": 7336,
      "Chry": 7337,
      "Commit": 7338,
      "Royal</w>": 7339,
      "Early</w>": 7340,
      "fee</w>": 7341,
      "secre": 7342,
      "secured</w>": 7343,
      "earning</w>": 7344,
      "election</w>": 7345,
      "anctimon": 7346,
      "highways</w>": 7347,
      "extinguish": 7348,
      "closest</w>": 7349,
      "critici": 7350,
      "oversight</w>": 7351,
      "overhaul</w>": 7352,
      "carrying</w>": 7353,
      "eption</w>": 7354,
      "controls</w>": 7355,
      "generalized</w>": 7356,
      "brilliant</w>": 7357,
      "Enough</w>": 7358,
      "Energy</w>": 7359,
      "passive</w>": 7360,
      "passage</w>": 7361,
      "plays</w>": 7362,
      "upgrading</w>": 7363,
      "gehammer</w>": 7364,
      "Nobody</w>": 7365,
      "werent</w>": 7366,
      "short": 7367,
      "showed</w>": 7368,
      "shares</w>": 7369,
      "sourced</w>": 7370,
      "Marqu": 7371,
      "includes</w>": 7372,
      "endurance</w>": 7373,
      "horses</w>": 7374,
      "testi": 7375,
      "placing</w>": 7376,
      "Neil</w>": 7377,
      "Europ": 7378,
      "Impressive</w>": 7379,
      "Art</w>": 7380,
      "speculation</w>": 7381,
      "learning</w>": 7382,
      "largely</w>": 7383,
      "facilities</w>": 7384,
      "SN5</w>": 7385,
      "SN1</w>": 7386,
      "discounts</w>": 7387,
      "viewed</w>": 7388,
      "supports</w>": 7389,
      "functional</w>": 7390,
      "manual</w>": 7391,
      "blue</w>": 7392,
      "images</w>": 7393,
      "distribu": 7394,
      "confirmation</w>": 7395,
      "Pot": 7396,
      "buttons</w>": 7397,
      "luck</w>": 7398,
      "flows</w>": 7399,
      "sequences</w>": 7400,
      "responsible</w>": 7401,
      "Beli": 7402,
      "Been</w>": 7403,
      "atmospheric</w>": 7404,
      "square</w>": 7405,
      "raises</w>": 7406,
      "scientific</w>": 7407,
      "continuance</w>": 7408,
      "phobic</w>": 7409,
      "convert</w>": 7410,
      "hundred</w>": 7411,
      "Resear": 7412,
      "concerned</w>": 7413,
      "10k</w>": 7414,
      "Univ</w>": 7415,
      "keys</w>": 7416,
      "Tuesday</w>": 7417,
      "discuss</w>": 7418,
      "willing</w>": 7419,
      "synchron": 7420,
      "Currently</w>": 7421,
      "surprisingly</w>": 7422,
      "Technica</w>": 7423,
      "killed</w>": 7424,
      "aren</w>": 7425,
      "variant</w>": 7426,
      "irrelevant</w>": 7427,
      "Their</w>": 7428,
      "explained</w>": 7429,
      "correctly</w>": 7430,
      "reviewing</w>": 7431,
      "reviewed</w>": 7432,
      "begins</w>": 7433,
      "British</w>": 7434,
      "enables</w>": 7435,
      "reporter</w>": 7436,
      "quotes</w>": 7437,
      "counteract</w>": 7438,
      "servicing</w>": 7439,
      "elevators</w>": 7440,
      "hydrophobic</w>": 7441,
      "remotely</w>": 7442,
      "bottom</w>": 7443,
      "Fairing</w>": 7444,
      "switch</w>": 7445,
      "switched</w>": 7446,
      "throughput</w>": 7447,
      "exceptions</w>": 7448,
      "spiration</w>": 7449,
      "Herbert</w>": 7450,
      "slee": 7451,
      "heavier</w>": 7452,
      "reservation</w>": 7453,
      "rightly</w>": 7454,
      "promised</w>": 7455,
      "categ": 7456,
      "catast": 7457,
      "mechanical</w>": 7458,
      "Announcement</w>": 7459,
      "Machine</w>": 7460,
      "Schrdinger</w>": 7461,
      "Porsche</w>": 7462,
      "absurdly</w>": 7463,
      "Holding</w>": 7464,
      "gigawatt</w>": 7465,
      "subsidized</w>": 7466,
      "Hardcore</w>": 7467,
      "Planning</w>": 7468,
      "esthetic</w>": 7469,
      "roofs</w>": 7470,
      "iteration</w>": 7471,
      "vaccines</w>": 7472,
      "posal</w>": 7473,
      "scription</w>": 7474,
      "apocalypse</w>": 7475,
      "paranoid</w>": 7476,
      "compens": 7477,
      "startups</w>": 7478,
      "Guaranteed</w>": 7479,
      "thesis</w>": 7480,
      "entrance</w>": 7481,
      "verify</w>": 7482,
      "Turbo</w>": 7483,
      "knife</w>": 7484,
      "pattern</w>": 7485,
      "simpler</w>": 7486,
      "Horiz": 7487,
      "importantly</w>": 7488,
      "handed</w>": 7489,
      "figured</w>": 7490,
      "dollars</w>": 7491,
      "perfectly</w>": 7492,
      "ledgehammer</w>": 7493,
      "credits</w>": 7494,
      "energized</w>": 7495,
      "antenna</w>": 7496,
      "Appreciate</w>": 7497,
      "absolute</w>": 7498,
      "estimated</w>": 7499,
      "practical</w>": 7500,
      "BBQ</w>": 7501,
      "Nrburgring</w>": 7502,
      "Sarah</w>": 7503,
      "aerospace</w>": 7504,
      "rsly</w>": 7505,
      "onymous</w>": 7506,
      "alaxy</w>": 7507,
      "promote</w>": 7508,
      "cathode</w>": 7509,
      "shutdown</w>": 7510,
      "Chrysler</w>": 7511,
      "Committee</w>": 7512,
      "extinguisher</w>": 7513,
      "catastro": 7514,
      "1M</w>": 7515,
      "14</w>": 7516,
      "2O</w>": 7517,
      "55</w>": 7518,
      "9000</w>": 7519,
      "AE</w>": 7520,
      "Ast": 7521,
      "Ask</w>": 7522,
      "Cs</w>": 7523,
      "Den": 7524,
      "Doub": 7525,
      "EF": 7526,
      "Gro": 7527,
      "Gho": 7528,
      "H2O</w>": 7529,
      "Isa": 7530,
      "Idea": 7531,
      "Jack</w>": 7532,
      "LY</w>": 7533,
      "Lmk</w>": 7534,
      "LTE</w>": 7535,
      "Mt</w>": 7536,
      "Mon</w>": 7537,
      "Mat": 7538,
      "Nut": 7539,
      "Osl": 7540,
      "PV</w>": 7541,
      "Q3</w>": 7542,
      "Rom": 7543,
      "Run": 7544,
      "Rev": 7545,
      "Range</w>": 7546,
      "Rico</w>": 7547,
      "Say</w>": 7548,
      "Spr": 7549,
      "Sandy</w>": 7550,
      "SAE</w>": 7551,
      "Tough</w>": 7552,
      "V6</w>": 7553,
      "Wings</w>": 7554,
      "You": 7555,
      "Yep</w>": 7556,
      "Zeroth</w>": 7557,
      "awe</w>": 7558,
      "bf</w>": 7559,
      "bell</w>": 7560,
      "bound</w>": 7561,
      "beam</w>": 7562,
      "cel": 7563,
      "cup</w>": 7564,
      "cous": 7565,
      "copper</w>": 7566,
      "clist</w>": 7567,
      "dust</w>": 7568,
      "dinal</w>": 7569,
      "eo</w>": 7570,
      "eating</w>": 7571,
      "ger": 7572,
      "glo": 7573,
      "gers</w>": 7574,
      "girl</w>": 7575,
      "hanging</w>": 7576,
      "icom</w>": 7577,
      "jected</w>": 7578,
      "ject": 7579,
      "junk": 7580,
      "knight</w>": 7581,
      "kernel</w>": 7582,
      "lung</w>": 7583,
      "lbf</w>": 7584,
      "mall</w>": 7585,
      "mous</w>": 7586,
      "mand": 7587,
      "ore": 7588,
      "oat": 7589,
      "rout": 7590,
      "soo": 7591,
      "sats</w>": 7592,
      "sanctimon": 7593,
      "tears</w>": 7594,
      "uh</w>": 7595,
      "ued</w>": 7596,
      "uck</w>": 7597,
      "utionary</w>": 7598,
      "uhh</w>": 7599,
      "vo</w>": 7600,
      "vet": 7601,
      "wine</w>": 7602,
      "yp": 7603,
      "yup</w>": 7604,
      "zom": 7605,
      "instr": 7606,
      "thqua": 7607,
      "erto</w>": 7608,
      "erry</w>": 7609,
      "rever": 7610,
      "reel</w>": 7611,
      "recover</w>": 7612,
      "rebut": 7613,
      "retains</w>": 7614,
      "arity</w>": 7615,
      "tier</w>": 7616,
      "tile</w>": 7617,
      "tible</w>": 7618,
      "title</w>": 7619,
      "ormous</w>": 7620,
      "encou": 7621,
      "enormous</w>": 7622,
      "esom": 7623,
      "items</w>": 7624,
      "atshield</w>": 7625,
      "iles</w>": 7626,
      "illing</w>": 7627,
      "among</w>": 7628,
      "stan</w>": 7629,
      "stowed</w>": 7630,
      "listic</w>": 7631,
      "detect</w>": 7632,
      "Thank": 7633,
      "sized</w>": 7634,
      "ellation</w>": 7635,
      "bull": 7636,
      "bugs</w>": 7637,
      "abled</w>": 7638,
      "urers</w>": 7639,
      "unequi": 7640,
      "notic": 7641,
      "noted</w>": 7642,
      "prohi": 7643,
      "rastructure</w>": 7644,
      "diap": 7645,
      "dign": 7646,
      "mag": 7647,
      "eters</w>": 7648,
      "cherry</w>": 7649,
      "mods</w>": 7650,
      "fire": 7651,
      "cago</w>": 7652,
      "casting</w>": 7653,
      "shall</w>": 7654,
      "shmore</w>": 7655,
      "work": 7656,
      "workers</w>": 7657,
      "worried</w>": 7658,
      "tages</w>": 7659,
      "doc": 7660,
      "docked</w>": 7661,
      "imm": 7662,
      "isely</w>": 7663,
      "theore": 7664,
      "seam": 7665,
      "ass</w>": 7666,
      "forum</w>": 7667,
      "forced</w>": 7668,
      "formation</w>": 7669,
      "prece": 7670,
      "afoil</w>": 7671,
      "umes</w>": 7672,
      "parafoil</w>": 7673,
      "creator</w>": 7674,
      "monkeys</w>": 7675,
      "appo": 7676,
      "Ston": 7677,
      "Steph": 7678,
      "older</w>": 7679,
      "aging</w>": 7680,
      "prise</w>": 7681,
      "priced</w>": 7682,
      "wider</w>": 7683,
      "hex</w>": 7684,
      "heatshield</w>": 7685,
      "Inspec": 7686,
      "Inconel</w>": 7687,
      "picking</w>": 7688,
      "statis": 7689,
      "Alex": 7690,
      "Although</w>": 7691,
      "office</w>": 7692,
      "gradu": 7693,
      "bien</w>": 7694,
      "pared</w>": 7695,
      "accel</w>": 7696,
      "builds</w>": 7697,
      "traject": 7698,
      "stein</w>": 7699,
      "plants</w>": 7700,
      "tune</w>": 7701,
      "tuning</w>": 7702,
      "angels</w>": 7703,
      "attemp": 7704,
      "utopark</w>": 7705,
      "ustom</w>": 7706,
      "helo</w>": 7707,
      "excess</w>": 7708,
      "tected</w>": 7709,
      "factors</w>": 7710,
      "flare</w>": 7711,
      "Logs</w>": 7712,
      "limbic</w>": 7713,
      "sentation</w>": 7714,
      "highlight</w>": 7715,
      "closing</w>": 7716,
      "subscription</w>": 7717,
      "possibility</w>": 7718,
      "ario</w>": 7719,
      "carri": 7720,
      "cards</w>": 7721,
      "Abort</w>": 7722,
      "bake</w>": 7723,
      "bran": 7724,
      "brand</w>": 7725,
      "curate</w>": 7726,
      "signature</w>": 7727,
      "lowers</w>": 7728,
      "print</w>": 7729,
      "player</w>": 7730,
      "kie</w>": 7731,
      "halt</w>": 7732,
      "mix</w>": 7733,
      "manage</w>": 7734,
      "denying</w>": 7735,
      "Gold</w>": 7736,
      "culating</w>": 7737,
      "Presentation</w>": 7738,
      "utili": 7739,
      "colony</w>": 7740,
      "blocks</w>": 7741,
      "edited</w>": 7742,
      "payment</w>": 7743,
      "unique</w>": 7744,
      "Unve": 7745,
      "temps</w>": 7746,
      "requirements</w>": 7747,
      "Accurate</w>": 7748,
      "Merc</w>": 7749,
      "drama</w>": 7750,
      "disabled</w>": 7751,
      "Roadsters</w>": 7752,
      "competitor</w>": 7753,
      "follows</w>": 7754,
      "draw</w>": 7755,
      "drawing</w>": 7756,
      "fixes</w>": 7757,
      "whom</w>": 7758,
      "Forgot</w>": 7759,
      "Flying</w>": 7760,
      "streaming</w>": 7761,
      "itudinal</w>": 7762,
      "SN4</w>": 7763,
      "Mega": 7764,
      "imagin": 7765,
      "Post</w>": 7766,
      "arrive</w>": 7767,
      "proceed</w>": 7768,
      "billions</w>": 7769,
      "Cyberpunk</w>": 7770,
      "receives</w>": 7771,
      "cyclist</w>": 7772,
      "economies</w>": 7773,
      "Being</w>": 7774,
      "panel</w>": 7775,
      "Higher</w>": 7776,
      "donated</w>": 7777,
      "connector</w>": 7778,
      "infrastructure</w>": 7779,
      "Buff": 7780,
      "afford</w>": 7781,
      "David</w>": 7782,
      "shoes</w>": 7783,
      "simulations</w>": 7784,
      "raisin</w>": 7785,
      "Minecraft</w>": 7786,
      "reaches</w>": 7787,
      "continues</w>": 7788,
      "continuous</w>": 7789,
      "Update</w>": 7790,
      "photon</w>": 7791,
      "decides</w>": 7792,
      "Obv</w>": 7793,
      "oddly</w>": 7794,
      "Brilliant</w>": 7795,
      "labeling</w>": 7796,
      "Secret</w>": 7797,
      "sync</w>": 7798,
      "Basic</w>": 7799,
      "Chicago</w>": 7800,
      "relent": 7801,
      "immediate</w>": 7802,
      "examination</w>": 7803,
      "surprised</w>": 7804,
      "variants</w>": 7805,
      "hottest</w>": 7806,
      "effor": 7807,
      "Checking</w>": 7808,
      "ssa</w>": 7809,
      "circu": 7810,
      "Colon": 7811,
      "entertaining</w>": 7812,
      "enterprise</w>": 7813,
      "Human": 7814,
      "terminals</w>": 7815,
      "Paint</w>": 7816,
      "Puerto</w>": 7817,
      "hurts</w>": 7818,
      "residual</w>": 7819,
      "Stron": 7820,
      "artists</w>": 7821,
      "graphite</w>": 7822,
      "replied</w>": 7823,
      "conflic": 7824,
      "graphic</w>": 7825,
      "Koch</w>": 7826,
      "Little</w>": 7827,
      "removed</w>": 7828,
      "snake</w>": 7829,
      "Thaicom</w>": 7830,
      "Deep": 7831,
      "partners</w>": 7832,
      "TED</w>": 7833,
      "Tilburg</w>": 7834,
      "Tiller": 7835,
      "absorb": 7836,
      "belts</w>": 7837,
      "exclusive</w>": 7838,
      "communic": 7839,
      "Details</w>": 7840,
      "horsepower</w>": 7841,
      "employee</w>": 7842,
      "employees</w>": 7843,
      "Ambien</w>": 7844,
      "Egyp": 7845,
      "Mk1</w>": 7846,
      "Walked</w>": 7847,
      "barrel</w>": 7848,
      "Improved</w>": 7849,
      "Navigate</w>": 7850,
      "pneumatics</w>": 7851,
      "illustrate</w>": 7852,
      "lawsuit</w>": 7853,
      "patients</w>": 7854,
      "touchdown</w>": 7855,
      "Rive</w>": 7856,
      "mirror</w>": 7857,
      "prioriti": 7858,
      "priorities</w>": 7859,
      "markets</w>": 7860,
      "coaster</w>": 7861,
      "Tunnels</w>": 7862,
      "renewable</w>": 7863,
      "trickery</w>": 7864,
      "judgment</w>": 7865,
      "castle</w>": 7866,
      "inflatable</w>": 7867,
      "wifi</w>": 7868,
      "proportionately</w>": 7869,
      "Rushmore</w>": 7870,
      "Gwynne</w>": 7871,
      "LEO</w>": 7872,
      "simplify</w>": 7873,
      "Correll</w>": 7874,
      "Drone</w>": 7875,
      "Edmun": 7876,
      "stick</w>": 7877,
      "advise</w>": 7878,
      "coincidence</w>": 7879,
      "Prav": 7880,
      "targeted</w>": 7881,
      "insigh": 7882,
      "toxic</w>": 7883,
      "traveling</w>": 7884,
      "surized</w>": 7885,
      "Bioshock</w>": 7886,
      "COPV</w>": 7887,
      "hangar</w>": 7888,
      "accounting</w>": 7889,
      "distribution</w>": 7890,
      "compensate</w>": 7891,
      "EFF</w>": 7892,
      "Ghost</w>": 7893,
      "Ideas</w>": 7894,
      "Oslo</w>": 7895,
      "Reveal</w>": 7896,
      "oatmeal</w>": 7897,
      "rebuttal</w>": 7898,
      "encourage</w>": 7899,
      "unequivoc": 7900,
      "Inspector</w>": 7901,
      "trajectory</w>": 7902,
      "Tillerson</w>": 7903,
      "Edmunds</w>": 7904,
      "300": 7905,
      "5M</w>": 7906,
      "600</w>": 7907,
      "78</w>": 7908,
      "7500</w>": 7909,
      "Apart</w>": 7910,
      "Acc": 7911,
      "Aspirationally</w>": 7912,
      "Bur": 7913,
      "Ben</w>": 7914,
      "Bla": 7915,
      "Besides</w>": 7916,
      "Cu": 7917,
      "Cla": 7918,
      "Call</w>": 7919,
      "Cup": 7920,
      "Dro": 7921,
      "Day": 7922,
      "Dum": 7923,
      "Dad</w>": 7924,
      "Emp": 7925,
      "Each</w>": 7926,
      "Fi</w>": 7927,
      "FO</w>": 7928,
      "Few</w>": 7929,
      "Foc": 7930,
      "Gar": 7931,
      "Gol": 7932,
      "HA": 7933,
      "HH": 7934,
      "Hello</w>": 7935,
      "It": 7936,
      "Icel": 7937,
      "Jes": 7938,
      "Lev": 7939,
      "Leasing</w>": 7940,
      "MN</w>": 7941,
      "OG</w>": 7942,
      "OP</w>": 7943,
      "Pen": 7944,
      "Pic": 7945,
      "Putting</w>": 7946,
      "Pana</w>": 7947,
      "Ram": 7948,
      "Row</w>": 7949,
      "Reas": 7950,
      "Te": 7951,
      "Tim</w>": 7952,
      "VA": 7953,
      "Vance</w>": 7954,
      "Vader</w>": 7955,
      "Wang</w>": 7956,
      "Wanted</w>": 7957,
      "Yo</w>": 7958,
      "Youd</w>": 7959,
      "ares</w>": 7960,
      "astronom": 7961,
      "bble</w>": 7962,
      "ego</w>": 7963,
      "fro": 7964,
      "fut": 7965,
      "fits</w>": 7966,
      "finger</w>": 7967,
      "gaps</w>": 7968,
      "hang</w>": 7969,
      "isi": 7970,
      "lou": 7971,
      "message</w>": 7972,
      "nage</w>": 7973,
      "neling</w>": 7974,
      "pool</w>": 7975,
      "sw": 7976,
      "sy</w>": 7977,
      "sort</w>": 7978,
      "seal</w>": 7979,
      "scape</w>": 7980,
      "silicon</w>": 7981,
      "sledgehammer</w>": 7982,
      "tent</w>": 7983,
      "tool</w>": 7984,
      "ximation</w>": 7985,
      "yi": 7986,
      "yr</w>": 7987,
      "zation</w>": 7988,
      "zzy</w>": 7989,
      "iner</w>": 7990,
      "inher": 7991,
      "informed</w>": 7992,
      "reau": 7993,
      "antic</w>": 7994,
      "antum</w>": 7995,
      "tin</w>": 7996,
      "tious</w>": 7997,
      "ona</w>": 7998,
      "oney</w>": 7999,
      "align</w>": 8000,
      "row": 8001,
      "rotation</w>": 8002,
      "rooms</w>": 8003,
      "itating</w>": 8004,
      "atr": 8005,
      "aters</w>": 8006,
      "ammoths</w>": 8007,
      "ameters</w>": 8008,
      "stats</w>": 8009,
      "staged</w>": 8010,
      "oming</w>": 8011,
      "omed</w>": 8012,
      "lit</w>": 8013,
      "lick</w>": 8014,
      "located</w>": 8015,
      "ridd": 8016,
      "detection</w>": 8017,
      "Think</w>": 8018,
      "Thinking</w>": 8019,
      "sives</w>": 8020,
      "elings</w>": 8021,
      "bud": 8022,
      "urs</w>": 8023,
      "unlike</w>": 8024,
      "unable</w>": 8025,
      "notes</w>": 8026,
      "ghty</w>": 8027,
      "promin": 8028,
      "ram</w>": 8029,
      "rain": 8030,
      "lative</w>": 8031,
      "dient</w>": 8032,
      "mad</w>": 8033,
      "mail</w>": 8034,
      "massively</w>": 8035,
      "hazard</w>": 8036,
      "sup": 8037,
      "ett</w>": 8038,
      "verting</w>": 8039,
      "whel": 8040,
      "whose</w>": 8041,
      "exha": 8042,
      "exiting</w>": 8043,
      "pod": 8044,
      "polar</w>": 8045,
      "tract": 8046,
      "tronic</w>": 8047,
      "confin": 8048,
      "consen": 8049,
      "tail</w>": 8050,
      "dover</w>": 8051,
      "doomed</w>": 8052,
      "terr": 8053,
      "terly</w>": 8054,
      "utal</w>": 8055,
      "ple": 8056,
      "plenty</w>": 8057,
      "ley</w>": 8058,
      "forms</w>": 8059,
      "preva": 8060,
      "parameters</w>": 8061,
      "upset</w>": 8062,
      "apore</w>": 8063,
      "engaged</w>": 8064,
      "Steve</w>": 8065,
      "leads</w>": 8066,
      "trivi": 8067,
      "trigg": 8068,
      "argue</w>": 8069,
      "pucker</w>": 8070,
      "bother</w>": 8071,
      "boss</w>": 8072,
      "boats</w>": 8073,
      "boresc": 8074,
      "productive</w>": 8075,
      "destru": 8076,
      "drivet": 8077,
      "Exclu": 8078,
      "gical</w>": 8079,
      "looked</w>": 8080,
      "mining</w>": 8081,
      "Increasing</w>": 8082,
      "serving</w>": 8083,
      "apparently</w>": 8084,
      "milli": 8085,
      "grain</w>": 8086,
      "wel</w>": 8087,
      "bia</w>": 8088,
      "bikes</w>": 8089,
      "stie</w>": 8090,
      "scor": 8091,
      "scal": 8092,
      "tuations</w>": 8093,
      "sment</w>": 8094,
      "someones</w>": 8095,
      "trailers</w>": 8096,
      "Reg": 8097,
      "Reentry</w>": 8098,
      "Report</w>": 8099,
      "tunneling</w>": 8100,
      "angles</w>": 8101,
      "Comm": 8102,
      "Computer</w>": 8103,
      "Rob": 8104,
      "Sher": 8105,
      "helped</w>": 8106,
      "feelings</w>": 8107,
      "earn</w>": 8108,
      "earnings</w>": 8109,
      "rendering</w>": 8110,
      "ancements</w>": 8111,
      "fluc": 8112,
      "Lovely</w>": 8113,
      "Superintelligence</w>": 8114,
      "publications</w>": 8115,
      "stole</w>": 8116,
      "phra": 8117,
      "quick</w>": 8118,
      "Contr": 8119,
      "closely</w>": 8120,
      "overload</w>": 8121,
      "Maxim": 8122,
      "underwear</w>": 8123,
      "valent</w>": 8124,
      "thermom": 8125,
      "merits</w>": 8126,
      "izes</w>": 8127,
      "bris</w>": 8128,
      "branding</w>": 8129,
      "brutal</w>": 8130,
      "approxim": 8131,
      "approximation</w>": 8132,
      "passes</w>": 8133,
      "voted</w>": 8134,
      "iden</w>": 8135,
      "certi": 8136,
      "mise</w>": 8137,
      "mitive</w>": 8138,
      "tained</w>": 8139,
      "brave</w>": 8140,
      "Aug</w>": 8141,
      "SoC</w>": 8142,
      "lined</w>": 8143,
      "vention</w>": 8144,
      "venting</w>": 8145,
      "requesting</w>": 8146,
      "recommend": 8147,
      "dict</w>": 8148,
      "shado": 8149,
      "positives</w>": 8150,
      "automation</w>": 8151,
      "regularly</w>": 8152,
      "fried</w>": 8153,
      "Impact</w>": 8154,
      "refilling</w>": 8155,
      "breathe</w>": 8156,
      "Somebody</w>": 8157,
      "char</w>": 8158,
      "multiplanet</w>": 8159,
      "filed</w>": 8160,
      "transmission</w>": 8161,
      "eria</w>": 8162,
      "Meeting</w>": 8163,
      "supported</w>": 8164,
      "supportive</w>": 8165,
      "vacation</w>": 8166,
      "Covid</w>": 8167,
      "Add</w>": 8168,
      "lucky</w>": 8169,
      "regional</w>": 8170,
      "cryo": 8171,
      "eroid</w>": 8172,
      "Attempting</w>": 8173,
      "equity</w>": 8174,
      "connects</w>": 8175,
      "connecting</w>": 8176,
      "subsidy</w>": 8177,
      "Tap</w>": 8178,
      "foot": 8179,
      "manufacturers</w>": 8180,
      "originally</w>": 8181,
      "silence</w>": 8182,
      "downloading</w>": 8183,
      "describing</w>": 8184,
      "affordability</w>": 8185,
      "10M</w>": 8186,
      "pulling</w>": 8187,
      "robotaxi</w>": 8188,
      "opolies</w>": 8189,
      "autosteer</w>": 8190,
      "geological</w>": 8191,
      "Service</w>": 8192,
      "equivalent</w>": 8193,
      "fictional</w>": 8194,
      "various</w>": 8195,
      "Opposite</w>": 8196,
      "constant</w>": 8197,
      "circum": 8198,
      "trees</w>": 8199,
      "walks</w>": 8200,
      "neutral</w>": 8201,
      "Sensible</w>": 8202,
      "Martian</w>": 8203,
      "Pushing</w>": 8204,
      "defend</w>": 8205,
      "child</w>": 8206,
      "minimizing</w>": 8207,
      "Singapore</w>": 8208,
      "constraints</w>": 8209,
      "society</w>": 8210,
      "Christie</w>": 8211,
      "sunlight</w>": 8212,
      "Static</w>": 8213,
      "reserved</w>": 8214,
      "licensing</w>": 8215,
      "Johnson</w>": 8216,
      "refinement</w>": 8217,
      "refinements</w>": 8218,
      "demonstr": 8219,
      "demonstration</w>": 8220,
      "cowboy</w>": 8221,
      "dynamically</w>": 8222,
      "Machete</w>": 8223,
      "Radi": 8224,
      "destroy</w>": 8225,
      "destroyed</w>": 8226,
      "Truck</w>": 8227,
      "valuable</w>": 8228,
      "Beauty</w>": 8229,
      "Weird</w>": 8230,
      "wherever</w>": 8231,
      "emojis</w>": 8232,
      "gigantic</w>": 8233,
      "tougher</w>": 8234,
      "speaker</w>": 8235,
      "afterwards</w>": 8236,
      "squirrels</w>": 8237,
      "Official</w>": 8238,
      "Reminder</w>": 8239,
      "nighter</w>": 8240,
      "patient</w>": 8241,
      "decline</w>": 8242,
      "Approx</w>": 8243,
      "basis</w>": 8244,
      "fraud</w>": 8245,
      "maligned</w>": 8246,
      "EST</w>": 8247,
      "calibration</w>": 8248,
      "departed</w>": 8249,
      "Fossil</w>": 8250,
      "chemical</w>": 8251,
      "smarter</w>": 8252,
      "taxpayer</w>": 8253,
      "Saints</w>": 8254,
      "concept</w>": 8255,
      "Expect</w>": 8256,
      "Insane</w>": 8257,
      "surrounded</w>": 8258,
      "endorsements</w>": 8259,
      "existential</w>": 8260,
      "Yelp</w>": 8261,
      "foundry</w>": 8262,
      "topia</w>": 8263,
      "Brazil</w>": 8264,
      "episode</w>": 8265,
      "causeway</w>": 8266,
      "ultrason": 8267,
      "citizen</w>": 8268,
      "referral</w>": 8269,
      "experienced</w>": 8270,
      "wrapped</w>": 8271,
      "Society</w>": 8272,
      "Newton</w>": 8273,
      "puppet</w>": 8274,
      "Possibly</w>": 8275,
      "telescoping</w>": 8276,
      "Olym": 8277,
      "prehensive</w>": 8278,
      "Lotus</w>": 8279,
      "Elise</w>": 8280,
      "Governor</w>": 8281,
      "Pinker</w>": 8282,
      "Precisely</w>": 8283,
      "datab": 8284,
      "Answer</w>": 8285,
      "literacy</w>": 8286,
      "knowledge</w>": 8287,
      "telepor": 8288,
      "dialogue</w>": 8289,
      "comparable</w>": 8290,
      "stitute</w>": 8291,
      "mandate</w>": 8292,
      "theoretical</w>": 8293,
      "seamlessly</w>": 8294,
      "Stephen</w>": 8295,
      "Buffett</w>": 8296,
      "efforts</w>": 8297,
      "Itali": 8298,
      "Iceland</w>": 8299,
      "Jesus</w>": 8300,
      "Reasons</w>": 8301,
      "louder</w>": 8302,
      "confined</w>": 8303,
      "consensus</w>": 8304,
      "borescope</w>": 8305,
      "destruction</w>": 8306,
      "drivetrain</w>": 8307,
      "fluctuations</w>": 8308,
      "thermometer</w>": 8309,
      "recommendation</w>": 8310,
      "12": 8311,
      "25k</w>": 8312,
      "3k</w>": 8313,
      "300</w>": 8314,
      "380</w>": 8315,
      "Based</w>": 8316,
      "Ci": 8317,
      "Couldnt</w>": 8318,
      "Candy</w>": 8319,
      "Dy": 8320,
      "Dar": 8321,
      "Dec": 8322,
      "Doc": 8323,
      "Dune</w>": 8324,
      "ET": 8325,
      "Em": 8326,
      "Glass</w>": 8327,
      "Girl</w>": 8328,
      "Gonna</w>": 8329,
      "HP</w>": 8330,
      "Hit": 8331,
      "Hitch": 8332,
      "IT</w>": 8333,
      "Kev": 8334,
      "Lou": 8335,
      "Let": 8336,
      "Las": 8337,
      "ME</w>": 8338,
      "Marg": 8339,
      "Med": 8340,
      "MIT</w>": 8341,
      "NC</w>": 8342,
      "Non</w>": 8343,
      "Net</w>": 8344,
      "Nana</w>": 8345,
      "NTS": 8346,
      "Oper": 8347,
      "Occ": 8348,
      "Peak</w>": 8349,
      "RD</w>": 8350,
      "RO</w>": 8351,
      "Ret": 8352,
      "RNA</w>": 8353,
      "S3": 8354,
      "SK</w>": 8355,
      "Sno": 8356,
      "Smo": 8357,
      "Spe": 8358,
      "Sna": 8359,
      "Ty": 8360,
      "Twee": 8361,
      "Uran": 8362,
      "Umm</w>": 8363,
      "Won": 8364,
      "West": 8365,
      "Wouldn</w>": 8366,
      "bat": 8367,
      "band</w>": 8368,
      "boun": 8369,
      "cry</w>": 8370,
      "ception</w>": 8371,
      "dor</w>": 8372,
      "dity</w>": 8373,
      "dwar": 8374,
      "dancing</w>": 8375,
      "ec</w>": 8376,
      "ein</w>": 8377,
      "eli": 8378,
[...]
