{
  "version": "1.0",
  "truncation": null,
  "padding": null,
  "added_tokens": [
    {
      "id": 0,
      "content": "<s>",
      "single_word": false,
      "lstrip": false,
      "rstrip": false,
      "normalized": false,
      "special": true
    },
    {
      "id": 1,
      "content": "<pad>",
      "single_word": false,
      "lstrip": false,
      "rstrip": false,
      "normalized": false,
      "special": true
    },
    {
      "id": 2,
      "content": "</s>",
      "single_word": false,
      "lstrip": false,
      "rstrip": false,
      "normalized": false,
      "special": true
    },
    {
      "id": 3,
      "content": "<unk>",
      "single_word": false,
      "lstrip": false,
      "rstrip": false,
      "normalized": false,
      "special": true
    },
    {
      "id": 4,
      "content": "<mask>",
      "single_word": false,
      "lstrip": false,
      "rstrip": false,
      "normalized": false,
      "special": true
    }
  ],
  "normalizer": {
    "type": "NFKC"
  },
  "pre_tokenizer": {
    "type": "Metaspace",
    "replacement": "▁",
    "add_prefix_space": true
  },
  "post_processor": null,
  "decoder": {
    "type": "Metaspace",
    "replacement": "▁",
    "add_prefix_space": true
  },
  "model": {
    "type": "BPE",
    "dropout": null,
    "unk_token": null,
    "continuing_subword_prefix": null,
    "end_of_word_suffix": null,
    "fuse_unk": false,
    "vocab": {
      "<s>": 0,
      "<pad>": 1,
      "</s>": 2,
      "<unk>": 3,
      "<mask>": 4,
      "\n": 5,
      "!": 6,
      "\"": 7,
      "$": 8,
      "%": 9,
      "&": 10,
      "'": 11,
      "(": 12,
      ")": 13,
      "*": 14,
      "+": 15,
      ",": 16,
      "-": 17,
      ".": 18,
      "/": 19,
      "0": 20,
      "1": 21,
      "2": 22,
      "3": 23,
      "4": 24,
      "5": 25,
      "6": 26,
      "7": 27,
      "8": 28,
      "9": 29,
      ":": 30,
      ";": 31,
      "=": 32,
      "?": 33,
      "A": 34,
      "B": 35,
      "C": 36,
      "D": 37,
      "E": 38,
      "F": 39,
      "G": 40,
      "H": 41,
      "I": 42,
      "J": 43,
      "K": 44,
      "L": 45,
      "M": 46,
      "N": 47,
      "O": 48,
      "P": 49,
      "Q": 50,
      "R": 51,
      "S": 52,
      "T": 53,
      "U": 54,
      "V": 55,
      "W": 56,
      "X": 57,
      "Y": 58,
      "Z": 59,
      "[": 60,
      "]": 61,
      "^": 62,
      "_": 63,
      "a": 64,
      "b": 65,
      "c": 66,
      "d": 67,
      "e": 68,
      "f": 69,
      "g": 70,
      "h": 71,
      "i": 72,
      "j": 73,
      "k": 74,
      "l": 75,
      "m": 76,
      "n": 77,
      "o": 78,
      "p": 79,
      "q": 80,
      "r": 81,
      "s": 82,
      "t": 83,
      "u": 84,
      "v": 85,
      "w": 86,
      "x": 87,
      "y": 88,
      "z": 89,
      "{": 90,
      "|": 91,
      "}": 92,
      "~": 93,
      "▁": 94,
      "▁t": 95,
      "in": 96,
      "▁a": 97,
      "er": 98,
      "on": 99,
      "▁s": 100,
      "re": 101,
      "▁th": 102,
      "▁w": 103,
      "es": 104,
      "or": 105,
      "▁b": 106,
      "at": 107,
      "▁c": 108,
      "ing": 109,
      "▁f": 110,
      "is": 111,
      "ou": 112,
      "it": 113,
      "en": 114,
      "▁m": 115,
      "ll": 116,
      "an": 117,
      "ar": 118,
      "▁to": 119,
      "▁p": 120,
      "▁o": 121,
      "▁d": 122,
      "▁the": 123,
      "ed": 124,
      "▁l": 125,
      ".\n": 126,
      "▁h": 127,
      "▁T": 128,
      "st": 129,
      "ro": 130,
      "▁in": 131,
      "al": 132,
      "mp": 133,
      "▁of": 134,
      "▁n": 135,
      "▁S": 136,
      "▁is": 137,
      "ic": 138,
      "el": 139,
      "et": 140,
      "ion": 141,
      "as": 142,
      "▁I": 143,
      "▁g": 144,
      "ac": 145,
      "le": 146,
      "▁re": 147,
      "ig": 148,
      "ut": 149,
      "ve": 150,
      "ot": 151,
      "▁M": 152,
      "▁be": 153,
      "▁A": 154,
      "▁an": 155,
      "▁for": 156,
      "▁on": 157,
      "ill": 158,
      "ow": 159,
      "om": 160,
      "ly": 161,
      "ay": 162,
      "▁e": 163,
      "amp": 164,
      "▁&": 165,
      "▁W": 166,
      "amp;": 167,
      "▁&amp;": 168,
      "▁Th": 169,
      "ver": 170,
      "▁y": 171,
      "un": 172,
      "id": 173,
      "ent": 174,
      "ct": 175,
      "ld": 176,
      "la": 177,
      "od": 178,
      "ch": 179,
      "ad": 180,
      "▁C": 181,
      "igh": 182,
      "all": 183,
      "ter": 184,
      "▁so": 185,
      "▁it": 186,
      "▁st": 187,
      "▁Tes": 188,
      "im": 189,
      "ust": 190,
      "▁Tesla": 191,
      "up": 192,
      "▁that": 193,
      "▁we": 194,
      "ir": 195,
      "ith": 196,
      "th": 197,
      "op": 198,
      "us": 199,
      "il": 200,
      "▁wh": 201,
      "▁ne": 202,
      "▁will": 203,
      "▁N": 204,
      "▁F": 205,
      "am": 206,
      "▁H": 207,
      "est": 208,
      "▁r": 209,
      "out": 210,
      "ke": 211,
      "▁but": 212,
      "▁co": 213,
      "▁pro": 214,
      "▁with": 215,
      "ce": 216,
      "▁B": 217,
      "ur": 218,
      "▁Y": 219,
      "▁you": 220,
      "!\n": 221,
      "ould": 222,
      "▁D": 223,
      "▁P": 224,
      "ight": 225,
      "▁and": 226,
      "if": 227,
      "▁at": 228,
      "ck": 229,
      "▁are": 230,
      "ally": 231,
      "▁G": 232,
      "ere": 233,
      "▁v": 234,
      "ars": 235,
      "▁E": 236,
      "▁go": 237,
      "▁sh": 238,
      "ation": 239,
      "▁tr": 240,
      "▁L": 241,
      "ers": 242,
      "▁mo": 243,
      "▁ha": 244,
      "ate": 245,
      "ab": 246,
      "▁en": 247,
      "ul": 248,
      "▁do": 249,
      "ure": 250,
      "se": 251,
      "▁R": 252,
      "▁or": 253,
      "ge": 254,
      "▁ro": 255,
      "and": 256,
      "▁ex": 257,
      "▁not": 258,
      "oun": 259,
      "▁as": 260,
      "ol": 261,
      "▁by": 262,
      "▁this": 263,
      "▁de": 264,
      "▁se": 265,
      "ant": 266,
      "ity": 267,
      "ra": 268,
      "ace": 269,
      "▁j": 270,
      "ks": 271,
      "um": 272,
      "▁con": 273,
      "▁li": 274,
      "ome": 275,
      "ri": 276,
      "ort": 277,
      "▁wor": 278,
      "▁ab": 279,
      "pe": 280,
      "▁(": 281,
      "our": 282,
      "▁O": 283,
      "▁ma": 284,
      "▁all": 285,
      "▁al": 286,
      "act": 287,
      "pp": 288,
      "ea": 289,
      "rom": 290,
      "▁Mod": 291,
      "▁from": 292,
      "▁lo": 293,
      "▁was": 294,
      "▁ch": 295,
      "▁Model": 296,
      "gh": 297,
      "▁have": 298,
      "ine": 299,
      "▁The": 300,
      "ip": 301,
      "ard": 302,
      "qu": 303,
      "ack": 304,
      "▁un": 305,
      "one": 306,
      "reat": 307,
      "pace": 308,
      "ess": 309,
      "ew": 310,
      "lo": 311,
      "ough": 312,
      "▁k": 313,
      "▁St": 314,
      "▁up": 315,
      "art": 316,
      "▁me": 317,
      "ue": 318,
      "ain": 319,
      "\"\"": 320,
      "▁comp": 321,
      "s.": 322,
      "▁It": 323,
      "ost": 324,
      "ong": 325,
      "▁about": 326,
      "ss": 327,
      "▁car": 328,
      "ast": 329,
      "▁J": 330,
      "▁than": 331,
      "ely": 332,
      "ction": 333,
      "king": 334,
      "are": 335,
      "ire": 336,
      "imp": 337,
      "cket": 338,
      "▁like": 339,
      "ive": 340,
      "▁just": 341,
      "es\n": 342,
      "ist": 343,
      "▁us": 344,
      "ap": 345,
      "em": 346,
      "▁We": 347,
      "ide": 348,
      "▁ye": 349,
      "▁U": 350,
      "▁te": 351,
      "s,": 352,
      "ound": 353,
      "con": 354,
      "▁need": 355,
      "▁tim": 356,
      "ry": 357,
      "ect": 358,
      "▁out": 359,
      "s\n": 360,
      "▁good": 361,
      "'s": 362,
      "▁V": 363,
      "ies": 364,
      "▁ar": 365,
      "du": 366,
      "▁he": 367,
      "▁pre": 368,
      "end": 369,
      "ment": 370,
      "▁rocket": 371,
      "▁more": 372,
      "▁can": 373,
      "▁com": 374,
      "unch": 375,
      "very": 376,
      "▁my": 377,
      "'t": 378,
      "▁.": 379,
      "▁Space": 380,
      "▁imp": 381,
      "xt": 382,
      "▁no": 383,
      "▁would": 384,
      "ci": 385,
      "▁Will": 386,
      "aunch": 387,
      "ore": 388,
      "▁po": 389,
      "▁high": 390,
      "ase": 391,
      "▁has": 392,
      "ull": 393,
      "any": 394,
      "uch": 395,
      "ia": 396,
      "nt": 397,
      "▁pl": 398,
      "iv": 399,
      "ign": 400,
      "ble": 401,
      "der": 402,
      "iz": 403,
      "▁ad": 404,
      "able": 405,
      "▁time": 406,
      "▁any": 407,
      "sion": 408,
      "▁In": 409,
      "uper": 410,
      "per": 411,
      "ie": 412,
      "ice": 413,
      "ub": 414,
      "▁This": 415,
      "▁produ": 416,
      "ower": 417,
      "▁eng": 418,
      "eop": 419,
      "ass": 420,
      "es,": 421,
      "▁ta": 422,
      "▁over": 423,
      "ont": 424,
      "eople": 425,
      "▁great": 426,
      "ef": 427,
      "▁That": 428,
      "ving": 429,
      "▁bu": 430,
      "▁bet": 431,
      "▁if": 432,
      "▁launch": 433,
      "ame": 434,
      "s.\n": 435,
      "light": 436,
      "▁our": 437,
      "▁get": 438,
      "▁too": 439,
      "so": 440,
      "ven": 441,
      "ff": 442,
      "arg": 443,
      "▁land": 444,
      "▁Wh": 445,
      "▁much": 446,
      "int": 447,
      "▁act": 448,
      "▁should": 449,
      "way": 450,
      "▁thr": 451,
      "▁people": 452,
      "▁sa": 453,
      "hip": 454,
      "irst": 455,
      "ite": 456,
      "▁cars": 457,
      "▁next": 458,
      "▁there": 459,
      "▁wee": 460,
      "age": 461,
      "▁some": 462,
      "▁Go": 463,
      "ually": 464,
      "ud": 465,
      "▁one": 466,
      "?\n": 467,
      "ep": 468,
      "▁app": 469,
      "ink": 470,
      "ind": 471,
      "ous": 472,
      "alcon": 473,
      "cc": 474,
      "▁SpaceX": 475,
      "▁Falcon": 476,
      "▁test": 477,
      "atter": 478,
      "ory": 479,
      "hing": 480,
      "ans": 481,
      "▁~": 482,
      "ft": 483,
      "▁soon": 484,
      "▁Just": 485,
      "▁le": 486,
      "▁work": 487,
      "▁make": 488,
      "▁they": 489,
      "bab": 490,
      "▁No": 491,
      "▁ag": 492,
      "ich": 493,
      "own": 494,
      "eah": 495,
      "day": 496,
      "▁des": 497,
      "port": 498,
      "▁now": 499,
      "ult": 500,
      "oo": 501,
      "▁inc": 502,
      "ence": 503,
      "ric": 504,
      "pt": 505,
      "▁year": 506,
      "▁most": 507,
      "ated": 508,
      "ach": 509,
      "bit": 510,
      "▁new": 511,
      "be": 512,
      "▁Ex": 513,
      "▁am": 514,
      "▁fa": 515,
      "ware": 516,
      "ance": 517,
      "ange": 518,
      "▁right": 519,
      "▁way": 520,
      "her": 521,
      "anks": 522,
      "▁day": 523,
      "▁mon": 524,
      "▁oth": 525,
      "▁cont": 526,
      "▁hard": 527,
      "ree": 528,
      "▁sp": 529,
      "▁Al": 530,
      "▁what": 531,
      "▁only": 532,
      "ount": 533,
      "rag": 534,
      "▁engine": 535,
      "▁its": 536,
      "▁Yeah": 537,
      "▁dri": 538,
      "▁your": 539,
      "ber": 540,
      "vi": 541,
      "▁%": 542,
      "▁\"\"": 543,
      "▁sol": 544,
      "▁long": 545,
      "▁kn": 546,
      "▁who": 547,
      "▁Yes\n": 548,
      "gy": 549,
      "▁better": 550,
      "▁fe": 551,
      "urn": 552,
      "bably": 553,
      "ater": 554,
      "▁per": 555,
      "ade": 556,
      "actly": 557,
      "\"\n": 558,
      "▁part": 559,
      "..": 560,
      "▁month": 561,
      "vel": 562,
      "▁int": 563,
      "▁spe": 564,
      "▁first": 565,
      "▁You": 566,
      "▁team": 567,
      "▁If": 568,
      "ting": 569,
      "▁qu": 570,
      "aybe": 571,
      "▁Am": 572,
      "▁rec": 573,
      "▁week": 574,
      "▁back": 575,
      "▁An": 576,
      "00": 577,
      "oc": 578,
      "▁production": 579,
      "ary": 580,
      "gr": 581,
      "ragon": 582,
      "▁which": 583,
      "▁aut": 584,
      "ha": 585,
      "▁X": 586,
      "▁Mars": 587,
      "os": 588,
      "▁Not": 589,
      "▁when": 590,
      "ating": 591,
      "icle": 592,
      "wn": 593,
      "▁fun": 594,
      "▁Thanks": 595,
      "ens": 596,
      "▁Ch": 597,
      "▁\"": 598,
      "▁min": 599,
      "▁Good": 600,
      "▁Co": 601,
      "fter": 602,
      "▁res": 603,
      "▁el": 604,
      "▁Ha": 605,
      "ical": 606,
      "▁Dragon": 607,
      "ully": 608,
      "▁landing": 609,
      "we": 610,
      "▁Re": 611,
      "▁few": 612,
      "kes": 613,
      "▁years": 614,
      "▁real": 615,
      "fer": 616,
      "▁many": 617,
      "▁acc": 618,
      "▁sm": 619,
      "▁actually": 620,
      "▁Super": 621,
      "n't": 622,
      "▁impro": 623,
      "orm": 624,
      "▁flight": 625,
      "▁lot": 626,
      "ild": 627,
      "ord": 628,
      "▁bo": 629,
      "▁ser": 630,
      "ial": 631,
      "es.": 632,
      "row": 633,
      "▁point": 634,
      "▁sy": 635,
      "▁Sh": 636,
      "▁even": 637,
      "▁Pro": 638,
      "▁sup": 639,
      "▁were": 640,
      "orn": 641,
      "▁know": 642,
      "ose": 643,
      "ility": 644,
      "▁other": 645,
      "▁pr": 646,
      "▁Yeah,": 647,
      "▁did": 648,
      "lease": 649,
      "▁after": 650,
      "▁orbit": 651,
      "▁power": 652,
      "ish": 653,
      "▁loo": 654,
      "▁their": 655,
      "▁art": 656,
      "▁then": 657,
      "most": 658,
      "▁really": 659,
      "▁On": 660,
      "▁mis": 661,
      "▁inter": 662,
      "▁Its": 663,
      "▁think": 664,
      "▁exp": 665,
      "▁$": 666,
      "▁hel": 667,
      "ick": 668,
      "▁does": 669,
      "▁under": 670,
      "ile": 671,
      "aus": 672,
      "▁true": 673,
      "▁design": 674,
      "▁big": 675,
      "▁Aut": 676,
      "▁Yes,": 677,
      "▁Exactly": 678,
      "▁thing": 679,
      "▁them": 680,
      "ang": 681,
      "ible": 682,
      "▁every": 683,
      "▁coming": 684,
      "▁soft": 685,
      "▁cr": 686,
      "ors": 687,
      "ilot": 688,
      "▁say": 689,
      "▁Ne": 690,
      "▁want": 691,
      "uck": 692,
      "omet": 693,
      "▁happ": 694,
      "▁see": 695,
      "▁Stars": 696,
      "▁thrust": 697,
      "▁own": 698,
      "ons": 699,
      "ph": 700,
      "▁could": 701,
      "ed.": 702,
      "red": 703,
      "stem": 704,
      "arth": 705,
      "ise": 706,
      "▁Starship": 707,
      "ically": 708,
      "ing\n": 709,
      "itt": 710,
      "lic": 711,
      "elf": 712,
      "▁world": 713,
      "▁software": 714,
      "ady": 715,
      "ark": 716,
      "uture": 717,
      "opilot": 718,
      "▁also": 719,
      "▁Ro": 720,
      "▁US": 721,
      "▁very": 722,
      "▁being": 723,
      "ual": 724,
      "ress": 725,
      "oth": 726,
      "▁down": 727,
      "old": 728,
      "▁space": 729,
      "▁lif": 730,
      "▁sure": 731,
      "▁super": 732,
      "▁fact": 733,
      "ty": 734,
      "unn": 735,
      "on't": 736,
      "▁ext": 737,
      "▁ver": 738,
      "▁end": 739,
      "▁system": 740,
      "▁Earth": 741,
      "ys": 742,
      "▁future": 743,
      "ed,": 744,
      "▁going": 745,
      "▁dif": 746,
      "▁off": 747,
      "▁He": 748,
      "▁air": 749,
      "▁use": 750,
      "▁elect": 751,
      "▁pub": 752,
      "▁gen": 753,
      "▁though": 754,
      "▁del": 755,
      "▁So": 756,
      "▁fin": 757,
      "▁cost": 758,
      "ize": 759,
      "▁saf": 760,
      "▁:": 761,
      "veral": 762,
      "▁add": 763,
      "▁best": 764,
      "▁hum": 765,
      "▁reg": 766,
      "ail": 767,
      "▁help": 768,
      "▁K": 769,
      "▁gr": 770,
      "▁build": 771,
      "ag": 772,
      "▁-": 773,
      "▁today": 774,
      "▁been": 775,
      "ves": 776,
      "▁still": 777,
      "ense": 778,
      "▁dis": 779,
      "▁Can": 780,
      "▁sc": 781,
      "erson": 782,
      "▁def": 783,
      "ced": 784,
      "▁how": 785,
      "▁Tr": 786,
      "ering": 787,
      "charg": 788,
      "▁Also": 789,
      "▁Great": 790,
      "▁There": 791,
      "▁For": 792,
      "view": 793,
      "▁Autopilot": 794,
      "▁ve": 795,
      "▁electric": 796,
      "vy": 797,
      "ved": 798,
      "▁improve": 799,
      "▁Maybe": 800,
      "▁,": 801,
      "ition": 802,
      "▁*": 803,
      "ert": 804,
      "▁well": 805,
      "▁fast": 806,
      "▁I'": 807,
      "▁trans": 808,
      "ause": 809,
      "ying": 810,
      "▁su": 811,
      "▁ph": 812,
      "▁same": 813,
      "▁probably": 814,
      "▁batter": 815,
      "eavy": 816,
      "▁short": 817,
      "▁call": 818,
      "omething": 819,
      "ward": 820,
      "▁tw": 821,
      "▁Hop": 822,
      "▁solar": 823,
      "▁into": 824,
      "pen": 825,
      "ron": 826,
      "▁love": 827,
      ")\n": 828,
      "ank": 829,
      "▁ener": 830,
      "fore": 831,
      "▁made": 832,
      "▁Te": 833,
      "▁conf": 834,
      "▁They": 835,
      "ideo": 836,
      "ature": 837,
      "▁start": 838,
      "▁Do": 839,
      "pl": 840,
      "▁opt": 841,
      "▁adv": 842,
      "▁sub": 843,
      "▁done": 844,
      "ak": 845,
      "▁dont": 846,
      "▁tech": 847,
      "reci": 848,
      "arly": 849,
      "ed\n": 850,
      "▁had": 851,
      "▁press": 852,
      "▁again": 853,
      "ful": 854,
      "form": 855,
      "ix": 856,
      "iver": 857,
      "▁almost": 858,
      "low": 859,
      "ove": 860,
      "ations": 861,
      "az": 862,
      "▁show": 863,
      "pect": 864,
      "y\n": 865,
      "▁cons": 866,
      "▁im": 867,
      "er\n": 868,
      "▁before": 869,
      "▁cl": 870,
      "▁through": 871,
      "▁Supercharg": 872,
      "▁far": 873,
      "▁energy": 874,
      "ell": 875,
      "▁requ": 876,
      "rem": 877,
      "unnel": 878,
      "▁human": 879,
      "▁clo": 880,
      "▁fire": 881,
      "▁gas": 882,
      "▁ret": 883,
      "▁What": 884,
      "▁All": 885,
      "ways": 886,
      "▁drive": 887,
      "let": 888,
      "les": 889,
      "▁bec": 890,
      "ortant": 891,
      "▁ob": 892,
      "blem": 893,
      "eel": 894,
      "wes": 895,
      "▁those": 896,
      "▁hop": 897,
      "ions": 898,
      "▁change": 899,
      "er.": 900,
      "▁last": 901,
      "▁ever": 902,
      "▁video": 903,
      "ane": 904,
      "▁support": 905,
      "▁wr": 906,
      "▁take": 907,
      "efully": 908,
      "▁veh": 909,
      "▁small": 910,
      "▁tunnel": 911,
      "ero": 912,
      "▁att": 913,
      "▁LA": 914,
      "init": 915,
      "atch": 916,
      "▁Ab": 917,
      "initely": 918,
      "▁cle": 919,
      "thing": 920,
      "▁article": 921,
      "vent": 922,
      "▁Im": 923,
      "▁gu": 924,
      "▁around": 925,
      "▁ind": 926,
      "wesome": 927,
      "▁low": 928,
      "▁ins": 929,
      "▁problem": 930,
      "ific": 931,
      "▁appreci": 932,
      "▁public": 933,
      "ape": 934,
      "e,": 935,
      "y.": 936,
      "▁full": 937,
      "apt": 938,
      "og": 939,
      "oring": 940,
      "ready": 941,
      "▁New": 942,
      "▁mission": 943,
      "..\n": 944,
      "▁needed": 945,
      "▁boost": 946,
      "ines": 947,
      "eship": 948,
      "▁count": 949,
      "▁mil": 950,
      "iring": 951,
      "▁cool": 952,
      "▁dep": 953,
      "▁working": 954,
      "erm": 955,
      "▁gener": 956,
      "▁less": 957,
      "▁contro": 958,
      "▁...\n": 959,
      "▁str": 960,
      "▁Loo": 961,
      "e\n": 962,
      "ittle": 963,
      "co": 964,
      "iting": 965,
      "▁met": 966,
      "▁doing": 967,
      "▁jo": 968,
      "ath": 969,
      "ats": 970,
      "▁leg": 971,
      "▁version": 972,
      "▁upd": 973,
      "▁bel": 974,
      "▁comm": 975,
      "li": 976,
      "ics": 977,
      "▁Ma": 978,
      "▁sec": 979,
      "gg": 980,
      "y,": 981,
      "▁AI": 982,
      "▁always": 983,
      "ssible": 984,
      "▁tax": 985,
      "▁And": 986,
      "▁enough": 987,
      "k\n": 988,
      "▁something": 989,
      "▁read": 990,
      "▁little": 991,
      "▁val": 992,
      "▁complet": 993,
      "orre": 994,
      "▁lea": 995,
      "▁Wor": 996,
      "▁ship": 997,
      "tty": 998,
      "▁De": 999,
      "▁ent": 1000,
      "▁cent": 1001,
      "▁My": 1002,
      "omm": 1003,
      "▁Heavy": 1004,
      "▁sign": 1005,
      "▁Inter": 1006,
      "ib": 1007,
      "▁sur": 1008,
      "▁fo": 1009,
      "▁appro": 1010,
      "▁hour": 1011,
      "ution": 1012,
      "▁serv": 1013,
      "ese": 1014,
      "▁why": 1015,
      "▁allow": 1016,
      "▁id": 1017,
      "▁happen": 1018,
      "▁safet": 1019,
      ").": 1020,
      "ason": 1021,
      "urre": 1022,
      "ments": 1023,
      "ather": 1024,
      "▁already": 1025,
      "▁rem": 1026,
      "▁Also,": 1027,
      "▁open": 1028,
      "▁Cal": 1029,
      "▁En": 1030,
      "aw": 1031,
      "▁/": 1032,
      "▁med": 1033,
      "▁mod": 1034,
      "▁upgr": 1035,
      "▁mass": 1036,
      "▁pay": 1037,
      "▁due": 1038,
      "▁exce": 1039,
      "azing": 1040,
      "▁br": 1041,
      "▁person": 1042,
      "▁Probably": 1043,
      "▁important": 1044,
      "▁av": 1045,
      "oming": 1046,
      "▁roll": 1047,
      "▁kid": 1048,
      "cial": 1049,
      "▁techn": 1050,
      "▁tal": 1051,
      "▁speed": 1052,
      "jor": 1053,
      "▁product": 1054,
      "▁incre": 1055,
      "▁stage": 1056,
      "▁company": 1057,
      "orrow": 1058,
      "▁To": 1059,
      "▁plan": 1060,
      "▁Haha": 1061,
      "▁z": 1062,
      "ffic": 1063,
      "▁said": 1064,
      "▁True": 1065,
      "ious": 1066,
      "▁makes": 1067,
      "...\n": 1068,
      "come": 1069,
      "er,": 1070,
      "▁later": 1071,
      "ash": 1072,
      "▁ann": 1073,
      "▁cap": 1074,
      "▁As": 1075,
      "▁weeks": 1076,
      "▁feel": 1077,
      "ian": 1078,
      "kely": 1079,
      "ina": 1080,
      "▁sk": 1081,
      "▁sound": 1082,
      "▁require": 1083,
      "▁control": 1084,
      "▁awesome": 1085,
      "▁matter": 1086,
      "▁post": 1087,
      "▁inv": 1088,
      "▁I'm": 1089,
      "▁pass": 1090,
      "▁Exactly\n": 1091,
      "iforn": 1092,
      "▁Californ": 1093,
      "fact": 1094,
      "less": 1095,
      "orry": 1096,
      "▁fr": 1097,
      "▁Un": 1098,
      "ude": 1099,
      "▁California": 1100,
      "),": 1101,
      "ond": 1102,
      "▁pri": 1103,
      "▁range": 1104,
      "▁pressure": 1105,
      "enc": 1106,
      "▁Should": 1107,
      "▁life": 1108,
      "▁battery": 1109,
      "olar": 1110,
      "▁Star": 1111,
      "weet": 1112,
      "▁tra": 1113,
      "▁order": 1114,
      "load": 1115,
      "ieve": 1116,
      "▁differ": 1117,
      "alf": 1118,
      "▁where": 1119,
      "ery": 1120,
      "!!\n": 1121,
      "morrow": 1122,
      "ump": 1123,
      "er.\n": 1124,
      "▁tomorrow": 1125,
      "▁dire": 1126,
      "imate": 1127,
      "▁Now": 1128,
      "atell": 1129,
      "▁seem": 1130,
      "ffect": 1131,
      "▁level": 1132,
      "tw": 1133,
      "ator": 1134,
      "▁mone": 1135,
      "▁Se": 1136,
      "▁vs": 1137,
      "▁Rapt": 1138,
      "▁Thats": 1139,
      "▁look": 1140,
      "urrent": 1141,
      "▁Would": 1142,
      "lam": 1143,
      "▁Gig": 1144,
      "▁crit": 1145,
      "▁fix": 1146,
      "▁free": 1147,
      "▁pack": 1148,
      "▁max": 1149,
      "elf-": 1150,
      "cess": 1151,
      "es.\n": 1152,
      "▁release": 1153,
      "▁review": 1154,
      "▁dem": 1155,
      "▁China": 1156,
      "▁two": 1157,
      "▁against": 1158,
      "ict": 1159,
      "▁several": 1160,
      "t;": 1161,
      "▁his": 1162,
      "▁ris": 1163,
      "▁Giga": 1164,
      "▁ke": 1165,
      "iter": 1166,
      "▁don't": 1167,
      "▁ref": 1168,
      "▁But": 1169,
      "▁vehicle": 1170,
      "ock": 1171,
      "▁es": 1172,
      "▁oper": 1173,
      "▁First": 1174,
      "▁possible": 1175,
      "▁factory": 1176,
      "▁service": 1177,
      "ogy": 1178,
      "ed.\n": 1179,
      "▁Some": 1180,
      "illion": 1181,
      "▁extrem": 1182,
      "ing,": 1183,
      "ing.": 1184,
      "▁rep": 1185,
      "▁At": 1186,
      "▁Pre": 1187,
      "of": 1188,
      "arge": 1189,
      "▁hold": 1190,
      "▁Sorry": 1191,
      "formance": 1192,
      "ily": 1193,
      "▁man": 1194,
      "▁via": 1195,
      ":\n": 1196,
      "▁.\n": 1197,
      "esting": 1198,
      "▁called": 1199,
      "ject": 1200,
      "▁bad": 1201,
      "▁yes\n": 1202,
      "ustom": 1203,
      "▁Def": 1204,
      "▁engineering": 1205,
      "▁Comp": 1206,
      "lin": 1207,
      "▁maybe": 1208,
      "▁unt": 1209,
      "▁Station": 1210,
      "ied": 1211,
      "ne": 1212,
      "▁satell": 1213,
      "▁care": 1214,
      "ited": 1215,
      "▁night": 1216,
      "▁High": 1217,
      "▁thought": 1218,
      "▁safety": 1219,
      "▁both": 1220,
      "▁par": 1221,
      "▁Cape": 1222,
      "▁No,": 1223,
      "▁quest": 1224,
      "▁set": 1225,
      "▁det": 1226,
      "▁How": 1227,
      "▁fav": 1228,
      "▁Supercharger": 1229,
      "▁update": 1230,
      "aut": 1231,
      "he": 1232,
      "inal": 1233,
      "▁water": 1234,
      "▁bas": 1235,
      "▁creat": 1236,
      "▁iss": 1237,
      "other": 1238,
      "▁never": 1239,
      "▁amazing": 1240,
      "▁idea": 1241,
      "iron": 1242,
      "▁vis": 1243,
      "cond": 1244,
      "eck": 1245,
      "wh": 1246,
      "▁early": 1247,
      "▁play": 1248,
      "▁Tex": 1249,
      "▁lim": 1250,
      "ody": 1251,
      "▁Nor": 1252,
      "▁without": 1253,
      "▁incl": 1254,
      "▁+": 1255,
      "▁wind": 1256,
      "▁stop": 1257,
      "▁live": 1258,
      "▁comput": 1259,
      "ertain": 1260,
      "▁Texas": 1261,
      "eld": 1262,
      "ology": 1263,
      "▁dec": 1264,
      "pr": 1265,
      "▁side": 1266,
      "▁cour": 1267,
      "veil": 1268,
      "▁Me": 1269,
      "▁Love": 1270,
      "▁things": 1271,
      "o\n": 1272,
      "arn": 1273,
      "ilt": 1274,
      "▁sal": 1275,
      "▁sim": 1276,
      "▁reus": 1277,
      "▁vi": 1278,
      "▁compet": 1279,
      "air": 1280,
      "vid": 1281,
      "ative": 1282,
      "▁Launch": 1283,
      "▁media": 1284,
      "over": 1285,
      "ren": 1286,
      "anced": 1287,
      "▁likely": 1288,
      "orrect": 1289,
      "▁Raptor": 1290,
      "SD": 1291,
      "ium": 1292,
      "ates": 1293,
      "▁rear": 1294,
      "▁vol": 1295,
      "velop": 1296,
      "▁self-": 1297,
      "▁custom": 1298,
      "▁hand": 1299,
      "▁net": 1300,
      "▁Sure": 1301,
      "otor": 1302,
      "▁Boring": 1303,
      "umm": 1304,
      "▁head": 1305,
      "▁Cool": 1306,
      "▁inst": 1307,
      "▁yet": 1308,
      "▁Cong": 1309,
      "▁exper": 1310,
      "▁deal": 1311,
      "▁anything": 1312,
      "▁ton": 1313,
      "▁may": 1314,
      "▁Tw": 1315,
      "▁loc": 1316,
      "▁~1": 1317,
      "▁owners": 1318,
      "iant": 1319,
      "ational": 1320,
      "▁moon": 1321,
      "y.\n": 1322,
      "▁Most": 1323,
      "▁while": 1324,
      "▁FSD": 1325,
      "▁clear": 1326,
      "▁fly": 1327,
      "▁let": 1328,
      "▁Congr": 1329,
      "▁ap": 1330,
      "▁light": 1331,
      "▁eas": 1332,
      "▁it\n": 1333,
      "▁road": 1334,
      "▁unveil": 1335,
      "▁using": 1336,
      "▁looks": 1337,
      "▁ach": 1338,
      "ata": 1339,
      "▁Solar": 1340,
      "▁goes": 1341,
      "▁regul": 1342,
      "▁risk": 1343,
      "te": 1344,
      "▁Wow": 1345,
      "ounce": 1346,
      "raft": 1347,
      "riving": 1348,
      "▁days": 1349,
      "▁fund": 1350,
      "ked": 1351,
      "nal": 1352,
      "itive": 1353,
      "▁num": 1354,
      "und": 1355,
      "▁needs": 1356,
      "ending": 1357,
      "▁soon\n": 1358,
      "▁option": 1359,
      "elcome": 1360,
      "▁Or": 1361,
      "loy": 1362,
      "▁compan": 1363,
      "▁used": 1364,
      "▁miles": 1365,
      "ommend": 1366,
      "▁pie": 1367,
      "▁Were": 1368,
      "▁thanks": 1369,
      "lan": 1370,
      "▁sense": 1371,
      "ately": 1372,
      "▁until": 1373,
      ".\"\n": 1374,
      "gen": 1375,
      "raz": 1376,
      "▁Only": 1377,
      "▁direct": 1378,
      "eric": 1379,
      "▁simp": 1380,
      "▁bra": 1381,
      "▁About": 1382,
      "▁companies": 1383,
      "not": 1384,
      "oud": 1385,
      "itter": 1386,
      "▁mph": 1387,
      "▁cover": 1388,
      "▁move": 1389,
      "▁making": 1390,
      "ought": 1391,
      "▁Rocket": 1392,
      "▁deliver": 1393,
      "ient": 1394,
      "atic": 1395,
      "▁cre": 1396,
      "▁current": 1397,
      "▁might": 1398,
      "▁More": 1399,
      "amer": 1400,
      "ability": 1401,
      "▁year\n": 1402,
      "▁others": 1403,
      "▁because": 1404,
      "▁invest": 1405,
      "▁blo": 1406,
      "▁fully": 1407,
      "lad": 1408,
      "uring": 1409,
      "▁Please": 1410,
      "▁Very": 1411,
      "▁recommend": 1412,
      "▁return": 1413,
      "cl": 1414,
      "▁action": 1415,
      "▁hy": 1416,
      "ime": 1417,
      "ural": 1418,
      "▁temp": 1419,
      "▁auto": 1420,
      "ru": 1421,
      "its": 1422,
      "mpt": 1423,
      "▁develop": 1424,
      "▁Our": 1425,
      "▁chang": 1426,
      "▁...": 1427,
      "▁Americ": 1428,
      "▁prior": 1429,
      "val": 1430,
      "▁fl": 1431,
      "▁half": 1432,
      "▁got": 1433,
      "▁least": 1434,
      "dd": 1435,
      "▁turn": 1436,
      "▁lower": 1437,
      "ality": 1438,
      "ention": 1439,
      "▁major": 1440,
      "ized": 1441,
      "▁diff": 1442,
      "▁Definitely": 1443,
      "ear": 1444,
      "▁em": 1445,
      "iming": 1446,
      "▁const": 1447,
      "▁feature": 1448,
      "▁sw": 1449,
      "▁it.": 1450,
      "▁vac": 1451,
      "▁pretty": 1452,
      "▁higher": 1453,
      "▁ago": 1454,
      "▁Road": 1455,
      "▁Hopefully": 1456,
      "▁clos": 1457,
      "itch": 1458,
      "ation.": 1459,
      "▁technology": 1460,
      "▁question": 1461,
      "▁favor": 1462,
      "craft": 1463,
      "▁Mer": 1464,
      "ustain": 1465,
      "▁rate": 1466,
      "▁track": 1467,
      "se\n": 1468,
      "▁Exactly.": 1469,
      "▁ac": 1470,
      "▁case": 1471,
      "ident": 1472,
      "▁autom": 1473,
      "▁orbital": 1474,
      "arket": 1475,
      "▁tweet": 1476,
      "▁find": 1477,
      "\"\"\"\n": 1478,
      "▁engines": 1479,
      "▁spac": 1480,
      "ever": 1481,
      "ield": 1482,
      "▁must": 1483,
      "eler": 1484,
      "lex": 1485,
      "▁Hy": 1486,
      "ists": 1487,
      "cially": 1488,
      "▁driving": 1489,
      "▁wrong": 1490,
      "uro": 1491,
      "▁size": 1492,
      "ider": 1493,
      "▁building": 1494,
      "▁booster": 1495,
      "▁Roadst": 1496,
      "-s": 1497,
      "e.": 1498,
      "▁Q": 1499,
      "ingle": 1500,
      "▁pos": 1501,
      "▁doesnt": 1502,
      "▁kids": 1503,
      "▁zero": 1504,
      "▁announce": 1505,
      "tw,": 1506,
      "line": 1507,
      "▁away": 1508,
      "▁camer": 1509,
      "▁rest": 1510,
      "▁thats": 1511,
      "arget": 1512,
      "ces": 1513,
      "arm": 1514,
      "irm": 1515,
      "▁price": 1516,
      "▁humanity": 1517,
      "ern": 1518,
      "reen": 1519,
      "▁cred": 1520,
      "▁data": 1521,
      "▁name": 1522,
      "anding": 1523,
      "▁expect": 1524,
      "▁mean": 1525,
      "▁view": 1526,
      "uel": 1527,
      "▁come": 1528,
      "▁dr": 1529,
      "▁here": 1530,
      "▁forward": 1531,
      "ly,": 1532,
      "▁try": 1533,
      "▁worth": 1534,
      "▁hardware": 1535,
      "bal": 1536,
      "▁fal": 1537,
      "ouse": 1538,
      "arch": 1539,
      "▁hot": 1540,
      "▁NY": 1541,
      "▁youre": 1542,
      "▁truck": 1543,
      "▁Ok\n": 1544,
      "▁buy": 1545,
      "a\n": 1546,
      "▁top": 1547,
      "▁non": 1548,
      "▁reason": 1549,
      "▁Be": 1550,
      "▁Btw,": 1551,
      "▁means": 1552,
      "▁advanced": 1553,
      "▁value": 1554,
      "hop": 1555,
      "no": 1556,
      "▁put": 1557,
      "▁prop": 1558,
      "▁trying": 1559,
      "down": 1560,
      "k,": 1561,
      "▁term": 1562,
      "▁slight": 1563,
      "▁craz": 1564,
      "llow": 1565,
      "▁form": 1566,
      "▁obvi": 1567,
      "iterally": 1568,
      "ai": 1569,
      "ake": 1570,
      "ger": 1571,
      "vt": 1572,
      "xy": 1573,
      "▁these": 1574,
      "▁rock": 1575,
      "▁roof": 1576,
      "▁jour": 1577,
      "▁climate": 1578,
      "▁appreciated": 1579,
      "▁detail": 1580,
      "▁home": 1581,
      "▁giv": 1582,
      "▁rad": 1583,
      "▁Yup": 1584,
      "ulation": 1585,
      "ume": 1586,
      "▁able": 1587,
      "▁anyone": 1588,
      "▁One": 1589,
      "▁True\n": 1590,
      "'re": 1591,
      "averal": 1592,
      "io": 1593,
      "icles": 1594,
      "▁built": 1595,
      "▁getting": 1596,
      "▁Canaveral": 1597,
      "▁sn": 1598,
      "▁Imp": 1599,
      "▁it.\n": 1600,
      "▁second": 1601,
      "▁km": 1602,
      "▁Youre": 1603,
      "▁acceler": 1604,
      "▁$1": 1605,
      "▁deploy": 1606,
      "▁Looks": 1607,
      "▁believe": 1608,
      "▁Hyper": 1609,
      "gt;": 1610,
      "inn": 1611,
      "ince": 1612,
      "▁Power": 1613,
      "▁deep": 1614,
      "ively": 1615,
      "ween": 1616,
      "▁Need": 1617,
      "▁job": 1618,
      "▁center": 1619,
      "▁keep": 1620,
      "▁piece": 1621,
      "ts": 1622,
      "res": 1623,
      "▁welcome": 1624,
      "aring": 1625,
      "▁dro": 1626,
      "ential": 1627,
      "pecially": 1628,
      "▁kind": 1629,
      "▁Next": 1630,
      ").\n": 1631,
      "ities": 1632,
      "▁SN": 1633,
      "▁stud": 1634,
      "uss": 1635,
      "olut": 1636,
      "loop": 1637,
      "▁It's": 1638,
      "ounds": 1639,
      "ccess": 1640,
      "roneship": 1641,
      "wor": 1642,
      "▁mult": 1643,
      "▁Bo": 1644,
      "▁Euro": 1645,
      "ers\n": 1646,
      "▁haha": 1647,
      "▁agree": 1648,
      "▁money": 1649,
      "▁Hyperloop": 1650,
      "ially": 1651,
      "ness": 1652,
      "tle": 1653,
      "▁u": 1654,
      "▁three": 1655,
      "▁bl": 1656,
      "▁gra": 1657,
      "▁Coming": 1658,
      "▁prob": 1659,
      "▁exc": 1660,
      "▁Still": 1661,
      "▁place": 1662,
      "▁Z": 1663,
      "▁body": 1664,
      "icult": 1665,
      "eth": 1666,
      "▁Ar": 1667,
      "▁event": 1668,
      "▁wheel": 1669,
      "▁times": 1670,
      "empt": 1671,
      "tr": 1672,
      "▁With": 1673,
      "ush": 1674,
      "▁ra": 1675,
      "▁ground": 1676,
      "▁sustain": 1677,
      "ising": 1678,
      "ether": 1679,
      "▁another": 1680,
      "ames": 1681,
      "▁govt": 1682,
      "▁true\n": 1683,
      "▁definitely": 1684,
      "av": 1685,
      "▁target": 1686,
      "▁boo": 1687,
      "ism": 1688,
      "imes": 1689,
      "▁Gr": 1690,
      "▁death": 1691,
      "▁When": 1692,
      "▁someone": 1693,
      "▁front": 1694,
      "▁extremely": 1695,
      "▁bit": 1696,
      "▁cant": 1697,
      "▁certain": 1698,
      "▁red": 1699,
      "▁equ": 1700,
      "▁Was": 1701,
      "▁Cy": 1702,
      "▁Fr": 1703,
      "▁Bet": 1704,
      "▁close": 1705,
      "▁sales": 1706,
      "▁sci": 1707,
      "▁fine": 1708,
      "▁dist": 1709,
      "▁ste": 1710,
      "▁near": 1711,
      "▁coll": 1712,
      "▁Even": 1713,
      "▁performance": 1714,
      "000": 1715,
      "▁disc": 1716,
      "▁success": 1717,
      "▁upgrade": 1718,
      "ency": 1719,
      "▁especially": 1720,
      "▁Wow,": 1721,
      "30": 1722,
      "solut": 1723,
      "ream": 1724,
      "▁wa": 1725,
      "▁fri": 1726,
      "llent": 1727,
      "▁reach": 1728,
      "▁that's": 1729,
      "urb": 1730,
      "▁Eng": 1731,
      "▁pod": 1732,
      "▁old": 1733,
      "▁lat": 1734,
      "▁inf": 1735,
      "▁Per": 1736,
      "▁heat": 1737,
      "▁critical": 1738,
      "ience": 1739,
      "link": 1740,
      "▁bar": 1741,
      "entry": 1742,
      "▁sell": 1743,
      "▁works": 1744,
      "▁chance": 1745,
      "gram": 1746,
      "▁hope": 1747,
      "▁spaceship": 1748,
      "50": 1749,
      "mb": 1750,
      "ral": 1751,
      "ital": 1752,
      "ross": 1753,
      "ading": 1754,
      "▁exactly": 1755,
      "▁comb": 1756,
      "▁between": 1757,
      "▁subs": 1758,
      "▁bring": 1759,
      "▁Starlink": 1760,
      "▁Twitter": 1761,
      "xygen": 1762,
      "cent": 1763,
      "driving": 1764,
      "▁slow": 1765,
      "▁single": 1766,
      "▁fuel": 1767,
      "▁market": 1768,
      "▁oxygen": 1769,
      "etary": 1770,
      "ulations": 1771,
      "▁exist": 1772,
      "▁news": 1773,
      "▁phys": 1774,
      "▁general": 1775,
      "▁tons": 1776,
      "▁mach": 1777,
      "ale": 1778,
      "▁repl": 1779,
      "▁time\n": 1780,
      "▁fair": 1781,
      "▁optim": 1782,
      "where": 1783,
      "▁false": 1784,
      "▁slightly": 1785,
      "bon": 1786,
      "ps": 1787,
      "ug": 1788,
      "wer": 1789,
      "▁burn": 1790,
      "▁Act": 1791,
      "ents": 1792,
      "▁upper": 1793,
      "▁complex": 1794,
      "▁months": 1795,
      "▁mins": 1796,
      "▁saying": 1797,
      "▁hopefully": 1798,
      "lass": 1799,
      "▁bro": 1800,
      "▁correct": 1801,
      "▁motor": 1802,
      "icul": 1803,
      "eloc": 1804,
      "▁Is": 1805,
      "▁stand": 1806,
      "▁store": 1807,
      "ired": 1808,
      "▁fairing": 1809,
      "▁imo": 1810,
      "▁hours": 1811,
      "▁increas": 1812,
      "▁iron": 1813,
      "atically": 1814,
      "▁larg": 1815,
      "▁give": 1816,
      "ote": 1817,
      "ode": 1818,
      "▁it's": 1819,
      "▁story": 1820,
      "▁run": 1821,
      "▁check": 1822,
      "▁Well": 1823,
      "▁pres": 1824,
      "bability": 1825,
      "▁spec": 1826,
      "▁record": 1827,
      "▁Europe": 1828,
      "lor": 1829,
      "las": 1830,
      "▁nothing": 1831,
      "eft": 1832,
      "▁contin": 1833,
      "▁sugg": 1834,
      "▁law": 1835,
      "▁left": 1836,
      "▁May": 1837,
      "▁App": 1838,
      "aded": 1839,
      "▁above": 1840,
      "apid": 1841,
      "▁prim": 1842,
      "▁consider": 1843,
      "ibly": 1844,
      "▁volume": 1845,
      "▁self-driving": 1846,
      "▁difficult": 1847,
      "▁announcement": 1848,
      "elocity": 1849,
      "-ter": 1850,
      "ken": 1851,
      "eres": 1852,
      "▁droneship": 1853,
      "pell": 1854,
      "▁That's": 1855,
      "▁feed": 1856,
      "hopper": 1857,
      "-term": 1858,
      "de": 1859,
      "s!\n": 1860,
      "▁Ph": 1861,
      "▁having": 1862,
      "▁attempt": 1863,
      "▁Looking": 1864,
      "▁Gigafact": 1865,
      "▁Company": 1866,
      "aid": 1867,
      "oid": 1868,
      "rac": 1869,
      "ract": 1870,
      "▁tough": 1871,
      "ing.\n": 1872,
      "ites": 1873,
      "▁pol": 1874,
      "ither": 1875,
      "ation,": 1876,
      "▁didnt": 1877,
      "▁friend": 1878,
      "led": 1879,
      "uly": 1880,
      "yond": 1881,
      "▁caus": 1882,
      "▁ft": 1883,
      "▁hist": 1884,
      "▁Aiming": 1885,
      "▁state": 1886,
      "▁prog": 1887,
      "▁goal": 1888,
      "ers.": 1889,
      "▁word": 1890,
      "▁mag": 1891,
      "▁too\n": 1892,
      "▁remain": 1893,
      "▁payload": 1894,
      "▁Haha\n": 1895,
      "City": 1896,
      "▁found": 1897,
      "itude": 1898,
      "eng": 1899,
      "▁line": 1900,
      "▁soon.\n": 1901,
      "▁fail": 1902,
      "▁Almost": 1903,
      "▁whole": 1904,
      "▁number": 1905,
      "solutely": 1906,
      "▁Gigafactory": 1907,
      "bs": 1908,
      "ood": 1909,
      "uge": 1910,
      "uum": 1911,
      "▁wont": 1912,
      "ision": 1913,
      "▁pad": 1914,
      "▁report": 1915,
      "▁stock": 1916,
      "▁velocity": 1917,
      "▁charge": 1918,
      "conom": 1919,
      "▁weekend": 1920,
      "▁function": 1921,
      "▁follow": 1922,
      "bot": 1923,
      "iam": 1924,
      "just": 1925,
      "pon": 1926,
      "▁thin": 1927,
      "▁fle": 1928,
      "▁literally": 1929,
      "▁Sun": 1930,
      "▁Tesla.": 1931,
      "▁mov": 1932,
      "▁by\n": 1933,
      "▁deb": 1934,
      "▁Why": 1935,
      "ously": 1936,
      "▁increase": 1937,
      "pellant": 1938,
      "a,": 1939,
      "eg": 1940,
      "▁summ": 1941,
      "ission": 1942,
      "▁Tesla,": 1943,
      "ird": 1944,
      "▁trip": 1945,
      "▁good.": 1946,
      "duction": 1947,
      "▁took": 1948,
      "▁improvement": 1949,
      "▁difference": 1950,
      "▁sustainable": 1951,
      "lish": 1952,
      "wall": 1953,
      "yn": 1954,
      "▁ult": 1955,
      "▁flam": 1956,
      "▁weather": 1957,
      "▁rapid": 1958,
      "ppy": 1959,
      "▁testing": 1960,
      "▁solution": 1961,
      "▁underst": 1962,
      "ificant": 1963,
      "▁multip": 1964,
      "i-": 1965,
      "▁bre": 1966,
      "▁city": 1967,
      "▁mid": 1968,
      "▁date": 1969,
      "▁init": 1970,
      "▁giant": 1971,
      "▁Air": 1972,
      "quid": 1973,
      "▁amount": 1974,
      "▁itself": 1975,
      "▁confirm": 1976,
      "back": 1977,
      "oy": 1978,
      "▁cell": 1979,
      "▁mention": 1980,
      "▁ready": 1981,
      "▁Of": 1982,
      "▁heard": 1983,
      "▁parts": 1984,
      "▁Have": 1985,
      "▁supp": 1986,
      "▁everyone": 1987,
      "▁talk": 1988,
      "▁issu": 1989,
      "▁reusable": 1990,
      "10": 1991,
      "fort": 1992,
      "▁pur": 1993,
      "▁Sp": 1994,
      "▁program": 1995,
      "▁(s": 1996,
      "▁main": 1997,
      "▁prec": 1998,
      "▁time.": 1999,
      "▁actual": 2000,
      "▁didn't": 2001,
      "▁doesn't": 2002,
      "▁Worth": 2003,
      "▁entire": 2004,
      "▁Intern": 2005,
      "▁Roadster": 2006,
      "▁Cyber": 2007,
      "cing": 2008,
      "ins": 2009,
      "ouch": 2010,
      "▁pm": 2011,
      "▁rel": 2012,
      "▁prot": 2013,
      "▁log": 2014,
      "▁carbon": 2015,
      "▁tell": 2016,
      "▁impact": 2017,
      "▁tonight": 2018,
      "▁Congrat": 2019,
      "▁achie": 2020,
      "▁credit": 2021,
      "a.": 2022,
      "fect": 2023,
      "ten": 2024,
      "▁ed": 2025,
      "▁cause": 2026,
      "▁mile": 2027,
      "▁hor": 2028,
      "ation.\n": 2029,
      "▁designed": 2030,
      "▁--": 2031,
      "▁approval": 2032,
      "▁traffic": 2033,
      "▁regulat": 2034,
      "▁vacuum": 2035,
      "▁non-": 2036,
      "▁haha\n": 2037,
      "ethrow": 2038,
      "put": 2039,
      "ton": 2040,
      "▁affect": 2041,
      "▁cry": 2042,
      "▁tot": 2043,
      "▁Sounds": 2044,
      "▁rece": 2045,
      "▁steel": 2046,
      "▁Russ": 2047,
      "rib": 2048,
      "▁takes": 2049,
      "▁beta": 2050,
      "▁factor": 2051,
      "▁complete": 2052,
      "ever,": 2053,
      "▁crazy": 2054,
      "gre": 2055,
      "▁sens": 2056,
      "▁fil": 2057,
      "▁beg": 2058,
      "iful": 2059,
      "▁at\n": 2060,
      "▁ali": 2061,
      "ored": 2062,
      "▁phone": 2063,
      "▁Pretty": 2064,
      "▁course": 2065,
      "SA": 2066,
      "ee": 2067,
      "mos": 2068,
      "▁sun": 2069,
      "▁sch": 2070,
      "▁during": 2071,
      "▁game": 2072,
      "▁ans": 2073,
      "▁each": 2074,
      "upt": 2075,
      "irc": 2076,
      "▁Dont": 2077,
      "▁room": 2078,
      "▁ask": 2079,
      "▁load": 2080,
      "▁plus": 2081,
      "▁year.": 2082,
      "▁longer": 2083,
      "▁point\n": 2084,
      "▁proud": 2085,
      "▁transport": 2086,
      "▁satellite": 2087,
      "▁Sure\n": 2088,
      "▁suggest": 2089,
      "▁fleet": 2090,
      ".0": 2091,
      "ave": 2092,
      "ta": 2093,
      "zz": 2094,
      "▁mer": 2095,
      "▁Mon": 2096,
      "▁effect": 2097,
      "iday": 2098,
      "▁HW": 2099,
      "▁propellant": 2100,
      "▁Lot": 2101,
      "▁Long": 2102,
      "ably": 2103,
      "▁taking": 2104,
      "ocus": 2105,
      "▁significant": 2106,
      "▁history": 2107,
      "Wh": 2108,
      "face": 2109,
      "hold": 2110,
      "ier": 2111,
      "oice": 2112,
      "wise": 2113,
      "▁since": 2114,
      "▁wish": 2115,
      "ings": 2116,
      "▁flow": 2117,
      "▁reentry": 2118,
      "cept": 2119,
      "ation\n": 2120,
      "▁meet": 2121,
      "ems": 2122,
      "▁arg": 2123,
      "▁time,": 2124,
      "▁time.\n": 2125,
      "▁Really": 2126,
      "▁finish": 2127,
      "ersonic": 2128,
      "▁travel": 2129,
      "truck": 2130,
      "▁progress": 2131,
      "AW": 2132,
      "▁watch": 2133,
      "▁cat": 2134,
      "▁pric": 2135,
      "▁please": 2136,
      "▁ok": 2137,
      "▁inj": 2138,
      "▁Are": 2139,
      "vers": 2140,
      "amber": 2141,
      "ify": 2142,
      "ivil": 2143,
      "▁now.": 2144,
      "▁week.": 2145,
      "▁issue": 2146,
      "▁such": 2147,
      "ouble": 2148,
      "▁Aust": 2149,
      "vert": 2150,
      "▁Best": 2151,
      "▁East": 2152,
      "asshopper": 2153,
      "▁result": 2154,
      "▁country": 2155,
      "▁strong": 2156,
      "▁sounds": 2157,
      "▁Norway": 2158,
      "▁Grasshopper": 2159,
      "▁Congratulations": 2160,
      "tical": 2161,
      "▁late": 2162,
      "els": 2163,
      "▁emp": 2164,
      "▁neg": 2165,
      "▁ramp": 2166,
      "▁trick": 2167,
      "▁meant": 2168,
      "▁access": 2169,
      "ufact": 2170,
      "▁sent": 2171,
      "▁mind": 2172,
      "▁pure": 2173,
      "▁pain": 2174,
      "▁isn't": 2175,
      "ets": 2176,
      "▁Ive": 2177,
      "▁ge": 2178,
      "▁beaut": 2179,
      "though": 2180,
      "▁Yes.": 2181,
      "eful": 2182,
      "▁gets": 2183,
      "▁incred": 2184,
      "▁lift": 2185,
      "▁address": 2186,
      "▁improvements": 2187,
      "▁local": 2188,
      "ruction": 2189,
      "▁Merlin": 2190,
      "sing": 2191,
      "uff": 2192,
      "▁sus": 2193,
      "arr": 2194,
      "▁Mo": 2195,
      "▁Thank": 2196,
      "▁Nice": 2197,
      "▁ride": 2198,
      "▁core": 2199,
      "▁within": 2200,
      "urate": 2201,
      "▁share": 2202,
      "▁good,": 2203,
      "▁can't": 2204,
      "epend": 2205,
      "▁~2": 2206,
      "▁smo": 2207,
      "▁today.": 2208,
      "▁batteries": 2209,
      "▁exciting": 2210,
      "▁injur": 2211,
      "uct": 2212,
      "onom": 2213,
      "▁went": 2214,
      "▁morn": 2215,
      "▁pic": 2216,
      "▁dig": 2217,
      "▁dest": 2218,
      "alth": 2219,
      "acing": 2220,
      "▁ren": 2221,
      "▁beyond": 2222,
      "ters": 2223,
      "▁so\n": 2224,
      "ther": 2225,
      "▁F9": 2226,
      "▁atmos": 2227,
      "▁she": 2228,
      "▁shot": 2229,
      "▁liquid": 2230,
      "lobal": 2231,
      "▁~$": 2232,
      "▁interest": 2233,
      "wards": 2234,
      "▁install": 2235,
      "▁movie": 2236,
      "▁multiplan": 2237,
      "ev": 2238,
      "▁tank": 2239,
      "▁million": 2240,
      "arily": 2241,
      "▁large": 2242,
      "▁him": 2243,
      "▁Mach": 2244,
      "▁anal": 2245,
      "▁econom": 2246,
      "▁yes,": 2247,
      "ently": 2248,
      "▁it,": 2249,
      "▁Full": 2250,
      "▁probability": 2251,
      "▁Big": 2252,
      "ers,": 2253,
      "▁chamber": 2254,
      "▁Jo": 2255,
      "istic": 2256,
      "▁config": 2257,
      "▁required": 2258,
      "▁block": 2259,
      "/h": 2260,
      "O2": 2261,
      "side": 2262,
      "▁sour": 2263,
      "ret": 2264,
      "▁mus": 2265,
      "▁don": 2266,
      "▁heavy": 2267,
      "▁Car": 2268,
      "▁shield": 2269,
      "▁dock": 2270,
      "▁Rep": 2271,
      "oughly": 2272,
      "▁UAW": 2273,
      "▁rockets": 2274,
      "▁soon.": 2275,
      "▁lead": 2276,
      "▁perfect": 2277,
      "▁special": 2278,
      "▁\"T": 2279,
      "▁imm": 2280,
      "▁limited": 2281,
      "▁priority": 2282,
      "aila": 2283,
      "▁radar": 2284,
      "▁machine": 2285,
      "ivery": 2286,
      "rupt": 2287,
      "sure": 2288,
      "▁past": 2289,
      "▁pick": 2290,
      "▁dual": 2291,
      "▁Turn": 2292,
      "▁Could": 2293,
      "▁ord": 2294,
      "▁lost": 2295,
      "▁year.\n": 2296,
      "▁Yeah\n": 2297,
      "▁Does": 2298,
      "▁attack": 2299,
      "▁manufact": 2300,
      "▁satellites": 2301,
      "▁positive": 2302,
      "▁Cybertruck": 2303,
      "60": 2304,
      "▁tin": 2305,
      "▁warm": 2306,
      "▁cy": 2307,
      "▁cut": 2308,
      "▁tow": 2309,
      "▁Too": 2310,
      "rote": 2311,
      "▁Ad": 2312,
      "▁Those": 2313,
      "amm": 2314,
      "▁rid": 2315,
      "▁Lo": 2316,
      "umb": 2317,
      "▁abort": 2318,
      "▁unless": 2319,
      "▁mem": 2320,
      "▁useful": 2321,
      "▁Any": 2322,
      "▁happy": 2323,
      "▁indust": 2324,
      "▁appreciate": 2325,
      "▁exceed": 2326,
      "nect": 2327,
      "vol": 2328,
      "esign": 2329,
      "▁civil": 2330,
      "▁firing": 2331,
      "▁Ser": 2332,
      "▁online": 2333,
      "chn": 2334,
      "ada": 2335,
      "▁Br": 2336,
      "▁Don't": 2337,
      "▁Every": 2338,
      "rain": 2339,
      "▁Oh": 2340,
      "▁quite": 2341,
      "▁$5": 2342,
      "▁Working": 2343,
      "self": 2344,
      "ype": 2345,
      "▁four": 2346,
      "▁dens": 2347,
      "▁Must": 2348,
      "cean": 2349,
      "▁conc": 2350,
      "▁charg": 2351,
      "que": 2352,
      "▁mostly": 2353,
      "▁reality": 2354,
      "▁looking": 2355,
      "▁However,": 2356,
      "▁swap": 2357,
      "▁Powerwall": 2358,
      "▁standard": 2359,
      "▁boring": 2360,
      "outh": 2361,
      "▁list": 2362,
      "roll": 2363,
      "unk": 2364,
      "oline": 2365,
      "▁hell": 2366,
      "fford": 2367,
      "▁Who": 2368,
      "▁incent": 2369,
      "▁year,": 2370,
      "▁week\n": 2371,
      "▁Doge": 2372,
      "▁metal": 2373,
      "head": 2374,
      "▁clear,": 2375,
      "ailable": 2376,
      "ah": 2377,
      "vity": 2378,
      "▁!": 2379,
      "▁wrote": 2380,
      "▁pot": 2381,
      "▁diam": 2382,
      "▁&gt;": 2383,
      "▁Hard": 2384,
      "aby": 2385,
      "▁dead": 2386,
      "pping": 2387,
      "eak": 2388,
      "▁Mars\n": 2389,
      "▁Absolutely": 2390,
      "▁except": 2391,
      "pril": 2392,
      "▁SolarCity": 2393,
      "▁create": 2394,
      "▁favorite": 2395,
      "▁Yup\n": 2396,
      "▁industry": 2397,
      "gest": 2398,
      "ik": 2399,
      "▁song": 2400,
      "▁site": 2401,
      "▁focus": 2402,
      "acks": 2403,
      "igate": 2404,
      "▁static": 2405,
      "ament": 2406,
      "▁cold": 2407,
      "▁coast": 2408,
      "▁Glad": 2409,
      "▁too.": 2410,
      "▁right.": 2411,
      "▁delivery": 2412,
      "▁excellent": 2413,
      "▁avoid": 2414,
      "▁customers": 2415,
      "▁Actually": 2416,
      "▁regulatory": 2417,
      "▁beautiful": 2418,
      "100": 2419,
      "po": 2420,
      "▁ice": 2421,
      "▁pop": 2422,
      "▁op": 2423,
      "▁ocean": 2424,
      "▁rele": 2425,
      "▁white": 2426,
      "▁moving": 2427,
      "▁cars.": 2428,
      "▁minut": 2429,
      "▁Happy": 2430,
      "ically,": 2431,
      "▁systems": 2432,
      "▁final": 2433,
      "▁clean": 2434,
      "▁Congrats": 2435,
      "▁easy": 2436,
      "▁hyd": 2437,
      "▁civiliz": 2438,
      "▁afford": 2439,
      "▁wide": 2440,
      "▁cal": 2441,
      "▁fig": 2442,
      "▁towards": 2443,
      "▁hon": 2444,
      "▁hover": 2445,
      "rot": 2446,
      "▁nam": 2447,
      "▁Something": 2448,
      "▁Then": 2449,
      "ades": 2450,
      "▁enable": 2451,
      "▁door": 2452,
      "ured": 2453,
      "ands": 2454,
      "▁ass": 2455,
      "▁Over": 2456,
      "▁although": 2457,
      "▁usually": 2458,
      "▁pred": 2459,
      "▁particul": 2460,
      "▁Nothing": 2461,
      "▁account": 2462,
      "▁serious": 2463,
      "▁publish": 2464,
      "▁costs": 2465,
      "▁Hoping": 2466,
      "plan": 2467,
      "▁legs": 2468,
      "▁automatically": 2469,
      "▁given": 2470,
      "▁Performance": 2471,
      "▁feedback": 2472,
      "▁multiplanetary": 2473,
      "viron": 2474,
      "▁ut": 2475,
      "▁tor": 2476,
      "▁sit": 2477,
      "▁won't": 2478,
      "▁mess": 2479,
      "▁her": 2480,
      "▁offer": 2481,
      "▁isnt": 2482,
      "iginal": 2483,
      "▁CO2": 2484,
      "▁Tesla\n": 2485,
      "▁ensure": 2486,
      "semb": 2487,
      "ounter": 2488,
      "▁jud": 2489,
      "▁chall": 2490,
      "▁autonom": 2491,
      "▁true.": 2492,
      "▁vertical": 2493,
      "▁countri": 2494,
      "▁available": 2495,
      "▁seems": 2496,
      "▁Seems": 2497,
      "▁operating": 2498,
      "▁networ": 2499,
      "▁camera": 2500,
      "▁Sunday": 2501,
      "vironment": 2502,
      "cy": 2503,
      "ined": 2504,
      "▁wd": 2505,
      "▁bi": 2506,
      "arter": 2507,
      "▁hat": 2508,
      "stron": 2509,
      "▁beh": 2510,
      "vern": 2511,
      "▁prov": 2512,
      "▁Pl": 2513,
      "▁car.": 2514,
      "▁right\n": 2515,
      "▁owner": 2516,
      "phere": 2517,
      "▁world's": 2518,
      "ellig": 2519,
      "▁Max": 2520,
      "▁Major": 2521,
      "▁critic": 2522,
      "▁basically": 2523,
      "rend": 2524,
      "▁achieve": 2525,
      "▁hyp": 2526,
      "▁cameras": 2527,
      "▁successful": 2528,
      "▁break": 2529,
      "▁diamet": 2530,
      "0%": 2531,
      "ling": 2532,
      "lt;": 2533,
      "esla": 2534,
      "▁pan": 2535,
      "▁April": 2536,
      "idual": 2537,
      "▁Found": 2538,
      "▁provid": 2539,
      "▁EV": 2540,
      "▁environment": 2541,
      "▁(m": 2542,
      "aps": 2543,
      "▁Ind": 2544,
      "▁taken": 2545,
      "▁learn": 2546,
      "ground": 2547,
      "▁series": 2548,
      "▁bigger": 2549,
      "▁crash": 2550,
      "▁thrusters": 2551,
      "▁experience": 2552,
      "▁American": 2553,
      "▁tub": 2554,
      "▁flo": 2555,
      "▁lab": 2556,
      "▁refer": 2557,
      "▁ang": 2558,
      "▁force": 2559,
      "▁effic": 2560,
      "the": 2561,
      "▁Blo": 2562,
      "pped": 2563,
      "▁thank": 2564,
      "▁good\n": 2565,
      "▁comes": 2566,
      "cient": 2567,
      "▁long-term": 2568,
      "▁party": 2569,
      "...": 2570,
      "▁interesting": 2571,
      "▁grid": 2572,
      "▁Hope": 2573,
      "▁shows": 2574,
      "▁become": 2575,
      "▁tunnels": 2576,
      "▁completed": 2577,
      "ibility": 2578,
      "▁rolling": 2579,
      "▁different": 2580,
      "icture": 2581,
      "▁repair": 2582,
      "▁includ": 2583,
      "▁include": 2584,
      "▁book": 2585,
      "▁wait": 2586,
      "▁subsid": 2587,
      "▁receiv": 2588,
      "▁answer": 2589,
      "-1": 2590,
      "cast": 2591,
      "ead": 2592,
      "ler": 2593,
      "ning": 2594,
      "on\n": 2595,
      "rel": 2596,
      "▁fla": 2597,
      "▁pat": 2598,
      "▁park": 2599,
      "▁often": 2600,
      "▁Same": 2601,
      "▁games": 2602,
      "▁Many": 2603,
      "▁Agre": 2604,
      "▁ant": 2605,
      "ly.": 2606,
      "▁Part": 2607,
      "ife": 2608,
      "▁robot": 2609,
      "▁seen": 2610,
      "umer": 2611,
      "action": 2612,
      "ared": 2613,
      "izing": 2614,
      "▁adjust": 2615,
      "▁anyway": 2616,
      "▁active": 2617,
      "▁cars,": 2618,
      "berg": 2619,
      "▁team.": 2620,
      "▁spacecraft": 2621,
      "▁Superchargers": 2622,
      "▁request": 2623,
      "▁Deep": 2624,
      "▁Interesting": 2625,
      "▁competition": 2626,
      "▁dealers": 2627,
      "▁tracking": 2628,
      "▁combust": 2629,
      "▁continu": 2630,
      "▁primary": 2631,
      "▁total": 2632,
      "500": 2633,
      "WD": 2634,
      "go": 2635,
      "ny": 2636,
      "ox": 2637,
      "ool": 2638,
      "uc": 2639,
      "▁!\n": 2640,
      "▁ign": 2641,
      "ester": 2642,
      "▁house": 2643,
      "▁once": 2644,
      "▁&lt;": 2645,
      "une": 2646,
      "▁Cons": 2647,
      "▁process": 2648,
      "▁People": 2649,
      "▁char": 2650,
      "ctions": 2651,
      "▁sure\n": 2652,
      "▁faster": 2653,
      "▁via\n": 2654,
      "▁computer": 2655,
      "▁appe": 2656,
      "▁fundament": 2657,
      "▁latest": 2658,
      "▁atmosphere": 2659,
      "▁orders": 2660,
      "▁provide": 2661,
      "!?\n": 2662,
      "/s": 2663,
      "ior": 2664,
      "ob": 2665,
      "ok": 2666,
      "ule": 2667,
      "ercial": 2668,
      "▁send": 2669,
      "▁base": 2670,
      "▁picture": 2671,
      "▁glass": 2672,
      "▁Might": 2673,
      "illions": 2674,
      "ilar": 2675,
      "▁NA": 2676,
      "▁Gen": 2677,
      "▁train": 2678,
      "▁connect": 2679,
      "▁carry": 2680,
      "▁Chr": 2681,
      "▁obv": 2682,
      "▁vehicles": 2683,
      "▁currently": 2684,
      "▁across": 2685,
      "▁er": 2686,
      "ar\n": 2687,
      "▁paid": 2688,
      "ion.": 2689,
      "entially": 2690,
      "▁necess": 2691,
      "▁rul": 2692,
      "urs": 2693,
      "▁Par": 2694,
      "▁Li": 2695,
      "▁alt": 2696,
      "▁Up": 2697,
      "▁articles": 2698,
      "▁screen": 2699,
      "▁I've": 2700,
      "▁Techn": 2701,
      "▁fixed": 2702,
      "▁creating": 2703,
      "▁propul": 2704,
      "▁journal": 2705,
      "▁snow": 2706,
      "▁certainly": 2707,
      "▁science": 2708,
      "elligence": 2709,
      "'ve": 2710,
      "/S": 2711,
      "man": 2712,
      "▁turb": 2713,
      "inc": 2714,
      "▁fall": 2715,
      "▁mist": 2716,
      "arli": 2717,
      "▁pump": 2718,
      "▁hol": 2719,
      "▁huge": 2720,
      "▁Id": 2721,
      "uth": 2722,
      "▁Much": 2723,
      "▁either": 2724,
      "▁Cl": 2725,
      "▁stor": 2726,
      "▁prom": 2727,
      "▁Bl": 2728,
      "▁Ext": 2729,
      "orts": 2730,
      "▁alone": 2731,
      "arent": 2732,
      "▁fins": 2733,
      "▁reading": 2734,
      "▁awesome\n": 2735,
      "▁demand": 2736,
      "▁based": 2737,
      "▁black": 2738,
      "▁Internet": 2739,
      "▁HW2": 2740,
      "▁density": 2741,
      "H4": 2742,
      "o,": 2743,
      "▁touch": 2744,
      "ination": 2745,
      "▁theres": 2746,
      "▁billion": 2747,
      "▁mom": 2748,
      "ano": 2749,
      "▁den": 2750,
      "▁dam": 2751,
      "▁Sm": 2752,
      "ion\n": 2753,
      "▁rain": 2754,
      "▁Base": 2755,
      "▁you.\n": 2756,
      "▁Get": 2757,
      "▁Res": 2758,
      "▁seat": 2759,
      "▁prem": 2760,
      "▁prevent": 2761,
      "ometimes": 2762,
      "▁electricity": 2763,
      "▁guess": 2764,
      "▁simple": 2765,
      "▁Hopefully,": 2766,
      "▁closer": 2767,
      "▁raise": 2768,
      "▁source": 2769,
      "▁NASA": 2770,
      "coming": 2771,
      "▁win": 2772,
      "▁bot": 2773,
      "▁code": 2774,
      "▁mot": 2775,
      "arant": 2776,
      "lect": 2777,
      "ides": 2778,
      "▁Did": 2779,
      "▁this.": 2780,
      "ember": 2781,
      "▁arri": 2782,
      "▁Going": 2783,
      "▁desc": 2784,
      "▁point,": 2785,
      "itten": 2786,
      "▁:30": 2787,
      "▁matters": 2788,
      "▁initial": 2789,
      "▁named": 2790,
      ".5": 2791,
      "eed": 2792,
      "na": 2793,
      "ray": 2794,
      "sel": 2795,
      "▁tire": 2796,
      "▁mount": 2797,
      "▁dark": 2798,
      "▁grow": 2799,
      "▁global": 2800,
      "acity": 2801,
      "▁earli": 2802,
      "▁Cant": 2803,
      "▁rd": 2804,
      "▁do\n": 2805,
      "▁Red": 2806,
      "▁cond": 2807,
      "\"\".": 2808,
      "▁one\n": 2809,
      "▁now,": 2810,
      "▁week.\n": 2811,
      "▁Production": 2812,
      "▁everything": 2813,
      "▁passed": 2814,
      "▁extreme": 2815,
      "▁North": 2816,
      "▁numb": 2817,
      "▁releas": 2818,
      "▁network": 2819,
      "esterday": 2820,
      "fit": 2821,
      "gether": 2822,
      "par": 2823,
      "ugh": 2824,
      "erv": 2825,
      "▁sl": 2826,
      "▁squ": 2827,
      "▁bought": 2828,
      "▁together": 2829,
      "▁hate": 2830,
      "▁Sem": 2831,
      "▁Comm": 2832,
      "▁that.\n": 2833,
      "ushing": 2834,
      "▁Ber": 2835,
      "▁Da": 2836,
      "ift": 2837,
      "▁Giv": 2838,
      "▁asked": 2839,
      "▁Ob": 2840,
      "▁outside": 2841,
      "▁hear": 2842,
      "▁theyre": 2843,
      "▁says": 2844,
      "iverse": 2845,
      "▁gasoline": 2846,
      "▁below": 2847,
      "▁gravity": 2848,
      "▁present": 2849,
      "uit": 2850,
      "iness": 2851,
      "▁bank": 2852,
      "▁catch": 2853,
      "iss": 2854,
      "▁odd": 2855,
      "▁Try": 2856,
      "▁norm": 2857,
      "▁S/": 2858,
      "▁Mass": 2859,
      "▁Motor": 2860,
      "▁These": 2861,
      "▁yeah": 2862,
      "unately": 2863,
      "▁web": 2864,
      "irth": 2865,
      "▁abs": 2866,
      "▁plac": 2867,
      "▁contract": 2868,
      "▁point.": 2869,
      "▁miss": 2870,
      "▁struct": 2871,
      "▁created": 2872,
      "▁delivered": 2873,
      "▁blog": 2874,
      "▁changes": 2875,
      "▁Well,": 2876,
      "com": 2877,
      "ov": 2878,
      "pm": 2879,
      "rew": 2880,
      "read": 2881,
      "▁dut": 2882,
      "▁Sep": 2883,
      "▁redu": 2884,
      "ly\n": 2885,
      "ctor": 2886,
      "▁area": 2887,
      "▁(not": 2888,
      "▁loop": 2889,
      "▁kill": 2890,
      "▁there.": 2891,
      "▁worked": 2892,
      "aterial": 2893,
      "▁years,": 2894,
      "▁otherwise": 2895,
      "▁interview": 2896,
      "anger": 2897,
      "pension": 2898,
      "coin": 2899,
      "▁commun": 2900,
      "▁commercial": 2901,
      "▁massive": 2902,
      "▁Sorry,": 2903,
      "▁window": 2904,
      "▁flamethrow": 2905,
      "▁suspension": 2906,
      "▁situ": 2907,
      "▁combustion": 2908,
      "!!": 2909,
      "cause": 2910,
      "i.": 2911,
      "vin": 2912,
      "▁ter": 2913,
      "▁tel": 2914,
      "▁suck": 2915,
      "▁throt": 2916,
      "▁won": 2917,
      "▁cand": 2918,
      "▁fre": 2919,
      "▁fan": 2920,
      "▁oil": 2921,
      "▁latter": 2922,
      "▁CH4": 2923,
      "▁that,": 2924,
      "▁weight": 2925,
      "▁roughly": 2926,
      "▁var": 2927,
      "▁vid": 2928,
      "▁vent": 2929,
      "▁vote": 2930,
      "▁govern": 2931,
      "▁role": 2932,
      "▁note": 2933,
      "▁Jap": 2934,
      "▁height": 2935,
      "▁greater": 2936,
      "▁launches": 2937,
      "▁accurate": 2938,
      "▁underway": 2939,
      "▁happens": 2940,
      "unning": 2941,
      "▁adding": 2942,
      "▁Force": 2943,
      "▁surface": 2944,
      "▁visit": 2945,
      "undred": 2946,
      "▁Because": 2947,
      "▁Important": 2948,
      "▁Engine": 2949,
      "▁thinking": 2950,
      "fortunately": 2951,
      "▁predict": 2952,
      "▁Japan": 2953,
      "ax": 2954,
      "core": 2955,
      "haps": 2956,
      "ians": 2957,
      "ole": 2958,
      "▁ten": 2959,
      "▁cor": 2960,
      "▁material": 2961,
      "▁nor": 2962,
      "thorn": 2963,
      "▁Your": 2964,
      "▁assemb": 2965,
      "▁car.\n": 2966,
      "▁July": 2967,
      "▁anywhere": 2968,
      "▁engin": 2969,
      "age\n": 2970,
      "bital": 2971,
      "▁spend": 2972,
      "▁months.\n": 2973,
      "ensive": 2974,
      "▁years.": 2975,
      "▁Short": 2976,
      "▁$2": 2977,
      "▁personally": 2978,
      "▁course\n": 2979,
      "▁obvious": 2980,
      "▁alien": 2981,
      "&gt;": 2982,
      "-c": 2983,
      "cape": 2984,
      "mm": 2985,
      "oke": 2986,
      "ised": 2987,
      "itical": 2988,
      "▁told": 2989,
      "▁opp": 2990,
      "al.": 2991,
      "▁color": 2992,
      "▁Pr": 2993,
      "▁vast": 2994,
      "▁original": 2995,
      "antic": 2996,
      "▁all.\n": 2997,
      "▁bug": 2998,
      "▁months\n": 2999,
      "▁quality": 3000,
      "▁minor": 3001,
      "▁realize": 3002,
      "▁smart": 3003,
      "ysis": 3004,
      "▁opening": 3005,
      "▁capacity": 3006,
      "▁simply": 3007,
      "▁NYT": 3008,
      "▁Better": 3009,
      "▁steering": 3010,
      "▁protot": 3011,
      "▁horse": 3012,
      "▁sched": 3013,
      "▁tiny": 3014,
      "hi": 3015,
      "mr": 3016,
      "ple": 3017,
      "▁tight": 3018,
      "▁tmr": 3019,
      "▁aero": 3020,
      "orter": 3021,
      "▁btw": 3022,
      "atively": 3023,
      "▁double": 3024,
      "edi": 3025,
      "▁link": 3026,
      "▁hit": 3027,
      "▁TX": 3028,
      "▁Add": 3029,
      "▁forg": 3030,
      "▁stream": 3031,
      "▁neural": 3032,
      "▁Bu": 3033,
      "▁Lond": 3034,
      "ers.\n": 3035,
      "olog": 3036,
      "▁separ": 3037,
      "▁(and": 3038,
      "▁Other": 3039,
      "▁health": 3040,
      "▁Inst": 3041,
      "▁No\n": 3042,
      "▁now\n": 3043,
      "▁biggest": 3044,
      "▁delay": 3045,
      "▁safe": 3046,
      "▁versions": 3047,
      "▁talent": 3048,
      "▁requires": 3049,
      "▁tomorrow.\n": 3050,
      "▁customer": 3051,
      "ummon": 3052,
      "▁kinda": 3053,
      "▁distance": 3054,
      "▁increasing": 3055,
      "zzle": 3056,
      "▁analysis": 3057,
      "▁immedi": 3058,
      "stronaut": 3059,
      "▁Berlin": 3060,
      "▁tmrw": 3061,
      "ey": 3062,
      "eing": 3063,
      "hn": 3064,
      "lon": 3065,
      "ossible": 3066,
      "pite": 3067,
      "wide": 3068,
      "eral": 3069,
      "▁bay": 3070,
      "▁blow": 3071,
      "▁birth": 3072,
      "▁counter": 3073,
      "▁Time": 3074,
      "ional": 3075,
      "▁yesterday": 3076,
      "▁Boc": 3077,
      "▁Both": 3078,
      "▁Design": 3079,
      "▁seats": 3080,
      "▁poss": 3081,
      "ivity": 3082,
      "▁thru": 3083,
      "▁~3": 3084,
      "▁Exc": 3085,
      "▁better.": 3086,
      "▁respon": 3087,
      "▁subject": 3088,
      "▁clar": 3089,
      "▁guys": 3090,
      "▁entry": 3091,
      "▁surpr": 3092,
      "▁limit": 3093,
      "▁flying": 3094,
      "▁turned": 3095,
      "▁Definitely\n": 3096,
      "▁understand": 3097,
      "▁filter": 3098,
      "▁Easter": 3099,
      "▁results": 3100,
      "▁concern": 3101,
      "▁criticism": 3102,
      "▁altitude": 3103,
      "-S": 3104,
      "af": 3105,
      "ex": 3106,
      "mas": 3107,
      "time": 3108,
      "▁et": 3109,
      "ining": 3110,
      "▁lay": 3111,
      "▁hundred": 3112,
      "▁Top": 3113,
      "▁nav": 3114,
      "▁Con": 3115,
      "▁tried": 3116,
      "▁do.": 3117,
      "▁not.\n": 3118,
      "raph": 3119,
      "▁(f": 3120,
      "▁me.": 3121,
      "▁landed": 3122,
      "▁much\n": 3123,
      "▁driver": 3124,
      "▁solve": 3125,
      "▁improved": 3126,
      "▁extend": 3127,
      "▁today\n": 3128,
      "cover": 3129,
      "▁demo": 3130,
      "▁braking": 3131,
      "▁deployed": 3132,
      "▁agree.": 3133,
      "▁scient": 3134,
      "▁paint": 3135,
      "▁challeng": 3136,
      "▁normal": 3137,
      "▁ide": 3138,
      "▁tap": 3139,
      "▁bus": 3140,
      "att": 3141,
      "▁cas": 3142,
      "▁fam": 3143,
      "▁las": 3144,
      "▁Tot": 3145,
      "▁nd": 3146,
      "▁Sat": 3147,
      "▁Sup": 3148,
      "▁glad": 3149,
      "▁egg": 3150,
      "▁rat": 3151,
      "▁Gu": 3152,
      "▁(no": 3153,
      "▁Ok,": 3154,
      "▁meas": 3155,
      "▁car\n": 3156,
      "▁cannot": 3157,
      "▁highest": 3158,
      "▁launch.": 3159,
      "▁too.\n": 3160,
      "▁months.": 3161,
      "▁respect": 3162,
      "▁else": 3163,
      "▁Can't": 3164,
      "▁imag": 3165,
      "▁inside": 3166,
      "ogle": 3167,
      "ograph": 3168,
      "▁cool\n": 3169,
      "▁mode": 3170,
      "▁weeks.": 3171,
      "▁feels": 3172,
      "▁sky": 3173,
      "▁Pres": 3174,
      "▁Texas\n": 3175,
      "▁instead": 3176,
      "▁expected": 3177,
      "▁physics": 3178,
      "▁negative": 3179,
      "▁John": 3180,
      "▁music": 3181,
      "▁Actually,": 3182,
      "▁India": 3183,
      "▁moment": 3184,
      "▁Sept": 3185,
      "▁London": 3186,
      "a.\n": 3187,
      "yp": 3188,
      "▁sport": 3189,
      "▁cow": 3190,
      "▁came": 3191,
      "oub": 3192,
      "omes": 3193,
      "laid": 3194,
      "▁Teslas": 3195,
      "▁Fair": 3196,
      "▁rating": 3197,
      "▁button": 3198,
      "▁By": 3199,
      "▁Mode": 3200,
      "▁output": 3201,
      "ies.": 3202,
      "▁plant": 3203,
      "▁advert": 3204,
      "able,": 3205,
      "▁quarter": 3206,
      "▁Check": 3207,
      "▁\"S": 3208,
      "▁flights": 3209,
      "▁orbit.": 3210,
      "▁internal": 3211,
      "▁true,": 3212,
      "▁wanted": 3213,
      "▁happened": 3214,
      "▁avg": 3215,
      "▁parking": 3216,
      "▁crew": 3217,
      "▁Art": 3218,
      "▁magn": 3219,
      "▁potential": 3220,
      "▁effici": 3221,
      "▁Semi": 3222,
      "-m": 3223,
      "hor": 3224,
      "ror": 3225,
      "ux": 3226,
      "▁'": 3227,
      "▁ill": 3228,
      "onic": 3229,
      "▁cash": 3230,
      "▁fight": 3231,
      "▁fore": 3232,
      "▁Sign": 3233,
      "▁South": 3234,
      "elt": 3235,
      "asing": 3236,
      "asons": 3237,
      "▁Int": 3238,
      "▁social": 3239,
      "▁running": 3240,
      "▁God": 3241,
      "▁(or": 3242,
      "▁good.\n": 3243,
      "▁comment": 3244,
      "ividual": 3245,
      "▁saw": 3246,
      "▁cars.\n": 3247,
      "▁way.\n": 3248,
      "ording": 3249,
      "▁powered": 3250,
      "▁interior": 3251,
      "▁expla": 3252,
      "▁seeing": 3253,
      "▁Canada": 3254,
      "▁scal": 3255,
      "▁scale": 3256,
      "▁retro": 3257,
      "▁object": 3258,
      "▁change\n": 3259,
      "▁setting": 3260,
      "▁vision": 3261,
      "▁investor": 3262,
      "▁drone": 3263,
      "▁Friday": 3264,
      "▁largest": 3265,
      "egas": 3266,
      "▁countries": 3267,
      "▁condition": 3268,
      "▁bankrupt": 3269,
      "ec": 3270,
      "h\n": 3271,
      "pir": 3272,
      "ues": 3273,
      "▁ess": 3274,
      "▁cla": 3275,
      "▁cur": 3276,
      "▁circ": 3277,
      "ishing": 3278,
      "▁pet": 3279,
      "▁push": 3280,
      "▁die": 3281,
      "▁in\n": 3282,
      "ele": 3283,
      "▁Current": 3284,
      "▁station": 3285,
      "▁that\n": 3286,
      "▁that.": 3287,
      "opter": 3288,
      "usion": 3289,
      "▁House": 3290,
      "▁rare": 3291,
      "▁rail": 3292,
      "▁Got": 3293,
      "▁Le": 3294,
      "anden": 3295,
      "▁jack": 3296,
      "▁(b": 3297,
      "▁array": 3298,
      "▁heating": 3299,
      "▁nose": 3300,
      "ives": 3301,
      "▁buying": 3302,
      "▁apply": 3303,
      "▁deser": 3304,
      "▁despite": 3305,
      "▁Exce": 3306,
      "▁days\n": 3307,
      "▁harder": 3308,
      "▁Mars.\n": 3309,
      "▁Haw": 3310,
      "▁lots": 3311,
      "▁secur": 3312,
      "▁moder": 3313,
      "▁said,": 3314,
      "▁key": 3315,
      "▁idea\n": 3316,
      "▁Meant": 3317,
      "▁handle": 3318,
      "▁directly": 3319,
      "▁Isp": 3320,
      "▁larger": 3321,
      "▁precision": 3322,
      "▁argu": 3323,
      "volution": 3324,
      "▁including": 3325,
      "▁throttle": 3326,
      "▁government": 3327,
      "iet": 3328,
      "night": 3329,
      "off": 3330,
      "ze": 3331,
      "▁ir": 3332,
      "▁wom": 3333,
      "ators": 3334,
      "▁fit": 3335,
      "▁nice": 3336,
      "▁Summon": 3337,
      "▁Awesome": 3338,
      "ample": 3339,
      "▁Thurs": 3340,
      "▁Cent": 3341,
      "▁step": 3342,
      "iment": 3343,
      "▁weap": 3344,
      "▁Fe": 3345,
      "▁His": 3346,
      "▁rout": 3347,
      "▁Bit": 3348,
      "▁Bro": 3349,
      "rian": 3350,
      "\"\",": 3351,
      "▁car,": 3352,
      "▁Vegas": 3353,
      "ies,": 3354,
      "▁myself": 3355,
      "▁impress": 3356,
      "▁Ins": 3357,
      "▁cars\n": 3358,
      "▁accident": 3359,
      "▁misle": 3360,
      "▁expend": 3361,
      "▁Auto": 3362,
      "▁far.": 3363,
      "▁smaller": 3364,
      "▁approach": 3365,
      "▁True,": 3366,
      "▁Highly": 3367,
      "▁appreciated.\n": 3368,
      "▁Canaveral\n": 3369,
      "▁deaths": 3370,
      "▁infl": 3371,
      "▁ultra": 3372,
      "▁incredible": 3373,
      "▁affordable": 3374,
      "▁hypersonic": 3375,
      "▁Like": 3376,
      "▁webcast": 3377,
      "LA": 3378,
      "i\n": 3379,
      "yr": 3380,
      "▁tit": 3381,
      "▁ahead": 3382,
      "▁wal": 3383,
      "itor": 3384,
      "▁path": 3385,
      "acter": 3386,
      "▁reb": 3387,
      "▁reli": 3388,
      "▁Mart": 3389,
      "▁ep": 3390,
      "▁Wish": 3391,
      "▁sold": 3392,
      "▁Testing": 3393,
      "ithium": 3394,
      "▁Del": 3395,
      "▁section": 3396,
      "▁wasn't": 3397,
      "▁outcome": 3398,
      "▁impossible": 3399,
      "▁highway": 3400,
      "▁Google": 3401,
      "▁work.": 3402,
      "▁known": 3403,
      "▁Thanks,": 3404,
      "▁Thanks!\n": 3405,
      "▁landings": 3406,
      "▁extra": 3407,
      "▁offic": 3408,
      "▁I'd": 3409,
      "▁transfer": 3410,
      "elling": 3411,
      "▁written": 3412,
      "▁surv": 3413,
      "▁upgraded": 3414,
      "▁planet": 3415,
      "▁simulation": 3416,
      "▁letter": 3417,
      "▁features": 3418,
      "▁position": 3419,
      "▁Beta": 3420,
      "▁supply": 3421,
      "▁Austin": 3422,
      "▁Turns": 3423,
      "▁Extrem": 3424,
      "▁prototype": 3425,
      "▁Boca": 3426,
      ".1": 3427,
      "BC": 3428,
      "FR": 3429,
      "ek": 3430,
      "egr": 3431,
      "ging": 3432,
      "rid": 3433,
      "ugg": 3434,
      "▁sil": 3435,
      "▁baby": 3436,
      "▁page": 3437,
      "▁hur": 3438,
      "▁Trend": 3439,
      "▁S.": 3440,
      "▁Sy": 3441,
      "▁Iron": 3442,
      "aching": 3443,
      "idth": 3444,
      "▁star": 3445,
      "opump": 3446,
      "▁Yes": 3447,
      "▁you're": 3448,
      "▁Dam": 3449,
      "iff": 3450,
      "▁Live": 3451,
      "▁enab": 3452,
      "andom": 3453,
      "ument": 3454,
      "▁Stop": 3455,
      "istics": 3456,
      "▁out.\n": 3457,
      "▁~4": 3458,
      "▁\"\"\"": 3459,
      "▁integr": 3460,
      "▁Amazing": 3461,
      "▁minim": 3462,
      "▁resour": 3463,
      "▁years.\n": 3464,
      "▁real\n": 3465,
      "▁expon": 3466,
      "▁them\n": 3467,
      "▁themsel": 3468,
      "▁Neural": 3469,
      "▁Earth.": 3470,
      "▁vector": 3471,
      "remont": 3472,
      "▁supporting": 3473,
      "▁strange": 3474,
      "vidence": 3475,
      "▁Mostly": 3476,
      "▁welcome.": 3477,
      "▁issues": 3478,
      "▁(sigh": 3479,
      "▁sharehold": 3480,
      "▁utility": 3481,
      "▁torque": 3482,
      "▁received": 3483,
      "▁anti-": 3484,
      "hibit": 3485,
      "stronauts": 3486,
      "▁response": 3487,
      "▁etc": 3488,
      "▁Excellent": 3489,
      "UV": 3490,
      "akes": 3491,
      "augh": 3492,
      "ball": 3493,
      "ford": 3494,
      "gth": 3495,
      "set": 3496,
      "▁tun": 3497,
      "▁corn": 3498,
      "itud": 3499,
      "arks": 3500,
      "▁danger": 3501,
      "▁Tri": 3502,
      "▁Sc": 3503,
      "▁is\n": 3504,
      "▁IM": 3505,
      "▁Mom": 3506,
      "▁Aug": 3507,
      "▁Cont": 3508,
      "▁so.\n": 3509,
      "key": 3510,
      "ures": 3511,
      "▁sequ": 3512,
      "▁(~": 3513,
      "▁child": 3514,
      "▁Str": 3515,
      "▁V1": 3516,
      "▁fake": 3517,
      "▁spl": 3518,
      "▁perm": 3519,
      "▁Review": 3520,
      "▁them.\n": 3521,
      "▁disag": 3522,
      "▁Team": 3523,
      "ivers": 3524,
      "▁insane": 3525,
      "▁missions": 3526,
      "▁generator": 3527,
      "▁And,": 3528,
      "▁valid": 3529,
      "▁foot": 3530,
      "▁approx": 3531,
      "▁democ": 3532,
      "▁holding": 3533,
      "ney": 3534,
      "▁stopp": 3535,
      "▁similar": 3536,
      "rength": 3537,
      "▁Cool,": 3538,
      "▁investigate": 3539,
      "▁development": 3540,
      "▁exactly\n": 3541,
      "raco": 3542,
      "▁particularly": 3543,
      "▁tube": 3544,
      "▁necessary": 3545,
      "▁storage": 3546,
      "▁Hawthorn": 3547,
      "/f": 3548,
      "Tesla": 3549,
      "bo": 3550,
      "pro": 3551,
      "rust": 3552,
      "tion": 3553,
      "ula": 3554,
      "▁ur": 3555,
      "▁ban": 3556,
      "▁cross": 3557,
      "▁ped": 3558,
      "al.\n": 3559,
      "▁national": 3560,
      "▁Sim": 3561,
      "▁SUV": 3562,
      "etic": 3563,
      "ased": 3564,
      "ute": 3565,
      "▁AWD": 3566,
      "omb": 3567,
      "ighter": 3568,
      "▁strength": 3569,
      "▁org": 3570,
      "▁choice": 3571,
      "▁Start": 3572,
      "▁me,": 3573,
      "▁import": 3574,
      "▁too,": 3575,
      "attery": 3576,
      "▁contrib": 3577,
      "▁better.\n": 3578,
      "▁minus": 3579,
      "▁powerful": 3580,
      "▁worldwide": 3581,
      "formation": 3582,
      "▁video\n": 3583,
      "▁escape": 3584,
      "▁Station\n": 3585,
      "▁reusability": 3586,
      "▁returned": 3587,
      "▁actions": 3588,
      "▁dram": 3589,
      "▁obviously": 3590,
      "▁Impro": 3591,
      "▁colle": 3592,
      "▁Russian": 3593,
      "▁Austral": 3594,
      "▁turbopump": 3595,
      "▁disagree": 3596,
      "'d": 3597,
      "/d": 3598,
      "bile": 3599,
      "eace": 3600,
      "gor": 3601,
      "pha": 3602,
      "▁tall": 3603,
      "▁til": 3604,
      "▁thous": 3605,
      "▁thread": 3606,
      "▁bill": 3607,
      "is.": 3608,
      "▁marg": 3609,
      "▁millions": 3610,
      "anc": 3611,
      "icense": 3612,
      "▁IP": 3613,
      "▁MT": 3614,
      "▁eff": 3615,
      "igh\n": 3616,
      "▁so.": 3617,
      "▁Fremont": 3618,
      "▁rather": 3619,
      "▁Back": 3620,
      "▁PC": 3621,
      "▁Plaid": 3622,
      "▁GM": 3623,
      "▁Elect": 3624,
      "▁this\n": 3625,
      "raul": 3626,
      "arding": 3627,
      "▁unli": 3628,
      "▁upload": 3629,
      "▁mech": 3630,
      "ainless": 3631,
      "ssil": 3632,
      "▁produced": 3633,
      "▁tests": 3634,
      "▁month.": 3635,
      "▁Reg": 3636,
      "▁serve": 3637,
      "▁Prob": 3638,
      "▁aircraft": 3639,
      "▁phot": 3640,
      "▁independ": 3641,
      "▁belie": 3642,
      "▁taxes": 3643,
      "▁upgrades": 3644,
      "▁flu": 3645,
      "▁replace": 3646,
      "▁Phys": 3647,
      "▁Monday": 3648,
      "▁finished": 3649,
      "▁fundamental": 3650,
      "▁immediately": 3651,
      "5k": 3652,
      "EO": 3653,
      "MA": 3654,
      "body": 3655,
      "to": 3656,
      "xic": 3657,
      "▁i": 3658,
      "▁tanks": 3659,
      "enge": 3660,
      "ansion": 3661,
      "arry": 3662,
      "▁pushing": 3663,
      "▁occ": 3664,
      "str": 3665,
      "icy": 3666,
      "▁gone": 3667,
      "ve.": 3668,
      "▁Mont": 3669,
      "▁beha": 3670,
      "▁evidence": 3671,
      "▁Wa": 3672,
      "▁Cr": 3673,
      "▁stay": 3674,
      "▁Hi": 3675,
      "ury": 3676,
      "urance": 3677,
      "▁Dri": 3678,
      "▁Py": 3679,
      "▁and\n": 3680,
      "ified": 3681,
      "ally,": 3682,
      "▁Let": 3683,
      "raw": 3684,
      "umin": 3685,
      "uming": 3686,
      "▁(c": 3687,
      "ains": 3688,
      "ires": 3689,
      "▁nozzle": 3690,
      "▁plans": 3691,
      "ption": 3692,
      "bert": 3693,
      "▁intelligence": 3694,
      "▁Chic": 3695,
      "▁Read": 3696,
      "▁improving": 3697,
      "▁$3": 3698,
      "▁system.": 3699,
      "▁future\n": 3700,
      "▁-60": 3701,
      "▁well,": 3702,
      "▁starts": 3703,
      "▁Makes": 3704,
      "▁servic": 3705,
      "▁remember": 3706,
      "▁annual": 3707,
      "▁feeling": 3708,
      "▁constant": 3709,
      "▁books": 3710,
      "▁existing": 3711,
      "▁Russia": 3712,
      "▁figure": 3713,
      "▁messed": 3714,
      "▁diameter": 3715,
      "▁Consumer": 3716,
      "▁numbers": 3717,
      "▁Support": 3718,
      "▁sports": 3719,
      "▁security": 3720,
      "bur": 3721,
      "ses": 3722,
      "vest": 3723,
      "inder": 3724,
      "inite": 3725,
      "itors": 3726,
      "▁port": 3727,
      "▁pitch": 3728,
      "▁dying": 3729,
      "▁S\n": 3730,
      "▁SF": 3731,
      "▁gim": 3732,
      "▁green": 3733,
      "▁Mk": 3734,
      "▁AC": 3735,
      "▁Acc": 3736,
      "▁Wed": 3737,
      "imov": 3738,
      "▁webs": 3739,
      "irt": 3740,
      "▁Hum": 3741,
      "▁BFR": 3742,
      "▁Plan": 3743,
      "▁arent": 3744,
      "▁truth": 3745,
      "▁Landing": 3746,
      "ate.": 3747,
      "abil": 3748,
      "ular": 3749,
      "▁not\n": 3750,
      "▁this,": 3751,
      "rief": 3752,
      "▁maint": 3753,
      "▁lose": 3754,
      "▁Vanden": 3755,
      "▁hex": 3756,
      "▁heart": 3757,
      "▁comments": 3758,
      "able.": 3759,
      "▁Inc": 3760,
      "▁soon,": 3761,
      "▁hardcore": 3762,
      "▁spent": 3763,
      "▁autopilot": 3764,
      "osite": 3765,
      "▁elev": 3766,
      "▁explan": 3767,
      "▁future.": 3768,
      "▁though.\n": 3769,
      "▁write": 3770,
      "▁insp": 3771,
      "▁appreciation": 3772,
      "▁meth": 3773,
      "▁Making": 3774,
      "▁completely": 3775,
      "▁allowing": 3776,
      "▁rollout": 3777,
      "▁capability": 3778,
      "▁Asimov": 3779,
      "▁direction": 3780,
      "▁pods": 3781,
      "▁laws": 3782,
      "▁magic": 3783,
      "▁rapidly": 3784,
      "▁confirmed": 3785,
      "▁incredibly": 3786,
      "▁smooth": 3787,
      "▁Absolutely\n": 3788,
      "▁rules": 3789,
      "▁assembly": 3790,
      "▁ratio": 3791,
      "▁efficiency": 3792,
      "▁misleading": 3793,
      "▁Vandenberg": 3794,
      "AA": 3795,
      "UD": 3796,
      "aking": 3797,
      "dit": 3798,
      "iod": 3799,
      "lantic": 3800,
      "oly": 3801,
      "s!": 3802,
      "year": 3803,
      "▁est": 3804,
      "▁tb": 3805,
      "▁tip": 3806,
      "▁sometimes": 3807,
      "▁cast": 3808,
      "▁fict": 3809,
      "it.": 3810,
      "▁gave": 3811,
      "▁After": 3812,
      "▁Watch": 3813,
      "▁Three": 3814,
      "▁so,": 3815,
      "ussion": 3816,
      "▁Her": 3817,
      "▁coating": 3818,
      "atever": 3819,
      "▁Right": 3820,
      "▁dev": 3821,
      "▁me.\n": 3822,
      "▁Vi": 3823,
      "▁Vall": 3824,
      "▁great\n": 3825,
      "▁people.": 3826,
      "▁day\n": 3827,
      "▁period": 3828,
      "▁production.\n": 3829,
      "▁sure.": 3830,
      "▁future,": 3831,
      "▁today,": 3832,
      "▁confident": 3833,
      "▁guarant": 3834,
      "▁individual": 3835,
      "▁problem,": 3836,
      "comp": 3837,
      "▁metric": 3838,
      "▁Dec": 3839,
      "▁allows": 3840,
      "▁weeks\n": 3841,
      "▁refund": 3842,
      "▁Atlantic": 3843,
      "▁questions": 3844,
      "▁brain": 3845,
      "▁closed": 3846,
      "▁gives": 3847,
      "▁accelerate": 3848,
      "▁discussion": 3849,
      "▁optimistic": 3850,
      "ength": 3851,
      "▁prices": 3852,
      "▁render": 3853,
      "▁manufacturing": 3854,
      "▁Christ": 3855,
      "▁Parad": 3856,
      "▁earlier": 3857,
      "▁Given": 3858,
      "▁S/X": 3859,
      "▁hundreds": 3860,
      "▁Extremely": 3861,
      "▁college": 3862,
      "▁margin": 3863,
      "▁Pyth": 3864,
      "-se": 3865,
      ".com": 3866,
      "20": 3867,
      "85": 3868,
      "app": 3869,
      "bor": 3870,
      "cop": 3871,
      "ies\n": 3872,
      "ye": 3873,
      "▁age": 3874,
      "▁aiming": 3875,
      "▁sat": 3876,
      "▁ben": 3877,
      "▁camp": 3878,
      "▁fi": 3879,
      "▁dry": 3880,
      "▁dumb": 3881,
      "▁reasons": 3882,
      "igation": 3883,
      "▁March": 3884,
      "▁it!\n": 3885,
      "▁Feel": 3886,
      "▁Flor": 3887,
      "▁Here": 3888,
      "▁Yor": 3889,
      "▁Depend": 3890,
      "▁Pac": 3891,
      "▁Pay": 3892,
      "▁voice": 3893,
      "ations.": 3894,
      "▁truly": 3895,
      "▁enc": 3896,
      "uled": 3897,
      "▁deg": 3898,
      "▁ability": 3899,
      "▁all-": 3900,
      "▁alumin": 3901,
      "▁Um": 3902,
      "▁arm": 3903,
      "▁comfort": 3904,
      "▁plane": 3905,
      "▁Inde": 3906,
      "▁faith": 3907,
      "▁day.": 3908,
      "▁intense": 3909,
      "▁You're": 3910,
      "▁back\n": 3911,
      "▁points": 3912,
      "▁expensive": 3913,
      "▁helium": 3914,
      "▁thruster": 3915,
      "▁helpful": 3916,
      "aged": 3917,
      "▁*not": 3918,
      "▁advent": 3919,
      "▁End": 3920,
      "▁posted": 3921,
      "lamethrow": 3922,
      "▁maxim": 3923,
      "▁operational": 3924,
      "▁careful": 3925,
      "▁playing": 3926,
      "▁developing": 3927,
      "▁construction": 3928,
      "▁drops": 3929,
      "▁aliens": 3930,
      "▁Reports": 3931,
      "▁cyc": 3932,
      "▁exceeds": 3933,
      "▁hydro": 3934,
      "▁character": 3935,
      "▁structure": 3936,
      "▁reduce": 3937,
      "▁communic": 3938,
      "▁ideas": 3939,
      "▁measure": 3940,
      "▁arguably": 3941,
      "▁Neuralink": 3942,
      "▁Florid": 3943,
      "▁*not*": 3944,
      "/m": 3945,
      "TA": 3946,
      "den": 3947,
      "for": 3948,
      "km": 3949,
      "mak": 3950,
      "rous": 3951,
      "ser": 3952,
      "son": 3953,
      "▁tour": 3954,
      "▁wall": 3955,
      "ous.": 3956,
      "an.": 3957,
      "anium": 3958,
      "ar,": 3959,
      "▁to\n": 3960,
      "▁div": 3961,
      "▁hea": 3962,
      "▁hous": 3963,
      "▁hang": 3964,
      "▁Tues": 3965,
      "stop": 3966,
      "▁Ship": 3967,
      "icro": 3968,
      "▁gig": 3969,
      "▁weve": 3970,
      "▁whether": 3971,
      "▁Fate": 3972,
      "▁but,": 3973,
      "▁project": 3974,
      "▁DM": 3975,
      "▁Lat": 3976,
      "▁dog": 3977,
      "▁rot": 3978,
      "▁exec": 3979,
      "▁this.\n": 3980,
      "peed": 3981,
      "▁Us": 3982,
      "▁V2": 3983,
      "▁V9": 3984,
      "▁rocket\n": 3985,
      "age.": 3986,
      "▁incorrect": 3987,
      "▁whats": 3988,
      "▁engine.": 3989,
      "▁%,": 3990,
      "▁teams": 3991,
      "▁quiet": 3992,
      "▁recall": 3993,
      "▁Coast": 3994,
      "▁resol": 3995,
      "▁resale": 3996,
      "▁flight.": 3997,
      "▁boat": 3998,
      "▁print": 3999,
      "icken": 4000,
      "▁Hell": 4001,
      "▁starting": 4002,
      "▁again.\n": 4003,
      "▁consum": 4004,
      "▁fired": 4005,
      "▁guy": 4006,
      "▁problems": 4007,
      "▁World": 4008,
      "▁happening": 4009,
      "▁capital": 4010,
      "▁tomorrow\n": 4011,
      "▁Cool\n": 4012,
      "▁credibility": 4013,
      "▁terminal": 4014,
      "▁false.": 4015,
      "▁complexity": 4016,
      "▁imo.": 4017,
      "▁functionality": 4018,
      "▁achieved": 4019,
      "▁Moon": 4020,
      "▁perfect,": 4021,
      "▁hydraul": 4022,
      "▁honor": 4023,
      "▁autonomous": 4024,
      "▁provided": 4025,
      "▁angle": 4026,
      "▁holiday": 4027,
      "▁Black": 4028,
      "▁descri": 4029,
      "▁mounted": 4030,
      "▁claim": 4031,
      "▁weapons": 4032,
      "▁surviv": 4033,
      "▁Electric": 4034,
      "▁website": 4035,
      "▁Depends": 4036,
      "▁hydraulic": 4037,
      "IP": 4038,
      "father": 4039,
      "rough": 4040,
      "vill": 4041,
      "eros": 4042,
      "onna": 4043,
      "▁sad": 4044,
      "▁fac": 4045,
      "ous,": 4046,
      "ous.\n": 4047,
      "enn": 4048,
      "an,": 4049,
      "▁hos": 4050,
      "etch": 4051,
      "otive": 4052,
      "▁Mar": 4053,
      "▁AP": 4054,
      "oms": 4055,
      "▁earn": 4056,
      "▁Thought": 4057,
      "▁Col": 4058,
      "▁sty": 4059,
      "▁stre": 4060,
      "▁stack": 4061,
      "▁stuff": 4062,
      "through": 4063,
      "▁FAA": 4064,
      "▁Had": 4065,
      "▁round": 4066,
      "▁random": 4067,
      "▁prof": 4068,
      "▁Day": 4069,
      "▁P100": 4070,
      "▁Eas": 4071,
      "▁mobile": 4072,
      "rav": 4073,
      "umul": 4074,
      "▁convin": 4075,
      "riane": 4076,
      "▁worse": 4077,
      "▁worry": 4078,
      "▁map": 4079,
      "▁along": 4080,
      "pper": 4081,
      "reating": 4082,
      "▁Ste": 4083,
      "▁Jup": 4084,
      "▁highly": 4085,
      "▁overr": 4086,
      "venue": 4087,
      "▁Where": 4088,
      "▁test\n": 4089,
      "▁soon!\n": 4090,
      "▁right,": 4091,
      "▁Yeah.": 4092,
      "▁driven": 4093,
      "▁month\n": 4094,
      "▁recent": 4095,
      "▁\"A": 4096,
      "▁improves": 4097,
      "▁supersonic": 4098,
      "▁knows": 4099,
      "▁shorts": 4100,
      "▁twice": 4101,
      "▁class": 4102,
      "▁controll": 4103,
      "▁secret": 4104,
      "▁allowed": 4105,
      "▁model": 4106,
      "▁Unfortunately": 4107,
      "▁priv": 4108,
      "ences": 4109,
      "▁automotive": 4110,
      "▁Needs": 4111,
      "▁probable": 4112,
      "racy": 4113,
      "▁meeting": 4114,
      "▁Nice\n": 4115,
      "▁injury": 4116,
      "planetary": 4117,
      "▁behind": 4118,
      "▁behalf": 4119,
      "▁wonder": 4120,
      "▁birthday": 4121,
      "▁possibly": 4122,
      "piration": 4123,
      "▁resources": 4124,
      "▁Australia": 4125,
      "▁Python": 4126,
      "▁P100D": 4127,
      "▁Unfortunately,": 4128,
      "-b": 4129,
      "PU": 4130,
      "TO": 4131,
      "fr": 4132,
      "fully": 4133,
      "iot": 4134,
      "mk": 4135,
      "r.": 4136,
      "inks": 4137,
      "inging": 4138,
      "▁fur": 4139,
      "▁mas": 4140,
      "▁peak": 4141,
      "▁lbs": 4142,
      "▁Sw": 4143,
      "etry": 4144,
      "level": 4145,
      "▁rese": 4146,
      "▁Mot": 4147,
      "▁eat": 4148,
      "imately": 4149,
      "▁Flamethrow": 4150,
      "▁Huge": 4151,
      "▁cook": 4152,
      "▁shut": 4153,
      "▁trad": 4154,
      "▁exact": 4155,
      "▁conven": 4156,
      "▁(y": 4157,
      "eway": 4158,
      "▁me\n": 4159,
      "▁compelling": 4160,
      "▁wouldn't": 4161,
      "▁Inf": 4162,
      "▁great.": 4163,
      "▁great.\n": 4164,
      "▁now.\n": 4165,
      "ated.": 4166,
      "▁way,": 4167,
      "▁day.\n": 4168,
      "▁days.\n": 4169,
      "▁monop": 4170,
      "▁Already": 4171,
      "▁solid": 4172,
      "▁quick": 4173,
      "▁Mars.": 4174,
      "▁Thanks\n": 4175,
      "▁\"R": 4176,
      "ference": 4177,
      "▁board": 4178,
      "▁syn": 4179,
      "▁finan": 4180,
      "▁added": 4181,
      "▁discover": 4182,
      "▁score": 4183,
      "itional": 4184,
      "▁News": 4185,
      "▁legal": 4186,
      "▁/4": 4187,
      "▁release\n": 4188,
      "▁turns": 4189,
      "▁switch": 4190,
      "▁ago.\n": 4191,
      "inner": 4192,
      "inning": 4193,
      "▁drop": 4194,
      "▁study": 4195,
      "▁considered": 4196,
      "▁purch": 4197,
      "▁suggestions": 4198,
      "arrant": 4199,
      "▁charging": 4200,
      "▁population": 4201,
      "▁Getting": 4202,
      "▁Reddit": 4203,
      "▁President": 4204,
      "oubt": 4205,
      "▁Thursday": 4206,
      "▁hurt": 4207,
      "▁Damn": 4208,
      "▁heavi": 4209,
      "▁research": 4210,
      "++": 4211,
      "-the": 4212,
      "/W": 4213,
      "/we": 4214,
      "PA": 4215,
      "by": 4216,
      "gn": 4217,
      "por": 4218,
      "rs": 4219,
      "▁sweet": 4220,
      "▁tho": 4221,
      "itect": 4222,
      "ension": 4223,
      "an\n": 4224,
      "rop": 4225,
      "▁Sil": 4226,
      "icrous": 4227,
      "▁react": 4228,
      "▁reaching": 4229,
      "utes": 4230,
      "vey": 4231,
      "▁beat": 4232,
      "▁AMA": 4233,
      "chitect": 4234,
      "▁storm": 4235,
      "▁NN": 4236,
      "▁Flight": 4237,
      "▁race": 4238,
      "ceed": 4239,
      "▁Bas": 4240,
      "▁Det": 4241,
      "▁Pan": 4242,
      "▁doors": 4243,
      "▁Rad": 4244,
      "▁Rem": 4245,
      "oster": 4246,
      "▁out\n": 4247,
      "▁architect": 4248,
      "ends": 4249,
      "▁poll": 4250,
      "▁Goal": 4251,
      "udicrous": 4252,
      "▁one.": 4253,
      "▁tested": 4254,
      "ated,": 4255,
      "▁way\n": 4256,
      "▁ways": 4257,
      "▁engineers": 4258,
      "▁\"\"T": 4259,
      "▁recover": 4260,
      "▁Ann": 4261,
      "ocal": 4262,
      "▁\"I": 4263,
      "▁mins\n": 4264,
      "▁Requ": 4265,
      "▁Superd": 4266,
      "▁expansion": 4267,
      "▁download": 4268,
      "▁Earth\n": 4269,
      "▁Kind": 4270,
      "▁shortly": 4271,
      "▁Theyre": 4272,
      "▁image": 4273,
      "▁central": 4274,
      "▁products": 4275,
      "ashdown": 4276,
      "▁control\n": 4277,
      "▁idea!\n": 4278,
      "▁winds": 4279,
      "▁locations": 4280,
      "▁Order": 4281,
      "▁changing": 4282,
      "▁meaning": 4283,
      "▁propag": 4284,
      "▁km/h": 4285,
      "▁acceleration": 4286,
      "▁accelerating": 4287,
      "▁student": 4288,
      "▁eventually": 4289,
      "▁summary": 4290,
      "▁International": 4291,
      "▁horiz": 4292,
      "▁affects": 4293,
      "▁crypt": 4294,
      "▁injuries": 4295,
      "▁\"Th": 4296,
      "▁yeah,": 4297,
      "▁ventil": 4298,
      "▁clarify": 4299,
      "▁family": 4300,
      "▁expendable": 4301,
      "▁official": 4302,
      "▁aluminum": 4303,
      "frame": 4304,
      "OP": 4305,
      "ien": 4306,
      "ners": 4307,
      "oon": 4308,
      "pital": 4309,
      "real": 4310,
      "angh": 4311,
      "▁drag": 4312,
      "edic": 4313,
      "▁lithium": 4314,
      "ster": 4315,
      "▁none": 4316,
      "▁is,": 4317,
      "icon": 4318,
      "aced": 4319,
      "acopter": 4320,
      "▁WW": 4321,
      "▁West": 4322,
      "▁CA": 4323,
      "▁Corre": 4324,
      "▁Crew": 4325,
      "ternal": 4326,
      "ithm": 4327,
      "▁will\n": 4328,
      "▁From": 4329,
      "▁racing": 4330,
      "▁Yay": 4331,
      "▁youd": 4332,
      "▁Germ": 4333,
      "▁LZ": 4334,
      "▁Larry": 4335,
      "▁Rest": 4336,
      "▁convers": 4337,
      "▁Offic": 4338,
      "▁alloc": 4339,
      "▁lock": 4340,
      "acked": 4341,
      "▁union": 4342,
      "▁universe": 4343,
      "▁kWh": 4344,
      "▁UI": 4345,
      "▁Upper": 4346,
      "▁out,": 4347,
      "▁adult": 4348,
      "eff": 4349,
      "▁activ": 4350,
      "▁save": 4351,
      "▁there\n": 4352,
      "▁there.\n": 4353,
      "▁SpaceX,": 4354,
      "▁work\n": 4355,
      "ultane": 4356,
      "▁right.\n": 4357,
      "▁hardest": 4358,
      "▁drives": 4359,
      "▁\"\"b": 4360,
      "▁months,": 4361,
      "▁recirc": 4362,
      "▁week,": 4363,
      "▁fun\n": 4364,
      "▁\"G": 4365,
      "▁\"W": 4366,
      "▁Rec": 4367,
      "▁flight\n": 4368,
      "▁Shangh": 4369,
      "▁Never": 4370,
      "▁extending": 4371,
      "▁grad": 4372,
      "▁grand": 4373,
      "▁-R": 4374,
      "▁transition": 4375,
      "▁showing": 4376,
      "▁problem.": 4377,
      "▁common": 4378,
      "▁Interest": 4379,
      "▁talking": 4380,
      "▁capable": 4381,
      "▁Mexic": 4382,
      "▁simultane": 4383,
      "▁easily": 4384,
      "▁America": 4385,
      "▁ago,": 4386,
      "▁$10": 4387,
      "world": 4388,
      "▁graph": 4389,
      "▁equal": 4390,
      "▁discount": 4391,
      "▁fair,": 4392,
      "▁increases": 4393,
      "ledge": 4394,
      "▁thinks": 4395,
      "▁debate": 4396,
      "▁logistics": 4397,
      "▁tonight.": 4398,
      "▁cryo": 4399,
      "▁floor": 4400,
      "▁Agreed,": 4401,
      "ucle": 4402,
      "▁propuls": 4403,
      "▁propulsion": 4404,
      "▁mistake": 4405,
      "▁:30pm": 4406,
      "▁Totally": 4407,
      "▁Bitcoin": 4408,
      "▁Physics": 4409,
      "▁Drive": 4410,
      "▁gimbal": 4411,
      "▁View": 4412,
      "▁Pacific": 4413,
      "▁Latest": 4414,
      "▁propagand": 4415,
      "▁Shanghai": 4416,
      "-w": 4417,
      "Ph": 4418,
      "ios": 4419,
      "oj": 4420,
      "power": 4421,
      "round": 4422,
      "word": 4423,
      "▁astronauts": 4424,
      "onstr": 4425,
      "▁slam": 4426,
      "▁bod": 4427,
      "▁cop": 4428,
      "▁cave": 4429,
      "▁fusion": 4430,
      "oug": 4431,
      "it,": 4432,
      "ene": 4433,
      "▁m,": 4434,
      "▁pull": 4435,
      "▁dedic": 4436,
      "▁input": 4437,
      "▁inhibit": 4438,
      "▁Sam": 4439,
      "▁Since": 4440,
      "▁gam": 4441,
      "▁rev": 4442,
      "▁stat": 4443,
      "▁with\n": 4444,
      "▁Battery": 4445,
      "▁you,": 4446,
      "▁Doug": 4447,
      "▁trust": 4448,
      "▁Life": 4449,
      "▁enem": 4450,
      "▁RUD": 4451,
      "▁RIP": 4452,
      "▁example": 4453,
      "▁sem": 4454,
      "▁sever": 4455,
      "▁che": 4456,
      "ement": 4457,
      "▁UN": 4458,
      "▁Using": 4459,
      "ended": 4460,
      "▁high.": 4461,
      "▁adm": 4462,
      "▁great,": 4463,
      "▁launching": 4464,
      "▁contact": 4465,
      "▁backup": 4466,
      "▁real-": 4467,
      "▁She": 4468,
      "▁USA": 4469,
      "▁future.\n": 4470,
      "▁helping": 4471,
      "▁well.": 4472,
      "▁started": 4473,
      "▁cloud": 4474,
      "▁writing": 4475,
      "▁depart": 4476,
      "▁join": 4477,
      "▁technical": 4478,
      "▁Under": 4479,
      "▁possible,": 4480,
      "▁limits": 4481,
      "▁computing": 4482,
      "▁apart": 4483,
      "cling": 4484,
      "▁email": 4485,
      "▁Merry": 4486,
      "▁accept": 4487,
      "▁wrong\n": 4488,
      "▁Boeing": 4489,
      "▁Engines": 4490,
      "▁irony": 4491,
      "▁policy": 4492,
      "▁failure": 4493,
      "ynam": 4494,
      "▁school": 4495,
      "▁docking": 4496,
      "▁Adding": 4497,
      "▁scientists": 4498,
      "▁pedest": 4499,
      "▁mechan": 4500,
      "▁maintain": 4501,
      "▁explanation": 4502,
      "▁Jupiter": 4503,
      "▁Interesting\n": 4504,
      "&amp;": 4505,
      "eor": 4506,
      "i-s": 4507,
      "land": 4508,
      "uz": 4509,
      "▁type": 4510,
      "erature": 4511,
      "▁wild": 4512,
      "▁dynam": 4513,
      "▁Tal": 4514,
      "el.": 4515,
      "▁gear": 4516,
      "▁Min": 4517,
      "▁Want": 4518,
      "▁Thrust": 4519,
      "▁stra": 4520,
      "▁weigh": 4521,
      "irus": 4522,
      "irrel": 4523,
      "▁Ford": 4524,
      "▁Dis": 4525,
      "▁Pic": 4526,
      "▁P85": 4527,
      "▁tri": 4528,
      "▁Last": 4529,
      "▁doll": 4530,
      "▁lives": 4531,
      "▁worst": 4532,
      "▁(w": 4533,
      "▁(ak": 4534,
      "▁OTA": 4535,
      "▁loss": 4536,
      "▁units": 4537,
      "▁carri": 4538,
      "▁Jon": 4539,
      "cons": 4540,
      "▁needed.": 4541,
      "▁Vers": 4542,
      "▁hearing": 4543,
      "▁rocket.": 4544,
      "▁produce": 4545,
      "ated\n": 4546,
      "▁yourself": 4547,
      "▁quot": 4548,
      "▁production.": 4549,
      "▁author": 4550,
      "▁Mars,": 4551,
      "▁funny": 4552,
      "▁fewer": 4553,
      "▁world.\n": 4554,
      "▁Hearing": 4555,
      "▁airframe": 4556,
      "▁though.": 4557,
      "▁delta": 4558,
      "▁Soft": 4559,
      "ages": 4560,
      "▁fast.": 4561,
      "▁transm": 4562,
      "▁confus": 4563,
      "▁consump": 4564,
      "▁becoming": 4565,
      "▁problem.\n": 4566,
      "like": 4567,
      "▁surround": 4568,
      "▁fossil": 4569,
      "▁planning": 4570,
      "▁lateral": 4571,
      "▁frame": 4572,
      "▁money.": 4573,
      "ockhe": 4574,
      "▁possible.": 4575,
      "▁yet.": 4576,
      "▁experiment": 4577,
      "▁brake": 4578,
      "▁emb": 4579,
      "▁appreciated\n": 4580,
      "▁Yup,": 4581,
      "▁collect": 4582,
      "▁continue": 4583,
      "▁causing": 4584,
      "▁precise": 4585,
      "▁achieving": 4586,
      "▁smoking": 4587,
      "▁morning": 4588,
      "▁destro": 4589,
      "▁Doesnt": 4590,
      "▁Brit": 4591,
      "▁judge": 4592,
      "▁panels": 4593,
      "▁schedule": 4594,
      "▁surprising": 4595,
      "▁forever": 4596,
      "▁Feb": 4597,
      "▁tiles": 4598,
      "▁effort": 4599,
      "▁unlikely": 4600,
      "▁fluid": 4601,
      "▁Feels": 4602,
      "▁Florida": 4603,
      "▁\"Thanks": 4604,
      "▁(aka": 4605,
      "-h": 4606,
      "-level": 4607,
      "HT": 4608,
      "bust": 4609,
      "base": 4610,
      "cel": 4611,
      "dle": 4612,
      "rors": 4613,
      "▁[": 4614,
      "▁troll": 4615,
      "ones": 4616,
      "▁w/": 4617,
      "▁warrant": 4618,
      "▁bor": 4619,
      "▁band": 4620,
      "▁capt": 4621,
      "▁fill": 4622,
      "isl": 4623,
      "edom": 4624,
      "▁hole": 4625,
      "▁Tom": 4626,
      "al,": 4627,
      "▁nat": 4628,
      "▁Sch": 4629,
      "▁Single": 4630,
      "▁revolution": 4631,
      "▁Man": 4632,
      "▁Apo": 4633,
      "ids": 4634,
      "▁Com": 4635,
      "▁stations": 4636,
      "▁weird": 4637,
      "▁whatever": 4638,
      "▁NHT": 4639,
      "▁Fa": 4640,
      "▁Form": 4641,
      "▁Final": 4642,
      "urd": 4643,
      "▁you\n": 4644,
      "▁DC": 4645,
      "▁areas": 4646,
      "▁row": 4647,
      "ol\n": 4648,
      "raint": 4649,
      "▁(ne": 4650,
      "▁Open": 4651,
      "▁alert": 4652,
      "▁loan": 4653,
      "▁Stay": 4654,
      "▁needed\n": 4655,
      "cious": 4656,
      "ief": 4657,
      "▁launch\n": 4658,
      "▁Which": 4659,
      "▁While": 4660,
      "▁much.\n": 4661,
      "▁people.\n": 4662,
      "▁day,": 4663,
      "▁hard.": 4664,
      "▁spir": 4665,
      "▁\"\"\"\n": 4666,
      "▁speak": 4667,
      "▁team\n": 4668,
      "▁background": 4669,
      "▁Note,": 4670,
      "▁years\n": 4671,
      "▁then.\n": 4672,
      "▁explo": 4673,
      "▁region": 4674,
      "▁Whats": 4675,
      "▁problem\n": 4676,
      "ificial": 4677,
      "▁needed.\n": 4678,
      "▁cooling": 4679,
      "▁joke": 4680,
      "▁legisl": 4681,
      "▁command": 4682,
      "▁fool": 4683,
      "▁approved": 4684,
      "▁bright": 4685,
      "▁Asia": 4686,
      "▁skill": 4687,
      "▁sketch": 4688,
      "▁Raptors": 4689,
      "▁idea.": 4690,
      "over,": 4691,
      "▁Sure,": 4692,
      "▁Two": 4693,
      "▁Orbital": 4694,
      "▁delivering": 4695,
      "▁Moreover,": 4696,
      "clus": 4697,
      "▁Definitely.": 4698,
      "▁tweets": 4699,
      "▁fine.": 4700,
      "▁Perhaps": 4701,
      "▁caused": 4702,
      "▁merch": 4703,
      "▁pickup": 4704,
      "▁manufactur": 4705,
      "point": 4706,
      "▁opin": 4707,
      "▁minutes": 4708,
      "▁civilization": 4709,
      "▁appears": 4710,
      "▁magnitude": 4711,
      "▁themselves": 4712,
      "▁corner": 4713,
      "▁August": 4714,
      "▁dramatically": 4715,
      "▁hospital": 4716,
      "▁private": 4717,
      "▁Detail": 4718,
      "▁architecture": 4719,
      "uclear": 4720,
      "▁Apoll": 4721,
      "▁NHTSA": 4722,
      "AI": 4723,
      "gin": 4724,
      "h.": 4725,
      "hanced": 4726,
      "ipping": 4727,
      "ner": 4728,
      "ola": 4729,
      "sy": 4730,
      "ted": 4731,
      "inter": 4732,
      "▁ball": 4733,
      "▁corre": 4734,
      "outer": 4735,
      "itting": 4736,
      "▁draw": 4737,
      "▁lb": 4738,
      "▁lane": 4739,
      "aler": 4740,
      "▁Self-": 4741,
      "▁Sigh\n": 4742,
      "acy": 4743,
      "igating": 4744,
      "▁Mc": 4745,
      "▁on\n": 4746,
      "▁evol": 4747,
      "▁Fl": 4748,
      "▁Bea": 4749,
      "▁Baby": 4750,
      "uration": 4751,
      "▁youll": 4752,
      "▁Gary": 4753,
      "▁vot": 4754,
      "▁external": 4755,
      "antage": 4756,
      "▁absolutely": 4757,
      "▁chicken": 4758,
      "ip2": 4759,
      "iple": 4760,
      "▁compared": 4761,
      "ive\n": 4762,
      "▁uses": 4763,
      "▁V8": 4764,
      "▁Vac": 4765,
      "duct": 4766,
      "izes": 4767,
      "▁actu": 4768,
      "▁saving": 4769,
      "▁there,": 4770,
      "▁~5": 4771,
      "▁amaz": 4772,
      "▁\"\"s": 4773,
      "▁recently": 4774,
      "▁suppl": 4775,
      "ickel": 4776,
      "▁them.": 4777,
      "▁wants": 4778,
      "▁down.": 4779,
      "▁today.\n": 4780,
      "▁indeed": 4781,
      "▁miles,": 4782,
      "▁weeks.\n": 4783,
      "olarCity": 4784,
      "▁operation": 4785,
      "▁repres": 4786,
      "neum": 4787,
      "▁yet\n": 4788,
      "▁expert": 4789,
      "▁letting": 4790,
      "▁simpl": 4791,
      "▁changed": 4792,
      "▁emoj": 4793,
      "▁ago.": 4794,
      "▁keeps": 4795,
      "▁broad": 4796,
      "▁Apple": 4797,
      "▁primarily": 4798,
      "▁protect": 4799,
      "▁sensible": 4800,
      "▁ok.\n": 4801,
      "▁digging": 4802,
      "▁economic": 4803,
      "▁aborted": 4804,
      "▁Foundation": 4805,
      "▁labor": 4806,
      "▁motors": 4807,
      "▁absurd": 4808,
      "▁flamethrower": 4809,
      "▁titanium": 4810,
      "▁Martin": 4811,
      "▁integrated": 4812,
      "▁exponential": 4813,
      "▁Critical": 4814,
      "▁Valley": 4815,
      "▁York": 4816,
      "▁propulsive": 4817,
      "▁dedicated": 4818,
      "-d": 4819,
      "-r": 4820,
      "/b": 4821,
      "/year": 4822,
      "IC": 4823,
      "eal": 4824,
      "hood": 4825,
      "ka": 4826,
      "les,": 4827,
      "now": 4828,
      "oge": 4829,
      "paring": 4830,
      "t,": 4831,
      "▁sed": 4832,
      "▁wise": 4833,
      "attle": 4834,
      "▁f*": 4835,
      "▁face": 4836,
      "▁match": 4837,
      "▁micro": 4838,
      "▁pyr": 4839,
      "ederal": 4840,
      "▁of\n": 4841,
      "▁nature": 4842,
      "▁Sen": 4843,
      "▁Side": 4844,
      "▁Mission": 4845,
      "▁Ap": 4846,
      "▁Ast": 4847,
      "▁Ariane": 4848,
      "▁Water": 4849,
      "last": 4850,
      "chang": 4851,
      "▁Cost": 4852,
      "▁states": 4853,
      "▁stainless": 4854,
      "▁we've": 4855,
      "▁Hold": 4856,
      "▁Bel": 4857,
      "▁Banks": 4858,
      "▁Po": 4859,
      "▁trunk": 4860,
      "▁Literally": 4861,
      "▁havent": 4862,
      "▁(d": 4863,
      "▁O2": 4864,
      "▁Ox": 4865,
      "▁Oct": 4866,
      "▁Odd": 4867,
      "▁algor": 4868,
      "▁chart": 4869,
      "▁unc": 4870,
      "▁cargo": 4871,
      "▁V10": 4872,
      "▁greatest": 4873,
      "▁buff": 4874,
      "ated.\n": 4875,
      "▁amb": 4876,
      "▁Always": 4877,
      "▁team!\n": 4878,
      "▁production,": 4879,
      "osed": 4880,
      "▁mins.": 4881,
      "▁resc": 4882,
      "▁according": 4883,
      "▁expos": 4884,
      "▁Exactly!": 4885,
      "itted": 4886,
      "▁Headed": 4887,
      "▁Kore": 4888,
      "▁Canad": 4889,
      "▁options": 4890,
      "▁attention": 4891,
      "▁low,": 4892,
      "▁low.": 4893,
      "▁inspe": 4894,
      "▁generated": 4895,
      "▁updated": 4896,
      "▁ident": 4897,
      "awatt": 4898,
      "▁range.": 4899,
      "▁ordered": 4900,
      "▁packet": 4901,
      "▁reflight": 4902,
      "▁night.": 4903,
      "▁amazing.\n": 4904,
      "▁Launching": 4905,
      "▁yet.\n": 4906,
      "▁temperature": 4907,
      "▁constraint": 4908,
      "▁question.": 4909,
      "▁wrong.": 4910,
      "nov": 4911,
      "▁Zip2": 4912,
      "▁Frank": 4913,
      "▁specific": 4914,
      "▁entirely": 4915,
      "▁interested": 4916,
      "▁\"Tesla": 4917,
      "▁Anyone": 4918,
      "▁incentives": 4919,
      "▁calc": 4920,
      "▁breakthrough": 4921,
      "▁environmental": 4922,
      "▁patents": 4923,
      "▁Chris": 4924,
      "▁Upd": 4925,
      "▁squirrel": 4926,
      "▁forgot": 4927,
      "▁jacket": 4928,
      "▁women": 4929,
      "▁independent": 4930,
      "▁Asimov's": 4931,
      "▁Christmas": 4932,
      "▁satis": 4933,
      "▁Requires": 4934,
      "▁Version": 4935,
      "▁Beaut": 4936,
      "▁algorithm": 4937,
      "-on": 4938,
      "B.": 4939,
      "aks": 4940,
      "flight": 4941,
      "gel": 4942,
      "has": 4943,
      "k.": 4944,
      "kn": 4945,
      "oying": 4946,
      "s)\n": 4947,
      "vil": 4948,
      "vely": 4949,
      "▁trend": 4950,
      "inux": 4951,
      "▁sill": 4952,
      "▁war": 4953,
      "▁bur": 4954,
      "▁firm": 4955,
      "arrow": 4956,
      "▁pen": 4957,
      "▁pilot": 4958,
      "▁dream": 4959,
      "▁lines": 4960,
      "▁inert": 4961,
      "▁information": 4962,
      "▁Mount": 4963,
      "▁Wal": 4964,
      "▁Theres": 4965,
      "ided": 4966,
      "oday": 4967,
      "ched": 4968,
      "▁Creating": 4969,
      "irl": 4970,
      "▁will,": 4971,
      "▁Fix": 4972,
      "am\n": 4973,
      "▁Bust": 4974,
      "▁you.": 4975,
      "▁Done": 4976,
      "▁Put": 4977,
      "▁Post": 4978,
      "▁Linux": 4979,
      "sequ": 4980,
      "▁RH": 4981,
      "▁search": 4982,
      "▁(th": 4983,
      "actic": 4984,
      "▁chip": 4985,
      "ine.": 4986,
      "ipment": 4987,
      "▁up,": 4988,
      "▁upcoming": 4989,
      "▁compress": 4990,
      "ive,": 4991,
      "▁user": 4992,
      "▁Weve": 4993,
      "▁V3": 4994,
      "▁Vir": 4995,
      "▁wouldnt": 4996,
      "cience": 4997,
      "▁bump": 4998,
      "▁too!\n": 4999,
      "▁appli": 5000,
      "▁~7": 5001,
      "rick": 5002,
      "▁%.\n": 5003,
      "▁\"\"E": 5004,
      "▁perhaps": 5005,
      "▁first.": 5006,
      "▁X,": 5007,
      "▁lot\n": 5008,
      "▁orbit,": 5009,
      "▁Once": 5010,
      "▁Nev": 5011,
      "▁happiness": 5012,
      "▁couldnt": 5013,
      "▁US.": 5014,
      "▁system.\n": 5015,
      "▁Trans": 5016,
      "▁Autopilot\n": 5017,
      "▁done\n": 5018,
      "▁consid": 5019,
      "▁read\n": 5020,
      "▁ship.": 5021,
      "▁signal": 5022,
      "urren": 5023,
      "▁remo": 5024,
      "▁company.": 5025,
      "▁ordering": 5026,
      "ator,": 5027,
      "▁Second": 5028,
      "▁untr": 5029,
      "▁Station.": 5030,
      "▁thoughtful": 5031,
      "▁played": 5032,
      "▁anything,": 5033,
      "▁~1.5": 5034,
      "▁investors": 5035,
      "▁restored": 5036,
      "▁journey": 5037,
      "▁deployment": 5038,
      "ress.": 5039,
      "▁equipment": 5040,
      "▁PhD": 5041,
      "▁reports": 5042,
      "poned": 5043,
      "▁purple": 5044,
      "▁totally": 5045,
      "▁begin": 5046,
      "▁liftoff": 5047,
      "▁addressed": 5048,
      "▁Serious": 5049,
      "▁opens": 5050,
      "▁flaps": 5051,
      "▁journalists": 5052,
      "▁Smart": 5053,
      "▁absor": 5054,
      "▁duty": 5055,
      "▁engines.": 5056,
      "▁Build": 5057,
      "▁Exciting": 5058,
      "▁laser": 5059,
      "▁Godot": 5060,
      "▁reliability": 5061,
      "▁System": 5062,
      "▁Monty": 5063,
      "▁constantly": 5064,
      "▁hexacopter": 5065,
      "▁style": 5066,
      "-the-": 5067,
      "▁horizont": 5068,
      "▁LZ-1": 5069,
      "▁straight": 5070,
      "▁consumption": 5071,
      "▁applied": 5072,
      "19": 5073,
      "CP": 5074,
      "SJ": 5075,
      "ST": 5076,
      "TE": 5077,
      "cone": 5078,
      "here": 5079,
      "lay": 5080,
      "oking": 5081,
      "pay": 5082,
      "pack": 5083,
      "pons": 5084,
      "ration": 5085,
      "s)": 5086,
      "ued": 5087,
      "▁outer": 5088,
      "erg": 5089,
      "▁six": 5090,
      "orbit": 5091,
      "▁bday": 5092,
      "▁born": 5093,
      "it\n": 5094,
      "iti.": 5095,
      "▁mir": 5096,
      "▁pending": 5097,
      "▁pneum": 5098,
      "▁ok,": 5099,
      "▁doubt": 5100,
      "▁hes": 5101,
      "▁invent": 5102,
      "al\n": 5103,
      "alactic": 5104,
      "▁nom": 5105,
      "▁IV": 5106,
      "▁Ide": 5107,
      "▁gonna": 5108,
      "acc": 5109,
      "▁recharg": 5110,
      "▁Mun": 5111,
      "▁Ass": 5112,
      "▁ones": 5113,
      "illiant": 5114,
      "▁eve": 5115,
      "▁Welcome": 5116,
      "▁WSJ": 5117,
      "▁Third": 5118,
      "▁City": 5119,
      "tern": 5120,
      "▁Tesla/S": 5121,
      "▁FT": 5122,
      "▁Ferm": 5123,
      "amid": 5124,
      "▁butt": 5125,
      "▁Bill": 5126,
      "▁EU": 5127,
      "▁shop": 5128,
      "▁Ludicrous": 5129,
      "▁jump": 5130,
      "▁convert": 5131,
      "ourse": 5132,
      "▁all.": 5133,
      "▁loved": 5134,
      "▁chain": 5135,
      "lock": 5136,
      "▁meg": 5137,
      "\"\".\"\n": 5138,
      "▁out.": 5139,
      "▁Video": 5140,
      "ment,": 5141,
      "ciet": 5142,
      "▁high.\n": 5143,
      "ization": 5144,
      "▁Invest": 5145,
      "▁people,": 5146,
      "▁safer": 5147,
      "▁~6": 5148,
      "ooh": 5149,
      "▁fault": 5150,
      "▁days.": 5151,
      "▁what's": 5152,
      "▁better\n": 5153,
      "▁month.\n": 5154,
      "▁Another": 5155,
      "▁resist": 5156,
      "▁Haiti.": 5157,
      "▁flight,": 5158,
      "▁princ": 5159,
      "▁interplanetary": 5160,
      "▁theme": 5161,
      "▁everywhere": 5162,
      "▁crush": 5163,
      "▁spaceport": 5164,
      "▁grou": 5165,
      "▁defe": 5166,
      "▁twea": 5167,
      "▁advice": 5168,
      "▁advance": 5169,
      "▁advantage": 5170,
      "▁done.": 5171,
      "aken": 5172,
      "▁conscious": 5173,
      "▁ever.\n": 5174,
      "▁clearly": 5175,
      "▁indic": 5176,
      "▁cool.": 5177,
      "▁meter": 5178,
      "▁leave": 5179,
      "▁technically": 5180,
      "▁postponed": 5181,
      "▁esth": 5182,
      "▁parall": 5183,
      "▁experts": 5184,
      "▁location": 5185,
      "▁apoge": 5186,
      "▁regulator": 5187,
      "ruct": 5188,
      "▁flies": 5189,
      "▁restart": 5190,
      "▁details\n": 5191,
      "▁Canaveral.": 5192,
      "▁seconds": 5193,
      "▁Booster": 5194,
      "▁subsonic": 5195,
      "▁irony.\n": 5196,
      "▁wishes": 5197,
      "▁employ": 5198,
      "▁geo": 5199,
      "▁economy": 5200,
      "▁Doesn't": 5201,
      "▁Everyone": 5202,
      "▁focused": 5203,
      "cientists": 5204,
      "▁Technically,": 5205,
      "▁describ": 5206,
      "▁missed": 5207,
      "▁variant": 5208,
      "▁opport": 5209,
      "▁separate": 5210,
      "▁challenges": 5211,
      "▁splashdown": 5212,
      "▁permission": 5213,
      "▁stopped": 5214,
      "▁Hawthorne": 5215,
      "▁IPO": 5216,
      "▁iPh": 5217,
      "force": 5218,
      "▁consumers": 5219,
      "ville": 5220,
      "▁reactor": 5221,
      "▁P85D": 5222,
      "▁destroy": 5223,
      "▁opinion": 5224,
      "▁Oxford": 5225,
      "▁exposure": 5226,
      "▁Virgin": 5227,
      "▁Fermi": 5228,
      ",000": 5229,
      "cano": 5230,
      "ding": 5231,
      "e!": 5232,
      "ged": 5233,
      "how": 5234,
      "i,": 5235,
      "ique": 5236,
      "ned": 5237,
      "sp": 5238,
      "iner": 5239,
      "▁amp": 5240,
      "▁sort": 5241,
      "reak": 5242,
      "▁thres": 5243,
      "orbital": 5244,
      "▁biz": 5245,
      "▁cult": 5246,
      "▁field": 5247,
      "is\n": 5248,
      "ening": 5249,
      "▁mal": 5250,
      "▁mine": 5251,
      "▁tower": 5252,
      "▁oo": 5253,
      "▁length": 5254,
      "▁links": 5255,
      "▁lol\n": 5256,
      "▁S,": 5257,
      "▁Sol": 5258,
      "ete": 5259,
      "eting": 5260,
      "ases": 5261,
      "igs": 5262,
      "▁be.": 5263,
      "▁Aud": 5264,
      "▁ancient": 5265,
      "lying": 5266,
      "▁Thail": 5267,
      "▁Clo": 5268,
      "▁Certain": 5269,
      "ilities": 5270,
      "▁neigh": 5271,
      "▁Future": 5272,
      "▁rise": 5273,
      "▁profit": 5274,
      "▁Pain": 5275,
      "▁trouble": 5276,
      "▁excess": 5277,
      "▁sea": 5278,
      "▁likes": 5279,
      "rible": 5280,
      "▁(ie": 5281,
      "acking": 5282,
      "▁uns": 5283,
      "▁unre": 5284,
      "▁unit": 5285,
      "oney": 5286,
      "love": 5287,
      "ue\n": 5288,
      "▁June": 5289,
      "ist\n": 5290,
      "emetry": 5291,
      "▁Uh": 5292,
      "▁pret": 5293,
      "▁time!\n": 5294,
      "▁White": 5295,
      "intelligence": 5296,
      "▁there's": 5297,
      "age,": 5298,
      "▁agre": 5299,
      "ricks": 5300,
      "▁solving": 5301,
      "▁parties": 5302,
      "wns": 5303,
      "▁Reality": 5304,
      "▁real.": 5305,
      "▁know,": 5306,
      "▁know.": 5307,
      "▁artificial": 5308,
      "▁expl": 5309,
      "▁underground": 5310,
      "▁space\n": 5311,
      "▁lifet": 5312,
      "▁cost,": 5313,
      "▁:\n": 5314,
      "▁humans": 5315,
      "▁helps": 5316,
      "▁fastest": 5317,
      "▁same.\n": 5318,
      "▁twitter": 5319,
      "▁Doing": 5320,
      "pected": 5321,
      "▁Supercharging": 5322,
      "▁far.\n": 5323,
      "▁drive,": 5324,
      "▁becomes": 5325,
      "▁countdown": 5326,
      "cool": 5327,
      "▁completing": 5328,
      "▁important,": 5329,
      "▁awesome.": 5330,
      "▁levels": 5331,
      "▁money\n": 5332,
      "▁demonstr": 5333,
      "▁night\n": 5334,
      "▁parach": 5335,
      "▁visible": 5336,
      "▁competitive": 5337,
      "▁competitors": 5338,
      "▁volcano": 5339,
      "▁self-s": 5340,
      "▁~1000": 5341,
      "▁Orbit": 5342,
      "▁pieces": 5343,
      "clud": 5344,
      "▁majority": 5345,
      "▁technology,": 5346,
      "▁appreciated!\n": 5347,
      "▁welcome\n": 5348,
      "▁studio": 5349,
      "▁uh": 5350,
      "▁raised": 5351,
      "▁info": 5352,
      "▁selling": 5353,
      "▁optimized": 5354,
      "▁Appro": 5355,
      "▁remaining": 5356,
      "▁following": 5357,
      "▁effective": 5358,
      "▁watching": 5359,
      "▁emphas": 5360,
      "arrass": 5361,
      "▁ridicul": 5362,
      "▁subsidies": 5363,
      "▁anyway.\n": 5364,
      "▁appear": 5365,
      "▁errors": 5366,
      "▁arrives": 5367,
      "▁terrible": 5368,
      "▁candy": 5369,
      "▁frequ": 5370,
      "▁imagine": 5371,
      "▁walk": 5372,
      "▁children": 5373,
      "▁thousands": 5374,
      "▁Paradox": 5375,
      "-sell": 5376,
      "▁benef": 5377,
      "makers": 5378,
      "▁DMV": 5379,
      "▁convenient": 5380,
      "▁Superdraco": 5381,
      "▁Mexico": 5382,
      "▁propaganda": 5383,
      "▁Douglas": 5384,
      "▁embarrass": 5385,
      "▁Apollo": 5386,
      "▁inspection": 5387,
      "▁Tesla/SolarCity": 5388,
      "▁threshold": 5389,
      "▁Thailand": 5390,
      "-f": 5391,
      "/c": 5392,
      "/k": 5393,
      "12": 5394,
      "AC": 5395,
      "DT": 5396,
      "les\n": 5397,
      "nes": 5398,
      "oil": 5399,
      "ves.": 5400,
      "▁tree": 5401,
      "in's": 5402,
      "▁wer": 5403,
      "▁weld": 5404,
      "orters": 5405,
      "▁brief": 5406,
      "▁five": 5407,
      "enu": 5408,
      "▁mill": 5409,
      "▁pers": 5410,
      "▁luck": 5411,
      "▁hal": 5412,
      "▁Tim": 5413,
      "▁T/W": 5414,
      "▁innov": 5415,
      "▁narrow": 5416,
      "▁SA": 5417,
      "▁Sl": 5418,
      "▁Sur": 5419,
      "et\n": 5420,
      "▁gre": 5421,
      "▁revenue": 5422,
      "▁Met": 5423,
      "▁Made": 5424,
      "▁Miss": 5425,
      "▁Ant": 5426,
      "omberg": 5427,
      "▁eg": 5428,
      "▁eith": 5429,
      "▁Wr": 5430,
      "▁yes.": 5431,
      "idence": 5432,
      "ods": 5433,
      "▁Cap": 5434,
      "▁C19": 5435,
      "▁Course": 5436,
      "▁iter": 5437,
      "▁Nav": 5438,
      "amb": 5439,
      "▁Hon": 5440,
      "▁coff": 5441,
      "▁proceed": 5442,
      "▁vary": 5443,
      "▁shown": 5444,
      "▁traction": 5445,
      "▁moves": 5446,
      "▁notice": 5447,
      "▁degre": 5448,
      "ant.": 5449,
      "um.": 5450,
      "▁(h": 5451,
      "▁(p": 5452,
      "▁(t": 5453,
      "▁(wh": 5454,
      "▁upon": 5455,
      "▁no\n": 5456,
      "▁greatly": 5457,
      "▁work,": 5458,
      "▁work.\n": 5459,
      "▁ago\n": 5460,
      "ance,": 5461,
      "▁way.": 5462,
      "▁speed,": 5463,
      "▁\"H": 5464,
      "▁Dragon,": 5465,
      "▁landing.\n": 5466,
      "▁points.": 5467,
      "▁express": 5468,
      "▁$7": 5469,
      "▁Soon": 5470,
      "▁humor": 5471,
      "▁transit": 5472,
      "▁calling": 5473,
      "▁Hopper": 5474,
      "▁fires": 5475,
      "▁attach": 5476,
      "▁publicly": 5477,
      "▁ships": 5478,
      "▁Death": 5479,
      "▁True.": 5480,
      "▁California,": 5481,
      "▁California.": 5482,
      "▁level.": 5483,
      "▁Atlas": 5484,
      "▁bad,": 5485,
      "▁detect": 5486,
      "▁water.": 5487,
      "▁basic": 5488,
      "▁amazingly": 5489,
      "▁visiting": 5490,
      "arning": 5491,
      "▁viol": 5492,
      "▁likely\n": 5493,
      "▁unveiling": 5494,
      "▁thanks!\n": 5495,
      "▁brakes": 5496,
      "▁excited": 5497,
      "▁Zero": 5498,
      "▁Without": 5499,
      "▁target.": 5500,
      "▁distract": 5501,
      "▁steam": 5502,
      "▁physical": 5503,
      "▁specif": 5504,
      "▁cells": 5505,
      "▁receive": 5506,
      "▁sensor": 5507,
      "▁course,": 5508,
      "▁answ": 5509,
      "▁significantly": 5510,
      "▁argument": 5511,
      "▁Area": 5512,
      "▁leader": 5513,
      "▁Everything": 5514,
      "▁successful.": 5515,
      "▁panel": 5516,
      "▁Bloomberg": 5517,
      "▁training": 5518,
      "▁mistakes": 5519,
      "▁freedom": 5520,
      "ological": 5521,
      "▁Excited": 5522,
      "▁essential": 5523,
      "▁deserves": 5524,
      "▁moderate": 5525,
      "▁Delta": 5526,
      "board": 5527,
      "porate": 5528,
      "▁Software": 5529,
      "▁amazing\n": 5530,
      "▁represent": 5531,
      "▁pyramid": 5532,
      "▁emphasize": 5533,
      ".\"\"\"\n": 5534,
      "80": 5535,
      "Driving": 5536,
      "ED": 5537,
      "do": 5538,
      "fast": 5539,
      "ming": 5540,
      "pher": 5541,
      "ris": 5542,
      "width": 5543,
      "zen": 5544,
      "▁urb": 5545,
      "inary": 5546,
      "erved": 5547,
      "▁son": 5548,
      "▁battle": 5549,
      "▁cm": 5550,
      "ises": 5551,
      "ous\n": 5552,
      "eness": 5553,
      "ann": 5554,
      "▁tool": 5555,
      "▁pics": 5556,
      "▁di": 5557,
      "▁theory": 5558,
      "▁lmk": 5559,
      "▁TV": 5560,
      "standing": 5561,
      "room": 5562,
      "▁nut": 5563,
      "▁nons": 5564,
      "▁nuclear": 5565,
      "▁SX": 5566,
      "▁Saw": 5567,
      "▁Sometimes": 5568,
      "elp": 5569,
      "elect": 5570,
      "▁gar": 5571,
      "▁gun": 5572,
      "le.": 5573,
      "▁repe": 5574,
      "igin": 5575,
      "veal": 5576,
      "▁AF": 5577,
      "omal": 5578,
      "omain": 5579,
      "▁Wooh": 5580,
      "od,": 5581,
      "▁Count": 5582,
      "▁stuck": 5583,
      "upp": 5584,
      "▁weak": 5585,
      "▁Night": 5586,
      "▁Nik": 5587,
      "▁Fri": 5588,
      "ested": 5589,
      "▁pros": 5590,
      "▁BS": 5591,
      "▁Bay": 5592,
      "▁Dr": 5593,
      "▁Pal": 5594,
      "▁GPU": 5595,
      "▁virus": 5596,
      "▁Effect": 5597,
      "ationary": 5598,
      "▁Law": 5599,
      "▁not.": 5600,
      "▁junk": 5601,
      "▁Out": 5602,
      "▁Own": 5603,
      "▁unkn": 5604,
      "▁Stud": 5605,
      "▁up\n": 5606,
      "▁Jeff": 5607,
      "▁ULA": 5608,
      "▁text": 5609,
      "▁Vol": 5610,
      "▁rockets.": 5611,
      "able.\n": 5612,
      "ie's": 5613,
      "▁great!\n": 5614,
      "▁much.": 5615,
      "▁somehow": 5616,
      "▁~30": 5617,
      "▁hard.\n": 5618,
      "▁spin": 5619,
      "▁Alpha": 5620,
      "▁solved": 5621,
      "▁better,": 5622,
      "▁first,": 5623,
      "▁team!": 5624,
      "▁reserv": 5625,
      "▁Having": 5626,
      "▁Reason": 5627,
      "▁power\n": 5628,
      "▁powert": 5629,
      "▁power.\n": 5630,
      "▁intern": 5631,
      "▁cris": 5632,
      "▁thrust,": 5633,
      "▁software.": 5634,
      "▁superall": 5635,
      "▁transl": 5636,
      "▁done,": 5637,
      "▁change.": 5638,
      "▁ever\n": 5639,
      "aneu": 5640,
      "▁LA,": 5641,
      "▁article.": 5642,
      "ification": 5643,
      "▁signed": 5644,
      "▁refine": 5645,
      "▁Preparing": 5646,
      "▁decade": 5647,
      "▁volum": 5648,
      "▁header": 5649,
      "▁apocal": 5650,
      "▁risk,": 5651,
      "▁vacc": 5652,
      "▁spaces": 5653,
      "▁QA": 5654,
      "▁Q&amp;": 5655,
      "▁crazy,": 5656,
      "▁details": 5657,
      "▁giving": 5658,
      "▁drove": 5659,
      "▁replaced": 5660,
      "▁imo,": 5661,
      "▁difference\n": 5662,
      "▁amounts": 5663,
      "▁mentioned": 5664,
      "▁beginn": 5665,
      "▁watched": 5666,
      "▁destination": 5667,
      "evit": 5668,
      "▁riding": 5669,
      "▁Dogecoin": 5670,
      "ahem": 5671,
      "▁popular": 5672,
      "▁offering": 5673,
      "▁fundamentally": 5674,
      "▁error": 5675,
      "▁falling": 5676,
      "▁winter": 5677,
      "▁motion": 5678,
      "▁Obvi": 5679,
      "▁places": 5680,
      "▁situation": 5681,
      "▁btw.": 5682,
      "▁forget": 5683,
      "▁talented": 5684,
      "▁layer": 5685,
      "ypes": 5686,
      "▁Browns": 5687,
      "▁Regarding": 5688,
      "appreci": 5689,
      "cope": 5690,
      "▁resolution": 5691,
      "▁purchase": 5692,
      "▁pedestrian": 5693,
      "▁spirit": 5694,
      "▁Self-Driving": 5695,
      "▁group": 5696,
      "▁iPhone": 5697,
      "▁Certainly": 5698,
      "▁urban": 5699,
      "▁Woohoo": 5700,
      "▁Nikola": 5701,
      "▁unknown": 5702,
      "▁Q&amp;A": 5703,
      "&amp": 5704,
      "/M": 5705,
      "/t": 5706,
      "15": 5707,
      "RO": 5708,
      "d\n": 5709,
      "fac": 5710,
      "fall": 5711,
      "rate": 5712,
      "▁aud": 5713,
      "rest": 5714,
      "▁th.": 5715,
      "▁therm": 5716,
      "▁wing": 5717,
      "▁wast": 5718,
      "▁width": 5719,
      "▁bal": 5720,
      "▁cod": 5721,
      "▁maneu": 5722,
      "anch": 5723,
      "ances": 5724,
      "▁ok\n": 5725,
      "▁da": 5726,
      "▁dive": 5727,
      "▁dial": 5728,
      "▁license": 5729,
      "▁Taking": 5730,
      "▁Today": 5731,
      "▁nu": 5732,
      "▁Sad": 5733,
      "▁Science": 5734,
      "ics,": 5735,
      "▁gl": 5736,
      "aceship": 5737,
      "▁Mad": 5738,
      "▁Mem": 5739,
      "▁Ah": 5740,
      "verse": 5741,
      "check": 5742,
      "▁Cash": 5743,
      "▁CEO": 5744,
      "▁C++": 5745,
      "▁Test": 5746,
      "▁Tesla.\n": 5747,
      "▁wealth": 5748,
      "▁rig": 5749,
      "▁rule": 5750,
      "▁cores": 5751,
      "▁colon": 5752,
      "▁Pet": 5753,
      "▁Peace": 5754,
      "ifies": 5755,
      "▁Giant": 5756,
      "▁Ed": 5757,
      "▁El": 5758,
      "▁Es": 5759,
      "▁shorter": 5760,
      "▁trillion": 5761,
      "abin": 5762,
      "ables": 5763,
      "▁Ren": 5764,
      "▁RWD": 5765,
      "ouncing": 5766,
      "▁all,": 5767,
      "ipul": 5768,
      "▁unfortunately": 5769,
      "▁me)": 5770,
      "▁users": 5771,
      "conel": 5772,
      "▁times\n": 5773,
      "▁plat": 5774,
      "able\n": 5775,
      "▁produces": 5776,
      "▁spot": 5777,
      "▁\"\"H": 5778,
      "▁Thanks!": 5779,
      "▁landing\n": 5780,
      "▁sympt": 5781,
      "▁know\n": 5782,
      "▁expanding": 5783,
      "▁coming\n": 5784,
      "▁Starships": 5785,
      "oths": 5786,
      "▁life\n": 5787,
      "▁extension": 5788,
      "▁system\n": 5789,
      "▁best.\n": 5790,
      "▁help\n": 5791,
      "▁today's": 5792,
      "▁startup": 5793,
      "play": 5794,
      "▁subtle": 5795,
      "aker": 5796,
      "▁far,": 5797,
      "▁fire.": 5798,
      "▁vehic": 5799,
      "▁insert": 5800,
      "▁milest": 5801,
      "▁valve.": 5802,
      "▁leak": 5803,
      "▁Dealer": 5804,
      "▁signature": 5805,
      "▁survey": 5806,
      "▁idiot": 5807,
      "▁rolls": 5808,
      "▁later\n": 5809,
      "lessly": 5810,
      "▁Starbase": 5811,
      "▁Several": 5812,
      "▁package": 5813,
      "▁operate": 5814,
      "▁service.\n": 5815,
      "▁engineering,": 5816,
      "▁competing": 5817,
      "▁dealer": 5818,
      "▁deliveries": 5819,
      "▁creation": 5820,
      "▁tempor": 5821,
      "▁emerg": 5822,
      "▁constit": 5823,
      "▁acid": 5824,
      "▁data.": 5825,
      "▁radi": 5826,
      "▁performance.": 5827,
      "▁latency": 5828,
      "50k": 5829,
      "▁general,": 5830,
      "▁broke": 5831,
      "▁stores": 5832,
      "▁political": 5833,
      "▁friends": 5834,
      "▁followed": 5835,
      "▁summon": 5836,
      "▁Spaceship": 5837,
      "▁game\n": 5838,
      "▁Lots": 5839,
      "▁pricing": 5840,
      "▁strongly": 5841,
      "▁destin": 5842,
      "▁renew": 5843,
      "▁installation": 5844,
      "▁donate": 5845,
      "▁Adam": 5846,
      "▁$5k": 5847,
      "▁site\n": 5848,
      "▁autonomy": 5849,
      "▁biograph": 5850,
      "▁reference": 5851,
      "▁Block": 5852,
      "▁journalist": 5853,
      "▁bott": 5854,
      "▁Didn't": 5855,
      "▁structural": 5856,
      "▁duties": 5857,
      "▁Prim": 5858,
      "▁NYTimes": 5859,
      "▁concerns": 5860,
      "▁Johnny": 5861,
      "▁advertising": 5862,
      "▁explain": 5863,
      "▁petition": 5864,
      "▁dangerous": 5865,
      "▁elevator": 5866,
      "▁fiber": 5867,
      "▁override": 5868,
      "▁Silicon": 5869,
      "▁Kinda": 5870,
      "▁crypto": 5871,
      "▁conversation": 5872,
      "▁severe": 5873,
      "▁sedan": 5874,
      "▁lifetime": 5875,
      "-3": 5876,
      "MW": 5877,
      "NN": 5878,
      "NY": 5879,
      "SLA": 5880,
      "aur": 5881,
      "box": 5882,
      "ection": 5883,
      "his": 5884,
      "lim": 5885,
      "lies": 5886,
      "overy": 5887,
      "ring": 5888,
      "rack": 5889,
      "t.": 5890,
      "tim": 5891,
      "wd": 5892,
      "zard": 5893,
      "▁aw": 5894,
      "▁aim": 5895,
      "erve": 5896,
      "erry": 5897,
      "▁threat": 5898,
      "▁third": 5899,
      "orse": 5900,
      "orical": 5901,
      "▁brow": 5902,
      "▁cities": 5903,
      "▁fat": 5904,
      "▁fwd": 5905,
      "ouple": 5906,
      "▁m/": 5907,
      "▁melt": 5908,
      "▁pap": 5909,
      "▁pounds": 5910,
      "▁packs": 5911,
      "▁peace": 5912,
      "▁loud": 5913,
      "▁lighter": 5914,
      "▁Times": 5915,
      "rown": 5916,
      "roph": 5917,
      "icious": 5918,
      "eted": 5919,
      "lee": 5920,
      "▁reduction": 5921,
      "▁Med": 5922,
      "▁Main": 5923,
      "▁be\n": 5924,
      "ung": 5925,
      "ado": 5926,
      "allout": 5927,
      "▁stars": 5928,
      "▁stabil": 5929,
      "usable": 5930,
      "▁Fallout": 5931,
      "aming": 5932,
      "▁covid": 5933,
      "▁prote": 5934,
      "▁BMW": 5935,
      "urally": 5936,
      "▁Pri": 5937,
      "▁Gear": 5938,
      "▁GWh": 5939,
      "▁Geor": 5940,
      "▁trail": 5941,
      "▁License": 5942,
      "▁enj": 5943,
      "▁exclus": 5944,
      "▁not,": 5945,
      "▁noting": 5946,
      "▁ascent": 5947,
      "▁sections": 5948,
      "rap": 5949,
      "▁abt": 5950,
      "▁(re": 5951,
      "▁(hop": 5952,
      "▁loves": 5953,
      "eward": 5954,
      "▁Stan": 5955,
      "▁Stock": 5956,
      "▁memb": 5957,
      "▁compla": 5958,
      "▁compens": 5959,
      "aster": 5960,
      "irect": 5961,
      "istent": 5962,
      "apse": 5963,
      "▁times.": 5964,
      "▁arriving": 5965,
      "▁more.": 5966,
      "▁noise": 5967,
      "▁highlight": 5968,
      "ice.": 5969,
      "▁Falcon\n": 5970,
      "ook": 5971,
      "▁monkey": 5972,
      "▁engine,": 5973,
      "vior": 5974,
      "▁intro": 5975,
      "▁recovery": 5976,
      "▁back.": 5977,
      "▁whenever": 5978,
      "▁respons": 5979,
      "wear": 5980,
      "▁orbit\n": 5981,
      "▁underappreci": 5982,
      "▁design\n": 5983,
      "▁them,": 5984,
      "orsch": 5985,
      "▁see.\n": 5986,
      "▁Starship\n": 5987,
      "ittee": 5988,
      "▁endorse": 5989,
      "▁systems.": 5990,
      "▁Earth.\n": 5991,
      "▁though,": 5992,
      "▁cost.": 5993,
      "▁regions": 5994,
      "▁well.\n": 5995,
      "▁suc": 5996,
      "▁suborbital": 5997,
      "▁energy.": 5998,
      "▁close\n": 5999,
      "▁fire\n": 6000,
      "▁guide": 6001,
      "▁depends": 6002,
      "▁generation": 6003,
      "▁generate": 6004,
      "▁strate": 6005,
      "▁updates": 6006,
      "▁AI.": 6007,
      "▁hours.": 6008,
      "▁/2": 6009,
      "▁/100": 6010,
      "▁personal": 6011,
      "▁control,": 6012,
      "faction": 6013,
      "▁Universe": 6014,
      "▁range,": 6015,
      "▁Starhopper": 6016,
      "▁Sec": 6017,
      "▁reflect": 6018,
      "▁param": 6019,
      "▁Texas,": 6020,
      "▁Sure.": 6021,
      "▁funds": 6022,
      "▁Qu": 6023,
      "▁buyers": 6024,
      "▁putting": 6025,
      "▁radio": 6026,
      "▁$1000": 6027,
      "▁Bob": 6028,
      "▁reached": 6029,
      "▁physically": 6030,
      "▁correct.": 6031,
      "-term,": 6032,
      "▁remains": 6033,
      "▁ultimately": 6034,
      "▁middle": 6035,
      "▁initi": 6036,
      "▁tonight\n": 6037,
      "▁editor": 6038,
      "▁regulators": 6039,
      "▁negatively": 6040,
      "▁morning.": 6041,
      "▁installed": 6042,
      "▁analy": 6043,
      "▁Couldn't": 6044,
      "▁attacked": 6045,
      "▁warming": 6046,
      "ammer": 6047,
      "▁meme": 6048,
      "ahn": 6049,
      "▁honored": 6050,
      "▁assuming": 6051,
      "▁seriously": 6052,
      "▁multiplanetary.\n": 6053,
      "▁torqu": 6054,
      "▁challenge": 6055,
      "▁answered": 6056,
      "▁patient": 6057,
      "▁robots": 6058,
      "▁ignore": 6059,
      "▁ignition": 6060,
      "▁necessarily": 6061,
      "▁blackout": 6062,
      "▁Trying": 6063,
      "▁placed": 6064,
      "▁north": 6065,
      "▁separation": 6066,
      "▁Instruction": 6067,
      "▁Guarant": 6068,
      "▁pushed": 6069,
      "▁nosecone": 6070,
      "▁Center": 6071,
      "▁(sigh)\n": 6072,
      "▁organ": 6073,
      "▁behavior": 6074,
      "▁Waiting": 6075,
      "burg": 6076,
      "▁Human": 6077,
      "▁adventure": 6078,
      "▁cycles": 6079,
      "▁Motors": 6080,
      "▁activate": 6081,
      "▁simultaneously": 6082,
      "▁weighs": 6083,
      "▁warranty": 6084,
      "▁satisfaction": 6085,
      "▁Investigating": 6086,
      "▁opportun": 6087,
      "▁ampl": 6088,
      "▁specifically": 6089,
      "▁milestone": 6090,
      "▁(hopefully": 6091,
      "-F": 6092,
      "-L": 6093,
      "/D": 6094,
      "Of": 6095,
      "Sat": 6096,
      "Vac": 6097,
      "bow": 6098,
      "boy": 6099,
      "cri": 6100,
      "dy": 6101,
      "dom": 6102,
      "eum": 6103,
      "get": 6104,
      "got": 6105,
      "gment": 6106,
      "gian": 6107,
      "hen": 6108,
      "iers": 6109,
      "lors": 6110,
      "scope": 6111,
      "uilt": 6112,
      "ved.": 6113,
      "esot": 6114,
      "▁bs": 6115,
      "▁bab": 6116,
      "▁bother": 6117,
      "▁cit": 6118,
      "▁fold": 6119,
      "arre": 6120,
      "▁pow": 6121,
      "▁pun": 6122,
      "▁pist": 6123,
      "▁died": 6124,
      "▁dinner": 6125,
      "▁lame": 6126,
      "▁hide": 6127,
      "▁Tweet": 6128,
      "▁Turb": 6129,
      "ste": 6130,
      "▁inacc": 6131,
      "▁nickel": 6132,
      "▁Say": 6133,
      "▁Simp": 6134,
      "▁Sens": 6135,
      "ic\n": 6136,
      "ion,": 6137,
      "lev": 6138,
      "▁Mr": 6139,
      "▁Mus": 6140,
      "▁Minn": 6141,
      "▁Fund": 6142,
      "▁HQ": 6143,
      "▁ran": 6144,
      "▁rum": 6145,
      "▁colors": 6146,
      "▁Braz": 6147,
      "▁Due": 6148,
      "ifying": 6149,
      "▁vide": 6150,
      "▁Either": 6151,
      "▁Evil": 6152,
      "▁go\n": 6153,
      "▁sho": 6154,
      "▁triv": 6155,
      "▁Later": 6156,
      "ules": 6157,
      "ulating": 6158,
      "▁doom": 6159,
      "▁Rele": 6160,
      "▁exit": 6161,
      "▁asking": 6162,
      "▁season": 6163,
      "rast": 6164,
      "▁liber": 6165,
      "▁liked": 6166,
      "▁(as": 6167,
      "▁(if": 6168,
      "▁alpha": 6169,
      "▁wasnt": 6170,
      "▁chem": 6171,
      "▁unf": 6172,
      "▁kick": 6173,
      "ostationary": 6174,
      "▁Jim": 6175,
      "▁justice": 6176,
      "emed": 6177,
      "▁goodness": 6178,
      "▁Van": 6179,
      "▁higher.": 6180,
      "▁lands": 6181,
      "udden": 6182,
      "attern": 6183,
      "▁they're": 6184,
      "▁Nov": 6185,
      "portion": 6186,
      "▁Exp": 6187,
      "▁sphere": 6188,
      "▁engineer": 6189,
      "▁\"\"p": 6190,
      "▁\"\"Of": 6191,
      "▁\"N": 6192,
      "▁mini": 6193,
      "▁box": 6194,
      "▁symb": 6195,
      "▁expand": 6196,
      "lications": 6197,
      "▁end,": 6198,
      "▁scen": 6199,
      "▁well\n": 6200,
      "▁twist": 6201,
      "▁energ": 6202,
      "▁Doj": 6203,
      "▁farm": 6204,
      "▁energy\n": 6205,
      "▁retired": 6206,
      "▁change,": 6207,
      "▁video.": 6208,
      "▁Abort": 6209,
      "▁mission.": 6210,
      "▁boosters": 6211,
      "▁booster\n": 6212,
      "▁deplo": 6213,
      "atsh": 6214,
      "▁valu": 6215,
      "▁Deus": 6216,
      "▁safety.": 6217,
      "▁safety,": 6218,
      "▁brought": 6219,
      "▁kids.": 6220,
      "▁talked": 6221,
      "▁company.\n": 6222,
      "▁planned": 6223,
      "▁level.\n": 6224,
      "▁fixing": 6225,
      "▁Highest": 6226,
      "wheel": 6227,
      "▁decide": 6228,
      "▁decision": 6229,
      "▁hands": 6230,
      "▁anything.": 6231,
      "▁funding": 6232,
      "▁action.": 6233,
      "▁developed": 6234,
      "▁here:\n": 6235,
      "▁Beyond": 6236,
      "▁$100": 6237,
      "▁welcome!\n": 6238,
      "▁English": 6239,
      "▁bringing": 6240,
      "▁increased": 6241,
      "▁pad\n": 6242,
      "▁summer\n": 6243,
      "▁understanding": 6244,
      "▁understood": 6245,
      "▁relative": 6246,
      "▁telling": 6247,
      "▁course.": 6248,
      "▁empty": 6249,
      "▁tricky\n": 6250,
      "▁digital": 6251,
      "▁~$500": 6252,
      "▁tank.": 6253,
      "▁Loved": 6254,
      "▁Series": 6255,
      "▁particular": 6256,
      "▁providing": 6257,
      "▁efficient": 6258,
      "▁patent": 6259,
      "▁Upgr": 6260,
      "▁damage": 6261,
      "▁Daim": 6262,
      "▁vastly": 6263,
      "▁Otherwise": 6264,
      "▁increasingly": 6265,
      "▁Intense": 6266,
      "▁deserve": 6267,
      "▁irl": 6268,
      "▁impressive": 6269,
      "▁epis": 6270,
      "▁minimize": 6271,
      "▁shareholders": 6272,
      "▁sequence": 6273,
      "▁democracy": 6274,
      "▁Starting": 6275,
      "▁believing": 6276,
      "▁all-wheel": 6277,
      "▁V9.0": 6278,
      "▁Colon": 6279,
      "▁further": 6280,
      "▁traditional": 6281,
      "▁monopoly": 6282,
      "▁heavily": 6283,
      "/week": 6284,
      "▁grandfather": 6285,
      "▁dynamic": 6286,
      "▁collective": 6287,
      "▁bandwidth": 6288,
      "▁Formula": 6289,
      "▁Mountain": 6290,
      "▁tweaks": 6291,
      "▁parallel": 6292,
      "▁Virginia": 6293,
      "▁explode": 6294,
      "▁violence": 6295,
      "▁nonsense": 6296,
      "▁platform": 6297,
      "▁Minnesot": 6298,
      "▁Brazil": 6299,
      "▁videos": 6300,
      "-NY": 6301,
      "TC": 6302,
      "US": 6303,
      "W.": 6304,
      "ech": 6305,
      "o.": 6306,
      "pa": 6307,
      "ran": 6308,
      "ratic": 6309,
      "uis": 6310,
      "uitive": 6311,
      "vice": 6312,
      "wyn": 6313,
      "z\n": 6314,
      "▁)": 6315,
      "▁=": 6316,
      "▁tent": 6317,
      "▁tast": 6318,
      "eroth": 6319,
      "ony": 6320,
      "▁singing": 6321,
      "rete": 6322,
      "▁winning": 6323,
      "orth": 6324,
      "▁bs.": 6325,
      "atory": 6326,
      "▁cup": 6327,
      "▁card": 6328,
      "▁caut": 6329,
      "▁caugh": 6330,
      "▁fog": 6331,
      "itm": 6332,
      "▁mark": 6333,
      "▁menu": 6334,
      "arke": 6335,
      "▁pupp": 6336,
      "▁pattern": 6337,
      "▁ow": 6338,
      "▁diver": 6339,
      "▁divers": 6340,
      "edy": 6341,
      "▁hull": 6342,
      "▁Target": 6343,
      "sts": 6344,
      "▁inevit": 6345,
      "▁Sing": 6346,
      "▁Speed": 6347,
      "▁gain": 6348,
      "lement": 6349,
      "oted": 6350,
      "▁beats": 6351,
      "ly)": 6352,
      "▁eye": 6353,
      "▁Won't": 6354,
      "union": 6355,
      "launch": 6356,
      "▁it!": 6357,
      "up\n": 6358,
      "▁neut": 6359,
      "▁Nu": 6360,
      "▁Fin": 6361,
      "▁H2": 6362,
      "▁Has": 6363,
      "▁Harr": 6364,
      "▁coal": 6365,
      "▁Ben": 6366,
      "▁Bar": 6367,
      "▁Bus": 6368,
      "▁Brian": 6369,
      "▁Data": 6370,
      "ifting": 6371,
      "▁Gwyn": 6372,
      "▁shear": 6373,
      "▁shipping": 6374,
      "▁trim": 6375,
      "▁Latter": 6376,
      "▁Rand": 6377,
      "▁robust": 6378,
      "ounced": 6379,
      "▁this:\n": 6380,
      "rage": 6381,
      "▁living": 6382,
      "▁(C": 6383,
      "ine\n": 6384,
      "ardians": 6385,
      "quence": 6386,
      "▁keros": 6387,
      "▁Stone": 6388,
      "▁Ital": 6389,
      "oste": 6390,
      "▁Jun": 6391,
      "ire,": 6392,
      "▁Ul": 6393,
      "rypt": 6394,
      "▁V7": 6395,
      "▁prep": 6396,
      "▁more\n": 6397,
      "▁comet": 6398,
      "anye": 6399,
      "▁plate": 6400,
      "▁over-the-": 6401,
      "▁launched": 6402,
      "▁launch.\n": 6403,
      "intuitive": 6404,
      "eping": 6405,
      "▁apparent": 6406,
      "▁SpaceX.": 6407,
      "▁~8": 6408,
      "▁news.": 6409,
      "▁content": 6410,
      "▁%.": 6411,
      "▁\"\"C": 6412,
      "▁month,": 6413,
      "▁intention": 6414,
      "▁speed.": 6415,
      "▁Angel": 6416,
      "▁X\n": 6417,
      "▁fun!\n": 6418,
      "ensus": 6419,
      "▁Cover": 6420,
      "orders": 6421,
      "▁pract": 6422,
      "▁interface": 6423,
      "▁$4": 6424,
      "▁Exactly!\n": 6425,
      "▁things,": 6426,
      "angu": 6427,
      "▁thrusters.": 6428,
      "redibly": 6429,
      "▁worlds": 6430,
      "▁down\n": 6431,
      "▁facto": 6432,
      "▁system,": 6433,
      "▁Earth,": 6434,
      "▁Earths": 6435,
      "▁Heart": 6436,
      "▁regard": 6437,
      "▁Knight": 6438,
      "▁Kanye": 6439,
      "▁Truth": 6440,
      "▁battery,": 6441,
      "▁advoc": 6442,
      "▁throughout": 6443,
      "▁hops": 6444,
      "▁ever!\n": 6445,
      "▁LA\n": 6446,
      "▁LA-NY": 6447,
      "vention": 6448,
      "▁insurance": 6449,
      "▁miles.": 6450,
      "▁depth": 6451,
      "gging": 6452,
      "▁taxpay": 6453,
      "▁enter": 6454,
      "▁entertain": 6455,
      "▁Interview": 6456,
      "▁Enhanced": 6457,
      "▁avion": 6458,
      "▁roller": 6459,
      "fficient": 6460,
      "▁later.\n": 6461,
      "▁annoying": 6462,
      "▁Ash": 6463,
      "▁control.": 6464,
      "▁pressure.": 6465,
      "▁tomorrow.": 6466,
      "▁refill": 6467,
      "▁maybe\n": 6468,
      "▁thoughts": 6469,
      "▁update\n": 6470,
      "▁update.\n": 6471,
      "▁water,": 6472,
      "▁compute": 6473,
      "▁computer.": 6474,
      "▁lights": 6475,
      "▁easy,": 6476,
      "▁easier": 6477,
      "▁unveiled": 6478,
      "▁others,": 6479,
      "▁flat": 6480,
      "▁away.": 6481,
      "▁reason,": 6482,
      "▁rocks!\n": 6483,
      "▁journo": 6484,
      "▁home.": 6485,
      "▁dropped": 6486,
      "▁multi-": 6487,
      "▁discuss": 6488,
      "▁waiting": 6489,
      "▁fairly": 6490,
      "▁suggesting": 6491,
      "▁causeway": 6492,
      "▁weekend.": 6493,
      "▁midnight": 6494,
      "▁date.": 6495,
      "▁supporters": 6496,
      "taire": 6497,
      "▁history.\n": 6498,
      "▁Congratulations!\n": 6499,
      "▁ramping": 6500,
      "▁Moving": 6501,
      "▁Biggest": 6502,
      "▁picked": 6503,
      "▁minute": 6504,
      "▁multiplanetary\n": 6505,
      "▁Play": 6506,
      "▁breakfast": 6507,
      "▁April\n": 6508,
      "▁learned": 6509,
      "▁floating": 6510,
      "▁Agreed\n": 6511,
      "▁robotax": 6512,
      "▁Clarke": 6513,
      "▁deny": 6514,
      "▁premise": 6515,
      "▁slower": 6516,
      "▁Commission": 6517,
      "▁suck.\n": 6518,
      "▁underway.": 6519,
      "▁navigation": 6520,
      "▁cases": 6521,
      "▁Total": 6522,
      "▁Saturn": 6523,
      "▁September": 6524,
      "▁circle": 6525,
      "▁footage": 6526,
      "▁stopping": 6527,
      "▁Similar": 6528,
      "▁contribution": 6529,
      "▁$35k": 6530,
      "▁Humans": 6531,
      "▁Incredibly": 6532,
      "▁Um,": 6533,
      "▁incorrect.": 6534,
      "▁describe": 6535,
      "▁description": 6536,
      "▁Thoughtful": 6537,
      "▁Steven": 6538,
      "▁Infinite": 6539,
      "▁discovered": 6540,
      "▁ventilator": 6541,
      "▁mistake.": 6542,
      "i-sub": 6543,
      "ockheed": 6544,
      "▁explosion": 6545,
      "▁evolving": 6546,
      "▁savings": 6547,
      "▁uncertain": 6548,
      "▁rescue": 6549,
      "▁firmware": 6550,
      "▁inertia": 6551,
      "▁liftoff\n": 6552,
      "▁horizontal": 6553,
      "▁pneumatic": 6554,
      "▁consciousness": 6555,
      "ructure": 6556,
      "▁employe": 6557,
      "▁benefit": 6558,
      "▁perspect": 6559,
      "pheric": 6560,
      "▁Voltaire": 6561,
      "▁superalloy": 6562,
      "▁spacesuit": 6563,
      "▁daily": 6564,
      "▁biography": 6565,
      "▁underappreciated\n": 6566,
      "▁citiz": 6567,
      "+\n": 6568,
      "/R": 6569,
      "EF": 6570,
      "Lockheed": 6571,
      "ME": 6572,
      "ault": 6573,
      "bed": 6574,
      "crack": 6575,
      "gus": 6576,
      "ipe": 6577,
      "kra": 6578,
      "s?\n": 6579,
      "yal": 6580,
      "ys.": 6581,
      "▁'s": 6582,
      "▁tea": 6583,
      "▁tick": 6584,
      "inction": 6585,
      "▁sele": 6586,
      "relev": 6587,
      "▁thus": 6588,
      "▁thick": 6589,
      "▁tho\n": 6590,
      "▁wood": 6591,
      "esides": 6592,
      "▁breat": 6593,
      "▁bomb": 6594,
      "▁felt": 6595,
      "▁federal": 6596,
      "ita": 6597,
      "en.": 6598,
      "enger": 6599,
      "▁mix": 6600,
      "arl": 6601,
      "arian": 6602,
      "▁to.\n": 6603,
      "▁toast": 6604,
      "▁puck": 6605,
      "▁lid": 6606,
      "▁hence": 6607,
      "▁inference": 6608,
      "▁San": 6609,
      "▁Slight": 6610,
      "ic.": 6611,
      "ics\n": 6612,
      "eless": 6613,
      "▁IC": 6614,
      "ve\n": 6615,
      "▁Mich": 6616,
      "▁Market": 6617,
      "▁beer": 6618,
      "▁beach": 6619,
      "owed": 6620,
      "▁ey": 6621,
      "amping": 6622,
      "▁War": 6623,
      "▁Went": 6624,
      "enty": 6625,
      "▁Call": 6626,
      "▁stick": 6627,
      "usually": 6628,
      "▁FH": 6629,
      "▁Free": 6630,
      "▁Hes": 6631,
      "▁Hen": 6632,
      "▁Ham": 6633,
      "▁rich": 6634,
      "▁Dan": 6635,
      "▁Diff": 6636,
      "▁Econom": 6637,
      "▁shift": 6638,
      "▁Land": 6639,
      "▁Less": 6640,
      "▁Los": 6641,
      "▁Log": 6642,
      "▁Roughly": 6643,
      "andon": 6644,
      "▁exting": 6645,
      "▁asp": 6646,
      "▁deorbit": 6647,
      "▁seal": 6648,
      "um!": 6649,
      "▁(n": 6650,
      "▁choo": 6651,
      "▁Jers": 6652,
      "▁usage": 6653,
      "▁Ukra": 6654,
      "▁timing": 6655,
      "▁outfit": 6656,
      "iesel": 6657,
      "▁canc": 6658,
      "▁high,": 6659,
      "ival": 6660,
      "ie\n": 6661,
      "ice.\n": 6662,
      "▁overhe": 6663,
      "▁acting": 6664,
      "▁shouldnt": 6665,
      "▁saved": 6666,
      "▁somewhere": 6667,
      "▁SpaceX\n": 6668,
      "▁Falcon/D": 6669,
      "▁leading": 6670,
      "▁descent": 6671,
      "ance\n": 6672,
      "▁conting": 6673,
      "▁spoke": 6674,
      "▁\"\"L": 6675,
      "▁\"\"P": 6676,
      "▁partners": 6677,
      "▁first.\n": 6678,
      "▁recog": 6679,
      "▁production\n": 6680,
      "▁Xmas": 6681,
      "▁\"E": 6682,
      "▁Dragon.": 6683,
      "▁Reco": 6684,
      "▁bogus": 6685,
      "▁Problem": 6686,
      "▁missing": 6687,
      "▁$6": 6688,
      "▁thing.\n": 6689,
      "▁world.": 6690,
      "▁sure,": 6691,
      "▁off,": 6692,
      "▁regen": 6693,
      "▁regarding": 6694,
      "▁Kim": 6695,
      "agic": 6696,
      "▁defense": 6697,
      "▁faster\n": 6698,
      "▁transaction": 6699,
      "▁phase": 6700,
      "▁calls": 6701,
      "▁DoD": 6702,
      "▁advis": 6703,
      "▁consumer": 6704,
      "▁around.": 6705,
      "▁insan": 6706,
      "▁insight": 6707,
      "▁mission\n": 6708,
      "▁mission.\n": 6709,
      "▁depending": 6710,
      "▁valve": 6711,
      "▁centers": 6712,
      "▁signs": 6713,
      "▁surfac": 6714,
      "▁modern": 6715,
      "▁important.\n": 6716,
      "▁kidd": 6717,
      "▁zone": 6718,
      "▁Ascent": 6719,
      "▁passing": 6720,
      "▁passenger": 6721,
      "▁frames": 6722,
      "▁whereas": 6723,
      "▁Seemed": 6724,
      "▁factory,": 6725,
      "▁manage": 6726,
      "▁satellit": 6727,
      "▁Norwe": 6728,
      "▁windward": 6729,
      "▁Meg": 6730,
      "▁simul": 6731,
      "▁likely.\n": 6732,
      "velope": 6733,
      "▁~10": 6734,
      "▁~10%": 6735,
      "▁funded": 6736,
      "▁Original": 6737,
      "▁others.": 6738,
      "▁America.\n": 6739,
      "▁Merc": 6740,
      "▁rate,": 6741,
      "▁case,": 6742,
      "-sh": 6743,
      "▁posit": 6744,
      "▁detailed": 6745,
      "▁Needed": 6746,
      "▁SN1": 6747,
      "▁redesign": 6748,
      "▁Front": 6749,
      "▁fine,": 6750,
      "▁collision": 6751,
      "▁optimiz": 6752,
      "▁broken": 6753,
      "▁nothing.": 6754,
      "▁words": 6755,
      "▁foundation": 6756,
      "▁weekend\n": 6757,
      "▁reusable,": 6758,
      "▁achieves": 6759,
      "▁filters": 6760,
      "▁morning\n": 6761,
      "▁configur": 6762,
      "▁donating": 6763,
      "▁Report": 6764,
      "▁attacking": 6765,
      "▁cycl": 6766,
      "▁memory": 6767,
      "▁excellent.\n": 6768,
      "▁assess": 6769,
      "planet": 6770,
      "▁cameras\n": 6771,
      "▁EVs": 6772,
      "▁label": 6773,
      "▁long-term.\n": 6774,
      "obahn": 6775,
      "▁Paris": 6776,
      "▁science.": 6777,
      "▁promising": 6778,
      "▁Small": 6779,
      "▁Base\n": 6780,
      "▁growth": 6781,
      "▁Giving": 6782,
      "▁presentation": 6783,
      "▁killing": 6784,
      "▁engines,": 6785,
      "▁opposite": 6786,
      "▁scheduled": 6787,
      "▁counter-": 6788,
      "▁yesterday.": 6789,
      "▁cases.\n": 6790,
      "▁eggs": 6791,
      "▁Artists": 6792,
      "▁irrelev": 6793,
      "▁influ": 6794,
      "▁silver": 6795,
      "▁(sigh).": 6796,
      "▁thousand": 6797,
      "▁replacement": 6798,
      "▁green.\n": 6799,
      "▁inspired": 6800,
      "borhood": 6801,
      "▁PayP": 6802,
      "▁cycle": 6803,
      "▁printing": 6804,
      "▁APJ": 6805,
      "▁street": 6806,
      "umulative": 6807,
      "▁financing": 6808,
      "▁shortly.\n": 6809,
      "▁Germany": 6810,
      "▁enemies": 6811,
      "▁UNIC": 6812,
      "▁real-world": 6813,
      "▁Talula": 6814,
      "▁quote,": 6815,
      "▁authorities": 6816,
      "▁forever.\n": 6817,
      "▁captured": 6818,
      "▁Comments": 6819,
      "▁Senate": 6820,
      "▁RHD": 6821,
      "▁nominal": 6822,
      "▁FTW": 6823,
      "▁mega": 6824,
      "▁principle": 6825,
      "▁bizarre": 6826,
      "▁neighborhood": 6827,
      "▁self-sustain": 6828,
      "▁Honored": 6829,
      "▁degrees": 6830,
      "▁powertrain": 6831,
      "▁crisis": 6832,
      "▁protection": 6833,
      "▁George": 6834,
      "▁Stanford": 6835,
      "▁piston": 6836,
      "▁liberty": 6837,
      "▁over-the-air": 6838,
      "▁Economist": 6839,
      "▁Falcon/Dragon": 6840,
      "▁recogn": 6841,
      "▁Recovery": 6842,
      "▁UNICEF": 6843,
      "-C": 6844,
      "-G": 6845,
      "45": 6846,
      "AL": 6847,
      "Draco": 6848,
      "VAC": 6849,
      "e!\n": 6850,
      "f*": 6851,
      "ius": 6852,
      "k.\n": 6853,
      "ma": 6854,
      "med": 6855,
      "pose": 6856,
      "rout": 6857,
      "sh": 6858,
      "▁q": 6859,
      "▁ie": 6860,
      "▁aware": 6861,
      "▁award": 6862,
      "on.": 6863,
      "onge": 6864,
      "▁sorry": 6865,
      "▁clic": 6866,
      "▁cabin": 6867,
      "inge": 6868,
      "▁fought": 6869,
      "lly": 6870,
      "aning": 6871,
      "ancing": 6872,
      "ar.": 6873,
      "▁parent": 6874,
      "▁dy": 6875,
      "▁der": 6876,
      "▁duration": 6877,
      "▁lining": 6878,
      "▁hero": 6879,
      "▁Tra": 6880,
      "▁Touch": 6881,
      "▁Takes": 6882,
      "rock": 6883,
      "▁SS": 6884,
      "▁Sand": 6885,
      "▁Sentry": 6886,
      "▁is.": 6887,
      "ass.": 6888,
      "▁grief": 6889,
      "▁beast": 6890,
      "▁anten": 6891,
      "▁Wont": 6892,
      "unt": 6893,
      "▁Cup": 6894,
      "▁Cather": 6895,
      "▁Class": 6896,
      "▁standing": 6897,
      "ime,": 6898,
      "throp": 6899,
      "▁willing": 6900,
      "▁Non": 6901,
      "▁Nan": 6902,
      "▁Fo": 6903,
      "amination": 6904,
      "▁Hor": 6905,
      "▁HVAC": 6906,
      "▁coinc": 6907,
      "▁proof": 6908,
      "▁proportion": 6909,
      "▁BBC": 6910,
      "▁Die": 6911,
      "▁PR": 6912,
      "▁Pun": 6913,
      "▁Port": 6914,
      "▁Prom": 6915,
      "ifts": 6916,
      "▁Green": 6917,
      "▁Global": 6918,
      "ars.": 6919,
      "▁Ent": 6920,
      "▁Elon": 6921,
      "▁trig": 6922,
      "▁Lim": 6923,
      "▁Light": 6924,
      "ers!\n": 6925,
      "abl": 6926,
      "▁envelope": 6927,
      "▁RT": 6928,
      "▁Rough": 6929,
      "▁origin": 6930,
      "ks.": 6931,
      "▁congr": 6932,
      "▁(2": 6933,
      "▁(a": 6934,
      "▁Occ": 6935,
      "▁master": 6936,
      "▁all\n": 6937,
      "▁alloy": 6938,
      "actually": 6939,
      "▁choc": 6940,
      "ine,": 6941,
      "▁und": 6942,
      "▁une": 6943,
      "▁unp": 6944,
      "▁k\n": 6945,
      "▁up.\n": 6946,
      "aren": 6947,
      "isting": 6948,
      "ists\n": 6949,
      "▁Ur": 6950,
      "▁prefer": 6951,
      "▁rocket,": 6952,
      "▁Init": 6953,
      "ube": 6954,
      "▁tail": 6955,
      "▁ours": 6956,
      "▁oursel": 6957,
      "▁saves": 6958,
      "▁next-level": 6959,
      "▁~9": 6960,
      "▁lease": 6961,
      "▁\"\"I": 6962,
      "▁\"\"S": 6963,
      "▁knew": 6964,
      "▁X.": 6965,
      "▁\"L": 6966,
      "▁SuperDraco": 6967,
      "▁flight.\n": 6968,
      "▁Show": 6969,
      "▁afterno": 6970,
      "▁orbits": 6971,
      "▁power.": 6972,
      "▁held": 6973,
      "anging": 6974,
      "▁thrust!": 6975,
      "▁spaceflight": 6976,
      "▁lifting": 6977,
      "▁superh": 6978,
      "▁airport": 6979,
      "▁finally": 6980,
      "▁safely": 6981,
      "▁best\n": 6982,
      "▁however,": 6983,
      "formed": 6984,
      "▁retire": 6985,
      "▁ever)\n": 6986,
      "▁LAX": 6987,
      "ogen": 6988,
      "▁miles\n": 6989,
      "▁metap": 6990,
      "▁joined": 6991,
      "▁Make": 6992,
      "▁secs": 6993,
      "▁taxing": 6994,
      "▁leaving": 6995,
      "▁ship,": 6996,
      "▁entr": 6997,
      "▁/7": 6998,
      "▁rolled": 6999,
      "▁company,": 7000,
      "▁matter.\n": 7001,
      "▁password": 7002,
      "▁pressure,": 7003,
      "▁free\n": 7004,
      "▁two\n": 7005,
      "▁Comput": 7006,
      "▁Complet": 7007,
      "necess": 7008,
      "▁creative": 7009,
      "▁stops": 7010,
      "▁computers": 7011,
      "▁courses": 7012,
      "▁sale": 7013,
      "airs": 7014,
      "▁media.\n": 7015,
      "▁headed": 7016,
      "▁yet,": 7017,
      "▁sense.": 7018,
      "▁companies.": 7019,
      "rug": 7020,
      "▁technology\n": 7021,
      "▁technology.\n": 7022,
      "▁question\n": 7023,
      "▁humanity's": 7024,
      "▁here.": 7025,
      "▁nonstop": 7026,
      "▁reasonable": 7027,
      "▁journe": 7028,
      "▁Yup.": 7029,
      "▁snail": 7030,
      "▁jobs": 7031,
      "▁Boe": 7032,
      "▁infinite": 7033,
      "▁burn,": 7034,
      "▁Actual": 7035,
      "▁Appreci": 7036,
      "▁Apparent": 7037,
      "▁droneship.": 7038,
      "▁police": 7039,
      "▁statement": 7040,
      "justing": 7041,
      "▁breaks": 7042,
      "▁initially": 7043,
      "▁issues.\n": 7044,
      "▁approval.": 7045,
      "▁affected": 7046,
      "▁satellite\n": 7047,
      "▁suggests": 7048,
      "▁country,": 7049,
      "▁sentient": 7050,
      "▁geostationary": 7051,
      "▁injuries.": 7052,
      "▁chamber.": 7053,
      "▁Reply": 7054,
      "▁Adjusting": 7055,
      "▁Absolutely.": 7056,
      "stronom": 7057,
      "▁hypoc": 7058,
      "▁&lt;1": 7059,
      "▁Gen3": 7060,
      "▁Technology": 7061,
      "▁journalism": 7062,
      "▁damn": 7063,
      "▁Baseball": 7064,
      "▁prevented": 7065,
      "▁growing": 7066,
      "ervative": 7067,
      "▁square": 7068,
      "▁Massie's": 7069,
      "▁teles": 7070,
      "▁latter.\n": 7071,
      "▁prediction": 7072,
      "▁personally.": 7073,
      "▁horsef*": 7074,
      "expected": 7075,
      "▁(first": 7076,
      "▁lasers\n": 7077,
      "▁advertis": 7078,
      "▁Signing": 7079,
      "▁scale\n": 7080,
      "▁bankruptcy": 7081,
      "▁route": 7082,
      ".1\n": 7083,
      "▁Ironically,": 7084,
      "▁exponentially": 7085,
      "▁IMF": 7086,
      "▁Strong": 7087,
      "▁Strange": 7088,
      "▁reusability.": 7089,
      "▁Improbability": 7090,
      "▁photo\n": 7091,
      "▁Wednes": 7092,
      "▁methane": 7093,
      "▁guaranteed": 7094,
      "▁careful,": 7095,
      "▁communication": 7096,
      "km/h": 7097,
      "▁housing": 7098,
      "▁convinced": 7099,
      "▁cookies": 7100,
      "▁\"\"This": 7101,
      "▁Announcing": 7102,
      "▁allocation": 7103,
      "▁adults": 7104,
      "▁example,": 7105,
      "▁Britain": 7106,
      "▁naturally": 7107,
      "▁OpenAI": 7108,
      "▁McC": 7109,
      "▁actuator": 7110,
      "▁Odds": 7111,
      "▁ambient": 7112,
      "▁Canadian": 7113,
      "▁Christmas!\n": 7114,
      "▁Beautiful": 7115,
      "▁considering": 7116,
      "urrency": 7117,
      "▁esthetic": 7118,
      "▁ooh": 7119,
      "▁unreason": 7120,
      "▁pretending": 7121,
      "▁Approx": 7122,
      "▁(which": 7123,
      "▁\"He": 7124,
      "▁Owner": 7125,
      "▁glitch": 7126,
      "▁meltdown": 7127,
      "▁analysts": 7128,
      "▁northern": 7129,
      "▁powers": 7130,
      "▁inaccurate": 7131,
      "▁miniature": 7132,
      "▁~$500M": 7133,
      "▁caught": 7134,
      "▁owed": 7135,
      "▁Ult": 7136,
      "▁Angeles": 7137,
      "▁Difficult": 7138,
      "▁self-sustaining": 7139,
      "▁congrat": 7140,
      "▁Wednesday": 7141,
      "-in": 7142,
      "-th": 7143,
      "-cl": 7144,
      ".3": 7145,
      "1000": 7146,
      "B,": 7147,
      "DA": 7148,
      "a\"\"": 7149,
      "bac": 7150,
      "burn": 7151,
      "can": 7152,
      "cil": 7153,
      "host": 7154,
      "ker": 7155,
      "kill": 7156,
      "more": 7157,
      "mber": 7158,
      "oint": 7159,
      "pad": 7160,
      "u\n": 7161,
      "vable": 7162,
      "▁um": 7163,
      "▁)\n": 7164,
      "inking": 7165,
      "▁sight": 7166,
      "▁sample": 7167,
      "rees": 7168,
      "reasing": 7169,
      "▁wif": 7170,
      "es:": 7171,
      "▁bunch": 7172,
      "▁bricks": 7173,
      "atr": 7174,
      "▁coun": 7175,
      "inger": 7176,
      "ingly": 7177,
      "▁facing": 7178,
      "is*": 7179,
      "isdom": 7180,
      "oust": 7181,
      "itic": 7182,
      "▁mT": 7183,
      "▁mar": 7184,
      "▁math": 7185,
      "arf": 7186,
      "▁tobac": 7187,
      "▁dat": 7188,
      "▁dome": 7189,
      "▁dare": 7190,
      "▁dude": 7191,
      "▁domain": 7192,
      "▁led": 7193,
      "▁lugg": 7194,
      "▁laugh": 7195,
      "▁host": 7196,
      "▁harn": 7197,
      "▁hrs": 7198,
      "▁T-": 7199,
      "▁Tunnel": 7200,
      "▁TSLA": 7201,
      "stery": 7202,
      "stream": 7203,
      "rogen": 7204,
      "▁nic": 7205,
      "▁SC": 7206,
      "▁SE": 7207,
      "▁Sk": 7208,
      "▁Sn": 7209,
      "▁S.\n": 7210,
      "▁Such": 7211,
      "▁Spr": 7212,
      "▁Sending": 7213,
      "icopter": 7214,
      "▁IR": 7215,
      "▁Irid": 7216,
      "▁gest": 7217,
      "utt": 7218,
      "uttle": 7219,
      "▁Mr.": 7220,
      "▁Av": 7221,
      "▁Wind": 7222,
      "▁Wik": 7223,
      "verage": 7224,
      "▁yr": 7225,
      "idden": 7226,
      "ented": 7227,
      "▁Cars": 7228,
      "▁Cult": 7229,
      "▁item": 7230,
      "▁it?\n": 7231,
      "▁stri": 7232,
      "▁stone": 7233,
      "upid": 7234,
      "upant": 7235,
      "▁we're": 7236,
      "oph": 7237,
      "opia": 7238,
      "il\n": 7239,
      "ili": 7240,
      "▁will.": 7241,
      "▁N2": 7242,
      "▁Fil": 7243,
      "▁Ho": 7244,
      "est.": 7245,
      "▁rn": 7246,
      "cell": 7247,
      "▁Bought": 7248,
      "▁BTC": 7249,
      "▁Year": 7250,
      "▁you?\n": 7251,
      "▁DJ": 7252,
      "▁Dep": 7253,
      "▁Drag": 7254,
      "▁Dual": 7255,
      "▁Droneship": 7256,
      "▁Pot": 7257,
      "▁PDT": 7258,
      "▁Games": 7259,
      "▁Emp": 7260,
      "▁Equ": 7261,
      "▁gold": 7262,
      "▁shape": 7263,
      "▁Leg": 7264,
      "▁Lets": 7265,
      "▁enrout": 7266,
      "▁doo,": 7267,
      "and*": 7268,
      "▁asks": 7269,
      "ants": 7270,
      "raud": 7271,
      "▁absolut": 7272,
      "▁(A": 7273,
      "▁(al": 7274,
      "▁Os": 7275,
      "▁align": 7276,
      "▁lob": 7277,
      "▁loaded": 7278,
      "▁losing": 7279,
      "▁chose": 7280,
      "▁cherry": 7281,
      "▁Model\n": 7282,
      "ard\n": 7283,
      "▁unexpected": 7284,
      "ain.": 7285,
      "ares": 7286,
      "ive.\n": 7287,
      "▁Weird": 7288,
      "▁Vast": 7289,
      "▁arc": 7290,
      "▁more,": 7291,
      "▁mystery": 7292,
      "▁poor": 7293,
      "iving": 7294,
      "▁overall": 7295,
      "▁great!": 7296,
      "efore": 7297,
      "▁launchpad": 7298,
      "▁too!": 7299,
      "▁shouldn't": 7300,
      "ite\n": 7301,
      "▁Gold": 7302,
      "▁applies": 7303,
      "▁~0": 7304,
      "▁~60": 7305,
      "▁sooner": 7306,
      "oof": 7307,
      "▁income": 7308,
      "bell": 7309,
      "▁sponge": 7310,
      "▁\"\":": 7311,
      "▁\"\"F": 7312,
      "▁\"\"N": 7313,
      "▁intended": 7314,
      "▁recy": 7315,
      "▁autose": 7316,
      "▁autoste": 7317,
      "ating.\n": 7318,
      "▁\"B": 7319,
      "▁residual": 7320,
      "▁Reading": 7321,
      "▁accumul": 7322,
      "▁boom": 7323,
      "▁boys": 7324,
      "▁Shuttle": 7325,
      "▁Prot": 7326,
      "▁then\n": 7327,
      "▁Onion": 7328,
      "▁helicopter": 7329,
      "▁design,": 7330,
      "▁design.": 7331,
      "▁crane": 7332,
      "▁US,": 7333,
      "▁sure!\n": 7334,
      "▁ended": 7335,
      "▁off.": 7336,
      "▁off.\n": 7337,
      "▁safest": 7338,
      "▁grade": 7339,
      "▁dism": 7340,
      "▁disp": 7341,
      "▁display": 7342,
      "▁*and*": 7343,
      "▁sufficient": 7344,
      "▁phil": 7345,
      "▁phones": 7346,
      "▁imo\n": 7347,
      "▁change.\n": 7348,
      "▁ever.": 7349,
      "▁small,": 7350,
      "eroid": 7351,
      "▁leg.": 7352,
      "▁version\n": 7353,
      "▁version.": 7354,
      "▁little\n": 7355,
      "▁Heavy,": 7356,
      "▁hours.\n": 7357,
      "▁reminder": 7358,
      "▁/3": 7359,
      "▁brand": 7360,
      "iously": 7361,
      "▁ski": 7362,
      "▁invited": 7363,
      "▁Unless": 7364,
      "▁Starman": 7365,
      "▁money.\n": 7366,
      "▁Seeing": 7367,
      "▁China\n": 7368,
      "▁China,": 7369,
      "▁China.": 7370,
      "▁China.\n": 7371,
      "▁But,": 7372,
      "▁Butt": 7373,
      "▁factory.": 7374,
      "▁holds": 7375,
      "▁Sorry\n": 7376,
      "▁night.\n": 7377,
      "▁reuse": 7378,
      "▁compete": 7379,
      "▁competitor": 7380,
      "▁media.": 7381,
      "rench": 7382,
      "▁volt": 7383,
      "▁handl": 7384,
      "▁headline": 7385,
      "▁instant": 7386,
      "▁moon,": 7387,
      "▁lightning": 7388,
      "▁unveils": 7389,
      "▁risk.\n": 7390,
      "▁Wow\n": 7391,
      "▁Wow!\n": 7392,
      "▁thanks\n": 7393,
      "▁recommended": 7394,
      "▁Q1": 7395,
      "▁Q4": 7396,
      "arming": 7397,
      "▁humanity\n": 7398,
      "▁humanity.": 7399,
      "ernel": 7400,
      "▁hardware.": 7401,
      "▁reason.\n": 7402,
      "▁Been": 7403,
      "▁obvious.\n": 7404,
      "▁rock\n": 7405,
      "▁details.": 7406,
      "▁details.\n": 7407,
      "▁Impress": 7408,
      "▁secondary": 7409,
      "▁keeping": 7410,
      "▁welcome!": 7411,
      "▁Still,": 7412,
      "▁raising": 7413,
      "▁govt\n": 7414,
      "▁Cycling": 7415,
      "▁fine\n": 7416,
      "▁nearby": 7417,
      "▁disclo": 7418,
      "50%": 7419,
      "▁imo.\n": 7420,
      "▁droneship.\n": 7421,
      "▁toughest": 7422,
      "▁ft,": 7423,
      "▁progress.": 7424,
      "▁weather,": 7425,
      "▁edge": 7426,
      "▁traffic.\n": 7427,
      "▁sensitive": 7428,
      "▁HW1": 7429,
      "▁~20": 7430,
      "▁batteries.\n": 7431,
      "▁sheer": 7432,
      "▁shielding": 7433,
      "ruption": 7434,
      "▁Turning": 7435,
      "▁Took": 7436,
      "▁Loop": 7437,
      "▁deadly": 7438,
      "▁exceptional": 7439,
      "▁site.": 7440,
      "▁beautiful\n": 7441,
      "▁judic": 7442,
      "▁flap": 7443,
      "▁General": 7444,
      "▁connected": 7445,
      "▁Upcoming": 7446,
      "▁promis": 7447,
      "▁preventing": 7448,
      "▁Didnt": 7449,
      "▁arrived": 7450,
      "▁tires": 7451,
      "▁releases": 7452,
      "▁yeah\n": 7453,
      "▁telemetry": 7454,
      "▁btw\n": 7455,
      "▁Insta": 7456,
      "▁conditions.\n": 7457,
      "▁shareholder": 7458,
      "▁tuned": 7459,
      "▁Contin": 7460,
      "▁investigate.\n": 7461,
      "▁cross-c": 7462,
      "▁thread\n": 7463,
      "▁According": 7464,
      "▁inspiring": 7465,
      "▁estate": 7466,
      "▁degree": 7467,
      "▁arms": 7468,
      "▁maximize": 7469,
      "▁hydrogen": 7470,
      "▁houses": 7471,
      "▁survival": 7472,
      "▁Easy": 7473,
      "▁convinces": 7474,
      "▁\"At": 7475,
      "▁controlled": 7476,
      "▁furth": 7477,
      "▁Remind": 7478,
      "▁Announce": 7479,
      "iosis": 7480,
      "▁chees": 7481,
      "▁trippy": 7482,
      "▁w/o": 7483,
      "▁Tomorrow": 7484,
      "▁foolish": 7485,
      "▁Flint": 7486,
      "▁\"\"scientists": 7487,
      "▁Korea": 7488,
      "▁Busted\n": 7489,
      "▁bumper": 7490,
      "▁Palo": 7491,
      "▁Brownsville": 7492,
      "▁Woohoo,": 7493,
      "▁code.": 7494,
      "▁Memor": 7495,
      "▁strategy": 7496,
      "▁torque,": 7497,
      "▁rumor": 7498,
      "▁deploy\n": 7499,
      "▁believing.\n": 7500,
      "▁uncertainty": 7501,
      "-shirt": 7502,
      "▁superhum": 7503,
      "▁council": 7504,
      "▁tobacco": 7505,
      "▁harness": 7506,
      "▁Iridium": 7507,
      "▁Culture": 7508,
      "▁enroute": 7509,
      "▁autosequence": 7510,
      "!?": 7511,
      "'\n": 7512,
      "'s,": 7513,
      "-of": 7514,
      "-check": 7515,
      "/3": 7516,
      "/Tesla": 7517,
      "1/": 7518,
      "8%": 7519,
      "E,": 7520,
      "EPA": 7521,
      "GI": 7522,
      "OE": 7523,
      "P\n": 7524,
      "aign": 7525,
      "aft": 7526,
      "aution": 7527,
      "een": 7528,
      "ext": 7529,
      "fric": 7530,
      "hammer": 7531,
      "kt": 7532,
      "limate": 7533,
      "lenn": 7534,
      "mo": 7535,
      "och": 7536,
      "rif": 7537,
      "sight": 7538,
      "uish": 7539,
      "v2": 7540,
      "vie": 7541,
      "will": 7542,
      "x\n": 7543,
      "▁x": 7544,
      "▁ion": 7545,
      "in\n": 7546,
      "inj": 7547,
      "inos": 7548,
      "▁average": 7549,
      "▁sac": 7550,
      "▁south": 7551,
      "▁sides": 7552,
      "▁wings": 7553,
      "▁wisdom": 7554,
      "orch": 7555,
      "▁bang": 7556,
      "▁cg": 7557,
      "▁couple": 7558,
      "▁fraud": 7559,
      "ison": 7560,
      "oul": 7561,
      "ouri": 7562,
      "itol": 7563,
      "▁m/s": 7564,
      "ancy": 7565,
      "ara": 7566,
      "▁ps": 7567,
      "▁polar": 7568,
      "▁plast": 7569,
      "▁dense": 7570,
      "▁liter": 7571,
      "▁TBC": 7572,
      "▁TCP": 7573,
      "mph": 7574,
      "▁Sub": 7575,
      "▁Saf": 7576,
      "▁I\n": 7577,
      "▁galactic": 7578,
      "▁rein": 7579,
      "ots": 7580,
      "▁Mac": 7581,
      "▁Mine": 7582,
      "▁be,": 7583,
      "▁beam": 7584,
      "▁beer.": 7585,
      "▁Afric": 7586,
      "▁anomal": 7587,
      "▁for\n": 7588,
      "▁on,": 7589,
      "▁earth": 7590,
      "▁Thur": 7591,
      "▁Think": 7592,
      "under": 7593,
      "odes": 7594,
      "▁Cause": 7595,
      "▁Custom": 7596,
      "▁CNN": 7597,
      "▁sock": 7598,
      "▁stress": 7599,
      "▁Tesla!\n": 7600,
      "▁Tesla's": 7601,
      "optim": 7602,
      "ilogy": 7603,
      "▁neither": 7604,
      "▁Net": 7605,
      "▁Nature": 7606,
      "▁FP": 7607,
      "▁Fre": 7608,
      "▁Fit": 7609,
      "▁Face": 7610,
      "▁Fully": 7611,
      "▁Fear": 7612,
      "▁rally": 7613,
      "▁rated": 7614,
      "▁but\n": 7615,
      "▁prod": 7616,
      "▁proper": 7617,
      "▁Bon": 7618,
      "▁Y\n": 7619,
      "▁Dark": 7620,
      "▁DOE": 7621,
      "▁Pics": 7622,
      "▁Gas": 7623,
      "▁Glenn": 7624,
      "▁vict": 7625,
      "▁Ess": 7626,
      "▁Egg": 7627,
      "▁shd": 7628,
      "▁trilogy": 7629,
      "▁hazard": 7630,
      "▁sex": 7631,
      "▁seam": 7632,
      "ity\n": 7633,
      "rapped": 7634,
      "▁jury": 7635,
      "▁concept": 7636,
      "▁(P": 7637,
      "▁(the": 7638,
      "▁(like": 7639,
      "▁Ok": 7640,
      "▁los": 7641,
      "▁chutes": 7642,
      "▁una": 7643,
      "▁uncover": 7644,
      "▁kale": 7645,
      "▁Stainless": 7646,
      "arting": 7647,
      "▁carmakers": 7648,
      "▁Jour": 7649,
      "rys": 7650,
      "▁good!\n": 7651,
      "▁VTO": 7652,
      "▁preburn": 7653,
      "▁Spacecraft": 7654,
      "▁no,": 7655,
      "▁pls": 7656,
      "▁plot": 7657,
      "▁adapt": 7658,
      "ublic": 7659,
      "▁taugh": 7660,
      "▁people!\n": 7661,
      "ite.\n": 7662,
      "▁there!\n": 7663,
      "▁Govern": 7664,
      "▁one,": 7665,
      "▁SpaceX/Tesla": 7666,
      "▁leeward": 7667,
      "▁desert": 7668,
      "▁Expect": 7669,
      "▁Excess": 7670,
      "▁hard\n": 7671,
      "▁spo": 7672,
      "▁drivers": 7673,
      "▁long,": 7674,
      "▁perman": 7675,
      "▁partly": 7676,
      "▁partial": 7677,
      "▁quant": 7678,
      "▁Amish": 7679,
      "▁Note": 7680,
      "▁fun!": 7681,
      "ensing": 7682,
      "▁Charl": 7683,
      "▁\"O": 7684,
      "▁reson": 7685,
      "▁Dragon\n": 7686,
      "▁lot,": 7687,
      "▁server": 7688,
      "▁Project": 7689,
      "▁interse": 7690,
      "▁think.": 7691,
      "▁does.\n": 7692,
      "▁true.\n": 7693,
      "▁big\n": 7694,
      "▁things\n": 7695,
      "redit": 7696,
      "licit": 7697,
      "▁software.\n": 7698,
      "▁air.": 7699,
      "▁airplan": 7700,
      "▁Societ": 7701,
      "▁safe.": 7702,
      "▁Kill": 7703,
      "▁scam": 7704,
      "▁same\n": 7705,
      "▁short-sell": 7706,
      "▁Dog": 7707,
      "▁show.\n": 7708,
      "▁far\n": 7709,
      "ellow": 7710,
      "▁humans\n": 7711,
      "▁LA-S": 7712,
      "▁missions.": 7713,
      "▁booster.": 7714,
      "▁count\n": 7715,
      "▁cool.\n": 7716,
      "▁committed": 7717,
      "▁sec\n": 7718,
      "▁something\n": 7719,
      "▁Dev": 7720,
      "▁hours\n": 7721,
      "▁medium": 7722,
      "▁upgrad": 7723,
      "ian\n": 7724,
      "▁matter\n": 7725,
      "▁Univers": 7726,
      "onda": 7727,
      "▁range.\n": 7728,
      "▁levels.": 7729,
      "▁reviews": 7730,
      "▁Prec": 7731,
      "▁manipul": 7732,
      "▁engineering.": 7733,
      "▁detour": 7734,
      "▁decided": 7735,
      "▁side,": 7736,
      "▁salt": 7737,
      "▁nets": 7738,
      "▁ownership": 7739,
      "▁moon.\n": 7740,
      "▁road,": 7741,
      "▁sense\n": 7742,
      "▁movement": 7743,
      "ability,": 7744,
      "▁others)": 7745,
      "▁...\"\n": 7746,
      "▁flush": 7747,
      "▁turning": 7748,
      "▁away.\n": 7749,
      "▁price,": 7750,
      "▁drift": 7751,
      "▁hotel": 7752,
      "▁terms": 7753,
      "▁obvious,": 7754,
      "▁deeply": 7755,
      "▁piece\n": 7756,
      "▁Arm": 7757,
      "▁wheels,": 7758,
      "▁redund": 7759,
      "▁Between": 7760,
      "▁fine.\n": 7761,
      "▁performance,": 7762,
      "▁fuels": 7763,
      "▁machines": 7764,
      "▁replies": 7765,
      "▁broth": 7766,
      "▁checks": 7767,
      "▁president": 7768,
      "▁species": 7769,
      "▁announcement.": 7770,
      "▁friend.": 7771,
      "▁historical": 7772,
      "▁reporting": 7773,
      "ynd": 7774,
      "▁ultimate": 7775,
      "▁solution.\n": 7776,
      "▁date,": 7777,
      "▁issues.": 7778,
      "▁relatively": 7779,
      "▁traffic,": 7780,
      "▁sunset": 7781,
      "▁merit": 7782,
      "▁Norway\n": 7783,
      "▁tricky": 7784,
      "▁purely": 7785,
      "▁Movie": 7786,
      "▁museum": 7787,
      "▁priority.": 7788,
      "▁aborts,": 7789,
      "▁Anything": 7790,
      "▁charger": 7791,
      "▁incentive": 7792,
      "▁&gt;&gt;": 7793,
      "▁Harder": 7794,
      "▁beautiful.\n": 7795,
      "▁calend": 7796,
      "▁Agreed.": 7797,
      "▁anyway,": 7798,
      "▁Deeply": 7799,
      "▁stories": 7800,
      "▁alone.\n": 7801,
      "▁Dawn": 7802,
      "▁Obam": 7803,
      "▁reduced": 7804,
      "▁telep": 7805,
      "▁underway\n": 7806,
      "▁$2500": 7807,
      "▁aliens\n": 7808,
      "▁tmrw\n": 7809,
      "▁blows": 7810,
      "▁counteract": 7811,
      "▁clarific": 7812,
      "▁criticism.": 7813,
      "▁navigate": 7814,
      "▁business": 7815,
      "▁Guess": 7816,
      "▁illust": 7817,
      "▁retrofit": 7818,
      "▁essentially": 7819,
      "▁accident\n": 7820,
      "▁epic": 7821,
      "▁Austin.": 7822,
      "▁enabling": 7823,
      "▁anti-cons": 7824,
      "itude,": 7825,
      "▁democratic": 7826,
      "▁contribut": 7827,
      "▁PCR": 7828,
      "▁independently": 7829,
      "▁occur": 7830,
      "▁method": 7831,
      "▁lawsuit": 7832,
      "▁fiction": 7833,
      "▁guarantee": 7834,
      "▁individuals,": 7835,
      "▁Paradise": 7836,
      ".com\n": 7837,
      "▁campaign": 7838,
      "▁encounter": 7839,
      "▁facility": 7840,
      "▁Easier": 7841,
      "▁worry,": 7842,
      "pirationally": 7843,
      "▁(yeah": 7844,
      "▁synch": 7845,
      "▁\"\"The": 7846,
      "▁meaningful": 7847,
      "▁\"Was": 7848,
      "▁RIP.\n": 7849,
      "▁Thruster": 7850,
      "▁carried": 7851,
      "▁boring\n": 7852,
      "▁Aston": 7853,
      "▁Banks.": 7854,
      "▁compression": 7855,
      "▁apogee": 7856,
      "▁Audi": 7857,
      "/kg": 7858,
      "▁Slack": 7859,
      "▁Capitol": 7860,
      "▁Navigation": 7861,
      "▁coffee": 7862,
      "▁Obvious": 7863,
      "▁insertion": 7864,
      "▁enjoy": 7865,
      "▁Dojo": 7866,
      "▁Daimler": 7867,
      "▁Otherwise,": 7868,
      "▁neutral": 7869,
      "▁Business": 7870,
      "▁V7.1\n": 7871,
      "▁Ashlee": 7872,
      "▁Commissioner": 7873,
      "▁bomb.\n": 7874,
      "andoned": 7875,
      "▁insanely": 7876,
      "▁Norwegian": 7877,
      "▁gestures": 7878,
      "▁superhuman": 7879,
      "▁plastic": 7880,
      "▁anomalies": 7881,
      "▁Faceb": 7882,
      "▁VTOL": 7883,
      "▁taught": 7884,
      "▁LA-SF": 7885,
      "-g": 7886,
      "-st": 7887,
      "-ra": 7888,
      "/P": 7889,
      "/l": 7890,
      "1,": 7891,
      "400": 7892,
      "?\"\"\"\n": 7893,
      "BQ": 7894,
      "DC": 7895,
      "FO": 7896,
      "M\n": 7897,
      "M,": 7898,
      "NA": 7899,
      "OS": 7900,
      "TV": 7901,
      "aic": 7902,
      "awn": 7903,
      "bic": 7904,
      "ded": 7905,
      "ey\n": 7906,
      "g\n": 7907,
      "ipp": 7908,
      "iary": 7909,
      "kind": 7910,
      "mon": 7911,
      "ns": 7912,
      "nter": 7913,
      "oz": 7914,
      "rbur": 7915,
      "rding": 7916,
      "test": 7917,
      "ves\n": 7918,
      "zero": 7919,
      "▁tied": 7920,
      "in'": 7921,
      "▁ast": 7922,
      "▁aeros": 7923,
      "ergy": 7924,
      "▁sigh\n": 7925,
      "▁sudden": 7926,
      "▁thor": 7927,
      "at\n": 7928,
      "at.": 7929,
      "▁cord": 7930,
      "▁cath": 7931,
      "▁father": 7932,
      "itas": 7933,
      "ities\n": 7934,
      "▁mkt": 7935,
      "an)": 7936,
      "anz": 7937,
      "anoid": 7938,
      "arah": 7939,
      "▁psy": 7940,
      "▁har": 7941,
      "▁hors": 7942,
      "▁hits": 7943,
      "▁hidden": 7944,
      "▁Til": 7945,
      "▁Term": 7946,
      "▁Tax": 7947,
      "rost": 7948,
      "▁inver": 7949,
      "▁induction": 7950,
      "ala": 7951,
      "▁Set": 7952,
      "▁Sha": 7953,
      "icking": 7954,
      "▁Ice": 7955,
      "▁gend": 7956,
      "▁reverse": 7957,
      "otic": 7958,
      "otely": 7959,
      "otos": 7960,
      "▁be.\n": 7961,
      "▁Astronauts": 7962,
      "owea": 7963,
      "▁y\n": 7964,
      "▁yaw": 7965,
      "enter": 7966,
      "ctim": 7967,
      "▁Cut": 7968,
      "▁Correct": 7969,
      "allow": 7970,
      "tered": 7971,
      "▁stable": 7972,
      "▁stag": 7973,
      "▁station.": 7974,
      "thing\n": 7975,
      "used": 7976,
      "▁None": 7977,
      "▁National": 7978,
      "▁Nrbur": 7979,
      "▁HEPA": 7980,
      "▁ring": 7981,
      "▁rac": 7982,
      "▁prove": 7983,
      "▁Bost": 7984,
      "▁you!\n": 7985,
      "▁Des": 7986,
      "▁Porsch": 7987,
      "▁Grav": 7988,
      "▁Early": 7989,
      "▁go,": 7990,
      "▁try.": 7991,
      "▁moved": 7992,
      "▁haven": 7993,
      "ate.\n": 7994,
      "▁do.\n": 7995,
      "▁does\n": 7996,
      "▁Roc": 7997,
      "▁Rese": 7998,
      "olies": 7999,
      "▁deck": 8000,
      "▁seas": 8001,
      "ums": 8002,
      "ried": 8003,
      "▁(at": 8004,
      "▁(most": 8005,
      "▁(love": 8006,
      "▁Opp": 8007,
      "▁Off": 8008,
      "▁altern": 8009,
      "▁loses": 8010,
      "▁lovely": 8011,
      "▁chea": 8012,
      "▁chief": 8013,
      "▁Their": 8014,
      "quis": 8015,
      "▁uncomp": 8016,
      "▁Step": 8017,
      "▁up!\n": 8018,
      "▁compar": 8019,
      "ssibly": 8020,
      "▁car!\n": 8021,
      "astroph": 8022,
      "ements": 8023,
      "▁We're": 8024,
      "▁UK": 8025,
      "▁good?\n": 8026,
      "▁rockets\n": 8027,
      "▁pocket": 8028,
      "▁high-s": 8029,
      "ives.": 8030,
      "▁overse": 8031,
      "▁overha": 8032,
      "▁oversight": 8033,
      "▁launch,": 8034,
      "▁land\n": 8035,
      "ite,": 8036,
      "▁next.\n": 8037,
      "▁tests.": 8038,
      "atteries": 8039,
      "ory\n": 8040,
      "▁sooner.": 8041,
      "▁Nobody": 8042,
      "rict": 8043,
      "▁amend": 8044,
      "▁rightly": 8045,
      "▁days,": 8046,
      "▁monke": 8047,
      "▁contains": 8048,
      "▁span)": 8049,
      "▁Alt": 8050,
      "▁longer.\n": 8051,
      "▁knight": 8052,
      "▁who'd": 8053,
      "▁partially": 8054,
      "▁team.\n": 8055,
      "▁qual": 8056,
      "osal": 8057,
      "▁Chrys": 8058,
      "▁\"D": 8059,
      "▁elements": 8060,
      "▁landing,": 8061,
      "week": 8062,
      "▁lot.": 8063,
      "▁point.\n": 8064,
      "▁Product": 8065,
      "▁did\n": 8066,
      "▁orbit.\n": 8067,
      "▁power,": 8068,
      "▁explicit": 8069,
      "icked": 8070,
      "▁Autobahn": 8071,
      "▁Exactly,": 8072,
      "▁thrust.\n": 8073,
      "phob": 8074,
      "▁Rob": 8075,
      "▁Roll": 8076,
      "▁Royal": 8077,
      "ressure": 8078,
      "▁down.\n": 8079,
      "▁space.\n": 8080,
      "▁life,": 8081,
      "▁verb": 8082,
      "▁endurance": 8083,
      "▁SoC": 8084,
      "▁:3": 8085,
      "▁best.": 8086,
      "▁help,": 8087,
      "▁-&gt;": 8088,
      "▁There's": 8089,
      "▁*is*": 8090,
      "erto": 8091,
      "▁fast,": 8092,
      "▁faster,": 8093,
      "▁suit,": 8094,
      "▁subst": 8095,
      "▁showed": 8096,
      "pector": 8097,
      "▁throughput": 8098,
      "▁retract": 8099,
      "▁obt": 8100,
      "▁supports": 8101,
      "▁cool!\n": 8102,
      "erman": 8103,
      "▁Look": 8104,
      "▁secured": 8105,
      "▁AI.\n": 8106,
      "▁reading\n": 8107,
      "▁Heavy\n": 8108,
      "utional": 8109,
      "▁remotely": 8110,
      "▁Enough": 8111,
      "▁Energy": 8112,
      "▁mode,": 8113,
      "▁brilliant": 8114,
      "▁Probably\n": 8115,
      "▁importantly,": 8116,
      "▁controls": 8117,
      "▁invas": 8118,
      "▁passive": 8119,
      "▁Univ": 8120,
      "▁release,": 8121,
      "▁reviewing": 8122,
      "▁reviewed": 8123,
      "▁reply": 8124,
      "▁reporter": 8125,
      "▁manual": 8126,
      "▁paranoid": 8127,
      "▁creator": 8128,
      "▁decad": 8129,
      "▁declin": 8130,
      "▁decades": 8131,
      "▁vibe": 8132,
      "▁~100": 8133,
      "▁fly\n": 8134,
      "▁apolog": 8135,
      "▁sense.\n": 8136,
      "▁covered.\n": 8137,
      "▁Rockets": 8138,
      "▁others\n": 8139,
      "▁investig": 8140,
      "lade": 8141,
      "▁America,": 8142,
      "▁constrain": 8143,
      "▁closest": 8144,
      "▁tweeting": 8145,
      "▁wrong,": 8146,
      "▁truck\n": 8147,
      "resh": 8148,
      "▁SN4": 8149,
      "▁SN5": 8150,
      "▁events": 8151,
      "▁raises": 8152,
      "▁distrib": 8153,
      "▁barri": 8154,
      "▁barrel": 8155,
      "▁oxygen,": 8156,
      "▁generalized": 8157,
      "▁optimal": 8158,
      "▁correct,": 8159,
      "▁motor,": 8160,
      "▁largely": 8161,
      "▁checking": 8162,
      "▁speculation": 8163,
      "▁law,": 8164,
      "▁difficult.": 8165,
      "▁droneship,": 8166,
      "▁Photos": 8167,
      "▁causes": 8168,
      "▁words,": 8169,
      "▁functional": 8170,
      "▁summer": 8171,
      "▁solution.": 8172,
      "▁multiple": 8173,
      "▁purpose": 8174,
      "▁program\n": 8175,
      "▁protest": 8176,
      "▁logs": 8177,
      "ribed": 8178,
      "▁catastroph": 8179,
      "▁ok!\n": 8180,
      "▁F9R": 8181,
      "▁atmospheric": 8182,
      "▁interesting\n": 8183,
      "▁chamber\n": 8184,
      "/hr": 8185,
      "▁warming.\n": 8186,
      "▁towel": 8187,
      "▁concrete": 8188,
      "▁Hardcore": 8189,
      "▁exception": 8190,
      "▁relev": 8191,
      "▁figured": 8192,
      "▁doors\n": 8193,
      "▁includes": 8194,
      "▁Same\n": 8195,
      "▁processing": 8196,
      "▁atmosphere.\n": 8197,
      "▁carrying": 8198,
      "▁promote": 8199,
      "▁Result": 8200,
      "▁premi": 8201,
      "▁Committee": 8202,
      "▁height\n": 8203,
      "▁corporate": 8204,
      "-cur": 8205,
      "▁guys!\n": 8206,
      "▁concerned": 8207,
      "▁scientific": 8208,
      "ypse": 8209,
      "▁crewed": 8210,
      "▁curious": 8211,
      "▁Currently": 8212,
      "▁heating.": 8213,
      "▁Feature": 8214,
      "▁Yes!": 8215,
      "▁enables": 8216,
      "▁(~60": 8217,
      "▁V1.0": 8218,
      "proof": 8219,
      "▁Started": 8220,
      "▁Monday.\n": 8221,
      "▁Wait": 8222,
      "▁Chica,": 8223,
      "▁servicing": 8224,
      "▁Planning": 8225,
      "▁fictional": 8226,
      "▁Herbert": 8227,
      "▁Indeed,": 8228,
      "▁maximum": 8229,
      "▁hydrophob": 8230,
      "▁gigawatt": 8231,
      "▁projects": 8232,
      "▁Used": 8233,
      "▁facilities": 8234,
      "▁shutdown": 8235,
      "▁switched": 8236,
      "▁\"Inter": 8237,
      "▁ventilators": 8238,
      "OPV": 8239,
      "▁\"\"break": 8240,
      "▁\"Good": 8241,
      "ledgehammer": 8242,
      "▁bodies": 8243,
      "▁enemy": 8244,
      "▁real-time": 8245,
      "▁Boeing/": 8246,
      "▁dollars": 8247,
      "▁(with": 8248,
      "▁British": 8249,
      "▁surprisingly": 8250,
      "▁Schrding": 8251,
      "▁Fairing": 8252,
      "▁August\n": 8253,
      "▁Holding": 8254,
      "▁V10.0": 8255,
      "▁silly": 8256,
      "sequences": 8257,
      "▁Nevad": 8258,
      "▁Nevada": 8259,
      "▁Godot.": 8260,
      "▁buttons": 8261,
      "▁reservation": 8262,
      "▁apocalypse": 8263,
      "▁dialog": 8264,
      "▁Ahem": 8265,
      "▁subtle.\n": 8266,
      "▁browser": 8267,
      "▁stabilize": 8268,
      "▁Guaranteed": 8269,
      "▁symbiosis": 8270,
      "uisher": 8271,
      "onym": 8272,
      "▁content.\n": 8273,
      "▁practical": 8274,
      "▁ticket": 8275,
      "▁lidar": 8276,
      "▁extinguisher": 8277,
      "▁Horiz": 8278,
      "▁Appreciate": 8279,
      "▁telescop": 8280,
      "▁actuator.": 8281,
      "▁voltage": 8282,
      "▁Announcement": 8283,
      "▁aerospace": 8284,
      "oweapon": 8285,
      "ctimon": 8286,
      "▁Nrburgr": 8287,
      "▁haven't": 8288,
      "▁Research": 8289,
      "▁uncompeted": 8290,
      "▁high-speed": 8291,
      "▁overhaul": 8292,
      "▁Chrysler": 8293,
      "▁hydrophobic": 8294,
      "▁\"Interesting": 8295,
      "):": 8296,
      "+,": 8297,
      "-l": 8298,
      "-lo": 8299,
      "-de": 8300,
      "/X": 8301,
      "/or": 8302,
      "/bot": 8303,
      "/AI": 8304,
      "14": 8305,
      "3/X": 8306,
      "BM": 8307,
      "FF": 8308,
      "Haw": 8309,
      "L\n": 8310,
      "LY": 8311,
      "RI": 8312,
      "]\n": 8313,
      "aac": 8314,
      "bien": 8315,
      "creen": 8316,
      "fire": 8317,
      "ger\n": 8318,
      "gency": 8319,
      "h,": 8320,
      "hance": 8321,
      "hock": 8322,
      "house": 8323,
      "kes\n": 8324,
      "lar": 8325,
      "lation": 8326,
      "lich": 8327,
      "my": 8328,
      "mod": 8329,
      "mund": 8330,
      "meal": 8331,
      "range": 8332,
      "uk": 8333,
      "uerto": 8334,
      "x-w": 8335,
      "▁i.": 8336,
      "▁tar": 8337,
      "▁tile": 8338,
      "inent": 8339,
      "ines\n": 8340,
      "▁awe": 8341,
      "▁san": 8342,
      "▁sick": 8343,
      "▁sonic": 8344,
      "▁select": 8345,
      "reh": 8346,
      "▁wire": 8347,
      "▁wider": 8348,
      "▁warning": 8349,
      "▁bed": 8350,
      "▁bull": 8351,
      "▁bake": 8352,
      "▁billions": 8353,
      "▁blast": 8354,
      "ato": 8355,
      "ates\n": 8356,
      "atable": 8357,
      "atmeal": 8358,
      "▁cate": 8359,
      "▁cous": 8360,
      "▁fish": 8361,
      "isin": 8362,
      "isely": 8363,
      "ourage": 8364,
      "▁m\n": 8365,
      "▁mad": 8366,
      "▁mall": 8367,
      "▁mand": 8368,
      "ana": 8369,
      "ario": 8370,
      "▁to,": 8371,
      "▁pill": 8372,
      "▁pace": 8373,
      "▁ox": 8374,
      "▁oatmeal": 8375,
      "▁dust": 8376,
      "▁draft": 8377,
      "▁the\n": 8378,
      "▁theore": 8379,
      "▁lic": 8380,
      "▁lung": 8381,
      "▁horn": 8382,
      "▁Tough": 8383,
      "▁Tap": 8384,
      "▁Trick": 8385,
      "▁TED": 8386,
      "▁in,": 8387,
      "▁in.\n": 8388,
      "alty": 8389,
      "mpting": 8390,
      "▁nested": 8391,
      "▁Sher": 8392,
      "ic.\n": 8393,
      "icting": 8394,
      "ica\n": 8395,
      "ett": 8396,
      "eta\"\"": 8397,
      "ashing": 8398,
      "▁Ill": 8399,
      "▁gall": 8400,
      "▁gather": 8401,
      "ve.\n": 8402,
      "othing": 8403,
      "▁Mid": 8404,
      "▁Alex": 8405,
      "▁anim": 8406,
      "▁forced": 8407,
      "illerson": 8408,
      "ow\n": 8409,
      "▁eating": 8410,
      "▁Wings": 8411,
      "▁Thaic": 8412,
      "▁yup\n": 8413,
      "ent\n": 8414,
      "entation": 8415,
      "▁Ct": 8416,
      "▁Camp": 8417,
      "▁Cur": 8418,
      "tering": 8419,
      "▁sole": 8420,
      "▁st\n": 8421,
      "▁stowed": 8422,
      "imes\n": 8423,
      "ope": 8424,
      "opark": 8425,
      "use": 8426,
      "il.": 8427,
      "▁whom": 8428,
      "▁Nut": 8429,
      "▁Far": 8430,
      "▁Fun": 8431,
      "▁Flying": 8432,
      "▁French": 8433,
      "▁Hist": 8434,
      "▁butter": 8435,
      "▁prohibit": 8436,
      "▁Buff": 8437,
      "▁Bios": 8438,
      "▁Yep": 8439,
      "▁Prav": 8440,
      "▁Puerto": 8441,
      "▁Gro": 8442,
      "▁vig": 8443,
      "▁ET": 8444,
      "▁Egy": 8445,
      "▁EFF": 8446,
      "▁go.\n": 8447,
      "▁shill": 8448,
      "▁shall": 8449,
      "▁Little": 8450,
      "▁Lmk": 8451,
      "▁Lockhe": 8452,
      "▁LTE": 8453,
      "▁enorm": 8454,
      "▁dozen": 8455,
      "▁RD": 8456,
      "▁Ra": 8457,
      "▁Ric": 8458,
      "▁Rel": 8459,
      "▁Rom": 8460,
      "▁Rive": 8461,
      "▁Range": 8462,
      "▁Rush": 8463,
      "▁by\"\n": 8464,
      "ity,": 8465,
      "ravity": 8466,
      "▁jet": 8467,
      "▁jamm": 8468,
      "▁worried": 8469,
      "▁(v": 8470,
      "▁(very": 8471,
      "▁(of": 8472,
      "▁OS": 8473,
      "▁was\n": 8474,
      "▁chass": 8475,
      "quiv": 8476,
      "paceX": 8477,
      "▁kW": 8478,
      "▁k/week": 8479,
      "▁kernel": 8480,
      "▁compl": 8481,
      "▁us.\n": 8482,
      "▁usable": 8483,
      "▁tears": 8484,
      "cont": 8485,
      "▁V6": 8486,
      "▁Var": 8487,
      "▁heatsh": 8488,
      "ments.": 8489,
      "▁rocket!\n": 8490,
      "▁cancel": 8491,
      "▁imped": 8492,
      "▁no.\n": 8493,
      "▁high-": 8494,
      "▁Inconel": 8495,
      "▁overp": 8496,
      "▁over.\n": 8497,
      "soft": 8498,
      "argo": 8499,
      "▁Wh/kg": 8500,
      "▁there?\n": 8501,
      "▁soon...\n": 8502,
      "▁among": 8503,
      "ance.": 8504,
      "▁context": 8505,
      "▁Although": 8506,
      "▁%\n": 8507,
      "▁\"\"M": 8508,
      "▁knife": 8509,
      "▁fear,": 8510,
      "▁parts.": 8511,
      "▁Amaz": 8512,
      "▁Ambien": 8513,
      "▁back,": 8514,
      "00k": 8515,
      "ocracy": 8516,
      "▁Chano": 8517,
      "▁\"U": 8518,
      "▁element": 8519,
      "▁landing.": 8520,
      "▁real,": 8521,
      "▁accel": 8522,
      "▁flight!\n": 8523,
      "ords": 8524,
      "▁know.\n": 8525,
      "▁printer": 8526,
      "▁artists": 8527,
      "▁underest": 8528,
      "▁thrust.": 8529,
      "▁owned": 8530,
      "▁Starship,": 8531,
      "▁world\n": 8532,
      "▁down,": 8533,
      "▁going,": 8534,
      "▁Hear": 8535,
      "▁safe,": 8536,
      "▁Koch": 8537,
      "▁scroll": 8538,
      "▁Great.": 8539,
      "▁Forgot": 8540,
      "▁*real": 8541,
      "▁transp": 8542,
      "▁conflic": 8543,
      "▁advise": 8544,
      "▁tech,": 8545,
      "▁energy,": 8546,
      "▁gas.": 8547,
      "▁retains": 8548,
      "▁obs": 8549,
      "wesom": 8550,
      "▁support,": 8551,
      "▁small.": 8552,
      "▁low.\n": 8553,
      "▁cool,": 8554,
      "▁belts": 8555,
      "▁AI\n": 8556,
      "▁always-on": 8557,
      "▁tax\n": 8558,
      "▁Work": 8559,
      "▁/week": 8560,
      "▁branch": 8561,
      "▁person.\n": 8562,
      "▁increment": 8563,
      "▁planets": 8564,
      "▁zomb": 8565,
      "▁Ask": 8566,
      "▁weeks,": 8567,
      "▁matters\n": 8568,
      "▁posting": 8569,
      "▁Unveil": 8570,
      "▁traject": 8571,
      "▁differences": 8572,
      "▁level,": 8573,
      "lamed": 8574,
      "▁release.": 8575,
      "▁possible\n": 8576,
      "▁replic": 8577,
      "▁paraf": 8578,
      "▁limbic": 8579,
      "▁live\n": 8580,
      "▁computer,": 8581,
      "▁decent": 8582,
      "▁decides": 8583,
      "prise": 8584,
      "ilton": 8585,
      "▁simulations": 8586,
      "▁rear.": 8587,
      "▁instr": 8588,
      "▁while\n": 8589,
      "▁option\n": 8590,
      "▁options,": 8591,
      "▁recommend.\n": 8592,
      "▁tempting": 8593,
      "▁America\n": 8594,
      "▁priorities": 8595,
      "▁emission": 8596,
      "▁feature\n": 8597,
      "▁closing": 8598,
      "▁tweet.\n": 8599,
      "▁size.\n": 8600,
      "▁Roadsters": 8601,
      "▁views": 8602,
      "▁false\n": 8603,
      "▁hottest": 8604,
      "▁Being": 8605,
      "▁value.": 8606,
      "▁rocks": 8607,
      "▁rocks\n": 8608,
      "▁home\n": 8609,
      "▁snake": 8610,
      "▁Powerpack": 8611,
      "▁SN2": 8612,
      "▁place\n": 8613,
      "▁Zeroth": 8614,
      "▁wheel,": 8615,
      "▁targeted": 8616,
      "▁close.\n": 8617,
      "▁collapse": 8618,
      "▁reaches": 8619,
      "▁pods.": 8620,
      "▁infrast": 8621,
      "▁works,": 8622,
      "▁subscri": 8623,
      "▁replied": 8624,
      "▁Isaac": 8625,
      "otech": 8626,
      "▁story\n": 8627,
      "▁specs": 8628,
      "▁continent": 8629,
      "▁May\n": 8630,
      "▁volume.\n": 8631,
      "▁politic": 8632,
      "▁failed": 8633,
      "▁charge.\n": 8634,
      "▁follows": 8635,
      "▁flaming": 8636,
      "▁solution\n": 8637,
      "▁issues,": 8638,
      "▁Cyberp": 8639,
      "▁pm\n": 8640,
      "▁relent": 8641,
      "▁related": 8642,
      "▁edited": 8643,
      "▁course!\n": 8644,
      "▁fleet.": 8645,
      "▁Long-term,": 8646,
      "▁stronger": 8647,
      "▁morning.\n": 8648,
      "▁picking": 8649,
      "▁sheet": 8650,
      "▁economies": 8651,
      "▁blocks": 8652,
      "▁docked": 8653,
      "▁leaders": 8654,
      "▁tiny\n": 8655,
      "▁online,": 8656,
      "▁Brilliant": 8657,
      "▁$55": 8658,
      "▁hell,": 8659,
      "▁offered": 8660,
      "▁judgment": 8661,
      "▁receives": 8662,
      "▁flare": 8663,
      "▁competition\n": 8664,
      "obil": 8665,
      "▁trains": 8666,
      "▁altitude,": 8667,
      "▁pumps": 8668,
      "▁Climate": 8669,
      "▁Internet.": 8670,
      "▁touchdown": 8671,
      "▁moments": 8672,
      "▁denying": 8673,
      "▁tires.\n": 8674,
      "▁released": 8675,
      "▁David": 8676,
      "▁Obv": 8677,
      "▁oddly": 8678,
      "▁S/3/X": 8679,
      "▁contract\n": 8680,
      "▁missile": 8681,
      "▁situations.": 8682,
      "▁candid": 8683,
      "▁Engineering": 8684,
      "thorne": 8685,
      "▁assembled": 8686,
      "▁anywhere\n": 8687,
      "▁engines\n": 8688,
      "▁Prin": 8689,
      "▁horsepower": 8690,
      "▁streaming": 8691,
      "▁delay.": 8692,
      "▁immediate": 8693,
      "▁possibility": 8694,
      "▁~300": 8695,
      "▁surprised": 8696,
      "ographic": 8697,
      "▁Presentation": 8698,
      "▁cowbell": 8699,
      "▁Article": 8700,
      "▁potential\n": 8701,
      "▁settings": 8702,
      "▁investors,": 8703,
      "▁Inspector": 8704,
      "▁rebutt": 8705,
      "▁outcome,": 8706,
      "▁Yes!\n": 8707,
      "▁etc.": 8708,
      "▁tuned\n": 8709,
      "itudinal": 8710,
      "▁sequel": 8711,
      "▁validation.": 8712,
      "▁Improved": 8713,
      "▁disagree.": 8714,
      "▁Chica": 8715,
      "▁Chicag": 8716,
      "▁Mk1": 8717,
      "▁Accurate": 8718,
      "▁autopilot.com": 8719,
      "▁tbh\n": 8720,
      "▁Dec\n": 8721,
      "▁college.": 8722,
      "▁bench": 8723,
      "▁encourage": 8724,
      "▁walls": 8725,
      "▁hanging": 8726,
      "▁Tuesday": 8727,
      "▁streets": 8728,
      "▁Python.\n": 8729,
      "-blow": 8730,
      "▁tradem": 8731,
      "▁stormy": 8732,
      "▁Basic": 8733,
      "▁Radar": 8734,
      "▁Correll": 8735,
      "▁Yay,": 8736,
      "▁German": 8737,
      "▁\"\"beta\"\"": 8738,
      "▁graphite": 8739,
      "▁copper": 8740,
      "▁semi": 8741,
      "▁school\n": 8742,
      "▁mechanical": 8743,
      "▁dollar": 8744,
      "▁(next": 8745,
      "▁Details": 8746,
      "▁lbf": 8747,
      "▁V8.1": 8748,
      "▁suppliers": 8749,
      "▁simplify": 8750,
      "▁absurdly": 8751,
      "▁Update": 8752,
      "▁Walked": 8753,
      "▁untrue\n": 8754,
      "▁mirror": 8755,
      "▁Ideas": 8756,
      "▁shops": 8757,
      "▁variants": 8758,
      "▁Close": 8759,
      "▁profitable": 8760,
      "▁Paint": 8761,
      "▁agreed": 8762,
      "▁parachutes": 8763,
      "▁ridiculous.": 8764,
      "▁werent": 8765,
      "▁grey,": 8766,
      "▁diap": 8767,
      "▁repeated": 8768,
      "▁Drone": 8769,
      "▁junky": 8770,
      "▁vaccines": 8771,
      "▁balance,": 8772,
      "▁maneuver": 8773,
      "▁symptoms": 8774,
      "▁renewable": 8775,
      "▁bottom": 8776,
      "▁exclusive": 8777,
      "▁(really": 8778,
      "▁members": 8779,
      "▁compensate": 8780,
      "▁succe": 8781,
      "▁Secret": 8782,
      "▁(hopefully)": 8783,
      "▁Gwynne": 8784,
      "▁entertaining": 8785,
      "▁Logs": 8786,
      "▁surfaces": 8787,
      "▁counter-intuitive": 8788,
      "▁PayPal": 8789,
      "▁parents": 8790,
      "▁coincidence": 8791,
      "▁trigger": 8792,
      "▁unequiv": 8793,
      "▁Apparently,": 8794,
      "▁hypocr": 8795,
      "▁rn\n": 8796,
      "▁Oslo": 8797,
      "▁cheese\n": 8798,
      "1/4": 8799,
      "▁Minecraft": 8800,
      "▁illustrate": 8801,
      "-raisin": 8802,
      "▁Tilburg": 8803,
      "▁distribution": 8804,
      "-looking": 8805,
      "Hawthorne": 8806,
      "x-wing": 8807,
      "▁i.e.": 8808,
      "▁sanctimon": 8809,
      "▁oatmeal-raisin": 8810,
      "▁Thaicom": 8811,
      "▁Bioshock": 8812,
      "▁Egypt": 8813,
      "▁Rushmore": 8814,
      "▁heatshield": 8815,
      "▁*real*": 8816,
      "▁parafoil": 8817,
      "▁infrastructure": 8818,
      "▁rebuttal": 8819,
      "!)": 8820,
      "!).": 8821,
      "-n": 8822,
      "-over": 8823,
      "/J": 8824,
      "2.0": 8825,
      "Aut": 8826,
      "C\n": 8827,
      "PV": 8828,
      "aire": 8829,
      "auc": 8830,
      "but": 8831,
      "car": 8832,
      "cy.": 8833,
      "econd": 8834,
      "gan": 8835,
      "gress": 8836,
      "gering": 8837,
      "ij": 8838,
      "io\n": 8839,
      "iked": 8840,
      "lines": 8841,
      "m\n": 8842,
      "nage": 8843,
      "omp": 8844,
      "rad": 8845,
      "right": 8846,
      "rason": 8847,
      "uzz": 8848,
      "vit": 8849,
      "vet": 8850,
      "vail": 8851,
      "y!\n": 8852,
      "zes": 8853,
      "▁ing": 8854,
      "▁treat": 8855,
      "▁tether": 8856,
      "▁tune": 8857,
      "inist": 8858,
      "information": 8859,
      "▁a\n": 8860,
      "▁aka": 8861,
      "▁astronom": 8862,
      "onth": 8863,
      "▁sle": 8864,
      "▁swe": 8865,
      "▁sledgehammer": 8866,
      "▁thes": 8867,
      "esus": 8868,
      "or\n": 8869,
      "▁bla": 8870,
      "▁bol": 8871,
      "▁bore": 8872,
      "▁bub": 8873,
      "▁bored": 8874,
      "atable,": 8875,
      "▁cd": 8876,
      "▁cert": 8877,
      "▁finger": 8878,
      "ouder": 8879,
      "en,": 8880,
      "▁mamm": 8881,
      "anos": 8882,
      "▁toy": 8883,
      "▁pe": 8884,
      "▁pas": 8885,
      "▁pairs": 8886,
      "▁oh\n": 8887,
      "▁dim": 8888,
      "▁lions": 8889,
      "▁louder": 8890,
      "▁ho": 8891,
      "▁harm": 8892,
      "▁honey": 8893,
      "▁Tel": 8894,
      "▁Tay": 8895,
      "▁Tree": 8896,
      "stand": 8897,
      "roved": 8898,
      "▁inher": 8899,
      "ales": 8900,
      "▁Sain": 8901,
      "▁Spl": 8902,
      "▁is.\n": 8903,
      "elming": 8904,
      "etr": 8905,
      "ety": 8906,
      "assemb": 8907,
      "▁Ign": 8908,
      "▁Icel": 8909,
      "▁girl": 8910,
      "▁g's,": 8911,
      "▁reveal": 8912,
      "▁MN": 8913,
      "▁Mat": 8914,
      "▁ones.": 8915,
      "lymp": 8916,
      "▁eve.": 8917,
      "▁Wild": 8918,
      "▁Wang": 8919,
      "▁Thinking": 8920,
      "ctors": 8921,
      "change": 8922,
      "▁CR": 8923,
      "▁Cle": 8924,
      "▁Cam": 8925,
      "▁CPU": 8926,
      "alled": 8927,
      "▁so-c": 8928,
      "▁societ": 8929,
      "▁stats": 8930,
      "▁stole": 8931,
      "▁staged": 8932,
      "▁wear": 8933,
      "us,": 8934,
      "▁NV": 8935,
      "▁Fly": 8936,
      "▁Few": 8937,
      "▁Focus": 8938,
      "▁HH": 8939,
      "▁Help": 8940,
      "▁HAL": 8941,
      "▁rates": 8942,
      "▁cov2": 8943,
      "▁proven": 8944,
      "▁Bi": 8945,
      "▁Bold": 8946,
      "▁Yelp": 8947,
      "▁Dro": 8948,
      "▁Pink": 8949,
      "▁Pushing": 8950,
      "▁aren't": 8951,
      "▁Gre": 8952,
      "▁vents": 8953,
      "▁Each": 8954,
      "▁EST": 8955,
      "▁LEO": 8956,
      "ureauc": 8957,
      "seat": 8958,
      "▁Roof": 8959,
      "andel": 8960,
      "▁exha": 8961,
      "▁exiting": 8962,
      "olist": 8963,
      "um\n": 8964,
      "▁conne": 8965,
      "▁convey": 8966,
      "▁lie!": 8967,
      "▁(in": 8968,
      "▁(eg": 8969,
      "ource": 8970,
      "▁OG": 8971,
      "▁Olymp": 8972,
      "▁chann": 8973,
      "ips": 8974,
      "quire": 8975,
      "▁unw": 8976,
      "▁unable": 8977,
      "▁unique": 8978,
      "▁k+": 8979,
      "▁Storm": 8980,
      "▁Static": 8981,
      "▁upset": 8982,
      "ainment": 8983,
      "▁car!": 8984,
      "astic": 8985,
      "▁JC": 8986,
      "▁Jack": 8987,
      "▁Jesus": 8988,
      "king,": 8989,
      "ive.": 8990,
      "apore": 8991,
      "▁VA": 8992,
      "▁Vad": 8993,
      "▁Vance": 8994,
      "▁prevail": 8995,
      "endent": 8996,
      "▁cancell": 8997,
      "▁nose\n": 8998,
      "▁would've": 8999,
      "▁plenty": 9000,
      "sion.": 9001,
      "▁overb": 9002,
      "▁overload": 9003,
      "▁bud": 9004,
      "▁someones": 9005,
      "▁Govt": 9006,
      "▁one.\n": 9007,
      "▁year!\n": 9008,
      "▁most.\n": 9009,
      "ance.\n": 9010,
      "▁Alto": 9011,
      "ountry": 9012,
      "▁drivet": 9013,
      "▁\"\"d": 9014,
      "▁knock": 9015,
      "▁whose": 9016,
      "▁part\n": 9017,
      "▁part.\n": 9018,
      "▁Youd": 9019,
      "▁Ans": 9020,
      "▁Mars!\n": 9021,
      "▁Change": 9022,
      "▁\"C": 9023,
      "▁\"J": 9024,
      "▁Covid": 9025,
      "▁reserved": 9026,
      "well": 9027,
      "▁Real": 9028,
      "▁Reentry": 9029,
      "▁Reasons": 9030,
      "▁Reveal": 9031,
      "▁smarter": 9032,
      "▁Superintelligence": 9033,
      "▁point!\n": 9034,
      "▁knowledge": 9035,
      "▁afterward": 9036,
      "▁orbit!\n": 9037,
      "▁art\n": 9038,
      "▁$50": 9039,
      "▁underwear": 9040,
      "▁things.": 9041,
      "ible\n": 9042,
      "ors!\n": 9043,
      "▁Neil": 9044,
      "▁world,": 9045,
      "▁down)": 9046,
      "▁space,": 9047,
      "▁ends": 9048,
      "▁Hex": 9049,
      "▁Heard": 9050,
      "▁though\n": 9051,
      "▁fins,": 9052,
      "▁cost.\n": 9053,
      "▁regional": 9054,
      "▁helped": 9055,
      "▁grant": 9056,
      "▁builds": 9057,
      "▁scorch": 9058,
      "▁defend": 9059,
      "▁Truck": 9060,
      "▁*l": 9061,
      "▁*all": 9062,
      "▁*actually": 9063,
      "▁suff": 9064,
      "▁phr": 9065,
      "▁solar/b": 9066,
      "▁love.": 9067,
      "▁confined": 9068,
      "plus": 9069,
      "▁tech.": 9070,
      "▁consensus": 9071,
      "▁requesting": 9072,
      "▁drive.\n": 9073,
      "▁change?\n": 9074,
      "▁writ": 9075,
      "▁tunnel.": 9076,
      "▁tunneling": 9077,
      "▁LA.": 9078,
      "▁LA/": 9079,
      "ventions": 9080,
      "▁indirect": 9081,
      "▁Newton": 9082,
      "ermal": 9083,
      "▁joint": 9084,
      "▁version.\n": 9085,
      "▁readers": 9086,
      "▁complete\n": 9087,
      "▁entering": 9088,
      "▁happened.": 9089,
      "▁/1": 9090,
      "▁upgrading": 9091,
      "▁massively": 9092,
      "▁payment": 9093,
      "▁paywall": 9094,
      "▁brut": 9095,
      "▁product,": 9096,
      "▁Haha,": 9097,
      "▁said\n": 9098,
      "▁requirements": 9099,
      "▁Uns": 9100,
      "▁California\n": 9101,
      "▁wherever": 9102,
      "▁fix.\n": 9103,
      "▁package\n": 9104,
      "▁risk\n": 9105,
      "▁refuel": 9106,
      "▁vehicle,": 9107,
      "▁factory\n": 9108,
      "▁Atte": 9109,
      "▁holder": 9110,
      "▁holders": 9111,
      "▁bad\n": 9112,
      "▁bad.\n": 9113,
      "▁safety.\n": 9114,
      "▁detection": 9115,
      "whelming": 9116,
      "▁decay": 9117,
      "▁decline": 9118,
      "▁Meeting": 9119,
      "▁media,": 9120,
      "▁Cool!\n": 9121,
      "▁experien": 9122,
      "▁anything.\n": 9123,
      "▁moon\n": 9124,
      "▁easy.": 9125,
      "▁regularly": 9126,
      "▁optional": 9127,
      "▁return.\n": 9128,
      "▁action\n": 9129,
      "▁action.\n": 9130,
      "▁fluct": 9131,
      "▁vacation": 9132,
[...]
