{
  "version": "1.0",
  "truncation": null,
  "padding": null,
  "added_tokens": [
    {
      "id": 0,
      "content": "<s>",
      "single_word": false,
      "lstrip": false,
      "rstrip": false,
      "normalized": false,
      "special": true
    },
    {
      "id": 1,
      "content": "<pad>",
      "single_word": false,
      "lstrip": false,
      "rstrip": false,
      "normalized": false,
      "special": true
    },
    {
      "id": 2,
      "content": "</s>",
      "single_word": false,
      "lstrip": false,
      "rstrip": false,
      "normalized": false,
      "special": true
    },
    {
      "id": 3,
      "content": "<unk>",
      "single_word": false,
      "lstrip": false,
      "rstrip": false,
      "normalized": false,
      "special": true
    },
    {
      "id": 4,
      "content": "<mask>",
      "single_word": false,
      "lstrip": false,
      "rstrip": false,
      "normalized": false,
      "special": true
    }
  ],
  "normalizer": {
    "type": "NFKC"
  },
  "pre_tokenizer": {
    "type": "Metaspace",
    "replacement": "▁",
    "add_prefix_space": true
  },
  "post_processor": null,
  "decoder": {
    "type": "Metaspace",
    "replacement": "▁",
    "add_prefix_space": true
  },
  "model": {
    "type": "BPE",
    "dropout": null,
    "unk_token": null,
    "continuing_subword_prefix": null,
    "end_of_word_suffix": null,
    "fuse_unk": false,
    "vocab": {
      "<s>": 0,
      "<pad>": 1,
      "</s>": 2,
      "<unk>": 3,
      "<mask>": 4,
      "\n": 5,
      "!": 6,
      "\"": 7,
      "$": 8,
      "%": 9,
      "&": 10,
      "'": 11,
      "(": 12,
      ")": 13,
      "*": 14,
      "+": 15,
      ",": 16,
      "-": 17,
      ".": 18,
      "/": 19,
      "0": 20,
      "1": 21,
      "2": 22,
      "3": 23,
      "4": 24,
      "5": 25,
      "6": 26,
      "7": 27,
      "8": 28,
      "9": 29,
      ":": 30,
      ";": 31,
      "=": 32,
      "?": 33,
      "A": 34,
      "B": 35,
      "C": 36,
      "D": 37,
      "E": 38,
      "F": 39,
      "G": 40,
      "H": 41,
      "I": 42,
      "J": 43,
      "K": 44,
      "L": 45,
      "M": 46,
      "N": 47,
      "O": 48,
      "P": 49,
      "Q": 50,
      "R": 51,
      "S": 52,
      "T": 53,
      "U": 54,
      "V": 55,
      "W": 56,
      "X": 57,
      "Y": 58,
      "Z": 59,
      "[": 60,
      "]": 61,
      "^": 62,
      "_": 63,
      "a": 64,
      "b": 65,
      "c": 66,
      "d": 67,
      "e": 68,
      "f": 69,
      "g": 70,
      "h": 71,
      "i": 72,
      "j": 73,
      "k": 74,
      "l": 75,
      "m": 76,
      "n": 77,
      "o": 78,
      "p": 79,
      "q": 80,
      "r": 81,
      "s": 82,
      "t": 83,
      "u": 84,
      "v": 85,
      "w": 86,
      "x": 87,
      "y": 88,
      "z": 89,
      "{": 90,
      "|": 91,
      "}": 92,
      "~": 93,
      "▁": 94,
      "▁t": 95,
      "in": 96,
      "▁a": 97,
      "er": 98,
      "on": 99,
      "▁s": 100,
      "re": 101,
      "▁th": 102,
      "▁w": 103,
      "es": 104,
      "or": 105,
      "▁b": 106,
      "at": 107,
      "▁c": 108,
      "is": 109,
      "ing": 110,
      "▁f": 111,
      "ou": 112,
      "it": 113,
      "▁m": 114,
      "en": 115,
      "ll": 116,
      "ar": 117,
      "an": 118,
      "▁p": 119,
      "▁to": 120,
      "▁o": 121,
      "▁d": 122,
      "ed": 123,
      "▁h": 124,
      "▁l": 125,
      "▁the": 126,
      "▁T": 127,
      "mp": 128,
      "ro": 129,
      ".\n": 130,
      "st": 131,
      "▁in": 132,
      "▁is": 133,
      "al": 134,
      "▁n": 135,
      "▁S": 136,
      "▁of": 137,
      "ic": 138,
      "le": 139,
      "as": 140,
      "ion": 141,
      "▁I": 142,
      "ly": 143,
      "▁be": 144,
      "ve": 145,
      "▁g": 146,
      "ig": 147,
      "ut": 148,
      "ac": 149,
      "▁re": 150,
      "amp": 151,
      "ot": 152,
      "et": 153,
      "▁&": 154,
      "amp;": 155,
      "▁e": 156,
      "▁&amp;": 157,
      "ill": 158,
      "▁A": 159,
      "▁for": 160,
      "▁on": 161,
      "om": 162,
      "ow": 163,
      "ay": 164,
      "▁Th": 165,
      "▁M": 166,
      "ld": 167,
      "ct": 168,
      "▁W": 169,
      "ver": 170,
      "ent": 171,
      "▁y": 172,
      "▁u": 173,
      "id": 174,
      "el": 175,
      "▁an": 176,
      "ch": 177,
      "igh": 178,
      "la": 179,
      "all": 180,
      "ad": 181,
      "▁C": 182,
      "▁so": 183,
      "oo": 184,
      "▁it": 185,
      "im": 186,
      "▁st": 187,
      "ter": 188,
      "ith": 189,
      "th": 190,
      "▁will": 191,
      "▁wh": 192,
      "▁Tes": 193,
      "▁we": 194,
      "se": 195,
      "!\n": 196,
      "▁that": 197,
      "ke": 198,
      "▁ne": 199,
      "▁Tesla": 200,
      "▁but": 201,
      "am": 202,
      "▁pro": 203,
      "ir": 204,
      "ust": 205,
      "▁Y": 206,
      "▁N": 207,
      "▁F": 208,
      "▁H": 209,
      "il": 210,
      "▁with": 211,
      "▁r": 212,
      "op": 213,
      "ould": 214,
      "ur": 215,
      "un": 216,
      "est": 217,
      "out": 218,
      "ars": 219,
      "▁are": 220,
      "▁B": 221,
      "▁P": 222,
      "▁you": 223,
      "if": 224,
      "▁mo": 225,
      "ab": 226,
      "▁co": 227,
      "ere": 228,
      "ce": 229,
      "ight": 230,
      "ally": 231,
      "▁ha": 232,
      "▁E": 233,
      "▁en": 234,
      "▁D": 235,
      "▁at": 236,
      "▁sh": 237,
      "pp": 238,
      "ation": 239,
      "▁G": 240,
      "ure": 241,
      "▁tr": 242,
      "ate": 243,
      "▁or": 244,
      "▁as": 245,
      "nd": 246,
      "ul": 247,
      "▁v": 248,
      "ers": 249,
      "ge": 250,
      "ant": 251,
      "▁do": 252,
      "▁this": 253,
      "ck": 254,
      "▁R": 255,
      "▁not": 256,
      "▁ex": 257,
      "▁L": 258,
      "▁se": 259,
      "nt": 260,
      "▁wor": 261,
      "um": 262,
      "▁ma": 263,
      "ity": 264,
      "ip": 265,
      "e\n": 266,
      "▁O": 267,
      "ea": 268,
      "ive": 269,
      "▁con": 270,
      "and": 271,
      "▁St": 272,
      "▁ro": 273,
      "▁de": 274,
      "ks": 275,
      "ome": 276,
      "ard": 277,
      "act": 278,
      "▁j": 279,
      "▁by": 280,
      "▁ab": 281,
      "▁al": 282,
      "▁have": 283,
      "ort": 284,
      "ra": 285,
      "▁(": 286,
      "ss": 287,
      "▁su": 288,
      "ace": 289,
      "pe": 290,
      "od": 291,
      "our": 292,
      "▁all": 293,
      "ess": 294,
      "ine": 295,
      "ood": 296,
      "gh": 297,
      "reat": 298,
      "▁li": 299,
      "▁The": 300,
      "qu": 301,
      "▁and": 302,
      "rom": 303,
      "ol": 304,
      "▁was": 305,
      "per": 306,
      "ts": 307,
      "▁ch": 308,
      "es\n": 309,
      "ough": 310,
      "▁from": 311,
      "imp": 312,
      "king": 313,
      "one": 314,
      "iv": 315,
      "ction": 316,
      "ain": 317,
      "▁comp": 318,
      "ap": 319,
      "▁like": 320,
      "ie": 321,
      "ong": 322,
      "are": 323,
      "▁than": 324,
      "s\n": 325,
      "▁up": 326,
      "▁me": 327,
      "▁ye": 328,
      "▁go": 329,
      "▁We": 330,
      "▁k": 331,
      "us": 332,
      "lo": 333,
      "ast": 334,
      "pace": 335,
      "ack": 336,
      "du": 337,
      "▁po": 338,
      "art": 339,
      "▁need": 340,
      "s,": 341,
      "▁te": 342,
      "ire": 343,
      "▁about": 344,
      "▁car": 345,
      "▁imp": 346,
      "▁tim": 347,
      "very": 348,
      "ound": 349,
      "ment": 350,
      "s.": 351,
      "▁high": 352,
      "▁more": 353,
      "ies": 354,
      "▁U": 355,
      "▁would": 356,
      "ble": 357,
      "ide": 358,
      "▁just": 359,
      "▁he": 360,
      "▁fe": 361,
      "▁eng": 362,
      "▁pre": 363,
      "▁no": 364,
      "em": 365,
      "▁out": 366,
      "▁com": 367,
      "ue": 368,
      "▁Mod": 369,
      "▁J": 370,
      "▁can": 371,
      "uch": 372,
      "ry": 373,
      "▁has": 374,
      "▁This": 375,
      "able": 376,
      "iz": 377,
      "▁V": 378,
      "ull": 379,
      "ite": 380,
      "ase": 381,
      "ign": 382,
      "▁Model": 383,
      "▁lo": 384,
      "any": 385,
      "ist": 386,
      "ci": 387,
      "ont": 388,
      "end": 389,
      "hip": 390,
      "xt": 391,
      "▁great": 392,
      "▁good": 393,
      "▁produ": 394,
      "ore": 395,
      "▁much": 396,
      "ower": 397,
      "▁ar": 398,
      "es,": 399,
      "▁~": 400,
      "▁my": 401,
      "▁pl": 402,
      "▁Will": 403,
      "ff": 404,
      "▁That": 405,
      "▁Space": 406,
      "con": 407,
      "▁bet": 408,
      "?\n": 409,
      "mo": 410,
      "▁any": 411,
      "▁should": 412,
      "▁rock": 413,
      "▁ad": 414,
      "▁too": 415,
      "ft": 416,
      "▁bu": 417,
      "▁get": 418,
      "ric": 419,
      "ass": 420,
      "pt": 421,
      "▁un": 422,
      "bab": 423,
      "ru": 424,
      "▁app": 425,
      "so": 426,
      "ink": 427,
      "cc": 428,
      "▁us": 429,
      "▁It": 430,
      "ous": 431,
      "▁hard": 432,
      "unch": 433,
      "eop": 434,
      "ich": 435,
      "▁work": 436,
      "ia": 437,
      "▁if": 438,
      "▁la": 439,
      "▁Wh": 440,
      "▁Yes\n": 441,
      "light": 442,
      "▁act": 443,
      "ind": 444,
      "ha": 445,
      "▁our": 446,
      "eople": 447,
      "▁there": 448,
      "sion": 449,
      "ven": 450,
      "way": 451,
      "age": 452,
      "▁some": 453,
      "ame": 454,
      "▁le": 455,
      "▁over": 456,
      "▁sa": 457,
      "▁In": 458,
      "▁make": 459,
      "eah": 460,
      "▁time": 461,
      "▁engine": 462,
      "▁ta": 463,
      "▁its": 464,
      "▁wee": 465,
      "ware": 466,
      "s.\n": 467,
      "▁dr": 468,
      "ach": 469,
      "▁next": 470,
      "arship": 471,
      "▁Ex": 472,
      "ly\n": 473,
      "▁soon": 474,
      "▁people": 475,
      "▁Starship": 476,
      "ually": 477,
      "▁rocket": 478,
      "▁they": 479,
      "atter": 480,
      "ory": 481,
      "▁cars": 482,
      "▁inc": 483,
      "▁one": 484,
      "ber": 485,
      "▁No": 486,
      "ect": 487,
      "▁Yeah": 488,
      "▁SpaceX": 489,
      "be": 490,
      "int": 491,
      "▁year": 492,
      "bit": 493,
      "▁.": 494,
      "00": 495,
      "▁des": 496,
      "bably": 497,
      "▁most": 498,
      "oth": 499,
      "▁Its": 500,
      "ther": 501,
      "▁Ne": 502,
      "▁thr": 503,
      "▁only": 504,
      "ans": 505,
      "▁Al": 506,
      "▁which": 507,
      "irst": 508,
      "▁launch": 509,
      "ud": 510,
      "▁mon": 511,
      "▁day": 512,
      "ice": 513,
      "▁sp": 514,
      "▁test": 515,
      "ence": 516,
      "ing\n": 517,
      "ep": 518,
      "ount": 519,
      "▁int": 520,
      "▁what": 521,
      "▁ag": 522,
      "▁way": 523,
      "▁fa": 524,
      "ance": 525,
      "▁your": 526,
      "▁cont": 527,
      "anks": 528,
      "▁%": 529,
      "▁production": 530,
      "▁If": 531,
      "▁Ha": 532,
      "ri": 533,
      "ated": 534,
      "own": 535,
      "vel": 536,
      "▁qu": 537,
      "ange": 538,
      "▁long": 539,
      "▁am": 540,
      "arg": 541,
      "fer": 542,
      "▁sol": 543,
      "gy": 544,
      "▁now": 545,
      "▁right": 546,
      "▁impro": 547,
      "▁month": 548,
      "ef": 549,
      "▁team": 550,
      "▁many": 551,
      "▁new": 552,
      "ully": 553,
      "▁land": 554,
      "▁years": 555,
      "▁acc": 556,
      "ool": 557,
      "▁orbit": 558,
      "ater": 559,
      "▁per": 560,
      "eth": 561,
      "ting": 562,
      "▁Pro": 563,
      "▁real": 564,
      "▁Mars": 565,
      "▁who": 566,
      "ult": 567,
      "▁better": 568,
      "gr": 569,
      "ary": 570,
      "aybe": 571,
      "▁kn": 572,
      "ild": 573,
      "nder": 574,
      "▁Exact": 575,
      "▁Just": 576,
      "day": 577,
      "▁fun": 578,
      "▁other": 579,
      "▁few": 580,
      "urn": 581,
      "\"\"": 582,
      "▁res": 583,
      "ree": 584,
      "▁You": 585,
      "▁aut": 586,
      "es.": 587,
      "wn": 588,
      "ress": 589,
      "▁week": 590,
      "'s": 591,
      "▁when": 592,
      "ial": 593,
      "▁use": 594,
      "▁Yeah,": 595,
      "▁lot": 596,
      "▁Good": 597,
      "▁even": 598,
      "ade": 599,
      "▁Fal": 600,
      "ility": 601,
      "ical": 602,
      "ible": 603,
      "▁Thanks": 604,
      "▁Falcon": 605,
      "ving": 606,
      "▁Not": 607,
      "we": 608,
      "'t": 609,
      "▁ser": 610,
      "▁were": 611,
      "▁sy": 612,
      "ath": 613,
      "▁loo": 614,
      "▁inter": 615,
      "lect": 616,
      "▁Su": 617,
      "▁design": 618,
      "ty": 619,
      "▁spe": 620,
      "most": 621,
      "oc": 622,
      "ens": 623,
      "ftware": 624,
      "▁actually": 625,
      "ile": 626,
      "▁big": 627,
      "▁first": 628,
      "ically": 629,
      "▁On": 630,
      "▁Ch": 631,
      "ose": 632,
      "ster": 633,
      "kes": 634,
      "▁very": 635,
      "ors": 636,
      "▁min": 637,
      "arth": 638,
      "ang": 639,
      "▁flight": 640,
      "▁then": 641,
      "▁back": 642,
      "▁Sh": 643,
      "▁every": 644,
      "▁dif": 645,
      "lease": 646,
      "▁power": 647,
      "▁Yes,": 648,
      "▁supp": 649,
      "▁under": 650,
      "▁thing": 651,
      "ise": 652,
      "▁point": 653,
      "▁$": 654,
      "▁rec": 655,
      "▁does": 656,
      "apt": 657,
      "orm": 658,
      "▁could": 659,
      "▁pu": 660,
      "▁software": 661,
      "▁Earth": 662,
      "ating": 663,
      "▁Re": 664,
      "ord": 665,
      "▁know": 666,
      "ons": 667,
      "▁sm": 668,
      "▁sure": 669,
      "▁think": 670,
      "ish": 671,
      "rag": 672,
      "▁part": 673,
      "ed,": 674,
      "os": 675,
      "▁their": 676,
      "elf": 677,
      "row": 678,
      "iving": 679,
      "up": 680,
      "fter": 681,
      "low": 682,
      "te": 683,
      "ering": 684,
      "▁exp": 685,
      "▁cost": 686,
      "ful": 687,
      "▁improve": 688,
      "tle": 689,
      "▁did": 690,
      "▁reg": 691,
      "▁probably": 692,
      "▁Do": 693,
      "▁Super": 694,
      "use": 695,
      "▁ve": 696,
      "▁lit": 697,
      "▁ext": 698,
      "▁coming": 699,
      "▁own": 700,
      "ed.": 701,
      "▁lif": 702,
      "▁X": 703,
      "▁cr": 704,
      "▁build": 705,
      "lic": 706,
      "uture": 707,
      "y\n": 708,
      "▁fact": 709,
      "▁par": 710,
      "▁dont": 711,
      "▁Aut": 712,
      "▁There": 713,
      "orn": 714,
      "▁them": 715,
      "▁how": 716,
      "▁So": 717,
      "▁still": 718,
      "▁fin": 719,
      "▁Great": 720,
      "▁Also": 721,
      "ual": 722,
      "▁sc": 723,
      "red": 724,
      "▁want": 725,
      "▁been": 726,
      "lectric": 727,
      "ph": 728,
      "ilot": 729,
      "iew": 730,
      "icle": 731,
      "unn": 732,
      "▁happ": 733,
      "▁Star": 734,
      "▁US": 735,
      "bs": 736,
      "▁*": 737,
      "▁ver": 738,
      "▁see": 739,
      "ag": 740,
      "iver": 741,
      "ed\n": 742,
      "stem": 743,
      "▁Im": 744,
      "ady": 745,
      "▁Rapt": 746,
      "▁air": 747,
      "▁future": 748,
      "▁hel": 749,
      "▁world": 750,
      "▁saf": 751,
      "ense": 752,
      "▁also": 753,
      "▁Haha": 754,
      "ys": 755,
      "eav": 756,
      "der": 757,
      "▁best": 758,
      "ick": 759,
      "▁being": 760,
      "▁Am": 761,
      "▁into": 762,
      "▁pr": 763,
      "▁hum": 764,
      "▁well": 765,
      "opilot": 766,
      "ize": 767,
      "▁thrust": 768,
      "ank": 769,
      "▁im": 770,
      "▁tw": 771,
      "▁say": 772,
      "▁boo": 773,
      "▁super": 774,
      "blem": 775,
      "▁add": 776,
      "tty": 777,
      "▁fast": 778,
      "▁opt": 779,
      "ly.": 780,
      "▁landing": 781,
      "ious": 782,
      "▁rep": 783,
      "▁down": 784,
      "▁requ": 785,
      "opef": 786,
      "SD": 787,
      "ward": 788,
      "▁system": 789,
      "▁after": 790,
      "▁Maybe": 791,
      "▁tru": 792,
      "eel": 793,
      "ines": 794,
      "▁ph": 795,
      "▁For": 796,
      "▁end": 797,
      "opefully": 798,
      "ix": 799,
      "me": 800,
      "▁FSD": 801,
      "pect": 802,
      "▁mis": 803,
      "▁off": 804,
      "▁electric": 805,
      "ations": 806,
      "ergy": 807,
      "▁gen": 808,
      "▁really": 809,
      "▁cons": 810,
      "▁They": 811,
      "▁far": 812,
      "▁problem": 813,
      "▁almost": 814,
      "k\n": 815,
      "old": 816,
      "▁space": 817,
      "▁ins": 818,
      "▁comple": 819,
      "▁going": 820,
      "ced": 821,
      "ell": 822,
      "fore": 823,
      "▁clo": 824,
      "▁Te": 825,
      "▁art": 826,
      "▁Drag": 827,
      "▁press": 828,
      "▁help": 829,
      "▁dis": 830,
      "▁energy": 831,
      "ost": 832,
      "ortant": 833,
      "ause": 834,
      "atch": 835,
      "▁ear": 836,
      "▁def": 837,
      "▁K": 838,
      "ert": 839,
      "ly,": 840,
      "veral": 841,
      "▁Autopilot": 842,
      "li": 843,
      "▁though": 844,
      "chn": 845,
      "▁Raptor": 846,
      "▁bec": 847,
      "ute": 848,
      "les": 849,
      "▁,": 850,
      "ition": 851,
      "▁made": 852,
      "▁gr": 853,
      "▁working": 854,
      "▁needed": 855,
      "az": 856,
      "ying": 857,
      "▁those": 858,
      "▁del": 859,
      "▁trans": 860,
      "▁What": 861,
      "▁Exactly\n": 862,
      "▁Dragon": 863,
      "cy": 864,
      "vent": 865,
      "▁Ro": 866,
      "eavy": 867,
      ")\n": 868,
      "▁mass": 869,
      "thing": 870,
      "▁human": 871,
      "ved": 872,
      "▁pay": 873,
      "unnel": 874,
      "▁same": 875,
      "▁had": 876,
      "erson": 877,
      "pen": 878,
      "▁/": 879,
      "▁start": 880,
      "ific": 881,
      "▁pub": 882,
      "▁small": 883,
      "▁veh": 884,
      "▁before": 885,
      "▁An": 886,
      "▁Thats": 887,
      "▁support": 888,
      "▁ob": 889,
      "▁true": 890,
      "▁solar": 891,
      "▁batter": 892,
      "▁done": 893,
      "▁low": 894,
      "▁Co": 895,
      "ves": 896,
      "▁less": 897,
      "ssible": 898,
      "ffic": 899,
      "!!\n": 900,
      "▁cle": 901,
      "▁And": 902,
      "▁He": 903,
      "urre": 904,
      "ail": 905,
      "ese": 906,
      "▁lea": 907,
      "▁last": 908,
      "ics": 909,
      "▁conf": 910,
      "▁love": 911,
      "▁tunnel": 912,
      "inite": 913,
      "▁wr": 914,
      "▁call": 915,
      "▁cool": 916,
      "ane": 917,
      "▁ship": 918,
      "▁through": 919,
      "▁Also,": 920,
      "▁incre": 921,
      "▁contro": 922,
      "er\n": 923,
      "▁full": 924,
      "▁sign": 925,
      "reci": 926,
      "▁Were": 927,
      "▁take": 928,
      "▁version": 929,
      "▁require": 930,
      "ature": 931,
      "ometh": 932,
      "▁enough": 933,
      "▁vide": 934,
      "▁differ": 935,
      "form": 936,
      "o\n": 937,
      "▁ent": 938,
      "▁Sure": 939,
      "▁ever": 940,
      "illion": 941,
      "▁short": 942,
      "▁around": 943,
      "ways": 944,
      "ak": 945,
      "▁gener": 946,
      "ove": 947,
      "▁today": 948,
      "▁AI": 949,
      "▁All": 950,
      "▁adv": 951,
      "▁Probably": 952,
      "co": 953,
      "▁jo": 954,
      "▁appro": 955,
      "ib": 956,
      "ative": 957,
      "▁SN": 958,
      "▁product": 959,
      "▁count": 960,
      "ark": 961,
      "▁drive": 962,
      "▁-": 963,
      "▁ret": 964,
      "▁val": 965,
      "▁little": 966,
      "ready": 967,
      "reme": 968,
      "▁tra": 969,
      "omething": 970,
      "ats": 971,
      "▁fire": 972,
      "▁gu": 973,
      "ution": 974,
      "imit": 975,
      "ments": 976,
      "er.": 977,
      "iga": 978,
      "ety": 979,
      "▁max": 980,
      "elf-": 981,
      "▁life": 982,
      "de": 983,
      "lin": 984,
      "less": 985,
      "ero": 986,
      "▁sur": 987,
      "ing.": 988,
      "▁important": 989,
      "▁happen": 990,
      "jor": 991,
      "▁later": 992,
      "estion": 993,
      "▁haha": 994,
      "▁Giga": 995,
      "▁upd": 996,
      "▁serv": 997,
      "mon": 998,
      "oring": 999,
      "▁Pre": 1000,
      "load": 1001,
      "▁again": 1002,
      "▁public": 1003,
      "▁mone": 1004,
      "▁ref": 1005,
      "▁Can": 1006,
      "olo": 1007,
      "ffect": 1008,
      "▁New": 1009,
      "view": 1010,
      "▁Tru": 1011,
      "ash": 1012,
      "▁seem": 1013,
      "gen": 1014,
      "lan": 1015,
      "▁cent": 1016,
      "▁Loo": 1017,
      "ounds": 1018,
      "▁appreci": 1019,
      "▁Tr": 1020,
      "oming": 1021,
      "▁several": 1022,
      "▁techn": 1023,
      "▁weeks": 1024,
      "▁pressure": 1025,
      "ing,": 1026,
      "▁pric": 1027,
      "▁To": 1028,
      "▁Se": 1029,
      "ason": 1030,
      "▁As": 1031,
      "charg": 1032,
      "▁why": 1033,
      "▁change": 1034,
      "▁upgr": 1035,
      "wes": 1036,
      "er,": 1037,
      "▁cl": 1038,
      "▁Ma": 1039,
      "▁sec": 1040,
      "▁~1": 1041,
      "▁fair": 1042,
      "urrent": 1043,
      "link": 1044,
      "t;": 1045,
      "ery": 1046,
      "▁matter": 1047,
      "alf": 1048,
      "▁where": 1049,
      "▁exce": 1050,
      "▁engines": 1051,
      "▁Inter": 1052,
      "ron": 1053,
      "▁av": 1054,
      "orre": 1055,
      "▁cap": 1056,
      "▁gas": 1057,
      "▁Heavy": 1058,
      "▁tax": 1059,
      "▁control": 1060,
      "),": 1061,
      "▁\"\"": 1062,
      "▁always": 1063,
      "▁Starlink": 1064,
      "..\n": 1065,
      "n't": 1066,
      "of": 1067,
      "▁tal": 1068,
      "▁both": 1069,
      "ope": 1070,
      "▁already": 1071,
      "ear": 1072,
      "yber": 1073,
      "erm": 1074,
      "▁show": 1075,
      "▁feel": 1076,
      "cial": 1077,
      "▁said": 1078,
      "▁soon\n": 1079,
      "ude": 1080,
      "▁True\n": 1081,
      "orry": 1082,
      "▁thats": 1083,
      "▁But": 1084,
      "▁leg": 1085,
      "▁engineering": 1086,
      "▁regul": 1087,
      "▁lower": 1088,
      "▁limit": 1089,
      "▁De": 1090,
      "▁makes": 1091,
      "ieve": 1092,
      "▁Supercharg": 1093,
      "▁extreme": 1094,
      "▁video": 1095,
      "▁money": 1096,
      "\"\n": 1097,
      "ina": 1098,
      "▁sk": 1099,
      "iting": 1100,
      "▁inv": 1101,
      "▁iss": 1102,
      "▁Wor": 1103,
      "ural": 1104,
      "▁doing": 1105,
      "▁possible": 1106,
      "▁level": 1107,
      "▁amaz": 1108,
      "▁safety": 1109,
      "air": 1110,
      "vid": 1111,
      "▁z": 1112,
      "▁es": 1113,
      "▁id": 1114,
      "▁man": 1115,
      "▁oper": 1116,
      "▁due": 1117,
      "▁eas": 1118,
      "▁dep": 1119,
      "▁speed": 1120,
      "▁early": 1121,
      "▁bas": 1122,
      "▁fix": 1123,
      "▁may": 1124,
      "ets": 1125,
      "▁roll": 1126,
      "▁plan": 1127,
      "gg": 1128,
      "▁simp": 1129,
      "ator": 1130,
      "ision": 1131,
      "▁med": 1132,
      "▁met": 1133,
      "▁open": 1134,
      "▁My": 1135,
      "▁it\n": 1136,
      "▁range": 1137,
      "▁allow": 1138,
      "▁mission": 1139,
      ").": 1140,
      "▁sim": 1141,
      "es.\n": 1142,
      "▁br": 1143,
      "▁Cong": 1144,
      "▁Cyber": 1145,
      "▁doesnt": 1146,
      "fact": 1147,
      "▁self-": 1148,
      "▁ind": 1149,
      "▁reus": 1150,
      "▁release": 1151,
      "▁chang": 1152,
      "ized": 1153,
      "▁factory": 1154,
      "▁booster": 1155,
      "▁obv": 1156,
      "▁Congr": 1157,
      "▁.\n": 1158,
      "oun": 1159,
      "▁hour": 1160,
      "▁never": 1161,
      "ability": 1162,
      "▁Un": 1163,
      "▁Should": 1164,
      "▁two": 1165,
      "▁option": 1166,
      "▁clear": 1167,
      "y,": 1168,
      "▁\"": 1169,
      "inal": 1170,
      "▁fr": 1171,
      "▁person": 1172,
      "▁Sol": 1173,
      "▁How": 1174,
      "▁vol": 1175,
      "▁company": 1176,
      "▁No,": 1177,
      "riving": 1178,
      "val": 1179,
      "▁unt": 1180,
      "ume": 1181,
      "▁pretty": 1182,
      "▁look": 1183,
      "▁China": 1184,
      "ily": 1185,
      "wh": 1186,
      "▁fla": 1187,
      "▁Sorry": 1188,
      "▁str": 1189,
      "atell": 1190,
      "▁vs": 1191,
      "ody": 1192,
      "▁question": 1193,
      "ian": 1194,
      "▁Q": 1195,
      "▁ton": 1196,
      "▁awes": 1197,
      "▁bo": 1198,
      "itive": 1199,
      "▁maybe": 1200,
      "▁dire": 1201,
      "▁things": 1202,
      "▁service": 1203,
      "mor": 1204,
      "nal": 1205,
      "▁mil": 1206,
      "▁Most": 1207,
      "▁rate": 1208,
      "▁comput": 1209,
      "▁autom": 1210,
      "orrect": 1211,
      "ially": 1212,
      "ject": 1213,
      "▁ke": 1214,
      "ond": 1215,
      "▁set": 1216,
      "▁fo": 1217,
      "ustain": 1218,
      "▁Ok\n": 1219,
      "▁Very": 1220,
      "ape": 1221,
      "cess": 1222,
      "▁light": 1223,
      "▁inst": 1224,
      "▁ris": 1225,
      "▁major": 1226,
      "▁dec": 1227,
      "cially": 1228,
      "▁orbital": 1229,
      "▁crit": 1230,
      "▁ir": 1231,
      "er.\n": 1232,
      "▁sense": 1233,
      "ates": 1234,
      "▁don": 1235,
      "▁num": 1236,
      "▁Some": 1237,
      "▁rem": 1238,
      "▁Would": 1239,
      "▁Or": 1240,
      "▁sub": 1241,
      "▁comm": 1242,
      "▁play": 1243,
      "▁close": 1244,
      "▁least": 1245,
      "ne": 1246,
      "ness": 1247,
      "wit": 1248,
      "▁wind": 1249,
      "▁pass": 1250,
      "ed.\n": 1251,
      "▁At": 1252,
      "omm": 1253,
      "▁moon": 1254,
      "▁order": 1255,
      "▁road": 1256,
      "pell": 1257,
      "▁days": 1258,
      "▁diff": 1259,
      "▁owners": 1260,
      "▁haha\n": 1261,
      "come": 1262,
      "ient": 1263,
      "ock": 1264,
      "eric": 1265,
      "▁something": 1266,
      "▁might": 1267,
      "▁read": 1268,
      "▁Wow": 1269,
      "ulation": 1270,
      "▁LA": 1271,
      "▁temp": 1272,
      "cond": 1273,
      "ertain": 1274,
      "▁vehicle": 1275,
      "▁these": 1276,
      "▁mult": 1277,
      "arge": 1278,
      "ider": 1279,
      "▁while": 1280,
      "▁Yup": 1281,
      "▁Hopefully": 1282,
      "▁without": 1283,
      "und": 1284,
      "▁Def": 1285,
      "ational": 1286,
      "rain": 1287,
      "▁compan": 1288,
      "▁needs": 1289,
      "▁loc": 1290,
      "ruck": 1291,
      "▁Tex": 1292,
      "▁battery": 1293,
      "initely": 1294,
      "▁update": 1295,
      "ology": 1296,
      "pellant": 1297,
      "-s": 1298,
      "ien": 1299,
      "truck": 1300,
      "▁satell": 1301,
      "anced": 1302,
      "▁tomor": 1303,
      "▁Me": 1304,
      "ential": 1305,
      "▁Cal": 1306,
      "▁making": 1307,
      "olute": 1308,
      "▁times": 1309,
      "▁using": 1310,
      "▁incl": 1311,
      "▁Texas": 1312,
      "▁tomorrow": 1313,
      "dd": 1314,
      "e,": 1315,
      "gress": 1316,
      "ten": 1317,
      "▁bad": 1318,
      "▁current": 1319,
      "▁High": 1320,
      "uring": 1321,
      "▁higher": 1322,
      "▁year\n": 1323,
      "000": 1324,
      "▁true\n": 1325,
      "▁idea": 1326,
      "▁companies": 1327,
      "ium": 1328,
      "▁ca": 1329,
      "▁free": 1330,
      "▁half": 1331,
      "▁yet": 1332,
      "▁stop": 1333,
      "ield": 1334,
      "ush": 1335,
      "▁pos": 1336,
      "▁Cybertruck": 1337,
      "▁until": 1338,
      "a\n": 1339,
      "iant": 1340,
      "over": 1341,
      "▁+": 1342,
      "▁side": 1343,
      "▁care": 1344,
      "▁mot": 1345,
      "▁his": 1346,
      "mpt": 1347,
      "icult": 1348,
      "▁bel": 1349,
      "▁More": 1350,
      "imate": 1351,
      "▁En": 1352,
      "pecially": 1353,
      "ourse": 1354,
      "▁compet": 1355,
      "ization": 1356,
      "▁hardware": 1357,
      "▁article": 1358,
      "▁because": 1359,
      "ces": 1360,
      "ead": 1361,
      "▁ach": 1362,
      "▁fully": 1363,
      "▁reach": 1364,
      "▁stand": 1365,
      "iven": 1366,
      "▁used": 1367,
      "▁$1": 1368,
      "▁Comp": 1369,
      "gt;": 1370,
      "erlin": 1371,
      "ality": 1372,
      "ict": 1373,
      "iming": 1374,
      "▁youre": 1375,
      "iforn": 1376,
      "▁move": 1377,
      "eak": 1378,
      "▁post": 1379,
      "▁anything": 1380,
      "▁fav": 1381,
      "▁Haha\n": 1382,
      "▁Californ": 1383,
      "pr": 1384,
      "port": 1385,
      "▁turn": 1386,
      "▁night": 1387,
      "▁Bet": 1388,
      "raft": 1389,
      "▁comb": 1390,
      "▁fund": 1391,
      "▁One": 1392,
      "▁Only": 1393,
      "▁Solar": 1394,
      "eck": 1395,
      "ied": 1396,
      "med": 1397,
      "tw": 1398,
      "▁away": 1399,
      "▁cant": 1400,
      "▁dat": 1401,
      "▁stage": 1402,
      "▁First": 1403,
      "▁att": 1404,
      "▁head": 1405,
      "ween": 1406,
      "▁Sure\n": 1407,
      "lanet": 1408,
      "▁California": 1409,
      "ai": 1410,
      "bal": 1411,
      "ked": 1412,
      "▁ac": 1413,
      "▁bl": 1414,
      "▁cre": 1415,
      "▁hy": 1416,
      "▁Boring": 1417,
      "▁exact": 1418,
      "▁exper": 1419,
      "velop": 1420,
      "▁called": 1421,
      "▁amazing": 1422,
      "io": 1423,
      "▁case": 1424,
      "▁det": 1425,
      "▁propellant": 1426,
      "▁roof": 1427,
      "▁able": 1428,
      "apid": 1429,
      "▁ago": 1430,
      "▁Doge": 1431,
      "formance": 1432,
      "▁Pretty": 1433,
      "craft": 1434,
      "ps": 1435,
      "uel": 1436,
      "erally": 1437,
      "▁slight": 1438,
      "▁bar": 1439,
      "▁hot": 1440,
      "▁net": 1441,
      "▁rear": 1442,
      "▁it.": 1443,
      "ime": 1444,
      "▁goes": 1445,
      "▁Exactly.": 1446,
      "▁bigg": 1447,
      "▁extremely": 1448,
      "-ter": 1449,
      "ever": 1450,
      "▁tons": 1451,
      "eres": 1452,
      "▁sing": 1453,
      "▁water": 1454,
      "▁pack": 1455,
      "▁Is": 1456,
      "▁Imp": 1457,
      "ustom": 1458,
      "▁via": 1459,
      "▁develop": 1460,
      "ought": 1461,
      "ending": 1462,
      "▁driving": 1463,
      "▁building": 1464,
      "▁parts": 1465,
      "▁especially": 1466,
      "▁difficult": 1467,
      "-term": 1468,
      "aut": 1469,
      "y.": 1470,
      "▁war": 1471,
      "▁course": 1472,
      "▁fl": 1473,
      "▁fly": 1474,
      "▁home": 1475,
      "▁hopefully": 1476,
      "▁I'": 1477,
      "▁expect": 1478,
      "▁kid": 1479,
      "▁payload": 1480,
      "▁volume": 1481,
      "gre": 1482,
      "atic": 1483,
      "▁come": 1484,
      "▁let": 1485,
      "▁reason": 1486,
      "▁Abs": 1487,
      "ention": 1488,
      "▁yes\n": 1489,
      "▁progress": 1490,
      "▁Please": 1491,
      "▁beta": 1492,
      "rior": 1493,
      "▁technology": 1494,
      "▁invest": 1495,
      "▁multip": 1496,
      "k,": 1497,
      "▁sustain": 1498,
      "▁body": 1499,
      "▁fal": 1500,
      "▁gam": 1501,
      "▁review": 1502,
      "eler": 1503,
      "▁vac": 1504,
      "▁worth": 1505,
      "▁Our": 1506,
      "ather": 1507,
      "▁Americ": 1508,
      "▁wrong": 1509,
      "▁against": 1510,
      "▁Absolute": 1511,
      "ning": 1512,
      "▁wont": 1513,
      "▁must": 1514,
      "▁put": 1515,
      "▁hold": 1516,
      "ident": 1517,
      "▁Now": 1518,
      "ilt": 1519,
      "▁rapid": 1520,
      "▁Go": 1521,
      "▁between": 1522,
      "▁center": 1523,
      "av": 1524,
      "mb": 1525,
      "no": 1526,
      "oid": 1527,
      "uss": 1528,
      "▁Z": 1529,
      "eship": 1530,
      "atically": 1531,
      "ists": 1532,
      "▁forward": 1533,
      "▁Coming": 1534,
      "▁Nor": 1535,
      "▁buy": 1536,
      "▁...\n": 1537,
      "▁improvement": 1538,
      "▁general": 1539,
      "▁regulat": 1540,
      "cl": 1541,
      "driving": 1542,
      "line": 1543,
      "xy": 1544,
      "▁wa": 1545,
      "▁bit": 1546,
      "ital": 1547,
      "▁dro": 1548,
      "▁rele": 1549,
      "▁Ab": 1550,
      "▁steel": 1551,
      "▁Be": 1552,
      "▁try": 1553,
      "▁second": 1554,
      "▁Well": 1555,
      "▁heat": 1556,
      "▁feature": 1557,
      "▁looks": 1558,
      "ificant": 1559,
      "▁upgrad": 1560,
      "▁zero": 1561,
      "▁awesome": 1562,
      "▁data": 1563,
      "▁false": 1564,
      "wor": 1565,
      "▁cam": 1566,
      "▁creat": 1567,
      "▁lat": 1568,
      "icles": 1569,
      "though": 1570,
      "▁Power": 1571,
      "ers\n": 1572,
      "▁getting": 1573,
      "▁optim": 1574,
      "▁appreciated": 1575,
      "not": 1576,
      "ince": 1577,
      "▁custom": 1578,
      "eng": 1579,
      "llow": 1580,
      "▁prior": 1581,
      "▁got": 1582,
      "▁rest": 1583,
      "▁Act": 1584,
      "▁stre": 1585,
      "▁Fr": 1586,
      "▁cover": 1587,
      "▁const": 1588,
      "▁means": 1589,
      "▁~2": 1590,
      "other": 1591,
      "▁clos": 1592,
      "▁thought": 1593,
      "▁increas": 1594,
      "▁value": 1595,
      "▁media": 1596,
      "▁reusable": 1597,
      "ommend": 1598,
      "10": 1599,
      "s!\n": 1600,
      "wall": 1601,
      "▁:": 1602,
      "▁sum": 1603,
      "▁sound": 1604,
      "▁cell": 1605,
      "ouse": 1606,
      "ities": 1607,
      "▁million": 1608,
      "▁old": 1609,
      "stand": 1610,
      "▁form": 1611,
      "▁wheel": 1612,
      "opper": 1613,
      "ulations": 1614,
      "▁Youre": 1615,
      "▁interest": 1616,
      "▁imo": 1617,
      "▁issu": 1618,
      "▁risk": 1619,
      "▁single": 1620,
      "itude": 1621,
      "lad": 1622,
      "▁deep": 1623,
      "▁above": 1624,
      "raz": 1625,
      "▁km": 1626,
      "▁quite": 1627,
      "▁auto": 1628,
      "▁didnt": 1629,
      "▁increase": 1630,
      "▁price": 1631,
      "▁self-driving": 1632,
      "..": 1633,
      "bot": 1634,
      "ted": 1635,
      "▁fuel": 1636,
      "▁mid": 1637,
      "▁live": 1638,
      "▁Ind": 1639,
      "▁gra": 1640,
      "▁Cool": 1641,
      "▁Cape": 1642,
      "urate": 1643,
      "▁La": 1644,
      "ives": 1645,
      "▁mean": 1646,
      "▁kind": 1647,
      "▁contin": 1648,
      "▁acceler": 1649,
      "▁significant": 1650,
      "▁approval": 1651,
      "▁sal": 1652,
      "reen": 1653,
      "▁wel": 1654,
      "oud": 1655,
      "▁hand": 1656,
      "▁coll": 1657,
      "▁Even": 1658,
      "ation.": 1659,
      "▁sell": 1660,
      "▁time,": 1661,
      "▁recommend": 1662,
      "▁complex": 1663,
      "▁complete": 1664,
      "▁direct": 1665,
      "▁Wow,": 1666,
      "▁Yup\n": 1667,
      ".0": 1668,
      "uro": 1669,
      "▁win": 1670,
      "▁find": 1671,
      "ites": 1672,
      "▁mach": 1673,
      "▁mph": 1674,
      "▁With": 1675,
      "▁rad": 1676,
      "▁view": 1677,
      "▁Love": 1678,
      "▁deal": 1679,
      "▁too\n": 1680,
      "weet": 1681,
      "▁disc": 1682,
      "▁deliver": 1683,
      "▁Supercharger": 1684,
      "▁number": 1685,
      "▁favor": 1686,
      "lanetary": 1687,
      "▁slightly": 1688,
      "las": 1689,
      "ug": 1690,
      "y.\n": 1691,
      "▁hope": 1692,
      "▁Twit": 1693,
      "ched": 1694,
      "ird": 1695,
      "urb": 1696,
      "▁trying": 1697,
      "▁main": 1698,
      "▁although": 1699,
      "▁likely": 1700,
      "▁place": 1701,
      "▁anyone": 1702,
      "ccess": 1703,
      "▁Yeah\n": 1704,
      "gram": 1705,
      "▁designed": 1706,
      "▁truck": 1707,
      "▁consider": 1708,
      "▁Road": 1709,
      "▁return": 1710,
      "where": 1711,
      "▁believe": 1712,
      "50": 1713,
      "a,": 1714,
      "eg": 1715,
      "zz": 1716,
      "▁slow": 1717,
      "ing.\n": 1718,
      "▁here": 1719,
      "▁name": 1720,
      "▁run": 1721,
      "▁Ph": 1722,
      "▁word": 1723,
      "▁Still": 1724,
      "▁goal": 1725,
      "lock": 1726,
      "▁amount": 1727,
      "▁Congrat": 1728,
      "▁camer": 1729,
      "▁Twitter": 1730,
      "ern": 1731,
      "ism": 1732,
      "ouble": 1733,
      "arch": 1734,
      "▁dist": 1735,
      "ross": 1736,
      "▁Ive": 1737,
      "▁each": 1738,
      "ome\n": 1739,
      "▁ste": 1740,
      "loy": 1741,
      "duction": 1742,
      "▁advanced": 1743,
      "▁traffic": 1744,
      "▁True": 1745,
      "▁fairing": 1746,
      "xygen": 1747,
      "ake": 1748,
      "gn": 1749,
      "lass": 1750,
      "▁size": 1751,
      "▁wide": 1752,
      "▁cry": 1753,
      "▁correct": 1754,
      "▁pol": 1755,
      "▁oxygen": 1756,
      "leet": 1757,
      "▁Aiming": 1758,
      "▁Agre": 1759,
      "▁anal": 1760,
      "▁neg": 1761,
      "ament": 1762,
      "▁Dont": 1763,
      "ers.": 1764,
      "▁works": 1765,
      "▁built": 1766,
      "▁When": 1767,
      "▁fail": 1768,
      "▁Rock": 1769,
      "▁difference": 1770,
      "ibly": 1771,
      "▁critical": 1772,
      "▁iron": 1773,
      "▁sustainable": 1774,
      "▁releas": 1775,
      "aid": 1776,
      "cing": 1777,
      "lor": 1778,
      "ufact": 1779,
      "▁term": 1780,
      "▁city": 1781,
      "▁cred": 1782,
      "▁pie": 1783,
      "▁Sounds": 1784,
      "acking": 1785,
      "▁App": 1786,
      "▁it.\n": 1787,
      "ither": 1788,
      "▁vis": 1789,
      "▁jour": 1790,
      "ivil": 1791,
      "▁pres": 1792,
      "▁months": 1793,
      "▁access": 1794,
      "▁scal": 1795,
      "▁humanity": 1796,
      "coin": 1797,
      "▁obvious": 1798,
      "▁keep": 1799,
      "ience": 1800,
      "▁action": 1801,
      "on\n": 1802,
      "on-": 1803,
      "▁certain": 1804,
      "▁craz": 1805,
      "▁give": 1806,
      "ation,": 1807,
      "▁noth": 1808,
      "▁Lot": 1809,
      "▁(s": 1810,
      "quid": 1811,
      "▁time\n": 1812,
      "▁load": 1813,
      "▁Need": 1814,
      "▁Next": 1815,
      "▁spac": 1816,
      "▁literally": 1817,
      "▁Looks": 1818,
      "▁miles": 1819,
      "▁regulatory": 1820,
      "▁About": 1821,
      "▁Roadster": 1822,
      "cent": 1823,
      "uum": 1824,
      "▁mind": 1825,
      "▁top": 1826,
      "▁isnt": 1827,
      "▁Sp": 1828,
      "ice\n": 1829,
      "▁effic": 1830,
      "▁Are": 1831,
      "cture": 1832,
      "▁ann": 1833,
      "▁stock": 1834,
      "▁mostly": 1835,
      "▁whole": 1836,
      "ocus": 1837,
      "▁ground": 1838,
      "▁Any": 1839,
      "▁travel": 1840,
      "▁limited": 1841,
      ":\n": 1842,
      "led": 1843,
      "▁bro": 1844,
      "ouch": 1845,
      "its": 1846,
      "▁oth": 1847,
      "▁event": 1848,
      "▁effect": 1849,
      "▁Euro": 1850,
      "▁abs": 1851,
      "▁thanks": 1852,
      "conom": 1853,
      "bability": 1854,
      "▁Mars\n": 1855,
      "▁function": 1856,
      "▁different": 1857,
      "▁front": 1858,
      "▁positive": 1859,
      "▁detail": 1860,
      "▁welcome": 1861,
      "▁Congratulations": 1862,
      "lt": 1863,
      "▁affect": 1864,
      "ising": 1865,
      "ers,": 1866,
      "▁success": 1867,
      "▁prec": 1868,
      "▁actual": 1869,
      "▁Almost": 1870,
      "▁prim": 1871,
      "▁phys": 1872,
      "▁definitely": 1873,
      "▁required": 1874,
      "net": 1875,
      "put": 1876,
      "ract": 1877,
      "uck": 1878,
      "yond": 1879,
      "▁sn": 1880,
      "▁three": 1881,
      "▁fleet": 1882,
      "▁dest": 1883,
      "▁&gt;": 1884,
      "▁Was": 1885,
      "▁near": 1886,
      "▁program": 1887,
      "▁mov": 1888,
      "▁exc": 1889,
      "▁death": 1890,
      "▁such": 1891,
      "▁check": 1892,
      "ends": 1893,
      "▁~3": 1894,
      "▁too.": 1895,
      "▁someone": 1896,
      "▁left": 1897,
      "▁point\n": 1898,
      "▁factor": 1899,
      "▁manufact": 1900,
      "▁motor": 1901,
      "▁standard": 1902,
      "ob": 1903,
      "ub": 1904,
      "wer": 1905,
      "▁tough": 1906,
      "▁tank": 1907,
      "▁sun": 1908,
      "res": 1909,
      "▁burn": 1910,
      "▁civil": 1911,
      "▁init": 1912,
      "▁giant": 1913,
      "ote": 1914,
      "▁em": 1915,
      "imes": 1916,
      "▁prop": 1917,
      "▁prot": 1918,
      "▁ra": 1919,
      "▁room": 1920,
      "oughly": 1921,
      "▁log": 1922,
      "istory": 1923,
      "▁agree": 1924,
      "▁solution": 1925,
      "▁performance": 1926,
      "▁spec": 1927,
      "like": 1928,
      "▁entire": 1929,
      "ever,": 1930,
      "▁Powerwall": 1931,
      "H4": 1932,
      "ings": 1933,
      "▁flow": 1934,
      "itch": 1935,
      "▁large": 1936,
      "veil": 1937,
      "▁rece": 1938,
      "▁May": 1939,
      "vert": 1940,
      "▁prob": 1941,
      "irm": 1942,
      "▁Boc": 1943,
      "pper": 1944,
      "ults": 1945,
      "▁arr": 1946,
      "▁~$": 1947,
      "▁itself": 1948,
      "▁everyone": 1949,
      "▁improvements": 1950,
      "arket": 1951,
      "▁multiplanetary": 1952,
      "▁Launch": 1953,
      "!?\n": 1954,
      ").\n": 1955,
      "0%": 1956,
      "a.": 1957,
      "ral": 1958,
      "ries": 1959,
      "vt": 1960,
      "wise": 1961,
      "▁sens": 1962,
      "▁since": 1963,
      "▁bra": 1964,
      "▁fine": 1965,
      "▁pain": 1966,
      "▁dens": 1967,
      "▁larg": 1968,
      "▁inf": 1969,
      "▁emp": 1970,
      "els": 1971,
      "▁Yes.": 1972,
      "▁Per": 1973,
      "▁cold": 1974,
      "▁Every": 1975,
      "ppy": 1976,
      "ation\n": 1977,
      "▁exist": 1978,
      "▁Li": 1979,
      "ortun": 1980,
      "▁sugg": 1981,
      "▁long-term": 1982,
      "ether": 1983,
      "▁understand": 1984,
      "▁Looking": 1985,
      "▁Interest": 1986,
      "▁follow": 1987,
      "▁install": 1988,
      "▁satellites": 1989,
      "tw,": 1990,
      "▁summ": 1991,
      "h\n": 1992,
      "▁sw": 1993,
      "▁sounds": 1994,
      "ency": 1995,
      "llent": 1996,
      "▁pan": 1997,
      "▁di": 1998,
      "▁ready": 1999,
      "iday": 2000,
      "oop": 2001,
      "▁star": 2002,
      "▁Tesla,": 2003,
      "▁Hy": 2004,
      "▁Hard": 2005,
      "ilter": 2006,
      "ify": 2007,
      "cept": 2008,
      "▁deb": 2009,
      "▁chance": 2010,
      "▁mem": 2011,
      "cient": 2012,
      "mos": 2013,
      "▁unveil": 2014,
      "▁incred": 2015,
      "▁longer": 2016,
      "▁repl": 2017,
      "▁upgrade": 2018,
      "▁hours": 2019,
      "▁automatically": 2020,
      "▁Company": 2021,
      "▁combust": 2022,
      "▁fundament": 2023,
      "▁I'm": 2024,
      "▁vacuum": 2025,
      "cr": 2026,
      "face": 2027,
      "head": 2028,
      "ier": 2029,
      "ken": 2030,
      "nect": 2031,
      "pir": 2032,
      "▁ed": 2033,
      "read": 2034,
      "▁focus": 2035,
      "▁mention": 2036,
      "▁past": 2037,
      "▁tot": 2038,
      "▁during": 2039,
      "▁lab": 2040,
      "rot": 2041,
      "▁red": 2042,
      "▁rel": 2043,
      "▁equ": 2044,
      "▁econom": 2045,
      "omet": 2046,
      "▁Thank": 2047,
      "entially": 2048,
      "laid": 2049,
      "▁butt": 2050,
      "▁Fair": 2051,
      "▁train": 2052,
      "ers.\n": 2053,
      "▁Over": 2054,
      "▁robot": 2055,
      "▁subs": 2056,
      "▁law": 2057,
      "▁rockets": 2058,
      "▁reality": 2059,
      "▁weekend": 2060,
      "▁don't": 2061,
      "▁negative": 2062,
      "▁Rocket": 2063,
      "ling": 2064,
      "na": 2065,
      "▁tin": 2066,
      "▁tweet": 2067,
      "erv": 2068,
      "onom": 2069,
      "▁sent": 2070,
      "▁found": 2071,
      "▁fri": 2072,
      "ited": 2073,
      "▁pad": 2074,
      "▁please": 2075,
      "▁history": 2076,
      "▁Sum": 2077,
      "▁beg": 2078,
      "▁glo": 2079,
      "▁game": 2080,
      "acks": 2081,
      "▁Ar": 2082,
      "▁Those": 2083,
      "▁another": 2084,
      "▁Car": 2085,
      "▁CH4": 2086,
      "▁it,": 2087,
      "▁probability": 2088,
      "▁Full": 2089,
      "▁Btw,": 2090,
      "▁ord": 2091,
      "▁vent": 2092,
      "▁vision": 2093,
      "▁Of": 2094,
      "▁liquid": 2095,
      "▁govt": 2096,
      "istic": 2097,
      "cience": 2098,
      "▁plus": 2099,
      "▁Why": 2100,
      "▁time.": 2101,
      "▁year,": 2102,
      "▁year.": 2103,
      "▁testing": 2104,
      "▁accurate": 2105,
      "▁week\n": 2106,
      "▁useful": 2107,
      "ically,": 2108,
      "▁safe": 2109,
      "▁saying": 2110,
      "▁batteries": 2111,
      "▁seems": 2112,
      "ounce": 2113,
      "▁local": 2114,
      "▁Eng": 2115,
      "▁Actually": 2116,
      "bon": 2117,
      "cle": 2118,
      "oke": 2119,
      "par": 2120,
      "ump": 2121,
      "vol": 2122,
      "on't": 2123,
      "▁bre": 2124,
      "▁cause": 2125,
      "▁mess": 2126,
      "▁pot": 2127,
      "▁non-": 2128,
      "▁Sm": 2129,
      "ions": 2130,
      "▁online": 2131,
      "ading": 2132,
      "amber": 2133,
      "ilar": 2134,
      "oping": 2135,
      "unk": 2136,
      "▁mod": 2137,
      "ably": 2138,
      "▁shield": 2139,
      "▁chall": 2140,
      "▁feed": 2141,
      "▁year.\n": 2142,
      "▁week.": 2143,
      "▁mins": 2144,
      "▁record": 2145,
      "ysis": 2146,
      "▁Canad": 2147,
      "▁strong": 2148,
      "aila": 2149,
      "▁hyd": 2150,
      "▁piece": 2151,
      "mosph": 2152,
      "gle": 2153,
      "ik": 2154,
      "lish": 2155,
      "uff": 2156,
      "▁wish": 2157,
      "▁cy": 2158,
      "▁fre": 2159,
      "▁mer": 2160,
      "▁date": 2161,
      "▁late": 2162,
      "▁given": 2163,
      "▁redu": 2164,
      "oty": 2165,
      "▁el": 2166,
      "vern": 2167,
      "▁stru": 2168,
      "▁Berlin": 2169,
      "▁moving": 2170,
      "pping": 2171,
      "aps": 2172,
      "▁govern": 2173,
      "ored": 2174,
      "▁much\n": 2175,
      "▁Who": 2176,
      "▁theyre": 2177,
      "ference": 2178,
      "▁now.": 2179,
      "▁sure\n": 2180,
      "▁finish": 2181,
      "▁address": 2182,
      "▁phone": 2183,
      "▁config": 2184,
      "▁job": 2185,
      "▁changes": 2186,
      "▁achie": 2187,
      "▁create": 2188,
      "▁machine": 2189,
      "▁analysis": 2190,
      "ax": 2191,
      "back": 2192,
      "i-": 2193,
      "pl": 2194,
      "rit": 2195,
      "ins": 2196,
      "▁base": 2197,
      "▁cal": 2198,
      "ission": 2199,
      "arter": 2200,
      "▁push": 2201,
      "▁him": 2202,
      "▁beyond": 2203,
      "acing": 2204,
      "▁Aust": 2205,
      "▁Tesla.": 2206,
      "▁within": 2207,
      "aby": 2208,
      "▁core": 2209,
      "▁EV": 2210,
      "pped": 2211,
      "▁orig": 2212,
      "▁sus": 2213,
      "▁hear": 2214,
      "▁good\n": 2215,
      "▁right\n": 2216,
      "▁news": 2217,
      "▁flights": 2218,
      "▁Does": 2219,
      "iverse": 2220,
      "▁avoid": 2221,
      "▁availa": 2222,
      "▁Congrats": 2223,
      "▁tonight": 2224,
      "▁remain": 2225,
      "▁Beta": 2226,
      "▁black": 2227,
      "▁exactly": 2228,
      "▁Absolutely\n": 2229,
      "▁crazy": 2230,
      "▁civilization": 2231,
      "▁Boca": 2232,
      "▁density": 2233,
      "▁combustion": 2234,
      "500": 2235,
      "ior": 2236,
      "ivery": 2237,
      "meth": 2238,
      "oy": 2239,
      "tical": 2240,
      "▁ut": 2241,
      "▁sit": 2242,
      "▁catch": 2243,
      "▁mile": 2244,
      "▁market": 2245,
      "▁pm": 2246,
      "▁pur": 2247,
      "▁house": 2248,
      "▁line": 2249,
      "▁offer": 2250,
      "▁beh": 2251,
      "▁once": 2252,
      "▁Mon": 2253,
      "▁Much": 2254,
      "entry": 2255,
      "▁ult": 2256,
      "▁stud": 2257,
      "▁provid": 2258,
      "▁NY": 2259,
      "▁ramp": 2260,
      "▁roughly": 2261,
      "▁Big": 2262,
      "▁Plaid": 2263,
      "▁chamber": 2264,
      "▁took": 2265,
      "▁unless": 2266,
      "rupt": 2267,
      "▁time.\n": 2268,
      "▁takes": 2269,
      "▁crash": 2270,
      "▁countries": 2271,
      "▁except": 2272,
      "▁talk": 2273,
      "▁issue": 2274,
      "po": 2275,
      "ugh": 2276,
      "▁turb": 2277,
      "ints": 2278,
      "▁theres": 2279,
      "orter": 2280,
      "▁filter": 2281,
      "▁double": 2282,
      "roll": 2283,
      "stron": 2284,
      "▁nam": 2285,
      "▁below": 2286,
      "▁Merlin": 2287,
      "▁ans": 2288,
      "▁Could": 2289,
      "▁state": 2290,
      "amet": 2291,
      "▁area": 2292,
      "iful": 2293,
      "▁having": 2294,
      "▁atte": 2295,
      "▁Long": 2296,
      "▁seen": 2297,
      "▁Oh": 2298,
      "action": 2299,
      "ared": 2300,
      "▁meant": 2301,
      "ired": 2302,
      "▁impact": 2303,
      "ems": 2304,
      "▁gets": 2305,
      "▁Neural": 2306,
      "▁Happy": 2307,
      "rib": 2308,
      "▁looking": 2309,
      "▁costs": 2310,
      "▁vehicles": 2311,
      "▁Internet": 2312,
      "▁Working": 2313,
      "▁However,": 2314,
      "▁computer": 2315,
      "iency": 2316,
      "▁includ": 2317,
      "▁currently": 2318,
      "▁achieve": 2319,
      "▁kids": 2320,
      "▁sales": 2321,
      "▁nothing": 2322,
      "▁Summon": 2323,
      "▁available": 2324,
      "AW": 2325,
      "hold": 2326,
      "oice": 2327,
      "ta": 2328,
      "to": 2329,
      "inks": 2330,
      "▁sour": 2331,
      "▁bot": 2332,
      "▁billion": 2333,
      "▁bought": 2334,
      "▁pure": 2335,
      "▁list": 2336,
      "icul": 2337,
      "▁grow": 2338,
      "igate": 2339,
      "▁either": 2340,
      "▁Might": 2341,
      "▁upper": 2342,
      "idual": 2343,
      "amm": 2344,
      "▁Bit": 2345,
      "▁enable": 2346,
      "▁atmosph": 2347,
      "▁she": 2348,
      "▁ass": 2349,
      "▁var": 2350,
      "▁carbon": 2351,
      "▁nozz": 2352,
      "izing": 2353,
      "▁soon.": 2354,
      "▁soon.\n": 2355,
      "▁now,": 2356,
      "▁special": 2357,
      "▁insane": 2358,
      "▁delivery": 2359,
      "▁tunnels": 2360,
      "▁Gigafact": 2361,
      "▁exceed": 2362,
      "▁easy": 2363,
      "▁Hopefully,": 2364,
      "▁bigger": 2365,
      "▁credit": 2366,
      "▁Europe": 2367,
      "methrow": 2368,
      "'re": 2369,
      "city": 2370,
      "down": 2371,
      "e.": 2372,
      "iate": 2373,
      "just": 2374,
      "sing": 2375,
      "side": 2376,
      "vity": 2377,
      "▁touch": 2378,
      "inc": 2379,
      "▁pic": 2380,
      "▁paid": 2381,
      "▁heavy": 2382,
      "▁Turn": 2383,
      "▁Id": 2384,
      "▁beaut": 2385,
      "▁These": 2386,
      "▁ur": 2387,
      "▁Nice\n": 2388,
      "▁rul": 2389,
      "▁Bl": 2390,
      "▁Best": 2391,
      "▁section": 2392,
      "umb": 2393,
      "orts": 2394,
      "ssibly": 2395,
      "▁meet": 2396,
      "▁tell": 2397,
      "▁pred": 2398,
      "▁comes": 2399,
      "ruction": 2400,
      "▁worked": 2401,
      "age\n": 2402,
      "arget": 2403,
      "▁months\n": 2404,
      "▁account": 2405,
      "ressive": 2406,
      "▁serious": 2407,
      "▁everything": 2408,
      "▁final": 2409,
      "▁become": 2410,
      "▁true.": 2411,
      "▁clean": 2412,
      "▁Max": 2413,
      "▁based": 2414,
      "▁basically": 2415,
      "▁rolling": 2416,
      "▁simply": 2417,
      "▁indust": 2418,
      "▁priority": 2419,
      "▁radar": 2420,
      "▁fundamental": 2421,
      "▁government": 2422,
      "ex": 2423,
      "ossible": 2424,
      "person": 2425,
      "uge": 2426,
      "▁er": 2427,
      "▁tanks": 2428,
      "▁went": 2429,
      "▁watch": 2430,
      "▁cor": 2431,
      "▁pop": 2432,
      "▁pod": 2433,
      "▁opp": 2434,
      "▁Something": 2435,
      "▁Mach": 2436,
      "▁Cant": 2437,
      "▁so\n": 2438,
      "▁story": 2439,
      "▁HW": 2440,
      "▁rat": 2441,
      "▁Pl": 2442,
      "▁mode": 2443,
      "▁shot": 2444,
      "▁Glad": 2445,
      "▁ask": 2446,
      "▁this.": 2447,
      "▁connect": 2448,
      "ivity": 2449,
      "▁engin": 2450,
      "▁It's": 2451,
      "▁active": 2452,
      "▁taking": 2453,
      "▁driver": 2454,
      "othing": 2455,
      "▁internal": 2456,
      "▁proud": 2457,
      "▁faster": 2458,
      "▁repair": 2459,
      "▁request": 2460,
      "▁transport": 2461,
      "▁Worth": 2462,
      "▁metal": 2463,
      "▁Definite": 2464,
      "▁caus": 2465,
      "▁total": 2466,
      "▁else": 2467,
      "SA": 2468,
      "go": 2469,
      "ler": 2470,
      "mand": 2471,
      "ng": 2472,
      "▁smo": 2473,
      "ret": 2474,
      "arily": 2475,
      "▁las": 2476,
      "▁norm": 2477,
      "▁often": 2478,
      "▁one\n": 2479,
      "▁Mo": 2480,
      "▁Many": 2481,
      "▁stor": 2482,
      "▁store": 2483,
      "▁neural": 2484,
      "▁Hoping": 2485,
      "▁trip": 2486,
      "▁demo": 2487,
      "locity": 2488,
      "▁UAW": 2489,
      "▁hell": 2490,
      "▁nose": 2491,
      "▁good.": 2492,
      "▁harder": 2493,
      "▁lead": 2494,
      "▁dron": 2495,
      "▁Have": 2496,
      "▁results": 2497,
      "▁autonom": 2498,
      "▁party": 2499,
      "▁velocity": 2500,
      "wards": 2501,
      "▁massive": 2502,
      "▁cool\n": 2503,
      "▁deploy": 2504,
      "▁fixed": 2505,
      "▁simple": 2506,
      "▁Definitely": 2507,
      "▁Isp": 2508,
      "▁Norway": 2509,
      "▁wait": 2510,
      "▁continu": 2511,
      "▁favorite": 2512,
      "▁efficiency": 2513,
      "▁primary": 2514,
      "▁Hyper": 2515,
      "▁ventil": 2516,
      "▁attempt": 2517,
      "▁Gigafactory": 2518,
      "20": 2519,
      "fect": 2520,
      "he": 2521,
      "haps": 2522,
      "loop": 2523,
      "og": 2524,
      "ole": 2525,
      "pon": 2526,
      "ule": 2527,
      "▁ess": 2528,
      "▁ide": 2529,
      "▁til": 2530,
      "ination": 2531,
      "eral": 2532,
      "▁cas": 2533,
      "▁fig": 2534,
      "▁dual": 2535,
      "▁lay": 2536,
      "▁Sun": 2537,
      "▁Air": 2538,
      "oment": 2539,
      "▁Mk": 2540,
      "vers": 2541,
      "ook": 2542,
      "▁static": 2543,
      "▁prof": 2544,
      "irth": 2545,
      "▁arent": 2546,
      "▁Both": 2547,
      "▁enab": 2548,
      "▁height": 2549,
      "▁heard": 2550,
      "▁good,": 2551,
      "▁incent": 2552,
      "▁respect": 2553,
      "anger": 2554,
      "▁maxim": 2555,
      "▁surpr": 2556,
      "▁matters": 2557,
      "▁excellent": 2558,
      "▁said,": 2559,
      "▁operating": 2560,
      "▁bring": 2561,
      "▁idea\n": 2562,
      "▁closer": 2563,
      "▁industry": 2564,
      "personic": 2565,
      "▁droneship": 2566,
      "19": 2567,
      "O2": 2568,
      "ee": 2569,
      "hor": 2570,
      "ror": 2571,
      "sure": 2572,
      "vir": 2573,
      "▁sched": 2574,
      "▁cat": 2575,
      "▁fall": 2576,
      "outh": 2577,
      "▁moment": 2578,
      "▁peak": 2579,
      "▁dig": 2580,
      "▁hon": 2581,
      "▁hat": 2582,
      "ion.": 2583,
      "▁ele": 2584,
      "ithium": 2585,
      "iring": 2586,
      "▁Nothing": 2587,
      "▁Boo": 2588,
      "▁code": 2589,
      "▁trick": 2590,
      "▁magn": 2591,
      "▁demand": 2592,
      "▁Jo": 2593,
      "▁great\n": 2594,
      "fford": 2595,
      "▁cars,": 2596,
      "▁...": 2597,
      "▁minim": 2598,
      "▁pump": 2599,
      "▁Really": 2600,
      "▁object": 2601,
      "▁guess": 2602,
      "▁climate": 2603,
      "▁talent": 2604,
      "▁legs": 2605,
      "▁clear,": 2606,
      "▁across": 2607,
      "▁biggest": 2608,
      "▁games": 2609,
      "▁increasing": 2610,
      "▁cameras": 2611,
      "▁certainly": 2612,
      "▁announce": 2613,
      "▁Like": 2614,
      "▁diamet": 2615,
      "▁global": 2616,
      "▁Neuralink": 2617,
      "▁Bitcoin": 2618,
      "▁Hyperloop": 2619,
      "-c": 2620,
      "/s": 2621,
      "100": 2622,
      "averal": 2623,
      "bo": 2624,
      "lt;": 2625,
      "▁tre": 2626,
      "▁throt": 2627,
      "▁brain": 2628,
      "▁ft": 2629,
      "▁mount": 2630,
      "▁dam": 2631,
      "alth": 2632,
      "ased": 2633,
      "ly.\n": 2634,
      "▁render": 2635,
      "▁Add": 2636,
      "▁force": 2637,
      "idth": 2638,
      "chan": 2639,
      "▁Con": 2640,
      "▁white": 2641,
      "▁Tesla\n": 2642,
      "▁Your": 2643,
      "▁Nice": 2644,
      "▁Fre": 2645,
      "▁Dep": 2646,
      "▁share": 2647,
      "ation.\n": 2648,
      "▁Russ": 2649,
      "▁cond": 2650,
      "▁Str": 2651,
      "▁Station": 2652,
      "ivate": 2653,
      "▁Ju": 2654,
      "▁team.": 2655,
      "▁otherwise": 2656,
      "▁point.": 2657,
      "▁screen": 2658,
      "▁requires": 2659,
      "▁join": 2660,
      "▁Canaveral": 2661,
      "▁Seems": 2662,
      "▁capac": 2663,
      "▁experience": 2664,
      "▁gravity": 2665,
      "▁present": 2666,
      "▁(sigh": 2667,
      "▁movie": 2668,
      "▁prototy": 2669,
      "▁incredible": 2670,
      "ometimes": 2671,
      "▁Actually,": 2672,
      "▁potential": 2673,
      "▁original": 2674,
      "▁normal": 2675,
      "&gt;": 2676,
      "-t": 2677,
      "/h": 2678,
      "hopper": 2679,
      "man": 2680,
      "tion": 2681,
      "titude": 2682,
      "▁!\n": 2683,
      "▁ap": 2684,
      "onment": 2685,
      "ream": 2686,
      "esign": 2687,
      "▁bay": 2688,
      "▁bank": 2689,
      "▁block": 2690,
      "▁birth": 2691,
      "▁cash": 2692,
      "arn": 2693,
      "▁path": 2694,
      "▁tow": 2695,
      "▁ok": 2696,
      "▁Try": 2697,
      "▁is\n": 2698,
      "▁Ser": 2699,
      "level": 2700,
      "omes": 2701,
      "▁ant": 2702,
      "▁it's": 2703,
      "▁step": 2704,
      "▁Teslas": 2705,
      "irt": 2706,
      "▁Found": 2707,
      "urs": 2708,
      "▁PC": 2709,
      "▁at\n": 2710,
      "ured": 2711,
      "▁door": 2712,
      "▁Other": 2713,
      "▁conc": 2714,
      "anding": 2715,
      "▁charge": 2716,
      "usic": 2717,
      "▁tech": 2718,
      "ires": 2719,
      "istics": 2720,
      "▁arg": 2721,
      "▁Exc": 2722,
      "▁cars.": 2723,
      "▁solve": 2724,
      "▁perfect": 2725,
      "▁Production": 2726,
      "▁point,": 2727,
      "▁aircraft": 2728,
      "▁immed": 2729,
      "▁Techn": 2730,
      "▁delay": 2731,
      "▁entry": 2732,
      "▁country": 2733,
      "▁appreciate": 2734,
      "▁simulation": 2735,
      "▁direction": 2736,
      "undred": 2737,
      "▁Important": 2738,
      "▁Inde": 2739,
      "ortunate": 2740,
      "▁friend": 2741,
      "▁feedback": 2742,
      "▁hydro": 2743,
      "▁nozzle": 2744,
      "▁predict": 2745,
      "vironment": 2746,
      "▁Booster": 2747,
      "▁immediate": 2748,
      "Wh": 2749,
      "ave": 2750,
      "bur": 2751,
      "ev": 2752,
      "ew": 2753,
      "egr": 2754,
      "i\n": 2755,
      "mm": 2756,
      "rass": 2757,
      "self": 2758,
      "ube": 2759,
      "▁ign": 2760,
      "▁target": 2761,
      "▁afford": 2762,
      "▁thread": 2763,
      "▁blow": 2764,
      "▁cut": 2765,
      "▁cur": 2766,
      "arant": 2767,
      "▁dut": 2768,
      "▁hor": 2769,
      "▁inj": 2770,
      "▁ep": 2771,
      "▁Ad": 2772,
      "▁that's": 2773,
      "▁prom": 2774,
      "▁color": 2775,
      "▁East": 2776,
      "▁Day": 2777,
      "▁track": 2778,
      "▁vast": 2779,
      "▁do\n": 2780,
      "▁note": 2781,
      "▁char": 2782,
      "▁charg": 2783,
      "▁impossible": 2784,
      "▁heating": 2785,
      "▁greater": 2786,
      "▁plac": 2787,
      "▁usually": 2788,
      "▁No\n": 2789,
      "▁launches": 2790,
      "▁integr": 2791,
      "▁contract": 2792,
      "▁months.": 2793,
      "▁years,": 2794,
      "▁realize": 2795,
      "▁serve": 2796,
      "▁vertical": 2797,
      "▁adding": 2798,
      "▁versions": 2799,
      "▁happened": 2800,
      "olog": 2801,
      "▁sky": 2802,
      "▁similar": 2803,
      "ounter": 2804,
      "▁Sorry,": 2805,
      "▁window": 2806,
      "pril": 2807,
      "▁warm": 2808,
      "▁orders": 2809,
      "▁beautiful": 2810,
      ".\"\n": 2811,
      "EO": 2812,
      "PA": 2813,
      "ah": 2814,
      "fortunate": 2815,
      "sel": 2816,
      "wide": 2817,
      "▁tb": 2818,
      "inking": 2819,
      "▁science": 2820,
      "rel": 2821,
      "rew": 2822,
      "▁boring": 2823,
      "arly": 2824,
      "▁pat": 2825,
      "▁towards": 2826,
      "▁hover": 2827,
      "rote": 2828,
      "▁nav": 2829,
      "▁Same": 2830,
      "ional": 2831,
      "▁Iron": 2832,
      "uth": 2833,
      "▁reentry": 2834,
      "▁&lt;": 2835,
      "oms": 2836,
      "▁Current": 2837,
      "▁prov": 2838,
      "▁process": 2839,
      "▁F9": 2840,
      "▁Bu": 2841,
      "▁Po": 2842,
      "▁ensure": 2843,
      "▁environment": 2844,
      "▁Did": 2845,
      "▁separ": 2846,
      "▁Ok,": 2847,
      "ands": 2848,
      "▁Stop": 2849,
      "▁dev": 2850,
      "que": 2851,
      "ived": 2852,
      "ief": 2853,
      "▁points": 2854,
      "▁output": 2855,
      "▁V1": 2856,
      "▁lost": 2857,
      "▁That's": 2858,
      "▁too.\n": 2859,
      "▁quarter": 2860,
      "▁years.": 2861,
      "▁real\n": 2862,
      "ground": 2863,
      "▁minor": 2864,
      "▁extra": 2865,
      "▁Raptors": 2866,
      "▁report": 2867,
      "▁phot": 2868,
      "▁earli": 2869,
      "▁grid": 2870,
      "▁Superchargers": 2871,
      "▁numb": 2872,
      "▁commun": 2873,
      "▁include": 2874,
      "▁development": 2875,
      "▁course\n": 2876,
      "▁American": 2877,
      "▁Going": 2878,
      "▁Bec": 2879,
      "egas": 2880,
      "▁True,": 2881,
      "▁Agreed,": 2882,
      "▁others": 2883,
      "▁successful": 2884,
      "▁exciting": 2885,
      "▁suggest": 2886,
      "▁tiny": 2887,
      "▁named": 2888,
      "▁injur": 2889,
      "-level": 2890,
      ".5": 2891,
      "...\n": 2892,
      "30": 2893,
      "WD": 2894,
      "cast": 2895,
      "mak": 2896,
      "ner": 2897,
      "pite": 2898,
      "▁et": 2899,
      "▁ter": 2900,
      "iness": 2901,
      "▁song": 2902,
      "▁send": 2903,
      "▁odd": 2904,
      "▁hundred": 2905,
      "▁in\n": 2906,
      "▁gim": 2907,
      "▁glass": 2908,
      "▁Acc": 2909,
      "▁April": 2910,
      "▁Then": 2911,
      "ently": 2912,
      "igh\n": 2913,
      "▁necess": 2914,
      "▁rain": 2915,
      "▁rare": 2916,
      "ife": 2917,
      "iff": 2918,
      "▁moder": 2919,
      "cean": 2920,
      "▁Get": 2921,
      "▁Res": 2922,
      "▁Ob": 2923,
      "ode": 2924,
      "arent": 2925,
      "▁mechan": 2926,
      "ember": 2927,
      "able,": 2928,
      "▁anyway": 2929,
      "▁advert": 2930,
      "▁bug": 2931,
      "aterial": 2932,
      "▁Chic": 2933,
      "▁expend": 2934,
      "▁fins": 2935,
      "unning": 2936,
      "▁electricity": 2937,
      "▁spacecraft": 2938,
      "▁writ": 2939,
      "▁today.": 2940,
      "▁surface": 2941,
      "▁Major": 2942,
      "▁reusability": 2943,
      "▁competition": 2944,
      "▁attack": 2945,
      "▁North": 2946,
      "▁latest": 2947,
      "▁discuss": 2948,
      "▁steering": 2949,
      "▁cryo": 2950,
      "▁journal": 2951,
      "▁larger": 2952,
      "▁reduce": 2953,
      "▁utility": 2954,
      "▁ratio": 2955,
      "▁Definitely\n": 2956,
      "▁capacity": 2957,
      "/d": 2958,
      "AA": 2959,
      "aw": 2960,
      "ears": 2961,
      "ris": 2962,
      "vin": 2963,
      "year": 2964,
      "▁ill": 2965,
      "▁ty": 2966,
      "▁tight": 2967,
      "▁aero": 2968,
      "▁astron": 2969,
      "ercial": 2970,
      "▁site": 2971,
      "▁wrote": 2972,
      "▁bi": 2973,
      "ators": 2974,
      "▁cand": 2975,
      "▁cast": 2976,
      "▁flo": 2977,
      "oub": 2978,
      "▁mist": 2979,
      "▁meth": 2980,
      "▁morn": 2981,
      "ar\n": 2982,
      "angh": 2983,
      "▁oil": 2984,
      "▁die": 2985,
      "▁danger": 2986,
      "▁latter": 2987,
      "▁S/": 2988,
      "▁ge": 2989,
      "▁Aug": 2990,
      "lain": 2991,
      "▁Cent": 2992,
      "▁stack": 2993,
      "▁that\n": 2994,
      "▁rid": 2995,
      "▁Bo": 2996,
      "▁People": 2997,
      "▁Ext": 2998,
      "▁Dr": 2999,
      "▁tracking": 3000,
      "▁dock": 3001,
      "▁this\n": 3002,
      "▁Lo": 3003,
      "▁seat": 3004,
      "▁by\n": 3005,
      "▁abort": 3006,
      "▁altitude": 3007,
      "▁(b": 3008,
      "oline": 3009,
      "ividual": 3010,
      "▁meas": 3011,
      "usion": 3012,
      "▁possibly": 3013,
      "▁car.": 3014,
      "▁Up": 3015,
      "▁heart": 3016,
      "▁V10": 3017,
      "▁Vegas": 3018,
      "▁plant": 3019,
      "▁anywhere": 3020,
      "▁unlike": 3021,
      "ously": 3022,
      "▁there\n": 3023,
      "▁tests": 3024,
      "▁now\n": 3025,
      "▁improved": 3026,
      "▁accident": 3027,
      "▁Exactly": 3028,
      "▁Shangh": 3029,
      "▁supply": 3030,
      "▁smart": 3031,
      "▁happy": 3032,
      "▁problem.": 3033,
      "▁Team": 3034,
      "▁articles": 3035,
      "pension": 3036,
      "ibility": 3037,
      "▁shows": 3038,
      "▁operational": 3039,
      "▁flaps": 3040,
      "▁strange": 3041,
      "▁critic": 3042,
      "▁Better": 3043,
      "▁networ": 3044,
      "▁kinda": 3045,
      "▁Phys": 3046,
      "▁crypt": 3047,
      "▁visit": 3048,
      "▁manufacturing": 3049,
      "▁initial": 3050,
      "▁raise": 3051,
      "▁begin": 3052,
      "▁structure": 3053,
      "▁suspension": 3054,
      "▁answer": 3055,
      "▁source": 3056,
      "▁atmosphere": 3057,
      "ngth": 3058,
      "▁condition": 3059,
      "▁bankrupt": 3060,
      "▁provide": 3061,
      "▁gimbal": 3062,
      "▁Shanghai": 3063,
      "-1": 3064,
      "Tes": 3065,
      "app": 3066,
      "core": 3067,
      "mit": 3068,
      "pro": 3069,
      "▁!": 3070,
      "▁ice": 3071,
      "▁age": 3072,
      "▁thous": 3073,
      "▁band": 3074,
      "▁corn": 3075,
      "▁fi": 3076,
      "▁fan": 3077,
      "▁four": 3078,
      "▁fore": 3079,
      "▁material": 3080,
      "enge": 3081,
      "▁told": 3082,
      "▁op": 3083,
      "▁lithium": 3084,
      "▁Tw": 3085,
      "▁nd": 3086,
      "▁nor": 3087,
      "▁Sem": 3088,
      "▁Mot": 3089,
      "▁yes,": 3090,
      "▁yeah": 3091,
      "the": 3092,
      "▁that.": 3093,
      "▁NN": 3094,
      "▁Hope": 3095,
      "▁rout": 3096,
      "une": 3097,
      "▁Bro": 3098,
      "ally,": 3099,
      "▁Red": 3100,
      "▁worse": 3101,
      "ainless": 3102,
      "▁carry": 3103,
      "▁outside": 3104,
      "▁Mode": 3105,
      "▁~6": 3106,
      "▁learn": 3107,
      "▁Inst": 3108,
      "▁dram": 3109,
      "▁despite": 3110,
      "▁right.": 3111,
      "\"\"\"\n": 3112,
      "▁Short": 3113,
      "▁Earth.": 3114,
      "osite": 3115,
      "▁extend": 3116,
      "▁parking": 3117,
      "▁Amaz": 3118,
      "▁boost": 3119,
      "▁inside": 3120,
      "ellig": 3121,
      "▁helpful": 3122,
      "▁confirm": 3123,
      "▁prices": 3124,
      "▁secur": 3125,
      "▁planet": 3126,
      "▁awesome\n": 3127,
      "▁setting": 3128,
      "▁satellite": 3129,
      "▁upgrades": 3130,
      "world": 3131,
      "▁strength": 3132,
      "▁camera": 3133,
      "▁terminal": 3134,
      "▁spaceship": 3135,
      "▁Performance": 3136,
      "piration": 3137,
      "▁Smart": 3138,
      "▁including": 3139,
      "▁HW2": 3140,
      "▁tiles": 3141,
      "▁Because": 3142,
      "▁etc": 3143,
      "Tesla": 3144,
      "-b": 3145,
      "/S": 3146,
      "/f": 3147,
      "/t": 3148,
      "5k": 3149,
      "af": 3150,
      "for": 3151,
      "iet": 3152,
      "s!": 3153,
      "uation": 3154,
      "▁tor": 3155,
      "▁tip": 3156,
      "onna": 3157,
      "▁sl": 3158,
      "ester": 3159,
      "▁ped": 3160,
      "▁pick": 3161,
      "▁hol": 3162,
      "▁Top": 3163,
      "utes": 3164,
      "acy": 3165,
      "▁remo": 3166,
      "ample": 3167,
      "▁After": 3168,
      "▁Must": 3169,
      "▁angle": 3170,
      "▁Cons": 3171,
      "▁C19": 3172,
      "▁weld": 3173,
      "▁NA": 3174,
      "▁round": 3175,
      "▁rather": 3176,
      "urance": 3177,
      "▁Br": 3178,
      "▁By": 3179,
      "▁Par": 3180,
      "▁Part": 3181,
      "▁GP": 3182,
      "▁asked": 3183,
      "▁exter": 3184,
      "▁(and": 3185,
      "▁(not": 3186,
      "▁car\n": 3187,
      "▁highly": 3188,
      "▁prevent": 3189,
      "▁common": 3190,
      "▁loss": 3191,
      "▁adjust": 3192,
      "▁there.": 3193,
      "bital": 3194,
      "▁day,": 3195,
      "▁speak": 3196,
      "▁whats": 3197,
      "▁years\n": 3198,
      "▁years.\n": 3199,
      "▁better.": 3200,
      "wee": 3201,
      "▁interview": 3202,
      "▁finan": 3203,
      "ages": 3204,
      "▁well,": 3205,
      "▁truly": 3206,
      "▁helping": 3207,
      "▁publish": 3208,
      "▁smaller": 3209,
      "▁Sure,": 3210,
      "▁weeks\n": 3211,
      "▁Deep": 3212,
      "▁key": 3213,
      "▁Order": 3214,
      "▁commercial": 3215,
      "▁creating": 3216,
      "▁Friday": 3217,
      "▁issues": 3218,
      "▁directly": 3219,
      "▁paint": 3220,
      "▁Interesting\n": 3221,
      "▁starts": 3222,
      "▁subsid": 3223,
      "volution": 3224,
      "▁break": 3225,
      "▁Canada": 3226,
      "▁ideas": 3227,
      "▁Sunday": 3228,
      "▁magnitude": 3229,
      "▁throttle": 3230,
      "base": 3231,
      "ger": 3232,
      "ians": 3233,
      "night": 3234,
      "pital": 3235,
      "▁ahead": 3236,
      "one\n": 3237,
      "▁ball": 3238,
      "▁btw": 3239,
      "iss": 3240,
      "▁fit": 3241,
      "▁fam": 3242,
      "▁mas": 3243,
      "▁occ": 3244,
      "▁ocean": 3245,
      "▁dark": 3246,
      "▁hit": 3247,
      "▁links": 3248,
      "▁Too": 3249,
      "ale": 3250,
      "▁Self-": 3251,
      "▁South": 3252,
      "▁gone": 3253,
      "▁reli": 3254,
      "chite": 3255,
      "▁CO2": 3256,
      "thet": 3257,
      "▁weird": 3258,
      "semb": 3259,
      "▁that,": 3260,
      "ame\n": 3261,
      "▁FAA": 3262,
      "▁Py": 3263,
      "ified": 3264,
      "▁mob": 3265,
      "▁Gu": 3266,
      "▁Gen": 3267,
      "▁God": 3268,
      "▁tried": 3269,
      "▁vir": 3270,
      "▁Rep": 3271,
      "uman": 3272,
      "▁maint": 3273,
      "ively": 3274,
      "▁dead": 3275,
      "▁along": 3276,
      "raw": 3277,
      "▁(h": 3278,
      "▁chain": 3279,
      "▁choice": 3280,
      "▁highway": 3281,
      "▁arm": 3282,
      "▁archite": 3283,
      "▁~4": 3284,
      "▁apply": 3285,
      "▁work.": 3286,
      "▁Where": 3287,
      "▁Yeah.": 3288,
      "▁quality": 3289,
      "▁months.\n": 3290,
      "▁known": 3291,
      "▁resour": 3292,
      "▁lots": 3293,
      "▁Thanks!\n": 3294,
      "▁underway": 3295,
      "▁$3": 3296,
      "ospital": 3297,
      "▁lift": 3298,
      "aged": 3299,
      "▁future\n": 3300,
      "▁worldwide": 3301,
      "▁thrusters": 3302,
      "▁book": 3303,
      "▁systems": 3304,
      "▁problems": 3305,
      "▁write": 3306,
      "▁approach": 3307,
      "▁retro": 3308,
      "▁happening": 3309,
      "▁capability": 3310,
      "▁individual": 3311,
      "▁header": 3312,
      "▁rapidly": 3313,
      "▁latency": 3314,
      "▁Needs": 3315,
      "▁propul": 3316,
      "▁button": 3317,
      "▁training": 3318,
      "▁challeng": 3319,
      "▁Turns": 3320,
      "▁laser": 3321,
      "▁prototype": 3322,
      "arante": 3323,
      "▁Physics": 3324,
      "elligence": 3325,
      "▁security": 3326,
      "▁NASA": 3327,
      "-l": 3328,
      "/W": 3329,
      "City": 3330,
      "ball": 3331,
      "can": 3332,
      "ging": 3333,
      "km": 3334,
      "mont": 3335,
      "yn": 3336,
      "ones": 3337,
      "▁won": 3338,
      "▁wild": 3339,
      "att": 3340,
      "▁fool": 3341,
      "oup": 3342,
      "▁music": 3343,
      "arm": 3344,
      "ansion": 3345,
      "▁tog": 3346,
      "▁huge": 3347,
      "▁inform": 3348,
      "asons": 3349,
      "ion,": 3350,
      "otive": 3351,
      "▁ey": 3352,
      "▁eff": 3353,
      "illing": 3354,
      "▁Theres": 3355,
      "▁Mar": 3356,
      "ides": 3357,
      "▁so.": 3358,
      "▁stay": 3359,
      "▁station": 3360,
      "▁weather": 3361,
      "▁that.\n": 3362,
      "ames": 3363,
      "irc": 3364,
      "▁ride": 3365,
      "▁Bas": 3366,
      "▁youd": 3367,
      "▁Da": 3368,
      "▁trad": 3369,
      "antage": 3370,
      "▁this,": 3371,
      "▁seats": 3372,
      "ument": 3373,
      "▁deg": 3374,
      "▁(or": 3375,
      "▁all.\n": 3376,
      "▁likely\n": 3377,
      "▁car.\n": 3378,
      "▁import": 3379,
      "▁highest": 3380,
      "▁health": 3381,
      "▁can't": 3382,
      "able.": 3383,
      "izes": 3384,
      "cious": 3385,
      "▁great.\n": 3386,
      "▁uses": 3387,
      "▁hardest": 3388,
      "▁engineers": 3389,
      "▁soon!\n": 3390,
      "▁cars\n": 3391,
      "▁Mars,": 3392,
      "▁Mars.\n": 3393,
      "▁week.\n": 3394,
      "▁syn": 3395,
      "▁$2": 3396,
      "▁sure.": 3397,
      "▁particul": 3398,
      "▁crush": 3399,
      "▁them.\n": 3400,
      "▁themsel": 3401,
      "ickel": 3402,
      "▁Theyre": 3403,
      "▁though.\n": 3404,
      "▁starting": 3405,
      "▁controll": 3406,
      "▁SN1": 3407,
      "▁products": 3408,
      "▁Sept": 3409,
      "▁clar": 3410,
      "▁class": 3411,
      "▁~1000": 3412,
      "▁feels": 3413,
      "▁metric": 3414,
      "▁flamethrow": 3415,
      "▁automotive": 3416,
      "▁playing": 3417,
      "▁crew": 3418,
      "▁expected": 3419,
      "▁Well,": 3420,
      "ength": 3421,
      "▁Cool\n": 3422,
      "▁completely": 3423,
      "▁delivered": 3424,
      "▁distance": 3425,
      "▁scale": 3426,
      "▁obviously": 3427,
      "▁precise": 3428,
      "▁precision": 3429,
      "▁braking": 3430,
      "▁replace": 3431,
      "▁messed": 3432,
      "▁behind": 3433,
      "ught": 3434,
      "▁population": 3435,
      "▁figure": 3436,
      "▁Depends": 3437,
      "▁hundreds": 3438,
      "▁August": 3439,
      "▁network": 3440,
      "-world": 3441,
      "coming": 3442,
      "fr": 3443,
      "iou": 3444,
      "jo": 3445,
      "s?\n": 3446,
      "▁tit": 3447,
      "▁tube": 3448,
      "erature": 3449,
      "▁sch": 3450,
      "▁sil": 3451,
      "▁squ": 3452,
      "▁swit": 3453,
      "or\n": 3454,
      "▁came": 3455,
      "ised": 3456,
      "▁marg": 3457,
      "aring": 3458,
      "▁dying": 3459,
      "▁her": 3460,
      "▁Sy": 3461,
      "▁Sat": 3462,
      "▁Sign": 3463,
      "asing": 3464,
      "ion\n": 3465,
      "omb": 3466,
      "▁Mer": 3467,
      "▁Mass": 3468,
      "ide\n": 3469,
      "▁so.\n": 3470,
      "▁sold": 3471,
      "▁social": 3472,
      "▁whether": 3473,
      "▁weve": 3474,
      "▁Fe": 3475,
      "▁Feel": 3476,
      "▁Hell": 3477,
      "▁rd": 3478,
      "▁running": 3479,
      "opump": 3480,
      "urd": 3481,
      "▁areas": 3482,
      "▁Pr": 3483,
      "▁you.\n": 3484,
      "▁covid": 3485,
      "▁EU": 3486,
      "▁Given": 3487,
      "▁do.": 3488,
      "▁dog": 3489,
      "▁Lit": 3490,
      "▁O2": 3491,
      "▁Start": 3492,
      "▁rot": 3493,
      "▁alien": 3494,
      "▁(m": 3495,
      "▁suck": 3496,
      "peed": 3497,
      "▁upload": 3498,
      "ies.": 3499,
      "▁outcome": 3500,
      "▁comment": 3501,
      "▁~5": 3502,
      "▁~7": 3503,
      "▁taken": 3504,
      "▁soon,": 3505,
      "▁day\n": 3506,
      "▁spend": 3507,
      "▁improving": 3508,
      "▁orbit\n": 3509,
      "▁Thanks,": 3510,
      "▁loop": 3511,
      "ocal": 3512,
      "▁Check": 3513,
      "▁reco": 3514,
      "▁doesn't": 3515,
      "ording": 3516,
      "▁didn't": 3517,
      "▁park": 3518,
      "▁them\n": 3519,
      "▁score": 3520,
      "▁seeing": 3521,
      "▁offic": 3522,
      "▁consum": 3523,
      "▁started": 3524,
      "urren": 3525,
      "▁signal": 3526,
      "▁today\n": 3527,
      "atively": 3528,
      "▁surv": 3529,
      "▁servic": 3530,
      "▁weeks.": 3531,
      "▁Makes": 3532,
      "▁capital": 3533,
      "▁gasoline": 3534,
      "▁talking": 3535,
      "▁feeling": 3536,
      "▁self-s": 3537,
      "▁Unfortunate": 3538,
      "▁Mostly": 3539,
      "▁instead": 3540,
      "▁reading": 3541,
      "▁tomorrow.\n": 3542,
      "▁turned": 3543,
      "▁flying": 3544,
      "▁America": 3545,
      "▁optimized": 3546,
      "▁customers": 3547,
      "▁imo.": 3548,
      "▁India": 3549,
      "▁continue": 3550,
      "▁colle": 3551,
      "▁physics": 3552,
      "▁snow": 3553,
      "▁logistics": 3554,
      "▁existing": 3555,
      "▁Interesting": 3556,
      "▁swap": 3557,
      "▁panels": 3558,
      "▁Engine": 3559,
      "▁Austin": 3560,
      "▁blackout": 3561,
      "▁rules": 3562,
      "▁storage": 3563,
      "▁ventilator": 3564,
      "▁schedule": 3565,
      "▁announcement": 3566,
      "▁Fremont": 3567,
      "▁concern": 3568,
      "▁integrated": 3569,
      "▁expendable": 3570,
      "▁S/X": 3571,
      "▁mobile": 3572,
      "▁Unfortunately,": 3573,
      "!!": 3574,
      "++": 3575,
      "/year": 3576,
      "60": 3577,
      "AI": 3578,
      "UD": 3579,
      "eing": 3580,
      "ies\n": 3581,
      "ns": 3582,
      "pha": 3583,
      "▁ten": 3584,
      "▁tap": 3585,
      "ined": 3586,
      "inum": 3587,
      "on,": 3588,
      "▁sometimes": 3589,
      "▁thinking": 3590,
      "▁wal": 3591,
      "▁won't": 3592,
      "es!\n": 3593,
      "ar,": 3594,
      "an\n": 3595,
      "▁page": 3596,
      "▁dumb": 3597,
      "▁hate": 3598,
      "▁hospital": 3599,
      "▁lic": 3600,
      "▁Tu": 3601,
      "▁isn't": 3602,
      "▁national": 3603,
      "▁Sim": 3604,
      "▁Sigh\n": 3605,
      "icon": 3606,
      "acter": 3607,
      "▁forg": 3608,
      "▁Min": 3609,
      "▁Wed": 3610,
      "ighter": 3611,
      "▁stations": 3612,
      "thorn": 3613,
      "▁web": 3614,
      "▁Hopper": 3615,
      "▁Back": 3616,
      "▁Baby": 3617,
      "▁Pay": 3618,
      "abil": 3619,
      "ceed": 3620,
      "▁not\n": 3621,
      "▁example": 3622,
      "anden": 3623,
      "▁role": 3624,
      "▁jack": 3625,
      "▁jud": 3626,
      "rav": 3627,
      "raph": 3628,
      "▁chip": 3629,
      "▁compared": 3630,
      "▁me,": 3631,
      "▁needed.": 3632,
      "▁car,": 3633,
      "▁carmak": 3634,
      "▁cannot": 3635,
      "▁great,": 3636,
      "▁buying": 3637,
      "▁unc": 3638,
      "▁unit": 3639,
      "▁user": 3640,
      "▁Ins": 3641,
      "▁incorrect": 3642,
      "berg": 3643,
      "▁days\n": 3644,
      "▁intense": 3645,
      "▁ago\n": 3646,
      "▁way\n": 3647,
      "▁fake": 3648,
      "rian": 3649,
      "ated\n": 3650,
      "▁improves": 3651,
      "▁months,": 3652,
      "day\n": 3653,
      "▁week,": 3654,
      "▁Note,": 3655,
      "▁sympt": 3656,
      "▁interior": 3657,
      "ensive": 3658,
      "▁expansion": 3659,
      "▁owner": 3660,
      "▁USA": 3661,
      "ivers": 3662,
      "▁says": 3663,
      "▁conscious": 3664,
      "itional": 3665,
      "▁transfer": 3666,
      "▁advantage": 3667,
      "cover": 3668,
      "▁approx": 3669,
      "▁valu": 3670,
      "▁refund": 3671,
      "▁taxes": 3672,
      "▁Dec": 3673,
      "▁simpl": 3674,
      "▁opening": 3675,
      "▁allows": 3676,
      "▁missions": 3677,
      "▁QA": 3678,
      "▁Texas\n": 3679,
      "▁tomorrow\n": 3680,
      "▁yet\n": 3681,
      "▁turns": 3682,
      "▁Dogecoin": 3683,
      "▁investor": 3684,
      "▁drops": 3685,
      "▁appreciated.\n": 3686,
      "▁stream": 3687,
      "▁interesting": 3688,
      "▁release\n": 3689,
      "▁array": 3690,
      "crip": 3691,
      "▁challenge": 3692,
      "▁Austral": 3693,
      "▁variant": 3694,
      "▁essential": 3695,
      "▁crypto": 3696,
      "▁corner": 3697,
      "▁Two": 3698,
      "▁external": 3699,
      "▁resources": 3700,
      "2,": 3701,
      "eal": 3702,
      "fac": 3703,
      "hanced": 3704,
      "l\n": 3705,
      "ny": 3706,
      "round": 3707,
      "t,": 3708,
      "ux": 3709,
      "width": 3710,
      "▁[": 3711,
      "▁i": 3712,
      "▁tour": 3713,
      "▁aiming": 3714,
      "eros": 3715,
      "▁sad": 3716,
      "▁bill": 3717,
      "▁baby": 3718,
      "▁cross": 3719,
      "▁counter": 3720,
      "▁fight": 3721,
      "▁firing": 3722,
      "it\n": 3723,
      "▁me\n": 3724,
      "▁drag": 3725,
      "▁hur": 3726,
      "▁Tre": 3727,
      "▁Tot": 3728,
      "▁inde": 3729,
      "al\n": 3730,
      "▁nice": 3731,
      "▁Ship": 3732,
      "icl": 3733,
      "▁beha": 3734,
      "▁gave": 3735,
      "▁rev": 3736,
      "▁emb": 3737,
      "om\n": 3738,
      "verse": 3739,
      "▁Cl": 3740,
      "▁so,": 3741,
      "▁stainless": 3742,
      "▁Fla": 3743,
      "▁rise": 3744,
      "▁rail": 3745,
      "▁El": 3746,
      "▁Electric": 3747,
      "▁enc": 3748,
      "▁Dam": 3749,
      "▁Design": 3750,
      "▁GM": 3751,
      "▁Gary": 3752,
      "ures": 3753,
      "▁vote": 3754,
      "▁doll": 3755,
      "▁not.\n": 3756,
      "▁sea": 3757,
      "umul": 3758,
      "uminum": 3759,
      "▁mag": 3760,
      "ks.": 3761,
      "▁ability": 3762,
      "▁alloc": 3763,
      "▁thank": 3764,
      "▁cargo": 3765,
      "▁impressive": 3766,
      "ies,": 3767,
      "▁coming\n": 3768,
      "able\n": 3769,
      "▁V9": 3770,
      "endent": 3771,
      "▁too,": 3772,
      "age,": 3773,
      "▁cars.\n": 3774,
      "▁launching": 3775,
      "▁spent": 3776,
      "▁quiet": 3777,
      "▁month.": 3778,
      "▁team!\n": 3779,
      "▁resol": 3780,
      "▁lot\n": 3781,
      "▁Once": 3782,
      "▁flight.": 3783,
      "▁powered": 3784,
      "▁expon": 3785,
      "▁explain": 3786,
      "▁Starbase": 3787,
      "▁airfr": 3788,
      "▁princ": 3789,
      "▁imm": 3790,
      "▁Force": 3791,
      "▁miss": 3792,
      "▁misle": 3793,
      "▁consid": 3794,
      "▁problem,": 3795,
      "▁problem.\n": 3796,
      "▁transition": 3797,
      "▁Whats": 3798,
      "▁supporting": 3799,
      "▁joke": 3800,
      "▁valid": 3801,
      "▁possible.": 3802,
      "▁changing": 3803,
      "▁personally": 3804,
      "▁temperature": 3805,
      "imately": 3806,
      "▁competit": 3807,
      "▁$1000": 3808,
      "▁attach": 3809,
      "▁ago.": 3810,
      "auts": 3811,
      "▁upgraded": 3812,
      "▁customer": 3813,
      "▁constant": 3814,
      "▁increases": 3815,
      "▁complexity": 3816,
      "▁polit": 3817,
      "▁journe": 3818,
      "▁Area": 3819,
      "▁received": 3820,
      "▁infl": 3821,
      "▁suggestion": 3822,
      "▁summary": 3823,
      "▁robotax": 3824,
      "▁frequ": 3825,
      "▁Doesnt": 3826,
      "▁provided": 3827,
      "▁turbopump": 3828,
      "▁error": 3829,
      "▁smooth": 3830,
      "▁honor": 3831,
      "▁diameter": 3832,
      "-time": 3833,
      "▁Serious": 3834,
      "▁earlier": 3835,
      "▁numbers": 3836,
      "▁Getting": 3837,
      "▁Obv": 3838,
      "▁criticism": 3839,
      "▁Semi": 3840,
      "▁Amazing": 3841,
      "▁pedest": 3842,
      "▁holiday": 3843,
      "▁Self-D": 3844,
      "▁Pyth": 3845,
      "▁architecture": 3846,
      "▁princip": 3847,
      "BC": 3848,
      "OP": 3849,
      "cone": 3850,
      "ding": 3851,
      "ec": 3852,
      "eor": 3853,
      "fully": 3854,
      "pes": 3855,
      "por": 3856,
      "rac": 3857,
      "set": 3858,
      "vill": 3859,
      "vest": 3860,
      "vant": 3861,
      "▁tire": 3862,
      "ine\n": 3863,
      "▁ben": 3864,
      "▁cla": 3865,
      "itud": 3866,
      "▁port": 3867,
      "▁pict": 3868,
      "▁to\n": 3869,
      "▁tool": 3870,
      "▁dry": 3871,
      "▁theory": 3872,
      "▁T/W": 3873,
      "str": 3874,
      "▁inference": 3875,
      "▁Sc": 3876,
      "▁beat": 3877,
      "▁gonna": 3878,
      "▁reuse": 3879,
      "▁reasons": 3880,
      "▁Thurs": 3881,
      "▁Med": 3882,
      "▁Mart": 3883,
      "ctor": 3884,
      "▁Wa": 3885,
      "▁Watch": 3886,
      "▁yester": 3887,
      "▁Com": 3888,
      "oo,": 3889,
      "▁will\n": 3890,
      "▁weight": 3891,
      "▁but,": 3892,
      "▁project": 3893,
      "▁Fate": 3894,
      "▁Had": 3895,
      "▁Bay": 3896,
      "▁you\n": 3897,
      "▁you,": 3898,
      "▁coast": 3899,
      "▁havent": 3900,
      "▁Dis": 3901,
      "▁Don't": 3902,
      "▁shif": 3903,
      "▁assemb": 3904,
      "antic": 3905,
      "▁Rem": 3906,
      "▁not.": 3907,
      "uming": 3908,
      "▁Out": 3909,
      "▁Ste": 3910,
      "arding": 3911,
      "▁alone": 3912,
      "▁aluminum": 3913,
      "▁(f": 3914,
      "▁(no": 3915,
      "ival": 3916,
      "▁compress": 3917,
      "duct": 3918,
      "▁high.": 3919,
      "▁out\n": 3920,
      "▁V2": 3921,
      "▁une": 3922,
      "▁universe": 3923,
      "▁appear": 3924,
      "▁appears": 3925,
      "▁users": 3926,
      "▁hard.": 3927,
      "▁hard.\n": 3928,
      "▁hardcore": 3929,
      "▁work\n": 3930,
      "▁saw": 3931,
      "▁engine.": 3932,
      "▁SpaceX,": 3933,
      "▁deser": 3934,
      "▁Never": 3935,
      "▁day.": 3936,
      "▁test\n": 3937,
      "▁ways": 3938,
      "▁Haw": 3939,
      "▁solving": 3940,
      "▁now.\n": 3941,
      "▁right,": 3942,
      "▁month\n": 3943,
      "▁Mars.": 3944,
      "day.": 3945,
      "▁author": 3946,
      "▁intern": 3947,
      "▁powerful": 3948,
      "▁suppli": 3949,
      "▁couldnt": 3950,
      "▁Starhopper": 3951,
      "▁imag": 3952,
      "▁twice": 3953,
      "▁fast.": 3954,
      "▁though.": 3955,
      "▁vehicl": 3956,
      "▁ships": 3957,
      "▁--": 3958,
      "▁guy": 3959,
      "▁guarante": 3960,
      "▁Pres": 3961,
      "▁reflight": 3962,
      "▁Making": 3963,
      "▁easily": 3964,
      "▁allowing": 3965,
      "▁allowed": 3966,
      "▁board": 3967,
      "▁foot": 3968,
      "▁passed": 3969,
      "▁location": 3970,
      "▁Meant": 3971,
      "▁position": 3972,
      "▁competitive": 3973,
      "▁accept": 3974,
      "▁Impro": 3975,
      "▁via\n": 3976,
      "▁created": 3977,
      "▁graph": 3978,
      "▁accelerate": 3979,
      "▁Apple": 3980,
      "▁efficient": 3981,
      "▁absurd": 3982,
      "▁destination": 3983,
      "▁largest": 3984,
      "ritical": 3985,
      "▁autonomous": 3986,
      "ponse": 3987,
      "▁trend": 3988,
      "▁Adding": 3989,
      "▁sharehold": 3990,
      "▁(sigh)\n": 3991,
      "▁Extreme": 3992,
      "▁dramatically": 3993,
      "▁maintain": 3994,
      "▁effort": 3995,
      "▁margin": 3996,
      "cription": 3997,
      "▁Python": 3998,
      "-se": 3999,
      "8%": 4000,
      "80": 4001,
      "TO": 4002,
      "UV": 4003,
      "dle": 4004,
      "ees": 4005,
      "gor": 4006,
      "h,": 4007,
      "iot": 4008,
      "ios": 4009,
      "mk": 4010,
      "mas": 4011,
      "pm": 4012,
      "power": 4013,
      "rid": 4014,
      "ram": 4015,
      "rist": 4016,
      "tim": 4017,
      "umpt": 4018,
      "xic": 4019,
      "y!\n": 4020,
      "▁est": 4021,
      "▁tall": 4022,
      "▁aware": 4023,
      "▁aud": 4024,
      "onic": 4025,
      "▁sill": 4026,
      "ren": 4027,
      "▁wd": 4028,
      "▁wall": 4029,
      "▁bus": 4030,
      "attle": 4031,
      "▁camp": 4032,
      "▁clic": 4033,
      "▁fict": 4034,
      "▁match": 4035,
      "ences": 4036,
      "an,": 4037,
      "▁doub": 4038,
      "▁hop": 4039,
      "▁link": 4040,
      "▁Time": 4041,
      "▁inert": 4042,
      "▁is,": 4043,
      "▁glad": 4044,
      "▁refer": 4045,
      "▁egg": 4046,
      "▁AC": 4047,
      "▁AWD": 4048,
      "elt": 4049,
      "▁anten": 4050,
      "chang": 4051,
      "alle": 4052,
      "ado": 4053,
      "▁Crew": 4054,
      "oogle": 4055,
      "▁iter": 4056,
      "iment": 4057,
      "▁stuff": 4058,
      "▁Testing": 4059,
      "irmed": 4060,
      "▁Ford": 4061,
      "▁Flor": 4062,
      "▁H2": 4063,
      "▁His": 4064,
      "▁rating": 4065,
      "urther": 4066,
      "▁col": 4067,
      "▁End": 4068,
      "▁Det": 4069,
      "▁Del": 4070,
      "▁shut": 4071,
      "▁trillion": 4072,
      "▁org": 4073,
      "▁sequ": 4074,
      "▁worst": 4075,
      "▁Oct": 4076,
      "▁Open": 4077,
      "▁conver": 4078,
      "▁convin": 4079,
      "ssil": 4080,
      "▁tele": 4081,
      "▁times\n": 4082,
      "▁prem": 4083,
      "▁out,": 4084,
      "▁out.\n": 4085,
      "▁comf": 4086,
      "▁Jap": 4087,
      "▁V3": 4088,
      "▁Vac": 4089,
      "▁lose": 4090,
      "▁great.": 4091,
      "▁myself": 4092,
      "moj": 4093,
      "bably\n": 4094,
      "▁work,": 4095,
      "inder": 4096,
      "▁people,": 4097,
      "▁Starships": 4098,
      "attery": 4099,
      "▁desc": 4100,
      "▁intelligence": 4101,
      "▁quick": 4102,
      "▁orbit.": 4103,
      "▁perhaps": 4104,
      "▁real-world": 4105,
      "▁fun!\n": 4106,
      "▁response": 4107,
      "wns": 4108,
      "▁first.": 4109,
      "▁recent": 4110,
      "▁software.": 4111,
      "▁Earth\n": 4112,
      "▁Read": 4113,
      "▁knows": 4114,
      "▁explan": 4115,
      "▁Dojo": 4116,
      "▁happens": 4117,
      "pected": 4118,
      "lied": 4119,
      "▁needed.\n": 4120,
      "▁startup": 4121,
      "▁done,": 4122,
      "▁fires": 4123,
      "vidence": 4124,
      "▁easy,": 4125,
      "▁changed": 4126,
      "▁Universe": 4127,
      "▁motors": 4128,
      "▁hypersonic": 4129,
      "▁ago.\n": 4130,
      "▁I've": 4131,
      "▁letter": 4132,
      "▁vacc": 4133,
      "▁features": 4134,
      "▁Frank": 4135,
      "▁imo,": 4136,
      "▁polic": 4137,
      "▁effective": 4138,
      "▁functionality": 4139,
      "▁welcome.": 4140,
      "▁deaths": 4141,
      "▁manufactur": 4142,
      "▁employ": 4143,
      "▁Perhaps": 4144,
      "▁edit": 4145,
      "▁configur": 4146,
      "▁EVs": 4147,
      "▁purch": 4148,
      "▁behalf": 4149,
      "▁ultra": 4150,
      "ribution": 4151,
      "evit": 4152,
      "▁written": 4153,
      "▁Center": 4154,
      "▁measure": 4155,
      "▁GPU": 4156,
      "▁school": 4157,
      "urrency": 4158,
      "▁college": 4159,
      "▁consciousness": 4160,
      "▁Australia": 4161,
      "▁airframe": 4162,
      "▁Self-Driving": 4163,
      "▁Florid": 4164,
      "-f": 4165,
      ".1": 4166,
      "FR": 4167,
      "LA": 4168,
      "TA": 4169,
      "akes": 4170,
      "bb": 4171,
      "cel": 4172,
      "fit": 4173,
      "iens": 4174,
      "ipping": 4175,
      "nes": 4176,
      "rs": 4177,
      "ses": 4178,
      "▁troll": 4179,
      "inter": 4180,
      "▁sat": 4181,
      "real": 4182,
      "▁wer": 4183,
      "▁wise": 4184,
      "ating\n": 4185,
      "▁fat": 4186,
      "▁fusion": 4187,
      "▁further": 4188,
      "itter": 4189,
      "ite\n": 4190,
      "▁mill": 4191,
      "arrass": 4192,
      "anc": 4193,
      "ann": 4194,
      "▁pe": 4195,
      "▁tower": 4196,
      "▁den": 4197,
      "▁ded": 4198,
      "▁doo,": 4199,
      "edom": 4200,
      "▁hous": 4201,
      "▁heav": 4202,
      "▁lol": 4203,
      "roy": 4204,
      "▁inh": 4205,
      "▁invent": 4206,
      "▁input": 4207,
      "▁nu": 4208,
      "▁nickel": 4209,
      "▁Sw": 4210,
      "▁Sch": 4211,
      "▁Sil": 4212,
      "▁SUV": 4213,
      "icro": 4214,
      "icated": 4215,
      "▁Int": 4216,
      "▁gives": 4217,
      "▁react": 4218,
      "▁evol": 4219,
      "▁emoj": 4220,
      "▁on\n": 4221,
      "▁Three": 4222,
      "▁Mr": 4223,
      "▁Man": 4224,
      "▁Mom": 4225,
      "▁Mun": 4226,
      "▁Mont": 4227,
      "▁March": 4228,
      "ctural": 4229,
      "▁War": 4230,
      "▁Cont": 4231,
      "▁stat": 4232,
      "▁stra": 4233,
      "▁webs": 4234,
      "▁weak": 4235,
      "▁FT": 4236,
      "▁Her": 4237,
      "▁Got": 4238,
      "▁Germ": 4239,
      "▁Last": 4240,
      "▁Lond": 4241,
      "▁demon": 4242,
      "▁(c": 4243,
      "▁(n": 4244,
      "▁supersonic": 4245,
      "reating": 4246,
      "ctions": 4247,
      "▁me.": 4248,
      "▁Weve": 4249,
      "log": 4250,
      "ment,": 4251,
      "▁Um": 4252,
      "▁comments": 4253,
      "▁Vers": 4254,
      "▁greatly": 4255,
      "▁great!\n": 4256,
      "▁good.\n": 4257,
      "▁units": 4258,
      "▁usage": 4259,
      "▁Starship\n": 4260,
      "bert": 4261,
      "▁Already": 4262,
      "▁tested": 4263,
      "▁way,": 4264,
      "▁production.": 4265,
      "▁team\n": 4266,
      "▁teams": 4267,
      "▁orbit,": 4268,
      "▁Prob": 4269,
      "▁Prot": 4270,
      "ultane": 4271,
      "▁fewer": 4272,
      "weets": 4273,
      "▁first,": 4274,
      "▁mins\n": 4275,
      "▁then.\n": 4276,
      "▁supporter": 4277,
      "▁recover": 4278,
      "▁Software": 4279,
      "▁happiness": 4280,
      "▁well.": 4281,
      "▁imo\n": 4282,
      "▁system.": 4283,
      "▁problem\n": 4284,
      "▁completed": 4285,
      "▁becoming": 4286,
      "▁true,": 4287,
      "▁cooling": 4288,
      "▁video\n": 4289,
      "▁today,": 4290,
      "▁advance": 4291,
      "▁guys": 4292,
      "▁reflect": 4293,
      "▁technically": 4294,
      "▁secret": 4295,
      "▁~10": 4296,
      "▁capable": 4297,
      "▁skill": 4298,
      "▁amazing\n": 4299,
      "▁esthet": 4300,
      "▁rollout": 4301,
      "▁simultane": 4302,
      "▁flap": 4303,
      "▁subject": 4304,
      "new": 4305,
      "-sh": 4306,
      "▁caught": 4307,
      "▁reaching": 4308,
      "▁$100": 4309,
      "▁flu": 4310,
      "▁game\n": 4311,
      "▁Goal": 4312,
      "▁drop": 4313,
      "▁summon": 4314,
      "▁Cool,": 4315,
      "▁significantly": 4316,
      "▁True.": 4317,
      "▁correct.": 4318,
      "▁Agreed\n": 4319,
      "▁failure": 4320,
      "▁difference\n": 4321,
      "▁Anyone": 4322,
      "▁affects": 4323,
      "resent": 4324,
      "▁propag": 4325,
      "▁agree.": 4326,
      "irmware": 4327,
      "▁Everything": 4328,
      "▁economic": 4329,
      "clear": 4330,
      "▁model": 4331,
      "▁achieving": 4332,
      "▁calc": 4333,
      "▁situation": 4334,
      "▁bott": 4335,
      "▁exceeds": 4336,
      "▁layer": 4337,
      "▁maximum": 4338,
      "▁surprising": 4339,
      "▁elev": 4340,
      "▁July": 4341,
      "▁argu": 4342,
      "▁Technically,": 4343,
      "▁hydrogen": 4344,
      "▁Easter": 4345,
      "▁character": 4346,
      "▁Build": 4347,
      "▁mistake": 4348,
      "▁method": 4349,
      "▁Exactly!": 4350,
      "▁bandwidth": 4351,
      "▁forever": 4352,
      "▁Motor": 4353,
      "week": 4354,
      "▁Feels": 4355,
      "▁Literally": 4356,
      "▁official": 4357,
      "▁embarrass": 4358,
      "▁Damn": 4359,
      "▁misleading": 4360,
      "ville": 4361,
      "▁Hawthorn": 4362,
      "▁Extremely": 4363,
      "-h": 4364,
      "-m": 4365,
      "body": 4366,
      "ford": 4367,
      "kn": 4368,
      "o,": 4369,
      "ov": 4370,
      "pay": 4371,
      "rous": 4372,
      "rors": 4373,
      "sc": 4374,
      "su": 4375,
      "train": 4376,
      "ula": 4377,
      "ycl": 4378,
      "▁aim": 4379,
      "outer": 4380,
      "it,": 4381,
      "▁mT": 4382,
      "▁mir": 4383,
      "enc": 4384,
      "ane\n": 4385,
      "▁pet": 4386,
      "▁obs": 4387,
      "▁died": 4388,
      "ederal": 4389,
      "▁Turb": 4390,
      "rop": 4391,
      "▁Sing": 4392,
      "▁Sur": 4393,
      "▁Since": 4394,
      "▁of\n": 4395,
      "▁evidence": 4396,
      "▁Apo": 4397,
      "▁Want": 4398,
      "verage": 4399,
      "ids": 4400,
      "▁ang": 4401,
      "▁Critical": 4402,
      "▁it!\n": 4403,
      "▁prote": 4404,
      "▁Fin": 4405,
      "▁From": 4406,
      "▁Hon": 4407,
      "▁Base": 4408,
      "▁Pan": 4409,
      "▁youll": 4410,
      "ift": 4411,
      "▁trust": 4412,
      "▁truth": 4413,
      "atever": 4414,
      "▁vot": 4415,
      "▁this.\n": 4416,
      "▁Right": 4417,
      "▁RUD": 4418,
      "▁jump": 4419,
      "▁meme": 4420,
      "▁needed\n": 4421,
      "▁Uk": 4422,
      "▁wouldnt": 4423,
      "▁out.": 4424,
      "rypt": 4425,
      "izont": 4426,
      "▁Valle": 4427,
      "ended": 4428,
      "▁plate": 4429,
      "▁applied": 4430,
      "▁Which": 4431,
      "▁activate": 4432,
      "▁drives": 4433,
      "▁next-level": 4434,
      "▁people.": 4435,
      "▁rocket.": 4436,
      "▁one.": 4437,
      "▁days.\n": 4438,
      "▁agre": 4439,
      "▁%,": 4440,
      "ried": 4441,
      "▁solved": 4442,
      "▁right.\n": 4443,
      "▁better\n": 4444,
      "▁better.\n": 4445,
      "▁resist": 4446,
      "▁Thanks\n": 4447,
      "▁series": 4448,
      "▁Supp": 4449,
      "▁Christ": 4450,
      "▁$5": 4451,
      "▁Earth.\n": 4452,
      "▁Requ": 4453,
      "▁facto": 4454,
      "▁parach": 4455,
      "▁wanted": 4456,
      "▁*not": 4457,
      "▁future.\n": 4458,
      "▁world.\n": 4459,
      "▁humans": 4460,
      "▁represent": 4461,
      "▁insurance": 4462,
      "▁transaction": 4463,
      "vention": 4464,
      "▁/7": 4465,
      "▁Another": 4466,
      "▁Head": 4467,
      "▁confident": 4468,
      "▁confirmed": 4469,
      "▁cool.": 4470,
      "▁entertain": 4471,
      "▁generate": 4472,
      "▁generator": 4473,
      "comp": 4474,
      "▁surfac": 4475,
      "▁surround": 4476,
      "wesome": 4477,
      "▁avg": 4478,
      "▁legal": 4479,
      "▁engineering,": 4480,
      "▁range.": 4481,
      "▁frame": 4482,
      "▁question.": 4483,
      "▁boat": 4484,
      "▁lights": 4485,
      "▁majority": 4486,
      "▁remember": 4487,
      "▁Orbital": 4488,
      "▁subtle": 4489,
      "▁close\n": 4490,
      "▁stopp": 4491,
      "over,": 4492,
      "▁Moreover,": 4493,
      "▁SolarCity": 4494,
      "▁hyp": 4495,
      "▁ago,": 4496,
      "▁Impressive": 4497,
      "▁developing": 4498,
      "▁course,": 4499,
      "▁Absolutely": 4500,
      "▁putting": 4501,
      "▁holding": 4502,
      "▁regulators": 4503,
      "▁false.": 4504,
      "▁closed": 4505,
      "▁cells": 4506,
      "▁millions": 4507,
      "▁meaning": 4508,
      "▁collect": 4509,
      "▁selling": 4510,
      "▁amounts": 4511,
      "▁credibility": 4512,
      "▁space\n": 4513,
      "ledge": 4514,
      "▁absor": 4515,
      "▁absolute": 4516,
      "▁primarily": 4517,
      "▁receive": 4518,
      "▁sensible": 4519,
      "▁panel": 4520,
      "▁incredibly": 4521,
      "▁replac": 4522,
      "▁label": 4523,
      "▁merch": 4524,
      "▁insanely": 4525,
      "▁Black": 4526,
      "expected": 4527,
      "▁Moon": 4528,
      "▁nosecone": 4529,
      "▁Joh": 4530,
      "▁minimize": 4531,
      "▁talented": 4532,
      "▁increasingly": 4533,
      "▁mounted": 4534,
      "▁Russian": 4535,
      "▁PCR": 4536,
      "▁Exciting": 4537,
      "▁epic": 4538,
      "▁patient": 4539,
      "▁separate": 4540,
      "▁necessary": 4541,
      "▁moderate": 4542,
      "▁journalists": 4543,
      "▁Browns": 4544,
      "▁clarify": 4545,
      "▁switch": 4546,
      "▁Flamethrow": 4547,
      "▁picture": 4548,
      "▁Detail": 4549,
      "▁comfort": 4550,
      "▁dedicated": 4551,
      "▁Version": 4552,
      "▁propagand": 4553,
      "▁Apoll": 4554,
      "▁*not*": 4555,
      "&amp": 4556,
      "&amp;": 4557,
      "'ve": 4558,
      ",000": 4559,
      "-S": 4560,
      "/c": 4561,
      "AP": 4562,
      "IP": 4563,
      "NA": 4564,
      "aper": 4565,
      "be\n": 4566,
      "eward": 4567,
      "i,": 4568,
      "ique": 4569,
      "ky": 4570,
      "lit": 4571,
      "mr": 4572,
      "ming": 4573,
      "met": 4574,
      "mission": 4575,
      "pack": 4576,
      "ring": 4577,
      "rbur": 4578,
      "s)": 4579,
      "sh": 4580,
      "v2": 4581,
      "word": 4582,
      "yp": 4583,
      "yard": 4584,
      "▁tmr": 4585,
      "▁average": 4586,
      "ony": 4587,
      "▁sort": 4588,
      "▁scient": 4589,
      "▁bs": 4590,
      "▁cath": 4591,
      "▁fac": 4592,
      "▁field": 4593,
      "it.": 4594,
      "▁mar": 4595,
      "▁math": 4596,
      "ene": 4597,
      "ening": 4598,
      "ension": 4599,
      "▁pitch": 4600,
      "▁hes": 4601,
      "▁luck": 4602,
      "▁length": 4603,
      "rogen": 4604,
      "ste": 4605,
      "stood": 4606,
      "al.\n": 4607,
      "▁none": 4608,
      "icrous": 4609,
      "lex": 4610,
      "ly)": 4611,
      "▁be\n": 4612,
      "▁gain": 4613,
      "▁gear": 4614,
      "▁green": 4615,
      "igation": 4616,
      "▁reduction": 4617,
      "▁renew": 4618,
      "et\n": 4619,
      "▁eat": 4620,
      "▁elect": 4621,
      "ow\n": 4622,
      "▁Thought": 4623,
      "▁anno": 4624,
      "▁Count": 4625,
      "▁CEO": 4626,
      "oof": 4627,
      "▁sty": 4628,
      "ithm": 4629,
      "thr": 4630,
      "key": 4631,
      "▁Yor": 4632,
      "▁Night": 4633,
      "▁Nrbur": 4634,
      "▁Fix": 4635,
      "▁Hes": 4636,
      "▁House": 4637,
      "il\n": 4638,
      "▁race": 4639,
      "optim": 4640,
      "▁BFR": 4641,
      "▁Put": 4642,
      "▁Pac": 4643,
      "▁shop": 4644,
      "▁shown": 4645,
      "▁trouble": 4646,
      "uled": 4647,
      "▁Rad": 4648,
      "▁exec": 4649,
      "▁Let": 4650,
      "▁Live": 4651,
      "▁Later": 4652,
      "▁Landing": 4653,
      "▁map": 4654,
      "ipe": 4655,
      "ive\n": 4656,
      "▁convert": 4657,
      "▁convers": 4658,
      "▁rob": 4659,
      "▁dele": 4660,
      "▁degre": 4661,
      "▁junk": 4662,
      "▁aliens": 4663,
      "raul": 4664,
      "▁(d": 4665,
      "▁(p": 4666,
      "▁child": 4667,
      "▁compute": 4668,
      "apse": 4669,
      "▁up\n": 4670,
      "ment.": 4671,
      "iesel": 4672,
      "▁Uh": 4673,
      "▁Under": 4674,
      "able.\n": 4675,
      "▁loan": 4676,
      "▁great!": 4677,
      "▁greatest": 4678,
      "▁produced": 4679,
      "▁plane": 4680,
      "▁advent": 4681,
      "▁work.\n": 4682,
      "▁actu": 4683,
      "▁there.\n": 4684,
      "venue": 4685,
      "▁somewhere": 4686,
      "▁leeward": 4687,
      "▁save": 4688,
      "▁Init": 4689,
      "▁driven": 4690,
      "▁Nov": 4691,
      "▁launch\n": 4692,
      "▁launch.": 4693,
      "udicrous": 4694,
      "▁monop": 4695,
      "▁days.": 4696,
      "▁spin": 4697,
      "▁fault": 4698,
      "ance,": 4699,
      "ated.": 4700,
      "▁amb": 4701,
      "▁landed": 4702,
      "▁according": 4703,
      "▁fun\n": 4704,
      "▁result": 4705,
      "steroid": 4706,
      "▁minute": 4707,
      "▁back\n": 4708,
      "▁background": 4709,
      "▁Earth,": 4710,
      "▁Reg": 4711,
      "▁expensive": 4712,
      "▁region": 4713,
      "▁wants": 4714,
      "▁future,": 4715,
      "▁world's": 4716,
      "▁print": 4717,
      "▁private": 4718,
      "▁well.\n": 4719,
      "▁thruster": 4720,
      "▁added": 4721,
      "▁consist": 4722,
      "▁far,": 4723,
      "▁far.": 4724,
      "▁helps": 4725,
      "▁discover": 4726,
      "▁Kind": 4727,
      "▁grad": 4728,
      "▁delta": 4729,
      "▁/2": 4730,
      "ification": 4731,
      "fficient": 4732,
      "▁writing": 4733,
      "ibr": 4734,
      "▁SN4": 4735,
      "▁SN5": 4736,
      "▁valve": 4737,
      "▁important,": 4738,
      "▁later\n": 4739,
      "▁technical": 4740,
      "▁change\n": 4741,
      "▁whereas": 4742,
      "▁control\n": 4743,
      "▁possible,": 4744,
      "▁manage": 4745,
      "▁depending": 4746,
      "▁basic": 4747,
      "▁bright": 4748,
      "▁indic": 4749,
      "▁questions": 4750,
      "▁Qu": 4751,
      "▁fossil": 4752,
      "▁passeng": 4753,
      "▁Wow\n": 4754,
      "▁locations": 4755,
      "▁Meg": 4756,
      "▁careful": 4757,
      "▁Enhanced": 4758,
      "▁California,": 4759,
      "▁exactly\n": 4760,
      "▁expert": 4761,
      "▁developed": 4762,
      "▁flat": 4763,
      "▁letting": 4764,
      "▁investors": 4765,
      "▁investigate": 4766,
      "nov": 4767,
      "▁Zip": 4768,
      "▁optimistic": 4769,
      "▁appreciated!\n": 4770,
      "▁constrain": 4771,
      "▁construction": 4772,
      "▁:30": 4773,
      "▁middle": 4774,
      "▁considered": 4775,
      "▁actions": 4776,
      "▁annual": 4777,
      "▁eventually": 4778,
      "▁Congratulations!\n": 4779,
      "▁destroy": 4780,
      "▁initially": 4781,
      "▁protect": 4782,
      "▁specific": 4783,
      "▁Everyone": 4784,
      "▁memory": 4785,
      "▁cycle": 4786,
      "▁purp": 4787,
      "▁offering": 4788,
      "▁student": 4789,
      "▁ramping": 4790,
      "▁meeting": 4791,
      "▁opportun": 4792,
      "▁opposite": 4793,
      "▁Moving": 4794,
      "▁deployed": 4795,
      "▁ventilators": 4796,
      "▁cases": 4797,
      "▁Russia": 4798,
      "▁Strange": 4799,
      "▁birthday": 4800,
      "▁immediately": 4801,
      "▁affordable": 4802,
      "▁navigate": 4803,
      "▁communic": 4804,
      "▁type": 4805,
      "▁V10.0": 4806,
      "appreci": 4807,
      "▁thousands": 4808,
      "▁fiber": 4809,
      "▁opin": 4810,
      "▁yeah,": 4811,
      "▁torque": 4812,
      "▁family": 4813,
      "▁wonder": 4814,
      "▁together": 4815,
      "▁information": 4816,
      "▁themselves": 4817,
      "▁self-sustain": 4818,
      "▁walk": 4819,
      "▁license": 4820,
      "▁Tues": 4821,
      "▁webcast": 4822,
      "▁carmakers": 4823,
      "▁Trend": 4824,
      "▁magic": 4825,
      "▁pedestrian": 4826,
      "porate": 4827,
      "▁claim": 4828,
      "▁lol\n": 4829,
      "▁straight": 4830,
      "▁website": 4831,
      "▁demonstr": 4832,
      "-shirt": 4833,
      "▁arguably": 4834,
      "▁Brownsville": 4835,
      "▁tmrw": 4836,
      "▁Nrburgr": 4837,
      "-d": 4838,
      "-the": 4839,
      "/M": 4840,
      "1000": 4841,
      "EPA": 4842,
      "GI": 4843,
      "Vac": 4844,
      "ault": 4845,
      "come\n": 4846,
      "graph": 4847,
      "has": 4848,
      "hem": 4849,
      "iod": 4850,
      "ka": 4851,
      "kin": 4852,
      "land": 4853,
      "lies": 4854,
      "ned": 4855,
      "planetary": 4856,
      "t\n": 4857,
      "▁tun": 4858,
      "▁tweets": 4859,
      "inary": 4860,
      "▁thres": 4861,
      "▁ban": 4862,
      "▁capt": 4863,
      "▁cities": 4864,
      "▁circ": 4865,
      "is\n": 4866,
      "ise\n": 4867,
      "iter": 4868,
      "▁mix": 4869,
      "en\n": 4870,
      "aning": 4871,
      "ancy": 4872,
      "▁pen": 4873,
      "▁patter": 4874,
      "▁da": 4875,
      "▁div": 4876,
      "▁draw": 4877,
      "▁hang": 4878,
      "▁horn": 4879,
      "▁lines": 4880,
      "▁lighter": 4881,
      "▁Tim": 4882,
      "al,": 4883,
      "al.": 4884,
      "alo": 4885,
      "▁nat": 4886,
      "▁nut": 4887,
      "▁nature": 4888,
      "▁nets": 4889,
      "▁S.": 4890,
      "▁Science": 4891,
      "ases": 4892,
      "▁IC": 4893,
      "▁IP": 4894,
      "ve\n": 4895,
      "▁rese": 4896,
      "▁repe": 4897,
      "▁Astron": 4898,
      "▁WW": 4899,
      "idence": 4900,
      "eles": 4901,
      "ches": 4902,
      "▁Cost": 4903,
      "▁Comm": 4904,
      "▁stabil": 4905,
      "▁whatever": 4906,
      "▁weath": 4907,
      "▁Tesla!\n": 4908,
      "ams": 4909,
      "▁Yes": 4910,
      "▁Huge": 4911,
      "▁Human": 4912,
      "▁with\n": 4913,
      "▁racing": 4914,
      "opia": 4915,
      "ury": 4916,
      "▁Battery": 4917,
      "▁Plan": 4918,
      "cellent": 4919,
      "▁DM": 4920,
      "▁Grass": 4921,
      "ular": 4922,
      "▁vary": 4923,
      "▁voice": 4924,
      "▁not,": 4925,
      "▁notice": 4926,
      "▁excess": 4927,
      "▁Lat": 4928,
      "▁Latter": 4929,
      "▁Life": 4930,
      "▁sever": 4931,
      "▁Ok": 4932,
      "▁Odd": 4933,
      "ive,": 4934,
      "▁conven": 4935,
      "andom": 4936,
      "raine": 4937,
      "▁(t": 4938,
      "▁(~": 4939,
      "▁(ak": 4940,
      "▁(wh": 4941,
      "▁suc": 4942,
      "▁all.": 4943,
      "▁meg": 4944,
      "▁me.\n": 4945,
      "▁kill": 4946,
      "▁poll": 4947,
      "▁more\n": 4948,
      "▁more.": 4949,
      "▁hex": 4950,
      "▁noise": 4951,
      "▁loved": 4952,
      "▁produce": 4953,
      "▁plans": 4954,
      "▁union": 4955,
      "▁unkn": 4956,
      "▁unexpected": 4957,
      "▁hard\n": 4958,
      "age.": 4959,
      "▁overall": 4960,
      "▁Inc": 4961,
      "▁Inf": 4962,
      "▁engine,": 4963,
      "▁engineer": 4964,
      "▁Excellent": 4965,
      "▁Starship,": 4966,
      "▁one,": 4967,
      "▁way.\n": 4968,
      "▁production.\n": 4969,
      "rible": 4970,
      "▁solid": 4971,
      "▁improv": 4972,
      "▁month.\n": 4973,
      "▁period": 4974,
      "▁Probably\n": 4975,
      "▁resp": 4976,
      "weight": 4977,
      "▁speed,": 4978,
      "▁minut": 4979,
      "▁backup": 4980,
      "▁She": 4981,
      "▁understood": 4982,
      "▁Rec": 4983,
      "▁Reality": 4984,
      "▁explo": 4985,
      "▁lifet": 4986,
      "agree": 4987,
      "▁future.": 4988,
      "▁twea": 4989,
      "▁twitter": 4990,
      "▁books": 4991,
      "▁down\n": 4992,
      "▁download": 4993,
      "▁consumpt": 4994,
      "▁spacef": 4995,
      "▁artific": 4996,
      "▁disagree": 4997,
      "▁/3": 4998,
      "▁/4": 4999,
      "▁low,": 5000,
      "▁low.": 5001,
      "aneu": 5002,
      "▁approved": 5003,
      "▁money\n": 5004,
      "▁appreciation": 5005,
      "▁Trans": 5006,
      "▁pressure,": 5007,
      "▁But,": 5008,
      "▁money.": 5009,
      "▁World": 5010,
      "▁esc": 5011,
      "▁operation": 5012,
      "▁easier": 5013,
      "▁depart": 5014,
      "▁planning": 5015,
      "▁medium": 5016,
      "▁Cyberp": 5017,
      "▁indep": 5018,
      "▁company,": 5019,
      "▁box": 5020,
      "▁decad": 5021,
      "▁sense\n": 5022,
      "▁done\n": 5023,
      "▁windward": 5024,
      "▁Yup,": 5025,
      "▁posit": 5026,
      "-term,": 5027,
      "▁waiting": 5028,
      "▁dropped": 5029,
      "▁optimization": 5030,
      "▁thoughtful": 5031,
      "...": 5032,
      "▁midnight": 5033,
      "▁collapse": 5034,
      "▁keeps": 5035,
      "▁Lots": 5036,
      "▁Anything": 5037,
      "▁broad": 5038,
      "▁broken": 5039,
      "▁affected": 5040,
      "▁physical": 5041,
      "▁destin": 5042,
      "▁entirely": 5043,
      "▁sensor": 5044,
      "▁long-term.\n": 5045,
      "▁followed": 5046,
      "▁debate": 5047,
      "▁labor": 5048,
      "▁equip": 5049,
      "entially,": 5050,
      "▁brea": 5051,
      "▁hydraul": 5052,
      "▁freedom": 5053,
      "▁finished": 5054,
      "play": 5055,
      "▁calend": 5056,
      "▁NYT": 5057,
      "▁answ": 5058,
      "▁growth": 5059,
      "▁Mk1": 5060,
      "board": 5061,
      "▁apart": 5062,
      "▁anti-": 5063,
      "▁Excited": 5064,
      "▁duty": 5065,
      "▁tbh\n": 5066,
      "▁patent": 5067,
      "▁V1.0": 5068,
      "▁injury": 5069,
      "▁injuries": 5070,
      "▁terrible": 5071,
      "▁Accurate": 5072,
      "▁candy": 5073,
      "▁floor": 5074,
      "▁Redd": 5075,
      "▁reliability": 5076,
      "▁flamethrower": 5077,
      "▁symptoms": 5078,
      "▁indeed": 5079,
      "▁constantly": 5080,
      "▁Obvious": 5081,
      "▁principle": 5082,
      "▁benef": 5083,
      "▁Japan": 5084,
      "▁FTW": 5085,
      "▁London": 5086,
      "▁Ukraine": 5087,
      "▁Christmas": 5088,
      "through": 5089,
      "▁self-sustaining": 5090,
      "▁threshold": 5091,
      "▁research": 5092,
      "▁Grasshopper": 5093,
      "▁(aka": 5094,
      "▁unknown": 5095,
      "▁hydraulic": 5096,
      "-F": 5097,
      "/P": 5098,
      "/k": 5099,
      "/m": 5100,
      "HT": 5101,
      "SJ": 5102,
      "aft": 5103,
      "aoke": 5104,
      "bor": 5105,
      "burn": 5106,
      "cles": 5107,
      "do": 5108,
      "k.\n": 5109,
      "rding": 5110,
      "uish": 5111,
      "wd": 5112,
      "with": 5113,
      "z\n": 5114,
      "ze": 5115,
      "▁=": 5116,
      "▁outer": 5117,
      "▁aw": 5118,
      "▁amp": 5119,
      "▁son": 5120,
      "rest": 5121,
      "rele": 5122,
      "▁tho": 5123,
      "▁thus": 5124,
      "▁thru": 5125,
      "▁wire": 5126,
      "▁width": 5127,
      "▁bor": 5128,
      "▁bla": 5129,
      "▁born": 5130,
      "▁battle": 5131,
      "▁blog": 5132,
      "▁card": 5133,
      "is*": 5134,
      "is.": 5135,
      "▁fold": 5136,
      "▁fwd": 5137,
      "▁mine": 5138,
      "▁micro": 5139,
      "▁maneu": 5140,
      "arks": 5141,
      "anium": 5142,
      "▁ok\n": 5143,
      "▁ok,": 5144,
      "▁dome": 5145,
      "▁har": 5146,
      "▁Tom": 5147,
      "▁nons": 5148,
      "▁Sn": 5149,
      "▁Same\n": 5150,
      "▁Speed": 5151,
      "ics,": 5152,
      "▁IV": 5153,
      "▁gar": 5154,
      "▁gig": 5155,
      "▁reb": 5156,
      "▁reference": 5157,
      "▁revolution": 5158,
      "▁revenue": 5159,
      "amping": 5160,
      "▁eg": 5161,
      "ill\n": 5162,
      "▁AM": 5163,
      "▁Ass": 5164,
      "▁Mc": 5165,
      "▁Met": 5166,
      "▁Wont": 5167,
      "▁Water": 5168,
      "▁Wish": 5169,
      "▁WSJ": 5170,
      "ided": 5171,
      "▁anoth": 5172,
      "▁ancient": 5173,
      "allel": 5174,
      "▁Col": 5175,
      "▁Cap": 5176,
      "▁Cup": 5177,
      "▁C++": 5178,
      "▁soft": 5179,
      "▁stars": 5180,
      "▁stick": 5181,
      "▁stole": 5182,
      "thing\n": 5183,
      "▁wear": 5184,
      "▁Nu": 5185,
      "▁NHT": 5186,
      "▁FP": 5187,
      "▁Flight": 5188,
      "▁Future": 5189,
      "▁Final": 5190,
      "▁Fund": 5191,
      "▁Hi": 5192,
      "▁Has": 5193,
      "▁HEPA": 5194,
      "ilities": 5195,
      "▁Bar": 5196,
      "▁Bla": 5197,
      "▁Block": 5198,
      "▁Post": 5199,
      "▁you're": 5200,
      "ally\n": 5201,
      "▁Es": 5202,
      "▁Ess": 5203,
      "▁Dan": 5204,
      "▁shorter": 5205,
      "▁triv": 5206,
      "▁asking": 5207,
      "▁doz": 5208,
      "▁Roof": 5209,
      "▁exit": 5210,
      "▁Lets": 5211,
      "umer": 5212,
      "▁OG": 5213,
      "▁OTA": 5214,
      "▁row": 5215,
      "▁jam": 5216,
      "▁alert": 5217,
      "rap": 5218,
      "▁alloy": 5219,
      "▁lives": 5220,
      "▁wasnt": 5221,
      "▁compens": 5222,
      "▁upon": 5223,
      "▁go\n": 5224,
      "aster": 5225,
      "▁high-": 5226,
      "▁UK": 5227,
      "▁Ult": 5228,
      "▁Using": 5229,
      "▁Je": 5230,
      "▁Jup": 5231,
      "▁hash": 5232,
      "▁Vanden": 5233,
      "▁lock": 5234,
      "▁much.": 5235,
      "▁~8": 5236,
      "ff\n": 5237,
      "▁rock\n": 5238,
      "▁buff": 5239,
      "▁lease": 5240,
      "▁overr": 5241,
      "▁time!\n": 5242,
      "▁drone": 5243,
      "▁sooner": 5244,
      "▁people.\n": 5245,
      "▁rocket\n": 5246,
      "▁SpaceX.": 5247,
      "▁Always": 5248,
      "▁day.\n": 5249,
      "▁days,": 5250,
      "▁spo": 5251,
      "▁sports": 5252,
      "▁intention": 5253,
      "▁faith": 5254,
      "▁yourself": 5255,
      "▁conte": 5256,
      "▁%.": 5257,
      "▁production,": 5258,
      "▁month,": 5259,
      "▁resale": 5260,
      "wear": 5261,
      "▁symb": 5262,
      "▁flight\n": 5263,
      "▁everywhere": 5264,
      "▁powertrain": 5265,
      "▁underappreci": 5266,
      "▁things\n": 5267,
      "▁pupp": 5268,
      "▁Real": 5269,
      "▁Review": 5270,
      "▁know\n": 5271,
      "rows": 5272,
      "▁expand": 5273,
      "▁cost,": 5274,
      "▁regions": 5275,
      "▁Doing": 5276,
      "▁vector": 5277,
      "▁life\n": 5278,
      "▁image": 5279,
      "▁down.": 5280,
      "▁phones": 5281,
      "▁end,": 5282,
      "▁ended": 5283,
      "▁spaceport": 5284,
      "▁insight": 5285,
      "▁insane\n": 5286,
      "▁completing": 5287,
      "▁defense": 5288,
      "▁done.": 5289,
      "▁Covid": 5290,
      "▁And,": 5291,
      "▁leak": 5292,
      "▁leave": 5293,
      "▁confus": 5294,
      "▁videos": 5295,
      "▁ever\n": 5296,
      "▁-60": 5297,
      "▁weeks.\n": 5298,
      "▁change.": 5299,
      "▁~100": 5300,
      "ronic": 5301,
      "▁control,": 5302,
      "▁regulator": 5303,
      "▁invas": 5304,
      "▁operate": 5305,
      "▁range,": 5306,
      "▁\"T": 5307,
      "▁question\n": 5308,
      "▁rate,": 5309,
      "▁computer.": 5310,
      "▁decision": 5311,
      "▁irrele": 5312,
      "▁Orig": 5313,
      "▁commit": 5314,
      "▁winds": 5315,
      "▁Atlas": 5316,
      "▁tempor": 5317,
      "▁Highly": 5318,
      "▁cave": 5319,
      "▁yet.": 5320,
      "▁belie": 5321,
      "▁hardware.": 5322,
      "▁night\n": 5323,
      "▁combin": 5324,
      "▁experts": 5325,
      "▁detect": 5326,
      "▁Doge\n": 5327,
      "▁multiple": 5328,
      "▁wrong.": 5329,
      "▁Absolutely.": 5330,
      "▁improvements,": 5331,
      "clud": 5332,
      "▁awesome.": 5333,
      "▁optimal": 5334,
      "▁appreciated\n": 5335,
      "▁~20": 5336,
      "▁accelerating": 5337,
      "▁handle": 5338,
      "▁radio": 5339,
      "▁discount": 5340,
      "▁delivering": 5341,
      "▁irony": 5342,
      "▁irony\n": 5343,
      "▁Appro": 5344,
      "▁details": 5345,
      "▁~30": 5346,
      "▁specif": 5347,
      "▁probable": 5348,
      "▁~$2": 5349,
      "▁multiplanetary\n": 5350,
      "▁brake": 5351,
      "▁empty": 5352,
      "▁understanding": 5353,
      "▁installed": 5354,
      "▁summer\n": 5355,
      "▁focused": 5356,
      "▁mentioned": 5357,
      "▁relatively": 5358,
      "▁robots": 5359,
      "▁subscription": 5360,
      "ervice": 5361,
      "▁Art": 5362,
      "▁Small": 5363,
      "▁cycles": 5364,
      "▁structural": 5365,
      "▁achieved": 5366,
      "▁analysis.": 5367,
      "▁pushing": 5368,
      "▁pushed": 5369,
      "▁hearing": 5370,
      "▁providing": 5371,
      "ammer": 5372,
      "▁sections": 5373,
      "▁engines,": 5374,
      "▁democr": 5375,
      "▁autonomy": 5376,
      "▁Indeed\n": 5377,
      "burg": 5378,
      "▁thread\n": 5379,
      "▁duties": 5380,
      "▁places": 5381,
      "▁environmental": 5382,
      "▁necessarily": 5383,
      "▁astronom": 5384,
      "▁morning": 5385,
      "▁Boeing": 5386,
      "▁thousand": 5387,
      "force": 5388,
      "▁btw.": 5389,
      "▁virus": 5390,
      "▁propuls": 5391,
      "▁propulsion": 5392,
      "▁degree": 5393,
      "▁particularly": 5394,
      "▁controlled": 5395,
      "▁September": 5396,
      "▁System": 5397,
      "▁Feb": 5398,
      "▁recogn": 5399,
      "▁jacket": 5400,
      "▁hurt": 5401,
      "▁behav": 5402,
      "▁allocation": 5403,
      "▁V9.0": 5404,
      "▁resolution": 5405,
      "▁exponential": 5406,
      "▁authorities": 5407,
      "▁guaranteed": 5408,
      "▁silly": 5409,
      "▁werent": 5410,
      "▁Schrding": 5411,
      "▁reactor": 5412,
      "▁bottom": 5413,
      "▁protection": 5414,
      "▁Support": 5415,
      "▁Requires": 5416,
      "▁propaganda": 5417,
      "▁cathode": 5418,
      "▁Pacific": 5419,
      "▁Megap": 5420,
      "▁equipment": 5421,
      "▁NHTSA": 5422,
      "▁Vandenberg": 5423,
      "-w": 5424,
      "-in": 5425,
      "-ion": 5426,
      "/b": 5427,
      "/AI": 5428,
      "/week": 5429,
      "AC": 5430,
      "TC": 5431,
      "]\n": 5432,
      "aign": 5433,
      "cise": 5434,
      "fall": 5435,
      "ibit": 5436,
      "lation": 5437,
      "m\n": 5438,
      "ma": 5439,
      "n\n": 5440,
      "ners": 5441,
      "ok": 5442,
      "oly": 5443,
      "rust": 5444,
      "t.": 5445,
      "time": 5446,
      "tronic": 5447,
      "ued": 5448,
      "vad": 5449,
      "▁ie": 5450,
      "iner": 5451,
      "onav": 5452,
      "▁sle": 5453,
      "▁sick": 5454,
      "▁six": 5455,
      "▁sats": 5456,
      "▁thick": 5457,
      "▁third": 5458,
      "▁wider": 5459,
      "orse": 5460,
      "▁bal": 5461,
      "▁breat": 5462,
      "▁biz": 5463,
      "▁bull": 5464,
      "▁bio": 5465,
      "▁cow": 5466,
      "▁cop": 5467,
      "▁cru": 5468,
      "ingly": 5469,
      "▁food": 5470,
      "ano": 5471,
      "ances": 5472,
      "▁ps": 5473,
      "▁py": 5474,
      "▁ox": 5475,
      "▁diver": 5476,
      "▁dense": 5477,
      "▁led": 5478,
      "▁lane": 5479,
      "▁lmk": 5480,
      "stru": 5481,
      "▁incon": 5482,
      "▁inevit": 5483,
      "▁innov": 5484,
      "▁is.": 5485,
      "▁non": 5486,
      "▁nar": 5487,
      "▁SF": 5488,
      "▁San": 5489,
      "▁Sad": 5490,
      "▁Saf": 5491,
      "lement": 5492,
      "lying": 5493,
      "▁gun": 5494,
      "▁giving": 5495,
      "acc": 5496,
      "▁rent": 5497,
      "▁AP": 5498,
      "▁Ap": 5499,
      "▁Awesome": 5500,
      "▁Ahem": 5501,
      "▁ones": 5502,
      "▁Mine": 5503,
      "▁Made": 5504,
      "▁Mob": 5505,
      "▁Wal": 5506,
      "eless": 5507,
      "allout": 5508,
      "▁CA": 5509,
      "▁Creating": 5510,
      "imb": 5511,
      "imov": 5512,
      "▁stuck": 5513,
      "▁weap": 5514,
      "am\n": 5515,
      "▁proof": 5516,
      "irl": 5517,
      "▁Fl": 5518,
      "▁Fun": 5519,
      "▁Form": 5520,
      "▁Fallout": 5521,
      "▁Ho": 5522,
      "▁Hel": 5523,
      "▁Here": 5524,
      "▁rig": 5525,
      "▁rum": 5526,
      "▁Bust": 5527,
      "▁Bea": 5528,
      "▁Pot": 5529,
      "▁P100": 5530,
      "▁you.": 5531,
      "ifying": 5532,
      "ables": 5533,
      "▁coating": 5534,
      "▁coinc": 5535,
      "▁cov2": 5536,
      "▁Eas": 5537,
      "▁DC": 5538,
      "▁shipping": 5539,
      "▁Gas": 5540,
      "▁Geor": 5541,
      "▁trunk": 5542,
      "▁asp": 5543,
      "▁vid": 5544,
      "▁Rest": 5545,
      "▁RIP": 5546,
      "▁exists": 5547,
      "▁Le": 5548,
      "▁Limit": 5549,
      "▁worry": 5550,
      "umans": 5551,
      "▁mak": 5552,
      "ive.\n": 5553,
      "▁Stan": 5554,
      "ks\n": 5555,
      "▁jet": 5556,
      "▁align": 5557,
      "rage": 5558,
      "▁all\n": 5559,
      "▁all,": 5560,
      "▁chart": 5561,
      "oney": 5562,
      "ainment": 5563,
      "▁up,": 5564,
      "▁gold": 5565,
      "▁k\n": 5566,
      "▁kWh": 5567,
      "acked": 5568,
      "irect": 5569,
      "▁impress": 5570,
      "▁times.": 5571,
      "▁high,": 5572,
      "▁Us": 5573,
      "▁ULA": 5574,
      "▁heats": 5575,
      "▁fees": 5576,
      "▁prefer": 5577,
      "▁preburn": 5578,
      "▁V8": 5579,
      "▁~9": 5580,
      "▁shouldnt": 5581,
      "▁bump": 5582,
      "▁there,": 5583,
      "▁safer": 5584,
      "▁Exp": 5585,
      "▁rocket,": 5586,
      "▁rockets.": 5587,
      "▁SpaceX\n": 5588,
      "▁Nevad": 5589,
      "▁Alpha": 5590,
      "▁spot": 5591,
      "▁spoke": 5592,
      "▁way.": 5593,
      "ance\n": 5594,
      "▁%.\n": 5595,
      "rier": 5596,
      "ated,": 5597,
      "ated.\n": 5598,
      "arglass": 5599,
      "▁perman": 5600,
      "▁Problem": 5601,
      "▁Progress": 5602,
      "▁better,": 5603,
      "▁funny": 5604,
      "\"\".": 5605,
      "▁You're": 5606,
      "▁autopilot": 5607,
      "▁whenever": 5608,
      "▁interse": 5609,
      "▁flight.\n": 5610,
      "▁power,": 5611,
      "▁underground": 5612,
      "▁recycl": 5613,
      "▁puck": 5614,
      "▁Earths": 5615,
      "▁Reason": 5616,
      "▁know.": 5617,
      "▁sure!\n": 5618,
      "▁express": 5619,
      "▁extending": 5620,
      "▁X,": 5621,
      "▁parallel": 5622,
      "▁them.": 5623,
      "▁however,": 5624,
      "▁scen": 5625,
      "▁US.": 5626,
      "▁helium": 5627,
      "▁safe,": 5628,
      "▁superall": 5629,
      "▁faster\n": 5630,
      "▁landings": 5631,
      "▁endorse": 5632,
      "▁far\n": 5633,
      "▁insp": 5634,
      "elling": 5635,
      "▁energy,": 5636,
      "▁grand": 5637,
      "▁Ang": 5638,
      "▁Ancient": 5639,
      "▁ship.": 5640,
      "▁differences": 5641,
      "▁Sure.": 5642,
      "▁ever.\n": 5643,
      "▁shortly": 5644,
      "▁today.\n": 5645,
      "▁SN2": 5646,
      "▁SN8": 5647,
      "▁-&gt;": 5648,
      "▁guide": 5649,
      "▁important.\n": 5650,
      "▁haha.": 5651,
      "▁haha.\n": 5652,
      "▁updat": 5653,
      "▁updated": 5654,
      "▁updates": 5655,
      "▁publicly": 5656,
      "▁Can't": 5657,
      "▁News": 5658,
      "▁centers": 5659,
      "▁Ash": 5660,
      "▁Asimov": 5661,
      "▁~10%": 5662,
      "▁fairly": 5663,
      "▁talked": 5664,
      "▁safety,": 5665,
      "▁zone": 5666,
      "▁fixing": 5667,
      "▁rolls": 5668,
      "▁Unlike": 5669,
      "▁options": 5670,
      "▁Solarglass": 5671,
      "▁Q4": 5672,
      "▁declin": 5673,
      "▁remote": 5674,
      "▁ordered": 5675,
      "ockhe": 5676,
      "▁tomorrow.": 5677,
      "▁bad\n": 5678,
      "▁idea.": 5679,
      "▁idea!\n": 5680,
      "▁reached": 5681,
      "▁$10": 5682,
      "▁posted": 5683,
      "▁attention": 5684,
      "▁experien": 5685,
      "▁experiment": 5686,
      "▁water,": 5687,
      "▁package": 5688,
      "▁I'd": 5689,
      "▁technology,": 5690,
      "▁wrong\n": 5691,
      "▁Zero": 5692,
      "clus": 5693,
      "▁awesome!\n": 5694,
      "▁Actual": 5695,
      "▁street": 5696,
      "standing": 5697,
      "▁issues,": 5698,
      "▁approval.": 5699,
      "▁Without": 5700,
      "▁dealers": 5701,
      "▁distract": 5702,
      "▁analy": 5703,
      "▁spaces": 5704,
      "▁welcome!": 5705,
      "▁welcome!\n": 5706,
      "▁emission": 5707,
      "▁fine.": 5708,
      "▁emphas": 5709,
      "▁buttons": 5710,
      "▁negatively": 5711,
      "▁friends": 5712,
      "iki": 5713,
      "▁reduced": 5714,
      "▁tonight\n": 5715,
      "▁remaining": 5716,
      "▁ultimately": 5717,
      "point": 5718,
      "ribed": 5719,
      "▁assuming": 5720,
      "▁Play": 5721,
      "▁engines.": 5722,
      "▁causing": 5723,
      "▁leader": 5724,
      "▁layers": 5725,
      "▁profit": 5726,
      "▁maximize": 5727,
      "▁falling": 5728,
      "▁digging": 5729,
      "-cur": 5730,
      "box": 5731,
      "▁damn": 5732,
      "▁presentation": 5733,
      "▁Otherwise": 5734,
      "▁argument": 5735,
      "▁horse": 5736,
      "▁horizont": 5737,
      "▁promis": 5738,
      "▁Ironically,": 5739,
      "▁mechanical": 5740,
      "▁advertis": 5741,
      "▁advertising": 5742,
      "▁Chica": 5743,
      "/diesel": 5744,
      "▁astronauts": 5745,
      "▁dangerous": 5746,
      "▁docking": 5747,
      "▁subsidies": 5748,
      "▁breakthrough": 5749,
      "▁Guess": 5750,
      "▁challenges": 5751,
      "▁Daim": 5752,
      "▁titanium": 5753,
      "▁Starting": 5754,
      "▁survival": 5755,
      "▁services": 5756,
      "▁forgot": 5757,
      "▁example,": 5758,
      "▁competitors": 5759,
      "▁Thursday": 5760,
      "▁Medtronic": 5761,
      "▁yesterday": 5762,
      "▁assembly": 5763,
      "▁President": 5764,
      "ramid": 5765,
      "▁campaign": 5766,
      "▁doubt": 5767,
      "▁inertia": 5768,
      "▁antenna": 5769,
      "▁Delta": 5770,
      "▁convinced": 5771,
      "▁explanation": 5772,
      "▁policy": 5773,
      "▁purchase": 5774,
      "▁Florida": 5775,
      "▁Monty": 5776,
      "▁Germany": 5777,
      "▁Prototy": 5778,
      "▁supporters": 5779,
      "▁Hawthorne": 5780,
      "▁annoying": 5781,
      "▁style": 5782,
      "▁junkyard": 5783,
      "▁passenger": 5784,
      "▁Nrburgring": 5785,
      "-the-": 5786,
      "▁Latest": 5787,
      "▁artificial": 5788,
      "▁nonsense": 5789,
      "▁specifically": 5790,
      "▁propulsive": 5791,
      "▁behavior": 5792,
      "▁P100D": 5793,
      "!?": 5794,
      "-3": 5795,
      "-C": 5796,
      "-on": 5797,
      "/R": 5798,
      "85": 5799,
      "Aut": 5800,
      "DA": 5801,
      "HD": 5802,
      "IC": 5803,
      "L\n": 5804,
      "Qu": 5805,
      "au": 5806,
      "aur": 5807,
      "by": 5808,
      "fire": 5809,
      "get": 5810,
      "i-s": 5811,
      "joy": 5812,
      "ki": 5813,
      "les,": 5814,
      "les.": 5815,
      "lantic": 5816,
      "mber": 5817,
      "nage": 5818,
      "oint": 5819,
      "pa": 5820,
      "rant": 5821,
      "ton": 5822,
      "us\n": 5823,
      "vable": 5824,
      "▁'": 5825,
      "▁?\n": 5826,
      "▁treat": 5827,
      "▁tires": 5828,
      "in\n": 5829,
      "inally": 5830,
      "▁asteroid": 5831,
      "▁sed": 5832,
      "▁sorry": 5833,
      "rete": 5834,
      "▁threat": 5835,
      "▁tho\n": 5836,
      "▁wast": 5837,
      "▁bes": 5838,
      "▁bur": 5839,
      "▁bab": 5840,
      "at\n": 5841,
      "atr": 5842,
      "▁cute": 5843,
      "▁copper": 5844,
      "▁cook": 5845,
      "ison": 5846,
      "inge": 5847,
      "▁fill": 5848,
      "▁face": 5849,
      "oug": 5850,
      "ous.": 5851,
      "itas": 5852,
      "▁mad": 5853,
      "▁mere": 5854,
      "en.": 5855,
      "lly": 5856,
      "arre": 5857,
      "▁pull": 5858,
      "▁pics": 5859,
      "▁packs": 5860,
      "▁to.\n": 5861,
      "▁toast": 5862,
      "▁dom": 5863,
      "▁hal": 5864,
      "▁hence": 5865,
      "▁hole": 5866,
      "▁TV": 5867,
      "▁TX": 5868,
      "▁Tal": 5869,
      "▁Tunnel": 5870,
      "▁TOP": 5871,
      "▁T-shirt": 5872,
      "rock": 5873,
      "roved": 5874,
      "stic": 5875,
      "stream": 5876,
      "▁inject": 5877,
      "▁SX": 5878,
      "▁Sand": 5879,
      "▁Such": 5880,
      "▁Sentry": 5881,
      "▁Sometimes": 5882,
      "▁Service": 5883,
      "ic\n": 5884,
      "le.": 5885,
      "ionate": 5886,
      "▁be.": 5887,
      "▁beast": 5888,
      "▁rew": 5889,
      "▁reverse": 5890,
      "etch": 5891,
      "▁eith": 5892,
      "▁Av": 5893,
      "▁AGI": 5894,
      "▁Third": 5895,
      "▁Mad": 5896,
      "▁Wild": 5897,
      "▁yoke": 5898,
      "allow": 5899,
      "▁Cat": 5900,
      "▁Cle": 5901,
      "▁City": 5902,
      "▁Clo": 5903,
      "▁Certain": 5904,
      "ooking": 5905,
      "▁stri": 5906,
      "▁storm": 5907,
      "aming": 5908,
      "amine": 5909,
      "▁proport": 5910,
      "▁proceed": 5911,
      "▁Y\n": 5912,
      "▁Hold": 5913,
      "▁ring": 5914,
      "▁rule": 5915,
      "▁random": 5916,
      "opter": 5917,
      "ung": 5918,
      "ars\n": 5919,
      "▁BTC": 5920,
      "▁Pet": 5921,
      "▁Pric": 5922,
      "▁you?\n": 5923,
      "▁moved": 5924,
      "abin": 5925,
      "▁Ed": 5926,
      "▁Effect": 5927,
      "▁enem": 5928,
      "▁Due": 5929,
      "▁Diff": 5930,
      "▁Doug": 5931,
      "▁shape": 5932,
      "▁shaft": 5933,
      "ations.": 5934,
      "▁Green": 5935,
      "▁Grav": 5936,
      "▁Google": 5937,
      "▁tri": 5938,
      "▁ascent": 5939,
      "▁does\n": 5940,
      "▁Ren": 5941,
      "▁RWD": 5942,
      "▁Low": 5943,
      "▁Less": 5944,
      "▁sem": 5945,
      "ips": 5946,
      "ive.": 5947,
      "and\n": 5948,
      "and*": 5949,
      "▁alpha": 5950,
      "▁algor": 5951,
      "▁(in": 5952,
      "▁(al": 5953,
      "▁(most": 5954,
      "▁living": 5955,
      "▁Their": 5956,
      "quiv": 5957,
      "▁wasn't": 5958,
      "ts.": 5959,
      "▁choo": 5960,
      "ains": 5961,
      "▁upcoming": 5962,
      "▁memb": 5963,
      "▁keros": 5964,
      "▁poss": 5965,
      "▁timing": 5966,
      "▁high\n": 5967,
      "▁UI": 5968,
      "▁UN": 5969,
      "▁Ur": 5970,
      "▁no\n": 5971,
      "▁June": 5972,
      "rys": 5973,
      "▁loves": 5974,
      "▁lobb": 5975,
      "▁goodness": 5976,
      "▁~50": 5977,
      "▁~500": 5978,
      "▁plat": 5979,
      "▁rocks!\n": 5980,
      "▁adm": 5981,
      "▁too!\n": 5982,
      "▁unus": 5983,
      "▁unable": 5984,
      "▁usable": 5985,
      "▁laugh": 5986,
      "▁While": 5987,
      "▁someh": 5988,
      "▁saves": 5989,
      "▁Invest": 5990,
      "▁spir": 5991,
      "▁contact": 5992,
      "▁production\n": 5993,
      "▁solves": 5994,
      "▁team.\n": 5995,
      "▁accumul": 5996,
      "▁orbits": 5997,
      "▁permit": 5998,
      "▁real-time": 5999,
      "▁Mars!\n": 6000,
      "▁Exactly,": 6001,
      "▁resc": 6002,
      "▁residual": 6003,
      "▁lot,": 6004,
      "▁Thanks!": 6005,
      "well": 6006,
      "▁server": 6007,
      "▁interface": 6008,
      "▁interplanetary": 6009,
      "▁design\n": 6010,
      "▁design,": 6011,
      "▁design.": 6012,
      "orsch": 6013,
      "▁minutes": 6014,
      "▁back.": 6015,
      "▁power\n": 6016,
      "▁$7": 6017,
      "▁recall": 6018,
      "order": 6019,
      "▁sure,": 6020,
      "▁partially": 6021,
      "osed": 6022,
      "▁expanding": 6023,
      "▁regarding": 6024,
      "▁Auto": 6025,
      "▁them,": 6026,
      "▁fine\n": 6027,
      "▁*and*": 6028,
      "▁world,": 6029,
      "▁world.": 6030,
      "▁two\n": 6031,
      "▁superh": 6032,
      "▁system\n": 6033,
      "▁farm": 6034,
      "▁space,": 6035,
      "▁complet": 6036,
      "▁display": 6037,
      "▁Autopilot\n": 6038,
      "▁becomes": 6039,
      "▁transit": 6040,
      "▁Dragon,": 6041,
      "▁Ann": 6042,
      "▁love\n": 6043,
      "▁signs": 6044,
      "▁enter": 6045,
      "▁shorts": 6046,
      "▁SN10": 6047,
      "▁fired": 6048,
      "lessly": 6049,
      "▁later.\n": 6050,
      "▁again.\n": 6051,
      "gency": 6052,
      "▁central": 6053,
      "▁Sec": 6054,
      "▁Second": 6055,
      "▁Asia": 6056,
      "▁Aspiration": 6057,
      "▁change,": 6058,
      "▁cloud": 6059,
      "▁secs": 6060,
      "▁~1.5": 6061,
      "▁taxpay": 6062,
      "▁controls": 6063,
      "▁bother": 6064,
      "ermal": 6065,
      "▁showing": 6066,
      "▁regular": 6067,
      "▁Deus": 6068,
      "▁Death": 6069,
      "▁video.": 6070,
      "▁possible\n": 6071,
      "▁level.": 6072,
      "▁levels": 6073,
      "▁level.\n": 6074,
      "▁idiot": 6075,
      "▁maybe\n": 6076,
      "▁mission.": 6077,
      "▁brand": 6078,
      "▁brief": 6079,
      "▁release.": 6080,
      "▁factory,": 6081,
      "▁booster\n": 6082,
      "▁obviou": 6083,
      "▁clearly": 6084,
      "▁\"S": 6085,
      "▁personal": 6086,
      "▁volt": 6087,
      "▁volum": 6088,
      "▁flame": 6089,
      "▁boys": 6090,
      "▁milest": 6091,
      "▁miles,": 6092,
      "▁computing": 6093,
      "▁decide": 6094,
      "▁decade": 6095,
      "▁irl\n": 6096,
      "▁sense.": 6097,
      "▁command": 6098,
      "▁played": 6099,
      "▁Atlantic": 6100,
      "▁moon,": 6101,
      "▁multi-": 6102,
      "▁satellit": 6103,
      "▁companies.": 6104,
      "▁caut": 6105,
      "▁yet,": 6106,
      "▁stops": 6107,
      "▁Cybertruck\n": 6108,
      "▁motion": 6109,
      "▁funding": 6110,
      "▁amazing.\n": 6111,
      "▁hotel": 6112,
      "▁multiplanet": 6113,
      "▁America\n": 6114,
      "nings": 6115,
      "▁buyers": 6116,
      "▁general,": 6117,
      "▁dropping": 6118,
      "▁steel,": 6119,
      "▁Been": 6120,
      "▁closing": 6121,
      "▁increased": 6122,
      "▁interested": 6123,
      "▁issues.": 6124,
      "▁km/h": 6125,
      "▁acceleration": 6126,
      "▁welcome\n": 6127,
      "▁recommended": 6128,
      "▁wins": 6129,
      "▁winter": 6130,
      "▁deliveries": 6131,
      "▁PhD": 6132,
      "▁steam": 6133,
      "▁correct,": 6134,
      "▁Agreed.": 6135,
      "▁pieces": 6136,
      "▁species": 6137,
      "▁May\n": 6138,
      "▁following": 6139,
      "▁meme\n": 6140,
      "▁fundamentally": 6141,
      "piring": 6142,
      "▁totally": 6143,
      "▁redund": 6144,
      "▁Fairing": 6145,
      "▁law,": 6146,
      "▁sentient": 6147,
      "▁ordering": 6148,
      "paring": 6149,
      "▁Canadian": 6150,
      "▁cycl": 6151,
      "▁addressed": 6152,
      "▁tonight.": 6153,
      "▁Monday": 6154,
      "▁turbine": 6155,
      "▁filters": 6156,
      "▁includes": 6157,
      "▁atmospheric": 6158,
      "▁seriously": 6159,
      "▁Maxim": 6160,
      "▁errors": 6161,
      "▁pods": 6162,
      "▁podcast": 6163,
      "▁engines\n": 6164,
      "▁causes": 6165,
      "▁caused": 6166,
      "▁stores": 6167,
      "poned": 6168,
      "▁enabl": 6169,
      "▁enables": 6170,
      "▁incentive": 6171,
      "▁incentives": 6172,
      "▁Joe": 6173,
      "▁apocal": 6174,
      "▁Trying": 6175,
      "▁perfect,": 6176,
      "▁simulation\n": 6177,
      "▁Indeed,": 6178,
      "▁blows": 6179,
      "▁epis": 6180,
      "▁vastly": 6181,
      "▁heating.": 6182,
      "ological": 6183,
      "▁tbh": 6184,
      "▁Poly": 6185,
      "▁Didnt": 6186,
      "▁successful.": 6187,
      "▁Chica,": 6188,
      "▁discussion": 6189,
      "▁ridicul": 6190,
      "▁Upd": 6191,
      "▁bankruptcy": 6192,
      "▁route": 6193,
      "▁Consumer": 6194,
      "▁financing": 6195,
      "▁Reports": 6196,
      "▁underway\n": 6197,
      "▁retrofit": 6198,
      "ynam": 6199,
      "▁foolish": 6200,
      "ouple": 6201,
      "▁traditional": 6202,
      "▁crewed": 6203,
      "▁replacement": 6204,
      "▁August\n": 6205,
      "▁Saturn": 6206,
      "▁Merry": 6207,
      "▁recovery": 6208,
      "▁Similar": 6209,
      "▁Total": 6210,
      "▁Totally": 6211,
      "▁political": 6212,
      "▁journey": 6213,
      "▁suggestions": 6214,
      "▁Martian": 6215,
      "▁Waiting": 6216,
      "▁compression": 6217,
      "▁unequiv": 6218,
      "▁deserves": 6219,
      "▁suppliers": 6220,
      "-sell": 6221,
      "iosis": 6222,
      "▁OpenAI": 6223,
      "▁Silicon": 6224,
      "▁evolving": 6225,
      "▁Munro": 6226,
      "▁elevator": 6227,
      "▁Headed": 6228,
      "▁stopped": 6229,
      "▁absorb": 6230,
      "▁absolutely": 6231,
      "▁labeling": 6232,
      "▁Apollo": 6233,
      "ypse": 6234,
      "▁York": 6235,
      "▁robust": 6236,
      "▁Initially": 6237,
      "▁Zip2": 6238,
      "▁pattern": 6239,
      "▁daily": 6240,
      "▁severe": 6241,
      "▁(which": 6242,
      "▁respons": 6243,
      "▁explosion": 6244,
      "▁lifetime": 6245,
      "▁escape": 6246,
      "▁Cyberpunk": 6247,
      "▁independent": 6248,
      "▁Reddit": 6249,
      "▁ampl": 6250,
      "▁AMA": 6251,
      "▁Jupiter": 6252,
      "▁underappreciated\n": 6253,
      "▁Approx": 6254,
      "▁Beaut": 6255,
      "▁Stanford": 6256,
      "▁emphasize": 6257,
      "▁Prototypes": 6258,
      "▁algorithm": 6259,
      "$$": 6260,
      "'d": 6261,
      ".c": 6262,
      "/C": 6263,
      "/D": 6264,
      "/L": 6265,
      "/p": 6266,
      "/bot": 6267,
      "RO": 6268,
      "VAC": 6269,
      "after": 6270,
      "ban": 6271,
      "f\n": 6272,
      "fric": 6273,
      "father": 6274,
      "ges": 6275,
      "ged": 6276,
      "gus": 6277,
      "gering": 6278,
      "hield": 6279,
      "i.": 6280,
      "ie\n": 6281,
      "io\n": 6282,
      "late": 6283,
      "lich": 6284,
      "mare": 6285,
      "national": 6286,
      "oon": 6287,
      "ola": 6288,
      "pre": 6289,
      "parent": 6290,
      "rate": 6291,
      "range": 6292,
      "tr": 6293,
      "topia": 6294,
      "ue\n": 6295,
      "uper": 6296,
      "ugg": 6297,
      "uitive": 6298,
      "zer": 6299,
      "zard": 6300,
      "▁tast": 6301,
      "▁tile": 6302,
      "in,": 6303,
      "ining": 6304,
      "inux": 6305,
      "erve": 6306,
      "▁sou": 6307,
      "▁someth": 6308,
      "▁thinks": 6309,
      "▁wif": 6310,
      "▁bs.": 6311,
      "▁boun": 6312,
      "ata": 6313,
      "atory": 6314,
      "▁cg": 6315,
      "▁cit": 6316,
      "▁cour": 6317,
      "▁corre": 6318,
      "▁five": 6319,
      "▁facing": 6320,
      "▁firmware": 6321,
      "▁federal": 6322,
      "▁m,": 6323,
      "▁mor": 6324,
      "▁mort": 6325,
      "enn": 6326,
      "ened": 6327,
      "an.": 6328,
      "anz": 6329,
      "anch": 6330,
      "▁pers": 6331,
      "▁patch": 6332,
      "▁pounds": 6333,
      "▁pending": 6334,
      "▁parent": 6335,
      "▁dial": 6336,
      "▁dynam": 6337,
      "▁lbs": 6338,
      "▁theore": 6339,
      "▁Tay": 6340,
      "▁Times": 6341,
      "▁Took": 6342,
      "▁TBC": 6343,
      "▁Takes": 6344,
      "roat": 6345,
      "sts": 6346,
      "als": 6347,
      "alty": 6348,
      "▁nom": 6349,
      "▁S\n": 6350,
      "▁S,": 6351,
      "▁Sen": 6352,
      "▁Sound": 6353,
      "▁Side": 6354,
      "▁S-cur": 6355,
      "▁IM": 6356,
      "▁IS": 6357,
      "▁Ide": 6358,
      "▁begg": 6359,
      "vey": 6360,
      "▁gl": 6361,
      "ot.": 6362,
      "▁east": 6363,
      "▁earth": 6364,
      "illa": 6365,
      "▁AF": 6366,
      "▁Ant": 6367,
      "▁Afric": 6368,
      "▁forced": 6369,
      "ay,": 6370,
      "▁Thail": 6371,
      "▁Thrust": 6372,
      "▁Main": 6373,
      "▁Ms.": 6374,
      "▁Mem": 6375,
      "▁Mount": 6376,
      "▁Miss": 6377,
      "▁Wr": 6378,
      "▁Way": 6379,
      "▁Wik": 6380,
      "▁yes.": 6381,
      "idd": 6382,
      "elcome": 6383,
      "▁item": 6384,
      "▁stag": 6385,
      "▁states": 6386,
      "tern": 6387,
      "▁weigh": 6388,
      "▁Tesla.\n": 6389,
      "▁pros": 6390,
      "▁proven": 6391,
      "▁Nav": 6392,
      "▁Far": 6393,
      "▁Flo": 6394,
      "▁Free": 6395,
      "▁Fred": 6396,
      "▁Ferm": 6397,
      "▁Har": 6398,
      "▁Ham": 6399,
      "▁Humans": 6400,
      "▁HVAC": 6401,
      "ili": 6402,
      "iler": 6403,
      "oph": 6404,
      "urized": 6405,
      "under": 6406,
      "ested": 6407,
      "▁Bot": 6408,
      "▁Bel": 6409,
      "▁Banks": 6410,
      "▁Brit": 6411,
      "▁Pain": 6412,
      "▁Press": 6413,
      "▁you!\n": 6414,
      "▁cores": 6415,
      "▁EAP": 6416,
      "▁enjoy": 6417,
      "▁shr": 6418,
      "▁Gear": 6419,
      "▁trial": 6420,
      "▁traction": 6421,
      "ate.\n": 6422,
      "ulate": 6423,
      "ulated": 6424,
      "▁vi": 6425,
      "ge\n": 6426,
      "antum": 6427,
      "▁doors": 6428,
      "▁Rom": 6429,
      "▁LZ": 6430,
      "▁Las": 6431,
      "▁Lif": 6432,
      "▁Light": 6433,
      "▁Leg": 6434,
      "▁Ludicrous": 6435,
      "▁Linux": 6436,
      "▁select": 6437,
      "▁search": 6438,
      "▁master": 6439,
      "▁Stud": 6440,
      "▁Station\n": 6441,
      "ard\n": 6442,
      "actic": 6443,
      "raint": 6444,
      "▁(1": 6445,
      "▁(as": 6446,
      "▁(th": 6447,
      "▁(eg": 6448,
      "oday": 6449,
      "▁all-": 6450,
      "ine.": 6451,
      "▁likes": 6452,
      "▁was\n": 6453,
      "▁chea": 6454,
      "▁goes\n": 6455,
      "▁kW": 6456,
      "used": 6457,
      "los": 6458,
      "▁poor": 6459,
      "▁needed,": 6460,
      "ment\n": 6461,
      "▁Upper": 6462,
      "▁wouldve": 6463,
      "ideo": 6464,
      "▁held": 6465,
      "▁Jer": 6466,
      "▁Jun": 6467,
      "▁hasnt": 6468,
      "▁Val": 6469,
      "ist\n": 6470,
      "ist,": 6471,
      "▁produces": 6472,
      "▁much.\n": 6473,
      "▁Spaceball": 6474,
      "▁rocks\n": 6475,
      "rick": 6476,
      "ricks": 6477,
      "▁unf": 6478,
      "▁unre": 6479,
      "▁unique": 6480,
      "rug": 6481,
      "▁applic": 6482,
      "ia,": 6483,
      "▁Wheres": 6484,
      "▁activ": 6485,
      "inds": 6486,
      "▁therefore": 6487,
      "way,": 6488,
      "▁saving": 6489,
      "▁Excess": 6490,
      "▁people\n": 6491,
      "▁theyd": 6492,
      "▁income": 6493,
      "▁spl": 6494,
      "▁intro": 6495,
      "▁intended": 6496,
      "▁contribution": 6497,
      "▁Having": 6498,
      "ribe": 6499,
      "▁long\n": 6500,
      "▁among": 6501,
      "▁team!": 6502,
      "ooling": 6503,
      "ooled": 6504,
      "▁permission": 6505,
      "▁Propellant": 6506,
      "▁real.\n": 6507,
      "\"\",": 6508,
      "▁reserv": 6509,
      "▁speed.": 6510,
      "ocurrency": 6511,
      "ensing": 6512,
      "▁mins.": 6513,
      "▁things,": 6514,
      "▁$6": 6515,
      "▁software.\n": 6516,
      "▁Rele": 6517,
      "▁know,": 6518,
      "upant": 6519,
      "▁cost.": 6520,
      "▁regard": 6521,
      "▁Dog": 6522,
      "useum": 6523,
      "▁lifto": 6524,
      "lick": 6525,
      "▁SoC": 6526,
      "▁Soon\n": 6527,
      "▁scr": 6528,
      "▁*m": 6529,
      "▁*is*": 6530,
      "agic": 6531,
      "▁safest": 6532,
      "▁best\n": 6533,
      "▁best.": 6534,
      "▁thrust,": 6535,
      "▁twist": 6536,
      "▁additional": 6537,
      "▁landing.\n": 6538,
      "▁system,": 6539,
      "▁system.\n": 6540,
      "▁phased": 6541,
      "▁off.": 6542,
      "▁far.\n": 6543,
      "▁inspe": 6544,
      "▁art\n": 6545,
      "▁help\n": 6546,
      "▁earn": 6547,
      "▁became": 6548,
      "▁paywall": 6549,
      "▁/100": 6550,
      "▁small,": 6551,
      "▁Coast": 6552,
      "▁Hey": 6553,
      "▁ship,": 6554,
      "▁throughout": 6555,
      "▁differential": 6556,
      "▁ever.": 6557,
      "▁AI.": 6558,
      "▁AI.\n": 6559,
      "▁jobs": 6560,
      "▁SN6": 6561,
      "▁little\n": 6562,
      "▁important\n": 6563,
      "▁Precise": 6564,
      "▁refill": 6565,
      "▁refilling": 6566,
      "▁Truth": 6567,
      "▁weeks,": 6568,
      "▁Several": 6569,
      "▁International": 6570,
      "▁avion": 6571,
      "▁gas/diesel": 6572,
      "▁Heavy,": 6573,
      "▁legis": 6574,
      "▁limits": 6575,
      "▁Supercharging": 6576,
      "▁level\n": 6577,
      "▁safety.": 6578,
      "▁easy.": 6579,
      "▁depends": 6580,
      "▁rolled": 6581,
      "▁medical": 6582,
      "▁release,": 6583,
      "▁obv\n": 6584,
      "▁hours\n": 6585,
      "▁hours.": 6586,
      "ability,": 6587,
      "▁Unless": 6588,
      "▁\"W": 6589,
      "▁China,": 6590,
      "▁Q1": 6591,
      "▁Que": 6592,
      "▁Q&amp;": 6593,
      "▁bogus": 6594,
      "▁service.\n": 6595,
      "▁computers": 6596,
      "▁computer,": 6597,
      "▁instant": 6598,
      "▁donate": 6599,
      "▁remark": 6600,
      "▁Orbit": 6601,
      "▁subst": 6602,
      "▁close.": 6603,
      "neum": 6604,
      "▁LAX": 6605,
      "▁Yup.": 6606,
      "▁update\n": 6607,
      "▁Mexic": 6608,
      "▁side,": 6609,
      "▁competing": 6610,
      "▁article.": 6611,
      "▁move\n": 6612,
      "▁movement": 6613,
      "▁postponed": 6614,
      "▁anything,": 6615,
      "▁anything.": 6616,
      "▁night.": 6617,
      "▁nightmare": 6618,
      "▁Between": 6619,
      "▁away.": 6620,
      "▁creation": 6621,
      "▁case,": 6622,
      "▁bar\n": 6623,
      "▁parts.": 6624,
      "▁warn": 6625,
      "▁flies": 6626,
      "▁reason,": 6627,
      "▁reasonable": 6628,
      "▁progress.": 6629,
      "▁technology\n": 6630,
      "▁America,": 6631,
      "▁feature\n": 6632,
      "▁false\n": 6633,
      "▁appreciated.": 6634,
      "▁reusable,": 6635,
      "▁imo.\n": 6636,
      "▁Law": 6637,
      "▁hands": 6638,
      "▁collision": 6639,
      "▁winning": 6640,
      "▁returned": 6641,
      "▁distribution": 6642,
      "▁traffic,": 6643,
      "▁polar": 6644,
      "▁oxygen,": 6645,
      "▁releases": 6646,
      "▁terms": 6647,
      "▁visible": 6648,
      "▁visiting": 6649,
      "ublic": 6650,
      "resh": 6651,
      "▁initi": 6652,
      "▁email": 6653,
      "▁raised": 6654,
      "▁performance,": 6655,
      "▁multiplanetary,": 6656,
      "▁Launching": 6657,
      "▁sensitive": 6658,
      "▁installation": 6659,
      "▁edge": 6660,
      "▁relative": 6661,
      "▁trains": 6662,
      "▁Overall": 6663,
      "▁laws": 6664,
      "▁weekend\n": 6665,
      "▁tweeting": 6666,
      "▁pad\n": 6667,
      "▁Engines": 6668,
      "▁English": 6669,
      "▁shielding": 6670,
      "▁strongly": 6671,
      "▁merkin": 6672,
      "▁Whoa": 6673,
      "▁remains": 6674,
      "▁situ": 6675,
      "▁catching": 6676,
      "▁study": 6677,
      "▁countries.": 6678,
      "▁exceptional": 6679,
      "▁billions": 6680,
      "▁growing": 6681,
      "▁sheet": 6682,
      "▁sheep": 6683,
      "▁urban": 6684,
      "▁watching": 6685,
      "▁watched": 6686,
      "▁corporate": 6687,
      "▁drivers": 6688,
      "▁Definitely.": 6689,
      "▁deployment": 6690,
      "▁essentially": 6691,
      "▁profound": 6692,
      "▁enabling": 6693,
      "▁Canaveral\n": 6694,
      "▁(sigh).": 6695,
      "▁incredible\n": 6696,
      "▁Foundation": 6697,
      "▁beautiful\n": 6698,
      "ahn": 6699,
      "ahem": 6700,
      "▁separation": 6701,
      "▁device": 6702,
      "▁photon": 6703,
      "▁modern": 6704,
      "▁anyway.\n": 6705,
      "▁reusability.": 6706,
      "▁cryogen": 6707,
      "▁geo": 6708,
      "▁Upgr": 6709,
      "▁Exactly!\n": 6710,
      "▁learned": 6711,
      "▁Instruction": 6712,
      "-based": 6713,
      "▁pickup": 6714,
      "▁Bring": 6715,
      "▁financial": 6716,
      "▁applying": 6717,
      "-looking": 6718,
      "▁togeth": 6719,
      "▁eye": 6720,
      "▁tradem": 6721,
      "▁themselv": 6722,
      "▁square": 6723,
      "▁Started": 6724,
      "▁Wednes": 6725,
      "andenburg": 6726,
      "▁uncertain": 6727,
      "▁valuable": 6728,
      "▁dollars": 6729,
      "umulative": 6730,
      "▁missed": 6731,
      "▁considering": 6732,
      "▁competitor": 6733,
      "▁politic": 6734,
      "▁internally": 6735,
      "▁absurdly": 6736,
      "▁H2O": 6737,
      "▁colon": 6738,
      "▁colors": 6739,
      "▁organ": 6740,
      "▁sequence": 6741,
      "▁satis": 6742,
      "▁peace": 6743,
      "▁nuclear": 6744,
      "▁emoji": 6745,
      "▁fluid": 6746,
      "▁Building": 6747,
      "▁Single": 6748,
      "▁Honored": 6749,
      "▁entertaining": 6750,
      "▁hypoc": 6751,
      "▁John": 6752,
      "▁Thoughtful": 6753,
      "▁conversation": 6754,
      "▁ambient": 6755,
      "▁Kinda": 6756,
      "▁constraints": 6757,
      "▁:30pm": 6758,
      "▁Astronauts": 6759,
      "▁tweaks": 6760,
      "▁spaceflight": 6761,
      "▁benefit": 6762,
      "/kg": 6763,
      "▁boring\n": 6764,
      "▁maneuver": 6765,
      "▁Cuphead": 6766,
      "▁Fundament": 6767,
      "▁context": 6768,
      "▁symbiosis": 6769,
      "▁irrelevant": 6770,
      "▁Original": 6771,
      "▁pyramid": 6772,
      "▁narrow": 6773,
      "▁Safety": 6774,
      "▁Minecraft": 6775,
      "▁heatshield": 6776,
      "▁emissions": 6777,
      "▁horizontal": 6778,
      "▁Daimler": 6779,
      "Autopilot": 6780,
      "Quil": 6781,
      "▁TOPS": 6782,
      "▁injector": 6783,
      "▁proportionate": 6784,
      "▁Difficult": 6785,
      "▁Gravitas": 6786,
      "▁superhuman": 6787,
      "▁Polytopia": 6788,
      "▁something\n": 6789,
      "▁Fermi": 6790,
      "▁Q&amp;A": 6791,
      "-e": 6792,
      "-p": 6793,
      "/or": 6794,
      "/weight": 6795,
      "1\n": 6796,
      "25": 6797,
      "400": 6798,
      "B.": 6799,
      "DC": 6800,
      "ED": 6801,
      "ER": 6802,
      "FO": 6803,
      "Ph": 6804,
      "ST": 6805,
      "a.\n": 6806,
      "aking": 6807,
      "aire": 6808,
      "aff": 6809,
      "cer": 6810,
      "ech": 6811,
      "e!\n": 6812,
      "ection": 6813,
      "fl": 6814,
      "gest": 6815,
      "here": 6816,
      "hard": 6817,
      "hammer": 6818,
      "iest": 6819,
      "ier.": 6820,
      "lu": 6821,
      "les\n": 6822,
      "nas": 6823,
      "ox": 6824,
      "omp": 6825,
      "o.\n": 6826,
      "ollow": 6827,
      "plan": 6828,
      "rument": 6829,
      "sp": 6830,
      "spect": 6831,
      "vanced": 6832,
      "yr": 6833,
      "▁tar": 6834,
      "▁tent": 6835,
      "▁tree": 6836,
      "▁tune": 6837,
      "▁teles": 6838,
      "in!\n": 6839,
      "inction": 6840,
      "erg": 6841,
      "erry": 6842,
      "▁sen": 6843,
      "▁sending": 6844,
      "▁sweet": 6845,
      "▁sigh\n": 6846,
      "▁srs": 6847,
      "rem": 6848,
      "reasing": 6849,
      "▁th\n": 6850,
      "▁th.": 6851,
      "▁wing": 6852,
      "▁wed": 6853,
      "▁wom": 6854,
      "▁wings": 6855,
      "▁wiki": 6856,
      "orbit": 6857,
      "▁bounce": 6858,
      "▁brows": 6859,
      "▁cm": 6860,
      "▁cir": 6861,
      "▁cult": 6862,
      "▁cert": 6863,
      "▁cyber": 6864,
      "▁currency": 6865,
      "▁cabin": 6866,
      "isd": 6867,
      "inguish": 6868,
      "▁fart": 6869,
      "▁fru": 6870,
      "▁fly\n": 6871,
      "▁fish": 6872,
      "ous,": 6873,
      "itrogen": 6874,
      "▁mm": 6875,
      "▁mit": 6876,
      "▁mel": 6877,
      "enu": 6878,
      "arry": 6879,
      "ario": 6880,
      "arCity": 6881,
      "anity": 6882,
      "anos": 6883,
      "▁pilot": 6884,
      "▁pix": 6885,
      "▁paper": 6886,
      "▁pneum": 6887,
      "▁to,": 6888,
      "▁toile": 6889,
      "▁oh\n": 6890,
      "▁din": 6891,
      "▁dive": 6892,
      "▁dign": 6893,
      "▁dream": 6894,
      "▁hull": 6895,
      "▁home\n": 6896,
      "▁lb": 6897,
      "▁lame": 6898,
      "▁Tra": 6899,
      "▁Tree": 6900,
      "▁Touch": 6901,
      "rown": 6902,
      "alactic": 6903,
      "▁nitrogen": 6904,
      "▁Set": 6905,
      "▁Say": 6906,
      "▁Sam": 6907,
      "▁Spe": 6908,
      "▁Simp": 6909,
      "▁Sens": 6910,
      "▁Scient": 6911,
      "icine": 6912,
      "ics\n": 6913,
      "lee": 6914,
      "let": 6915,
      "lection": 6916,
      "▁II": 6917,
      "▁bear": 6918,
      "▁beats": 6919,
      "ve.": 6920,
      "▁gre": 6921,
      "▁gath": 6922,
      "uts": 6923,
      "utur": 6924,
      "uth\n": 6925,
      "ety\n": 6926,
      "▁Ac": 6927,
      "▁Ari": 6928,
      "▁forcing": 6929,
      "ows": 6930,
      "▁MT": 6931,
      "▁Moth": 6932,
      "▁Mission": 6933,
      "▁West": 6934,
      "▁Welcome": 6935,
      "ent,": 6936,
      "enty": 6937,
      "▁ya": 6938,
      "▁und": 6939,
      "iden": 6940,
      "lam": 6941,
      "launch": 6942,
      "adre": 6943,
      "▁Cam": 6944,
      "▁Cure": 6945,
      "▁Correct": 6946,
      "▁Custom": 6947,
      "▁Class": 6948,
      "▁Cook": 6949,
      "▁it?\n": 6950,
      "▁stress": 6951,
      "▁will,": 6952,
      "▁will.": 6953,
      "sec": 6954,
      "▁Tesla/S": 6955,
      "▁N2": 6956,
      "▁Net": 6957,
      "▁FH": 6958,
      "▁Fully": 6959,
      "▁Focus": 6960,
      "▁rates": 6961,
      "uration": 6962,
      "▁are\n": 6963,
      "▁area.": 6964,
      "▁Blo": 6965,
      "▁Buff": 6966,
      "▁Based": 6967,
      "▁Pop": 6968,
      "▁Prom": 6969,
      "▁Person": 6970,
      "▁Pics": 6971,
      "▁Porsch": 6972,
      "▁Padre": 6973,
      "▁moves": 6974,
      "ably,": 6975,
      "▁coff": 6976,
      "▁hazard": 6977,
      "▁ET": 6978,
      "▁Ent": 6979,
      "▁Either": 6980,
      "▁EPA": 6981,
      "▁enorm": 6982,
      "▁Done": 6983,
      "▁shall": 6984,
      "▁shad": 6985,
      "▁Gre": 6986,
      "ureau": 6987,
      "▁trig": 6988,
      "▁trash": 6989,
      "ules": 6990,
      "ulse": 6991,
      "ulating": 6992,
      "▁vib": 6993,
      "▁vict": 6994,
      "ers!\n": 6995,
      "▁RD": 6996,
      "▁Range": 6997,
      "▁Roc": 6998,
      "▁exchang": 6999,
      "▁exclus": 7000,
      "▁Luck": 7001,
      "▁LEO": 7002,
      "▁Larry": 7003,
      "▁sees": 7004,
      "▁season": 7005,
      "▁worried": 7006,
      "um\n": 7007,
      "umber": 7008,
      "ity\n": 7009,
      "▁Opp": 7010,
      "▁Oper": 7011,
      "▁Off": 7012,
      "▁Offic": 7013,
      "▁Stay": 7014,
      "▁Storm": 7015,
      "▁jamm": 7016,
      "▁alb": 7017,
      "▁altern": 7018,
      "rapped": 7019,
      "▁(C": 7020,
      "▁(y": 7021,
      "▁(ess": 7022,
      "ine,": 7023,
      "▁liked": 7024,
      "▁and\n": 7025,
      "▁and/or": 7026,
      "olies": 7027,
      "olarCity": 7028,
      "ts\n": 7029,
      "▁chem": 7030,
      "▁chees": 7031,
      "▁chann": 7032,
      "▁complic": 7033,
      "▁compelling": 7034,
      "▁go,": 7035,
      "▁Weird": 7036,
      "▁killing": 7037,
      "▁text": 7038,
      "▁high.\n": 7039,
      "▁higher.": 7040,
      "▁wouldn't": 7041,
      "▁fee": 7042,
      "▁Jim": 7043,
      "▁Vast": 7044,
      "▁Video": 7045,
      "▁losing": 7046,
      "▁good!\n": 7047,
      "▁~0": 7048,
      "▁plot": 7049,
      "rict": 7050,
      "▁unw": 7051,
      "▁unfortunate": 7052,
      "▁appoint": 7053,
      "▁Ital": 7054,
      "▁hard,": 7055,
      "▁someones": 7056,
      "▁tail": 7057,
      "▁people!\n": 7058,
      "▁Starship/S": 7059,
      "▁one.\n": 7060,
      "▁Nobody": 7061,
      "▁SpaceXs": 7062,
      "▁launch,": 7063,
      "▁launched": 7064,
      "ice.": 7065,
      "▁spending": 7066,
      "rial": 7067,
      "owner": 7068,
      "velope": 7069,
      "▁team,": 7070,
      "▁news.": 7071,
      "▁lands": 7072,
      "▁accur": 7073,
      "▁perform": 7074,
      "etheless": 7075,
      "▁Product": 7076,
      "▁real.": 7077,
      "▁fun!": 7078,
      "▁reson": 7079,
      "▁YouT": 7080,
      "▁Falcon\n": 7081,
      "▁first.\n": 7082,
      "▁Chris": 7083,
      "▁Chrys": 7084,
      "▁mining": 7085,
      "angu": 7086,
      "▁flight,": 7087,
      "▁flights,": 7088,
      "▁then\n": 7089,
      "▁power.\n": 7090,
      "▁thing.\n": 7091,
      "▁point.\n": 7092,
      "▁$5k": 7093,
      "▁recirc": 7094,
      "aptor": 7095,
      "▁know.\n": 7096,
      "▁knowledge": 7097,
      "▁smash": 7098,
      "▁think\n": 7099,
      "▁parties": 7100,
      "▁expl": 7101,
      "▁expos": 7102,
      "▁extension": 7103,
      "▁X\n": 7104,
      "▁X.": 7105,
      "▁Autonom": 7106,
      "▁fins,": 7107,
      "▁scam": 7108,
      "phob": 7109,
      "▁*f": 7110,
      "▁see.\n": 7111,
      "▁airport": 7112,
      "▁future!\n": 7113,
      "▁worlds": 7114,
      "▁safety\n": 7115,
      "▁pract": 7116,
      "▁printer": 7117,
      "▁well\n": 7118,
      "▁say\n": 7119,
      "▁fast\n": 7120,
      "▁fastest": 7121,
      "▁landing,": 7122,
      "▁reporter": 7123,
      "▁down,": 7124,
      "▁afterno": 7125,
      "▁phil": 7126,
      "▁FSD.": 7127,
      "▁gene": 7128,
      "▁problem!\n": 7129,
      "▁disp": 7130,
      "▁energy\n": 7131,
      "atched": 7132,
      "▁defe": 7133,
      "▁Ke": 7134,
      "▁Raptor.\n": 7135,
      "▁grade": 7136,
      "▁group": 7137,
      "▁Rob": 7138,
      "▁human\n": 7139,
      "▁low.\n": 7140,
      "▁leaving": 7141,
      "▁calling": 7142,
      "▁cool!\n": 7143,
      "▁signed": 7144,
      "▁signature": 7145,
      "▁version\n": 7146,
      "aker": 7147,
      "▁advis": 7148,
      "▁advoc": 7149,
      "▁jokes": 7150,
      "▁product,": 7151,
      "▁county": 7152,
      "▁retire": 7153,
      "▁traject": 7154,
      "▁fire\n": 7155,
      "▁fire.": 7156,
      "links": 7157,
      "▁lateral": 7158,
      "▁refine": 7159,
      "▁Track": 7160,
      "▁pricing": 7161,
      "▁Make": 7162,
      "▁fair,": 7163,
      "▁matter\n": 7164,
      "▁matters\n": 7165,
      "▁\"\"\"": 7166,
      "▁said\n": 7167,
      "▁sketch": 7168,
      "▁levels.": 7169,
      "▁ident": 7170,
      "▁manip": 7171,
      "▁depth": 7172,
      "▁roller": 7173,
      "▁planets": 7174,
      "▁planned": 7175,
      "▁meter": 7176,
      "▁openly": 7177,
      "▁brought": 7178,
      "▁factory.": 7179,
      "▁option\n": 7180,
      "▁\"A": 7181,
      "▁frames": 7182,
      "▁Sorry\n": 7183,
      "▁Q2": 7184,
      "▁Q3": 7185,
      "▁boom": 7186,
      "▁miles.": 7187,
      "▁fog": 7188,
      "cessary": 7189,
      "▁instrument": 7190,
      "▁decent": 7191,
      "▁sense.\n": 7192,
      "▁Wouldnt": 7193,
      "▁subc": 7194,
      "▁close,": 7195,
      "▁close.\n": 7196,
      "ney": 7197,
      "▁passing": 7198,
      "▁passive": 7199,
      "▁password": 7200,
      "▁moon\n": 7201,
      "▁road,": 7202,
      "▁read\n": 7203,
      "▁Wow!\n": 7204,
      "▁LA\n": 7205,
      "▁bad,": 7206,
      "▁Higher": 7207,
      "▁yet.\n": 7208,
      "▁article\n": 7209,
      "▁posting": 7210,
      "▁turning": 7211,
      "▁combine": 7212,
      "▁away\n": 7213,
      "▁attacking": 7214,
      "▁amazingly": 7215,
      "▁barrel": 7216,
      "▁packet": 7217,
      "▁Impact": 7218,
      "▁warning": 7219,
      "▁course.": 7220,
      "▁expecting": 7221,
      "▁kidd": 7222,
      "▁volume,": 7223,
      "▁progress\n": 7224,
      "▁wrong,": 7225,
      "▁Now,": 7226,
      "▁rapidly.": 7227,
      "▁generalized": 7228,
      "▁relevant": 7229,
      "▁Beyond": 7230,
      "▁second.": 7231,
      "▁seconds": 7232,
      "▁secondary": 7233,
      "▁data,": 7234,
      "▁data.": 7235,
      "▁latitud": 7236,
      "▁restart": 7237,
      "▁constit": 7238,
      "▁issue\n": 7239,
      "▁continent": 7240,
      "▁acceleration,": 7241,
      "▁approvals": 7242,
      "▁win.\n": 7243,
      "▁trucks": 7244,
      "50k": 7245,
      "▁here.": 7246,
      "▁name.": 7247,
      "▁words": 7248,
      "▁goal\n": 7249,
      "ake\n": 7250,
      "▁widely": 7251,
      "▁Rockets": 7252,
      "▁irony.\n": 7253,
      "▁releasing": 7254,
      "▁scaling": 7255,
      "▁obvious.\n": 7256,
      "▁keeping": 7257,
      "▁nothing.": 7258,
      "▁load.": 7259,
      "▁traveling": 7260,
      "▁broke": 7261,
      "▁thanks\n": 7262,
      "▁detailed": 7263,
      "▁details\n": 7264,
      "▁physically": 7265,
      "▁&gt;&gt;": 7266,
      "▁programs": 7267,
      "▁excited": 7268,
      "▁~300": 7269,
      "▁factories": 7270,
      "obahn": 7271,
      "▁burn,": 7272,
      "▁solution.": 7273,
      "▁performance.": 7274,
      "▁fine,": 7275,
      "▁info": 7276,
      "▁Liquid": 7277,
      "▁long-term,": 7278,
      "▁summer": 7279,
      "▁Hyd": 7280,
      "▁debt,": 7281,
      "▁memes": 7282,
      "▁memes\n": 7283,
      "▁focusing": 7284,
      "▁redesign": 7285,
      "▁relent": 7286,
      "▁equal": 7287,
      "▁economy": 7288,
      "▁economies": 7289,
      "▁reality\n": 7290,
      "▁weekend.": 7291,
      "▁tiny\n": 7292,
      "▁Arm": 7293,
      "▁safely": 7294,
      "▁achieves": 7295,
      "▁analysis\n": 7296,
      "plus": 7297,
      "▁suspect": 7298,
      "▁Congrats!\n": 7299,
      "▁pm\n": 7300,
      "▁ultimate": 7301,
      "▁Biggest": 7302,
      "ruption": 7303,
      "▁exception": 7304,
      "ughty": 7305,
      "▁Couldnt": 7306,
      "▁Long-term,": 7307,
      "▁sources": 7308,
      "▁vari": 7309,
      "▁mode,": 7310,
      "▁shot\n": 7311,
      "▁connected": 7312,
      "▁connectivity": 7313,
      "going": 7314,
      "▁stories": 7315,
      "▁continuous": 7316,
      "erald": 7317,
      "▁cases.\n": 7318,
      "▁scheduled": 7319,
      "▁digital": 7320,
      "▁honored": 7321,
      "▁minimizes": 7322,
      "▁objects": 7323,
      "▁thrott": 7324,
      "▁rendering": 7325,
      "▁Strong": 7326,
      "▁ok.\n": 7327,
      "▁ok!\n": 7328,
      "▁direction\n": 7329,
      "▁hydrophob": 7330,
      "▁ignore": 7331,
      "▁curious": 7332,
      "▁Eastern": 7333,
      "▁charging": 7334,
      "▁contractors": 7335,
      "▁navigation": 7336,
      "▁Currently": 7337,
      "▁Possibly": 7338,
      "▁points.": 7339,
      "▁suggested": 7340,
      "▁song\n": 7341,
      "▁odd.": 7342,
      "▁April\n": 7343,
      "▁bugs": 7344,
      "▁attacked": 7345,
      "▁illust": 7346,
      "▁site.": 7347,
      "▁casting": 7348,
      "▁floating": 7349,
      "▁methane": 7350,
      "▁Drive": 7351,
      "▁Loved": 7352,
      "▁measured": 7353,
      "▁unlikely": 7354,
      "▁beginn": 7355,
      "▁answered": 7356,
      "▁atmosphere.\n": 7357,
      "▁conditions": 7358,
      "proof": 7359,
      "▁fiat": 7360,
      "▁opens": 7361,
      "▁lithium-ion": 7362,
      "▁Motors": 7363,
      "▁boosters": 7364,
      "▁settings": 7365,
      "▁terminals": 7366,
      "▁etc.": 7367,
      "▁Consider": 7368,
      "▁Parado": 7369,
      "▁speaker": 7370,
      "▁occupant": 7371,
      "thetic": 7372,
      "▁viral": 7373,
      "▁Report": 7374,
      "▁(hopefully": 7375,
      "▁arms": 7376,
      "▁$35k": 7377,
      "▁retrospect": 7378,
      "arming": 7379,
      "▁Marx": 7380,
      "▁stationary": 7381,
      "▁Basically,": 7382,
      "▁synthetic": 7383,
      "▁silicon": 7384,
      "▁aliens\n": 7385,
      "▁consumer": 7386,
      "▁consumers": 7387,
      "▁concerns": 7388,
      "▁hospitals": 7389,
      "▁forget": 7390,
      "▁PayP": 7391,
      "▁symptom": 7392,
      "▁approxim": 7393,
      "▁simplify": 7394,
      "▁Elise": 7395,
      "▁encounter": 7396,
      "▁dollar": 7397,
      "▁consider\n": 7398,
      "▁attached": 7399,
      "▁attachment": 7400,
      "▁influ": 7401,
      "▁robotaxi": 7402,
      "▁robotaxis": 7403,
      "▁Seriously,": 7404,
      "raco": 7405,
      "▁Outer": 7406,
      "▁deserve": 7407,
      "▁vehicles,": 7408,
      "▁Improved": 7409,
      "▁shareholder": 7410,
      "▁hops": 7411,
      "▁iteration": 7412,
      "▁Vacuum": 7413,
      "▁describe": 7414,
      "▁employees": 7415,
      "▁houses": 7416,
      "▁inhibit": 7417,
      "▁Mr.": 7418,
      "▁statistics": 7419,
      "▁simultaneous": 7420,
      "▁simultaneously": 7421,
      "▁surprisingly": 7422,
      "encies": 7423,
      "▁Turbo": 7424,
      "rypton": 7425,
      "▁Valley": 7426,
      "▁meaningful": 7427,
      "▁replaced": 7428,
      "▁Details": 7429,
      "metry": 7430,
      "onym": 7431,
      "▁Putting": 7432,
      "▁degrees": 7433,
      "▁children": 7434,
      "▁purpose": 7435,
      "▁communication": 7436,
      "▁opinion": 7437,
      "▁stabilize": 7438,
      "▁succeed": 7439,
      "▁consumption": 7440,
      "▁Obviously,": 7441,
      "▁gigantic": 7442,
      "▁Essentially": 7443,
      "▁trivial": 7444,
      "▁dozen": 7445,
      "▁invasive": 7446,
      "▁~$2k": 7447,
      "▁sleep": 7448,
      "▁breath": 7449,
      "▁bizarre": 7450,
      "▁biograph": 7451,
      "structure": 7452,
      "▁Apolog": 7453,
      "▁rumor": 7454,
      "▁Busted\n": 7455,
      "▁coincidence": 7456,
      "▁George": 7457,
      "▁inspired": 7458,
      "ockheed": 7459,
      "▁Otherwise,": 7460,
      "▁besides": 7461,
      "▁halves": 7462,
      "▁Close": 7463,
      "▁Certainly": 7464,
      "▁platform": 7465,
      "▁voltage": 7466,
      "▁enabled,": 7467,
      "▁apocalypse": 7468,
      "▁Beautiful": 7469,
      "▁cgi": 7470,
      "▁citiz": 7471,
      "▁mortality": 7472,
      "▁dialog": 7473,
      "▁theoretical": 7474,
      "▁Spaceballs\n": 7475,
      "▁Releasing": 7476,
      "▁Fundamental": 7477,
      "▁telesc": 7478,
      "▁Special": 7479,
      "▁CureVac": 7480,
      "▁Buffet": 7481,
      "ureaucr": 7482,
      "▁Starship/Super": 7483,
      "▁Chrysler": 7484,
      "▁trajectory": 7485,
      "▁hydrophobic": 7486,
      "▁Paradox": 7487,
      "!)": 7488,
      "*,": 7489,
      "-B": 7490,
      "-L": 7491,
      "-g": 7492,
      "-st": 7493,
      "-co": 7494,
      "-of": 7495,
      "-19": 7496,
      "-app": 7497,
      "-optim": 7498,
      "/3": 7499,
      "/F": 7500,
      "/N": 7501,
      "/U": 7502,
      "/g": 7503,
      "/O2": 7504,
      "/Tesla": 7505,
      "15": 7506,
      "2\n": 7507,
      "Gre": 7508,
      "M\n": 7509,
      "OX": 7510,
      "PC": 7511,
      "PU": 7512,
      "Sat": 7513,
      "T\n": 7514,
      "TV": 7515,
      "W,": 7516,
      "bel": 7517,
      "backs": 7518,
      "book": 7519,
      "car": 7520,
      "dy": 7521,
      "gon": 7522,
      "gment": 7523,
      "giving": 7524,
      "hood": 7525,
      "host": 7526,
      "house": 7527,
      "iF": 7528,
      "ias": 7529,
      "iam": 7530,
      "ius": 7531,
      "kes\n": 7532,
      "lac": 7533,
      "lot": 7534,
      "lay": 7535,
      "lative": 7536,
      "mark": 7537,
      "nel": 7538,
      "nch": 7539,
      "off": 7540,
      "oys": 7541,
      "pe\n": 7542,
      "pts": 7543,
      "ration": 7544,
      "rue": 7545,
      "son": 7546,
      "u\n": 7547,
      "uit": 7548,
      "uct": 7549,
      "vance": 7550,
      "will": 7551,
      "wood": 7552,
      "wyn": 7553,
      "watt": 7554,
      "▁)\n": 7555,
      "▁tend": 7556,
      "ines\n": 7557,
      "▁a\n": 7558,
      "▁apo": 7559,
      "▁aka": 7560,
      "erved": 7561,
      "ergency": 7562,
      "reak": 7563,
      "▁throw": 7564,
      "▁wip": 7565,
      "▁wood": 7566,
      "▁wisd": 7567,
      "esp": 7568,
      "orical": 7569,
      "orbital": 7570,
      "▁ble": 7571,
      "▁bare": 7572,
      "▁brag": 7573,
      "▁blad": 7574,
      "▁bureaucr": 7575,
      "atri": 7576,
      "▁cig": 7577,
      "▁cous": 7578,
      "inger": 7579,
      "▁fil": 7580,
      "▁ftw": 7581,
      "▁father": 7582,
      "▁felt": 7583,
      "▁futur": 7584,
      "ourage": 7585,
      "▁m\n": 7586,
      "▁ms": 7587,
      "▁mand": 7588,
      "▁mus": 7589,
      "▁moth": 7590,
      "▁mature": 7591,
      "▁museum": 7592,
      "▁menu": 7593,
      "en,": 7594,
      "ar.": 7595,
      "arian": 7596,
      "anes": 7597,
      "ans\n": 7598,
      "anese": 7599,
      "ancing": 7600,
      "▁pill": 7601,
      "▁pla": 7602,
      "▁peop": 7603,
      "▁toxic": 7604,
      "▁dow": 7605,
      "▁dare": 7606,
      "▁dash": 7607,
      "▁divers": 7608,
      "▁damping": 7609,
      "edy": 7610,
      "edge": 7611,
      "▁hab": 7612,
      "▁hide": 7613,
      "▁hors": 7614,
      "▁hoping": 7615,
      "▁lack": 7616,
      "▁loud": 7617,
      "▁langu": 7618,
      "▁the\n": 7619,
      "▁Ton": 7620,
      "▁Tong": 7621,
      "▁Tile": 7622,
      "▁Tax": 7623,
      "▁Target": 7624,
      "▁Today": 7625,
      "mph": 7626,
      "room": 7627,
      "▁in.\n": 7628,
      "▁induction": 7629,
      "▁inches": 7630,
      "▁inacc": 7631,
      "▁SS": 7632,
      "▁Sea": 7633,
      "▁Sain": 7634,
      "▁Slight": 7635,
      "▁Swit": 7636,
      "▁Sending": 7637,
      "icip": 7638,
      "icious": 7639,
      "ase\n": 7640,
      "▁IR": 7641,
      "ve.\n": 7642,
      "vember": 7643,
      "▁gent": 7644,
      "▁gap": 7645,
      "▁glas": 7646,
      "igs": 7647,
      "igible": 7648,
      "ace\n": 7649,
      "▁rein": 7650,
      "otes": 7651,
      "etter": 7652,
      "etry": 7653,
      "illiant": 7654,
      "▁Ala": 7655,
      "▁Aud": 7656,
      "▁on,": 7657,
      "ow.": 7658,
      "owed": 7659,
      "▁Thinking": 7660,
      "▁Mich": 7661,
      "▁Mult": 7662,
      "▁Music": 7663,
      "▁Woo": 7664,
      "▁WiF": 7665,
      "ent\n": 7666,
      "▁yield": 7667,
      "▁yaw": 7668,
      "▁uh": 7669,
      "elming": 7670,
      "chaz": 7671,
      "check": 7672,
      "ad\n": 7673,
      "ada": 7674,
      "▁CN": 7675,
      "▁Call": 7676,
      "▁Cars": 7677,
      "▁Cult": 7678,
      "▁Corre": 7679,
      "▁Course": 7680,
      "▁Civil": 7681,
      "▁sole": 7682,
      "▁sock": 7683,
      "▁it!": 7684,
      "▁st\n": 7685,
      "▁stamp": 7686,
      "▁stead": 7687,
      "▁stored": 7688,
      "▁stiff": 7689,
      "▁staged": 7690,
      "▁Test": 7691,
      "▁wealth": 7692,
      "▁neut": 7693,
      "▁neur": 7694,
      "amb": 7695,
      "▁prove": 7696,
      "▁proper": 7697,
      "▁Yay": 7698,
      "▁Yep": 7699,
      "▁Year": 7700,
      "▁Nap": 7701,
      "▁National": 7702,
      "▁Nik": 7703,
      "▁Nickel": 7704,
      "▁NPC": 7705,
      "▁Face": 7706,
      "▁Fear": 7707,
      "▁Filter": 7708,
      "▁F-1": 7709,
      "▁Federal": 7710,
      "▁HQ": 7711,
      "▁Heav": 7712,
      "▁rn\n": 7713,
      "urally": 7714,
      "unt": 7715,
      "union": 7716,
      "esting": 7717,
      "▁Bought": 7718,
      "▁Bern": 7719,
      "▁Bob": 7720,
      "▁PR": 7721,
      "▁Pure": 7722,
      "▁Pol": 7723,
      "▁Pass": 7724,
      "▁Palo": 7725,
      "▁P85": 7726,
      "▁young": 7727,
      "ifies": 7728,
      "▁coal": 7729,
      "▁cobal": 7730,
      "cell": 7731,
      "cepts": 7732,
      "▁Eber": 7733,
      "▁Early": 7734,
      "▁envelope": 7735,
      "▁Dest": 7736,
      "▁Dist": 7737,
      "▁Doub": 7738,
      "▁Data": 7739,
      "▁shear": 7740,
      "ationary": 7741,
      "▁Gro": 7742,
      "▁Glo": 7743,
      "▁Game": 7744,
      "▁Giant": 7745,
      "▁Gover": 7746,
      "▁Gonna": 7747,
      "▁Games": 7748,
      "▁Gwyn": 7749,
      "▁trim": 7750,
      "▁trun": 7751,
      "▁trail": 7752,
      "▁asy": 7753,
      "ulpt": 7754,
      "ulner": 7755,
      "▁vulner": 7756,
      "ant.": 7757,
      "▁doom": 7758,
      "▁Ret": 7759,
      "▁Ram": 7760,
      "▁Race": 7761,
      "▁Rough": 7762,
      "▁Roughly": 7763,
      "▁RNA": 7764,
      "▁RHD": 7765,
      "▁noting": 7766,
      "▁notable": 7767,
      "▁Los": 7768,
      "▁Log": 7769,
      "▁Lmk": 7770,
      "▁seal": 7771,
      "ntown": 7772,
      "iped": 7773,
      "▁Ox": 7774,
      "▁Old": 7775,
      "▁Opt": 7776,
      "▁Occ": 7777,
      "▁Own": 7778,
      "▁conne": 7779,
      "▁concept": 7780,
      "▁Static": 7781,
      "▁Stainless": 7782,
      "▁alive": 7783,
      "▁alread": 7784,
      "raud": 7785,
      "rastructure": 7786,
      "▁(R": 7787,
      "▁(if": 7788,
      "▁(ie": 7789,
      "▁(very": 7790,
      "▁(so": 7791,
      "▁(to": 7792,
      "▁(the": 7793,
      "▁(for": 7794,
      "ods": 7795,
      "▁che": 7796,
      "▁cho": 7797,
      "▁champ": 7798,
      "ives,": 7799,
      "ives.": 7800,
      "ived.": 7801,
      "▁compar": 7802,
      "▁likely,": 7803,
      "▁up.": 7804,
      "▁up.\n": 7805,
      "▁up!\n": 7806,
      "▁upside": 7807,
      "▁kick": 7808,
      "usable": 7809,
      "▁tears": 7810,
      "▁timel": 7811,
      "ound\n": 7812,
      "▁more,": 7813,
      "▁UFO": 7814,
      "▁preference": 7815,
      "▁no,": 7816,
      "▁outle": 7817,
      "▁comet": 7818,
      "▁Jon": 7819,
      "▁Jack": 7820,
      "ize\n": 7821,
      "▁VR": 7822,
      "▁View": 7823,
      "ist.": 7824,
      "▁arriving": 7825,
      "▁plug": 7826,
      "cons": 7827,
      "connect": 7828,
      "▁anything\n": 7829,
      "▁rock!\n": 7830,
      "▁adults": 7831,
      "▁too!": 7832,
      "▁una": 7833,
      "▁uns": 7834,
      "▁applies": 7835,
      "▁work!\n": 7836,
      "▁White": 7837,
      "▁Whoop": 7838,
      "▁Wh/kg": 7839,
      "▁activity": 7840,
      "inding": 7841,
      "▁oursel": 7842,
      "▁thereafter": 7843,
      "▁over-the-": 7844,
      "▁saved": 7845,
      "▁Expect": 7846,
      "▁soon!": 7847,
      "▁rockets,": 7848,
      "▁they're": 7849,
      "▁November": 7850,
      "▁SpaceX/Tesla": 7851,
      "intelligence": 7852,
      "intuitive": 7853,
      "▁year!\n": 7854,
      "▁descent": 7855,
      "thern": 7856,
      "▁Although": 7857,
      "▁Alto": 7858,
      "▁test,": 7859,
      "▁tests.": 7860,
      "▁testing.": 7861,
      "▁what's": 7862,
      "ance.": 7863,
      "▁conting": 7864,
      "▁contrib": 7865,
      "▁quantum": 7866,
      "▁long.": 7867,
      "▁monthly": 7868,
      "▁percent": 7869,
      "▁knew": 7870,
      "▁fun.": 7871,
      "▁resume": 7872,
      "▁autoc": 7873,
      "▁autonav": 7874,
      "ressing": 7875,
      "▁Thanksgiving": 7876,
      "▁Falcon/D": 7877,
      "▁loose": 7878,
      "▁intervention": 7879,
      "lected": 7880,
      "▁Success": 7881,
      "▁speech": 7882,
      "oco": 7883,
      "ocally": 7884,
      "▁big\n": 7885,
      "▁first\n": 7886,
      "▁Onion": 7887,
      "▁minus": 7888,
      "anging": 7889,
      "▁flights.\n": 7890,
      "▁backpack": 7891,
      "▁Shark": 7892,
      "▁underr": 7893,
      "▁point!\n": 7894,
      "▁$4": 7895,
      "▁software,": 7896,
      "ating.\n": 7897,
      "ords": 7898,
      "▁smarter": 7899,
      "ishing": 7900,
      "▁part\n": 7901,
      "▁partly": 7902,
      "▁partners": 7903,
      "osoph": 7904,
      "lowing": 7905,
      "▁regen": 7906,
      "▁regional": 7907,
      "▁Superd": 7908,
      "▁literal": 7909,
      "▁lifting": 7910,
      "▁build.": 7911,
      "▁Autom": 7912,
      "▁Autobahn": 7913,
      "▁finally": 7914,
      "▁sculpt": 7915,
      "redit": 7916,
      "▁Starlinks": 7917,
      "▁US\n": 7918,
      "▁US,": 7919,
      "▁*with": 7920,
      "aging": 7921,
      "▁airplan": 7922,
      "▁humor": 7923,
      "▁thrusters,": 7924,
      "▁thrust/weight": 7925,
      "▁images": 7926,
      "▁tweak": 7927,
      "▁book\n": 7928,
      "▁fast,": 7929,
      "iously": 7930,
      "▁reports": 7931,
      "▁down.\n": 7932,
      "▁downward": 7933,
      "▁systems.": 7934,
      "▁missing": 7935,
      "▁off\n": 7936,
      "▁offset": 7937,
      "▁energy.": 7938,
      "▁default": 7939,
      "▁Kore": 7940,
      "▁Knight": 7941,
      "▁Kids": 7942,
      "▁Autopilot/AI": 7943,
      "▁though,": 7944,
      "▁grant": 7945,
      "▁transmit": 7946,
      "▁Roll": 7947,
      "▁humans\n": 7948,
      "▁/Y": 7949,
      "▁Ans": 7950,
      "▁true.\n": 7951,
      "▁battery,": 7952,
      "▁done.\n": 7953,
      "▁tunnel.": 7954,
      "▁throughput": 7955,
      "▁increment": 7956,
      "▁version.\n": 7957,
      "▁around.": 7958,
      "aken": 7959,
      "▁generation": 7960,
      "▁AI\n": 7961,
      "▁AI,": 7962,
      "▁advice": 7963,
      "▁SN9": 7964,
      "▁SNL": 7965,
      "▁drive\n": 7966,
      "▁drive,": 7967,
      "▁happened.": 7968,
      "▁later,": 7969,
      "month": 7970,
      "▁refers": 7971,
      "▁refuel": 7972,
      "ashdown": 7973,
      "▁century": 7974,
      "▁pressure.": 7975,
      "▁Seeing": 7976,
      "▁Ascent": 7977,
      "▁change.\n": 7978,
      "▁matter.\n": 7979,
      "▁wherever": 7980,
      "▁\"\"T": 7981,
      "▁\"\"b": 7982,
      "▁always-on": 7983,
      "▁legs,": 7984,
      "▁Dev": 7985,
      "▁sky.": 7986,
      "▁deplo": 7987,
      "▁medicine": 7988,
      "▁metap": 7989,
      "▁branch": 7990,
      "▁Univers": 7991,
      "▁\"G": 7992,
      "▁\"I": 7993,
      "▁\"R": 7994,
      "▁company.": 7995,
      "▁company.\n": 7996,
      "▁looked": 7997,
      "▁China.": 7998,
      "while": 7999,
      "whelming": 8000,
      "atellite": 8001,
      "▁tons.": 8002,
      "▁boy": 8003,
      "▁boss": 8004,
      "▁automatic": 8005,
      "▁sett": 8006,
      "ustainable": 8007,
      "▁risk,": 8008,
      "▁irl": 8009,
      "▁suboptim": 8010,
      "▁plays": 8011,
      "ness,": 8012,
      "▁ownership": 8013,
      "▁while\n": 8014,
      "▁while,": 8015,
      "▁update.\n": 8016,
      "▁Mechaz": 8017,
      "▁Texas,": 8018,
      "▁Energy": 8019,
      "▁hardware\n": 8020,
      "▁reaches": 8021,
      "▁Comple": 8022,
      "▁Comput": 8023,
      "▁Compet": 8024,
      "▁combined": 8025,
      "▁datab": 8026,
      "▁headed": 8027,
      "▁California\n": 8028,
      "▁acid": 8029,
      "▁acqu": 8030,
      "▁blood": 8031,
      "▁blue": 8032,
      "▁propellant,": 8033,
      "▁roof.": 8034,
      "▁roofs": 8035,
      "▁bar.": 8036,
      "▁water.": 8037,
      "▁package\n": 8038,
      "▁Isnt": 8039,
      "▁difficult.": 8040,
      "▁difficulty": 8041,
      "▁warrant": 8042,
      "▁course!\n": 8043,
      "▁flip": 8044,
      "▁homeowner": 8045,
      "▁kids.": 8046,
      "▁gaming": 8047,
      "▁rapidly\n": 8048,
      "▁rapidly.\n": 8049,
      "ists\n": 8050,
      "▁bits": 8051,
      "▁drove": 8052,
      "▁awesome.\n": 8053,
      "▁priorit": 8054,
      "▁restaur": 8055,
      "▁constraint": 8056,
      "▁~20%": 8057,
      "▁value.": 8058,
      "▁value.\n": 8059,
      "▁reusable\n": 8060,
      "10%": 8061,
      "▁wheels": 8062,
      "▁wheels,": 8063,
      "▁interesting\n": 8064,
      "▁deeply": 8065,
      "▁km/": 8066,
      "▁accelerating\n": 8067,
      "▁handling": 8068,
      "▁recommended\n": 8069,
      "▁views": 8070,
      "▁place.": 8071,
      "zzle": 8072,
      "▁slowed": 8073,
      "▁Phil": 8074,
      "▁words,": 8075,
      "▁Still,": 8076,
      "arching": 8077,
      "▁police": 8078,
      "▁works,": 8079,
      "▁released": 8080,
      "▁city\n": 8081,
      "▁journo": 8082,
      "▁presum": 8083,
      "▁scale\n": 8084,
      "▁humanity\n": 8085,
      "▁humanitys": 8086,
      "▁crazy,": 8087,
      "▁Roadster,": 8088,
      "▁Spir": 8089,
      "▁others.": 8090,
      "▁others,": 8091,
      "▁others.\n": 8092,
      "▁event,": 8093,
      "▁Europe\n": 8094,
      "▁thanks!\n": 8095,
      "▁details.\n": 8096,
      "netic": 8097,
      "▁snail": 8098,
      "▁fleet.": 8099,
      "▁manufacture": 8100,
      "▁motor,": 8101,
      "▁toughest": 8102,
      "▁tank.": 8103,
      "▁emerald": 8104,
      "▁arrived": 8105,
      "▁~$100": 8106,
      "▁multiplanetary.\n": 8107,
      "▁infrastructure": 8108,
      "▁cold-": 8109,
      "▁understands": 8110,
      "▁swift": 8111,
      "▁Hardcore": 8112,
      "▁debris": 8113,
      "▁economics": 8114,
      "▁lawsu": 8115,
      "▁weekend.\n": 8116,
      "▁foundry": 8117,
      "▁foundational": 8118,
      "▁accurate.": 8119,
      "▁message": 8120,
      "▁Canada.": 8121,
      "▁date,": 8122,
      "▁date.": 8123,
      "▁Berlin\n": 8124,
      "place": 8125,
      "▁originally": 8126,
      "▁Doesn't": 8127,
      "▁offered": 8128,
      "▁Internet.\n": 8129,
      "▁sheer": 8130,
      "▁assess": 8131,
      "▁Blood": 8132,
      "▁tells": 8133,
      "▁telling": 8134,
      "▁accounts": 8135,
      "▁priority.": 8136,
      "▁coron": 8137,
      "▁Place": 8138,
      "▁lasers": 8139,
      "▁efficiency,": 8140,
      "20.": 8141,
      "▁cases,": 8142,
      "▁Mk3": 8143,
      "▁enabled": 8144,
      "▁surprise": 8145,
      "▁surprised": 8146,
      "▁bringing": 8147,
      "▁droneship.": 8148,
      "▁elements": 8149,
      "▁trees": 8150,
      "▁damage": 8151,
      "▁French": 8152,
      "▁joined": 8153,
      "▁Canaveral.": 8154,
      "▁incredible.\n": 8155,
      "▁potential\n": 8156,
      "▁pathf": 8157,
      "▁Series": 8158,
      "▁concrete": 8159,
      "▁Technology": 8160,
      "▁Indeed.": 8161,
      "▁immediately.": 8162,
      "▁ignite": 8163,
      "▁placed": 8164,
      "▁processing": 8165,
      "▁Didn't": 8166,
      "▁devic": 8167,
      "▁quarter,": 8168,
      "▁reporting": 8169,
      "▁community": 8170,
      "▁suggests": 8171,
      "▁According": 8172,
      "▁rain\n": 8173,
      "▁anyway,": 8174,
      "▁journalism": 8175,
      "▁bias": 8176,
      "▁candid": 8177,
      "▁mistakes": 8178,
      "▁latter.\n": 8179,
      "▁(but": 8180,
      "production": 8181,
      "▁materials": 8182,
      "▁yeah\n": 8183,
      "▁NNs": 8184,
      "▁Instead": 8185,
      "▁removal": 8186,
      "▁prevented": 8187,
      "▁ideas\n": 8188,
      "▁btw\n": 8189,
      "▁occur": 8190,
      "▁approaching": 8191,
      "▁wildfire": 8192,
      "▁eyes": 8193,
      "▁sync": 8194,
      "▁synch": 8195,
      "ious.": 8196,
      "▁silver": 8197,
      "▁switched": 8198,
      "▁Massive": 8199,
      "▁Feature": 8200,
      "▁areas.": 8201,
      "▁rotor": 8202,
      "▁sucks\n": 8203,
      "▁~5%": 8204,
      "▁~78%": 8205,
      "▁Engineering": 8206,
      "▁blackouts": 8207,
      "▁judge": 8208,
      "▁Insurance": 8209,
      "▁incorrect.": 8210,
      "▁refund\n": 8211,
      "▁Dogecoin\n": 8212,
      "▁variants": 8213,
      "▁iPh": 8214,
      "▁encourage": 8215,
      "▁Gary,": 8216,
      "▁journey\n": 8217,
      "▁frequent": 8218,
      "▁frequency": 8219,
      "▁error.": 8220,
      "▁criticism.": 8221,
      "▁Martin": 8222,
      "▁Reminder": 8223,
      "▁Steven": 8224,
      "▁V2.0": 8225,
      "▁vehicles\n": 8226,
      "▁acceptable": 8227,
      "▁shareholders": 8228,
      "▁audio": 8229,
      "▁eggs": 8230,
      "▁shutdown": 8231,
      "▁converted": 8232,
      "▁quickly": 8233,
      "▁vaccines": 8234,
      "▁configuration": 8235,
      "▁college.": 8236,
      "▁consciousness\n": 8237,
      "▁fatal": 8238,
      "▁fatig": 8239,
      "▁heavily": 8240,
      "▁inher": 8241,
      "▁Swed": 8242,
      "▁Herbert": 8243,
      "▁(near": 8244,
      "▁esthetic": 8245,
      "▁$100k": 8246,
      "▁mistake.": 8247,
      "▁embarrassing": 8248,
      "▁observ": 8249,
      "▁agreed": 8250,
      "▁parachute": 8251,
      "ledgehammer": 8252,
      "▁Johns": 8253,
      "▁scientists": 8254,
      "▁renewable": 8255,
      "▁renewables": 8256,
      "▁execution": 8257,
      "▁delete": 8258,
      "▁degrees\n": 8259,
      "▁actuator": 8260,
      "▁Regarding": 8261,
      "ibration": 8262,
      "▁opportunity": 8263,
      "▁circum": 8264,
      "▁penalty": 8265,
      "▁natural": 8266,
      "▁IPO": 8267,
      "▁repeated": 8268,
      "▁convenient": 8269,
      "▁convenience": 8270,
      "▁minutes\n": 8271,
      "▁calendar,": 8272,
      "▁patents": 8273,
      "▁FTW\n": 8274,
      "▁harness": 8275,
      "▁McGre": 8276,
      "▁Metal": 8277,
      "▁Blade": 8278,
      "▁compensation": 8279,
      "▁Ultimate": 8280,
      "▁spoken": 8281,
      "▁puppet": 8282,
      "▁Covid-19": 8283,
      "▁committed": 8284,
      "cluding": 8285,
      "▁Boeing/L": 8286,
      "▁Schrdinger": 8287,
      "▁Megapacks": 8288,
      "▁thickness": 8289,
      "▁bullet": 8290,
      "▁weapons": 8291,
      "▁Holly": 8292,
      "▁Easy": 8293,
      "▁preburner": 8294,
      "▁recycling": 8295,
      "▁scenario": 8296,
      "▁superalloy": 8297,
      "▁Ashlee": 8298,
      "▁analysts": 8299,
      "i-sub": 8300,
      "▁burst": 8301,
      "▁TVC": 8302,
      "▁Douglas": 8303,
      "▁kerosene": 8304,
      "▁possibility": 8305,
      "▁lobby": 8306,
      "▁Investig": 8307,
      "▁rescue": 8308,
      "▁obvious,": 8309,
      "▁unequivocally": 8310,
      "▁responsible": 8311,
      ".com": 8312,
      "▁Taycan": 8313,
      "▁nominal": 8314,
      "▁begging": 8315,
      "▁Africa": 8316,
      "▁Thailand": 8317,
      "▁Mountain": 8318,
      "▁Wikiped": 8319,
      "idden": 8320,
      "▁Farad": 8321,
      "▁LZ-1": 8322,
      "▁unreason": 8323,
      "▁liftoff\n": 8324,
      "▁scratch": 8325,
      "▁Precisely\n": 8326,
      "▁cryogenic": 8327,
      "▁trademark": 8328,
      "▁Gravitas\n": 8329,
      "▁circle": 8330,
      "▁dignity": 8331,
      "▁gathering": 8332,
      "▁Tesla/SolarCity": 8333,
      "▁ETH": 8334,
      "▁Rococo": 8335,
      "▁cheese\n": 8336,
      "▁exposure": 8337,
      "▁philosoph": 8338,
      "▁illustrate": 8339,
      "-optimized": 8340,
      "▁apoge": 8341,
      "▁futuristic": 8342,
      "▁peoples": 8343,
      "▁downtown": 8344,
      "▁Tonga": 8345,
      "▁inaccurate": 8346,
      "▁Saints": 8347,
      "▁Alamed": 8348,
      "▁Wooh": 8349,
      "▁Culture": 8350,
      "▁steadily": 8351,
      "▁Napole": 8352,
      "▁Nikola": 8353,
      "▁Facebook": 8354,
      "▁Heavy\n": 8355,
      "▁Eberhard": 8356,
      "▁Govern": 8357,
      "▁Optim": 8358,
      "▁already\n": 8359,
      "▁over-the-air": 8360,
      "▁Falcon/Drag": 8361,
      "▁restaurant": 8362,
      "▁Hollywood": 8363,
      "!)\n": 8364,
      "$2": 8365,
      "-th": 8366,
      "-over": 8367,
      "-cl": 8368,
      "-check": 8369,
      "/r": 8370,
      "/ch": 8371,
      "/ex": 8372,
      "/km": 8373,
      "/production": 8374,
      "1%": 8375,
      "2.0": 8376,
      "380": 8377,
      "45": 8378,
      "750": 8379,
      "800": 8380,
      "CU": 8381,
      "EA": 8382,
      "Glass": 8383,
      "HS": 8384,
      "M,": 8385,
      "MW": 8386,
      "RI": 8387,
      "SW": 8388,
      "TE": 8389,
      "US": 8390,
      "aired": 8391,
      "aughty": 8392,
      "born": 8393,
      "cil": 8394,
      "cord": 8395,
      "ek": 8396,
      "e.\n": 8397,
      "efficient": 8398,
      "fy": 8399,
      "fleet": 8400,
      "gin": 8401,
      "his": 8402,
      "hol": 8403,
      "hanks": 8404,
      "ila": 8405,
      "ier,": 8406,
      "lon": 8407,
      "lar": 8408,
      "lim": 8409,
      "lant": 8410,
      "lines": 8411,
      "ling,": 8412,
      "m,": 8413,
      "mod": 8414,
      "map": 8415,
      "more": 8416,
      "matic": 8417,
      "o.": 8418,
      "oh": 8419,
      "ping": 8420,
      "ray": 8421,
      "rite": 8422,
      "rify": 8423,
      "sight": 8424,
      "s!!\n": 8425,
      "test": 8426,
      "uc": 8427,
      "uh": 8428,
      "uz": 8429,
      "vision": 8430,
      "ych": 8431,
      "ynd": 8432,
      "yi\n": 8433,
      "▁)": 8434,
      "▁?": 8435,
      "▁x": 8436,
      "▁ing": 8437,
      "▁eth": 8438,
      "▁table": 8439,
      "▁tern": 8440,
      "▁treating": 8441,
      "inj": 8442,
      "ines,": 8443,
      "▁awe": 8444,
      "▁award": 8445,
      "▁aeros": 8446,
      "eroth": 8447,
      "▁sir": 8448,
      "▁swe": 8449,
      "▁south": 8450,
      "▁slam": 8451,
      "re\n": 8452,
      "rej": 8453,
      "rets": 8454,
      "▁thing\n": 8455,
      "▁thermal": 8456,
      "▁throat": 8457,
      "especially": 8458,
      "orch": 8459,
      "ories": 8460,
      "orporate": 8461,
      "▁bed": 8462,
      "▁bod": 8463,
      "▁bunch": 8464,
      "▁barg": 8465,
      "▁bday": 8466,
      "▁bored": 8467,
      "▁bomb": 8468,
      "▁border": 8469,
      "▁bricks": 8470,
      "at.": 8471,
      "atz": 8472,
      "▁cart": 8473,
      "▁cord": 8474,
      "▁cup": 8475,
      "▁coun": 8476,
      "ing!\n": 8477,
      "▁fate": 8478,
      "▁frag": 8479,
      "▁fought": 8480,
      "▁fraud": 8481,
      "▁fyi\n": 8482,
      "ous\n": 8483,
      "oured": 8484,
      "itors": 8485,
      "itute": 8486,
      "ities\n": 8487,
      "▁m/": 8488,
      "▁mi": 8489,
      "▁mal": 8490,
      "▁mild": 8491,
      "▁mark": 8492,
      "▁mug": 8493,
      "▁melt": 8494,
      "ara": 8495,
      "arf": 8496,
      "argh": 8497,
      "aries": 8498,
      "ark\n": 8499,
      "arning": 8500,
      "araoke": 8501,
      "anoid": 8502,
      "anna": 8503,
      "▁ple": 8504,
      "▁pap": 8505,
      "▁pist": 8506,
      "▁pool": 8507,
      "▁pair": 8508,
      "▁plaid": 8509,
      "▁toy": 8510,
      "▁der": 8511,
      "▁dim": 8512,
      "▁dust": 8513,
      "▁dia": 8514,
      "▁dang": 8515,
      "▁dise": 8516,
      "▁dirt": 8517,
      "▁hod": 8518,
      "▁host": 8519,
      "▁lid": 8520,
      "▁lets": 8521,
      "▁ludicrous": 8522,
      "▁limb": 8523,
      "▁theater": 8524,
      "▁T-": 8525,
      "▁Tight": 8526,
      "▁Tough": 8527,
      "▁Tap": 8528,
      "▁Tower": 8529,
      "▁Tint": 8530,
      "▁Trag": 8531,
      "▁Take": 8532,
      "▁Taking": 8533,
      "rost": 8534,
      "roid": 8535,
      "roph": 8536,
      "ston": 8537,
      "stick": 8538,
      "▁in,": 8539,
      "▁indu": 8540,
      "▁inner": 8541,
      "▁is.\n": 8542,
      "alop": 8543,
      "▁SE": 8544,
      "▁SL": 8545,
      "▁Sant": 8546,
      "▁Sustainable": 8547,
      "icking": 8548,
      "icting": 8549,
      "leg": 8550,
      "asc": 8551,
      "ask": 8552,
      "ass,": 8553,
      "▁Ill": 8554,
      "▁Ich": 8555,
      "▁Irid": 8556,
      "▁bell": 8557,
      "▁be.\n": 8558,
      "veal": 8559,
      "▁gard": 8560,
      "▁gend": 8561,
      "utter": 8562,
      "aceship": 8563,
      "acopter": 8564,
      "▁recharg": 8565,
      "ota": 8566,
      "ots": 8567,
      "otic": 8568,
      "otos": 8569,
      "eto": 8570,
      "etr": 8571,
      "etric": 8572,
      "▁evolution": 8573,
      "ills": 8574,
      "illy": 8575,
      "▁ATV": 8576,
      "▁for\n": 8577,
      "omberg": 8578,
      "▁MW": 8579,
      "▁Mal": 8580,
      "▁Mac": 8581,
      "▁Market": 8582,
      "ctim": 8583,
      "▁Wings": 8584,
      "▁Witch": 8585,
      "entation": 8586,
      "▁y\n": 8587,
      "iding": 8588,
      "eloc": 8589,
      "▁anim": 8590,
      "change": 8591,
      "alled": 8592,
      "adise": 8593,
      "▁Ct": 8594,
      "▁Come": 8595,
      "▁Comes": 8596,
      "▁Cumulative": 8597,
      "▁CPU": 8598,
      "▁soph": 8599,
      "▁so-c": 8600,
      "imes\n": 8601,
      "ime,": 8602,
      "imarily": 8603,
      "▁stable": 8604,
      "▁stacking": 8605,
      "▁straw": 8606,
      "there": 8607,
      "▁willing": 8608,
      "▁whist": 8609,
      "▁we've": 8610,
      "sell": 8611,
      "sequ": 8612,
      "▁neuro": 8613,
      "▁neither": 8614,
      "amin": 8615,
      "▁proving": 8616,
      "irrel": 8617,
      "▁Yet": 8618,
      "▁NV": 8619,
      "▁Nvid": 8620,
      "▁Fig": 8621,
      "▁Fire": 8622,
      "▁Fri": 8623,
      "▁FDA": 8624,
      "▁Hor": 8625,
      "▁Hit": 8626,
      "▁Hate": 8627,
      "▁Hert": 8628,
      "▁Homes": 8629,
      "ilis": 8630,
      "▁rh": 8631,
      "▁ran": 8632,
      "▁rac": 8633,
      "▁rated": 8634,
      "ops": 8635,
      "unar": 8636,
      "est.": 8637,
      "outs": 8638,
      "▁area\n": 8639,
      "▁Ben": 8640,
      "▁Bad": 8641,
      "▁BBC": 8642,
      "▁Biden": 8643,
      "▁BMW": 8644,
      "▁Pe": 8645,
      "▁Pic": 8646,
      "▁Push": 8647,
      "▁Possible": 8648,
      "▁Public": 8649,
      "▁moons": 8650,
      "abit": 8651,
      "▁coefficient": 8652,
      "▁Ep": 8653,
      "▁Ev": 8654,
      "▁Emp": 8655,
      "▁Ethere": 8656,
      "▁enhanced": 8657,
      "▁Das": 8658,
      "▁Die": 8659,
      "▁Dark": 8660,
      "▁Dave": 8661,
      "▁Done\n": 8662,
      "▁Direct": 8663,
      "▁sho": 8664,
      "▁GTO": 8665,
      "ate\n": 8666,
      "ateg": 8667,
      "ulator": 8668,
      "▁vig": 8669,
      "▁do!": 8670,
      "▁doc": 8671,
      "▁do.\n": 8672,
      "▁RP": 8673,
      "▁Rel": 8674,
      "▁Rapid": 8675,
      "▁notic": 8676,
      "▁exha": 8677,
      "▁List": 8678,
      "▁Lower": 8679,
      "▁Larg": 8680,
      "▁Lord": 8681,
      "▁Lithium": 8682,
      "▁LOX": 8683,
      "▁sex": 8684,
      "▁seam": 8685,
      "▁see\n": 8686,
      "▁seater": 8687,
      "▁sexy": 8688,
      "um.": 8689,
      "ity.": 8690,
      "iple": 8691,
      "▁OS": 8692,
      "eaking": 8693,
      "▁conference": 8694,
      "▁roaming": 8695,
      "ks,": 8696,
      "ardians": 8697,
      "actually": 8698,
      "▁(2": 8699,
      "▁(7": 8700,
      "▁(re": 8701,
      "▁(imp": 8702,
      "▁(we": 8703,
      "▁(like": 8704,
      "▁(with": 8705,
      "▁(especially": 8706,
      "▁suit": 8707,
      "▁suff": 8708,
      "▁sudd": 8709,
      "▁sufficient": 8710,
      "ession": 8711,
      "▁lies": 8712,
      "▁liber": 8713,
      "▁livest": 8714,
      "quila": 8715,
      "ts,": 8716,
      "▁from\n": 8717,
      "improved": 8718,
      "▁composite": 8719,
      "▁compiler": 8720,
      "▁complac": 8721,
      "▁like\n": 8722,
      "▁likely.": 8723,
      "▁me)": 8724,
      "paceX": 8725,
      "▁pock": 8726,
      "▁imped": 8727,
      "▁imply": 8728,
      "▁impulse": 8729,
      "▁times,": 8730,
      "ment!\n": 8731,
      "ments.": 8732,
      "▁highlight": 8733,
      "▁high-s": 8734,
      "▁Ut": 8735,
      "▁justice": 8736,
      "▁fear": 8737,
      "▁prep": 8738,
      "▁pret": 8739,
      "▁preparing": 8740,
      "emed": 8741,
      "▁outs": 8742,
      "▁Jan": 8743,
      "▁Jay": 8744,
      "▁Jam": 8745,
      "▁can\n": 8746,
      "▁cancel": 8747,
      "ry.": 8748,
      "izz": 8749,
      "▁VA": 8750,
      "▁Vir": 8751,
      "▁Vol": 8752,
      "▁Vance": 8753,
      "▁VTO": 8754,
      "▁Veloc": 8755,
      "itement": 8756,
      "▁Model\n": 8757,
      "▁loses": 8758,
      "xture": 8759,
      "▁goods": 8760,
      "▁good?\n": 8761,
      "▁producing": 8762,
      "▁much,": 8763,
      "▁myth": 8764,
      "▁plenty": 8765,
      "▁adult": 8766,
      "▁admit": 8767,
      "▁bud": 8768,
      "riction": 8769,
      "ption": 8770,
      "▁unp": 8771,
      "▁unne": 8772,
      "▁unreal": 8773,
      "rue\n": 8774,
      "ous.\n": 8775,
      "▁acting": 8776,
      "inder,": 8777,
      "ha\n": 8778,
      "▁there!\n": 8779,
      "▁there's": 8780,
      "venience": 8781,
      "ways\n": 8782,
      "▁lept": 8783,
      "▁leading": 8784,
      "▁overse": 8785,
      "▁overwhelming": 8786,
      "▁oversight": 8787,
      "▁sail": 8788,
      "▁taught": 8789,
      "▁sooner\n": 8790,
      "▁Starship.\n": 8791,
      "atteries": 8792,
      "▁cars!\n": 8793,
      "00k": 8794,
      "▁description": 8795,
      "othes": 8796,
      "▁Neither": 8797,
      "▁monkey": 8798,
      "▁spon": 8799,
      "▁split": 8800,
      "▁test.": 8801,
      "eph": 8802,
      "eping": 8803,
      "▁intact": 8804,
      "▁content": 8805,
      "▁contain": 8806,
      "▁%\n": 8807,
      "rians": 8808,
      "▁quarks": 8809,
      "▁team!!\n": 8810,
      "▁news\n": 8811,
      "▁land\n": 8812,
      "▁landing\n": 8813,
      "▁years!\n": 8814,
      "▁orbit.\n": 8815,
      "▁Prop": 8816,
      "▁whos": 8817,
      "▁knight": 8818,
      "▁knock": 8819,
      "▁use.\n": 8820,
      "ible\n": 8821,
      "▁Falcon.": 8822,
      "▁Note": 8823,
      "▁serves": 8824,
      "▁interst": 8825,
      "▁Sub": 8826,
      "▁Chad": 8827,
      "▁mins,": 8828,
      "angers": 8829,
      "▁then,": 8830,
      "▁then.": 8831,
      "▁back!\n": 8832,
      "▁Show": 8833,
      "▁power.": 8834,
      "▁underest": 8835,
      "▁pointless": 8836,
      "▁recru": 8837,
      "▁recently": 8838,
      "▁does.\n": 8839,
      "▁Revolution": 8840,
      "ished": 8841,
      "▁part.\n": 8842,
      "▁partial": 8843,
      "oses": 8844,
      "osph": 8845,
      "up\n": 8846,
      "▁expense": 8847,
      "▁cost.\n": 8848,
      "▁did\n": 8849,
      "▁regret": 8850,
      "▁DoD": 8851,
      "▁extrem": 8852,
      "▁Xav": 8853,
      "▁crat": 8854,
      "▁crane": 8855,
      "▁builds": 8856,
      "licit": 8857,
      "▁paranoid": 8858,
      "▁Soon": 8859,
      "▁Soon,": 8860,
      "▁finest": 8861,
      "▁Great\n": 8862,
      "▁scroll": 8863,
      "▁scrap": 8864,
      "▁Starman": 8865,
      "▁Starfleet": 8866,
      "▁*s": 8867,
      "▁*all": 8868,
      "▁*th": 8869,
      "▁*lot": 8870,
      "▁verb": 8871,
      "ago": 8872,
      "agon": 8873,
      "▁world\n": 8874,
      "▁Haha,": 8875,
      "▁best.\n": 8876,
      "▁books.": 8877,
      "▁superpower": 8878,
      "▁adds": 8879,
      "▁faster,": 8880,
      "▁landing.": 8881,
      "▁reply": 8882,
      "▁ending": 8883,
      "▁FSD\n": 8884,
      "▁FSD,": 8885,
      "▁off,": 8886,
      "▁off.\n": 8887,
      "▁electrical": 8888,
      "▁conserv": 8889,
      "▁space.\n": 8890,
      "▁insert": 8891,
      "▁inspiring": 8892,
      "▁help.": 8893,
      "▁helped": 8894,
      "oste": 8895,
      "▁earnings": 8896,
      "▁definite": 8897,
      "▁King": 8898,
      "erto": 8899,
      "▁though\n": 8900,
      "▁grief": 8901,
      "▁delight": 8902,
      "▁transmission": 8903,
      "▁Rog": 8904,
      "▁mass.\n": 8905,
      "▁pays": 8906,
      "▁paying": 8907,
      "▁payment": 8908,
      "▁same,": 8909,
      "▁same.\n": 8910,
      "▁/20": 8911,
      "▁small.": 8912,
      "▁before,": 8913,
      "▁support,": 8914,
      "▁support.\n": 8915,
      "▁obt": 8916,
      "▁true!": 8917,
      "▁true!\n": 8918,
      "▁Cover": 8919,
      "▁Andrej": 8920,
      "▁Heat": 8921,
      "▁Heard": 8922,
      "▁Heart": 8923,
      "▁confusion": 8924,
      "▁tunneling": 8925,
      "▁calls": 8926,
      "▁cool.\n": 8927,
      "▁version.": 8928,
      "▁requirement": 8929,
      "▁requirements": 8930,
      "▁enough\n": 8931,
      "▁enough.\n": 8932,
      "▁shorts.\n": 8933,
      "▁shortages": 8934,
      "▁short-sell": 8935,
      "▁today!\n": 8936,
      "▁today's": 8937,
      "▁joints": 8938,
      "▁count\n": 8939,
      "▁-R": 8940,
      "▁retains": 8941,
      "▁trapped": 8942,
      "ing...\n": 8943,
      "▁happen\n": 8944,
      "▁later.": 8945,
      "▁Newton": 8946,
      "▁seemed": 8947,
      "▁Truth\n": 8948,
      "▁prices,": 8949,
      "▁Ask": 8950,
      "▁climb": 8951,
      "▁sec,": 8952,
      "▁secure": 8953,
      "▁matters.\n": 8954,
      "roneship": 8955,
      "▁Heavy.": 8956,
      "▁tax\n": 8957,
      "▁control.": 8958,
      "▁\"\"\"\n": 8959,
      "▁lowering": 8960,
      "▁lower.\n": 8961,
      "▁limit.": 8962,
      "▁limitation": 8963,
      "▁money,": 8964,
      "▁money.\n": 8965,
      "▁skirt": 8966,
      "▁invite": 8967,
      "▁invited": 8968,
      "▁Work": 8969,
      "▁amazing.": 8970,
      "▁safety.\n": 8971,
      "▁manually": 8972,
      "▁manual": 8973,
      "▁manag": 8974,
      "▁operates": 8975,
      "▁dependent": 8976,
      "▁fix.\n": 8977,
      "▁fixed\n": 8978,
      "▁plann": 8979,
      "▁simplic": 8980,
      "▁simpler": 8981,
      "▁meteor": 8982,
      "▁range\n": 8983,
      "▁mission.\n": 8984,
      "▁mission!\n": 8985,
      "▁missions.": 8986,
      "▁simulations": 8987,
      "▁brut": 8988,
      "▁changes,": 8989,
      "▁changes.\n": 8990,
      "▁factory\n": 8991,
      "▁hours.\n": 8992,
      "▁optional": 8993,
      "▁options\n": 8994,
      "▁clearing": 8995,
      "▁\"Tesla": 8996,
      "▁untrue\n": 8997,
      "▁China\n": 8998,
      "▁China.\n": 8999,
      "wheel": 9000,
      "▁question.\n": 9001,
      "ians\n": 9002,
      "▁service.": 9003,
      "▁miles\n": 9004,
      "▁automak": 9005,
      "▁setbacks": 9006,
      "▁instruction": 9007,
      "▁rising": 9008,
      "▁decided": 9009,
      "▁donating": 9010,
      "▁Someone": 9011,
      "▁reminder": 9012,
      "▁suborbital": 9013,
      "▁commission": 9014,
      "▁closely": 9015,
      "▁passes": 9016,
      "▁Atmosph": 9017,
      "▁road.": 9018,
      "▁roads": 9019,
      "▁roadmap": 9020,
      "▁days!\n": 9021,
      "▁readers": 9022,
      "▁tempting": 9023,
      "▁vehicle,": 9024,
      "-side": 9025,
      "-satellite": 9026,
      "▁Texas!\n": 9027,
      "▁cake": 9028,
      "▁carefully": 9029,
      "▁Enter": 9030,
      "▁compete": 9031,
      "ization\n": 9032,
      "ization.\n": 9033,
      "▁hardware,": 9034,
      "▁$11": 9035,
      "▁$1k": 9036,
      "▁night.\n": 9037,
      "▁funds": 9038,
      "▁SolarGlass": 9039,
      "▁away.\n": 9040,
      "▁stage.": 9041,
      "▁attacks": 9042,
      "▁heads": 9043,
      "▁headlight": 9044,
      "▁headline": 9045,
      "▁blown": 9046,
      "▁detection": 9047,
      "▁Doge,": 9048,
      "▁nets,": 9049,
      "▁water\n": 9050,
      "▁driving,": 9051,
      "▁driving.": 9052,
      "▁driving.\n": 9053,
      "▁difficult\n": 9054,
      "▁flown": 9055,
      "▁flush": 9056,
      "▁home,": 9057,
      "▁home.": 9058,
      "▁expectancy": 9059,
      "▁reason\n": 9060,
      "▁reason.\n": 9061,
      "▁reasonably": 9062,
      "▁technology.\n": 9063,
      "▁investig": 9064,
      "▁sustained": 9065,
      "▁reviews": 9066,
      "▁reviewed": 9067,
      "▁wrong?\n": 9068,
      "▁holder": 9069,
      "▁holders": 9070,
      "▁GoT": 9071,
      "▁Zee": 9072,
      "▁Zeal": 9073,
      "▁forward,": 9074,
      "▁buyer": 9075,
      "▁improvement\n": 9076,
      "▁wave": 9077,
      "▁Abort": 9078,
      "▁second\n": 9079,
      "▁upgrading": 9080,
      "▁zero.\n": 9081,
      "▁awesome!": 9082,
      "▁appreciated,": 9083,
      "▁restored": 9084,
      "▁Active": 9085,
      "▁Franz": 9086,
      "▁coverage": 9087,
      "▁coverage\n": 9088,
      "▁~25": 9089,
      "▁media\n": 9090,
      "▁media,": 9091,
      "▁media.": 9092,
      "▁old,": 9093,
      "▁forms": 9094,
      "▁wheel,": 9095,
      "▁interested.\n": 9096,
      "▁issues\n": 9097,
      "▁issues.\n": 9098,
      "▁risk.": 9099,
      "▁risky": 9100,
      "▁self-driving,": 9101,
      "▁live\n": 9102,
      "▁grave": 9103,
      "▁Cool!\n": 9104,
      "▁Lake": 9105,
      "▁approvals.\n": 9106,
      "▁sale": 9107,
      "▁handful": 9108,
      "▁machines": 9109,
      "▁mph.": 9110,
      "▁deal\n": 9111,
      "▁dealing": 9112,
      "▁disclo": 9113,
      "▁number\n": 9114,
      "cheduled": 9115,
      "▁truck.": 9116,
      "▁considerably": 9117,
      "▁Photos": 9118,
      "▁words\n": 9119,
      "ernel": 9120,
      "▁steer": 9121,
      "▁steal": 9122,
      "▁steady": 9123,
      "▁traffic\n": 9124,
      "▁size.": 9125,
      "▁difference.\n": 9126,
      "▁visual": 9127,
      "▁president": 9128,
      "▁scale.": 9129,
      "▁Lotus": 9130,
      "▁Needed": 9131,
[...]
