{
  "version": "1.0",
  "truncation": null,
  "padding": null,
  "added_tokens": [
    {
      "id": 0,
      "content": "<s>",
      "single_word": false,
      "lstrip": false,
      "rstrip": false,
      "normalized": false,
      "special": true
    },
    {
      "id": 1,
      "content": "<pad>",
      "single_word": false,
      "lstrip": false,
      "rstrip": false,
      "normalized": false,
      "special": true
    },
    {
      "id": 2,
      "content": "</s>",
      "single_word": false,
      "lstrip": false,
      "rstrip": false,
      "normalized": false,
      "special": true
    },
    {
      "id": 3,
      "content": "<unk>",
      "single_word": false,
      "lstrip": false,
      "rstrip": false,
      "normalized": false,
      "special": true
    },
    {
      "id": 4,
      "content": "<mask>",
      "single_word": false,
      "lstrip": false,
      "rstrip": false,
      "normalized": false,
      "special": true
    }
  ],
  "normalizer": {
    "type": "NFKC"
  },
  "pre_tokenizer": {
    "type": "Metaspace",
    "replacement": "▁",
    "add_prefix_space": true
  },
  "post_processor": null,
  "decoder": {
    "type": "Metaspace",
    "replacement": "▁",
    "add_prefix_space": true
  },
  "model": {
    "type": "BPE",
    "dropout": null,
    "unk_token": null,
    "continuing_subword_prefix": null,
    "end_of_word_suffix": null,
    "fuse_unk": false,
    "vocab": {
      "<s>": 0,
      "<pad>": 1,
      "</s>": 2,
      "<unk>": 3,
      "<mask>": 4,
      "\n": 5,
      "!": 6,
      "$": 7,
      "(": 8,
      ")": 9,
      "*": 10,
      ",": 11,
      "-": 12,
      ".": 13,
      "0": 14,
      "1": 15,
      "2": 16,
      "3": 17,
      "4": 18,
      "5": 19,
      "6": 20,
      "7": 21,
      "8": 22,
      "9": 23,
      ":": 24,
      ";": 25,
      "?": 26,
      "A": 27,
      "B": 28,
      "C": 29,
      "D": 30,
      "E": 31,
      "F": 32,
      "G": 33,
      "H": 34,
      "I": 35,
      "J": 36,
      "K": 37,
      "L": 38,
      "M": 39,
      "N": 40,
      "O": 41,
      "P": 42,
      "Q": 43,
      "R": 44,
      "S": 45,
      "T": 46,
      "U": 47,
      "V": 48,
      "W": 49,
      "X": 50,
      "Y": 51,
      "[": 52,
      "]": 53,
      "a": 54,
      "b": 55,
      "c": 56,
      "d": 57,
      "e": 58,
      "f": 59,
      "g": 60,
      "h": 61,
      "i": 62,
      "j": 63,
      "k": 64,
      "l": 65,
      "m": 66,
      "n": 67,
      "o": 68,
      "p": 69,
      "q": 70,
      "r": 71,
      "s": 72,
      "t": 73,
      "u": 74,
      "v": 75,
      "w": 76,
      "x": 77,
      "y": 78,
      "z": 79,
      "ç": 80,
      "é": 81,
      "ê": 82,
      "ô": 83,
      "—": 84,
      "‘": 85,
      "’": 86,
      "“": 87,
      "”": 88,
      "▁": 89,
      "▁t": 90,
      "he": 91,
      "▁a": 92,
      "in": 93,
      "▁w": 94,
      "▁s": 95,
      "▁the": 96,
      "▁o": 97,
      "ed": 98,
      "nd": 99,
      "er": 100,
      "▁h": 101,
      "ou": 102,
      "re": 103,
      "at": 104,
      "▁m": 105,
      "--": 106,
      "▁b": 107,
      "▁\n": 108,
      "it": 109,
      "▁c": 110,
      "▁f": 111,
      "is": 112,
      "en": 113,
      "ing": 114,
      "▁and": 115,
      "▁“": 116,
      "▁to": 117,
      "on": 118,
      "▁d": 119,
      "or": 120,
      "as": 121,
      "▁I": 122,
      "▁in": 123,
      "▁l": 124,
      "▁he": 125,
      "ar": 126,
      "om": 127,
      "▁of": 128,
      "an": 129,
      "▁th": 130,
      "ll": 131,
      "es": 132,
      "▁g": 133,
      "▁p": 134,
      "----": 135,
      ".\n": 136,
      "▁was": 137,
      "▁ha": 138,
      "”\n": 139,
      "ow": 140,
      "le": 141,
      "ut": 142,
      "ly": 143,
      "▁n": 144,
      "id": 145,
      "▁e": 146,
      "gh": 147,
      "▁y": 148,
      "▁be": 149,
      "ic": 150,
      "im": 151,
      "st": 152,
      "▁that": 153,
      "▁u": 154,
      "▁T": 155,
      "▁on": 156,
      "ver": 157,
      "ent": 158,
      ".”\n": 159,
      "ve": 160,
      "▁you": 161,
      "et": 162,
      "▁it": 163,
      "ay": 164,
      "ot": 165,
      "se": 166,
      "ld": 167,
      "ght": 168,
      "’s": 169,
      "ac": 170,
      "▁r": 171,
      "ir": 172,
      "ith": 173,
      "▁his": 174,
      "▁with": 175,
      "▁st": 176,
      "▁wh": 177,
      "--------": 178,
      "al": 179,
      "’t": 180,
      "▁at": 181,
      "▁had": 182,
      "ur": 183,
      "▁an": 184,
      "▁me": 185,
      "ad": 186,
      "▁her": 187,
      ",”": 188,
      "oo": 189,
      "▁re": 190,
      "▁for": 191,
      "am": 192,
      "ter": 193,
      "▁as": 194,
      "▁“I": 195,
      "ight": 196,
      "▁G": 197,
      "ion": 198,
      "▁H": 199,
      "il": 200,
      "▁fr": 201,
      "▁sa": 202,
      "▁W": 203,
      "▁him": 204,
      "ke": 205,
      "▁she": 206,
      "ro": 207,
      "▁M": 208,
      "if": 209,
      "her": 210,
      "sb": 211,
      "ome": 212,
      "▁The": 213,
      "▁Gat": 214,
      "ain": 215,
      "sby": 216,
      "ce": 217,
      "all": 218,
      "ri": 219,
      "ant": 220,
      "▁Gatsby": 221,
      "▁S": 222,
      "ard": 223,
      "▁se": 224,
      "▁my": 225,
      "▁su": 226,
      "ch": 227,
      "▁A": 228,
      "▁D": 229,
      "▁up": 230,
      "n’t": 231,
      "ked": 232,
      "▁k": 233,
      "▁said": 234,
      "▁we": 235,
      "▁sh": 236,
      "▁out": 237,
      "▁do": 238,
      "▁from": 239,
      "em": 240,
      "ore": 241,
      "pp": 242,
      "out": 243,
      "▁He": 244,
      "and": 245,
      "▁int": 246,
      "ess": 247,
      "ol": 248,
      "▁li": 249,
      "ais": 250,
      "----------------": 251,
      "ew": 252,
      "▁all": 253,
      "ted": 254,
      "▁ab": 255,
      "▁the\n": 256,
      "ould": 257,
      "▁B": 258,
      "our": 259,
      "ame": 260,
      "rou": 261,
      "ust": 262,
      "▁but": 263,
      "▁Tom": 264,
      "aisy": 265,
      "▁“W": 266,
      "ag": 267,
      "ous": 268,
      "▁kn": 269,
      "ere": 270,
      "▁whe": 271,
      "▁v": 272,
      "e,": 273,
      "hing": 274,
      "▁Daisy": 275,
      "ss": 276,
      "own": 277,
      "▁were": 278,
      "est": 279,
      "▁there": 280,
      "ell": 281,
      "▁into": 282,
      "▁so": 283,
      "▁over": 284,
      "one": 285,
      "ong": 286,
      "s,": 287,
      "▁al": 288,
      "?”\n": 289,
      "▁sp": 290,
      "▁con": 291,
      "▁loo": 292,
      "ble": 293,
      "ec": 294,
      "▁un": 295,
      "qu": 296,
      "▁go": 297,
      "un": 298,
      "ast": 299,
      "od": 300,
      "▁ex": 301,
      "ord": 302,
      "el": 303,
      "ort": 304,
      "ind": 305,
      "▁j": 306,
      "ack": 307,
      "au": 308,
      "▁man": 309,
      "ill": 310,
      "fter": 311,
      "hat": 312,
      "tle": 313,
      "way": 314,
      "▁le": 315,
      ",\n": 316,
      "▁about": 317,
      "▁ro": 318,
      "ak": 319,
      "▁C": 320,
      "us": 321,
      "▁ne": 322,
      "▁some": 323,
      "lf": 324,
      "ul": 325,
      "▁ch": 326,
      "ra": 327,
      "▁J": 328,
      "ide": 329,
      "lo": 330,
      "s.": 331,
      "hed": 332,
      "▁this": 333,
      "very": 334,
      "▁have": 335,
      "▁and\n": 336,
      "art": 337,
      "▁ag": 338,
      "▁one": 339,
      "▁who": 340,
      "um": 341,
      "▁down": 342,
      "▁if": 343,
      "▁like": 344,
      "op": 345,
      "▁a\n": 346,
      "▁or": 347,
      "▁did": 348,
      "▁is": 349,
      "▁any": 350,
      "▁back": 351,
      "▁“T": 352,
      "ved": 353,
      "▁by": 354,
      "on’t": 355,
      "ven": 356,
      "▁they": 357,
      "▁after": 358,
      "nder": 359,
      "ck": 360,
      "▁E": 361,
      "?”": 362,
      "You": 363,
      "ig": 364,
      "▁hand": 365,
      "ive": 366,
      "ink": 367,
      "ate": 368,
      "▁too": 369,
      "▁N": 370,
      "▁car": 371,
      "▁came": 372,
      "▁not": 373,
      "▁Mr": 374,
      "▁tr": 375,
      "▁lit": 376,
      "ice": 377,
      "▁of\n": 378,
      "▁been": 379,
      "▁know": 380,
      "▁when": 381,
      "ation": 382,
      "▁I’": 383,
      "ost": 384,
      "son": 385,
      "y,": 386,
      "▁It": 387,
      "urn": 388,
      "pt": 389,
      "ress": 390,
      "ick": 391,
      "wn": 392,
      "▁tim": 393,
      "▁little": 394,
      "ear": 395,
      "▁ey": 396,
      "ried": 397,
      "ouse": 398,
      "ich": 399,
      "ist": 400,
      "..": 401,
      "ap": 402,
      "▁no": 403,
      "ep": 404,
      "▁house": 405,
      "ound": 406,
      "able": 407,
      "▁tw": 408,
      "▁want": 409,
      "▁fac": 410,
      "▁went": 411,
      "ite": 412,
      "ang": 413,
      "▁now": 414,
      "▁“I’": 415,
      "▁She": 416,
      "fore": 417,
      "ie": 418,
      "▁get": 419,
      "ity": 420,
      "▁could": 421,
      "▁eyes": 422,
      "▁then": 423,
      "ed\n": 424,
      "ally": 425,
      "▁them": 426,
      "are": 427,
      "▁O": 428,
      "▁again": 429,
      "▁F": 430,
      "▁“H": 431,
      "▁got": 432,
      "▁before": 433,
      "▁just": 434,
      "ct": 435,
      "sed": 436,
      "ward": 437,
      "▁com": 438,
      "ly.": 439,
      "ood": 440,
      "ff": 441,
      "omet": 442,
      "▁what": 443,
      "▁looked": 444,
      "▁old": 445,
      "▁“You": 446,
      "▁gl": 447,
      "▁didn’t": 448,
      "e.": 449,
      "▁turn": 450,
      "ered": 451,
      "▁thou": 452,
      "▁ar": 453,
      "round": 454,
      "dd": 455,
      "gg": 456,
      "ther": 457,
      "▁mo": 458,
      "▁mom": 459,
      "▁moment": 460,
      "▁co": 461,
      "▁night": 462,
      "self": 463,
      "ting": 464,
      "▁way": 465,
      "▁off": 466,
      "ilson": 467,
      "▁Mr.": 468,
      "ile": 469,
      "▁don’t": 470,
      "▁Wilson": 471,
      "ake": 472,
      "ies": 473,
      "▁im": 474,
      "▁qu": 475,
      "▁away": 476,
      "▁more": 477,
      "▁to\n": 478,
      "▁door": 479,
      "--------------------------------": 480,
      "▁look": 481,
      "▁sm": 482,
      "▁fl": 483,
      "▁de": 484,
      "▁think": 485,
      "▁rem": 486,
      "ody": 487,
      "ving": 488,
      "▁min": 489,
      "▁br": 490,
      "▁“A": 491,
      "ly,": 492,
      "▁beg": 493,
      "ordan": 494,
      "hen": 495,
      "orn": 496,
      "ach": 497,
      "ade": 498,
      "▁Jordan": 499,
      "▁would": 500,
      "▁somet": 501,
      "ather": 502,
      "▁bl": 503,
      "ont": 504,
      "▁your": 505,
      "▁see": 506,
      "ure": 507,
      "▁around": 508,
      "▁other": 509,
      "▁gir": 510,
      "▁vo": 511,
      "air": 512,
      "ious": 513,
      "▁per": 514,
      "▁ac": 515,
      "▁gre": 516,
      "▁pe": 517,
      "▁girl": 518,
      "▁“S": 519,
      "▁I\n": 520,
      "▁here": 521,
      "▁pl": 522,
      "▁every": 523,
      "▁Gatsby’s": 524,
      "ge": 525,
      "row": 526,
      "ull": 527,
      "uch": 528,
      "ated": 529,
      "▁can": 530,
      "▁lo": 531,
      "▁long": 532,
      "rough": 533,
      "▁going": 534,
      "▁two": 535,
      "▁room": 536,
      "sh": 537,
      "▁day": 538,
      "▁under": 539,
      "▁which": 540,
      "▁time": 541,
      "▁thing": 542,
      "▁through": 543,
      "ook": 544,
      "ople": 545,
      "ng": 546,
      "pl": 547,
      "er,": 548,
      "▁made": 549,
      "▁come": 550,
      "ly.\n": 551,
      "▁something": 552,
      "’re": 553,
      "▁dr": 554,
      "no": 555,
      "▁“D": 556,
      "▁light": 557,
      "▁never": 558,
      "▁turned": 559,
      "▁people": 560,
      "ab": 561,
      "▁L": 562,
      "▁wa": 563,
      "▁sl": 564,
      "▁dis": 565,
      "ark": 566,
      "▁pre": 567,
      "▁year": 568,
      "▁bec": 569,
      "▁where": 570,
      "sp": 571,
      "ed,": 572,
      "▁po": 573,
      "here": 574,
      "ed.": 575,
      "ers": 576,
      "▁fir": 577,
      "▁But": 578,
      "ect": 579,
      "!”": 580,
      "▁am": 581,
      "▁wor": 582,
      "ing,": 583,
      "other": 584,
      ".”": 585,
      "ave": 586,
      "ry": 587,
      "—t": 588,
      "▁op": 589,
      "ence": 590,
      "ance": 591,
      "▁even": 592,
      "▁star": 593,
      "ause": 594,
      "ft": 595,
      "less": 596,
      "▁very": 597,
      "ine": 598,
      "▁wind": 599,
      "▁sc": 600,
      "▁say": 601,
      "ing\n": 602,
      "▁“N": 603,
      "▁“O": 604,
      "▁in\n": 605,
      "▁“It": 606,
      "ment": 607,
      "▁en": 608,
      "▁..": 609,
      "▁sw": 610,
      "▁their": 611,
      "ath": 612,
      "ass": 613,
      "es,": 614,
      "▁saw": 615,
      "▁knew": 616,
      "thing": 617,
      "ree": 618,
      "▁call": 619,
      "▁fe": 620,
      "▁part": 621,
      "▁us": 622,
      "pped": 623,
      "▁cont": 624,
      "ru": 625,
      "ue": 626,
      "▁toward": 627,
      "▁sport": 628,
      "▁first": 629,
      "red": 630,
      "’d": 631,
      "▁bo": 632,
      "iss": 633,
      "▁began": 634,
      "▁voice": 635,
      "ty": 636,
      "▁was\n": 637,
      "▁minut": 638,
      "ber": 639,
      "ness": 640,
      "▁P": 641,
      "▁half": 642,
      "▁right": 643,
      "▁We": 644,
      "age": 645,
      "▁took": 646,
      "▁thought": 647,
      "▁open": 648,
      "ose": 649,
      "—”\n": 650,
      "▁inc": 651,
      "▁head": 652,
      "▁“What": 653,
      "▁are": 654,
      "▁cl": 655,
      "▁fo": 656,
      "▁dri": 657,
      "anc": 658,
      "▁young": 659,
      "▁his\n": 660,
      "▁Then": 661,
      "▁New": 662,
      "dden": 663,
      "get": 664,
      "ne": 665,
      "th": 666,
      "▁ob": 667,
      "▁hour": 668,
      "▁men": 669,
      "▁last": 670,
      "▁bet": 671,
      "▁only": 672,
      "▁imp": 673,
      "iz": 674,
      "s\n": 675,
      "y\n": 676,
      "▁Y": 677,
      "▁told": 678,
      "▁while": 679,
      "alk": 680,
      "▁seem": 681,
      "▁afterno": 682,
      "▁face": 683,
      "▁because": 684,
      "▁afternoon": 685,
      "ip": 686,
      "iv": 687,
      "til": 688,
      "▁heard": 689,
      "▁gr": 690,
      "▁pol": 691,
      "▁new": 692,
      "ool": 693,
      "▁asked": 694,
      "body": 695,
      "xt": 696,
      "▁mar": 697,
      "▁ph": 698,
      "▁name": 699,
      "aking": 700,
      "een": 701,
      "▁cou": 702,
      "▁he\n": 703,
      "▁than": 704,
      "▁that\n": 705,
      "ired": 706,
      "▁white": 707,
      "alked": 708,
      "ell,": 709,
      "ire": 710,
      "ily": 711,
      "mer": 712,
      "▁ins": 713,
      "▁let": 714,
      "▁lau": 715,
      "▁His": 716,
      "olf": 717,
      "▁Bak": 718,
      "▁“Wh": 719,
      "▁until": 720,
      "▁left": 721,
      "▁wait": 722,
      "▁...": 723,
      "his": 724,
      "tain": 725,
      "ork": 726,
      "▁inter": 727,
      "▁pr": 728,
      "▁happ": 729,
      "▁West": 730,
      "lock": 731,
      "▁seemed": 732,
      "h,": 733,
      "’ll": 734,
      "▁word": 735,
      "▁sat": 736,
      "▁bro": 737,
      "▁found": 738,
      "▁inv": 739,
      "▁wasn’t": 740,
      "act": 741,
      "▁When": 742,
      "ife": 743,
      "▁sudden": 744,
      "▁exc": 745,
      "▁window": 746,
      "awn": 747,
      "s.\n": 748,
      "▁te": 749,
      "▁wom": 750,
      "▁bre": 751,
      "▁des": 752,
      "▁bel": 753,
      "▁me,": 754,
      "ross": 755,
      "▁They": 756,
      "med": 757,
      "—and": 758,
      "▁hu": 759,
      "▁mat": 760,
      "▁much": 761,
      "▁dark": 762,
      "▁In": 763,
      "▁pro": 764,
      "▁with\n": 765,
      "arden": 766,
      "▁along": 767,
      "▁exp": 768,
      "▁“The": 769,
      "▁I’m": 770,
      "▁arm": 771,
      "ek": 772,
      "ild": 773,
      "led": 774,
      "ph": 775,
      "ud": 776,
      "▁ad": 777,
      "▁own": 778,
      "▁three": 779,
      "ace": 780,
      "▁another": 781,
      "▁rest": 782,
      "▁And": 783,
      "▁“I’m": 784,
      "▁small": 785,
      "co": 786,
      "ful": 787,
      "te": 788,
      "▁tell": 789,
      "inn": 790,
      "▁sil": 791,
      "▁must": 792,
      "▁“L": 793,
      "▁garden": 794,
      "ident": 795,
      "▁rep": 796,
      "▁him,": 797,
      "▁York": 798,
      "igh": 799,
      "nt": 800,
      "▁end": 801,
      "▁its": 802,
      "room": 803,
      "▁There": 804,
      "▁Gatsby,": 805,
      "▁upon": 806,
      "▁alway": 807,
      "▁I’d": 808,
      "▁though": 809,
      "▁“She": 810,
      "but": 811,
      "iem": 812,
      "ible": 813,
      "o,": 814,
      "▁R": 815,
      "ater": 816,
      "▁clo": 817,
      "▁dress": 818,
      "▁gar": 819,
      "▁str": 820,
      "▁front": 821,
      "▁My": 822,
      "▁Miss": 823,
      "cept": 824,
      "▁supp": 825,
      "▁Egg": 826,
      "▁nothing": 827,
      "▁against": 828,
      "▁looking": 829,
      "▁love": 830,
      "shiem": 831,
      "gether": 832,
      "olfshiem": 833,
      "▁Baker": 834,
      "▁happen": 835,
      "▁ke": 836,
      "▁tre": 837,
      "▁table": 838,
      "ertain": 839,
      "▁cried": 840,
      "▁five": 841,
      "▁inqu": 842,
      "llow": 843,
      "▁each": 844,
      "▁it,": 845,
      "▁Wolfshiem": 846,
      "▁seen": 847,
      "ellow": 848,
      "hat’s": 849,
      "az": 850,
      "ched": 851,
      "per": 852,
      "sit": 853,
      "▁app": 854,
      "▁war": 855,
      "▁sur": 856,
      "▁hard": 857,
      "▁morn": 858,
      "ish": 859,
      "▁together": 860,
      "ly\n": 861,
      "▁once": 862,
      "▁step": 863,
      "▁should": 864,
      "▁“Well,": 865,
      "▁Daisy’s": 866,
      "▁conf": 867,
      "ign": 868,
      "▁“He": 869,
      "▁comp": 870,
      "▁can’t": 871,
      "▁always": 872,
      "!”\n": 873,
      "ale": 874,
      "app": 875,
      "ris": 876,
      "sw": 877,
      "iness": 878,
      "▁sit": 879,
      "▁cour": 880,
      "▁“C": 881,
      "▁dro": 882,
      "▁dem": 883,
      "▁still": 884,
      "ality": 885,
      "▁himself": 886,
      "ained": 887,
      "▁alone": 888,
      "▁Ch": 889,
      "▁next": 890,
      "▁remem": 891,
      "▁years": 892,
      "ee": 893,
      "ever": 894,
      "ually": 895,
      "▁home": 896,
      "▁cur": 897,
      "▁care": 898,
      "▁dec": 899,
      "orm": 900,
      "ory": 901,
      "▁stood": 902,
      "▁whis": 903,
      "▁answ": 904,
      "▁frie": 905,
      "▁sun": 906,
      "▁As": 907,
      "▁At": 908,
      "▁hands": 909,
      "▁couldn’t": 910,
      "▁“It’s": 911,
      "▁demand": 912,
      "▁friend": 913,
      "ten": 914,
      "’ve": 915,
      "▁take": 916,
      "▁add": 917,
      "▁fam": 918,
      "▁“G": 919,
      "▁lawn": 920,
      "ary": 921,
      "leas": 922,
      "▁ever": 923,
      "▁without": 924,
      "▁sto": 925,
      "▁stand": 926,
      "▁had\n": 927,
      "▁real": 928,
      "ected": 929,
      "▁road": 930,
      "▁try": 931,
      "ression": 932,
      "▁world": 933,
      "iar": 934,
      "ial": 935,
      "les": 936,
      "mb": 937,
      "ught": 938,
      "▁You": 939,
      "▁ho": 940,
      "▁met": 941,
      "▁might": 942,
      "▁make": 943,
      "ished": 944,
      "▁“B": 945,
      "▁“Y": 946,
      "▁good": 947,
      "▁gave": 948,
      "▁el": 949,
      "▁Her": 950,
      "▁said.": 951,
      "▁well": 952,
      "▁“We": 953,
      "▁chang": 954,
      "▁Mrs.": 955,
      "▁moved": 956,
      "▁acc": 957,
      "▁great": 958,
      "▁play": 959,
      "▁“Oh,": 960,
      "▁matter": 961,
      "ail": 962,
      "clock": 963,
      "most": 964,
      "uc": 965,
      "ves": 966,
      "’clock": 967,
      "▁‘": 968,
      "▁ent": 969,
      "▁--------------------------------": 970,
      "▁air": 971,
      "▁o’clock": 972,
      "ough": 973,
      "ited": 974,
      "▁few": 975,
      "▁four": 976,
      "ene": 977,
      "▁dre": 978,
      "▁hear": 979,
      "anan": 980,
      "▁those": 981,
      "▁gu": 982,
      "--------\n": 983,
      "▁me.": 984,
      "ady": 985,
      "iff": 986,
      "aint": 987,
      "▁abs": 988,
      "▁Buch": 989,
      "elt": 990,
      "raw": 991,
      "▁wanted": 992,
      "----------------------------------------\n": 993,
      "▁across": 994,
      "▁everything": 995,
      "▁underst": 996,
      "▁slow": 997,
      "▁started": 998,
      "▁called": 999,
      "▁follow": 1000,
      "▁belie": 1001,
      "▁morning": 1002,
      "▁------------------------------------------------------------------------\n": 1003,
      "▁Buchanan": 1004,
      ":\n": 1005,
      "ied": 1006,
      "ling": 1007,
      "ny": 1008,
      "pris": 1009,
      "ween": 1010,
      "—w": 1011,
      "▁sent": 1012,
      "▁sort": 1013,
      "▁sound": 1014,
      "▁full": 1015,
      "ister": 1016,
      "▁“M": 1017,
      "assed": 1018,
      "▁ind": 1019,
      "utter": 1020,
      "▁yellow": 1021,
      "▁it.": 1022,
      "▁rather": 1023,
      "▁mean": 1024,
      "▁her\n": 1025,
      "▁Gatsby.": 1026,
      "ement": 1027,
      "ushed": 1028,
      "▁things": 1029,
      "▁pres": 1030,
      "▁minute": 1031,
      "▁between": 1032,
      "▁married": 1033,
      "▁surpris": 1034,
      "ler": 1035,
      "rtle": 1036,
      "ys": 1037,
      "▁talk": 1038,
      "▁aut": 1039,
      "int": 1040,
      "▁walked": 1041,
      "▁side": 1042,
      "▁these": 1043,
      "erv": 1044,
      "▁hot": 1045,
      "ret": 1046,
      "reet": 1047,
      "▁mone": 1048,
      "▁most": 1049,
      "▁book": 1050,
      "ither": 1051,
      "▁che": 1052,
      "▁find": 1053,
      "▁flo": 1054,
      "▁felt": 1055,
      "ank": 1056,
      "ested": 1057,
      "▁nod": 1058,
      "▁you\n": 1059,
      "amp": 1060,
      "ions": 1061,
      "▁St": 1062,
      "▁After": 1063,
      "▁said,": 1064,
      "▁week": 1065,
      "▁dog": 1066,
      "▁anything": 1067,
      "▁Nick": 1068,
      "aps": 1069,
      "▁feet": 1070,
      "▁broke": 1071,
      "▁tele": 1072,
      "ael": 1073,
      "land": 1074,
      "▁ide": 1075,
      "▁wo": 1076,
      "▁wat": 1077,
      "▁sing": 1078,
      "▁set": 1079,
      "▁our": 1080,
      "▁ought": 1081,
      "▁bes": 1082,
      "▁town": 1083,
      "▁gone": 1084,
      "▁hair": 1085,
      "▁ear": 1086,
      "ical": 1087,
      "▁start": 1088,
      "▁an\n": 1089,
      "▁Mich": 1090,
      "▁sugg": 1091,
      "▁short": 1092,
      "illed": 1093,
      "▁lea": 1094,
      "▁lean": 1095,
      "▁“I’ve": 1096,
      "▁On": 1097,
      "▁“How": 1098,
      "▁comm": 1099,
      "▁Myrtle": 1100,
      "▁inquired": 1101,
      "▁course": 1102,
      "▁teleph": 1103,
      "aelis": 1104,
      "▁Michaelis": 1105,
      "ded": 1106,
      "iet": 1107,
      "t,": 1108,
      "y.": 1109,
      "ought": 1110,
      "▁bus": 1111,
      "▁fell": 1112,
      "ise": 1113,
      "▁put": 1114,
      "leep": 1115,
      "ute": 1116,
      "▁it\n": 1117,
      "▁hadn’t": 1118,
      "▁God": 1119,
      "▁sum": 1120,
      "olour": 1121,
      "▁Tom,": 1122,
      "▁vi": 1123,
      "▁spe": 1124,
      "▁expl": 1125,
      "▁rose": 1126,
      "▁East": 1127,
      "▁arri": 1128,
      "▁move": 1129,
      "▁quick": 1130,
      "▁wouldn’t": 1131,
      "▁“Do": 1132,
      "▁contin": 1133,
      "▁drive": 1134,
      "▁suddenly": 1135,
      "▁woman": 1136,
      "▁beside": 1137,
      "iver": 1138,
      "iate": 1139,
      "s—": 1140,
      "▁aw": 1141,
      "▁how": 1142,
      "▁mur": 1143,
      "▁bu": 1144,
      "▁bot": 1145,
      "▁crow": 1146,
      "▁far": 1147,
      "▁fun": 1148,
      "inger": 1149,
      "▁Is": 1150,
      "▁later": 1151,
      "▁hel": 1152,
      "es.": 1153,
      "icag": 1154,
      "▁on\n": 1155,
      "▁you,": 1156,
      "▁rain": 1157,
      "▁run": 1158,
      "▁at\n": 1159,
      "▁att": 1160,
      "▁Mc": 1161,
      "▁does": 1162,
      "ular": 1163,
      "▁train": 1164,
      "▁I’ll": 1165,
      "▁blue": 1166,
      "▁person": 1167,
      "▁among": 1168,
      "▁garage": 1169,
      "▁Chicag": 1170,
      "▁demanded": 1171,
      "-c": 1172,
      "br": 1173,
      "cc": 1174,
      "ged": 1175,
      "how": 1176,
      "ix": 1177,
      "ject": 1178,
      "ps": 1179,
      "ped": 1180,
      "side": 1181,
      "uous": 1182,
      "uct": 1183,
      "zen": 1184,
      "▁tou": 1185,
      "▁tried": 1186,
      "▁ap": 1187,
      "▁aff": 1188,
      "▁hur": 1189,
      "▁bed": 1190,
      "▁cr": 1191,
      "▁cor": 1192,
      "▁cir": 1193,
      "▁certain": 1194,
      "▁faint": 1195,
      "orrow": 1196,
      "▁inf": 1197,
      "▁life": 1198,
      "▁heart": 1199,
      "▁pic": 1200,
      "▁eff": 1201,
      "▁beh": 1202,
      "▁that,": 1203,
      "ention": 1204,
      "ached": 1205,
      "▁rel": 1206,
      "iliar": 1207,
      "▁she\n": 1208,
      "▁such": 1209,
      "outh": 1210,
      "estion": 1211,
      "▁chair": 1212,
      "isten": 1213,
      "▁“I’ll": 1214,
      "▁immed": 1215,
      "▁voic": 1216,
      "▁loved": 1217,
      "▁feel": 1218,
      "▁idea": 1219,
      "▁wonder": 1220,
      "▁circ": 1221,
      "▁immediate": 1222,
      "ced": 1223,
      "ford": 1224,
      "full": 1225,
      "haps": 1226,
      "ib": 1227,
      "mur": 1228,
      "sc": 1229,
      "ug": 1230,
      "where": 1231,
      "xi": 1232,
      "—he": 1233,
      "ined": 1234,
      "▁will": 1235,
      "ndred": 1236,
      "er.": 1237,
      "▁has": 1238,
      "▁high": 1239,
      "▁brou": 1240,
      "▁big": 1241,
      "▁cas": 1242,
      "▁and,": 1243,
      "▁low": 1244,
      "▁lun": 1245,
      "▁give": 1246,
      "▁passed": 1247,
      "▁nam": 1248,
      "▁ele": 1249,
      "ically": 1250,
      "▁it’s": 1251,
      "▁itself": 1252,
      "▁her,": 1253,
      "▁ass": 1254,
      "▁So": 1255,
      "▁sub": 1256,
      "▁Do": 1257,
      "▁dozen": 1258,
      "▁butler": 1259,
      "▁Daisy,": 1260,
      "▁hand.\n": 1261,
      "▁glanc": 1262,
      "▁bright": 1263,
      "▁“Don’t": 1264,
      "ably": 1265,
      "—the": 1266,
      "▁better": 1267,
      "▁“Why": 1268,
      "▁windows": 1269,
      "▁stopped": 1270,
      "▁trying": 1271,
      "▁understand": 1272,
      "▁telephone": 1273,
      "▁business": 1274,
      "▁murmur": 1275,
      "▁McK": 1276,
      "▁behind": 1277,
      "▁brought": 1278,
      "-room": 1279,
      "aut": 1280,
      "bo": 1281,
      "che": 1282,
      "ey": 1283,
      "end": 1284,
      "ky": 1285,
      "oke": 1286,
      "ued": 1287,
      "ual": 1288,
      "—”": 1289,
      "▁talked": 1290,
      "head": 1291,
      "▁wife": 1292,
      "▁sn": 1293,
      "oun": 1294,
      "ating": 1295,
      "▁body": 1296,
      "▁fin": 1297,
      "▁fre": 1298,
      "isted": 1299,
      "ens": 1300,
      "ons": 1301,
      "▁del": 1302,
      "▁dist": 1303,
      "▁inst": 1304,
      "▁hall": 1305,
      "▁used": 1306,
      "▁This": 1307,
      "irt": 1308,
      "▁as\n": 1309,
      "iled": 1310,
      "▁him.": 1311,
      "▁sec": 1312,
      "▁myself": 1313,
      "▁shad": 1314,
      "▁shook": 1315,
      "▁were\n": 1316,
      "▁many": 1317,
      "▁whole": 1318,
      "umb": 1319,
      "▁house,": 1320,
      "▁coat": 1321,
      "▁cold": 1322,
      "▁flow": 1323,
      "▁“And": 1324,
      "▁green": 1325,
      "▁girls": 1326,
      "▁breath": 1327,
      "▁summer": 1328,
      "▁Chicago": 1329,
      "bed": 1330,
      "eor": 1331,
      "got": 1332,
      "ken": 1333,
      "light": 1334,
      "og": 1335,
      "ond": 1336,
      "up": 1337,
      "—I": 1338,
      "▁K": 1339,
      "▁V": 1340,
      "▁ta": 1341,
      "▁sin": 1342,
      "▁same": 1343,
      "▁bought": 1344,
      "▁corn": 1345,
      "▁cool": 1346,
      "▁fore": 1347,
      "orch": 1348,
      "▁he’s": 1349,
      "▁past": 1350,
      "▁pull": 1351,
      "▁porch": 1352,
      "▁be\n": 1353,
      "stair": 1354,
      "▁That": 1355,
      "▁you.”\n": 1356,
      "▁it.”\n": 1357,
      "▁why": 1358,
      "antly": 1359,
      "▁Su": 1360,
      "▁suit": 1361,
      "ching": 1362,
      "▁sho": 1363,
      "▁shar": 1364,
      "empt": 1365,
      "▁live": 1366,
      "▁into\n": 1367,
      "▁except": 1368,
      "▁ago": 1369,
      "▁“That’s": 1370,
      "▁I’ve": 1371,
      "▁fact": 1372,
      "▁For": 1373,
      "▁def": 1374,
      "▁deep": 1375,
      "▁place": 1376,
      "▁disapp": 1377,
      "▁evening": 1378,
      "▁opened": 1379,
      "▁insisted": 1380,
      "▁prom": 1381,
      "▁hundred": 1382,
      "▁expression": 1383,
      "▁“Come": 1384,
      "▁remember": 1385,
      "▁answered": 1386,
      "▁believe": 1387,
      "▁arrived": 1388,
      "▁Island": 1389,
      "-d": 1390,
      "av": 1391,
      "der": 1392,
      "ghed": 1393,
      "os": 1394,
      "pted": 1395,
      "—but": 1396,
      "▁act": 1397,
      "▁wall": 1398,
      "▁won’t": 1399,
      "▁walk": 1400,
      "▁sid": 1401,
      "oud": 1402,
      "▁mont": 1403,
      "▁draw": 1404,
      "▁lif": 1405,
      "ane": 1406,
      "es\n": 1407,
      "▁pool": 1408,
      "lem": 1409,
      "▁em": 1410,
      "▁that’s": 1411,
      "’s\n": 1412,
      "▁stay": 1413,
      "▁stop": 1414,
      "▁reached": 1415,
      "▁ask": 1416,
      "▁Geor": 1417,
      "ift": 1418,
      "sband": 1419,
      "▁sure": 1420,
      "▁Tom.": 1421,
      "▁almost": 1422,
      "▁least": 1423,
      "▁somebody": 1424,
      "▁child": 1425,
      "raz": 1426,
      "▁“This": 1427,
      "▁times": 1428,
      "▁“I’d": 1429,
      "▁getting": 1430,
      "▁“You’re": 1431,
      "▁moon": 1432,
      "▁work": 1433,
      "▁“No,": 1434,
      "▁enough": 1435,
      "▁polic": 1436,
      "▁inside": 1437,
      "▁laughed": 1438,
      "▁“Who": 1439,
      "▁women": 1440,
      "▁husband": 1441,
      "▁“Look": 1442,
      "▁close": 1443,
      "▁comple": 1444,
      "▁sitting": 1445,
      "▁drove": 1446,
      "▁whisp": 1447,
      "▁dream": 1448,
      "▁floor": 1449,
      "▁nodded": 1450,
      "▁speak": 1451,
      "▁crowd": 1452,
      "-f": 1453,
      "day": 1454,
      "ex": 1455,
      "ient": 1456,
      "ming": 1457,
      "ned": 1458,
      "ture": 1459,
      "tty": 1460,
      "vent": 1461,
      "xford": 1462,
      "—it": 1463,
      "▁ter": 1464,
      "▁ten": 1465,
      "▁wr": 1466,
      "▁sight": 1467,
      "▁sister": 1468,
      "ready": 1469,
      "at,": 1470,
      "▁mot": 1471,
      "▁mouth": 1472,
      "▁city": 1473,
      "▁fall": 1474,
      "▁“P": 1475,
      "▁lay": 1476,
      "▁held": 1477,
      "▁hesit": 1478,
      "▁gro": 1479,
      "▁pale": 1480,
      "▁being": 1481,
      "ster": 1482,
      "vered": 1483,
      "veral": 1484,
      "▁you’re": 1485,
      "▁rais": 1486,
      "▁me.\n": 1487,
      "▁ret": 1488,
      "▁read": 1489,
      "ion,": 1490,
      "▁Some": 1491,
      "▁several": 1492,
      "▁kind": 1493,
      "eman": 1494,
      "e,\n": 1495,
      "▁unf": 1496,
      "▁jo": 1497,
      "▁Cather": 1498,
      "rave": 1499,
      "▁isn’t": 1500,
      "ven’t": 1501,
      "▁now,": 1502,
      "▁glass": 1503,
      "▁Wilson’s": 1504,
      "▁door.": 1505,
      "iously": 1506,
      "▁drink": 1507,
      "▁coup": 1508,
      "▁adm": 1509,
      "▁repe": 1510,
      "▁strang": 1511,
      "▁warm": 1512,
      "▁steps": 1513,
      "▁confus": 1514,
      "▁family": 1515,
      "▁standing": 1516,
      "▁realiz": 1517,
      "▁suggested": 1518,
      "▁viol": 1519,
      "▁doesn’t": 1520,
      "▁apart": 1521,
      "▁effort": 1522,
      "▁shadow": 1523,
      "▁sharp": 1524,
      "▁month": 1525,
      "▁policeman": 1526,
      "cked": 1527,
      "ia": 1528,
      "ian": 1529,
      "ipped": 1530,
      "morrow": 1531,
      "old": 1532,
      "the": 1533,
      "ub": 1534,
      "uck": 1535,
      "yed": 1536,
      "▁tri": 1537,
      "hes": 1538,
      "inite": 1539,
      "▁occ": 1540,
      "er.\n": 1541,
      "▁hop": 1542,
      "ative": 1543,
      "▁mid": 1544,
      "enc": 1545,
      "ened": 1546,
      "ing.": 1547,
      "▁tomorrow": 1548,
      "▁dust": 1549,
      "▁dinn": 1550,
      "▁diff": 1551,
      "▁lar": 1552,
      "▁less": 1553,
      "▁late": 1554,
      "arked": 1555,
      "▁eag": 1556,
      "▁beaut": 1557,
      "▁ran": 1558,
      "▁res": 1559,
      "▁for\n": 1560,
      "▁forward": 1561,
      "▁forgot": 1562,
      "▁Mont": 1563,
      "antic": 1564,
      "▁susp": 1565,
      "▁we\n": 1566,
      "▁show": 1567,
      "▁all\n": 1568,
      "▁but\n": 1569,
      "▁gold": 1570,
      "ung": 1571,
      "unt": 1572,
      "▁Cody": 1573,
      "▁“That": 1574,
      "▁car.": 1575,
      "ations": 1576,
      "▁One": 1577,
      "▁Oxford": 1578,
      "▁again,": 1579,
      "▁Fr": 1580,
      "▁before.": 1581,
      "ffe": 1582,
      "▁way,": 1583,
      "▁office": 1584,
      "▁Long": 1585,
      "▁pretty": 1586,
      "▁stared": 1587,
      "▁“No": 1588,
      "▁party": 1589,
      "rupt": 1590,
      "▁“She’s": 1591,
      "▁happened": 1592,
      "▁keep": 1593,
      "▁rememb": 1594,
      "▁money": 1595,
      "▁leaving": 1596,
      "▁leaned": 1597,
      "▁hurried": 1598,
      "▁lunch": 1599,
      "▁McKee": 1600,
      "▁pulled": 1601,
      "▁complete": 1602,
      "▁whispered": 1603,
      "-h": 1604,
      "cent": 1605,
      "she": 1606,
      "uff": 1607,
      "▁ed": 1608,
      "▁trou": 1609,
      "▁wire": 1610,
      "▁wild": 1611,
      "▁sim": 1612,
      "▁sign": 1613,
      "ers,": 1614,
      "▁hum": 1615,
      "ren": 1616,
      "▁mus": 1617,
      "▁mist": 1618,
      "ity,": 1619,
      "▁ce": 1620,
      "▁cre": 1621,
      "▁cig": 1622,
      "▁cap": 1623,
      "▁craz": 1624,
      "▁finger": 1625,
      "one,": 1626,
      "▁dim": 1627,
      "▁det": 1628,
      "ash": 1629,
      "▁he’d": 1630,
      "ars": 1631,
      "▁gh": 1632,
      "▁pow": 1633,
      "▁pleas": 1634,
      "▁haven’t": 1635,
      "vers": 1636,
      "▁rom": 1637,
      "urred": 1638,
      "▁me\n": 1639,
      "▁form": 1640,
      "tern": 1641,
      "ion.": 1642,
      "▁With": 1643,
      "▁What": 1644,
      "▁Sound": 1645,
      "▁Somet": 1646,
      "▁my\n": 1647,
      "▁up,": 1648,
      "▁said.\n": 1649,
      "▁outside": 1650,
      "olute": 1651,
      "▁Tom’s": 1652,
      "▁known": 1653,
      "▁wheel": 1654,
      "▁already": 1655,
      "▁unc": 1656,
      "▁ext": 1657,
      "aught": 1658,
      "▁somewhere": 1659,
      "▁car.”\n": 1660,
      "▁nose": 1661,
      "▁eyes.": 1662,
      "▁then,": 1663,
      "ctor": 1664,
      "▁coll": 1665,
      "▁night,": 1666,
      "▁way.": 1667,
      "▁offic": 1668,
      "ies,": 1669,
      "▁question": 1670,
      "▁away.\n": 1671,
      "▁dead": 1672,
      "▁remark": 1673,
      "▁remarked": 1674,
      "▁grey": 1675,
      "▁“Did": 1676,
      "▁enorm": 1677,
      "▁swe": 1678,
      "▁foot": 1679,
      "▁polite": 1680,
      "▁laught": 1681,
      "▁excit": 1682,
      "ighb": 1683,
      "▁suppose": 1684,
      "▁curious": 1685,
      "▁“But": 1686,
      "▁slowly": 1687,
      "▁followed": 1688,
      "▁single": 1689,
      "▁movement": 1690,
      "▁both": 1691,
      "▁picture": 1692,
      "▁immediately": 1693,
      "▁since": 1694,
      "▁forever": 1695,
      "▁raised": 1696,
      "▁coupé": 1697,
      "▁enormous": 1698,
      "-g": 1699,
      "aid": 1700,
      "bout": 1701,
      "dle": 1702,
      "ea": 1703,
      "gro": 1704,
      "hy": 1705,
      "ior": 1706,
      "jo": 1707,
      "lud": 1708,
      "night": 1709,
      "ove": 1710,
      "osed": 1711,
      "y.\n": 1712,
      "yond": 1713,
      "—a": 1714,
      "▁ir": 1715,
      "▁tak": 1716,
      "ining": 1717,
      "inted": 1718,
      "▁wet": 1719,
      "▁sad": 1720,
      "▁squ": 1721,
      "▁sick": 1722,
      "▁serv": 1723,
      "erm": 1724,
      "eral": 1725,
      "▁hor": 1726,
      "▁har": 1727,
      "oub": 1728,
      "atur": 1729,
      "▁mind": 1730,
      "▁bad": 1731,
      "▁colour": 1732,
      "ings": 1733,
      "on,": 1734,
      "ase": 1735,
      "▁lost": 1736,
      "arra": 1737,
      "lled": 1738,
      "▁gi": 1739,
      "▁gen": 1740,
      "▁gas": 1741,
      "▁grave": 1742,
      "▁pri": 1743,
      "▁nice": 1744,
      "▁emb": 1745,
      "▁either": 1746,
      "▁beyond": 1747,
      "▁ur": 1748,
      "▁us,": 1749,
      "ently": 1750,
      "urg": 1751,
      "urch": 1752,
      "▁meet": 1753,
      "▁her.": 1754,
      "▁forget": 1755,
      "▁asleep": 1756,
      "ific": 1757,
      "ifty": 1758,
      "rible": 1759,
      "▁killed": 1760,
      "essed": 1761,
      "▁lived": 1762,
      "▁Daisy.": 1763,
      "unk": 1764,
      "▁man.”\n": 1765,
      "▁leave": 1766,
      "▁near": 1767,
      "▁neighb": 1768,
      "ulous": 1769,
      "raid": 1770,
      "▁Jay": 1771,
      "▁Just": 1772,
      "▁agre": 1773,
      "▁one\n": 1774,
      "▁who\n": 1775,
      "▁“There": 1776,
      "cket": 1777,
      "▁too,": 1778,
      "ressed": 1779,
      "▁time,": 1780,
      "eared": 1781,
      "▁now.": 1782,
      "aret": 1783,
      "▁glad": 1784,
      "▁quality": 1785,
      "▁away.": 1786,
      "▁door.\n": 1787,
      "▁smiled": 1788,
      "▁flat": 1789,
      "▁black": 1790,
      "▁perhaps": 1791,
      "▁room.\n": 1792,
      "▁slight": 1793,
      "▁point": 1794,
      "▁pocket": 1795,
      "—that": 1796,
      "▁minutes": 1797,
      "▁phys": 1798,
      "▁couch": 1799,
      "▁waited": 1800,
      "▁excited": 1801,
      "▁tea": 1802,
      "▁“They": 1803,
      "▁silver": 1804,
      "▁kept": 1805,
      "▁tremb": 1806,
      "▁added": 1807,
      "▁hold": 1808,
      "▁“Yes": 1809,
      "▁guest": 1810,
      "▁surprised": 1811,
      "▁autom": 1812,
      "▁explained": 1813,
      "▁glanced": 1814,
      "stairs": 1815,
      "▁repeated": 1816,
      "▁eager": 1817,
      "arraway": 1818,
      "▁neighbour": 1819,
      "-b": 1820,
      "-p": 1821,
      "19": 1822,
      "by": 1823,
      "cu": 1824,
      "cer": 1825,
      "ding": 1826,
      "ef": 1827,
      "e.\n": 1828,
      "ead": 1829,
      "la": 1830,
      "oc": 1831,
      "rang": 1832,
      "so": 1833,
      "s’": 1834,
      "▁”\n": 1835,
      "▁ver": 1836,
      "ine,": 1837,
      "▁sk": 1838,
      "▁sleep": 1839,
      "er\n": 1840,
      "rew": 1841,
      "▁mother": 1842,
      "▁making": 1843,
      "▁ble": 1844,
      "▁blo": 1845,
      "ities": 1846,
      "▁cle": 1847,
      "▁fool": 1848,
      "issed": 1849,
      "isible": 1850,
      "▁“E": 1851,
      "▁“F": 1852,
      "▁“J": 1853,
      "▁lot": 1854,
      "▁heat": 1855,
      "arr": 1856,
      "omp": 1857,
      "▁thir": 1858,
      "es.\n": 1859,
      "▁having": 1860,
      "▁nec": 1861,
      "▁Th": 1862,
      "enty": 1863,
      "otog": 1864,
      "▁rang": 1865,
      "▁whom": 1866,
      "ured": 1867,
      "uring": 1868,
      "▁reg": 1869,
      "▁really": 1870,
      "tered": 1871,
      "ilo": 1872,
      "▁Well,": 1873,
      "▁Gatz": 1874,
      "rill": 1875,
      "ant,": 1876,
      "▁Slo": 1877,
      "▁All": 1878,
      "▁Amer": 1879,
      "▁shap": 1880,
      "▁shirt": 1881,
      "▁from\n": 1882,
      "▁He\n": 1883,
      "▁Tom.\n": 1884,
      "▁vill": 1885,
      "▁there\n": 1886,
      "▁there’s": 1887,
      "▁soft": 1888,
      "▁spoke": 1889,
      "▁cons": 1890,
      "▁convers": 1891,
      "auffe": 1892,
      "ille": 1893,
      "ush": 1894,
      "▁need": 1895,
      "▁someone": 1896,
      "ult": 1897,
      "▁chauffe": 1898,
      "▁have\n": 1899,
      "ump": 1900,
      "▁anyone": 1901,
      "▁anyhow": 1902,
      "▁they\n": 1903,
      "▁know.": 1904,
      "▁when\n": 1905,
      "▁wants": 1906,
      "arent": 1907,
      "▁before.\n": 1908,
      "▁glow": 1909,
      "▁moving": 1910,
      "▁moment,": 1911,
      "▁“All": 1912,
      "▁blind": 1913,
      "▁here,": 1914,
      "▁longer": 1915,
      "▁room,": 1916,
      "▁days": 1917,
      "spap": 1918,
      "▁poss": 1919,
      "▁scar": 1920,
      "▁“Oh": 1921,
      "▁eng": 1922,
      "▁sport.”\n": 1923,
      "▁boy": 1924,
      "▁“What’s": 1925,
      "▁clot": 1926,
      "▁driving": 1927,
      "▁object": 1928,
      "▁newspap": 1929,
      "▁laugh": 1930,
      "▁interest": 1931,
      "▁words": 1932,
      "▁broken": 1933,
      "▁adv": 1934,
      "cond": 1935,
      "▁Egg,": 1936,
      "▁lovely": 1937,
      "▁familiar": 1938,
      "▁change": 1939,
      "▁accident": 1940,
      "▁watch": 1941,
      "▁inquired.\n": 1942,
      "▁continued": 1943,
      "▁funny": 1944,
      "▁fresh": 1945,
      "▁secret": 1946,
      "▁George": 1947,
      "▁motor": 1948,
      "▁apartment": 1949,
      "▁large": 1950,
      "▁remembered": 1951,
      "▁cigaret": 1952,
      "▁ghost": 1953,
      "▁romantic": 1954,
      "▁irre": 1955,
      "otogra": 1956,
      "▁Americ": 1957,
      "▁conversation": 1958,
      "▁chauffeur": 1959,
      "-t": 1960,
      "aw": 1961,
      "bb": 1962,
      "chen": 1963,
      "ege": 1964,
      "fraid": 1965,
      "ike": 1966,
      "ipp": 1967,
      "king": 1968,
      "not": 1969,
      "ob": 1970,
      "oll": 1971,
      "ring": 1972,
      "ric": 1973,
      "sist": 1974,
      "ule": 1975,
      "▁U": 1976,
      "▁afraid": 1977,
      "▁ser": 1978,
      "erful": 1979,
      "▁host": 1980,
      "▁mil": 1981,
      "▁mag": 1982,
      "itchen": 1983,
      "▁fad": 1984,
      "▁fig": 1985,
      "▁fine": 1986,
      "▁“and": 1987,
      "▁tow": 1988,
      "▁doub": 1989,
      "ashed": 1990,
      "▁If": 1991,
      "▁lat": 1992,
      "▁lim": 1993,
      "▁listen": 1994,
      "▁thick": 1995,
      "▁pur": 1996,
      "▁pause": 1997,
      "▁yard": 1998,
      "imes": 1999,
      "store": 2000,
      "▁That’s": 2001,
      "vel": 2002,
      "▁you’ve": 2003,
      "ays": 2004,
      "▁red": 2005,
      "▁row": 2006,
      "▁rac": 2007,
      "▁rich": 2008,
      "▁station": 2009,
      "▁stru": 2010,
      "▁stret": 2011,
      "▁street": 2012,
      "amiliar": 2013,
      "▁ash": 2014,
      "▁“If": 2015,
      "▁Hot": 2016,
      "ilight": 2017,
      "rod": 2018,
      "rop": 2019,
      "road": 2020,
      "ally,": 2021,
      "▁second": 2022,
      "▁Al": 2023,
      "▁Dan": 2024,
      "▁kitchen": 2025,
      "▁doing": 2026,
      "▁introd": 2027,
      "▁living": 2028,
      "▁libr": 2029,
      "▁all.": 2030,
      "▁all.\n": 2031,
      "▁Tom\n": 2032,
      "▁“Where": 2033,
      "ague": 2034,
      "▁vague": 2035,
      "▁there.": 2036,
      "▁there.”\n": 2037,
      "▁solem": 2038,
      "▁conce": 2039,
      "astic": 2040,
      "▁church": 2041,
      "▁whose": 2042,
      "▁order": 2043,
      "▁No": 2044,
      "▁tran": 2045,
      "▁twilight": 2046,
      "iece": 2047,
      "▁eyes.\n": 2048,
      "▁coming": 2049,
      "▁compl": 2050,
      "▁“Any": 2051,
      "▁drug": 2052,
      "▁drunk": 2053,
      "▁lights": 2054,
      "▁became": 2055,
      "▁parties": 2056,
      "▁sport,”": 2057,
      "▁incess": 2058,
      "▁incred": 2059,
      "▁includ": 2060,
      "ancing": 2061,
      "ances": 2062,
      "▁obl": 2063,
      "▁impression": 2064,
      "▁grass": 2065,
      "▁phone": 2066,
      "▁photogra": 2067,
      "▁count": 2068,
      "▁letter": 2069,
      "▁excla": 2070,
      "inning": 2071,
      "▁silence": 2072,
      "▁garag": 2073,
      "▁“Go": 2074,
      "▁“Good": 2075,
      "▁drew": 2076,
      "▁absolute": 2077,
      "▁presence": 2078,
      "oloured": 2079,
      "▁aware": 2080,
      "ixed": 2081,
      "▁touch": 2082,
      "▁affair": 2083,
      "▁corre": 2084,
      "▁reluct": 2085,
      "fully": 2086,
      "▁Doctor": 2087,
      "▁taxi": 2088,
      "▁stayed": 2089,
      "▁hesitated": 2090,
      "▁return": 2091,
      "▁unfamiliar": 2092,
      "▁occurred": 2093,
      "▁dinner": 2094,
      "▁differ": 2095,
      "▁forgotten": 2096,
      "▁trouble": 2097,
      "▁crazy": 2098,
      "▁taken": 2099,
      "▁priv": 2100,
      "▁embarr": 2101,
      "▁trembling": 2102,
      "iloxi": 2103,
      "▁Sloane": 2104,
      "▁solemn": 2105,
      "▁exclaim": 2106,
      "00": 2107,
      "be": 2108,
      "burg": 2109,
      "eb": 2110,
      "ier": 2111,
      "iant": 2112,
      "just": 2113,
      "lip": 2114,
      "lves": 2115,
      "oss": 2116,
      "rac": 2117,
      "tail": 2118,
      "vin": 2119,
      "vident": 2120,
      "—e": 2121,
      "▁tight": 2122,
      "inet": 2123,
      "inct": 2124,
      "▁win": 2125,
      "▁sen": 2126,
      "▁sle": 2127,
      "▁sal": 2128,
      "▁six": 2129,
      "▁opp": 2130,
      "ery": 2131,
      "eren": 2132,
      "ering": 2133,
      "erable": 2134,
      "▁hast": 2135,
      "ouis": 2136,
      "reas": 2137,
      "read": 2138,
      "ator": 2139,
      "atic": 2140,
      "atient": 2141,
      "▁mad": 2142,
      "▁mutter": 2143,
      "▁bar": 2144,
      "▁bath": 2145,
      "itality": 2146,
      "▁caught": 2147,
      "▁fur": 2148,
      "▁father": 2149,
      "ism": 2150,
      "ingly.": 2151,
      "▁“but": 2152,
      "oned": 2153,
      "▁dam": 2154,
      "▁done": 2155,
      "▁div": 2156,
      "▁dire": 2157,
      "▁during": 2158,
      "ored": 2159,
      "▁lad": 2160,
      "▁often": 2161,
      "an,": 2162,
      "▁thin": 2163,
      "▁gay": 2164,
      "▁gather": 2165,
      "▁pap": 2166,
      "▁pair": 2167,
      "▁pushed": 2168,
      "▁nerv": 2169,
      "▁eight": 2170,
      "▁yet": 2171,
      "▁yach": 2172,
      "▁beat": 2173,
      "▁beach": 2174,
      "▁that.": 2175,
      "▁use": 2176,
      "▁you’ll": 2177,
      "▁it,”": 2178,
      "▁story": 2179,
      "al\n": 2180,
      "▁mel": 2181,
      "▁mem": 2182,
      "▁ref": 2183,
      "▁reas": 2184,
      "▁“Is": 2185,
      "ion.\n": 2186,
      "▁How": 2187,
      "▁him.”\n": 2188,
      "rol": 2189,
      "iful": 2190,
      "ified": 2191,
      "▁Gatsby.\n": 2192,
      "▁sea": 2193,
      "▁up\n": 2194,
      "▁we’d": 2195,
      "▁doll": 2196,
      "▁lips": 2197,
      "aged": 2198,
      "ages": 2199,
      "▁van": 2200,
      "▁conn": 2201,
      "inded": 2202,
      "▁man,": 2203,
      "▁Carraway": 2204,
      "▁some\n": 2205,
      "▁champ": 2206,
      "▁Jun": 2207,
      "▁down,": 2208,
      "▁like\n": 2209,
      "cktail": 2210,
      "▁Eck": 2211,
      "ively": 2212,
      "▁Now": 2213,
      "▁cars": 2214,
      "▁It’s": 2215,
      "▁little,": 2216,
      "▁noon": 2217,
      "▁house.": 2218,
      "able\n": 2219,
      "▁faces": 2220,
      "ief": 2221,
      "▁before,": 2222,
      "▁turning": 2223,
      "▁moment.": 2224,
      "▁cocktail": 2225,
      "▁night.": 2226,
      "▁way.\n": 2227,
      "▁quite": 2228,
      "▁quiet": 2229,
      "▁more\n": 2230,
      "▁smile": 2231,
      "▁Jordan,": 2232,
      "▁Jordan’s": 2233,
      "▁your\n": 2234,
      "▁other\n": 2235,
      "▁perf": 2236,
      "▁acce": 2237,
      "▁girl,": 2238,
      "▁here,”": 2239,
      "▁everyone": 2240,
      "▁drif": 2241,
      "▁“Daisy": 2242,
      "▁poor": 2243,
      "▁scene": 2244,
      "▁“Not": 2245,
      "▁“Of": 2246,
      "▁enjo": 2247,
      "▁partic": 2248,
      "▁bond": 2249,
      "▁minute,": 2250,
      "▁obv": 2251,
      "▁men,": 2252,
      "▁impatient": 2253,
      "ized": 2254,
      "▁afternoon.": 2255,
      "▁afternoon.”\n": 2256,
      "▁Baker,": 2257,
      "▁desp": 2258,
      "▁belong": 2259,
      "▁darkness": 2260,
      "▁prof": 2261,
      "▁restless": 2262,
      "▁silent": 2263,
      "▁closed": 2264,
      "azed": 2265,
      "▁hardly": 2266,
      "lease": 2267,
      "▁else": 2268,
      "▁talking": 2269,
      "▁Street": 2270,
      "▁help": 2271,
      "-coloured": 2272,
      "▁bedroom": 2273,
      "▁voices": 2274,
      "▁feeling": 2275,
      "▁named": 2276,
      "▁elev": 2277,
      "▁subject": 2278,
      "▁finally": 2279,
      "upon": 2280,
      "▁Sudden": 2281,
      "▁walking": 2282,
      "▁sidew": 2283,
      "▁emot": 2284,
      "▁terrible": 2285,
      "▁groan": 2286,
      "initely": 2287,
      "▁music": 2288,
      "▁extra": 2289,
      "▁servant": 2290,
      "▁agreed": 2291,
      "▁physical": 2292,
      "▁American": 2293,
      "▁figure": 2294,
      "▁drugstore": 2295,
      "▁incredulous": 2296,
      "vidently": 2297,
      "eren’t": 2298,
      "▁nervous": 2299,
      "af": 2300,
      "aur": 2301,
      "aven": 2302,
      "cted": 2303,
      "dered": 2304,
      "e\n": 2305,
      "gr": 2306,
      "hus": 2307,
      "hile": 2308,
      "jected": 2309,
      "ks": 2310,
      "my": 2311,
      "of": 2312,
      "ral": 2313,
      "to": 2314,
      "vo": 2315,
      "val": 2316,
      "wo": 2317,
      "▁(": 2318,
      "▁19": 2319,
      "▁tear": 2320,
      "▁taking": 2321,
      "▁wre": 2322,
      "▁wand": 2323,
      "▁wide": 2324,
      "▁weren’t": 2325,
      "▁son": 2326,
      "erhaps": 2327,
      "▁hous": 2328,
      "atsby": 2329,
      "▁mis": 2330,
      "▁mention": 2331,
      "▁bit": 2332,
      "▁bay": 2333,
      "▁bur": 2334,
      "▁best": 2335,
      "ition": 2336,
      "▁cat": 2337,
      "▁cut": 2338,
      "▁card": 2339,
      "▁cous": 2340,
      "▁cop": 2341,
      "▁cry": 2342,
      "▁fant": 2343,
      "▁fellow": 2344,
      "▁fifty": 2345,
      "ised": 2346,
      "ising": 2347,
      "inging": 2348,
      "ingly": 2349,
      "▁today": 2350,
      "▁damp": 2351,
      "or,": 2352,
      "orld": 2353,
      "orted": 2354,
      "asm": 2355,
      "▁lap": 2356,
      "▁line": 2357,
      "ary,": 2358,
      "arious": 2359,
      "arily": 2360,
      "ann": 2361,
      "any": 2362,
      "▁throw": 2363,
      "▁threw": 2364,
      "▁gle": 2365,
      "▁gent": 2366,
      "▁glo": 2367,
      "▁gate": 2368,
      "▁grow": 2369,
      "▁golf": 2370,
      "▁par": 2371,
      "▁pass": 2372,
      "le,": 2373,
      "leburg": 2374,
      "uth": 2375,
      "ided": 2376,
      "▁eat": 2377,
      "▁eas": 2378,
      "iment": 2379,
      "▁on,": 2380,
      "ent\n": 2381,
      "ently.": 2382,
      "▁you.": 2383,
      "et,": 2384,
      "▁it?”\n": 2385,
      "ote": 2386,
      "▁ste": 2387,
      "▁stiff": 2388,
      "alm": 2389,
      "▁me.”\n": 2390,
      "▁her,”": 2391,
      "▁herself": 2392,
      "▁reach": 2393,
      "▁resp": 2394,
      "amed": 2395,
      "ament": 2396,
      "▁“In": 2397,
      "ilt": 2398,
      "▁fright": 2399,
      "▁frown": 2400,
      "▁World": 2401,
      "▁him\n": 2402,
      "▁sear": 2403,
      "▁super": 2404,
      "▁upstairs": 2405,
      "▁said\n": 2406,
      "▁out\n": 2407,
      "▁intim": 2408,
      "▁abrupt": 2409,
      "▁above": 2410,
      "▁Be": 2411,
      "▁By": 2412,
      "ourn": 2413,
      "▁Daisy\n": 2414,
      "▁overhead": 2415,
      "s,\n": 2416,
      "▁spot": 2417,
      "▁spec": 2418,
      "▁consc": 2419,
      "▁unp": 2420,
      "ody,": 2421,
      "▁leg": 2422,
      "usk": 2423,
      "▁char": 2424,
      "rawn": 2425,
      "▁this\n": 2426,
      "▁if\n": 2427,
      "▁or\n": 2428,
      "▁orche": 2429,
      "▁any\n": 2430,
      "▁back,": 2431,
      "ately": 2432,
      "▁car.\n": 2433,
      "▁been\n": 2434,
      "ressive": 2435,
      "▁time.": 2436,
      "▁twenty": 2437,
      "▁She’s": 2438,
      "▁again.": 2439,
      "▁Finn": 2440,
      "▁glance": 2441,
      "▁Wilson,": 2442,
      "▁away.”\n": 2443,
      "▁door,": 2444,
      "▁brown": 2445,
      "▁beginning": 2446,
      "▁blank": 2447,
      "▁yourself": 2448,
      "▁plac": 2449,
      "▁room.": 2450,
      "pless": 2451,
      "▁light,": 2452,
      "▁Louis": 2453,
      "▁disc": 2454,
      "▁dism": 2455,
      "▁years.": 2456,
      "▁whereupon": 2457,
      "▁posit": 2458,
      "▁very\n": 2459,
      "▁says": 2460,
      "▁saying": 2461,
      "▁calling": 2462,
      "▁contempt": 2463,
      "rupted": 2464,
      "▁sport,": 2465,
      "▁boot": 2466,
      "▁opening": 2467,
      "▁driver": 2468,
      "ivid": 2469,
      "▁gras": 2470,
      "▁name.": 2471,
      "▁interested": 2472,
      "▁interrupted": 2473,
      "action": 2474,
      "▁suddenly.\n": 2475,
      "▁They’re": 2476,
      "▁garden.": 2477,
      "▁garden.\n": 2478,
      "▁clos": 2479,
      "▁table,": 2480,
      "▁“He’s": 2481,
      "▁careless": 2482,
      "▁decis": 2483,
      "▁address": 2484,
      "▁goodby": 2485,
      "▁changed": 2486,
      "▁enthus": 2487,
      "enegro": 2488,
      "▁believed": 2489,
      "▁“My": 2490,
      "▁cheerful": 2491,
      "▁leaves": 2492,
      "▁Once": 2493,
      "▁voice,": 2494,
      "▁casual": 2495,
      "board": 2496,
      "ounted": 2497,
      "▁drawing": 2498,
      "▁wrong": 2499,
      "▁“Please": 2500,
      "▁Catherine": 2501,
      "▁beautiful": 2502,
      "▁edge": 2503,
      "▁human": 2504,
      "▁determ": 2505,
      "▁excitement": 2506,
      "▁given": 2507,
      "▁holding": 2508,
      "▁automob": 2509,
      "▁blew": 2510,
      "▁thirty": 2511,
      "▁scarce": 2512,
      "▁strugg": 2513,
      "▁conceal": 2514,
      "lipsp": 2515,
      "▁vanished": 2516,
      "▁champag": 2517,
      "▁Eckleburg": 2518,
      "▁perfect": 2519,
      "▁accepted": 2520,
      "▁particular": 2521,
      "▁Suddenly": 2522,
      "▁cousin": 2523,
      "▁fantastic": 2524,
      "▁orchest": 2525,
      "▁enthusi": 2526,
      "!’": 2527,
      "-w": 2528,
      "-ey": 2529,
      ":00": 2530,
      "I\n": 2531,
      "a-": 2532,
      "aj": 2533,
      "apped": 2534,
      "dy": 2535,
      "eas": 2536,
      "ext": 2537,
      "ls": 2538,
      "men": 2539,
      "man": 2540,
      "nest": 2541,
      "oes": 2542,
      "ry,": 2543,
      "sy": 2544,
      "s.”\n": 2545,
      "ton": 2546,
      "tic": 2547,
      "uit": 2548,
      "use": 2549,
      "vas": 2550,
      "vol": 2551,
      "wl": 2552,
      "—G": 2553,
      "—f": 2554,
      "—she": 2555,
      "▁*": 2556,
      "▁ice": 2557,
      "▁utter": 2558,
      "▁till": 2559,
      "▁tang": 2560,
      "hel": 2561,
      "▁ast": 2562,
      "ins": 2563,
      "in’": 2564,
      "ine.": 2565,
      "▁wed": 2566,
      "▁wif": 2567,
      "▁wip": 2568,
      "▁sor": 2569,
      "▁sol": 2570,
      "▁song": 2571,
      "▁sky": 2572,
      "ed.\n": 2573,
      "nded": 2574,
      "▁hat": 2575,
      "ature": 2576,
      "▁may": 2577,
      "▁miss": 2578,
      "▁ball": 2579,
      "▁bother": 2580,
      "▁bene": 2581,
      "itch": 2582,
      "▁cent": 2583,
      "▁clock": 2584,
      "▁fas": 2585,
      "isf": 2586,
      "enn": 2587,
      "ing.\n": 2588,
      "▁and,\n": 2589,
      "▁“V": 2590,
      "▁di": 2591,
      "▁dance": 2592,
      "▁dawn": 2593,
      "▁died": 2594,
      "▁drawn": 2595,
      "orate": 2596,
      "ask": 2597,
      "▁ly": 2598,
      "▁lave": 2599,
      "▁lady": 2600,
      "▁loud": 2601,
      "ared": 2602,
      "aring": 2603,
      "▁thous": 2604,
      "▁thrill": 2605,
      "esqu": 2606,
      "▁grou": 2607,
      "▁gest": 2608,
      "▁ground": 2609,
      "▁pat": 2610,
      "▁pan": 2611,
      "▁pard": 2612,
      "▁pink": 2613,
      "▁press": 2614,
      "▁pick": 2615,
      "▁nine": 2616,
      "id,": 2617,
      "ide,": 2618,
      "idge": 2619,
      "▁emer": 2620,
      "▁bend": 2621,
      "▁that?”": 2622,
      "▁To": 2623,
      "▁on,”": 2624,
      "▁you,”": 2625,
      "▁you’d": 2626,
      "ets": 2627,
      "et’s": 2628,
      "▁it?”": 2629,
      "otesqu": 2630,
      "▁rail": 2631,
      "▁rub": 2632,
      "ird": 2633,
      "▁within": 2634,
      "▁stro": 2635,
      "▁stra": 2636,
      "▁whate": 2637,
      "▁meant": 2638,
      "ooked": 2639,
      "▁requ": 2640,
      "▁reass": 2641,
      "▁reco": 2642,
      "aming": 2643,
      "ames": 2644,
      "iles": 2645,
      "▁sav": 2646,
      "▁him.\n": 2647,
      "▁him,”": 2648,
      "▁she’s": 2649,
      "rob": 2650,
      "▁Mid": 2651,
      "▁Most": 2652,
      "▁Mey": 2653,
      "▁The\n": 2654,
      "alled": 2655,
      "antry": 2656,
      "▁myster": 2657,
      "chant": 2658,
      "▁Did": 2659,
      "▁kissed": 2660,
      "▁we’re": 2661,
      "▁shot": 2662,
      "▁shore": 2663,
      "▁shout": 2664,
      "▁shaking": 2665,
      "▁shining": 2666,
      "▁out.”\n": 2667,
      "pping": 2668,
      "▁liked": 2669,
      "▁able": 2670,
      "▁Biloxi": 2671,
      "▁“When": 2672,
      "ously": 2673,
      "▁vic": 2674,
      "▁Daisy.\n": 2675,
      "▁soon": 2676,
      "▁sold": 2677,
      "▁unre": 2678,
      "▁goes": 2679,
      "orth": 2680,
      "▁jum": 2681,
      "▁man’s": 2682,
      "▁about\n": 2683,
      "▁rock": 2684,
      "akes": 2685,
      "used": 2686,
      "▁neither": 2687,
      "▁James": 2688,
      "umn": 2689,
      "umst": 2690,
      "▁did.": 2691,
      "▁is\n": 2692,
      "▁anybody": 2693,
      "▁backward": 2694,
      "▁Eng": 2695,
      "▁too.”\n": 2696,
      "▁carry": 2697,
      "▁trust": 2698,
      "▁trag": 2699,
      "▁true": 2700,
      "▁truth": 2701,
      "▁know.”\n": 2702,
      "ation,": 2703,
      "▁It\n": 2704,
      "urning": 2705,
      "▁little\n": 2706,
      "▁face,": 2707,
      "▁eyes\n": 2708,
      "▁eyes,": 2709,
      "▁them,": 2710,
      "▁them.": 2711,
      "▁Or": 2712,
      "▁“Hell": 2713,
      "▁arg": 2714,
      "▁arrang": 2715,
      "▁mov": 2716,
      "ies\n": 2717,
      "▁imag": 2718,
      "▁looks": 2719,
      "▁deal": 2720,
      "▁mine": 2721,
      "▁mint": 2722,
      "▁brick": 2723,
      "▁“About": 2724,
      "▁would\n": 2725,
      "▁sometim": 2726,
      "▁see.”\n": 2727,
      "▁grew": 2728,
      "▁here.”\n": 2729,
      "▁rooms": 2730,
      "▁days.": 2731,
      "▁which\n": 2732,
      "▁people,": 2733,
      "▁people.": 2734,
      "▁disco": 2735,
      "▁where\n": 2736,
      "ection": 2737,
      "—then": 2738,
      "—there": 2739,
      "▁scorn": 2740,
      "▁“Never": 2741,
      "▁enchant": 2742,
      "▁...\n": 2743,
      "▁...”\n": 2744,
      "▁sport.": 2745,
      "▁voice.": 2746,
      "▁right,": 2747,
      "▁increas": 2748,
      "▁obsc": 2749,
      "▁objected": 2750,
      "▁hour,": 2751,
      "▁hours": 2752,
      "▁face.\n": 2753,
      "▁afternoon,": 2754,
      "ives": 2755,
      "▁grad": 2756,
      "▁police": 2757,
      "▁phr": 2758,
      "▁waiting": 2759,
      "▁pract": 2760,
      "▁satisf": 2761,
      "▁invit": 2762,
      "▁invent": 2763,
      "▁invest": 2764,
      "▁invisible": 2765,
      "▁break": 2766,
      "▁prop": 2767,
      "▁rested": 2768,
      "▁restaur": 2769,
      "▁Ros": 2770,
      "▁supper": 2771,
      "▁supposed": 2772,
      "▁table.\n": 2773,
      "▁inquir": 2774,
      "▁Wolfshiem,": 2775,
      "▁Wolfshiem’s": 2776,
      "▁appeared": 2777,
      "▁apparent": 2778,
      "▁together.": 2779,
      "▁shoulder": 2780,
      "▁dropped": 2781,
      "▁alone.”\n": 2782,
      "▁home.": 2783,
      "▁curtain": 2784,
      "▁whisky": 2785,
      "▁answer": 2786,
      "▁world,": 2787,
      "▁elab": 2788,
      "▁played": 2789,
      "▁air,": 2790,
      "▁air.": 2791,
      "▁air.\n": 2792,
      "▁guessed": 2793,
      "▁absor": 2794,
      "▁understood": 2795,
      "—with": 2796,
      "▁“Mr": 2797,
      "▁present": 2798,
      "▁surprising": 2799,
      "▁autumn": 2800,
      "▁books": 2801,
      "▁cheek": 2802,
      "▁finding": 2803,
      "▁floated": 2804,
      "▁weeks": 2805,
      "▁suggestion": 2806,
      "▁view": 2807,
      "▁quickly.": 2808,
      "▁“Does": 2809,
      "▁buy": 2810,
      "▁bottle": 2811,
      "▁funeral": 2812,
      "▁helped": 2813,
      "▁helpless": 2814,
      "▁attention": 2815,
      "▁attempt": 2816,
      "▁certainly": 2817,
      "▁faintly": 2818,
      "▁chair.\n": 2819,
      "▁wondered": 2820,
      "▁circle": 2821,
      "▁circumst": 2822,
      "ibly": 2823,
      "▁casually": 2824,
      "ically.\n": 2825,
      "▁assured": 2826,
      "▁instinct": 2827,
      "umbled": 2828,
      "▁coat.": 2829,
      "▁flowers": 2830,
      "▁breathless": 2831,
      "▁Klipsp": 2832,
      "▁shock": 2833,
      "▁ago.”\n": 2834,
      "▁promise": 2835,
      "▁Island,": 2836,
      "▁side,": 2837,
      "▁children": 2838,
      "▁moonlight": 2839,
      "▁nodded.\n": 2840,
      "▁confused": 2841,
      "▁hope": 2842,
      "▁middle": 2843,
      "ency": 2844,
      "▁Montenegro": 2845,
      "▁suspic": 2846,
      "▁mistake": 2847,
      "ashion": 2848,
      "▁Something": 2849,
      "▁harsh": 2850,
      "▁gener": 2851,
      "▁verand": 2852,
      "▁neck": 2853,
      "▁shape": 2854,
      "▁village": 2855,
      "▁engaged": 2856,
      "▁ghostly": 2857,
      "▁faded": 2858,
      "▁doubt": 2859,
      "▁stretched": 2860,
      "▁living-room": 2861,
      "▁library": 2862,
      "▁included": 2863,
      "▁country": 2864,
      "▁garage,": 2865,
      "▁reluctant": 2866,
      "▁returned": 2867,
      "ineteen": 2868,
      "▁direct": 2869,
      "▁June": 2870,
      "▁obviously": 2871,
      "▁profound": 2872,
      "▁sidewalk": 2873,
      "▁copy": 2874,
      "▁gentlem": 2875,
      "▁Louisv": 2876,
      "▁orchestra": 2877,
      "▁beneath": 2878,
      "▁lavender": 2879,
      "▁thousand": 2880,
      "▁group": 2881,
      "▁gesture": 2882,
      "▁straight": 2883,
      "▁whatever": 2884,
      "▁request": 2885,
      "▁jumped": 2886,
      "-m": 2887,
      "-he": 2888,
      "-se": 2889,
      ".’": 2890,
      "15": 2891,
      "a.": 2892,
      "aed": 2893,
      "aust": 2894,
      "aiet": 2895,
      "ball": 2896,
      "bul": 2897,
      "cst": 2898,
      "cess": 2899,
      "do": 2900,
      "gn": 2901,
      "ging": 2902,
      "gar": 2903,
      "ge,": 2904,
      "iot": 2905,
      "iec": 2906,
      "ily,": 2907,
      "laz": 2908,
      "like": 2909,
      "ner": 2910,
      "ning": 2911,
      "oon": 2912,
      "over": 2913,
      "pected": 2914,
      "ract": 2915,
      "ringer": 2916,
      "sing": 2917,
      "tes": 2918,
      "tion": 2919,
      "we": 2920,
      "you": 2921,
      "ze": 2922,
      "—“": 2923,
      "—in": 2924,
      "—or": 2925,
      "▁’": 2926,
      "▁ident": 2927,
      "▁ti": 2928,
      "▁tur": 2929,
      "▁tem": 2930,
      "▁tun": 2931,
      "▁tip": 2932,
      "▁avo": 2933,
      "iny": 2934,
      "ination": 2935,
      "▁wit": 2936,
      "▁wag": 2937,
      "▁water": 2938,
      "▁sens": 2939,
      "nds": 2940,
      "ert": 2941,
      "erted": 2942,
      "▁hy": 2943,
      "▁hon": 2944,
      "▁hig": 2945,
      "▁hung": 2946,
      "ount": 2947,
      "res": 2948,
      "ated\n": 2949,
      "▁mir": 2950,
      "▁mod": 2951,
      "▁mill": 2952,
      "▁mile": 2953,
      "▁mach": 2954,
      "▁mixed": 2955,
      "▁mounted": 2956,
      "▁bal": 2957,
      "▁bound": 2958,
      "itor": 2959,
      "itted": 2960,
      "ite,": 2961,
      "▁chat": 2962,
      "▁cost": 2963,
      "▁cross": 2964,
      "▁fut": 2965,
      "▁fire": 2966,
      "▁fail": 2967,
      "▁filled": 2968,
      "▁fashion": 2969,
      "eng": 2970,
      "ening": 2971,
      "▁“R": 2972,
      "▁“g": 2973,
      "▁“the": 2974,
      "▁to,": 2975,
      "▁top": 2976,
      "▁to.”\n": 2977,
      "▁tone": 2978,
      "onne": 2979,
      "▁dign": 2980,
      "orge": 2981,
      "ormed": 2982,
      "▁ine": 2983,
      "▁inn": 2984,
      "▁inno": 2985,
      "▁inex": 2986,
      "▁lem": 2987,
      "▁list": 2988,
      "an’t": 2989,
      "▁thr": 2990,
      "▁gru": 2991,
      "▁gaiet": 2992,
      "▁gorge": 2993,
      "▁pay": 2994,
      "▁pour": 2995,
      "▁pec": 2996,
      "▁pian": 2997,
      "▁piece": 2998,
      "▁piec": 2999,
      "▁was,": 3000,
      "lebr": 3001,
      "▁nur": 3002,
      "▁natur": 3003,
      "▁nineteen": 3004,
      "▁eart": 3005,
      "▁ecst": 3006,
      "▁bell": 3007,
      "▁beating": 3008,
      "icated": 3009,
      "imp": 3010,
      "immy": 3011,
      "stand": 3012,
      "stead": 3013,
      "▁Taking": 3014,
      "ented": 3015,
      "▁it,\n": 3016,
      "▁its\n": 3017,
      "se,": 3018,
      "selves": 3019,
      "▁rad": 3020,
      "▁ride": 3021,
      "▁rum": 3022,
      "▁rushed": 3023,
      "▁rhy": 3024,
      "irst": 3025,
      "▁stat": 3026,
      "▁stir": 3027,
      "▁straw": 3028,
      "al,": 3029,
      "als": 3030,
      "alth": 3031,
      "▁anno": 3032,
      "▁me,”": 3033,
      "oose": 3034,
      "▁rece": 3035,
      "▁force": 3036,
      "▁ashes": 3037,
      "ighted": 3038,
      "ion\n": 3039,
      "▁Haven": 3040,
      "ilar": 3041,
      "▁sand": 3042,
      "▁she’d": 3043,
      "rig": 3044,
      "rief": 3045,
      "▁Gatsby.”\n": 3046,
      "▁Satur": 3047,
      "▁sell": 3048,
      "▁self": 3049,
      "cho": 3050,
      "chang": 3051,
      "▁About": 3052,
      "▁up.\n": 3053,
      "▁upper": 3054,
      "▁kiss": 3055,
      "▁weather": 3056,
      "▁we’ve": 3057,
      "▁shut": 3058,
      "▁intention": 3059,
      "▁intend": 3060,
      "▁lie": 3061,
      "▁Bl": 3062,
      "▁Baed": 3063,
      "ours": 3064,
      "▁Tom,”": 3065,
      "▁vis": 3066,
      "▁vig": 3067,
      "▁vitality": 3068,
      "▁vivid": 3069,
      "▁alive": 3070,
      "▁aloud": 3071,
      "▁spring": 3072,
      "▁spread": 3073,
      "▁const": 3074,
      "▁concent": 3075,
      "▁convin": 3076,
      "▁unus": 3077,
      "▁univer": 3078,
      "▁unex": 3079,
      "▁uneas": 3080,
      "unted": 3081,
      "ordin": 3082,
      "elve": 3083,
      "eless": 3084,
      "ortant": 3085,
      "▁ja": 3086,
      "▁mans": 3087,
      "▁leather": 3088,
      "▁about,": 3089,
      "▁Cl": 3090,
      "ushing": 3091,
      "uliar": 3092,
      "▁chance": 3093,
      "verybody": 3094,
      "umed": 3095,
      "umph": 3096,
      "▁down\n": 3097,
      "▁back.": 3098,
      "ved,": 3099,
      "▁by\n": 3100,
      "▁afterward": 3101,
      "▁Evidently": 3102,
      "▁hand,": 3103,
      "inking": 3104,
      "ate\n": 3105,
      "▁car,": 3106,
      "▁not\n": 3107,
      "icker": 3108,
      "▁eyeb": 3109,
      "▁house,”": 3110,
      "▁now\n": 3111,
      "ield": 3112,
      "▁then\n": 3113,
      "▁Of": 3114,
      "▁comes": 3115,
      "▁old\n": 3116,
      "▁night.”\n": 3117,
      "▁Wilson.": 3118,
      "▁away,": 3119,
      "▁smo": 3120,
      "▁smoke": 3121,
      "▁dev": 3122,
      "▁death": 3123,
      "▁thinking": 3124,
      "▁remained": 3125,
      "▁begun": 3126,
      "▁persist": 3127,
      "▁“See": 3128,
      "▁plan": 3129,
      "▁everybody": 3130,
      "▁canvas": 3131,
      "▁drank": 3132,
      "abl": 3133,
      "▁Luc": 3134,
      "▁waved": 3135,
      "▁become": 3136,
      "▁firm": 3137,
      "▁worried": 3138,
      "rying": 3139,
      "ence,": 3140,
      "ance,": 3141,
      "▁staring": 3142,
      "▁“Now": 3143,
      "ment,": 3144,
      "▁swim": 3145,
      "assment": 3146,
      "▁towards": 3147,
      "▁Perhaps": 3148,
      "▁right,”": 3149,
      "▁cler": 3150,
      "thm": 3151,
      "▁hour.": 3152,
      "▁hour.”\n": 3153,
      "▁imper": 3154,
      "ivil": 3155,
      "▁grotesqu": 3156,
      "▁polo": 3157,
      "▁news": 3158,
      "▁marble": 3159,
      "▁coun": 3160,
      "▁let’s": 3161,
      "▁waited,": 3162,
      "▁interm": 3163,
      "▁prot": 3164,
      "▁invited": 3165,
      "▁dark\n": 3166,
      "▁prod": 3167,
      "▁expect": 3168,
      "▁expected": 3169,
      "▁arms": 3170,
      "▁“Listen": 3171,
      "▁York.": 3172,
      "▁strained": 3173,
      "▁trees,": 3174,
      "▁five\n": 3175,
      "azz": 3176,
      "▁appro": 3177,
      "▁hard,": 3178,
      "▁steps,": 3179,
      "▁confident": 3180,
      "▁alone.": 3181,
      "▁Chr": 3182,
      "ever,": 3183,
      "▁home,": 3184,
      "▁curi": 3185,
      "▁sunlight": 3186,
      "▁lawn,": 3187,
      "▁lawn.\n": 3188,
      "▁without\n": 3189,
      "▁road,": 3190,
      "▁“Your": 3191,
      "▁“We’re": 3192,
      "▁“We’ll": 3193,
      "▁changing": 3194,
      "▁great\n": 3195,
      "uced": 3196,
      "▁following": 3197,
      "▁sentiment": 3198,
      "▁sounded": 3199,
      "▁money.": 3200,
      "▁Nick,”": 3201,
      "▁feet.\n": 3202,
      "▁watched": 3203,
      "▁early": 3204,
      "▁earnest": 3205,
      "▁leaning": 3206,
      "▁common": 3207,
      "▁quickly": 3208,
      "▁continually": 3209,
      "▁crowded": 3210,
      "▁train.": 3211,
      "▁personal": 3212,
      "▁touched": 3213,
      "▁touching": 3214,
      "▁informed": 3215,
      "▁picked": 3216,
      "fully,": 3217,
      "▁lower": 3218,
      "▁names": 3219,
      "▁elect": 3220,
      "▁McKe": 3221,
      "ounced": 3222,
      "▁delic": 3223,
      "▁summer.": 3224,
      "▁insisted.": 3225,
      "osity": 3226,
      "▁lifted": 3227,
      "▁life.": 3228,
      "▁empt": 3229,
      "▁inside.": 3230,
      "▁inside.\n": 3231,
      "▁dreams": 3232,
      "▁floor.\n": 3233,
      "▁strange": 3234,
      "▁confusion": 3235,
      "▁realized": 3236,
      "▁sharply": 3237,
      "▁months": 3238,
      "▁triumph": 3239,
      "▁midnight": 3240,
      "▁golden": 3241,
      "▁From": 3242,
      "▁France": 3243,
      "▁simp": 3244,
      "▁ceas": 3245,
      "▁Sometimes": 3246,
      "▁uncertain": 3247,
      "▁college": 3248,
      "▁office,": 3249,
      "▁laughter": 3250,
      "▁square": 3251,
      "▁urged": 3252,
      "▁“There’s": 3253,
      "▁guests": 3254,
      "▁shirts": 3255,
      "▁glowing": 3256,
      "▁clothes": 3257,
      "▁newspaper": 3258,
      "▁interesting": 3259,
      "▁cigarette": 3260,
      "▁series": 3261,
      "▁milk": 3262,
      "▁magaz": 3263,
      "▁towel": 3264,
      "▁later,": 3265,
      "▁purs": 3266,
      "▁ash-he": 3267,
      "▁Hotel": 3268,
      "▁Almost": 3269,
      "▁introduct": 3270,
      "▁oblig": 3271,
      "▁photograp": 3272,
      "▁absolutely": 3273,
      "▁correct": 3274,
      "▁hesitated.\n": 3275,
      "▁difference": 3276,
      "▁embarrassment": 3277,
      "▁exclaimed": 3278,
      "racted": 3279,
      "▁slender": 3280,
      "▁further": 3281,
      "▁damned": 3282,
      "▁reason": 3283,
      "▁dollars": 3284,
      "▁connection": 3285,
      "▁cocktails": 3286,
      "▁drifted": 3287,
      "▁enjoyed": 3288,
      "▁elevator": 3289,
      "▁groaning": 3290,
      "▁houses": 3291,
      "▁burst": 3292,
      "▁gloom": 3293,
      "▁contemptuous": 3294,
      "▁determined": 3295,
      "▁scarcely": 3296,
      "wl-ey": 3297,
      "▁“Very": 3298,
      "▁thrilling": 3299,
      "▁pardon": 3300,
      "▁recogn": 3301,
      "▁Middle": 3302,
      "▁Meyer": 3303,
      "▁discovered": 3304,
      "▁enchanted": 3305,
      "▁apparently": 3306,
      "▁curtains": 3307,
      "▁elaborate": 3308,
      "▁gentleman": 3309,
      "▁mirr": 3310,
      "▁million": 3311,
      "▁future": 3312,
      "▁innocent": 3313,
      "▁gorgeous": 3314,
      "▁peculiar": 3315,
      "▁earth": 3316,
      "▁rhythm": 3317,
      "▁receiver": 3318,
      "▁Saturday": 3319,
      "▁Baedek": 3320,
      "▁concentr": 3321,
      "▁unexpected": 3322,
      "▁persistent": 3323,
      "-s": 3324,
      "-st": 3325,
      "-of": 3326,
      "30": 3327,
      ":30": 3328,
      "?\n": 3329,
      "ait": 3330,
      "apt": 3331,
      "bit": 3332,
      "bing": 3333,
      "bber": 3334,
      "cle": 3335,
      "cut": 3336,
      "cher": 3337,
      "come": 3338,
      "cri": 3339,
      "cise": 3340,
      "den": 3341,
      "dro": 3342,
      "ders": 3343,
      "eg": 3344,
      "e.”\n": 3345,
      "fast": 3346,
      "gant": 3347,
      "hor": 3348,
      "hite": 3349,
      "happ": 3350,
      "ially": 3351,
      "iated": 3352,
      "ience": 3353,
      "ker": 3354,
      "lar": 3355,
      "led\n": 3356,
      "ling,": 3357,
      "lt,": 3358,
      "mp": 3359,
      "ms": 3360,
      "mas": 3361,
      "oint": 3362,
      "pr": 3363,
      "pose": 3364,
      "rained": 3365,
      "sford": 3366,
      "side,": 3367,
      "tis": 3368,
      "tory": 3369,
      "upp": 3370,
      "under": 3371,
      "ue.": 3372,
      "uished": 3373,
      "vad": 3374,
      "well": 3375,
      "whel": 3376,
      "xes": 3377,
      "xcu": 3378,
      "—T": 3379,
      "—his": 3380,
      "▁Q": 3381,
      "▁ve": 3382,
      "▁est": 3383,
      "▁ill": 3384,
      "▁tent": 3385,
      "▁tra": 3386,
      "▁tree": 3387,
      "▁tired": 3388,
      "▁tipped": 3389,
      "▁tourn": 3390,
      "▁ale": 3391,
      "▁ahead": 3392,
      "▁aunt": 3393,
      "in\n": 3394,
      "ines": 3395,
      "inal": 3396,
      "inally": 3397,
      "inting": 3398,
      "inated": 3399,
      "▁wra": 3400,
      "▁worn": 3401,
      "▁sou": 3402,
      "▁sno": 3403,
      "▁scept": 3404,
      "▁sank": 3405,
      "▁owl-ey": 3406,
      "ndes": 3407,
      "nday": 3408,
      "erse": 3409,
      "er?”\n": 3410,
      "erred": 3411,
      "▁hate": 3412,
      "▁horn": 3413,
      "ats": 3414,
      "athing": 3415,
      "▁med": 3416,
      "▁mon": 3417,
      "▁mere": 3418,
      "▁maj": 3419,
      "▁bore": 3420,
      "▁bare": 3421,
      "▁bab": 3422,
      "▁block": 3423,
      "▁bask": 3424,
      "ittle": 3425,
      "▁cy": 3426,
      "▁col": 3427,
      "▁calm": 3428,
      "▁fa": 3429,
      "▁fer": 3430,
      "▁fing": 3431,
      "▁fight": 3432,
      "▁fast": 3433,
      "▁furn": 3434,
      "ense": 3435,
      "▁“—": 3436,
      "▁“th": 3437,
      "▁tor": 3438,
      "▁tonight": 3439,
      "▁den": 3440,
      "▁dep": 3441,
      "▁dancing": 3442,
      "▁dusk": 3443,
      "orter": 3444,
      "oria": 3445,
      "ashing": 3446,
      "▁land": 3447,
      "▁lone": 3448,
      "▁hell": 3449,
      "▁heat,": 3450,
      "ara": 3451,
      "arb": 3452,
      "arter": 3453,
      "omed": 3454,
      "ane,": 3455,
      "▁thro": 3456,
      "lla": 3457,
      "es,”": 3458,
      "estern": 3459,
      "▁game": 3460,
      "▁gust": 3461,
      "▁gau": 3462,
      "▁gives": 3463,
      "▁pal": 3464,
      "▁pain": 3465,
      "▁port": 3466,
      "▁pop": 3467,
      "▁pig": 3468,
      "▁pear": 3469,
      "▁parent": 3470,
      "▁haught": 3471,
      "ow.\n": 3472,
      "lend": 3473,
      "legg": 3474,
      "▁nor": 3475,
      "▁num": 3476,
      "iding": 3477,
      "▁event": 3478,
      "▁etern": 3479,
      "▁yawn": 3480,
      "▁bead": 3481,
      "icked": 3482,
      "ice,": 3483,
      "icable": 3484,
      "icism": 3485,
      "imon": 3486,
      "▁that,”": 3487,
      "▁T.": 3488,
      "▁Tr": 3489,
      "▁Tell": 3490,
      "▁on.": 3491,
      "▁ones": 3492,
      "vertis": 3493,
      "▁you?”\n": 3494,
      "▁you?”": 3495,
      "▁youth": 3496,
      "ay.": 3497,
      "ayed": 3498,
      "aybe": 3499,
      "acked": 3500,
      "▁rag": 3501,
      "▁raw": 3502,
      "▁ripp": 3503,
      "▁riot": 3504,
      "▁history": 3505,
      "▁stor": 3506,
      "▁store": 3507,
      "▁stud": 3508,
      "▁stuff": 3509,
      "alter": 3510,
      "urd": 3511,
      "urop": 3512,
      "▁ann": 3513,
      "▁anx": 3514,
      "▁rear": 3515,
      "▁revol": 3516,
      "▁aside": 3517,
      "▁Good": 3518,
      "▁Ga-": 3519,
      "ioned": 3520,
      "▁Hill": 3521,
      "il.": 3522,
      "▁frag": 3523,
      "▁saf": 3524,
      "▁Why": 3525,
      "roll": 3526,
      "ifth": 3527,
      "iform": 3528,
      "allow": 3529,
      "riet": 3530,
      "ant\n": 3531,
      "antly.": 3532,
      "▁Gatsby,”": 3533,
      "▁Ser": 3534,
      "▁seas": 3535,
      "▁seven": 3536,
      "▁succ": 3537,
      "chief": 3538,
      "▁An": 3539,
      "▁Ar": 3540,
      "▁Aven": 3541,
      "▁wealth": 3542,
      "▁shif": 3543,
      "▁shru": 3544,
      "▁shiver": 3545,
      "▁out,": 3546,
      "▁dock": 3547,
      "emp": 3548,
      "ember": 3549,
      "▁He’s": 3550,
      "▁intens": 3551,
      "essary": 3552,
      "olate": 3553,
      "▁lip": 3554,
      "▁liqu": 3555,
      "▁all,": 3556,
      "▁all.”\n": 3557,
      "▁B.": 3558,
      "▁Bel": 3559,
      "▁Broad": 3560,
      "▁Barb": 3561,
      "ource": 3562,
      "▁kno": 3563,
      "▁vest": 3564,
      "▁visible": 3565,
      "▁various": 3566,
      "▁there,": 3567,
      "▁there.\n": 3568,
      "elled": 3569,
      "▁over.": 3570,
      "▁over.”\n": 3571,
      "▁overwhel": 3572,
      "▁alar": 3573,
      "▁alone,": 3574,
      "▁also": 3575,
      "▁alert": 3576,
      "▁spent": 3577,
      "▁sprang": 3578,
      "▁splend": 3579,
      "ecting": 3580,
      "▁unb": 3581,
      "▁uns": 3582,
      "▁unw": 3583,
      "▁unutter": 3584,
      "▁unhapp": 3585,
      "▁uniform": 3586,
      "quaint": 3587,
      "unch": 3588,
      "▁exam": 3589,
      "▁exact": 3590,
      "▁jew": 3591,
      "▁man.": 3592,
      "▁man,”": 3593,
      "▁lead": 3594,
      "▁Come": 3595,
      "▁Coll": 3596,
      "▁cho": 3597,
      "▁chin": 3598,
      "▁J.": 3599,
      "▁Ju": 3600,
      "▁this,": 3601,
      "▁age": 3602,
      "ument": 3603,
      "▁downstairs": 3604,
      "▁likely": 3605,
      "▁orang": 3606,
      "▁back\n": 3607,
      "▁“Th": 3608,
      "▁they’re": 3609,
      "▁Even": 3610,
      "▁Europ": 3611,
      "▁hand.": 3612,
      "▁hands.": 3613,
      "▁hands.\n": 3614,
      "ive,": 3615,
      "▁too.": 3616,
      "▁Next": 3617,
      "▁carri": 3618,
      "▁carried": 3619,
      "▁came\n": 3620,
      "▁trad": 3621,
      "▁track": 3622,
      "▁knows": 3623,
      "▁know,”": 3624,
      "▁whenever": 3625,
      "eared,": 3626,
      "istmas": 3627,
      "▁no,”": 3628,
      "able,": 3629,
      "▁fact,": 3630,
      "▁gets": 3631,
      "▁could\n": 3632,
      "▁themselves": 3633,
      "▁Ogg": 3634,
      "▁Fl": 3635,
      "▁Fer": 3636,
      "▁Fren": 3637,
      "▁“Her": 3638,
      "▁“Here": 3639,
      "▁“Have": 3640,
      "▁got\n": 3641,
      "▁just\n": 3642,
      "ffee": 3643,
      "▁what\n": 3644,
      "▁what’s": 3645,
      "▁looked\n": 3646,
      "▁glisten": 3647,
      "▁turned\n": 3648,
      "▁moment\n": 3649,
      "▁covered": 3650,
      "▁coffee": 3651,
      "▁quarter": 3652,
      "▁more.": 3653,
      "▁flutter": 3654,
      "▁remain": 3655,
      "▁reminded": 3656,
      "▁remote": 3657,
      "▁minister": 3658,
      "▁bring": 3659,
      "▁brother": 3660,
      "▁“At": 3661,
      "▁“Are": 3662,
      "▁begin": 3663,
      "▁blown": 3664,
      "▁see\n": 3665,
      "▁see?”\n": 3666,
      "▁around\n": 3667,
      "iously,": 3668,
      "▁acquaint": 3669,
      "▁“Sh": 3670,
      "▁“St": 3671,
      "▁“Some": 3672,
      "▁Gatsby’s\n": 3673,
      "rows": 3674,
      "▁loc": 3675,
      "▁locked": 3676,
      "▁long\n": 3677,
      "▁two\n": 3678,
      "shore": 3679,
      "shine": 3680,
      "▁under\n": 3681,
      "▁time.”\n": 3682,
      "▁something,": 3683,
      "▁people\n": 3684,
      "ably\n": 3685,
      "▁Lake": 3686,
      "▁slid": 3687,
      "▁diss": 3688,
      "▁pointed": 3689,
      "▁pointing": 3690,
      "▁amount": 3691,
      "▁worked": 3692,
      "—that’s": 3693,
      "▁even\n": 3694,
      "▁scold": 3695,
      "▁say,": 3696,
      "▁“One": 3697,
      "▁swinging": 3698,
      "▁their\n": 3699,
      "assioned": 3700,
      "▁party,": 3701,
      "▁control": 3702,
      "▁boys": 3703,
      "ness,": 3704,
      "▁Park": 3705,
      "▁Plaz": 3706,
      "age\n": 3707,
      "▁head.\n": 3708,
      "▁cloud": 3709,
      "▁fold": 3710,
      "▁men.": 3711,
      "▁important": 3712,
      "▁impassioned": 3713,
      "izing": 3714,
      "▁Yale": 3715,
      "▁grace": 3716,
      "▁name,": 3717,
      "▁name.”\n": 3718,
      "irely": 3719,
      "▁His\n": 3720,
      "▁“Why,": 3721,
      "▁waiter": 3722,
      "▁interior": 3723,
      "▁pride": 3724,
      "▁word.": 3725,
      "▁broad": 3726,
      "▁found\n": 3727,
      "▁invite": 3728,
      "▁wasn’t\n": 3729,
      "▁suddenly.": 3730,
      "▁breaking": 3731,
      "▁desk": 3732,
      "▁descri": 3733,
      "▁desolate": 3734,
      "▁huge": 3735,
      "▁prob": 3736,
      "▁army": 3737,
      "udy": 3738,
      "▁advertis": 3739,
      "▁gardener,": 3740,
      "▁ended": 3741,
      "▁There’s": 3742,
      "▁Roose": 3743,
      "▁dressing": 3744,
      "▁dresses": 3745,
      "▁Egg\n": 3746,
      "▁nothing.": 3747,
      "▁happened,": 3748,
      "▁trees": 3749,
      "azing": 3750,
      "▁morning,": 3751,
      "▁together.”\n": 3752,
      "▁confir": 3753,
      "▁“Can’t": 3754,
      "▁drop": 3755,
      "▁next\n": 3756,
      "ormation": 3757,
      "▁whisper": 3758,
      "▁demanded.": 3759,
      "▁friends": 3760,
      "▁ever\n": 3761,
      "▁world.\n": 3762,
      "▁hosp": 3763,
      "▁hollow": 3764,
      "▁“Be": 3765,
      "▁“Yes,": 3766,
      "▁“Yea": 3767,
      "▁elud": 3768,
      "▁well.”\n": 3769,
      "▁“We’ve": 3770,
      "▁moved\n": 3771,
      "▁accus": 3772,
      "▁‘T": 3773,
      "▁entered": 3774,
      "▁entirely": 3775,
      "▁o’clock,": 3776,
      "▁slowed": 3777,
      "▁slowly,": 3778,
      "—was": 3779,
      "▁indign": 3780,
      "▁indef": 3781,
      "▁author": 3782,
      "▁Nick?”\n": 3783,
      "▁oughtn’t": 3784,
      "▁hair,": 3785,
      "▁starting": 3786,
      "▁Only": 3787,
      "▁course,": 3788,
      "▁God!”": 3789,
      "▁explain": 3790,
      "▁running": 3791,
      "how,": 3792,
      "▁apol": 3793,
      "▁affect": 3794,
      "▁crim": 3795,
      "▁information": 3796,
      "▁life.\n": 3797,
      "▁effect": 3798,
      "▁relie": 3799,
      "▁chair,": 3800,
      "▁will,”": 3801,
      "▁case": 3802,
      "▁lunche": 3803,
      "▁itself,": 3804,
      "▁assumed": 3805,
      "▁“Why—": 3806,
      "▁murmured": 3807,
      "▁behind.": 3808,
      "-room,": 3809,
      "▁snapped": 3810,
      "▁hall,": 3811,
      "▁sinister": 3812,
      "▁corner": 3813,
      "▁corners": 3814,
      "▁porch,": 3815,
      "▁Sunday": 3816,
      "▁ago.\n": 3817,
      "▁definitely": 3818,
      "▁disappro": 3819,
      "▁disappeared": 3820,
      "▁arrived,": 3821,
      "avour": 3822,
      "▁life,": 3823,
      "▁pool.": 3824,
      "▁husband,": 3825,
      "▁floor,": 3826,
      "▁speak,": 3827,
      "venteen": 3828,
      "▁grocer": 3829,
      "▁Catherine,": 3830,
      "▁glasses": 3831,
      "▁admired": 3832,
      "▁admitted": 3833,
      "▁violent": 3834,
      "theless": 3835,
      "▁diffic": 3836,
      "▁resol": 3837,
      "▁suspected": 3838,
      "▁“No.”\n": 3839,
      "▁completely": 3840,
      "▁simpl": 3841,
      "▁signific": 3842,
      "▁celebr": 3843,
      "▁capac": 3844,
      "▁fingers,": 3845,
      "▁Sound,": 3846,
      "▁sweet": 3847,
      "▁politely.\n": 3848,
      "▁movements": 3849,
      "▁forever.\n": 3850,
      "▁gravel": 3851,
      "▁urg": 3852,
      "▁slightly": 3853,
      "▁“Yes.”\n": 3854,
      "▁eagerly.": 3855,
      "▁clear": 3856,
      "▁“Jimmy": 3857,
      "▁necessary": 3858,
      "▁regard": 3859,
      "▁consid": 3860,
      "▁irresist": 3861,
      "▁purpose": 3862,
      "▁pause.": 3863,
      "▁incessantly": 3864,
      "▁photograph": 3865,
      "▁corrected": 3866,
      "▁different": 3867,
      "▁private": 3868,
      "▁embarrassed": 3869,
      "—even": 3870,
      "▁winter": 3871,
      "▁sense": 3872,
      "▁hastily": 3873,
      "▁muttered": 3874,
      "▁gathered": 3875,
      "▁yacht": 3876,
      "▁memory": 3877,
      "▁despair": 3878,
      "▁emotion": 3879,
      "▁extraordin": 3880,
      "▁wreath": 3881,
      "▁wandered": 3882,
      "▁mentioned": 3883,
      "▁gleaming": 3884,
      "▁parted": 3885,
      "▁frightened": 3886,
      "▁World’s": 3887,
      "▁intimate": 3888,
      "▁abruptly": 3889,
      "▁Before": 3890,
      "▁overhead.": 3891,
      "▁unpleas": 3892,
      "▁places": 3893,
      "▁position": 3894,
      "▁bootlegg": 3895,
      "▁automobiles": 3896,
      "▁concealed": 3897,
      "▁champagne": 3898,
      "—Gatsby": 3899,
      "▁aston": 3900,
      "▁wedding": 3901,
      "▁wife.": 3902,
      "▁wiped": 3903,
      "▁panic": 3904,
      "▁emerged": 3905,
      "▁railroad": 3906,
      "▁strolled": 3907,
      "▁England": 3908,
      "▁tragic": 3909,
      "▁argument": 3910,
      "▁movies": 3911,
      "▁gradually": 3912,
      "▁phrase": 3913,
      "▁investig": 3914,
      "▁breakfast": 3915,
      "▁propriet": 3916,
      "▁absorbed": 3917,
      "▁circumstances": 3918,
      "▁Klipspringer": 3919,
      "▁’em": 3920,
      "▁tipt": 3921,
      "▁hydro": 3922,
      "▁higher": 3923,
      "▁balancing": 3924,
      "▁chatter": 3925,
      "▁costum": 3926,
      "▁dignified": 3927,
      "▁thrown": 3928,
      "▁gruff": 3929,
      "▁piano": 3930,
      "▁nurse": 3931,
      "▁radiant": 3932,
      "▁statement": 3933,
      "▁convinced": 3934,
      "▁Lucille": 3935,
      "▁swimming": 3936,
      "iviliz": 3937,
      "▁counter": 3938,
      "▁Christmas": 3939,
      "▁curiosity": 3940,
      "▁sentimental": 3941,
      "▁electric": 3942,
      "▁ash-heaps": 3943,
      "▁innocently.\n": 3944,
      "xcuse": 3945,
      "▁tournament": 3946,
      "▁merely": 3947,
      "▁coloss": 3948,
      "▁fingers": 3949,
      "▁popular": 3950,
      "▁number": 3951,
      "▁eternal": 3952,
      "▁Ga-od": 3953,
      "▁intensity": 3954,
      "▁Broadway": 3955,
      "▁College": 3956,
      "▁Oggsford": 3957,
      "▁French": 3958,
      "▁glistening": 3959,
      "▁Plaza": 3960,
      "▁advertisement": 3961,
      "▁Roosevel": 3962,
      "▁hydropl": 3963,
      "-e": 3964,
      "-ch": 3965,
      "-bo": 3966,
      "-the": 3967,
      ":15": 3968,
      ";\n": 3969,
      "All": 3970,
      "II\n": 3971,
      "a,": 3972,
      "ah": 3973,
      "a’s": 3974,
      "after": 3975,
      "aire": 3976,
      "b,": 3977,
      "bs": 3978,
      "ban": 3979,
      "cy": 3980,
      "con": 3981,
      "cip": 3982,
      "dour": 3983,
      "eally": 3984,
      "eople": 3985,
      "fs": 3986,
      "fort": 3987,
      "form": 3988,
      "ground": 3989,
      "gement": 3990,
      "gular": 3991,
      "gtion": 3992,
      "hon": 3993,
      "house": 3994,
      "hood": 3995,
      "haust": 3996,
      "ium": 3997,
      "iven": 3998,
      "ily.\n": 3999,
      "iber": 4000,
      "ixt": 4001,
      "kn": 4002,
      "kes": 4003,
      "lt": 4004,
      "look": 4005,
      "liness": 4006,
      "me": 4007,
      "mon": 4008,
      "m.\n": 4009,
      "mir": 4010,
      "mist": 4011,
      "mber": 4012,
      "mend": 4013,
      "ne,": 4014,
      "oh": 4015,
      "oved": 4016,
      "off": 4017,
      "ohere": 4018,
      "o!”": 4019,
      "ober": 4020,
      "o—”\n": 4021,
      "osit": 4022,
      "pe": 4023,
      "pen": 4024,
      "ping": 4025,
      "par": 4026,
      "pet": 4027,
      "piece": 4028,
      "rut": 4029,
      "ray": 4030,
      "ram": 4031,
      "s,”": 4032,
      "tr": 4033,
      "tress": 4034,
      "tru": 4035,
      "tific": 4036,
      "uation": 4037,
      "udd": 4038,
      "ued.": 4039,
      "vit": 4040,
      "y.”\n": 4041,
      "ymp": 4042,
      "zz": 4043,
      "—\n": 4044,
      "—as": 4045,
      "—if": 4046,
      "—of": 4047,
      "—you": 4048,
      "▁tan": 4049,
      "▁tum": 4050,
      "▁tick": 4051,
      "▁tact": 4052,
      "hest": 4053,
      "heard": 4054,
      "hes,": 4055,
      "▁aud": 4056,
      "inion": 4057,
      "inate": 4058,
      "inable": 4059,
      "inity": 4060,
      "inished": 4061,
      "▁wis": 4062,
      "▁wan": 4063,
      "▁wings": 4064,
      "▁worth": 4065,
      "▁sill": 4066,
      "▁sway": 4067,
      "▁sne": 4068,
      "▁source": 4069,
      "▁symp": 4070,
      "▁odd": 4071,
      "▁odour": 4072,
      "erk": 4073,
      "erve": 4074,
      "er’s": 4075,
      "erved": 4076,
      "erate": 4077,
      "erally": 4078,
      "ery\n": 4079,
      "erial": 4080,
      "▁hol": 4081,
      "▁hus": 4082,
      "▁hip": 4083,
      "▁hint": 4084,
      "▁hush": 4085,
      "▁husk": 4086,
      "▁hilar": 4087,
      "rent": 4088,
      "att": 4089,
      "ate,": 4090,
      "attle": 4091,
      "atory": 4092,
      "▁mor": 4093,
      "▁mess": 4094,
      "▁mass": 4095,
      "▁muff": 4096,
      "▁bon": 4097,
      "▁ban": 4098,
      "▁bent": 4099,
      "▁bag": 4100,
      "▁bure": 4101,
      "▁bed.": 4102,
      "▁bree": 4103,
      "▁biz": 4104,
      "▁borrow": 4105,
      "▁bored": 4106,
      "▁bann": 4107,
      "▁body,": 4108,
      "▁bird": 4109,
      "iture": 4110,
      "itative": 4111,
      "▁cow": 4112,
      "▁cand": 4113,
      "▁cord": 4114,
      "▁cred": 4115,
      "▁cater": 4116,
      "▁cris": 4117,
      "▁city,": 4118,
      "▁fou": 4119,
      "▁fain": 4120,
      "▁fau": 4121,
      "▁fill": 4122,
      "▁free": 4123,
      "▁fift": 4124,
      "▁fixed": 4125,
      "▁field": 4126,
      "isc": 4127,
      "ishing": 4128,
      "iscu": 4129,
      "ing.”\n": 4130,
      "ingered": 4131,
      "▁“K": 4132,
      "▁“c": 4133,
      "▁“h": 4134,
      "▁“s": 4135,
      "▁“or": 4136,
      "▁“just": 4137,
      "▁toss": 4138,
      "once": 4139,
      "▁dom": 4140,
      "▁dest": 4141,
      "▁dear": 4142,
      "▁dang": 4143,
      "▁dull": 4144,
      "▁dumb": 4145,
      "▁dances": 4146,
      "ors": 4147,
      "orous": 4148,
      "oration": 4149,
      "orough": 4150,
      "asion": 4151,
      "astern": 4152,
      "▁I,": 4153,
      "▁in.": 4154,
      "▁inh": 4155,
      "▁in.\n": 4156,
      "▁insp": 4157,
      "▁lin": 4158,
      "▁lur": 4159,
      "▁linger": 4160,
      "▁leng": 4161,
      "▁lingered": 4162,
      "▁heav": 4163,
      "arn": 4164,
      "arre": 4165,
      "ar.\n": 4166,
      "arse": 4167,
      "omes": 4168,
      "▁thirt": 4169,
      "▁gam": 4170,
      "▁grief": 4171,
      "▁py": 4172,
      "▁pit": 4173,
      "▁pen": 4174,
      "▁pot": 4175,
      "▁pant": 4176,
      "▁pack": 4177,
      "▁post": 4178,
      "▁park": 4179,
      "▁path": 4180,
      "▁pressed": 4181,
      "▁pomp": 4182,
      "▁pump": 4183,
      "▁was.": 4184,
      "▁wash": 4185,
      "▁waste": 4186,
      "▁haunted": 4187,
      "owing": 4188,
      "lected": 4189,
      "ut-t": 4190,
      "▁none": 4191,
      "▁nost": 4192,
      "▁nature": 4193,
      "id\n": 4194,
      "▁et": 4195,
      "▁egg": 4196,
      "▁evidently": 4197,
      "ic\n": 4198,
      "ic,": 4199,
      "iced": 4200,
      "▁that?”\n": 4201,
      "▁that’ll": 4202,
      "▁us.": 4203,
      "▁Town": 4204,
      "▁Tost": 4205,
      "▁Two": 4206,
      "▁Tattle": 4207,
      "vering": 4208,
      "etrop": 4209,
      "▁it—": 4210,
      "▁it.\n": 4211,
      "oth": 4212,
      "ots": 4213,
      "otted": 4214,
      "othing": 4215,
      "otten": 4216,
      "sequ": 4217,
      "aced": 4218,
      "acter": 4219,
      "▁rig": 4220,
      "▁rap": 4221,
      "▁round": 4222,
      "▁ripped": 4223,
      "▁rush": 4224,
      "▁rising": 4225,
      "iration": 4226,
      "irty": 4227,
      "▁stout": 4228,
      "▁stair": 4229,
      "▁stuck": 4230,
      "▁white,": 4231,
      "alian": 4232,
      "▁ang": 4233,
      "▁anch": 4234,
      "▁me:": 4235,
      "▁meas": 4236,
      "▁me!”": 4237,
      "▁me!”\n": 4238,
      "adu": 4239,
      "addy": 4240,
      "▁her.\n": 4241,
      "▁her.”\n": 4242,
      "▁ren": 4243,
      "▁rever": 4244,
      "▁rese": 4245,
      "▁ready": 4246,
      "▁reaction": 4247,
      "▁forty": 4248,
      "▁forth": 4249,
      "▁formed": 4250,
      "▁Gre": 4251,
      "▁Germ": 4252,
      "▁Have": 4253,
      "ils": 4254,
      "iling": 4255,
      "ilious": 4256,
      "ilities": 4257,
      "▁fruit": 4258,
      "▁saun": 4259,
      "▁War": 4260,
      "▁Where": 4261,
      "▁While": 4262,
      "▁Western": 4263,
      "▁Walter": 4264,
      "▁him;": 4265,
      "roach": 4266,
      "▁Mu": 4267,
      "▁Main": 4268,
      "▁Maybe": 4269,
      "▁Metrop": 4270,
      "hers": 4271,
      "▁Their": 4272,
      "▁They\n": 4273,
      "cend": 4274,
      "rib": 4275,
      "ribut": 4276,
      "anta": 4277,
      "▁Gatsby\n": 4278,
      "▁S.": 4279,
      "▁Sw": 4280,
      "▁Sch": 4281,
      "▁South": 4282,
      "▁Santa": 4283,
      "ards": 4284,
      "▁see.": 4285,
      "▁see,\n": 4286,
      "▁separ": 4287,
      "▁suff": 4288,
      "chid": 4289,
      "▁Aired": 4290,
      "▁De": 4291,
      "▁up.": 4292,
      "▁up,”": 4293,
      "▁said:": 4294,
      "▁share": 4295,
      "▁shake": 4296,
      "▁shift": 4297,
      "▁shrill": 4298,
      "▁out.": 4299,
      "▁out,”": 4300,
      "▁outdo": 4301,
      "▁outside,": 4302,
      "pped\n": 4303,
      "anded": 4304,
      "▁intense": 4305,
      "oles": 4306,
      "olent": 4307,
      "oline": 4308,
      "ted,": 4309,
      "▁abst": 4310,
      "▁aband": 4311,
      "▁Br": 4312,
      "▁button": 4313,
      "▁Tom?”\n": 4314,
      "▁“Was": 4315,
      "▁“Want": 4316,
      "▁“Will": 4317,
      "▁“Wait": 4318,
      "▁kne": 4319,
      "▁whether": 4320,
      "▁vac": 4321,
      "▁vall": 4322,
      "▁vast": 4323,
      "▁vul": 4324,
      "▁Daisy,”": 4325,
      "estions": 4326,
      "▁there,”": 4327,
      "▁so\n": 4328,
      "▁sober": 4329,
      "▁over,": 4330,
      "▁overt": 4331,
      "oney": 4332,
      "▁spl": 4333,
      "▁spac": 4334,
      "▁spark": 4335,
      "▁spect": 4336,
      "▁conv": 4337,
      "▁concept": 4338,
      "▁unmist": 4339,
      "▁untru": 4340,
      "quiet": 4341,
      "▁go\n": 4342,
      "▁goin’": 4343,
      "unity": 4344,
      "unct": 4345,
      "▁exer": 4346,
      "▁exchang": 4347,
      "ortunity": 4348,
      "▁jud": 4349,
      "▁jail": 4350,
      "▁jump": 4351,
      "▁jule": 4352,
      "▁jerk": 4353,
      "▁man.\n": 4354,
      "ille,": 4355,
      "ille.": 4356,
      "illes.": 4357,
      "▁rob": 4358,
      "▁Car": 4359,
      "▁Cive": 4360,
      "▁Cross": 4361,
      "▁Comp": 4362,
      "▁negro": 4363,
      "ulty": 4364,
      "ulking": 4365,
      "▁chain": 4366,
      "▁Jew": 4367,
      "▁Jerse": 4368,
      "▁agg": 4369,
      "▁ago,": 4370,
      "▁who’d": 4371,
      "umps": 4372,
      "umerable": 4373,
      "▁down.": 4374,
      "▁ordered": 4375,
      "▁orchid": 4376,
      "▁did\n": 4377,
      "▁iss": 4378,
      "▁isol": 4379,
      "▁“Tom": 4380,
      "▁“Then": 4381,
      "▁“Two": 4382,
      "▁after\n": 4383,
      "▁Ed": 4384,
      "▁Everybody": 4385,
      "▁Ella": 4386,
      "▁hand\n": 4387,
      "▁handed": 4388,
      "▁hands,": 4389,
      "▁handker": 4390,
      "ively.\n": 4391,
      "inkle": 4392,
      "▁too\n": 4393,
      "▁too.\n": 4394,
      "▁No,": 4395,
      "▁car?”\n": 4396,
      "▁came.\n": 4397,
      "▁notice": 4398,
      "▁Mr.\n": 4399,
      "▁true.": 4400,
      "▁know\n": 4401,
      "▁know,": 4402,
      "ation.": 4403,
      "ation.\n": 4404,
      "ational": 4405,
      "▁Italian": 4406,
      "ress,": 4407,
      "▁timet": 4408,
      "▁little.": 4409,
      "isting": 4410,
      "▁house\n": 4411,
      "▁twelve": 4412,
      "▁want,": 4413,
      "▁faced": 4414,
      "▁face.": 4415,
      "▁now.”\n": 4416,
      "▁now,”": 4417,
      "▁She\n": 4418,
      "▁get\n": 4419,
      "▁O’": 4420,
      "▁Our": 4421,
      "▁Oct": 4422,
      "▁Oh,": 4423,
      "▁again.\n": 4424,
      "▁Fort": 4425,
      "▁First": 4426,
      "▁Finally": 4427,
      "▁Fifth": 4428,
      "▁“Has": 4429,
      "▁what?”": 4430,
      "▁old,": 4431,
      "▁older": 4432,
      "▁“You’ve": 4433,
      "▁glimp": 4434,
      "▁artific": 4435,
      "gged": 4436,
      "▁momentarily": 4437,
      "▁coffe": 4438,
      "▁night.\n": 4439,
      "▁night,”": 4440,
      "ting\n": 4441,
      "▁off,": 4442,
      "▁offend": 4443,
      "▁don’t\n": 4444,
      "▁Wilson\n": 4445,
      "▁quart": 4446,
      "▁questions": 4447,
      "▁away\n": 4448,
      "▁more,": 4449,
      "▁more.”\n": 4450,
      "▁more,\n": 4451,
      "▁doorway": 4452,
      "▁flushed": 4453,
      "▁flipped": 4454,
      "▁flashed": 4455,
      "▁flann": 4456,
      "▁think.": 4457,
      "▁thinks": 4458,
      "▁mine,": 4459,
      "▁brid": 4460,
      "▁brain": 4461,
      "▁brood": 4462,
      "▁bridge": 4463,
      "▁“Ah": 4464,
      "▁“As": 4465,
      "▁“Abs": 4466,
      "▁Jordan.": 4467,
      "▁Jordan.\n": 4468,
      "▁sometimes": 4469,
      "▁blurred": 4470,
      "ontrol": 4471,
      "▁seeing": 4472,
      "urely": 4473,
      "▁around.": 4474,
      "▁other,": 4475,
      "iousness": 4476,
      "▁perce": 4477,
      "▁persp": 4478,
      "▁percept": 4479,
      "▁pervad": 4480,
      "▁grey,": 4481,
      "▁girl.": 4482,
      "▁“So": 4483,
      "▁here?”": 4484,
      "▁plun": 4485,
      "rowed": 4486,
      "▁can\n": 4487,
      "▁loves": 4488,
      "▁long,": 4489,
      "▁longest": 4490,
      "▁going\n": 4491,
      "ship": 4492,
      "▁day,": 4493,
      "▁day.": 4494,
      "▁undergr": 4495,
      "▁time\n": 4496,
      "▁thing,”": 4497,
      "▁through.": 4498,
      "place": 4499,
      "▁something\n": 4500,
      "▁drum": 4501,
      "▁drift": 4502,
      "▁light.": 4503,
      "▁lighted": 4504,
      "▁light.\n": 4505,
      "▁never\n": 4506,
      "about": 4507,
      "ably,": 4508,
      "▁Let’s": 4509,
      "▁waving": 4510,
      "▁discu": 4511,
      "▁prete": 4512,
      "▁year.": 4513,
      "▁opinion": 4514,
      "▁evening,": 4515,
      "▁stars.": 4516,
      "lessly": 4517,
      "lessness": 4518,
      "▁wind,": 4519,
      "▁scen": 4520,
      "▁scrut": 4521,
      "▁swell": 4522,
      "▁swoll": 4523,
      "▁swallow": 4524,
      "▁knew\n": 4525,
      "▁knew.": 4526,
      "▁fender": 4527,
      "▁usually": 4528,
      "▁content": 4529,
      "▁contact": 4530,
      "rug": 4531,
      "▁toward\n": 4532,
      "▁sports": 4533,
      "▁sport?”\n": 4534,
      "▁first,": 4535,
      "▁bob": 4536,
      "▁boat": 4537,
      "▁minutes\n": 4538,
      "ness.\n": 4539,
      "▁Prob": 4540,
      "▁People": 4541,
      "▁half\n": 4542,
      "▁halfway": 4543,
      "▁half-p": 4544,
      "▁right.”\n": 4545,
      "▁thought,": 4546,
      "▁open,": 4547,
      "▁incident": 4548,
      "▁incohere": 4549,
      "▁head\n": 4550,
      "▁head.": 4551,
      "▁heads": 4552,
      "▁are\n": 4553,
      "▁are,”": 4554,
      "▁aren’t": 4555,
      "▁clim": 4556,
      "▁clam": 4557,
      "▁clust": 4558,
      "▁younger": 4559,
      "▁Then,": 4560,
      "▁hour.\n": 4561,
      "▁only\n": 4562,
      "▁impressive": 4563,
      "▁face\n": 4564,
      "▁heard\n": 4565,
      "▁grat": 4566,
      "▁grown": 4567,
      "▁asked.\n": 4568,
      "body’s": 4569,
      "▁marve": 4570,
      "▁phase": 4571,
      "▁name.\n": 4572,
      "▁than\n": 4573,
      "▁thanks": 4574,
      "▁white\n": 4575,
      "▁let\n": 4576,
      "▁wait\n": 4577,
      "▁interrupt": 4578,
      "▁West.”\n": 4579,
      "▁word,": 4580,
      "▁words,": 4581,
      "▁window,": 4582,
      "▁breathing": 4583,
      "▁desir": 4584,
      "▁desire": 4585,
      "▁desper": 4586,
      "▁below": 4587,
      "rossed": 4588,
      "▁mattress": 4589,
      "▁material": 4590,
      "▁Instead": 4591,
      "▁prov": 4592,
      "▁alongshore": 4593,
      "▁arm.\n": 4594,
      "▁arms.": 4595,
      "▁armist": 4596,
      "▁arms.\n": 4597,
      "▁own\n": 4598,
      "▁own.": 4599,
      "▁another\n": 4600,
      "▁another,": 4601,
      "▁And\n": 4602,
      "▁small\n": 4603,
      "▁telling": 4604,
      "▁silk": 4605,
      "▁“Like": 4606,
      "▁“Let’s": 4607,
      "▁gardens": 4608,
      "▁repres": 4609,
      "▁reproach": 4610,
      "▁York,": 4611,
      "▁end.": 4612,
      "rooms": 4613,
      "▁always\n": 4614,
      "▁though\n": 4615,
      "▁“She’ll": 4616,
      "bute": 4617,
      "atern": 4618,
      "▁dressed": 4619,
      "▁string": 4620,
      "▁strain": 4621,
      "▁Miss\n": 4622,
      "▁love,": 4623,
      "▁keen": 4624,
      "▁trees.\n": 4625,
      "▁tremend": 4626,
      "▁cried,": 4627,
      "▁cried.": 4628,
      "▁Wolfshiem\n": 4629,
      "perior": 4630,
      "▁appear": 4631,
      "▁war.”\n": 4632,
      "▁warned": 4633,
      "▁together,": 4634,
      "▁together.\n": 4635,
      "▁once,": 4636,
      "▁once.": 4637,
      "▁steps.\n": 4638,
      "▁shoulders": 4639,
      "▁shoulder.": 4640,
      "▁sit\n": 4641,
      "▁situation": 4642,
      "▁“Carraway": 4643,
      "▁still\n": 4644,
      "▁alone.\n": 4645,
      "▁alone,”": 4646,
      "everal": 4647,
      "▁home.\n": 4648,
      "▁care.": 4649,
      "▁careful": 4650,
      "▁decade": 4651,
      "▁decided": 4652,
      "▁sunshine": 4653,
      "▁addressed": 4654,
      "▁famous": 4655,
      "▁“Get": 4656,
      "▁“Gatsby": 4657,
      "▁lawns": 4658,
      "▁real.": 4659,
      "▁road.": 4660,
      "▁world.": 4661,
      "ial\n": 4662,
      "ials": 4663,
      "▁hovered": 4664,
      "▁might\n": 4665,
      "▁“Biloxi": 4666,
      "▁elb": 4667,
      "▁well,": 4668,
      "▁well-": 4669,
      "▁well.": 4670,
      "▁player": 4671,
      "▁playing": 4672,
      "▁matter,": 4673,
      "ucated": 4674,
      "uccess": 4675,
      "▁‘All": 4676,
      "▁enter": 4677,
      "▁entertain": 4678,
      "▁guess": 4679,
      "iffer": 4680,
      "▁absence": 4681,
      "▁absurd": 4682,
      "rawled": 4683,
      "▁everything.”\n": 4684,
      "▁followed\n": 4685,
      "▁Buchanan,": 4686,
      "▁sound.": 4687,
      "▁fully": 4688,
      "▁indiffer": 4689,
      "▁minute.\n": 4690,
      "▁minute,”": 4691,
      "▁between\n": 4692,
      "▁hotel": 4693,
      "▁money,": 4694,
      "▁book,": 4695,
      "▁book.": 4696,
      "▁nodd": 4697,
      "amps": 4698,
      "▁week\n": 4699,
      "▁feet\n": 4700,
      "▁ideas": 4701,
      "▁woke": 4702,
      "▁water,": 4703,
      "▁singing": 4704,
      "▁town.”\n": 4705,
      "▁hair.": 4706,
      "▁startled": 4707,
      "▁startling": 4708,
      "▁commut": 4709,
      "▁commun": 4710,
      "▁Myrtle,": 4711,
      "▁telephoned": 4712,
      "▁God,": 4713,
      "▁spend": 4714,
      "▁speaking": 4715,
      "▁explod": 4716,
      "▁rose,": 4717,
      "▁East.": 4718,
      "▁arrival": 4719,
      "▁quickly,": 4720,
      "▁continued.": 4721,
      "▁drive.\n": 4722,
      "▁woman,": 4723,
      "▁woman?”": 4724,
      "▁awed": 4725,
      "▁awful": 4726,
      "▁build": 4727,
      "▁built": 4728,
      "▁later\n": 4729,
      "▁rain.": 4730,
      "▁train.\n": 4731,
      "▁person,": 4732,
      "▁Chicago,": 4733,
      "-control": 4734,
      "▁bed.”\n": 4735,
      "▁crit": 4736,
      "▁crushed": 4737,
      "▁certain\n": 4738,
      "▁faintly.": 4739,
      "▁infinitely": 4740,
      "▁heart.": 4741,
      "▁heart.\n": 4742,
      "▁loved\n": 4743,
      "▁wonder.\n": 4744,
      "▁low,": 4745,
      "▁asserted": 4746,
      "▁glancing": 4747,
      "▁glanced\n": 4748,
      "▁bright\n": 4749,
      "—they": 4750,
      "▁understand.": 4751,
      "▁understand,”": 4752,
      "▁business.": 4753,
      "boat": 4754,
      "ches": 4755,
      "▁snow": 4756,
      "▁snap": 4757,
      "▁body.\n": 4758,
      "▁finished": 4759,
      "▁delighted": 4760,
      "▁deliber": 4761,
      "▁distance": 4762,
      "▁instant": 4763,
      "▁secur": 4764,
      "▁myself\n": 4765,
      "▁myself,": 4766,
      "▁flower": 4767,
      "▁Kay": 4768,
      "▁tax": 4769,
      "▁tapped": 4770,
      "▁corner.": 4771,
      "▁cool,”": 4772,
      "▁past,": 4773,
      "stairs,": 4774,
      "▁Superior": 4775,
      "▁suits": 4776,
      "▁shoes": 4777,
      "▁defiant": 4778,
      "▁promising": 4779,
      "▁expression,": 4780,
      "▁answered.": 4781,
      "osite": 4782,
      "▁actually": 4783,
      "▁drawer": 4784,
      "▁George,": 4785,
      "razy": 4786,
      "▁laughed.\n": 4787,
      "▁crowd,": 4788,
      "-five": 4789,
      "▁wrote": 4790,
      "▁sister,": 4791,
      "▁fallen": 4792,
      "▁pale,": 4793,
      "▁Someone": 4794,
      "▁Catherine.": 4795,
      "▁warm\n": 4796,
      "▁realize": 4797,
      "▁violence": 4798,
      "▁violently": 4799,
      "▁effort.\n": 4800,
      "▁policeman,": 4801,
      "▁tribute": 4802,
      "▁hoped": 4803,
      "▁tomorrow,”": 4804,
      "▁dinner,": 4805,
      "▁shows": 4806,
      "▁keeping": 4807,
      "▁remember,": 4808,
      "▁complete.\n": 4809,
      "▁ceil": 4810,
      "▁cream": 4811,
      "▁fingers.": 4812,
      "▁power": 4813,
      "▁powder": 4814,
      "▁powdered": 4815,
      "▁pleasant": 4816,
      "▁Sound.": 4817,
      "▁outside.": 4818,
      "▁uncom": 4819,
      "▁collap": 4820,
      "▁officers": 4821,
      "▁remarks": 4822,
      "▁sweat": 4823,
      "▁laughter,": 4824,
      "▁exciting": 4825,
      "▁curious,": 4826,
      "-gre": 4827,
      "▁service": 4828,
      "▁hors": 4829,
      "▁horse": 4830,
      "▁mind,": 4831,
      "▁giving": 4832,
      "▁general": 4833,
      "▁smiled.\n": 4834,
      "▁slightly,": 4835,
      "▁pointless": 4836,
      "▁physically": 4837,
      "▁couch,": 4838,
      "▁excitedly": 4839,
      "▁tea.”\n": 4840,
      "▁“They’re": 4841,
      "▁added:": 4842,
      "▁repeated.\n": 4843,
      "▁eagerly": 4844,
      "▁neighbour’s": 4845,
      "ocious": 4846,
      "▁verge": 4847,
      "▁sky.": 4848,
      "▁mother’s": 4849,
      "▁bloomed": 4850,
      "▁“Even": 4851,
      "▁“Just": 4852,
      "▁third": 4853,
      "▁Through": 4854,
      "▁regular": 4855,
      "▁needed": 4856,
      "ultane": 4857,
      "▁anyone\n": 4858,
      "▁anyhow?”": 4859,
      "▁possess": 4860,
      "▁possessed": 4861,
      "▁advant": 4862,
      "▁apartments": 4863,
      "▁cigarettes": 4864,
      "▁irregular": 4865,
      "▁conversation\n": 4866,
      "▁chauffeur,": 4867,
      "bbing": 4868,
      "▁Un": 4869,
      "▁miles": 4870,
      "▁tower": 4871,
      "▁limit": 4872,
      "▁limous": 4873,
      "▁limited": 4874,
      "▁listening": 4875,
      "▁yards": 4876,
      "▁raced": 4877,
      "▁Hot!": 4878,
      "ropri": 4879,
      "▁kitchen,": 4880,
      "▁library,": 4881,
      "▁vaguely": 4882,
      "▁Nobody": 4883,
      "▁trans": 4884,
      "▁transit": 4885,
      "▁complain": 4886,
      "▁“Anything": 4887,
      "▁incessant": 4888,
      "▁including": 4889,
      "▁obliv": 4890,
      "▁silence.": 4891,
      "▁“Going": 4892,
      "▁reluctance": 4893,
      "▁hesitated.": 4894,
      "▁unfamiliar\n": 4895,
      "▁privile": 4896,
      "▁trembling.": 4897,
      "vinc": 4898,
      "▁opportunity": 4899,
      "▁opposite": 4900,
      "▁damn": 4901,
      "▁divor": 4902,
      "▁paper": 4903,
      "▁papers": 4904,
      "▁memor": 4905,
      "▁sea.\n": 4906,
      "▁noon.": 4907,
      "▁quite\n": 4908,
      "▁drifting": 4909,
      "▁“Daisy’s": 4910,
      "▁belonged": 4911,
      "▁darkness.": 4912,
      "▁emotion.": 4913,
      "▁music-room": 4914,
      "▁servants": 4915,
      "▁incredulously.": 4916,
      "▁1919": 4917,
      "▁wreck": 4918,
      "▁bay,": 4919,
      "▁gate.\n": 4920,
      "▁easy": 4921,
      "▁stepped": 4922,
      "▁respons": 4923,
      "▁searched": 4924,
      "▁searching": 4925,
      "▁superior": 4926,
      "▁special": 4927,
      "▁conscient": 4928,
      "▁charming": 4929,
      "▁Finnish": 4930,
      "▁blankly.\n": 4931,
      "▁discreet": 4932,
      "▁goodbye.\n": 4933,
      "▁champagne,": 4934,
      "▁perfectly": 4935,
      "▁enthusiast": 4936,
      "▁enthusiasm": 4937,
      "▁utterly": 4938,
      "▁tangible": 4939,
      "▁sorry": 4940,
      "▁sorry,": 4941,
      "▁centre": 4942,
      "▁fasc": 4943,
      "▁faster": 4944,
      "▁lying": 4945,
      "▁pressure": 4946,
      "▁mystery": 4947,
      "▁shouted": 4948,
      "▁“Hello!”": 4949,
      "▁arrange": 4950,
      "▁arrangement": 4951,
      "▁sometimes,": 4952,
      "▁practical": 4953,
      "▁satisfact": 4954,
      "▁invited.": 4955,
      "▁restaurant": 4956,
      "▁restaurant,": 4957,
      "▁“Mr.": 4958,
      "▁“Mrs.": 4959,
      "▁“Doesn’t": 4960,
      "▁mistake,": 4961,
      "▁generation": 4962,
      "▁stretched\n": 4963,
      "▁Louisville": 4964,
      "▁Louisville.": 4965,
      "▁turbul": 4966,
      "▁temper": 4967,
      "▁witness": 4968,
      "▁wagon": 4969,
      "▁honest": 4970,
      "▁machine": 4971,
      "▁failed": 4972,
      "▁“Really": 4973,
      "onnegtion": 4974,
      "▁inevit": 4975,
      "▁innumerable": 4976,
      "▁lemons": 4977,
      "▁pieces": 4978,
      "▁ecstatic": 4979,
      "▁rumour": 4980,
      "▁annoyed": 4981,
      "▁constant": 4982,
      "▁unusual": 4983,
      "▁universe": 4984,
      "▁jaunt": 4985,
      "▁mansion": 4986,
      "▁eyebrows": 4987,
      "▁clerks": 4988,
      "▁imperson": 4989,
      "▁grotesque": 4990,
      "▁approached": 4991,
      "▁empty": 4992,
      "▁simply": 4993,
      "▁pursu": 4994,
      "▁establ": 4995,
      "▁scepticism": 4996,
      "▁owl-eyed": 4997,
      "▁basket": 4998,
      "▁cyn": 4999,
      "▁faith": 5000,
      "▁ferocious": 5001,
      "▁furniture": 5002,
      "▁“this": 5003,
      "▁palace": 5004,
      "▁parents": 5005,
      "▁yawned": 5006,
      "▁ragged": 5007,
      "▁announced": 5008,
      "▁fragment": 5009,
      "▁Series": 5010,
      "▁success": 5011,
      "▁Avenue": 5012,
      "▁wealthy": 5013,
      "▁shrubber": 5014,
      "▁dock.": 5015,
      "▁Barbara": 5016,
      "▁overwhelming": 5017,
      "▁unsuccess": 5018,
      "▁unwill": 5019,
      "▁exactly": 5020,
      "▁oranges": 5021,
      "▁“Here’s": 5022,
      "▁clouds": 5023,
      "▁described": 5024,
      "▁probably": 5025,
      "▁hospitality": 5026,
      "▁eluded": 5027,
      "▁apolog": 5028,
      "▁crimson": 5029,
      "▁relieved": 5030,
      "▁luncheon": 5031,
      "▁difficulty": 5032,
      "▁resolved": 5033,
      "▁significance": 5034,
      "▁capacity": 5035,
      "▁irresistible": 5036,
      "▁purposeless": 5037,
      "▁unpleasant": 5038,
      "▁investigation": 5039,
      "▁proprietor": 5040,
      "▁Ga-od!": 5041,
      "▁Roosevelt": 5042,
      "▁hydroplane,": 5043,
      "iveness": 5044,
      "▁tumult": 5045,
      "▁swaying": 5046,
      "▁sympath": 5047,
      "▁husky": 5048,
      "▁bureau": 5049,
      "▁breeze": 5050,
      "▁bizarre": 5051,
      "▁borrowed": 5052,
      "▁candles": 5053,
      "iscuit": 5054,
      "▁length": 5055,
      "▁nostr": 5056,
      "▁Tostoff": 5057,
      "▁rigid": 5058,
      "▁sauntered": 5059,
      "▁Metropo": 5060,
      "▁Airedale": 5061,
      "▁conception": 5062,
      "▁unmistak": 5063,
      "▁julep": 5064,
      "▁handkerchief": 5065,
      "▁October": 5066,
      "▁glimpse": 5067,
      "▁coffee.": 5068,
      "▁flannel": 5069,
      "▁“Absolute": 5070,
      "▁perceptible": 5071,
      "▁undergradu": 5072,
      "▁discuss": 5073,
      "▁swollen": 5074,
      "▁half-past": 5075,
      "▁incoherent": 5076,
      "▁tremendous": 5077,
      "▁deliberately": 5078,
      "!\n": 5079,
      ")\n": 5080,
      "-6": 5081,
      "-a": 5082,
      "-r": 5083,
      "-and": 5084,
      "-sed": 5085,
      "-pl": 5086,
      "-no": 5087,
      "-th": 5088,
      "-co": 5089,
      "-leas": 5090,
      "-a-": 5091,
      ".00": 5092,
      ".m.\n": 5093,
      "4:30": 5094,
      "5:00": 5095,
      "Daisy": 5096,
      "a\n": 5097,
      "aked": 5098,
      "a?”\n": 5099,
      "aff": 5100,
      "a-f": 5101,
      "aven’t": 5102,
      "ailles.": 5103,
      "bon": 5104,
      "big": 5105,
      "bach": 5106,
      "bled": 5107,
      "body,": 5108,
      "cas": 5109,
      "cid": 5110,
      "cest": 5111,
      "cul": 5112,
      "ced\n": 5113,
      "certain": 5114,
      "ciet": 5115,
      "cle,": 5116,
      "cilious": 5117,
      "de": 5118,
      "dard": 5119,
      "die": 5120,
      "dge": 5121,
      "e-": 5122,
      "eing": 5123,
      "eal": 5124,
      "eke": 5125,
      "ept": 5126,
      "either": 5127,
      "f,": 5128,
      "fa": 5129,
      "fl": 5130,
      "fer": 5131,
      "face": 5132,
      "gu": 5133,
      "ger": 5134,
      "gan": 5135,
      "ges": 5136,
      "gain": 5137,
      "gest": 5138,
      "gonne": 5139,
      "hou": 5140,
      "hard": 5141,
      "hol": 5142,
      "hist": 5143,
      "ik": 5144,
      "io": 5145,
      "iol": 5146,
      "iest": 5147,
      "iod": 5148,
      "iation": 5149,
      "ily.": 5150,
      "iving": 5151,
      "ier,": 5152,
      "ied.": 5153,
      "iative": 5154,
      "ially,": 5155,
      "iency": 5156,
      "jar": 5157,
      "jam": 5158,
      "jug": 5159,
      "k,": 5160,
      "ks.": 5161,
      "king,": 5162,
      "lu": 5163,
      "lv": 5164,
      "lor": 5165,
      "lad": 5166,
      "ls.": 5167,
      "ler,": 5168,
      "led,": 5169,
      "lance": 5170,
      "ling\n": 5171,
      "les,": 5172,
      "lish": 5173,
      "lined": 5174,
      "looked": 5175,
      "lcome": 5176,
      "mag": 5177,
      "mer,": 5178,
      "mers": 5179,
      "ming\n": 5180,
      "maid": 5181,
      "n\n": 5182,
      "nis": 5183,
      "now": 5184,
      "nic": 5185,
      "nce": 5186,
      "nell": 5187,
      "nec": 5188,
      "nice": 5189,
      "nment": 5190,
      "nished": 5191,
      "oed": 5192,
      "oing": 5193,
      "onder": 5194,
      "osp": 5195,
      "ointed": 5196,
      "ooned": 5197,
      "phe": 5198,
      "pec": 5199,
      "plo": 5200,
      "posed": 5201,
      "rat": 5202,
      "ron": 5203,
      "rid": 5204,
      "ront": 5205,
      "rical": 5206,
      "ser": 5207,
      "ses": 5208,
      "sum": 5209,
      "s—and": 5210,
      "tent": 5211,
      "ty,": 5212,
      "tically": 5213,
      "tons": 5214,
      "ux": 5215,
      "und": 5216,
      "uing": 5217,
      "uol": 5218,
      "us,": 5219,
      "uated": 5220,
      "ups": 5221,
      "undred": 5222,
      "vant": 5223,
      "vag": 5224,
      "ves,": 5225,
      "ville": 5226,
      "wais": 5227,
      "wau": 5228,
      "what": 5229,
      "wear": 5230,
      "wich": 5231,
      "ware": 5232,
      "wenty": 5233,
      "while": 5234,
      "welve": 5235,
      "xim": 5236,
      "xop": 5237,
      "y;": 5238,
      "yre": 5239,
      "ying": 5240,
      "ying\n": 5241,
      "zy": 5242,
      "zed": 5243,
      "—H": 5244,
      "—W": 5245,
      "—d": 5246,
      "—at": 5247,
      "—on": 5248,
      "—an": 5249,
      "—al": 5250,
      "—one": 5251,
      "—un": 5252,
      "—ne": 5253,
      "—most": 5254,
      "—ex": 5255,
      "—ea": 5256,
      "—not": 5257,
      "—just": 5258,
      "—do": 5259,
      "’\n": 5260,
      "’?”": 5261,
      "”—but": 5262,
      "▁$": 5263,
      "▁6": 5264,
      "▁7": 5265,
      "▁[": 5266,
      "▁”": 5267,
      "▁er": 5268,
      "▁es": 5269,
      "▁id": 5270,
      "▁iv": 5271,
      "▁tall": 5272,
      "▁test": 5273,
      "▁tide": 5274,
      "▁tig": 5275,
      "▁tap": 5276,
      "▁tough": 5277,
      "▁tumbled": 5278,
      "▁tiny": 5279,
      "▁tyre": 5280,
      "hes.": 5281,
      "hester": 5282,
      "hetic": 5283,
      "▁ach": 5284,
      "▁ajar": 5285,
      "inent": 5286,
      "inth": 5287,
      "ines.\n": 5288,
      "inized": 5289,
      "incid": 5290,
      "▁west": 5291,
      "▁wist": 5292,
      "▁wake": 5293,
      "▁wiv": 5294,
      "▁wish": 5295,
      "▁wan,": 5296,
      "▁wives": 5297,
      "▁wicker": 5298,
      "▁som": 5299,
      "▁sir": 5300,
      "▁sch": 5301,
      "▁sout": 5302,
      "▁sang": 5303,
      "▁sought": 5304,
      "▁south": 5305,
      "▁sixt": 5306,
      "▁theat": 5307,
      "▁oil": 5308,
      "▁oce": 5309,
      "▁owe": 5310,
      "▁orig": 5311,
      "eding": 5312,
      "edom": 5313,
      "nd,": 5314,
      "ndled": 5315,
      "ern": 5316,
      "erem": 5317,
      "erous": 5318,
      "erves": 5319,
      "▁hang": 5320,
      "▁hated": 5321,
      "▁hushed": 5322,
      "▁hunted": 5323,
      "▁hulking": 5324,
      "athe": 5325,
      "aten": 5326,
      "ates": 5327,
      "atsp": 5328,
      "atching": 5329,
      "atically.\n": 5330,
      "atform": 5331,
      "▁ming": 5332,
      "▁mas": 5333,
      "▁main": 5334,
      "▁mant": 5335,
      "▁massed": 5336,
      "▁maid": 5337,
      "▁missed": 5338,
      "▁mumbled": 5339,
      "▁ben": 5340,
      "▁bow": 5341,
      "▁bir": 5342,
      "▁band": 5343,
      "▁bust": 5344,
      "▁bord": 5345,
      "▁bill": 5346,
      "▁bul": 5347,
      "▁bum": 5348,
      "▁burn": 5349,
      "▁born": 5350,
      "▁bed,": 5351,
      "▁brave": 5352,
      "▁bened": 5353,
      "▁burning": 5354,
      "▁brief": 5355,
      "▁bunch": 5356,
      "▁batt": 5357,
      "▁biscuit": 5358,
      "its": 5359,
      "iter": 5360,
      "iting": 5361,
      "itew": 5362,
      "itting": 5363,
      "itud": 5364,
      "itched": 5365,
      "itiative": 5366,
      "ittent": 5367,
      "▁cot": 5368,
      "▁coo": 5369,
      "▁cro": 5370,
      "▁cri": 5371,
      "▁cem": 5372,
      "▁crou": 5373,
      "▁cell": 5374,
      "▁cau": 5375,
      "▁cab": 5376,
      "▁cute": 5377,
      "▁caut": 5378,
      "▁cup": 5379,
      "▁cuff": 5380,
      "▁cooked": 5381,
      "▁cakes": 5382,
      "▁civiliz": 5383,
      "▁cups": 5384,
      "▁cerem": 5385,
      "▁fly": 5386,
      "▁fem": 5387,
      "▁fart": 5388,
      "▁fare": 5389,
      "▁food": 5390,
      "▁fix": 5391,
      "▁fumbled": 5392,
      "▁favour": 5393,
      "isk": 5394,
      "ises": 5395,
      "ision": 5396,
      "isher": 5397,
      "ish,": 5398,
      "en\n": 5399,
      "en,": 5400,
      "enant": 5401,
      "enry": 5402,
      "enced": 5403,
      "ingly,": 5404,
      "inguished": 5405,
      "▁“a": 5406,
      "▁“it": 5407,
      "▁“if": 5408,
      "▁“we": 5409,
      "▁“nice": 5410,
      "▁tot": 5411,
      "▁tong": 5412,
      "▁to—”\n": 5413,
      "on;": 5414,
      "▁dil": 5415,
      "▁dew": 5416,
      "▁due": 5417,
      "▁duck": 5418,
      "▁dash": 5419,
      "▁daught": 5420,
      "▁dining": 5421,
      "▁ditch": 5422,
      "▁dirty": 5423,
      "orious": 5424,
      "orry": 5425,
      "orily": 5426,
      "orid\n": 5427,
      "asted": 5428,
      "▁in,": 5429,
      "▁in.”\n": 5430,
      "▁inher": 5431,
      "▁initiative": 5432,
      "▁lan": 5433,
      "▁lust": 5434,
      "▁lang": 5435,
      "▁lather": 5436,
      "▁luck": 5437,
      "▁line,": 5438,
      "▁lux": 5439,
      "▁lasted": 5440,
      "▁hen": 5441,
      "▁height": 5442,
      "▁he?”": 5443,
      "▁heap": 5444,
      "▁hedge": 5445,
      "ari": 5446,
      "arl": 5447,
      "ary\n": 5448,
      "arrowed": 5449,
      "om\n": 5450,
      "omen": 5451,
      "ano": 5452,
      "ans": 5453,
      "ania": 5454,
      "anations": 5455,
      "anitor": 5456,
      "ancho": 5457,
      "▁thre": 5458,
      "▁thinning": 5459,
      "▁thorough": 5460,
      "lly": 5461,
      "lling": 5462,
      "esot": 5463,
      "ester": 5464,
      "esmen": 5465,
      "▁gy": 5466,
      "▁gown": 5467,
      "▁gra": 5468,
      "▁gazed": 5469,
      "▁pet": 5470,
      "▁prou": 5471,
      "▁pau": 5472,
      "▁pip": 5473,
      "▁paint": 5474,
      "▁paid": 5475,
      "▁push": 5476,
      "▁penn": 5477,
      "▁pantry": 5478,
      "▁pushing": 5479,
      "▁pupp": 5480,
      "▁patern": 5481,
      "▁wasting": 5482,
      "▁habit": 5483,
      "▁halt,": 5484,
      "let": 5485,
      "leaf": 5486,
      "uther": 5487,
      "utenant": 5488,
      "ly:\n": 5489,
      "▁numb": 5490,
      "▁national": 5491,
      "▁narrowed": 5492,
      "iday": 5493,
      "idly.": 5494,
      "▁ech": 5495,
      "▁east": 5496,
      "▁eat,": 5497,
      "▁echo": 5498,
      "▁be.": 5499,
      "▁bew": 5500,
      "▁bear": 5501,
      "▁be.\n": 5502,
      "▁beard": 5503,
      "▁beamed": 5504,
      "▁begged": 5505,
      "icke": 5506,
      "icity": 5507,
      "icab": 5508,
      "icited": 5509,
      "icture": 5510,
      "iction": 5511,
      "iciency": 5512,
      "imal": 5513,
      "immed": 5514,
      "ste": 5515,
      "step": 5516,
      "strained": 5517,
      "storia": 5518,
      "▁that.”\n": 5519,
      "▁that—I": 5520,
      "▁undes": 5521,
      "▁Tay": 5522,
      "▁Turning": 5523,
      "▁Tuol": 5524,
      "▁Twenty": 5525,
      "▁on!”": 5526,
      "▁one,\n": 5527,
      "ver,": 5528,
      "vernment": 5529,
      "enth": 5530,
      "entur": 5531,
      "entous": 5532,
      "ently,": 5533,
      "ential": 5534,
      "entral": 5535,
      "veal": 5536,
      "▁you?": 5537,
      "▁you.”": 5538,
      "et\n": 5539,
      "ett": 5540,
      "etro": 5541,
      "ette": 5542,
      "▁it?": 5543,
      "▁it—I": 5544,
      "ay.\n": 5545,
      "ay’s": 5546,
      "oted": 5547,
      "seas": 5548,
      "acy": 5549,
      "acing,": 5550,
      "ac—”\n": 5551,
      "acles": 5552,
      "▁ring": 5553,
      "▁rid": 5554,
      "▁roo": 5555,
      "▁ram": 5556,
      "▁rust": 5557,
      "▁rul": 5558,
      "▁rare": 5559,
      "▁riv": 5560,
      "▁rud": 5561,
      "▁rough": 5562,
      "▁rise": 5563,
      "▁river": 5564,
      "▁rug": 5565,
      "▁rule": 5566,
      "▁riding": 5567,
      "▁rotten": 5568,
      "▁stre": 5569,
      "▁stag": 5570,
      "▁stable": 5571,
      "▁stare": 5572,
      "▁stab": 5573,
      "▁stale": 5574,
      "▁stup": 5575,
      "▁whip": 5576,
      "▁wholes": 5577,
      "▁whitew": 5578,
      "alf": 5579,
      "▁ate": 5580,
      "▁attain": 5581,
      "▁had.”\n": 5582,
      "ury": 5583,
      "urance": 5584,
      "urbed": 5585,
      "▁antic": 5586,
      "▁ancest": 5587,
      "▁me?”": 5588,
      "ades": 5589,
      "ad’s": 5590,
      "adour": 5591,
      "adame": 5592,
      "adays": 5593,
      "▁hers,": 5594,
      "▁her,\n": 5595,
      "▁her—that": 5596,
      "▁rec": 5597,
      "▁repl": 5598,
      "▁rent": 5599,
      "▁reapp": 5600,
      "▁recent": 5601,
      "▁revel": 5602,
      "▁for,": 5603,
      "▁for.": 5604,
      "▁fort": 5605,
      "▁forced": 5606,
      "ams": 5607,
      "ampt": 5608,
      "amber": 5609,
      "tered.": 5610,
      "▁asp": 5611,
      "▁ashen": 5612,
      "▁ascertain": 5613,
      "▁“I\n": 5614,
      "ight,": 5615,
      "▁Go": 5616,
      "▁Gen": 5617,
      "▁Gad’s": 5618,
      "ion.”\n": 5619,
      "ions,": 5620,
      "ionless": 5621,
      "▁Hor": 5622,
      "▁Hist": 5623,
      "▁Henry": 5624,
      "▁Half": 5625,
      "iless": 5626,
      "ility": 5627,
      "▁frost": 5628,
      "▁save": 5629,
      "▁sail": 5630,
      "▁saxop": 5631,
      "▁White": 5632,
      "▁him?": 5633,
      "▁him?”\n": 5634,
      "▁him.”": 5635,
      "▁sheer": 5636,
      "▁sheet": 5637,
      "▁shelf": 5638,
      "▁sheep": 5639,
      "roving": 5640,
      "roken": 5641,
      "rolled": 5642,
      "rogant": 5643,
      "▁Mar": 5644,
      "▁My\n": 5645,
      "▁Minn": 5646,
      "▁Mond": 5647,
      "cell": 5648,
      "cended": 5649,
      "alls": 5650,
      "allic": 5651,
      "rip": 5652,
      "rier": 5653,
      "riage": 5654,
      "▁Gatsby?”\n": 5655,
      "▁Sl": 5656,
      "▁Sea": 5657,
      "▁Simon": 5658,
      "▁Several": 5659,
      "▁Sept": 5660,
      "▁Snell": 5661,
      "▁Sitting": 5662,
      "▁send": 5663,
      "▁seat": 5664,
      "▁sees": 5665,
      "▁see,": 5666,
      "▁seized": 5667,
      "▁sends": 5668,
      "▁seats": 5669,
      "▁seventeen": 5670,
      "▁suite": 5671,
      "▁sung": 5672,
      "▁A\n": 5673,
      "▁Ad": 5674,
      "▁Am": 5675,
      "▁Ang": 5676,
      "▁Aug": 5677,
      "▁Again": 5678,
      "▁Astoria": 5679,
      "▁Da": 5680,
      "▁Du": 5681,
      "▁Don": 5682,
      "▁Don’t": 5683,
      "▁Daddy": 5684,
      "▁Detro": 5685,
      "▁up.”\n": 5686,
      "▁said;": 5687,
      "▁said,\n": 5688,
      "▁said—but": 5689,
      "▁wear": 5690,
      "▁wearing": 5691,
      "▁weeke": 5692,
      "▁welcome": 5693,
      "▁shall": 5694,
      "▁shame": 5695,
      "▁shop": 5696,
      "▁shade": 5697,
      "▁shuff": 5698,
      "▁do.": 5699,
      "▁do.”\n": 5700,
      "▁do?”\n": 5701,
      "▁doing,": 5702,
      "ore,": 5703,
      "orest": 5704,
      "pper": 5705,
      "andal": 5706,
      "▁intent": 5707,
      "▁intently": 5708,
      "▁intrig": 5709,
      "essential": 5710,
      "oling": 5711,
      "olum": 5712,
      "olunt": 5713,
      "olic,": 5714,
      "▁all.”": 5715,
      "▁abort": 5716,
      "▁abound": 5717,
      "▁Bec": 5718,
      "ourne": 5719,
      "ust.": 5720,
      "▁but,": 5721,
      "▁butler,": 5722,
      "▁buttons": 5723,
      "▁“Would": 5724,
      "▁“Well": 5725,
      "age,": 5726,
      "ages.": 5727,
      "ages\n": 5728,
      "▁wheat": 5729,
      "▁var": 5730,
      "▁val": 5731,
      "hings": 5732,
      "▁Daisy!": 5733,
      "ssip": 5734,
      "owned": 5735,
      "esty": 5736,
      "▁there?”": 5737,
      "▁there’d": 5738,
      "ellig": 5739,
      "▁sob": 5740,
      "▁so,”": 5741,
      "▁so?”\n": 5742,
      "▁sogg": 5743,
      "▁soothing": 5744,
      "▁societ": 5745,
      "▁sofa": 5746,
      "▁over\n": 5747,
      "▁overh": 5748,
      "▁over.\n": 5749,
      "▁overseas": 5750,
      "▁alread": 5751,
      "▁sped": 5752,
      "▁spir": 5753,
      "▁spree": 5754,
      "▁spee": 5755,
      "▁spilled": 5756,
      "▁spasm": 5757,
      "▁conc": 5758,
      "▁conve": 5759,
      "▁conting": 5760,
      "▁concer": 5761,
      "▁consequ": 5762,
      "ecil": 5763,
      "▁unsc": 5764,
      "▁unkn": 5765,
      "quin": 5766,
      "▁go,": 5767,
      "▁go?”": 5768,
      "▁government": 5769,
      "▁gossip": 5770,
      "unty": 5771,
      "unting\n": 5772,
      "aste": 5773,
      "asting": 5774,
      "astly": 5775,
      "ode": 5776,
      "▁exh": 5777,
      "▁exting": 5778,
      "▁exte": 5779,
      "ords": 5780,
      "ording": 5781,
      "ordic": 5782,
      "elf": 5783,
      "elpiece": 5784,
      "orts": 5785,
      "▁ju": 5786,
      "▁jing": 5787,
      "▁jut": 5788,
      "▁jazz": 5789,
      "▁janitor": 5790,
      "aud": 5791,
      "auk": 5792,
      "augh": 5793,
      "▁man\n": 5794,
      "▁mann": 5795,
      "▁man,\n": 5796,
      "▁man.”": 5797,
      "▁many\n": 5798,
      "▁manner": 5799,
      "▁lever": 5800,
      "▁lege": 5801,
      "▁leaking": 5802,
      "▁level": 5803,
      "▁learn": 5804,
      "▁about.”\n": 5805,
      "▁rolled": 5806,
      "▁rosy": 5807,
      "aken": 5808,
      "▁Co": 5809,
      "▁Can": 5810,
      "▁Col": 5811,
      "▁Cast": 5812,
      "▁City": 5813,
      "▁Cont": 5814,
      "▁Cath": 5815,
      "▁Camp": 5816,
      "▁Cody,": 5817,
      "▁Called": 5818,
      "▁Coney": 5819,
      "▁Chester": 5820,
      "▁Central": 5821,
      "▁Cecil": 5822,
      "usive": 5823,
      "used,": 5824,
      "▁nephe": 5825,
      "▁somehow": 5826,
      "ulent": 5827,
      "ulation": 5828,
      "ulity": 5829,
      "ulting": 5830,
      "ulated": 5831,
      "ulating": 5832,
      "▁chor": 5833,
      "▁chall": 5834,
      "▁chick": 5835,
      "▁chiff": 5836,
      "▁chamber": 5837,
      "▁chords": 5838,
      "▁J.\n": 5839,
      "hedule": 5840,
      "arty": 5841,
      "▁one,”": 5842,
      "umin": 5843,
      "umble": 5844,
      "umpt": 5845,
      "▁down.”\n": 5846,
      "▁down,\n": 5847,
      "▁orders": 5848,
      "▁did?”\n": 5849,
      "▁is,": 5850,
      "▁island": 5851,
      "▁anywhere": 5852,
      "▁back.\n": 5853,
      "▁back.”\n": 5854,
      "▁back,\n": 5855,
      "▁“Twelve": 5856,
      "▁by,": 5857,
      "▁by.": 5858,
      "venir": 5859,
      "▁they’d": 5860,
      "▁they’ll": 5861,
      "▁Every": 5862,
      "▁Each": 5863,
      "▁Excuse": 5864,
      "▁Eastern": 5865,
      "▁Earl": 5866,
      "ate.": 5867,
      "▁too?”": 5868,
      "▁Nove": 5869,
      "▁North": 5870,
      "▁Nordic": 5871,
      "▁car\n": 5872,
      "▁cared": 5873,
      "▁car,”": 5874,
      "▁cars,": 5875,
      "▁cars.": 5876,
      "▁carpet": 5877,
      "▁not.": 5878,
      "▁note": 5879,
      "▁not,”": 5880,
      "▁not?”\n": 5881,
      "▁noticed": 5882,
      "▁Mrs.\n": 5883,
      "▁trick": 5884,
      "▁literally": 5885,
      "ice\n": 5886,
      "▁knowing": 5887,
      "pt\n": 5888,
      "ick,": 5889,
      "icking": 5890,
      "▁eye.": 5891,
      "ists": 5892,
      "istic": 5893,
      "aps,": 5894,
      "▁no\n": 5895,
      "▁house.\n": 5896,
      "▁house-p": 5897,
      "▁twin": 5898,
      "▁twinkle": 5899,
      "▁twisting": 5900,
      "▁wanted\n": 5901,
      "▁faces,": 5902,
      "▁faces.": 5903,
      "▁face,\n": 5904,
      "▁went\n": 5905,
      "anged": 5906,
      "angle": 5907,
      "▁now;": 5908,
      "ie\n": 5909,
      "▁eyesore,": 5910,
      "▁then.": 5911,
      "▁them\n": 5912,
      "arest": 5913,
      "▁Out": 5914,
      "▁Over": 5915,
      "▁again.”\n": 5916,
      "▁again,\n": 5917,
      "▁Father": 5918,
      "▁Fift": 5919,
      "▁Fifty": 5920,
      "▁Forest": 5921,
      "▁“Hot": 5922,
      "▁“Hold": 5923,
      "▁gotten": 5924,
      "▁before.”\n": 5925,
      "▁before,”": 5926,
      "▁before,\n": 5927,
      "▁before—and": 5928,
      "sed.": 5929,
      "▁comb": 5930,
      "▁comment": 5931,
      "▁comin’": 5932,
      "▁what?”\n": 5933,
      "▁old.": 5934,
      "▁“You’ll": 5935,
      "▁glare": 5936,
      "▁glazed": 5937,
      "▁didn’t,": 5938,
      "▁didn’t.": 5939,
      "ered.\n": 5940,
      "▁arrogant": 5941,
      "▁moments": 5942,
      "▁momentary": 5943,
      "▁cond": 5944,
      "▁cover": 5945,
      "▁condes": 5946,
      "▁coincid": 5947,
      "▁nights": 5948,
      "▁night,\n": 5949,
      "▁way\n": 5950,
      "▁way,”": 5951,
      "▁off\n": 5952,
      "▁off.": 5953,
      "▁off,”": 5954,
      "ile\n": 5955,
      "ies.": 5956,
      "▁impl": 5957,
      "▁quiver": 5958,
      "▁more.\n": 5959,
      "▁doors": 5960,
      "▁door.”\n": 5961,
      "▁looking\n": 5962,
      "▁smil": 5963,
      "▁smashed": 5964,
      "▁flight": 5965,
      "▁fluct": 5966,
      "▁flicker": 5967,
      "▁flashing": 5968,
      "▁flavour": 5969,
      "▁florid\n": 5970,
      "▁deg": 5971,
      "▁deft": 5972,
      "▁think,": 5973,
      "▁removed": 5974,
      "▁mine.": 5975,
      "▁brass": 5976,
      "▁brace": 5977,
      "▁brushed": 5978,
      "▁bringing": 5979,
      "▁brakes": 5980,
      "▁brisk": 5981,
      "▁“An": 5982,
      "▁“After": 5983,
      "▁Jordan\n": 5984,
      "▁blow": 5985,
      "▁blood": 5986,
      "▁blazing": 5987,
      "ure\n": 5988,
      "▁around,": 5989,
      "▁around.\n": 5990,
      "▁around.”\n": 5991,
      "▁other.": 5992,
      "▁other.\n": 5993,
      "▁girders": 5994,
      "aired": 5995,
      "air.\n": 5996,
      "iously.\n": 5997,
      "▁perempt": 5998,
      "▁perman": 5999,
      "▁acute": 6000,
      "▁peered": 6001,
      "▁pebb": 6002,
      "▁peering": 6003,
      "▁girl.”\n": 6004,
      "▁“Sit": 6005,
      "▁“Sure": 6006,
      "▁“Supp": 6007,
      "▁“Sorry": 6008,
      "▁plaid": 6009,
      "▁platform": 6010,
      "▁everywhere": 6011,
      "rowing": 6012,
      "ated,": 6013,
      "▁cannot": 6014,
      "▁loaf": 6015,
      "▁long.": 6016,
      "▁longer,": 6017,
      "▁longer.": 6018,
      "▁going?”": 6019,
      "▁rooms.": 6020,
      "▁day\n": 6021,
      "▁day.\n": 6022,
      "▁day.”\n": 6023,
      "▁underne": 6024,
      "▁underwear": 6025,
      "▁which,": 6026,
      "▁time.\n": 6027,
      "▁thing,": 6028,
      "▁things.": 6029,
      "▁through\n": 6030,
      "▁made\n": 6031,
      "▁come,”": 6032,
      "▁come?”\n": 6033,
      "▁something.": 6034,
      "▁dry": 6035,
      "▁drain": 6036,
      "▁drowned": 6037,
      "▁lightly": 6038,
      "▁light.”\n": 6039,
      "▁light,”": 6040,
      "▁lights\n": 6041,
      "abit": 6042,
      "▁Le": 6043,
      "▁Look": 6044,
      "▁Leg": 6045,
      "▁Little": 6046,
      "▁Luther": 6047,
      "▁wave": 6048,
      "▁wail": 6049,
      "▁slip": 6050,
      "▁slapp": 6051,
      "▁slipped": 6052,
      "▁slipp": 6053,
      "▁disquiet": 6054,
      "▁prep": 6055,
      "▁pre-c": 6056,
      "▁preced": 6057,
      "▁prevent": 6058,
      "▁year,": 6059,
      "▁years,": 6060,
      "▁wherever": 6061,
      "sperous": 6062,
      "here’s": 6063,
      "ersailles.": 6064,
      "▁But,": 6065,
      "▁am,": 6066,
      "▁amazed": 6067,
      "▁amused": 6068,
      "▁ambit": 6069,
      "▁amazing": 6070,
      "▁worse": 6071,
      "▁worry": 6072,
      "ry.\n": 6073,
      "ryst": 6074,
      "—th": 6075,
      "—to": 6076,
      "▁oper": 6077,
      "ance.": 6078,
      "▁stars": 6079,
      "▁windy": 6080,
      "▁wind.\n": 6081,
      "▁scre": 6082,
      "▁scient": 6083,
      "▁science": 6084,
      "▁scandal": 6085,
      "▁schedule": 6086,
      "▁say\n": 6087,
      "▁say:": 6088,
      "▁say.\n": 6089,
      "▁saying,": 6090,
      "▁saying.": 6091,
      "▁“Next": 6092,
      "▁“Neither": 6093,
      "▁“Or": 6094,
      "▁“Open": 6095,
      "▁swore": 6096,
      "▁sworn": 6097,
      "▁swung": 6098,
      "▁swamps": 6099,
      "▁saw.": 6100,
      "▁call\n": 6101,
      "▁fever": 6102,
      "▁parties,": 6103,
      "▁contr": 6104,
      "▁contour": 6105,
      "▁contained": 6106,
      "▁contral": 6107,
      "▁contribut": 6108,
      "uend": 6109,
      "ueen": 6110,
      "▁sport’": 6111,
      "▁sport?”": 6112,
      "▁sport.”": 6113,
      "▁first\n": 6114,
      "▁box": 6115,
      "▁boom": 6116,
      "▁board": 6117,
      "ission": 6118,
      "▁began.": 6119,
      "▁began.\n": 6120,
      "▁voice:\n": 6121,
      "▁minute.": 6122,
      "bert": 6123,
      "ness.": 6124,
      "▁P.": 6125,
      "▁Par": 6126,
      "▁Pet": 6127,
      "▁Port": 6128,
      "▁Palm": 6129,
      "▁Penn": 6130,
      "▁Point": 6131,
      "▁half-": 6132,
      "▁half-h": 6133,
      "▁right\n": 6134,
      "▁We’ll": 6135,
      "▁took\n": 6136,
      "▁head,": 6137,
      "▁headlight": 6138,
      "▁“What?”\n": 6139,
      "▁“What?”": 6140,
      "▁“What’ll": 6141,
      "▁are,": 6142,
      "▁are.”\n": 6143,
      "▁clan": 6144,
      "▁club": 6145,
      "▁clicked": 6146,
      "▁foam": 6147,
      "▁driven": 6148,
      "▁drizz": 6149,
      "anced": 6150,
      "ancis": 6151,
      "▁New\n": 6152,
      "th,": 6153,
      "▁obst": 6154,
      "▁obser": 6155,
      "▁men’s": 6156,
      "▁last\n": 6157,
      "▁impul": 6158,
      "▁imposs": 6159,
      "▁improving": 6160,
      "ize": 6161,
      "▁told\n": 6162,
      "▁while,": 6163,
      "▁face—the": 6164,
      "▁afternoon?”\n": 6165,
      "▁grant": 6166,
      "▁polite,": 6167,
      "▁new\n": 6168,
      "▁asked,": 6169,
      "▁marred": 6170,
      "▁marshe": 6171,
      "▁marrying": 6172,
      "▁phone,": 6173,
      "▁coupl": 6174,
      "▁thanks.": 6175,
      "▁white-pl": 6176,
      "▁inside,": 6177,
      "▁until,": 6178,
      "▁left\n": 6179,
      "▁prin": 6180,
      "▁printed": 6181,
      "▁prac—”\n": 6182,
      "▁happy,": 6183,
      "▁happiness": 6184,
      "▁West\n": 6185,
      "▁West,": 6186,
      "▁founded": 6187,
      "▁invari": 6188,
      "▁involunt": 6189,
      "▁excused": 6190,
      "▁window\n": 6191,
      "▁window.\n": 6192,
      "▁windows,": 6193,
      "▁tender": 6194,
      "▁breast": 6195,
      "▁design": 6196,
      "▁descended": 6197,
      "▁match": 6198,
      "▁much,": 6199,
      "▁much.”\n": 6200,
      "▁dark,": 6201,
      "▁process": 6202,
      "▁provinc": 6203,
      "▁proxim": 6204,
      "▁alongside": 6205,
      "▁exper": 6206,
      "▁express": 6207,
      "▁“These": 6208,
      "▁I’m\n": 6209,
      "▁arm\n": 6210,
      "▁arm,": 6211,
      "▁advent": 6212,
      "▁adjust": 6213,
      "▁owned": 6214,
      "▁own.\n": 6215,
      "▁resting": 6216,
      "▁“I’m\n": 6217,
      "▁small,": 6218,
      "ful,\n": 6219,
      "fulness": 6220,
      "▁silhou": 6221,
      "▁“Le": 6222,
      "▁garden,\n": 6223,
      "▁reput": 6224,
      "▁reporter": 6225,
      "▁reports": 6226,
      "▁York.”\n": 6227,
      "▁York—and": 6228,
      "▁ends": 6229,
      "▁end.\n": 6230,
      "▁endure": 6231,
      "ible.": 6232,
      "▁Ro": 6233,
      "▁Res": 6234,
      "▁Rise": 6235,
      "▁Read": 6236,
      "▁dress\n": 6237,
      "▁dresses,": 6238,
      "▁garnished": 6239,
      "▁strong": 6240,
      "▁suppl": 6241,
      "▁support": 6242,
      "▁nothing,": 6243,
      "▁nothing.\n": 6244,
      "▁Baker.": 6245,
      "▁Baker’s": 6246,
      "▁Baker?”\n": 6247,
      "▁happen?”\n": 6248,
      "▁key": 6249,
      "▁table.": 6250,
      "ertainly": 6251,
      "▁five,": 6252,
      "▁inquest": 6253,
      "▁seen\n": 6254,
      "▁append": 6255,
      "▁appropri": 6256,
      "▁war,": 6257,
      "▁war.": 6258,
      "▁surer": 6259,
      "▁surface": 6260,
      "ish\n": 6261,
      "ishment": 6262,
      "ishment,": 6263,
      "▁once\n": 6264,
      "▁steps.": 6265,
      "▁shoulder,": 6266,
      "▁shoulder.\n": 6267,
      "igned": 6268,
      "▁compre": 6269,
      "▁company": 6270,
      "▁compelled": 6271,
      "▁courage": 6272,
      "▁courtes": 6273,
      "▁“Crazy": 6274,
      "▁“Certainly": 6275,
      "▁drops": 6276,
      "▁himself,": 6277,
      "▁himself.": 6278,
      "▁Chryst": 6279,
      "▁years,”": 6280,
      "▁years?”\n": 6281,
      "eezed": 6282,
      "▁home.”\n": 6283,
      "▁career": 6284,
      "▁decl": 6285,
      "▁decent": 6286,
      "▁decency": 6287,
      "▁stood\n": 6288,
      "▁whistle": 6289,
      "▁answer.\n": 6290,
      "▁answering": 6291,
      "▁sun,": 6292,
      "▁sun’s": 6293,
      "▁sunken": 6294,
      "▁sun-st": 6295,
      "▁handsome": 6296,
      "▁couldn’t\n": 6297,
      "▁friend.": 6298,
      "▁adding": 6299,
      "▁stove": 6300,
      "▁stopp": 6301,
      "▁stopping": 6302,
      "▁standard": 6303,
      "▁roadhouse": 6304,
      "▁world\n": 6305,
      "▁world.”\n": 6306,
      "mblance": 6307,
      "▁You’re": 6308,
      "▁hovering": 6309,
      "▁metallic": 6310,
      "▁“Yes.": 6311,
      "▁good.": 6312,
      "▁gave\n": 6313,
      "▁elicited": 6314,
      "▁well-d": 6315,
      "▁well-f": 6316,
      "▁accoun": 6317,
      "▁accomp": 6318,
      "▁accused": 6319,
      "▁according": 6320,
      "▁matter.": 6321,
      "▁mattered": 6322,
      "▁matter?”\n": 6323,
      "▁‘G": 6324,
      "▁‘I": 6325,
      "▁‘L": 6326,
      "▁‘old": 6327,
      "▁air\n": 6328,
      "▁few\n": 6329,
      "▁hearse": 6330,
      "▁those\n": 6331,
      "▁guilt": 6332,
      "▁absently.": 6333,
      "▁across\n": 6334,
      "▁everything.": 6335,
      "▁everything’s": 6336,
      "▁slow,": 6337,
      "▁morning.": 6338,
      "▁morning.\n": 6339,
      "▁Buchanan.": 6340,
      "▁Buchanan.”\n": 6341,
      "▁Buchanans’": 6342,
      "—we": 6343,
      "—when": 6344,
      "—while": 6345,
      "▁sentence": 6346,
      "▁sound,": 6347,
      "▁“Miss": 6348,
      "▁“M-a-": 6349,
      "▁indic": 6350,
      "▁indec": 6351,
      "▁individ": 6352,
      "▁yellow\n": 6353,
      "▁yellow,": 6354,
      "▁meaning": 6355,
      "▁president": 6356,
      "▁presently": 6357,
      "▁minute\n": 6358,
      "▁minute.”\n": 6359,
      "▁between.": 6360,
      "▁surprise.": 6361,
      "▁talking\n": 6362,
      "▁authen": 6363,
      "▁walked\n": 6364,
      "▁side-st": 6365,
      "▁hot,”": 6366,
      "▁money\n": 6367,
      "▁check": 6368,
      "▁cheap": 6369,
      "▁floating": 6370,
      "anking": 6371,
      "▁nod,": 6372,
      "▁nodding": 6373,
      "▁St.": 6374,
      "▁Star": 6375,
      "▁Stand": 6376,
      "▁Study": 6377,
      "▁weeks,": 6378,
      "▁dog,": 6379,
      "▁dogs": 6380,
      "▁dog,”": 6381,
      "▁dog-leas": 6382,
      "▁anything,": 6383,
      "▁anything.": 6384,
      "▁Nick,": 6385,
      "▁Nick.": 6386,
      "▁Nick?": 6387,
      "▁feet,": 6388,
      "▁watcher": 6389,
      "▁set\n": 6390,
      "▁sett": 6391,
      "▁sette": 6392,
      "▁our\n": 6393,
      "▁town,": 6394,
      "▁towns": 6395,
      "▁town,”": 6396,
      "▁town!”\n": 6397,
      "▁gone.": 6398,
      "▁gone.\n": 6399,
      "▁ear.\n": 6400,
      "ical,": 6401,
      "▁starts": 6402,
      "▁start.”\n": 6403,
      "▁suggest": 6404,
      "▁shortly.\n": 6405,
      "▁shortcut": 6406,
      "▁leaned\n": 6407,
      "▁On\n": 6408,
      "▁“How’d": 6409,
      "▁commot": 6410,
      "▁commanded": 6411,
      "▁commission": 6412,
      "▁Myrtle?”\n": 6413,
      "▁Michaelis\n": 6414,
      "▁Michaelis,": 6415,
      "▁fellas": 6416,
      "▁God!": 6417,
      "▁God.": 6418,
      "▁summer,": 6419,
      "▁explanations": 6420,
      "▁rose.": 6421,
      "▁East,": 6422,
      "▁arrive": 6423,
      "▁drive,": 6424,
      "▁drive.": 6425,
      "s—but": 6426,
      "s—not": 6427,
      "▁awoke": 6428,
      "▁how,": 6429,
      "▁however,": 6430,
      "▁buy\n": 6431,
      "▁bott": 6432,
      "▁far\n": 6433,
      "▁farm": 6434,
      "▁rain,": 6435,
      "▁raining.”\n": 6436,
      "▁runs": 6437,
      "▁attach": 6438,
      "▁attracted": 6439,
      "▁McC": 6440,
      "▁does,”": 6441,
      "▁trains": 6442,
      "▁train.”\n": 6443,
      "▁personality": 6444,
      "▁garage\n": 6445,
      "▁garage.\n": 6446,
      "uously": 6447,
      "▁affected": 6448,
      "▁hurt": 6449,
      "▁hurry": 6450,
      "▁hurrying": 6451,
      "▁crick": 6452,
      "▁cracked": 6453,
      "▁corrob": 6454,
      "▁corrug": 6455,
      "▁infinite": 6456,
      "▁infantry": 6457,
      "▁influ": 6458,
      "▁life\n": 6459,
      "▁life,”": 6460,
      "▁relief": 6461,
      "▁voices,": 6462,
      "▁idea.": 6463,
      "▁wondering": 6464,
      "▁circular": 6465,
      "▁immediately.\n": 6466,
      "fully\n": 6467,
      "fully.\n": 6468,
      "ibilities": 6469,
      "▁will\n": 6470,
      "▁high,": 6471,
      "▁highball": 6472,
      "▁big\n": 6473,
      "▁lower,": 6474,
      "▁names,": 6475,
      "▁eleven": 6476,
      "▁elegant": 6477,
      "ically.": 6478,
      "▁itself.\n": 6479,
      "▁assoc": 6480,
      "▁subst": 6481,
      "▁subway": 6482,
      "▁submer": 6483,
      "▁Doc": 6484,
      "▁dozen\n": 6485,
      "▁butler\n": 6486,
      "▁butler’s": 6487,
      "▁butler’s\n": 6488,
      "▁“Why’s": 6489,
      "▁trying,”": 6490,
      "▁understanding": 6491,
      "▁understand.\n": 6492,
      "▁telephone.": 6493,
      "▁murmurous": 6494,
      "ual\n": 6495,
      "▁snat": 6496,
      "▁final": 6497,
      "▁freedom": 6498,
      "▁delayed": 6499,
      "▁distorted": 6500,
      "▁distance,": 6501,
      "▁distinguished": 6502,
      "▁distaste": 6503,
      "▁instantly": 6504,
      "▁instead": 6505,
      "▁hall\n": 6506,
      "▁secure": 6507,
      "▁many-coloured": 6508,
      "▁whole\n": 6509,
      "▁coat’s": 6510,
      "▁cold,": 6511,
      "▁flowered": 6512,
      "▁breath,": 6513,
      "▁summer.\n": 6514,
      "▁Chicago.”\n": 6515,
      "▁Chicago,\n": 6516,
      "▁Katsp": 6517,
      "▁Versailles.": 6518,
      "▁cool,\n": 6519,
      "▁forehead": 6520,
      "▁past.”\n": 6521,
      "▁porch.": 6522,
      "▁porch.\n": 6523,
      "▁shoes,": 6524,
      "▁shocked": 6525,
      "▁except\n": 6526,
      "▁ago.": 6527,
      "▁defi": 6528,
      "▁deferred": 6529,
      "▁deeper": 6530,
      "▁disappear": 6531,
      "▁disappoint": 6532,
      "▁disappeared,": 6533,
      "▁disappointed": 6534,
      "▁evening-d": 6535,
      "▁promised": 6536,
      "▁remembering.\n": 6537,
      "▁answered,": 6538,
      "-de": 6539,
      "-do": 6540,
      "▁actual": 6541,
      "▁wall,": 6542,
      "▁wall.": 6543,
      "▁wall.\n": 6544,
      "▁wallet": 6545,
      "▁pool,": 6546,
      "▁poolroom": 6547,
      "▁emplo": 6548,
      "▁stop,": 6549,
      "▁Georg": 6550,
      "▁sure.”\n": 6551,
      "▁sure,”": 6552,
      "▁almost\n": 6553,
      "▁least\n": 6554,
      "▁somebody\n": 6555,
      "▁child,": 6556,
      "▁getting\n": 6557,
      "▁moon.": 6558,
      "▁work,": 6559,
      "▁workmen": 6560,
      "▁laughed,": 6561,
      "▁laughed.": 6562,
      "▁whispers": 6563,
      "▁dream,": 6564,
      "▁dreams.": 6565,
      "▁floor.": 6566,
      "▁crowded\n": 6567,
      "—it’s": 6568,
      "▁terr": 6569,
      "▁terrac": 6570,
      "▁terms": 6571,
      "▁ten\n": 6572,
      "▁tense": 6573,
      "▁tennis": 6574,
      "▁sight.": 6575,
      "▁moth": 6576,
      "▁motionless": 6577,
      "▁mouth\n": 6578,
      "▁mouth.": 6579,
      "▁city.": 6580,
      "▁fall.”\n": 6581,
      "▁falling,": 6582,
      "▁“Pl": 6583,
      "▁“Perhaps": 6584,
      "▁hesitation": 6585,
      "▁groped": 6586,
      "▁pale\n": 6587,
      "▁raising": 6588,
      "▁read,": 6589,
      "▁reading": 6590,
      "▁Somebody": 6591,
      "▁several\n": 6592,
      "▁unfor": 6593,
      "▁jov": 6594,
      "▁joy": 6595,
      "▁join": 6596,
      "▁joined": 6597,
      "▁glass\n": 6598,
      "▁glass.\n": 6599,
      "▁drink.": 6600,
      "▁drinking": 6601,
      "▁drink,”": 6602,
      "▁couple": 6603,
      "▁admiss": 6604,
      "▁admiration": 6605,
      "▁repeat": 6606,
      "▁strangest": 6607,
      "▁confused.": 6608,
      "▁realizing": 6609,
      "▁realized\n": 6610,
      "▁suggested\n": 6611,
      "▁suggested,": 6612,
      "▁suggested.": 6613,
      "▁violently.": 6614,
      "▁shadow\n": 6615,
      "▁shadows": 6616,
      "▁sharply.\n": 6617,
      "▁policeman.\n": 6618,
      "ubl": 6619,
      "▁trip": 6620,
      "▁occup": 6621,
      "▁occasion": 6622,
      "ative\n": 6623,
      "▁midsum": 6624,
      "ences": 6625,
      "encies": 6626,
      "▁tomorrow,": 6627,
      "▁tomorrow.": 6628,
      "▁largest": 6629,
      "▁late.\n": 6630,
      "▁eager,": 6631,
      "▁beauty": 6632,
      "▁beauty,": 6633,
      "▁reserve": 6634,
      "▁forward,": 6635,
      "▁Monte": 6636,
      "▁Montauk": 6637,
      "▁suspect": 6638,
      "▁gold.": 6639,
      "▁Cody’s": 6640,
      "▁Francis": 6641,
      "▁“Nobody’s": 6642,
      "▁money.”\n": 6643,
      "▁lunch,”": 6644,
      "▁lunch?”\n": 6645,
      "▁McKee.\n": 6646,
      "▁whispered,": 6647,
      "▁whispered.": 6648,
      "▁whispered:": 6649,
      "-h!”": 6650,
      "-haired": 6651,
      "▁educated": 6652,
      "▁trous": 6653,
      "▁wire,": 6654,
      "▁wild,": 6655,
      "▁simultane": 6656,
      "▁humorous": 6657,
      "▁muscle": 6658,
      "▁mistress": 6659,
      "▁cap.": 6660,
      "▁capit": 6661,
      "▁capable": 6662,
      "▁finger-b": 6663,
      "▁dim,": 6664,
      "▁diminished": 6665,
      "▁detect": 6666,
      "▁detail": 6667,
      "▁ghastly": 6668,
      "▁powerful": 6669,
      "▁pleasantly": 6670,
      "▁pleasant,": 6671,
      "▁formal": 6672,
      "▁formality": 6673,
      "▁Sound.\n": 6674,
      "▁outside\n": 6675,
      "▁Tom’s,": 6676,
      "▁known\n": 6677,
      "▁known.": 6678,
      "▁wheel,": 6679,
      "▁wheeled": 6680,
      "▁somewhere,": 6681,
      "▁nose.": 6682,
      "▁nose?”\n": 6683,
      "▁colleg": 6684,
      "▁officer": 6685,
      "▁question,": 6686,
      "▁question.": 6687,
      "▁dead.": 6688,
      "▁dead,”": 6689,
      "▁remarked.\n": 6690,
      "▁swept": 6691,
      "▁sweep": 6692,
      "▁football": 6693,
      "▁footstep": 6694,
      "▁politely.": 6695,
      "▁laughter.": 6696,
      "▁laughter.\n": 6697,
      "▁picture,": 6698,
      "▁picture.": 6699,
      "▁forever.": 6700,
      "▁forever;": 6701,
      "▁coupé.”\n": 6702,
      "-gun": 6703,
      "—a\n": 6704,
      "▁wet,": 6705,
      "▁squeezed": 6706,
      "▁horrible": 6707,
      "▁horrib": 6708,
      "▁harm": 6709,
      "▁colour,": 6710,
      "▁gas,”": 6711,
      "▁gasoline": 6712,
      "▁beyond\n": 6713,
      "▁beyond,": 6714,
      "▁meeting": 6715,
      "▁asleep.": 6716,
      "▁asleep.\n": 6717,
      "▁nearly": 6718,
      "▁Jay\n": 6719,
      "▁agreement": 6720,
      "▁flattered": 6721,
      "▁pockets": 6722,
      "▁pockets,": 6723,
      "▁“Yes,”": 6724,
      "▁guests,": 6725,
      "▁automatic": 6726,
      "▁neighbourhood": 6727,
      "-bitch": 6728,
      "-picture": 6729,
      "soever": 6730,
      "▁skin": 6731,
      "▁sleep.\n": 6732,
      "▁sleep.”\n": 6733,
      "▁bloss": 6734,
      "▁blocked": 6735,
      "▁clean": 6736,
      "▁clean,": 6737,
      "▁“Everybody": 6738,
      "▁“Excuse": 6739,
      "▁Throwing": 6740,
      "▁really\n": 6741,
      "▁shirtwais": 6742,
      "▁villages": 6743,
      "▁soft,": 6744,
      "▁spoke\n": 6745,
      "▁conserv": 6746,
      "▁consoling": 6747,
      "▁anyhow?”\n": 6748,
      "▁glowed": 6749,
      "▁moving-picture": 6750,
      "▁possible": 6751,
      "▁scared": 6752,
      "▁“Oh.”\n": 6753,
      "▁“Oh!”\n": 6754,
      "▁engag": 6755,
      "▁engrossed": 6756,
      "▁clothes.": 6757,
      "▁objects": 6758,
      "▁newspapers": 6759,
      "▁laugh,": 6760,
      "▁advised": 6761,
      "▁familiar—it": 6762,
      "▁change’": 6763,
      "▁accident,": 6764,
      "▁accidental": 6765,
      "▁watch,": 6766,
      "▁freshness": 6767,
      "▁George?": 6768,
      "▁motorcy": 6769,
      "▁motorboat": 6770,
      "▁apartment.": 6771,
      "▁cigarett": 6772,
      "▁ghosts,": 6773,
      "▁romantic\n": 6774,
      "▁irrele": 6775,
      "▁conversation,": 6776,
      "-turning": 6777,
      "bbish": 6778,
      "ipping": 6779,
      "ringer,": 6780,
      "▁Up": 6781,
      "▁Under": 6782,
      "▁served": 6783,
      "▁host,": 6784,
      "▁magic": 6785,
      "▁“and\n": 6786,
      "▁doubt,": 6787,
      "▁latest": 6788,
      "▁listened": 6789,
      "▁That’s\n": 6790,
      "▁redolent": 6791,
      "▁race,": 6792,
      "▁struck": 6793,
      "▁stretch": 6794,
      "▁street\n": 6795,
      "▁streets,": 6796,
      "▁ash-gre": 6797,
      "▁introduced": 6798,
      "▁“Where’s": 6799,
      "▁“Where’d": 6800,
      "▁church\n": 6801,
      "▁transp": 6802,
      "▁twilight,": 6803,
      "▁twilight.\n": 6804,
      "▁complac": 6805,
      "▁compliment": 6806,
      "▁parties\n": 6807,
      "▁phone.\n": 6808,
      "▁garage.": 6809,
      "▁“Goodby": 6810,
      "▁aware\n": 6811,
      "▁taxi.": 6812,
      "▁returning": 6813,
      "▁crazy!”": 6814,
      "▁exclaimed.": 6815,
      "ierce": 6816,
      "ossibly": 6817,
      "▁winked": 6818,
      "▁sixty": 6819,
      "▁hasty": 6820,
      "▁madame": 6821,
      "▁barrier": 6822,
      "▁bathrooms": 6823,
      "▁father,": 6824,
      "▁done\n": 6825,
      "▁director": 6826,
      "▁lady\n": 6827,
      "▁gathering": 6828,
      "▁pairs": 6829,
      "▁eighty": 6830,
      "▁eighteen": 6831,
      "▁yachting": 6832,
      "▁melted": 6833,
      "▁melody": 6834,
      "▁melancho": 6835,
      "▁refer": 6836,
      "▁refuse": 6837,
      "▁reasons": 6838,
      "▁However": 6839,
      "▁However,": 6840,
      "▁dollar": 6841,
      "▁connected": 6842,
      "▁Carraway.": 6843,
      "▁quieter": 6844,
      "▁smile.": 6845,
      "▁smile.\n": 6846,
      "▁bonds": 6847,
      "▁obvious": 6848,
      "▁impatiently": 6849,
      "▁impatiently.": 6850,
      "▁impatiently,": 6851,
      "▁darkness.\n": 6852,
      "▁silent.": 6853,
      "▁else.”\n": 6854,
      "▁help,": 6855,
      "▁bedroom,": 6856,
      "▁bedrooms": 6857,
      "▁sideways": 6858,
      "▁extravag": 6859,
      "▁servants,": 6860,
      "▁incredulously.\n": 6861,
      "▁190": 6862,
      "▁tears": 6863,
      "▁tears,": 6864,
      "▁wander": 6865,
      "▁houses,": 6866,
      "▁miser": 6867,
      "▁miserable": 6868,
      "▁bitter": 6869,
      "▁burden": 6870,
      "▁best,": 6871,
      "▁catching": 6872,
      "▁cutting": 6873,
      "▁cardboard": 6874,
      "▁cry.": 6875,
      "▁today,”": 6876,
      "▁lap,": 6877,
      "▁lapsed": 6878,
      "any,”": 6879,
      "▁throwing": 6880,
      "▁threw\n": 6881,
      "▁gleam": 6882,
      "▁growing": 6883,
      "▁passing": 6884,
      "▁ease,": 6885,
      "▁respect": 6886,
      "▁frightening": 6887,
      "▁supercilious": 6888,
      "▁upstairs;": 6889,
      "ournal": 6890,
      "▁specim": 6891,
      "▁consciousness": 6892,
      "▁legs": 6893,
      "▁character": 6894,
      "▁blanket,": 6895,
      "▁yourself.”\n": 6896,
      "▁place,": 6897,
      "▁dismissed": 6898,
      "▁dismayed": 6899,
      "▁boots": 6900,
      "▁grass,": 6901,
      "▁grass.": 6902,
      "▁interested.”\n": 6903,
      "▁closest": 6904,
      "▁decisively.\n": 6905,
      "▁goodbye": 6906,
      "▁drawing-room": 6907,
      "▁drawing-room,": 6908,
      "▁excitement,": 6909,
      "▁scarcely\n": 6910,
      "▁struggles": 6911,
      "▁struggling": 6912,
      "▁perfect\n": 6913,
      "-wind": 6914,
      "-white": 6915,
      "sylv": 6916,
      "—God": 6917,
      "—for": 6918,
      "▁astound": 6919,
      "▁wife,": 6920,
      "▁wiping": 6921,
      "▁solit": 6922,
      "▁solid": 6923,
      "▁missing": 6924,
      "▁ballroom": 6925,
      "▁central": 6926,
      "▁clock,”": 6927,
      "▁ground.": 6928,
      "▁patron": 6929,
      "▁pressing": 6930,
      "▁emerg": 6931,
      "▁bending": 6932,
      "▁rubies": 6933,
      "▁stroke": 6934,
      "▁reassure": 6935,
      "▁reassuring": 6936,
      "▁savage": 6937,
      "▁mysterious": 6938,
      "▁Didn’t": 6939,
      "▁Biloxi,": 6940,
      "▁“Whenever": 6941,
      "▁vict": 6942,
      "▁vicinity": 6943,
      "▁unreal": 6944,
      "▁English": 6945,
      "▁tragically": 6946,
      "▁true.”\n": 6947,
      "▁“Hello,": 6948,
      "▁imagin": 6949,
      "▁imagination": 6950,
      "▁sometimes\n": 6951,
      "▁scorn.": 6952,
      "▁scornful": 6953,
      "▁“Nevertheless": 6954,
      "▁right,’": 6955,
      "▁increased": 6956,
      "▁increasing": 6957,
      "▁increased.": 6958,
      "▁obscene": 6959,
      "▁obscurely": 6960,
      "▁phras": 6961,
      "▁satisfaction": 6962,
      "▁invitation": 6963,
      "▁inventions": 6964,
      "▁investment": 6965,
      "▁Rosy": 6966,
      "▁Rosy,": 6967,
      "▁inquired,": 6968,
      "▁inquired.": 6969,
      "▁absorbing": 6970,
      "▁view.": 6971,
      "▁helplessly.": 6972,
      "▁instinctively": 6973,
      "▁flowers.\n": 6974,
      "▁breathlessly": 6975,
      "▁breathless,\n": 6976,
      "▁Klipspringer,": 6977,
      "▁moonlight,": 6978,
      "▁Montenegro’s": 6979,
      "▁suspicious": 6980,
      "▁suspicions": 6981,
      "▁suspiciously": 6982,
      "▁harsh,": 6983,
      "▁verandas": 6984,
      "▁veranda.": 6985,
      "▁directly": 6986,
      "▁profoundly": 6987,
      "▁gestures,": 6988,
      "-minded": 6989,
      "-seventeen": 6990,
      "oon.": 6991,
      "▁identical": 6992,
      "▁identified": 6993,
      "▁avoid": 6994,
      "▁avoided": 6995,
      "▁sensation": 6996,
      "▁honour": 6997,
      "▁machines": 6998,
      "▁crossed": 6999,
      "▁fashionable": 7000,
      "▁“gonnegtion": 7001,
      "▁innuend": 7002,
      "▁inexpl": 7003,
      "▁inexhaust": 7004,
      "▁lemon": 7005,
      "▁gaiety": 7006,
      "▁gaiety.\n": 7007,
      "▁poured": 7008,
      "▁natural": 7009,
      "▁naturally": 7010,
      "▁nineteen-seventeen": 7011,
      "▁bells": 7012,
      "▁rumours": 7013,
      "▁annoy": 7014,
      "▁selling": 7015,
      "▁self-control": 7016,
      "▁intended": 7017,
      "▁intending": 7018,
      "▁lieutenant": 7019,
      "▁Black": 7020,
      "▁visitor": 7021,
      "▁vigil": 7022,
      "▁unusually": 7023,
      "▁uneasy,": 7024,
      "elessly": 7025,
      "▁jaunty": 7026,
      "▁Claud": 7027,
      "▁smoking": 7028,
      "▁devil": 7029,
      "▁“See!”": 7030,
      "ables,": 7031,
      "▁firmly": 7032,
      "▁“Now,": 7033,
      "▁newsstand": 7034,
      "▁marble\n": 7035,
      "▁interminable": 7036,
      "▁intermittent": 7037,
      "▁protest": 7038,
      "▁produced": 7039,
      "▁“Listen,": 7040,
      "▁“Listen,”": 7041,
      "▁earnestly.": 7042,
      "▁McKees": 7043,
      "▁McKee.": 7044,
      "▁delicate": 7045,
      "▁triumphantly.": 7046,
      "▁ceased": 7047,
      "▁ceaselessly": 7048,
      "▁magazine": 7049,
      "▁towels": 7050,
      "▁pursued": 7051,
      "▁Hotel.\n": 7052,
      "▁introduction": 7053,
      "▁photographers": 7054,
      "▁slender,": 7055,
      "▁dollars.”\n": 7056,
      "▁bursts": 7057,
      "▁contemptuous\n": 7058,
      "▁pardon.”\n": 7059,
      "▁pardon,”": 7060,
      "▁recogniz": 7061,
      "▁recognized": 7062,
      "▁mirror": 7063,
      "▁mirrored": 7064,
      "▁millionaire": 7065,
      "▁peculiarly": 7066,
      "▁receiver.\n": 7067,
      "▁Baedeker": 7068,
      "▁concentrated": 7069,
      "-of-a": 7070,
      "cisely": 7071,
      "—The": 7072,
      "—Tom": 7073,
      "▁Qu": 7074,
      "▁Queen": 7075,
      "▁tentative": 7076,
      "▁ale.": 7077,
      "▁wrapped": 7078,
      "▁wrapping": 7079,
      "▁soul": 7080,
      "▁souvenir": 7081,
      "▁snobbish": 7082,
      "▁horns": 7083,
      "▁medium": 7084,
      "▁major": 7085,
      "▁calmly.": 7086,
      "▁torn": 7087,
      "▁tonight.”\n": 7088,
      "▁dusk,": 7089,
      "▁land.": 7090,
      "▁lonely": 7091,
      "▁loneliness": 7092,
      "▁throat,": 7093,
      "▁gaud": 7094,
      "▁painting": 7095,
      "▁portentous": 7096,
      "▁pigst": 7097,
      "▁pearls": 7098,
      "▁haughty": 7099,
      "▁haughtily": 7100,
      "▁beads": 7101,
      "imony": 7102,
      "▁riotous": 7103,
      "▁story,": 7104,
      "▁anxiously,": 7105,
      "▁safe": 7106,
      "▁season,": 7107,
      "▁seven,": 7108,
      "▁Argonne": 7109,
      "▁shifted": 7110,
      "▁shifting": 7111,
      "▁shivered.": 7112,
      "empor": 7113,
      "▁liquor": 7114,
      "▁Belug": 7115,
      "▁knock": 7116,
      "▁knocked": 7117,
      "▁vestib": 7118,
      "▁alarmed": 7119,
      "▁splendid": 7120,
      "▁splendour": 7121,
      "▁unbel": 7122,
      "▁unbroken": 7123,
      "▁unutterable": 7124,
      "▁unhappy": 7125,
      "▁examined": 7126,
      "▁examining": 7127,
      "▁jewell": 7128,
      "▁jewel": 7129,
      "▁leader": 7130,
      "▁choked": 7131,
      "▁July": 7132,
      "▁July,": 7133,
      "▁“Three": 7134,
      "▁Europe": 7135,
      "▁carriages": 7136,
      "▁tradition": 7137,
      "▁Flushing": 7138,
      "▁Ferret": 7139,
      "▁Ferdie": 7140,
      "▁“Shall": 7141,
      "▁local": 7142,
      "▁dissol": 7143,
      "▁scolding,": 7144,
      "▁graceful,\n": 7145,
      "▁desk.\n": 7146,
      "▁huge\n": 7147,
      "▁dressing-room": 7148,
      "▁confirm": 7149,
      "▁confirmed": 7150,
      "▁“Yeah": 7151,
      "▁accusations": 7152,
      "▁accusingly.": 7153,
      "▁‘There’s": 7154,
      "▁indignant": 7155,
      "▁indefinite": 7156,
      "▁authoritative": 7157,
      "▁explained.": 7158,
      "▁simplest": 7159,
      "▁simplicity": 7160,
      "▁regarded": 7161,
      "▁regarding": 7162,
      "▁embarrassed,": 7163,
      "▁emotions.\n": 7164,
      "▁extraordinary": 7165,
      "▁bootlegger": 7166,
      "▁astonishment,": 7167,
      "▁panic.": 7168,
      "▁tiptoes": 7169,
      "▁tiptoed": 7170,
      "▁costume": 7171,
      "▁costume,": 7172,
      "▁counter.": 7173,
      "▁curiosity.": 7174,
      "▁colossal": 7175,
      "▁colossal\n": 7176,
      "▁French\n": 7177,
      "-eight": 7178,
      "hones": 7179,
      "looking": 7180,
      "osition": 7181,
      "▁tanned": 7182,
      "▁ticket": 7183,
      "hester,": 7184,
      "▁audible": 7185,
      "▁wisp": 7186,
      "▁oddly": 7187,
      "▁husky,": 7188,
      "▁hilarity": 7189,
      "▁morb": 7190,
      "▁message": 7191,
      "▁muffled": 7192,
      "▁bona-f": 7193,
      "▁banjo": 7194,
      "▁banners": 7195,
      "▁coward": 7196,
      "▁cordial": 7197,
      "▁crisp": 7198,
      "▁foul": 7199,
      "▁fainted,": 7200,
      "▁fault,": 7201,
      "▁free.\n": 7202,
      "▁fifteen": 7203,
      "ishing\n": 7204,
      "▁“had": 7205,
      "▁tossed": 7206,
      "▁domin": 7207,
      "▁destiny": 7208,
      "▁dear,”": 7209,
      "▁linen": 7210,
      "▁heavily": 7211,
      "▁thirty,": 7212,
      "▁pyjam": 7213,
      "▁pompadour": 7214,
      "ut-tut-t": 7215,
      "▁etc": 7216,
      "▁rapidly.": 7217,
      "▁stout,": 7218,
      "▁angry": 7219,
      "▁anchor": 7220,
      "▁measure": 7221,
      "▁rented": 7222,
      "▁resemblance": 7223,
      "▁German": 7224,
      "▁Muld": 7225,
      "▁Southampt": 7226,
      "▁separated": 7227,
      "▁outdoor": 7228,
      "▁abstracted": 7229,
      "▁abandoned": 7230,
      "▁Bridge": 7231,
      "▁valley": 7232,
      "▁vulgar": 7233,
      "▁overtaking": 7234,
      "▁untrue.": 7235,
      "▁exercise": 7236,
      "▁exchanged": 7237,
      "▁judgement": 7238,
      "▁jumping": 7239,
      "▁Carlo": 7240,
      "▁Civet": 7241,
      "▁Crossing": 7242,
      "▁aggressive": 7243,
      "▁issued": 7244,
      "▁“Tom’s": 7245,
      "▁Edgar": 7246,
      "▁Forty": 7247,
      "▁artificial": 7248,
      "▁“Ah-h": 7249,
      "▁percei": 7250,
      "▁pervading": 7251,
      "▁plunged": 7252,
      "▁drift\n": 7253,
      "▁pretended": 7254,
      "▁scenes": 7255,
      "▁scrutinized": 7256,
      "▁Probably": 7257,
      "▁People\n": 7258,
      "▁clustered": 7259,
      "▁gratitud": 7260,
      "▁desperately": 7261,
      "▁provided": 7262,
      "▁armistice": 7263,
      "▁represented": 7264,
      "▁appearance": 7265,
      "▁“Carraway.”\n": 7266,
      "▁elbow": 7267,
      "▁indifferent\n": 7268,
      "▁startled.\n": 7269,
      "▁commuting": 7270,
      "▁taxicab": 7271,
      "▁ceiling.": 7272,
      "▁uncomfort": 7273,
      "▁possessions": 7274,
      "▁limousine": 7275,
      "▁privilege": 7276,
      "▁divorce": 7277,
      "▁memories": 7278,
      "▁conscientious": 7279,
      "▁discreetly": 7280,
      "▁enthusiastically.": 7281,
      "▁enthusiasm.": 7282,
      "▁fascinated": 7283,
      "▁turbulent": 7284,
      "▁temperament": 7285,
      "▁machine-gun": 7286,
      "▁inevitable": 7287,
      "▁impersonal": 7288,
      "▁established": 7289,
      "▁scepticism,": 7290,
      "▁shrubbery\n": 7291,
      "▁unwillingly": 7292,
      "▁exactly.”\n": 7293,
      "▁apology": 7294,
      "▁unpleasantness": 7295,
      "▁tumultuous": 7296,
      "▁nostrils": 7297,
      "▁Tostoff’s": 7298,
      "▁Metropole": 7299,
      "▁unmistakable": 7300,
      "▁“Absolutely": 7301,
      "-nosed": 7302,
      "jug-": 7303,
      "ladmir": 7304,
      "undreds.\n": 7305,
      "—only": 7306,
      "—almost": 7307,
      "—until": 7308,
      "—except": 7309,
      "▁testimony": 7310,
      "▁tapest": 7311,
      "▁school": 7312,
      "▁hangs": 7313,
      "▁hushed,": 7314,
      "▁mantelpiece": 7315,
      "▁bench": 7316,
      "▁birth": 7317,
      "▁coolly": 7318,
      "▁cries": 7319,
      "▁cemet": 7320,
      "▁causing": 7321,
      "▁ceremon": 7322,
      "▁farther": 7323,
      "▁“nice”": 7324,
      "▁tongue": 7325,
      "▁dining-room,": 7326,
      "▁dirty\n": 7327,
      "▁inherited": 7328,
      "▁langu": 7329,
      "esota.": 7330,
      "▁proud": 7331,
      "▁paused.": 7332,
      "▁penniless": 7333,
      "▁numbers": 7334,
      "▁Tuolome": 7335,
      "▁roofs": 7336,
      "▁rules": 7337,
      "▁stables": 7338,
      "▁stupid": 7339,
      "▁whitewashed": 7340,
      "▁replaced": 7341,
      "▁reappeared,": 7342,
      "▁History": 7343,
      "▁saxophones": 7344,
      "▁Minnesota.": 7345,
      "▁September": 7346,
      "▁Detroit": 7347,
      "▁weekends": 7348,
      "▁intriguing": 7349,
      "▁abortive": 7350,
      "ourney": 7351,
      "▁soggy": 7352,
      "▁already\n": 7353,
      "▁speech": 7354,
      "▁concerned": 7355,
      "▁consequence,": 7356,
      "▁unknown": 7357,
      "▁extinguished": 7358,
      "▁rosy-coloured": 7359,
      "▁Catholic,": 7360,
      "▁nephew": 7361,
      "▁chicken": 7362,
      "▁chiffon": 7363,
      "▁November": 7364,
      "▁house-party": 7365,
      "▁coincidence": 7366,
      "▁fluctu": 7367,
      "▁pebbles": 7368,
      "▁“Suppose": 7369,
      "▁loafing": 7370,
      "▁underneath": 7371,
      "▁Lutheran": 7372,
      "▁slapping": 7373,
      "▁pre-cious": 7374,
      "▁ambitious": 7375,
      "▁scientific": 7376,
      "▁contralto": 7377,
      "▁Pennsylv": 7378,
      "▁Point—The": 7379,
      "▁half-hour": 7380,
      "▁headlights": 7381,
      "▁drizzle": 7382,
      "▁white-plum": 7383,
      "▁designs": 7384,
      "▁procession": 7385,
      "▁alongside.\n": 7386,
      "▁silhouette": 7387,
      "▁courtesy": 7388,
      "▁sun-strained": 7389,
      "▁accounting": 7390,
      "▁accompan": 7391,
      "▁“M-a-v": 7392,
      "▁side-street": 7393,
      "▁influence": 7394,
      "▁Katspaugh": 7395,
      "▁midsummer": 7396,
      "▁finger-bow": 7397,
      "▁footsteps": 7398,
      "▁shirtwaist,": 7399,
      "▁ash-grey": 7400,
      "▁melancholy": 7401,
      "▁inexhaustible": 7402,
      "-of-a-bitch": 7403,
      "▁bona-fide": 7404,
      "▁Pennsylvania": 7405
    },
    "merges": [
      "▁ t",
      "h e",
      "▁ a",
      "i n",
      "▁ w",
      "▁ s",
      "▁t he",
      "▁ o",
      "e d",
      "n d",
      "e r",
      "▁ h",
      "o u",
      "r e",
      "a t",
      "▁ m",
      "- -",
      "▁ b",
      "▁ \n",
      "i t",
      "▁ c",
      "▁ f",
      "i s",
      "e n",
      "in g",
      "▁a nd",
      "▁ “",
      "▁t o",
      "o n",
      "▁ d",
      "o r",
      "a s",
      "▁ I",
      "▁ in",
      "▁ l",
      "▁ he",
      "a r",
      "o m",
      "▁o f",
      "a n",
      "▁t h",
      "l l",
      "e s",
      "▁ g",
      "▁ p",
      "-- --",
      ". \n",
      "▁w as",
      "▁h a",
      "” \n",
      "o w",
      "l e",
      "u t",
      "l y",
      "▁ n",
      "i d",
      "▁ e",
      "g h",
      "▁ y",
      "▁b e",
      "i c",
      "i m",
      "s t",
      "▁th at",
      "▁ u",
      "▁ T",
      "▁o n",
      "v er",
      "en t",
      ". ”\n",
      "v e",
      "▁y ou",
      "e t",
      "▁ it",
      "a y",
      "o t",
      "s e",
      "l d",
      "gh t",
      "’ s",
      "a c",
      "▁ r",
      "i r",
      "it h",
      "▁h is",
      "▁w ith",
      "▁s t",
      "▁w h",
      "---- ----",
      "a l",
      "’ t",
      "▁a t",
      "▁ha d",
      "u r",
      "▁a n",
      "▁m e",
      "a d",
      "▁he r",
      ", ”",
      "o o",
      "▁ re",
      "▁f or",
      "a m",
      "t er",
      "▁a s",
      "▁“ I",
      "i ght",
      "▁ G",
      "i on",
      "▁ H",
      "i l",
      "▁f r",
      "▁s a",
      "▁ W",
      "▁h im",
      "k e",
      "▁s he",
      "r o",
      "▁ M",
      "i f",
      "he r",
      "s b",
      "om e",
      "▁T he",
      "▁G at",
      "a in",
      "sb y",
      "c e",
      "a ll",
      "r i",
      "an t",
      "▁Gat sby",
      "▁ S",
      "ar d",
      "▁s e",
      "▁m y",
      "▁s u",
      "c h",
      "▁ A",
      "▁ D",
      "▁u p",
      "n ’t",
      "k ed",
      "▁ k",
      "▁sa id",
      "▁w e",
      "▁s h",
      "▁o ut",
      "▁d o",
      "▁fr om",
      "e m",
      "o re",
      "p p",
      "ou t",
      "▁H e",
      "a nd",
      "▁in t",
      "es s",
      "o l",
      "▁l i",
      "a is",
      "-------- --------",
      "e w",
      "▁a ll",
      "t ed",
      "▁a b",
      "▁the \n",
      "ou ld",
      "▁ B",
      "ou r",
      "am e",
      "r ou",
      "u st",
      "▁b ut",
      "▁T om",
      "ais y",
      "▁“ W",
      "a g",
      "ou s",
      "▁k n",
      "er e",
      "▁w he",
      "▁ v",
      "e ,",
      "h ing",
      "▁D aisy",
      "s s",
      "ow n",
      "▁w ere",
      "es t",
      "▁the re",
      "e ll",
      "▁int o",
      "▁s o",
      "▁o ver",
      "on e",
      "on g",
      "s ,",
      "▁a l",
      "? ”\n",
      "▁s p",
      "▁c on",
      "▁l oo",
      "b le",
      "e c",
      "▁u n",
      "q u",
      "▁g o",
      "u n",
      "as t",
      "o d",
      "▁e x",
      "or d",
      "e l",
      "or t",
      "in d",
      "▁ j",
      "ac k",
      "a u",
      "▁m an",
      "i ll",
      "f ter",
      "h at",
      "t le",
      "w ay",
      "▁l e",
      ", \n",
      "▁ab out",
      "▁r o",
      "a k",
      "▁ C",
      "u s",
      "▁n e",
      "▁s ome",
      "l f",
      "u l",
      "▁c h",
      "r a",
      "▁ J",
      "id e",
      "l o",
      "s .",
      "he d",
      "▁th is",
      "ver y",
      "▁ha ve",
      "▁and \n",
      "ar t",
      "▁a g",
      "▁on e",
      "▁wh o",
      "u m",
      "▁d own",
      "▁ if",
      "▁li ke",
      "o p",
      "▁a \n",
      "▁o r",
      "▁d id",
      "▁ is",
      "▁an y",
      "▁b ack",
      "▁“ T",
      "v ed",
      "▁b y",
      "on ’t",
      "v en",
      "▁the y",
      "▁a fter",
      "nd er",
      "c k",
      "▁ E",
      "? ”",
      "Y ou",
      "i g",
      "▁ha nd",
      "i ve",
      "in k",
      "at e",
      "▁to o",
      "▁ N",
      "▁c ar",
      "▁c ame",
      "▁n ot",
      "▁M r",
      "▁t r",
      "▁l it",
      "ic e",
      "▁of \n",
      "▁be en",
      "▁kn ow",
      "▁whe n",
      "at ion",
      "▁I ’",
      "o st",
      "s on",
      "y ,",
      "▁I t",
      "ur n",
      "p t",
      "re ss",
      "ic k",
      "w n",
      "▁t im",
      "▁lit tle",
      "e ar",
      "▁e y",
      "ri ed",
      "ou se",
      "ic h",
      "is t",
      ". .",
      "a p",
      "▁n o",
      "e p",
      "▁h ouse",
      "ou nd",
      "a ble",
      "▁t w",
      "▁w ant",
      "▁f ac",
      "▁w ent",
      "it e",
      "an g",
      "▁n ow",
      "▁“I ’",
      "▁S he",
      "f ore",
      "i e",
      "▁g et",
      "it y",
      "▁c ould",
      "▁ey es",
      "▁the n",
      "ed \n",
      "all y",
      "▁the m",
      "a re",
      "▁ O",
      "▁ag ain",
      "▁ F",
      "▁“ H",
      "▁g ot",
      "▁be fore",
      "▁j ust",
      "c t",
      "s ed",
      "w ard",
      "▁c om",
      "ly .",
      "oo d",
      "f f",
      "om et",
      "▁wh at",
      "▁loo ked",
      "▁o ld",
      "▁“ You",
      "▁g l",
      "▁did n’t",
      "e .",
      "▁t urn",
      "er ed",
      "▁th ou",
      "▁a r",
      "rou nd",
      "d d",
      "g g",
      "t her",
      "▁m o",
      "▁m om",
      "▁mom ent",
      "▁c o",
      "▁n ight",
      "se lf",
      "t ing",
      "▁w ay",
      "▁of f",
      "il son",
      "▁Mr .",
      "i le",
      "▁d on’t",
      "▁W ilson",
      "a ke",
      "i es",
      "▁ im",
      "▁ qu",
      "▁a way",
      "▁m ore",
      "▁to \n",
      "▁do or",
      "---------------- ----------------",
      "▁loo k",
      "▁s m",
      "▁f l",
      "▁d e",
      "▁th ink",
      "▁re m",
      "od y",
      "v ing",
      "▁m in",
      "▁b r",
      "▁“ A",
      "ly ,",
      "▁be g",
      "ord an",
      "he n",
      "or n",
      "ac h",
      "ad e",
      "▁J ordan",
      "▁w ould",
      "▁s omet",
      "at her",
      "▁b l",
      "on t",
      "▁you r",
      "▁se e",
      "u re",
      "▁a round",
      "▁o ther",
      "▁g ir",
      "▁v o",
      "a ir",
      "i ous",
      "▁p er",
      "▁a c",
      "▁g re",
      "▁p e",
      "▁gir l",
      "▁“ S",
      "▁I \n",
      "▁he re",
      "▁p l",
      "▁e very",
      "▁Gatsby ’s",
      "g e",
      "r ow",
      "u ll",
      "u ch",
      "at ed",
      "▁c an",
      "▁l o",
      "▁l ong",
      "rou gh",
      "▁go ing",
      "▁tw o",
      "▁ro om",
      "s h",
      "▁d ay",
      "▁u nder",
      "▁wh ich",
      "▁tim e",
      "▁th ing",
      "▁th rough",
      "oo k",
      "op le",
      "n g",
      "p l",
      "er ,",
      "▁m ade",
      "▁c ome",
      "ly .\n",
      "▁somet hing",
      "’ re",
      "▁d r",
      "n o",
      "▁“ D",
      "▁l ight",
      "▁ne ver",
      "▁turn ed",
      "▁pe ople",
      "a b",
      "▁ L",
      "▁w a",
      "▁s l",
      "▁d is",
      "ar k",
      "▁p re",
      "▁y ear",
      "▁be c",
      "▁whe re",
      "s p",
      "ed ,",
      "▁p o",
      "he re",
      "ed .",
      "er s",
      "▁f ir",
      "▁B ut",
      "ec t",
      "! ”",
      "▁a m",
      "▁w or",
      "ing ,",
      "ot her",
      ". ”",
      "a ve",
      "r y",
      "— t",
      "▁o p",
      "en ce",
      "an ce",
      "▁e ven",
      "▁st ar",
      "au se",
      "f t",
      "l ess",
      "▁ very",
      "in e",
      "▁w ind",
      "▁s c",
      "▁s ay",
      "ing \n",
      "▁“ N",
      "▁“ O",
      "▁in \n",
      "▁“I t",
      "m ent",
      "▁ en",
      "▁ ..",
      "▁s w",
      "▁the ir",
      "at h",
      "as s",
      "es ,",
      "▁sa w",
      "▁kn ew",
      "t hing",
      "re e",
      "▁c all",
      "▁f e",
      "▁p art",
      "▁u s",
      "pp ed",
      "▁con t",
      "r u",
      "u e",
      "▁to ward",
      "▁sp ort",
      "▁fir st",
      "r ed",
      "’ d",
      "▁b o",
      "is s",
      "▁beg an",
      "▁vo ice",
      "t y",
      "▁was \n",
      "▁min ut",
      "b er",
      "n ess",
      "▁ P",
      "▁ha lf",
      "▁r ight",
      "▁W e",
      "ag e",
      "▁too k",
      "▁thou ght",
      "▁op en",
      "o se",
      "— ”\n",
      "▁in c",
      "▁he ad",
      "▁“W hat",
      "▁a re",
      "▁c l",
      "▁f o",
      "▁d ri",
      "an c",
      "▁you ng",
      "▁his \n",
      "▁The n",
      "▁N ew",
      "dd en",
      "g et",
      "n e",
      "t h",
      "▁o b",
      "▁h our",
      "▁m en",
      "▁l ast",
      "▁be t",
      "▁on ly",
      "▁im p",
      "i z",
      "s \n",
      "y \n",
      "▁ Y",
      "▁to ld",
      "▁wh ile",
      "al k",
      "▁se em",
      "▁after no",
      "▁fac e",
      "▁bec ause",
      "▁afterno on",
      "i p",
      "i v",
      "t il",
      "▁he ard",
      "▁g r",
      "▁p ol",
      "▁n ew",
      "oo l",
      "▁as ked",
      "b ody",
      "x t",
      "▁m ar",
      "▁p h",
      "▁n ame",
      "ak ing",
      "e en",
      "▁c ou",
      "▁he \n",
      "▁th an",
      "▁that \n",
      "ir ed",
      "▁wh ite",
      "al ked",
      "ell ,",
      "i re",
      "i ly",
      "m er",
      "▁in s",
      "▁l et",
      "▁l au",
      "▁H is",
      "ol f",
      "▁B ak",
      "▁“W h",
      "▁un til",
      "▁le ft",
      "▁wa it",
      "▁.. .",
      "h is",
      "t ain",
      "or k",
      "▁in ter",
      "▁p r",
      "▁ha pp",
      "▁W est",
      "lo ck",
      "▁seem ed",
      "h ,",
      "’ ll",
      "▁w ord",
      "▁s at",
      "▁b ro",
      "▁f ound",
      "▁in v",
      "▁was n’t",
      "ac t",
      "▁W hen",
      "if e",
      "▁su dden",
      "▁ex c",
      "▁wind ow",
      "a wn",
      "s .\n",
      "▁t e",
      "▁w om",
      "▁b re",
      "▁d es",
      "▁be l",
      "▁me ,",
      "ro ss",
      "▁The y",
      "m ed",
      "— and",
      "▁h u",
      "▁m at",
      "▁m uch",
      "▁d ark",
      "▁I n",
      "▁p ro",
      "▁with \n",
      "ard en",
      "▁al ong",
      "▁ex p",
      "▁“T he",
      "▁I’ m",
      "▁ar m",
      "e k",
      "i ld",
      "l ed",
      "p h",
      "u d",
      "▁a d",
      "▁o wn",
      "▁th ree",
      "ac e",
      "▁an other",
      "▁re st",
      "▁A nd",
      "▁“I’ m",
      "▁sm all",
      "c o",
      "f ul",
      "t e",
      "▁t ell",
      "in n",
      "▁s il",
      "▁m ust",
      "▁“ L",
      "▁g arden",
      "id ent",
      "▁re p",
      "▁him ,",
      "▁Y ork",
      "i gh",
      "n t",
      "▁e nd",
      "▁it s",
      "ro om",
      "▁The re",
      "▁Gatsby ,",
      "▁up on",
      "▁al way",
      "▁I’ d",
      "▁thou gh",
      "▁“S he",
      "b ut",
      "i em",
      "i ble",
      "o ,",
      "▁ R",
      "at er",
      "▁c lo",
      "▁d ress",
      "▁g ar",
      "▁st r",
      "▁fr ont",
      "▁M y",
      "▁M iss",
      "ce pt",
      "▁su pp",
      "▁E gg",
      "▁not hing",
      "▁again st",
      "▁look ing",
      "▁lo ve",
      "sh iem",
      "get her",
      "olf shiem",
      "▁Bak er",
      "▁happ en",
      "▁ ke",
      "▁t re",
      "▁t able",
      "er tain",
      "▁c ried",
      "▁f ive",
      "▁in qu",
      "ll ow",
      "▁e ach",
      "▁it ,",
      "▁W olfshiem",
      "▁se en",
      "ell ow",
      "hat ’s",
      "a z",
      "c hed",
      "p er",
      "s it",
      "▁a pp",
      "▁w ar",
      "▁s ur",
      "▁h ard",
      "▁m orn",
      "is h",
      "▁to gether",
      "ly \n",
      "▁on ce",
      "▁st ep",
      "▁sh ould",
      "▁“W ell,",
      "▁Daisy ’s",
      "▁con f",
      "ig n",
      "▁“H e",
      "▁com p",
      "▁can ’t",
      "▁alway s",
      "! ”\n",
      "a le",
      "a pp",
      "r is",
      "s w",
      "in ess",
      "▁s it",
      "▁c our",
      "▁“ C",
      "▁d ro",
      "▁d em",
      "▁st ill",
      "al ity",
      "▁him self",
      "ain ed",
      "▁al one",
      "▁C h",
      "▁ne xt",
      "▁rem em",
      "▁year s",
      "e e",
      "e ver",
      "u ally",
      "▁h ome",
      "▁c ur",
      "▁c are",
      "▁d ec",
      "or m",
      "or y",
      "▁st ood",
      "▁wh is",
      "▁an sw",
      "▁fr ie",
      "▁su n",
      "▁A s",
      "▁A t",
      "▁hand s",
      "▁could n’t",
      "▁“It ’s",
      "▁dem and",
      "▁frie nd",
      "t en",
      "’ ve",
      "▁t ake",
      "▁a dd",
      "▁f am",
      "▁“ G",
      "▁l awn",
      "ar y",
      "le as",
      "▁e ver",
      "▁with out",
      "▁st o",
      "▁st and",
      "▁had \n",
      "▁re al",
      "ec ted",
      "▁ro ad",
      "▁tr y",
      "ress ion",
      "▁wor ld",
      "i ar",
      "i al",
      "l es",
      "m b",
      "u ght",
      "▁ You",
      "▁h o",
      "▁m et",
      "▁m ight",
      "▁m ake",
      "is hed",
      "▁“ B",
      "▁“ Y",
      "▁g ood",
      "▁g ave",
      "▁e l",
      "▁H er",
      "▁said .",
      "▁we ll",
      "▁“W e",
      "▁ch ang",
      "▁Mr s.",
      "▁mo ved",
      "▁ac c",
      "▁gre at",
      "▁pl ay",
      "▁“O h,",
      "▁mat ter",
      "a il",
      "c lock",
      "m ost",
      "u c",
      "v es",
      "’ clock",
      "▁ ‘",
      "▁ ent",
      "▁ --------------------------------",
      "▁a ir",
      "▁o ’clock",
      "ou gh",
      "it ed",
      "▁f ew",
      "▁f our",
      "en e",
      "▁d re",
      "▁he ar",
      "an an",
      "▁th ose",
      "▁g u",
      "-------- \n",
      "▁me .",
      "ad y",
      "if f",
      "ain t",
      "▁ab s",
      "▁B uch",
      "el t",
      "ra w",
      "▁want ed",
      "-------------------------------- --------\n",
      "▁ac ross",
      "▁every thing",
      "▁under st",
      "▁sl ow",
      "▁star ted",
      "▁call ed",
      "▁fo llow",
      "▁bel ie",
      "▁morn ing",
      "▁-------------------------------- ----------------------------------------\n",
      "▁Buch anan",
      ": \n",
      "i ed",
      "l ing",
      "n y",
      "p ris",
      "w een",
      "— w",
      "▁s ent",
      "▁s ort",
      "▁s ound",
      "▁f ull",
      "is ter",
      "▁“ M",
      "as sed",
      "▁in d",
      "ut ter",
      "▁y ellow",
      "▁it .",
      "▁r ather",
      "▁me an",
      "▁her \n",
      "▁Gatsby .",
      "em ent",
      "us hed",
      "▁thing s",
      "▁pre s",
      "▁minut e",
      "▁bet ween",
      "▁mar ried",
      "▁sur pris",
      "l er",
      "r tle",
      "y s",
      "▁t alk",
      "▁a ut",
      "in t",
      "▁w alked",
      "▁s ide",
      "▁the se",
      "er v",
      "▁h ot",
      "re t",
      "re et",
      "▁m one",
      "▁m ost",
      "▁b ook",
      "it her",
      "▁c he",
      "▁f ind",
      "▁f lo",
      "▁f elt",
      "an k",
      "es ted",
      "▁n od",
      "▁you \n",
      "am p",
      "ion s",
      "▁S t",
      "▁A fter",
      "▁said ,",
      "▁we ek",
      "▁do g",
      "▁any thing",
      "▁N ick",
      "ap s",
      "▁fe et",
      "▁bro ke",
      "▁te le",
      "a el",
      "l and",
      "▁ ide",
      "▁w o",
      "▁w at",
      "▁s ing",
      "▁s et",
      "▁o ur",
      "▁o ught",
      "▁b es",
      "▁to wn",
      "▁g one",
      "▁ha ir",
      "▁e ar",
      "ic al",
      "▁st art",
      "▁an \n",
      "▁M ich",
      "▁su gg",
      "▁sh ort",
      "ill ed",
      "▁le a",
      "▁le an",
      "▁“I’ ve",
      "▁O n",
      "▁“H ow",
      "▁com m",
      "▁My rtle",
      "▁inqu ired",
      "▁cour se",
      "▁tele ph",
      "ael is",
      "▁Mich aelis",
      "d ed",
      "i et",
      "t ,",
      "y .",
      "ou ght",
      "▁b us",
      "▁f ell",
      "is e",
      "▁p ut",
      "le ep",
      "ut e",
      "▁it \n",
      "▁had n’t",
      "▁G od",
      "▁su m",
      "ol our",
      "▁Tom ,",
      "▁v i",
      "▁sp e",
      "▁ex pl",
      "▁ro se",
      "▁E ast",
      "▁ar ri",
      "▁mo ve",
      "▁qu ick",
      "▁would n’t",
      "▁“D o",
      "▁cont in",
      "▁dri ve",
      "▁sudden ly",
      "▁wom an",
      "▁bes ide",
      "i ver",
      "i ate",
      "s —",
      "▁a w",
      "▁h ow",
      "▁m ur",
      "▁b u",
      "▁b ot",
      "▁c row",
      "▁f ar",
      "▁f un",
      "ing er",
      "▁I s",
      "▁l ater",
      "▁he l",
      "es .",
      "ic ag",
      "▁on \n",
      "▁you ,",
      "▁r ain",
      "▁r un",
      "▁at \n",
      "▁at t",
      "▁M c",
      "▁do es",
      "ul ar",
      "▁tr ain",
      "▁I’ ll",
      "▁bl ue",
      "▁per son",
      "▁am ong",
      "▁gar age",
      "▁Ch icag",
      "▁demand ed",
      "- c",
      "b r",
      "c c",
      "g ed",
      "h ow",
      "i x",
      "j ect",
      "p s",
      "p ed",
      "s ide",
      "u ous",
      "u ct",
      "z en",
      "▁t ou",
      "▁t ried",
      "▁a p",
      "▁a ff",
      "▁h ur",
      "▁b ed",
      "▁c r",
      "▁c or",
      "▁c ir",
      "▁c ertain",
      "▁f aint",
      "or row",
      "▁in f",
      "▁l ife",
      "▁he art",
      "▁p ic",
      "▁e ff",
      "▁be h",
      "▁that ,",
      "ent ion",
      "ac hed",
      "▁re l",
      "il iar",
      "▁she \n",
      "▁su ch",
      "out h",
      "est ion",
      "▁ch air",
      "ist en",
      "▁“I’ ll",
      "▁im med",
      "▁vo ic",
      "▁lo ved",
      "▁fe el",
      "▁ide a",
      "▁wo nder",
      "▁cir c",
      "▁immed iate",
      "c ed",
      "f ord",
      "f ull",
      "h aps",
      "i b",
      "m ur",
      "s c",
      "u g",
      "w here",
      "x i",
      "— he",
      "in ed",
      "▁w ill",
      "nd red",
      "er .",
      "▁h as",
      "▁h igh",
      "▁b rou",
      "▁b ig",
      "▁c as",
      "▁and ,",
      "▁l ow",
      "▁l un",
      "▁g ive",
      "▁p assed",
      "▁n am",
      "▁e le",
      "ic ally",
      "▁it ’s",
      "▁it self",
      "▁her ,",
      "▁as s",
      "▁S o",
      "▁su b",
      "▁D o",
      "▁do zen",
      "▁but ler",
      "▁Daisy ,",
      "▁hand .\n",
      "▁gl anc",
      "▁br ight",
      "▁“D on’t",
      "ab ly",
      "—t he",
      "▁bet ter",
      "▁“Wh y",
      "▁window s",
      "▁sto pped",
      "▁try ing",
      "▁underst and",
      "▁teleph one",
      "▁bus iness",
      "▁mur mur",
      "▁Mc K",
      "▁beh ind",
      "▁brou ght",
      "- room",
      "a ut",
      "b o",
      "c he",
      "e y",
      "e nd",
      "k y",
      "o ke",
      "u ed",
      "u al",
      "— ”",
      "▁t alked",
      "he ad",
      "▁w ife",
      "▁s n",
      "ou n",
      "at ing",
      "▁b ody",
      "▁f in",
      "▁f re",
      "is ted",
      "en s",
      "on s",
      "▁d el",
      "▁d ist",
      "▁in st",
      "▁ha ll",
      "▁u sed",
      "▁T his",
      "ir t",
      "▁as \n",
      "il ed",
      "▁him .",
      "▁se c",
      "▁my self",
      "▁sh ad",
      "▁sh ook",
      "▁were \n",
      "▁man y",
      "▁who le",
      "um b",
      "▁house ,",
      "▁co at",
      "▁co ld",
      "▁fl ow",
      "▁“A nd",
      "▁gre en",
      "▁girl s",
      "▁bre ath",
      "▁sum mer",
      "▁Chicag o",
      "b ed",
      "e or",
      "g ot",
      "k en",
      "l ight",
      "o g",
      "o nd",
      "u p",
      "— I",
      "▁ K",
      "▁ V",
      "▁t a",
      "▁s in",
      "▁s ame",
      "▁b ought",
      "▁c orn",
      "▁c ool",
      "▁f ore",
      "or ch",
      "▁he ’s",
      "▁p ast",
      "▁p ull",
      "▁p orch",
      "▁be \n",
      "st air",
      "▁T hat",
      "▁you .”\n",
      "▁it .”\n",
      "▁wh y",
      "ant ly",
      "▁S u",
      "▁su it",
      "ch ing",
      "▁sh o",
      "▁sh ar",
      "em pt",
      "▁li ve",
      "▁into \n",
      "▁ex cept",
      "▁ag o",
      "▁“T hat’s",
      "▁I’ ve",
      "▁fac t",
      "▁F or",
      "▁de f",
      "▁de ep",
      "▁pl ace",
      "▁dis app",
      "▁even ing",
      "▁open ed",
      "▁ins isted",
      "▁pr om",
      "▁hu ndred",
      "▁exp ression",
      "▁“C ome",
      "▁remem ber",
      "▁answ ered",
      "▁belie ve",
      "▁arri ved",
      "▁Is land",
      "- d",
      "a v",
      "d er",
      "g hed",
      "o s",
      "p ted",
      "— but",
      "▁a ct",
      "▁w all",
      "▁w on’t",
      "▁w alk",
      "▁s id",
      "ou d",
      "▁m ont",
      "▁d raw",
      "▁l if",
      "an e",
      "es \n",
      "▁p ool",
      "le m",
      "▁e m",
      "▁that ’s",
      "’s \n",
      "▁st ay",
      "▁st op",
      "▁re ached",
      "▁as k",
      "▁G eor",
      "if t",
      "sb and",
      "▁su re",
      "▁Tom .",
      "▁al most",
      "▁le ast",
      "▁some body",
      "▁ch ild",
      "ra z",
      "▁“T his",
      "▁tim es",
      "▁“I’ d",
      "▁get ting",
      "▁“You ’re",
      "▁mo on",
      "▁wor k",
      "▁“N o,",
      "▁en ough",
      "▁pol ic",
      "▁ins ide",
      "▁lau ghed",
      "▁“Wh o",
      "▁wom en",
      "▁hu sband",
      "▁“L ook",
      "▁clo se",
      "▁comp le",
      "▁sit ting",
      "▁dro ve",
      "▁whis p",
      "▁dre am",
      "▁flo or",
      "▁nod ded",
      "▁spe ak",
      "▁crow d",
      "- f",
      "d ay",
      "e x",
      "i ent",
      "m ing",
      "n ed",
      "t ure",
      "t ty",
      "v ent",
      "x ford",
      "— it",
      "▁t er",
      "▁t en",
      "▁w r",
      "▁s ight",
      "▁s ister",
      "re ady",
      "at ,",
      "▁m ot",
      "▁m outh",
      "▁c ity",
      "▁f all",
      "▁“ P",
      "▁l ay",
      "▁he ld",
      "▁he sit",
      "▁g ro",
      "▁p ale",
      "▁be ing",
      "st er",
      "ver ed",
      "ver al",
      "▁you ’re",
      "▁r ais",
      "▁me .\n",
      "▁re t",
      "▁re ad",
      "ion ,",
      "▁S ome",
      "▁se veral",
      "▁k ind",
      "em an",
      "e, \n",
      "▁un f",
      "▁j o",
      "▁C ather",
      "ra ve",
      "▁is n’t",
      "ven ’t",
      "▁now ,",
      "▁gl ass",
      "▁Wilson ’s",
      "▁door .",
      "ious ly",
      "▁dr ink",
      "▁cou p",
      "▁ad m",
      "▁rep e",
      "▁str ang",
      "▁war m",
      "▁step s",
      "▁conf us",
      "▁fam ily",
      "▁stand ing",
      "▁real iz",
      "▁sugg ested",
      "▁vi ol",
      "▁does n’t",
      "▁ap art",
      "▁eff ort",
      "▁shad ow",
      "▁shar p",
      "▁mont h",
      "▁polic eman",
      "c ked",
      "i a",
      "i an",
      "i pped",
      "m orrow",
      "o ld",
      "t he",
      "u b",
      "u ck",
      "y ed",
      "▁t ri",
      "he s",
      "in ite",
      "▁o cc",
      "er .\n",
      "▁h op",
      "at ive",
      "▁m id",
      "en c",
      "en ed",
      "ing .",
      "▁to morrow",
      "▁d ust",
      "▁d inn",
      "▁d iff",
      "▁l ar",
      "▁l ess",
      "▁l ate",
      "ar ked",
      "▁e ag",
      "▁be aut",
      "▁r an",
      "▁re s",
      "▁for \n",
      "▁for ward",
      "▁for got",
      "▁M ont",
      "ant ic",
      "▁su sp",
      "▁we \n",
      "▁sh ow",
      "▁all \n",
      "▁but \n",
      "▁go ld",
      "un g",
      "un t",
      "▁C ody",
      "▁“T hat",
      "▁car .",
      "ation s",
      "▁O ne",
      "▁O xford",
      "▁again ,",
      "▁F r",
      "▁before .",
      "ff e",
      "▁way ,",
      "▁off ice",
      "▁L ong",
      "▁pre tty",
      "▁star ed",
      "▁“N o",
      "▁part y",
      "ru pt",
      "▁“She ’s",
      "▁happen ed",
      "▁ke ep",
      "▁remem b",
      "▁mone y",
      "▁lea ving",
      "▁lean ed",
      "▁hur ried",
      "▁lun ch",
      "▁McK ee",
      "▁pull ed",
      "▁comple te",
      "▁whisp ered",
      "- h",
      "c ent",
      "s he",
      "u ff",
      "▁ ed",
      "▁t rou",
      "▁w ire",
      "▁w ild",
      "▁s im",
      "▁s ign",
      "er s,",
      "▁h um",
      "re n",
      "▁m us",
      "▁m ist",
      "it y,",
      "▁c e",
      "▁c re",
      "▁c ig",
      "▁c ap",
      "▁c raz",
      "▁f inger",
      "on e,",
      "▁d im",
      "▁d et",
      "as h",
      "▁he ’d",
      "ar s",
      "▁g h",
      "▁p ow",
      "▁p leas",
      "▁ha ven’t",
      "ver s",
      "▁r om",
      "ur red",
      "▁me \n",
      "▁for m",
      "ter n",
      "ion .",
      "▁W ith",
      "▁W hat",
      "▁S ound",
      "▁S omet",
      "▁my \n",
      "▁up ,",
      "▁said .\n",
      "▁out side",
      "ol ute",
      "▁Tom ’s",
      "▁kn own",
      "▁whe el",
      "▁al ready",
      "▁un c",
      "▁ex t",
      "au ght",
      "▁some where",
      "▁car .”\n",
      "▁no se",
      "▁eyes .",
      "▁then ,",
      "ct or",
      "▁co ll",
      "▁night ,",
      "▁way .",
      "▁off ic",
      "ies ,",
      "▁qu estion",
      "▁away .\n",
      "▁de ad",
      "▁rem ark",
      "▁rem arked",
      "▁gre y",
      "▁“D id",
      "▁en orm",
      "▁sw e",
      "▁fo ot",
      "▁pol ite",
      "▁lau ght",
      "▁exc it",
      "igh b",
      "▁supp ose",
      "▁cur ious",
      "▁“B ut",
      "▁slow ly",
      "▁follow ed",
      "▁sing le",
      "▁move ment",
      "▁bot h",
      "▁pic ture",
      "▁immediate ly",
      "▁sin ce",
      "▁fore ver",
      "▁rais ed",
      "▁coup é",
      "▁enorm ous",
      "- g",
      "a id",
      "b out",
      "d le",
      "e a",
      "g ro",
      "h y",
      "i or",
      "j o",
      "l ud",
      "n ight",
      "o ve",
      "o sed",
      "y .\n",
      "y ond",
      "— a",
      "▁ ir",
      "▁t ak",
      "in ing",
      "in ted",
      "▁w et",
      "▁s ad",
      "▁s qu",
      "▁s ick",
      "▁s erv",
      "er m",
      "er al",
      "▁h or",
      "▁h ar",
      "ou b",
      "at ur",
      "▁m ind",
      "▁b ad",
      "▁c olour",
      "ing s",
      "on ,",
      "as e",
      "▁l ost",
      "ar ra",
      "ll ed",
      "▁g i",
      "▁g en",
      "▁g as",
      "▁g rave",
      "▁p ri",
      "▁n ice",
      "▁e mb",
      "▁e ither",
      "▁be yond",
      "▁u r",
      "▁u s,",
      "ent ly",
      "ur g",
      "ur ch",
      "▁me et",
      "▁her .",
      "▁for get",
      "▁as leep",
      "if ic",
      "if ty",
      "ri ble",
      "▁k illed",
      "ess ed",
      "▁li ved",
      "▁Daisy .",
      "un k",
      "▁man .”\n",
      "▁le ave",
      "▁ne ar",
      "▁ne ighb",
      "ul ous",
      "ra id",
      "▁J ay",
      "▁J ust",
      "▁ag re",
      "▁one \n",
      "▁who \n",
      "▁“T here",
      "ck et",
      "▁too ,",
      "ress ed",
      "▁tim e,",
      "ear ed",
      "▁now .",
      "are t",
      "▁gl ad",
      "▁qu ality",
      "▁away .",
      "▁door .\n",
      "▁sm iled",
      "▁fl at",
      "▁bl ack",
      "▁per haps",
      "▁room .\n",
      "▁sl ight",
      "▁po int",
      "▁po cket",
      "—t hat",
      "▁minut es",
      "▁ph ys",
      "▁cou ch",
      "▁wait ed",
      "▁exc ited",
      "▁te a",
      "▁“The y",
      "▁sil ver",
      "▁ke pt",
      "▁tre mb",
      "▁add ed",
      "▁ho ld",
      "▁“Y es",
      "▁gu est",
      "▁surpris ed",
      "▁aut om",
      "▁expl ained",
      "▁glanc ed",
      "stair s",
      "▁repe ated",
      "▁eag er",
      "arra way",
      "▁neighb our",
      "- b",
      "- p",
      "1 9",
      "b y",
      "c u",
      "c er",
      "d ing",
      "e f",
      "e .\n",
      "e ad",
      "l a",
      "o c",
      "r ang",
      "s o",
      "s ’",
      "▁ ”\n",
      "▁ ver",
      "in e,",
      "▁s k",
      "▁s leep",
      "er \n",
      "re w",
      "▁m other",
      "▁m aking",
      "▁b le",
      "▁b lo",
      "it ies",
      "▁c le",
      "▁f ool",
      "is sed",
      "is ible",
      "▁“ E",
      "▁“ F",
      "▁“ J",
      "▁l ot",
      "▁he at",
      "ar r",
      "om p",
      "▁th ir",
      "es .\n",
      "▁ha ving",
      "▁n ec",
      "▁T h",
      "ent y",
      "ot og",
      "▁r ang",
      "▁wh om",
      "ur ed",
      "ur ing",
      "▁re g",
      "▁re ally",
      "ter ed",
      "il o",
      "▁W ell,",
      "▁Gat z",
      "ri ll",
      "ant ,",
      "▁S lo",
      "▁A ll",
      "▁A mer",
      "▁sh ap",
      "▁sh irt",
      "▁from \n",
      "▁He \n",
      "▁Tom .\n",
      "▁v ill",
      "▁there \n",
      "▁there ’s",
      "▁so ft",
      "▁sp oke",
      "▁con s",
      "▁con vers",
      "au ffe",
      "ill e",
      "us h",
      "▁ne ed",
      "▁some one",
      "ul t",
      "▁ch auffe",
      "▁have \n",
      "um p",
      "▁any one",
      "▁any how",
      "▁they \n",
      "▁know .",
      "▁when \n",
      "▁want s",
      "are nt",
      "▁before .\n",
      "▁gl ow",
      "▁mo ving",
      "▁moment ,",
      "▁“A ll",
      "▁bl ind",
      "▁here ,",
      "▁long er",
      "▁room ,",
      "▁day s",
      "sp ap",
      "▁po ss",
      "▁sc ar",
      "▁“O h",
      "▁en g",
      "▁sport .”\n",
      "▁bo y",
      "▁“What ’s",
      "▁cl ot",
      "▁dri ving",
      "▁ob ject",
      "▁new spap",
      "▁lau gh",
      "▁inter est",
      "▁word s",
      "▁bro ken",
      "▁ad v",
      "co nd",
      "▁Egg ,",
      "▁love ly",
      "▁fam iliar",
      "▁chang e",
      "▁acc ident",
      "▁wat ch",
      "▁inquired .\n",
      "▁contin ued",
      "▁fun ny",
      "▁fre sh",
      "▁sec ret",
      "▁Geor ge",
      "▁mot or",
      "▁apart ment",
      "▁lar ge",
      "▁rememb ered",
      "▁cig aret",
      "▁gh ost",
      "▁rom antic",
      "▁ir re",
      "otog ra",
      "▁Amer ic",
      "▁convers ation",
      "▁chauffe ur",
      "- t",
      "a w",
      "b b",
      "c hen",
      "e ge",
      "f raid",
      "i ke",
      "i pp",
      "k ing",
      "n ot",
      "o b",
      "o ll",
      "r ing",
      "r ic",
      "s ist",
      "u le",
      "▁ U",
      "▁a fraid",
      "▁s er",
      "er ful",
      "▁h ost",
      "▁m il",
      "▁m ag",
      "it chen",
      "▁f ad",
      "▁f ig",
      "▁f ine",
      "▁“ and",
      "▁to w",
      "▁d oub",
      "as hed",
      "▁I f",
      "▁l at",
      "▁l im",
      "▁l isten",
      "▁th ick",
      "▁p ur",
      "▁p ause",
      "▁y ard",
      "im es",
      "st ore",
      "▁T hat’s",
      "ve l",
      "▁you ’ve",
      "ay s",
      "▁r ed",
      "▁r ow",
      "▁r ac",
      "▁r ich",
      "▁st ation",
      "▁st ru",
      "▁st ret",
      "▁st reet",
      "am iliar",
      "▁as h",
      "▁“I f",
      "▁H ot",
      "il ight",
      "ro d",
      "ro p",
      "ro ad",
      "all y,",
      "▁se cond",
      "▁A l",
      "▁D an",
      "▁k itchen",
      "▁do ing",
      "▁int rod",
      "▁li ving",
      "▁li br",
      "▁all .",
      "▁all .\n",
      "▁Tom \n",
      "▁“W here",
      "ag ue",
      "▁v ague",
      "▁there .",
      "▁there .”\n",
      "▁so lem",
      "▁con ce",
      "ast ic",
      "▁ch urch",
      "▁who se",
      "▁or der",
      "▁N o",
      "▁tr an",
      "▁tw ilight",
      "ie ce",
      "▁eyes .\n",
      "▁com ing",
      "▁com pl",
      "▁“A ny",
      "▁dr ug",
      "▁dr unk",
      "▁light s",
      "▁bec ame",
      "▁part ies",
      "▁sport ,”",
      "▁inc ess",
      "▁inc red",
      "▁inc lud",
      "anc ing",
      "anc es",
      "▁ob l",
      "▁imp ression",
      "▁gr ass",
      "▁ph one",
      "▁ph otogra",
      "▁cou nt",
      "▁let ter",
      "▁exc la",
      "inn ing",
      "▁sil ence",
      "▁gar ag",
      "▁“G o",
      "▁“G ood",
      "▁dre w",
      "▁abs olute",
      "▁pres ence",
      "olour ed",
      "▁aw are",
      "ix ed",
      "▁tou ch",
      "▁aff air",
      "▁cor re",
      "▁rel uct",
      "full y",
      "▁Do ctor",
      "▁ta xi",
      "▁stay ed",
      "▁hesit ated",
      "▁ret urn",
      "▁unf amiliar",
      "▁occ urred",
      "▁dinn er",
      "▁diff er",
      "▁forgot ten",
      "▁trou ble",
      "▁craz y",
      "▁tak en",
      "▁pri v",
      "▁emb arr",
      "▁tremb ling",
      "ilo xi",
      "▁Slo ane",
      "▁solem n",
      "▁excla im",
      "0 0",
      "b e",
      "b urg",
      "e b",
      "i er",
      "i ant",
      "j ust",
      "l ip",
      "l ves",
      "o ss",
      "r ac",
      "t ail",
      "v in",
      "v ident",
      "— e",
      "▁t ight",
      "in et",
      "in ct",
      "▁w in",
      "▁s en",
      "▁s le",
      "▁s al",
      "▁s ix",
      "▁o pp",
      "er y",
      "er en",
      "er ing",
      "er able",
      "▁h ast",
      "ou is",
      "re as",
      "re ad",
      "at or",
      "at ic",
      "at ient",
      "▁m ad",
      "▁m utter",
      "▁b ar",
      "▁b ath",
      "it ality",
      "▁c aught",
      "▁f ur",
      "▁f ather",
      "is m",
      "ing ly.",
      "▁“ but",
      "on ed",
      "▁d am",
      "▁d one",
      "▁d iv",
      "▁d ire",
      "▁d uring",
      "or ed",
      "▁l ad",
      "▁of ten",
      "an ,",
      "▁th in",
      "▁g ay",
      "▁g ather",
      "▁p ap",
      "▁p air",
      "▁p ushed",
      "▁n erv",
      "▁e ight",
      "▁y et",
      "▁y ach",
      "▁be at",
      "▁be ach",
      "▁that .",
      "▁u se",
      "▁you ’ll",
      "▁it ,”",
      "▁st ory",
      "al \n",
      "▁me l",
      "▁me m",
      "▁re f",
      "▁re as",
      "▁“I s",
      "ion .\n",
      "▁H ow",
      "▁him .”\n",
      "ro l",
      "if ul",
      "if ied",
      "▁Gatsby .\n",
      "▁se a",
      "▁up \n",
      "▁we ’d",
      "▁do ll",
      "▁li ps",
      "ag ed",
      "ag es",
      "▁v an",
      "▁con n",
      "ind ed",
      "▁man ,",
      "▁C arraway",
      "▁some \n",
      "▁ch amp",
      "▁J un",
      "▁down ,",
      "▁like \n",
      "ck tail",
      "▁E ck",
      "ive ly",
      "▁N ow",
      "▁car s",
      "▁It ’s",
      "▁little ,",
      "▁no on",
      "▁house .",
      "able \n",
      "▁fac es",
      "ie f",
      "▁before ,",
      "▁turn ing",
      "▁moment .",
      "▁co cktail",
      "▁night .",
      "▁way .\n",
      "▁qu ite",
      "▁qu iet",
      "▁more \n",
      "▁sm ile",
      "▁Jordan ,",
      "▁Jordan ’s",
      "▁your \n",
      "▁other \n",
      "▁per f",
      "▁ac ce",
      "▁girl ,",
      "▁here ,”",
      "▁every one",
      "▁dr if",
      "▁“D aisy",
      "▁po or",
      "▁sc ene",
      "▁“N ot",
      "▁“O f",
      "▁en jo",
      "▁part ic",
      "▁bo nd",
      "▁minut e,",
      "▁ob v",
      "▁men ,",
      "▁imp atient",
      "iz ed",
      "▁afternoon .",
      "▁afternoon .”\n",
      "▁Bak er,",
      "▁des p",
      "▁bel ong",
      "▁dark ness",
      "▁pro f",
      "▁rest less",
      "▁sil ent",
      "▁clo sed",
      "az ed",
      "▁hard ly",
      "leas e",
      "▁el se",
      "▁talk ing",
      "▁St reet",
      "▁hel p",
      "-c oloured",
      "▁bed room",
      "▁voic es",
      "▁feel ing",
      "▁nam ed",
      "▁ele v",
      "▁sub ject",
      "▁fin ally",
      "up on",
      "▁Su dden",
      "▁walk ing",
      "▁sid ew",
      "▁em ot",
      "▁ter rible",
      "▁gro an",
      "inite ly",
      "▁mus ic",
      "▁ext ra",
      "▁serv ant",
      "▁agre ed",
      "▁phys ical",
      "▁Americ an",
      "▁fig ure",
      "▁drug store",
      "▁incred ulous",
      "vident ly",
      "eren ’t",
      "▁nerv ous",
      "a f",
      "a ur",
      "a ven",
      "c ted",
      "d ered",
      "e \n",
      "g r",
      "h us",
      "h ile",
      "j ected",
      "k s",
      "m y",
      "o f",
      "r al",
      "t o",
      "v o",
      "v al",
      "w o",
      "▁ (",
      "▁ 19",
      "▁t ear",
      "▁t aking",
      "▁w re",
      "▁w and",
      "▁w ide",
      "▁w eren’t",
      "▁s on",
      "er haps",
      "▁h ous",
      "at sby",
      "▁m is",
      "▁m ention",
      "▁b it",
      "▁b ay",
      "▁b ur",
      "▁b est",
      "it ion",
      "▁c at",
      "▁c ut",
      "▁c ard",
      "▁c ous",
      "▁c op",
      "▁c ry",
      "▁f ant",
      "▁f ellow",
      "▁f ifty",
      "is ed",
      "is ing",
      "ing ing",
      "ing ly",
      "▁to day",
      "▁d amp",
      "or ,",
      "or ld",
      "or ted",
      "as m",
      "▁l ap",
      "▁l ine",
      "ar y,",
      "ar ious",
      "ar ily",
      "an n",
      "an y",
      "▁th row",
      "▁th rew",
      "▁g le",
      "▁g ent",
      "▁g lo",
      "▁g ate",
      "▁g row",
      "▁g olf",
      "▁p ar",
      "▁p ass",
      "le ,",
      "le burg",
      "ut h",
      "id ed",
      "▁e at",
      "▁e as",
      "im ent",
      "▁on ,",
      "ent \n",
      "ent ly.",
      "▁you .",
      "et ,",
      "▁it ?”\n",
      "ot e",
      "▁st e",
      "▁st iff",
      "al m",
      "▁me .”\n",
      "▁her ,”",
      "▁her self",
      "▁re ach",
      "▁re sp",
      "am ed",
      "am ent",
      "▁“I n",
      "il t",
      "▁fr ight",
      "▁fr own",
      "▁W orld",
      "▁him \n",
      "▁se ar",
      "▁su per",
      "▁up stairs",
      "▁said \n",
      "▁out \n",
      "▁int im",
      "▁ab rupt",
      "▁ab ove",
      "▁B e",
      "▁B y",
      "our n",
      "▁Daisy \n",
[...]
