#version: 0.2
Ġ t
r e
" "
i n
o n
Ġ a
a l
h e
o u
e r
a n
Ġ w
a t
Ġ s
r u
i s
o r
Ġ b
m p
Ġt he
in g
"" "
Ġ T
e n
ru mp
Ġ f
i t
e s
Ġ re
Ġ c
Ġ m
a r
Ġt o
l l
i c
on al
, """
Ġ h
Ġ p
Ġ d
Ġ y
onal d
a s
l e
D onald
Ġ g
Ġre al
T rump
Ġ o
Ġy ou
Ġ in
Ġ I
Ġ n
Ġa n
e d
Donald Trump
Ġreal DonaldTrump
Ġt h
Ġ is
Ġ l
Ġ A
v e
o w
Ġb e
o t
Ġo f
s t
a y
a m
o m
Ġ C
Ġan d
Ġ on
, "
Ġf or
i d
Ġ M
a c
Ġ S
i ll
en t
i g
e t
Ġ B
v er
i on
l d
an k
Ġ e
n t
a d
l y
ĠT rump
Ġ W
! "
ĠT h
p p
u s
Ġ P
re at
o o
k e
Ġ G
. "
i m
' s
Ġ O
ic e
Ġ D
Ġ N
b am
e w
u t
Ġ H
re s
u r
Ġ it
t er
c h
Ġ he
s e
bam a
Ġs t
ĠTh ank
. .
r o
Ġ R
- -
an d
a ve
es t
o l
ou ld
h t
i r
ou r
Ġa t
2 0
Ġw ill
ac k
Ġw e
u n
Ġw h
it h
Ġ L
Ġ j
1 6
Ġa re
1 0
Ġs h
r i
Ġth at
1 3
1 9
e c
ou t
Ġ F
e l
Ġd o
Ġg reat
ig ht
1 2
u st
er s
1 4
o p
es s
1 5
1 7
1 8
Ġw ith
re nt
Ġh ave
' t
Ġyou r
u l
ĠT he
Ġn e
Ġ J
a g
c e
i l
Ġ r
Ġ &
pp rent
at e
an t
pprent ice
Ġ Y
ĠThank s
id ent
en d
i f
Ġ v
it y
res ident
Ġ E
as t
r y
Ġm y
e e
on t
Ġ ""
at ion
d ay
Ġ -
,""" :
he r
t h
Ġn ot
ĠO bama
Ġw or
ar d
. ""
on e
Ġs u
Ġ U
ver y
! !
n e
Ġd e
o re
T he
Ġl o
Ġa s
e le
i ke
i a
Ġ k
ar t
Ġw as
Ġth is
Ġc an
on g
ĠC h
oo d
Ġ le
o b
Ġg o
r a
i e
is t
i ve
om e
O bama
oo k
Ġa ll
in k
Ġb y
Ġs o
Ġh as
Ġm e
m er
ele b
b le
Ġ u
a k
Ġ our
Ġ Donald
r om
a ke
Ġ ru
Ġa b
c t
Ġ (
c k
im e
a re
Ġw ould
al l
o s
a in
m ent
Ġg et
Ġs p
ou g
ar ack
Ġf rom
Ġp l
or t
Ġc h
Ġh is
ou nt
Ġ K
mer ic
e p
o st
n d
B C
Ġsh ould
ec t
Ġ V
ĠA pprentice
Ġru n
arack Obama
Ġa g
e ar
Ġe x
Ġj ust
ĠC eleb
e op
o d
Ġne ed
a v
in e
eop le
Ġab out
b er
i es
ĠA meric
ĠY ou
Ġm an
ĠB arackObama
u b
f f
ou s
i re
Ġwh at
he n
Ġw in
Ġa m
Ġ out
Ġb ut
i ew
ol f
e m
Ġp ro
Ġwh o
Ġp resident
Ġl ike
n ow
ĠH e
.. .
ĠS t
u m
c c
Ġp eople
Ġa l
an s
q u
Ġthe y
g e
or d
Ġn ew
. """
Ġon e
Ġc ount
a z
o x
it t
Ġ us
Ġc o
n ing
as e
Ġu p
ay s
A pprentice
! """
Ġ un
ĠG reat
m an
! ""
3 0
it e
at ch
Ġsh ow
i v
h ing
Ġb u
Ġg ood
Ġd is
ĠW h
Ġt ime
Ġm ore
on d
ic k
ĠW e
as s
Ġth ink
ĠP resident
Ġs e
4 4
o y
s p
Ġb est
ru e
Ġo ver
Ġcount ry
e al
w e
is s
5 0
a w
ig n
7 7
c ont
v iew
Ġs ee
Ġj ob
a pp
Ġwor k
Ġ $
6 0
8 8
N BC
r at
i p
oug h
u re
Ġk now
Ġin t
ar y
ank s
2 2
Ġ --
in a
am e
9 9
Ġ very
a mp
ri end
Ġ or
i onal
Ġn ow
1 1
Ġ en
ĠI t
Ġin ter
c us
Ġc on
Ġl ook
4 0
ic h
Ġan y
Ġh im
in d
Ġd on
Ġlo ve
e re
Ġc l
3 3
8 0
Ġy ear
ne y
6 6
7 0
Ġb ig
in ess
r ity
5 5
v en
Ġp r
Ġth an
9 0
us iness
Ġof f
Ġb ack
Ġa d
ot e
ac e
Ġw ant
ag e
cc ess
o ll
i al
Ġe very
Ġinter view
ing s
ion s
2 3
Ġc our
res s
, .
ew s
Ġgo ing
? ""
r ow
Ġ if
8 4
u d
2 5
u ch
Ġne ver
Ġc om
8 5
c ot
Ġn o
Ġle ad
ar k
ĠM r
2 4
ow er
9 6
T h
i ver
7 4
8 3
u e
ĠU S
e ll
id e
l and
le ase
ation s
ĠAmeric a
a p
at ional
7 5
Ġw hen
7 3
7 6
9 3
9 5
2 6
f ul
Ġ i
Ġh ow
Ġbe t
Ġm ake
as on
om ney
op e
Ġ '
t s
Ġthe m
ĠCeleb Apprentice
M y
9 4
Ġag ain
8 6
C h
w ard
ĠApprentice NBC
i ld
o ve
Ġto day
Ġb usiness
re e
u ck
l ic
Ġon ly
us e
riend s
al ly
Ġreal ly
or k
Ġre c
a b
o g
u g
on ight
ĠM itt
i z
an n
Ġd id
' m
Ġbe c
V ia
a h
Ġr ight
' re
Ġ ke
is h
ad e
Ġ """
Ġm uch
Ġdo es
a x
ow n
ac t
e g
i le
az ing
Ġw atch
Ġl ast
R omney
t on
w ays
p er
Ġt onight
re d
Ġb r
se l
ong rat
ĠJ o
s h
Ġt r
re t
Ġsu ccess
2 1
t her
Ġc ont
ĠCeleb rity
Ġg u
Ġa r
re p
Ġn ight
Ġbe en
Ġpl ay
Ġs ome
ur n
ot her
Ġman y
or al
ub lic
Ġthe re
Ġt er
Ġcour se
ĠCh ina
Ġbet ter
ou nd
o v
a il
p t
r ong
Ġs m
c on
Ġbe ing
e k
Ġco mp
C are
Ġv ote
ill ion
one y
3 5
W h
r is
ĠMitt Romney
E A
we et
2 8
2 9
Ġ ro
a use
Ġdo ing
Ġwor ld
) "
ct ion
2 7
6 4
Ġ .
3 4
6 5
it ic
or y
Ġs ay
ir st
Ġwe re
r ic
Ġthe ir
ĠN Y
ag o
x t
s ing
Ġwe ek
Ġt rue
Ġm ust
Ġde b
Ġt rump
ot el
Ġe ver
Ġre ad
ak ing
Ġp ol
a ut
al k
an ce
Ġ qu
8 7
i ly
n er
Ġa w
at ed
Ġg olf
i b
i ous
t ing
Ġh app
sel f
0 0
Ġw ay
ĠN ew
Ġat t
Ġ %
9 7
Ġst art
Ġde al
ĠB e
Ġb ad
if e
a it
he re
s on
en ce
Ġm oney
ĠS cot
ĠThe y
Ġse ason
S t
a ble
th ing
ic t
Ġam azing
Ġd ay
Ġyear s
o se
Ġc ould
E R
re ne
Ġf ox
Ġe ven
5 4
Ġh ad
Ġo ther
Ġal ways
rene ur
ĠA r
ĠObama Care
Ġdis cus
rep reneur
at t
Ġh ard
R U
ĠI f
i o
ĠM iss
6 3
ĠS o
Ġneed s
8 9
a id
u p
in es
Ġn ice
Ġde f
con om
f riends
Ġth anks
ac h
Ġg ot
Ġhe r
' ll
N ews
Ġrec ord
i an
ĠI n
p en
Ġin c
Ġe le
Ġint o
U S
r an
Ġf irst
at es
Ġi mp
Ġw ait
Ġf in
and friends
h n
ic ago
oug ht
Ġke ep
Ġfox andfriends
d er
m or
ĠG olf
ĠU n
re n
Ġre p
Ġto o
Ġbe l
Ġe conom
E S
Ġa f
O P
Ġ :
er y
ĠM ac
ĠB r
Ġre sp
ie ve
Ġt w
Ġl uck
g et
m s
ĠT H
Ġm ost
Ġo w
20 16
Ġwh y
ĠF ox
Ġne xt
I N
t y
Ġt ake
en n
Ġbe aut
m y
Ġm ade
6 7
ĠI nt
ĠA l
ĠA nd
ĠTh at
if ul
on s
Ġb ook
Ġd own
is e
Ġbec ause
M P
Ġf un
Ġit s
h ip
Ġ ent
Ġdiscus sing
t he
Ġa pp
Ġh ig
Ġp ers
ĠR ep
A N
s o
ĠT rue
le d
I f
T o
Ġto t
a ir
it ed
Ġh ope
ĠTh ink
ĠN o
ĠWh at
ond er
ou se
Ġb l
pp ort
Ġwe ll
ul ations
Ġbu ild
9 8
Ġgu y
4 5
u ll
C ongrat
O N
Ġt ru
an g
Ġf e
Ġre s
Ġsm art
o ck
ĠM ar
W e
Ġt ax
," .
Ġfor ward
Ġm or
Ġp er
' ve
Ġw ar
ĠS h
j oy
ar l
Ġag ree
er v
ĠI s
Ġlo s
um b
o c
Ġw onder
f or
v ank
Ġs c
Ġf o
Ġd es
Ġsu re
Ġt weet
Ġs he
Ġv ia
vank a
em ber
er t
oo l
im es
Ġr at
a ug
g y
Ġt e
as ter
l p
o in
he d
ĠC an
RU MP
3 6
Ġg ive
ĠA ll
I n
Ġlead ers
t e
er al
Ġs aid
er n
Ġun der
e ad
Ġ im
Ġd one
al m
mp l
es ter
ĠJ ust
ere st
repreneur s
i am
Ġd ec
ut e
ast ic
ak es
8 2
v ent
Ġl ong
ĠScot land
Ġow n
Ġbeaut iful
ĠN BC
ĠH ow
i k
Ġh otel
ĠA m
ĠG ood
ĠAmeric an
Ġpol itic
3 7
O T
n y
ar s
Ġp lease
ĠI vanka
ir th
Ġt alk
Ġpro ble
b s
an c
an y
Ġaf ter
A C
n g
re m
os s
ver n
ee p
Ġex p
Ġwin d
Ġjob s
Ġw on
or s
Ġter ri
e b
9 2
e y
in s
Ġhe lp
app y
O U
ĠD oral
Ġbel ieve
r ist
in ce
en s
end ing
I t
Ġh on
Ġl ot
ĠC l
Ġyour self
id er
ant astic
Ġk ill
n ce
o ld
ĠT ime
ĠT ower
om et
ĠRep ublic
? "
a j
ĠT e
Ġthe n
Ġst op
iver s
9 1
is ion
Ġan other
ĠM on
ire d
u ff
Ġl ife
ĠB ill
Ġch ar
Ġto p
Ġatt ack
5 3
A L
.. ..
Th anks
4 6
5 6
O R
y s
at h
Ġle t
Ġsp e
ester day
on y
Ġg r
ĠM y
ĠG OP
d e
4 3
5 7
u es
Ġs ign
ĠN ational
od y
8 1
i ble
le x
4 7
an ge
Ġb ill
Ġc ome
ad y
10 0
oll ow
f ore
Ġf ail
ĠY ork
ĠD o
ĠV ery
Ġre m
ĠS p
Congrat ulations
Ġmor ning
Ġth ings
ur ing
20 0
Ġpl ace
Ġex c
ĠTH E
it s
it ies
ĠTh is
ĠL ike
Ġf av
Ġp ut
A R
A T
Ġs ur
Ġf ar
Ġd est
ĠB l
ĠR eal
Ġhig h
c om
i er
Ġc eleb
Ġg iv
ĠS un
ĠIvanka Trump
Ġf am
es ome
E N
b e
irth day
G et
at ing
Ġp ass
Ġan n
ĠP lease
up id
Ġele ction
Ġpers on
Ġw here
Ġhe ar
Ġbu y
Ġeconom y
ot h
Ġdoes n
Ġto mor
un e
Ġso on
iver se
Ġf antastic
Ġg l
ĠW ill
ĠD eal
ĠN ot
ĠUS A
Ġfo cus
Ġtomor row
G reat
Y ou
a ul
g an
Ġm iss
ĠCh icago
Ġe l
Ġst ill
!! !!
av ing
c y
t ic
al s
he s
ĠT RUMP
Ġp ay
Ġin v
ĠI ran
vern ment
Ġ end
Ġs ec
Ġp art
Ġth ing
st er
-- -
ĠE ric
Ġc reat
Ġc are
Ġy esterday
ĠW as
Ġst rong
hing ton
Ġwatch ing
Ġrat ings
E nt
Ġs et
Ġre t
Ġo pen
Ġnot hing
amp a
Ġagain st
N Y
ĠL ove
Ġhapp en
S h
13 0
ĠAr t
Ġresp ect
Ġtot al
mpl oy
i ers
en se
ĠA f
av id
Ġlead er
Ġdeb t
m in
Ġa ct
or ld
Ġin sp
Ġth ought
ĠTrump T
ĠD on
ĠF or
Ġcont in
ĠCelebrity Apprentice
v ed
at her
Ġbe fore
ot i
Ġe p
ĠG o
ĠY es
Ġnew s
ĠWh y
oin t
S T
er ry
ĠS he
ĠB ig
if f
Ġas k
f t
m ing
m ed
Ġf ollow
ĠN e
Ġwh ich
Ġne g
ee ch
Ġpl an
amp ion
Ġlook ing
Ġtw o
ĠSun day
Ġst ay
ra q
i x
Ġf ight
Ġen joy
Ġfav or
B e
p h
Ġs omet
Ġoff ice
v es
ou d
et s
ĠH appy
17 0
n ot
Ġst upid
14 0
15 0
18 0
IN G
Ġc he
Ġc all
as ed
ĠC ar
ro y
19 0
ment s
Ent repreneurs
' d
1 16
a el
ur b
Ġad v
Ġsome one
6 9
Ġm ay
12 3
ook ing
Ġal so
7 2
l es
Ġt ell
Ġc ampa
Ġsu pport
aj or
d s
ar n
Ġl ist
us h
Ġevery one
erest ing
7 8
F or
e v
s s
Ġo il
Ġbuild ing
l ess
Ġ ,
is it
Ġsp eech
D oral
e f
e es
n n
Ġw ast
ĠS u
Ġsu ch
Ġget ting
ann y
Ġdeb ate
Ġaw esome
ĠFox News
7 9
al th
ic es
!! !
Ġcon s
J o
d u
g r
Ġc r
ĠP M
1 20
1 13
? ?
L L
g er
p ris
Ġt ough
it ter
Ġh and
ĠH ouse
ich ael
Ġcom m
ĠJo hn
5 2
6 8
is m
is od
Ġf l
ĠI raq
Ġth r
us s
Ġgo vernment
Ġcon f
ĠNY C
ĠWas hington
e x
Ġt ies
Ġa cc
Ġm ind
Ġm illion
ve l
Ġv iew
Ġwant s
1 10
1 15
1 17
1 18
5 8
f l
y l
Ġt ry
Ġm aking
16 0
Ġv ot
Ġevery thing
Wh y
1 19
3 2
m a
Ġgreat est
ate ly
ĠAmeric ans
1 14
4 9
I C
c o
d o
r ation
re w
Ġs ad
as h
Ġg ame
ot s
ĠW orld
Ġhe re
Ġdis aster
Ġen er
Ġwonder ful
Ġcampa ign
2 10
3 8
Ġg en
Ġhe ll
ĠL et
il ity
ĠY our
Ġsuccess ful
Ġte am
Ġep isod
G olf
t rump
Ġc al
ĠF r
ul t
Ġsomet hing
1 12
4 8
5 9
I S
T ough
u x
y a
Ġm ess
am es
Ġwh ile
iz e
R EA
Ġa c
Ġl ive
ĠB ut
Ġj o
Ġaw ay
M ag
u ally
re ady
ĠM ike
ĠTrump Doral
Ġrun ning
Ġcl ass
To Get
Ġleaders hip
ĠRepublic ans
Ġener gy
3 9
6 2
P resident
Ġt ri
at er
Ġp res
Ġp ublic
Ġth ank
Ġst and
alm ond
Ġfam ily
ToGet Tough
b c
Ġ ide
ou ch
le y
Ġn ame
Ġl aw
ol a
Ġterri ble
Ġthr ough
2 12
g h
u al
at ive
Ġf ast
Ġm ark
ĠA lex
ĠO bam
ĠN ow
ĠN ews
Ġdest roy
c l
k er
m b
re ed
Ġs ol
Ġp m
Ġst ate
ĠY OU
ĠCh rist
Ġch ange
G l
Ġf riend
ĠS y
ur y
Ġv ict
Ġany one
Wh at
Ġimp ort
Ġann ou
Ġd uring
Ġdo ll
Ġas s
Ġu nt
E C
J ust
j ect
Ġm ajor
Ġp h
ch ne
ol ute
un d
ob al
ect ion
Ġco ll
4 2
s c
Ġt urn
ĠT o
Ġp ress
ĠB est
ĠH otel
ĠR T
Ġbr ing
ĠTime ToGetTough
H e
W ith
b ut
g est
Ġt urb
al e
Ġs ays
Ġb oth
Ġf an
Ġd el
ter s
ul ar
Ġal ready
ĠInt ern
Ġspe ak
O ur
i ed
l og
ĠT V
Ġp re
Ġg ret
Ġin s
ĠI S
ĠW hen
ce pt
Ġlook s
Ġpr oud
ĠMon day
Ġunt il
chne ider
R eal
w h
Ġb o
Ġre st
Ġm il
Ġbe g
Ġon ce
ord er
eg as
ĠBr and
Ġinsp ir
Ġfavor ite
REA T
M c
P AC
S p
e ff
o mp
al ent
es p
Ġm ist
Ġy et
Ġl aug
ĠA M
ec ial
az ine
Ch ina
ile d
Ġhapp y
ĠIntern ational
b ola
Ġthe se
Ġf r
Ġd ont
st and
ĠS en
et er
Ġwith out
ĠCh ampion
ra el
Ġus e
Ġany thing
U n
a i
e ve
l ing
Ġs ame
ru pt
or ge
it ion
Ġp at
ĠA t
ĠG et
ĠD avid
ant s
Ġme et
ĠJo an
Ġqu est
Ġproble m
Ġinv est
Ġneg oti
ĠSy ri
2 13
E D
W atch
in er
Ġc or
Ġc ut
ist ory
ink s
ort s
Ġimport ant
D on
o le
Ġs er
ĠT r
Ġf ull
Ġm ove
Ġm akes
ĠC ount
ĠG REAT
if ic
em ember
Ġen ough
Ġother s
Ġfe el
n ess
u nt
u res
an e
Ġm ed
Ġto ld
Ġh ost
ĠTrump Ch
ĠD em
Ġv isit
ĠK eep
Ġwin ning
Ġar ound
iam i
Ġchar ity
Ġsur pris
W E
Ġ !
at ure
Ġh aving
ir l
Ġr a
Ġsp ending
Ġtru th
c ed
Ġt imes
Ġs k
ĠWh ite
Ġcom ing
N ew
V E
w er
Ġ Q
Ġre ason
ĠM ay
ent s
Ġe vent
ĠW atch
Ġag o
aw ire
Ġproble ms
chneider man
D o
R od
S cot
Ġw r
Ġf ind
ĠM id
ĠM ark
ank ees
ĠE bola
Ġde m
ĠMac ys
Ġel se
Ġret urn
A l
a ily
b y
c i
ou p
or n
ĠB en
Ġlo st
Ġad d
Ġbec ome
Ġtweet s
EN T
Ġcal led
O n
r ay
at ers
Ġb ank
it ary
Ġre le
Ġm ag
Ġh ome
Ġp ower
Ġin d
ĠA G
ĠP art
ter man
ri v
Ġthink ing
ud e
sh ow
f ic
i mp
Ġc ost
le te
ĠO n
ĠD anny
ĠR un
ĠR ob
Ġwin ner
Ġad m
for m
7 1
N N
b all
b ody
h am
s es
Ġ DonaldTrump
Ġa p
Ġl ess
ĠC ongrat
ĠS qu
Ġe as
ter n
Ġknow s
Ġdid n
Ġhon or
Ġturb ines
W hen
p l
u c
z er
re am
Ġw ent
le ar
Ġan s
Ġhe alth
ol og
ont h
ong ress
Ġle arn
ber ry
ĠSt ar
Ġeconom ic
pport un
ĠIs rael
Ġlos er
oc rat
ĠEric Trump
i ber
l or
l ine
v in
y ou
Ġs ince
Ġg row
ĠC PAC
ro l
20 5
10 4
ĠJ on
ce ll
Ġle ft
Ġwork ing
Ġweek end
de en
ma her
Ġepisod e
ĠSyri a
) .
a f
e mploy
Ġg as
id ay
10 5
19 4
12 5
14 5
15 5
18 4
18 5
Ġle g
ist s
aw k
Ġfun d
Ġtru ly
Ġwar ming
S almond
i ec
o pp
o ice
Ġw om
Ġs ave
Ġf ix
Ġth ose
Ġl ux
ĠM iami
ill e
ver s
20 4
16 4
10 3
Ġsh ir
13 4
19 5
14 4
15 4
17 4
17 5
Ġun employ
St ar
US A
Ġlos ers
ĠTrumpCh icago
6 1
z a
Ġf ired
Ġh it
Ġh ate
Ġp oss
Ġo pportun
Ġl iv
ĠC on
ill er
ro om
16 5
13 5
12 4
Ġab s
age ant
Ġtax es
ĠAlex Salmond
M ar
v ille
re en
Ġw ish
Ġs l
ĠT O
Ġm ar
Ġm onth
om m
ĠC ity
ill s
ĠB ush
ĠP l
ĠD an
ĠE n
Ġwor st
!! """
urn berry
Ġtot ally
ĠCl ub
olute ly
e an
Ġt alent
ou ble
an ia
Ġw rong
Ġf act
it ive
Ġh istory
ro ss
20 3
19 3
all en
ug ar
umb ers
c es
i ence
Ġ Z
ĠT ouch
Ġf ore
Ġc ant
Ġc red
Ġm om
ar b
ĠP at
ur ch
ĠR uss
13 3
14 3
15 3
17 3
18 3
ĠE x
Ġsay ing
a iled
r or
is ing
Ġf ree
Ġp ast
Ġp rom
Ġp oint
Ġin st
Ġl ow
ĠA s
ĠB irthday
16 3
12 6
15 6
Ġall ow
ber deen
Ġread y
vent ion
ĠAf ric
ex ic
L A
O W
m as
n ews
r al
is ter
or ing
ĠT w
it ing
Ġp os
Ġn bc
ĠP R
ĠO ur
ĠD C
out h
17 6
itt le
ĠJo e
ert ain
ues day
Ġrem ember
Ġgl obal
Ġgret awire
Ġmil itary
R e
b ack
d en
z y
at or
Ġm od
Ġh our
Ġd umb
ĠM ichael
ut ion
ĠR e
20 6
Ġwe ak
13 6
19 6
14 6
18 6
ul ous
ub an
Ġpr ot
Ġpr ices
ide o
Ġbr and
Ġbill maher
Ġlist en
ĠPart y
A nd
I G
I s
J r
i us
Ġre f
Ġm in
Ġm ov
ar ry
Ġn umbers
ĠA berdeen
ĠS ee
Ġe ff
ĠH ope
.. ."
16 6
10 6
Ġpro per
Ġplay ed
Ġpol ic
ines e
ĠUn iverse
Ġche ck
H ow
l er
u ker
v log
Ġb irthday
Ġf riends
Ġp rem
Ġd iff
Ġg ave
Ġbe at
et h
ut ure
Ġwe bs
19 7
ĠThe re
Ġv ac
Ġwor ds
Ġk n
Ġget s
ĠK en
ĠSt ate
Ġbu d
ass ive
Th is
E L
i ans
l in
Ġ est
Ġw is
Ġh aters
Ġo ld
id en
ill ions
ent ion
et t
ĠW ith
our n
18 7
Ġwor th
!! ""
Ġint eresting
Ġcl ose
Jo hn
ĠDem ocrat
I D
M ike
a ur
a ire
c hed
Ġ ri
in st
Ġs erv
it al
it or
Ġc ast
ĠM att
17 7
are d
Ġch ild
amp ions
Ġen em
ere d
Ġcomp et
Ġele ct
eral do
Ġterri fic
med i
Ġbank rupt
3 1
N ow
R emember
e orge
o ot
w ork
Ġa pprentice
onald trump
ĠC NN
ĠW WE
Ġst ory
14 7
Ġwor se
ĠCh inese
os ie
ĠV an
Ġplay ing
Ġinc re
ĠUn ited
Ġceleb rity
A d
A m
G A
J Trump
l im
n ov
u mp
u ge
Ġ ill
or ont
ir d
20 7
10 7
end ous
Ġso ld
Ġshow s
ĠMac y
Ġim medi
rem endous
ĠBl ue
Ġtry ing
ĠBrand i
ĠSqu awk
Ġbud get
? """
A M
N C
R E
Y ork
i ent
Ġt ra
in o
Ġs ense
Ġf uture
Ġp red
Ġn ational
Ġn fl
ĠW est
ĠG eraldo
ĠO ff
ur s
ĠL ord
13 7
19 9
12 7
12 9
15 7
ĠDonald JTrump
Ġch ance
Ġse ll
ere nce
Ġcont rol
Ġdec ision
Ġtalk ing
ĠLet terman
Ġannou nce
Ġmist ake
Un iverse
Ġwebs ite
A meric
a ff
c al
m ar
re land
in c
Ġa ir
is ed
Ġp oll
ĠA d
ĠC ongress
nt h
ĠTh x
ĠP res
16 7
el s
ĠY ear
th anks
ber t
Th ank
illion aire
Sh ow
Ġcontin ue
oront o
ĠDonaldJTrump Jr
, ...
C NBC
O M
w in
y le
Ġre g
ĠM exic
im ate
ĠN E
and s
ĠY ankees
ĠE very
Ġcon c
Ġar tic
ĠScot t
ĠMar ch
Ġunder stand
OT US
Ġpass ion
ĠMid as
A ll
d onaldtrump
n a
z z
Ġ /
an h
Ġs ir
Ġm assive
Ġp ick
ill y
and id
Ġbig gest
ĠMiss Universe
mor gan
ĠTe am
Ġadv ice
Ġshir ts
W ill
b l
f ect
Ġf ire
Ġl ar
ĠS ec
Ġe ar
ĠO ne
ch ool
Ġhe ad
17 9
ĠE T
Ġlo ved
ĠSt ates
Ġus ed
Ġcom es
Ġrep ort
ĠHow ard
Ġpolitic al
Ġcreat e
iers morgan
Ġwast e
Ġmark et
Ġbo ard
Ġunemploy ment
Ġmom ent
ĠKen ya
Ġimmedi ately
A r
re ct
or th
ic ial
Ġd ays
Ġe mb
ĠG od
20 9
10 9
14 9
15 9
18 9
Ġex per
Ġpro du
Ġpro ject
ĠSt eve
Ġro om
Ġthought s
Ġartic le
A s
C eleb
N o
S o
Z uker
e in
r ing
y ing
Ġ ...
Ġf ood
Ġre qu
Ġc ur
Ġc row
Ġc ap
Ġreal donaldtrump
Ġl ight
ĠP ost
ĠG ret
16 9
19 8
Ġr d
Ġv ideo
ore d
ĠCh ris
ward s
Ġcomp lete
Ġdoll ars
Ġinspir ation
iec e
Ġlux ury
ĠSquawk CNBC
nth ony
W ow
k s
n other
Ġ id
Ġt ele
in ner
al d
an ville
is hed
ic s
Ġd ro
Ġn ation
am a
om b
om in
ĠP ro
ĠP aul
ĠP OTUS
ĠO sc
ĠR osie
20 8
ĠL inks
10 8
13 8
13 9
14 8
15 8
17 8
18 8
il t
we ight
Ġcl ub
Ġter ror
Ġsm all
ious ly
Ġapp ro
Ġfe at
Ġfail ure
ĠChrist mas
Ġvict ory
ĠCount ry
ampions hip
C an
f act
g o
re it
Ġa ut
ĠTrump Golf
ĠW H
ĠD ay
ĠH ave
ĠR omney
16 8
12 8
ra v
ĠV egas
oll ection
Ġrecord s
the y
ĠSh ow
Ġkill ing
ĠRepublic an
ĠObam as
Ġmed ia
Ġrele ased
Ġabs olutely
ĠAfric a
5 1
B arackObama
L ooking
S A
c ial
r act
y an
Ġw ife
or ry
ĠI m
ot t
ĠM c
ĠM ake
ĠH is
and y
ave l
ĠL ee
ri an
ri es
ul ts
Ġlo se
ob ody
ie f
Ġsp ecial
ĠWh o
Ġpr im
Ġgiv ing
Ġcr itic
Ġide a
Ġlaug hing
Scot land
Ġpos itive
R ivers
U N
b art
c ome
i um
l ain
n o
w ay
Ġt remendous
Ġs aw
Ġf ailed
Ġc andid
Ġp iersmorgan
Ġth reat
ĠC o
ĠC our
im s
ut es
ri ble
az i
Ġse en
Ġke y
Ġdes ign
Ġexp ect
ĠNe ver
Gl anville
A Y
I LL
S c
_ :
f ar
m e
s en
at s
ĠA nn
id a
ut s
ur ity
ol itic
20 2
Ġr id
Ġcour ses
Ġtrump vlog
Ġtw itter
ĠMon ster
ĠIS IS
Ġap olog
Ġeas y
ĠEn joy
ĠBrandi Glanville
Ġpred ict
reit bart
O L
S u
V ER
b b
l a
m ost
o or
p s
Ġ order
in ite
at ur
Ġs al
is on
or m
Ġc ra
ic he
Ġreal ity
Ġl ittle
ot iv
ĠM ed
ĠW ow
oo re
ro d
ĠV ince
um ber
ann ity
sh ire
Ġter m
Ġact ually
ĠTrumpT ower
Ġbeg in
omp et
ĠRuss ia
Ġest ate
? !
I T
L e
e ge
g ing
Ġ ed
Ġt aking
at ter
Ġs w
Ġre lease
Ġd r
Ġis n
ĠC ent
ac are
ĠP ageant
ĠO P
est y
ĠL ooking
14 2
ĠE m
!! !"""
ĠTe a
Ġgiv en
Ġsurpris e
4 1
P h
T r
b ab
j ust
l o
m ig
u y
u ild
Ġs on
ĠT urnberry
Ġc ase
Ġm illions
Ġyou ng
Ġn y
Ġbe h
Ġfor get
ig h
ĠW ork
ĠP h
10 2
13 2
19 2
15 2
17 2
18 2
ĠJ im
ist ration
ĠBe ach
Congrat s
ang er
vel op
Ġview s
gh azi
Ġrest aur
Ġcor rect
ĠOff ice
F L
b es
d on
he st
he tic
at ched
Ġs end
it ch
Ġc a
ic al
id d
ill ac
pp ing
ĠG en
Ġst ar
16 2
ĠF riends
12 2
ob s
Ġch ang
ect ac
ĠWe ll
Ġpr ice
Ġtr ans
EA L
Ġent repreneur
Ġexc ited
Ġsec ond
min istration
Ġans wer
E very
L Y
b o
f ull
m o
r ate
s u
Ġt reat
in ing
in ed
Ġb ro
Ġb ought
Ġf all
ar r
Ġd am
Ġl ate
ĠA g
ow a
am ed
ig er
ĠP ark
ĠP alm
ĠF lor
ight s
Ġr ac
ep t
ib ility
Ġdef ic
Ġim ag
com m
Ġfore ign
inite ly
ectac ular
g reat
t v
t en
Ġ _
Ġ esp
re y
he ck
Ġs imp
or row
Ġf ew
Ġc ity
Ġto get
Ġh or
Ġh ouse
as ure
ad illac
Ġst ud
Ġwe l
ĠF OR
ĠJ an
ce ed
ĠE d
ĠE ST
ee k
50 0
Ġoff ers
Ġro le
Ġstart ed
enn is
Ġbook s
To day
aug h
Ġpolitic s
Ġmeet ing
Ġquest ion
ĠAG S
ĠDanny Zuker
ĠPR ES
ĠVan ity
Ġboard room
Ġtoget her
L EA
O F
i ant
m c
m ber
Ġ ur
Ġt our
in al
Ġb re
Ġf ac
Ġm c
Ġp ict
Ġd ream
Ġl ine
ĠA re
ĠC omm
ac y
Ġe ach
ĠG ive
ĠD ON
Ġhe art
ir ing
ĠJ ack
Ġcan not
Ġex cell
iv ing
Ġint erest
Ġoff er
iver a
use y
ann a
Ġgu est
Ġar t
Ġdeal s
ES T
Ġent repreneurs
New York
ĠLee za
ĠTrumpTower NY
B r
D C
I R
a u
b r
g es
i or
k ins
o f
o ff
t ed
Ġ er
in t
Ġs it
ru g
Ġf ace
Ġh uge
Ġp rep
Ġd ire
Ġn et
Ġn uc
id s
id ence
ĠM ag
ĠS T
ĠB o
ĠP eople
ra id
Ġsp end
Ġch oice
ber g
um my
Ġcount ries
Ġco ver
ere k
Ġread ing
Ġinc ompet
ĠAm azing
ĠOn ly
Ġmin utes
ourn al
Ġchild ren
Ġnfl comm
ĠOsc ars
Ġprim ary
ĠOP EC
ĠPRES ID
Ġnflcomm ish
S ugar
n ers
v ing
Ġa ble
al f
ru m
Ġc ool
Ġm en
Ġm otiv
Ġg un
ĠI nd
ĠI reland
ĠS ad
ĠB illionaire
ĠW ar
Ġsh ort
ag an
Ġlo sing
Ġk ind
ĠCh arl
Ġle ast
ra b
ĠV ote
Ġrun s
Ġapp ear
Ġkill ed
Ġfail ing
Ġide as
ĠBen ghazi
ĠCongrat s
Ġcred it
Ġnuc lear
B S
G ib
I ON
N D
U T
e ver
j on
p ost
in ation
Ġa v
Ġb illion
Ġre l
ar p
Ġp riv
ĠI owa
ĠB reitbart
us ive
ĠG eorge
Ġde ad
Ġde ath
The re
Ġlo ves
Ġpl ans
Ġex t
Ġcont est
Ġinc l
Ġaf raid
ĠFor bes
gh an
ĠObam acare
ĠTw itter
ĠDemocrat s
Ġill eg
ĠAGS chneiderman
E x
F air
G ood
L ago
g ly
j o
o ver
s ide
v ision
Ġ ic
he w
he ad
Ġs le
Ġs chool
Ġb en
Ġh ur
Ġh old
ay er
et te
ĠB ob
ĠP er
ĠP enn
ĠO N
Ġr an
Ġde velop
Ġgo es
ĠSt ay
oll y
Ġqu al
Ġstart ing
Ġfin anc
ĠAl ways
Ġres ults
ĠSu per
Ġpolic y
anh annity
ĠFlor ida
ĠPRESID ENT
E T
G ary
I ts
T H
i res
m ore
re st
Ġw ater
or ies
ĠT uesday
Ġf ound
it es
it her
ar a
ar ing
Ġp le
ad a
ad io
ĠW ind
ĠW rong
pp ed
ĠP ut
ĠG l
ĠO h
ĠR ed
ĠL O
ĠL as
ĠL ib
Ġr ich
Ġsu pp
Ġsp ent
ost on
qu e
itt ing
ĠWe iner
Ġdef e
Ġfin al
Ġspe aking
Ġexc iting
ĠSu ccess
Ġgen ius
ĠFr ank
Ġcoll ege
Ġkn ew
Ġmoment um
Ġcrow d
Su ccess
bab ly
full y
Ġmc uban
I I
I M
R ep
S E
_ _
c ceed
d y
v al
er ts
ĠT im
Ġf ool
Ġf ather
Ġre b
Ġm on
Ġn umber
Ġn amed
ĠA nthony
ot te
om as
ĠS H
ver t
Ġhe ard
Ġst opp
un ch
ĠL e
ĠL ate
ĠL ook
ĠJ eff
ra ham
os h
ĠK ey
now den
Ġse anhannity
Ġcl a
Ġbig ger
red ible
00 0
Ġimp ress
Ġfin ally
AN I
Ġim mig
AL D
ĠFr iday
Ġserv ice
urs day
Ġpict ure
B O
T V
b ons
r ick
y es
Ġt akes
Ġb oring
ar ter
as es
Ġo pp
Ġyou re
Ġl and
ĠM el
ĠS chneiderman
ill iant
ĠO pen
ĠD ub
ĠN orth
ur ious
Ġhe ro
ĠR ick
ard s
Ġk ick
ie ld
Obama Care
ak er
Ġch allen
Ġpro f
Ġsee ing
Ġint ell
Ġhim self
iz ed
Ġplay er
Ġcomp any
Ġstart s
Ġbad ly
ĠAnd rew
gy pt
Ġsec urity
Ġfight ing
Ġcons ider
reed om
Ġfull y
Ġfund ra
Ġmod el
Ġtele vision
sen io
B usey
L D
M AR
P ost
c er
c ast
e ven
i as
l ant
m art
m ax
r s
u el
y st
Ġt ie
an i
Ġw atched
Ġre ce
ic a
Ġh ol
ĠI N
ĠA pp
ĠM an
ĠS outh
ĠB uff
ĠTrump NewYork
ĠW ould
ĠW here
ĠO r
ĠO ld
ro ll
Ġsh oot
ri ed
Ġdo p
ag ue
Ġv ision
Ġsu b
Ġgo ld
Ġme an
Ġsp ectacular
ĠK arl
ep hen
Ġex cept
Ġwin s
Ġbu ilt
Ġcon vention
40 0
ven ue
ope y
Ġtr ade
Ġper fect
ng el
Ġhon est
Ġrem ain
ĠReal ly
ĠAf ghan
Ġcontin ues
Ġreturn s
Ġliv es
Ġprot ect
ĠMexic o
Ġear ly
ĠGret a
ĠBreitbart News
G C
M iller
M oore
h ood
m it
w ood
Ġ !"""
re ad
or ter
ĠT RU
it er
it iz
es ort
Ġc ongrat
Ġn omin
ĠC adillac
ĠS atur
Ġe mploy
ĠN FL
ĠH all
Ġst ra
and er
ĠL ead
ec ause
ak en
30 0
ĠIt s
Ġad ministration
Ġbusiness man
ann el
ah m
ĠNY Mag
Ġdef initely
Ġresp ons
Ġluck y
ĠInt eresting
Ġtweet ing
com ing
Ġfocus ed
ĠCar ter
Ġcomm un
Ġquest ions
Ġdem and
Ġgrow th
Ġwom an
Ġproper ty
Ġexper ience
Ġcra zy
ĠVanity Fair
ĠDub ai
ĠSatur day
D ER
F ox
a rent
c are
e ed
k y
Ġ ve
Ġ ..
on ic
is es
Ġb all
Ġre nov
Ġm aster
Ġp oor
Ġn obody
st one
id ed
ĠM us
ĠB arack
ĠB oston
ĠTh ursday
us ed
ĠP r
ĠG r
ĠR UN
ĠE l
Ġu gly
ct ions
Ġcon st
Ġcom ments
cot t
Ġtr ack
Ġpers onal
erv ative
Ġlot s
Ġgiv es
Ġmiss ed
Ġpart y
yl er
ĠAt lant
Ġwom en
Ġopportun ity
ĠRe agan
Americ a
ĠPh il
ĠLeeza Gib
Ġpriv ate
Gary Busey
ĠLeezaGib bons
B l
H appy
J on
M ah
R ivera
V egas
i ot
o mpl
p in
Ġs ing
Ġs ound
ĠT une
ĠT iger
Ġf il
Ġf ans
Ġf air
Ġo b
ed y
am s
ĠC ol
ĠS ir
ent ly
ĠB usiness
ĠP iers
oo ps
ke y
ĠO F
ĠD ef
Ġr ace
!! !""
ist an
Ġpresident ial
Ġ-- -
ud ing
ap s
ove mber
Ġtr ouble
ĠAnd y
Ġhig hest
led ge
Ġbill ions
Ġbuy ing
Ġask ing
Ġdoll ar
Ġfr ont
Ġra ise
Ġopportun ities
Ġmonth s
Ġprem ie
ĠGeraldo Rivera
iche ll
Ġdefic it
ĠLib ya
G o
K S
O D
O bam
P ro
S ant
b oy
Ġt im
re g
re nd
re ci
ou b
Ġs av
ĠT er
en al
it zer
Ġm ention
Ġg if
Ġg irl
ĠA w
om ing
ĠS ar
ig ning
ĠN ovember
ch ieve
ĠR ivers
el ine
ĠE ur
ĠE gypt
Ġsu cceed
ne ll
Ġlook ed
Ġcom ment
ail able
Ġweek s
Ġdes erv
Ġhotel s
Ġexp lain
Ġacc ompl
Ġjo ke
Ġpres ent
Ġsol ution
Ġstate ment
Ġhour s
EL ANI
Ġenem ies
Ġfeat ures
ĠMag azine
C H
l ike
n esty
o k
o rum
Ġt en
Ġc ause
Ġm et
ic ulous
Ġh its
Ġp op
Ġp iece
Ġd anger
ĠA ND
ĠC ollection
id es
ĠS ign
ĠW ay
ĠG ary
ew art
ch ie
se ll
Ġst ock
ĠF ed
ĠF ame
ers hip
ĠJ ay
il ing
Ġwor d
ood s
Ġwould n
ĠK ate
av y
Ġal most
iv es
rat ed
row n
ap e
eg oti
sel ves
Ġtoo k
Ġbeaut y
Ġfo ot
Ġlong er
ĠTHE GaryBusey
AT RUMP
gan iz
Ġenjoy ed
Ġvot ing
Ġannou n
iber ty
Ġposs ible
ĠTrumpGolf LA
ĠCour se
Ġrac ist
ĠAtlant ic
ELANI ATRUMP
B y
I A
R ob
R yan
a ik
c he
f all
h ouse
j r
k i
m st
n s
t ime
Ġ =
Ġ z
Ġ et
Ġt une
he ther
or se
ing ton
ĠT oronto
it ude
Ġre view
Ġm is
Ġd ummy
Ġan t
Ġis s
Ġl ies
Ġl ik
ĠM s
ĠM or
ĠTrump Scotland
ĠP et
ĠD erek
ro s
Ġj ack
Ġr is
Ġr ate
Ġv al
Ġlo c
ĠCh urch
ĠK ing
Ġex ec
Ġco ld
we en
Ġwant ed
Ġinc redible
Ġres ort
Ġwind far
Ġgl ad
For President
ev in
ĠNews max
ĠCongrat ulations
Ġhealth care
Ġvac ation
Ġwis hes
ĠKenya Moore
Ġcandid ate
Ġbegin ning
Ġexcell ent
Ġintell ig
Mah on
0 1
L as
O ne
T om
a ud
d own
h aps
l usive
u ation
Ġ X
Ġt un
re z
on se
al o
ou n
Ġb order
ĠT ru
en e
Ġm r
Ġh um
Ġp urch
le an
Ġl ie
ĠA p
ĠA nother
ot o
ay ers
ill ary
oo se
ĠD id
ĠN OT
el f
ĠE nt
ĠE ast
ĠE ven
Ġle ave
Ġgo als
os ing
ect or
ect ive
ear n
Ġex act
Ġus ing
iv ed
Ġsee ms
Ġoff icial
ell y
ab ulous
ren g
Ġent ertain
iam s
Ġdec is
anc ou
vern or
Ġhon ored
ĠBill s
Ġexc lusive
Ġvot ed
ĠMike And
Ġtri p
ĠSen ate
Ġpat hetic
ĠTr ace
Ġinst ead
Ġannounce ment
Ġroom s
Celeb rity
Ġlight weight
Ġaut ism
Ġpredict ed
ĠMikeAnd Mike
C C
a pprentice
g ress
v ir
Ġ ir
re et
on na
Ġa ward
Ġs ong
ru s
is cal
ĠT al
Ġc ame
Ġm atter
Ġo pt
Ġo pin
Ġl at
ĠA ward
Ġfor ce
ĠM ELANIATRUMP
ĠP al
ĠG ov
ĠD ec
ĠN ice
ĠH uff
ch it
Ġst aff
ec k
ĠJ obs
ĠU p
Ġle vel
ct s
ĠK ore
Ġun f
ip s
Ġcom b
Ġke vin
Ġbr illiant
Ġqu ick
Ġdiscus s
ĠMiss USA
Ġfin ished
Ġapp reci
Ġdes per
Ġpass ed
Ġdestroy ing
zer o
Ġallow ed
ĠScott ish
olitic s
Ġrid iculous
Ġimag ine
Ġav ailable
ĠKey stone
mst rong
Ġet c
Las Vegas
A ST
G r
H T
L et
N ot
O B
U R
c a
g irl
Ġ ign
Ġ zero
Ġt aken
ru ction
or ters
ĠT om
ĠT oo
en a
it z
Ġc ar
Ġm ine
ll y
Ġh air
Ġd ue
Ġd oub
Ġg one
ĠA b
Ġof ten
ĠC are
ĠS am
ĠS nowden
ad es
ĠP GA
ĠD is
ĠH i
ur st
Ġst ates
ĠR o
ĠL I
Ġare n
ers on
ak s
os ed
od d
ous ands
Ġbu ff
Ġbet ween
Ġtr oops
Ġcont ract
aut iful
ĠAr senio
Ġwait ing
Ġresp onse
ĠTH AN
Ġrat her
aug ht
Ġfollow ers
Ġconf erence
Ġjo hn
Sp ec
Ġlaug h
Ġleg end
Ġposs ib
inst ein
ĠTRU E
Sant orum
Ġtun ed
vir on
. ,
F r
H all
L E
O SA
P M
S P
V P
g in
i et
t o
re ll
Ġa ff
ru n
Ġf ive
Ġd et
Ġin form
ĠI an
Ġn d
ĠC he
ĠC NBC
ĠM ore
ent ial
ver age
Ġe m
Ġe ither
ly mp
ĠTrump s
ĠTrump ForPresident
ĠG old
ut o
Ġst reng
ĠR ec
ĠR NC
ĠL ov
10 1
ĠF irst
ĠJ ames
th at
Ġk ids
Ġme ans
ct ed
Ġsp ot
Ġpro bably
ĠSt ephen
Ġal ong
Ġup coming
44 4
77 7
Ġsee m
Ġcour age
ah l
ail s
enn y
Ġmor on
Ġper for
eral d
ĠAm Spec
Ġexp and
ĠDo es
Ġcare er
Ġask ed
gr am
ecial ly
Ġenem y
Ġsal es
ĠCent ral
Ġrestaur ant
ĠDON ALD
Ġincompet ent
ĠPut in
Ġstra ight
ĠMus lim
Ġpremie re
chit ect
A D
B T
C on
I nt
K E
M any
c ri
g u
g ie
m ith
w ill
Ġt est
in ton
on est
er ve
Ġs ending
Ġre d
Ġc lean
Ġm other
Ġd aily
as k
le t
le ment
Ġfor m
ac c
ĠTrump LasVegas
ĠO MAR
ĠN ick
ro ck
ĠR ead
ce an
Ġr ated
if y
ĠE instein
Ġsu per
ra in
Ġch ampion
ĠK now
ep end
Ġthink s
aw n
Ġany more
ap er
ian o
Ġent ire
ĠCan ada
ivers ity
Ġgr oup
min ster
ĠCar ol
Ġhand s
Ġhost ing
Ġmag azine
arb age
IG HT
mar os
Ġsle ep
ĠLO VE
Obam as
ĠSign ature
egoti ation
aik ik
ĠChurch ill
ancou ver
Ġdoub t
viron ment
ĠOMAR OSA
) ."
C l
O C
S tern
T e
c ing
c ow
n es
p ro
r ich
w ith
on b
Ġw ise
Ġs ent
Ġb oy
Ġb omb
Ġc op
Ġc ertain
Ġp us
Ġl ower
ĠA BC
ĠM e
ĠM os
ĠB E
ĠW in
oo ress
ĠH illary
ur ning
Ġst ated
ĠR ove
Ġj ud
Ġsh ut
ri e
ri ot
ul ation
ag er
Ġv is
ist en
Ġwho le
ass y
Ġwork s
ure d
80 0
Th ink
Ġthem selves
Ġdoes nt
Ġgu ess
Wh o
Ġro ck
Ġqu it
Ġhapp ens
Ġcould n
US T
ren ce
ivers ary
Ġhear ing
Ġpay ing
Ġcreat ed
Ġopen ing
Ġcall ing
Ġepisod es
Ġac cept
Ġturn ed
Ġser iously
Ġra ised
ĠMay be
Ġadd ress
ray don
Ġmag n
inst on
Ġconc ern
Ġbeh ind
ĠGen eral
augh ter
Ġincl uding
Ġcla ims
yst em
ĠAfghan istan
Ġpurch ase
ĠKore a
A n
B en
F l
M ust
M iss
P eople
g l
g s
n ie
p o
p ort
r ight
t ies
re l
Ġa ction
al ph
er g
Ġw ont
Ġs ide
Ġs ystem
Ġb us
ĠT ahm
en o
Ġf ine
Ġc e
Ġp ret
Ġp aid
Ġp enal
as ing
le w
Ġg ain
ĠI T
Ġl if
ĠA L
ĠA ct
ĠA ny
ĠA venue
ow l
ay ing
am er
," ...
ac es
ĠS ugar
ĠB ret
ĠP LEA
ĠD ont
Ġwe ar
un ning
ĠL aw
Ġsh ot
ri ve
ec ess
ĠF o
ĠF in
ant age
ĠY ES
Ġwor ry
ĠU K
ra h
av is
av en
ĠSt ewart
60 0
Ġknow ledge
Ġcl imate
70 0
Ġbusiness es
Ġtr illion
Ġar chitect
other hood
ublic ans
Ġ% .
Ġdef ense
ĠUn iversity
Ġtru st
Ġtax p
iam ond
AC K
Ġstand ing
Gl ad
ĠRob ert
Ġdiff ic
ald win
Ġsit uation
jon as
Ġben ef
Ġfinanc ial
Ġpop ular
Ġstreng th
aikik i
onb eg
ooress i
A P
A S
A f
C heck
D e
D opey
K ing
M att
P aul
R ose
V ery
d om
f are
g ood
k en
l as
u ary
y p
Ġ ?
Ġt ar
an ama
Ġs ick
Ġm ight
ic are
Ġp ost
Ġd inner
Ġg arbage
Ġth ree
Ġl iber
ĠA P
ĠA rab
ow s
ĠC BS
ĠM S
ac ious
ĠS ome
ĠP ine
ĠO f
ĠO lymp
ĠD oug
ol n
ir a
Ġwh ite
ĠL iberty
ri or
ĠF ive
el t
ag es
ĠE st
Ġsu ck
Ġsu bs
ĠCh ampionship
ĠV P
ĠV iew
90 0
act or
Wh ile
Ġatt ention
Ġdef end
Ġkeep s
ren cy
Ġhig her
Ġguy s
Ġput ting
Ġset t
Ġhappen ed
Ġgen er
Ġmess age
Mc Mahon
Ġcut s
Ġadm ire
ĠCon vention
Ġeff ort
Ġprem ium
Ġvac c
iden cy
Ġelect ed
Ġbankrupt cy
inc oln
Ġlar ge
ĠHoward Stern
Ġterror ists
Ġsing le
Ġaccompl ish
Ġdanger ous
ĠTahm ooressi
' ""
G E
L ook
M ay
M itt
O ff
S ee
T rue
T weet
a a
c u
g ed
l am
m on
m ark
y n
y ond
Ġ ion
Ġ ."
Ġ ?""
Ġt ick
Ġa head
Ġa chieve
at ic
Ġs elf
is hing
or man
en ry
Ġc ru
Ġc oup
Ġm ent
Ġto wer
Ġh ack
Ġh alf
Ġy es
Ġg ames
Ġreal ize
Ġin f
ed minster
ow ers
id ing
ĠM any
ĠS e
ĠB ecause
Ġe v
Ġe yes
ad s
ĠTrump W
ĠW OR
ĠW inston
ĠTh omas
oo f
res ent
se c
Ġst rate
.. ...
Ġwe ap
Ġwe alth
el come
ess ional
ĠJ ud
Ġr ound
Ġmy self
The y
Ġgo v
ist or
all as
nd er
av uto
Ġpro gram
ord ing
iv ica
Ġdis c
ĠPresident ial
we ll
Ġany way
Ch arl
iz ing
Ġbr ought
ES S
ĠBr otherhood
omet imes
Ġattack s
ĠDo onbeg
ier ing
Ġcare ful
Ġconf idence
Ġlaw y
Ġser ious
ĠWatch ing
Ġpolic ies
Ad kins
Am azing
Ġstopp ed
Ġimmig ration
ĠAw esome
ĠEur ope
Ġopin ion
Ġkevin jonas
Ġinform ation
maros a
ĠPLEA SE
A t
B ig
K eep
M or
S ome
a ith
a her
b ook
d es
h ow
i que
y al
z e
Ġa lex
is a
Ġb irth
Ġb oss
ĠT op
Ġf our
Ġf ield
Ġf iscal
Ġc aught
Ġh op
Ġd rug
Ġg onna
Ġan g
ow nt
ĠC al
ĠM ad
ĠS eth
ig inal
ĠB BC
ad en
ĠG raydon
ĠN O
Ġst eal
ro p
ĠR ich
ĠR EAL
and a
ĠL A
ĠL incoln
Ġdo ct
ate ver
Ġv i
ast e
Ġsu m
ele ction
ra ud
Ġpro v
eal ous
77 0
88 0
99 0
Ġen vironment
Ġtr avel
ĠBe autiful
ĠAl bert
Ġent er
Ġgr and
AR M
Ġel ite
!!!! """
NY C
Ġtell s
Ġwast ing
Ġhand le
Ġcomm on
Ġfl ights
Ġac ross
Ġind ust
Ġcur rent
Ġdro pped
Ġterror ist
ĠMed icare
Ġsimp le
Ġhor rible
ĠJan uary
Ġappear ance
Ġqual ity
ĠRick Santorum
itiz ens
Ġdeserv es
Ġannoun ced
ĠMos cow
' """
A nother
B ec
C all
M r
P l
V ivica
c hes
d og
h an
h urst
n ed
n ick
o very
p ect
s yl
v ania
in y
at al
Ġs tern
Ġs af
ru z
Ġb att
Ġd avid
Ġl ied
ĠA wards
ĠC ould
ĠM ust
ill ette
ĠB rav
Ġe qu
ĠW al
ĠW ILL
ĠG u
ĠO cean
ĠD eb
ĠH ar
ch ris
Ġhe ld
and on
ĠL arry
Ġj ealous
ĠF red
il ton
Ġr ise
if ied
ard i
os p
Ġwin ners
44 0
88 8
Ġrec overy
og er
ile y
Ġcomp lim
Ġro ll
ĠBe ing
ian a
Ġrep l
Ġrep eal
ĠAl so
Ġbl ess
Ġsc and
ĠCl inton
Ġchar ge
ĠSp e
Ġhigh ly
ĠNe ed
Ġplan ning
Ġlaw su
Ġdel iver
Ġmist akes
Al ways
Ġap art
Ġliv ing
Ġmov ing
Ġsold iers
OM E
Ġcur rency
arr ass
Ġdefe at
Rep ublicans
Ġcommun ity
ichell e
Ġgif t
Ġfoot ball
ĠMs Vivica
ĠTrace Adkins
Ġdesper ate
Ġion tv
syl vania
ĠMsVivica Fox
D AY
I L
P r
R ick
S H
W oods
Z iering
b el
c an
c ra
k ing
p resident
p iece
s n
u fact
v est
w n
w ers
w here
y r
Ġ ~
Ġt ip
in i
on es
al ob
Ġs igning
Ġb orn
ĠT ell
Ġf ear
Ġre v
Ġc ent
Ġc ond
Ġc lear
Ġm att
Ġh ole
Ġp enn
Ġp ageant
Ġn ations
Ġth ousands
Ġl a
ĠA ust
ĠA ngel
ĠC ons
Ġon es
ĠS O
ĠB u
ĠB in
ĠB el
ĠB edminster
Ġe mp
ĠW E
ĠG L
ĠD J
ĠN C
ut ive
se y
Ġst uff
ro ve
ĠR emember
ĠL ive
ri um
ri ots
ĠF ord
ight weight
Ġyour s
ĠJ eter
Ġsu e
Ġsu ff
ĠU N
all on
ĠK elly
Ġex cus
Ġex pen
Ġam ount
Ġal one
Ġun d
Ġor ganiz
oll ing
Ġcom mer
alk er
ĠAr mstrong
Ġfin est
ĠBr ing
Ġow ner
ĠThat s
Ġapp lic
Ġbl ow
Ġbuild ings
ert ific
Ġpolitic ians
Ġhelp ing
Ġkill er
Ġattack ing
Ġsec ret
Ġset ting
Ġrespect ed
ĠTrumpT uesday
Ġfollow ing
Ġadv antage
Jo e
?? ?
Ġpres idency
Ġph oto
Ġpress ure
ĠSen ator
Ġnegoti ate
ĠCount y
ific ent
ĠRob erts
Ġadm it
Am ira
illy fact
Ġemb arrass
Ġrequ ires
Ġca res
Ġchang ed
Ġsimp ly
Ġbre ak
Ġilleg al
ĠBuff alo
Ġiss ue
Ġexact ly
Ġdecis ions
ĠHuff ington
ĠIan Ziering
ĠCarol ina
Ġconcern ed
Ġce iling
Ġtar get
ĠTrumpW aikiki
Ġstern show
ertific ate
2 50
H ave
H unt
M ake
P A
W S
g t
g olf
i y
i en
n oc
t r
Ġ ice
Ġ ."""
Ġ !""
re illyfact
ou re
Ġs en
is er
Ġb ar
Ġb ir
Ġb ird
Ġf ell
Ġh ot
Ġp ar
Ġp arent
Ġd onald
Ġd ownt
Ġo reillyfact
Ġin fl
ĠI d
Ġn ecess
Ġth ough
Ġl im
Ġbe yond
ot a
st weet
am in
ĠC ap
ĠC uban
ĠM ost
ĠM iller
ĠS ave
ĠS uch
ĠW ish
ĠW rest
ĠW ARM
ĠP ol
ĠP ower
ĠO ut
ĠO marosa
ĠD aily
ut ions
ĠH ome
ĠH aw
ĠH enry
Ġst ep
Ġst amp
ol ution
ir c
ĠL earn
ĠL aden
Ġj oin
ri l
ĠF L
ĠF ace
Ġdo cu
ĠThe n
ĠThe Apprentice
ĠJ une
il bert
ĠE VER
Ġde p
Ġlo yal
ĠCh ange
ĠV ir
Ġneed ed
av ino
ub b
Ġam en
Ġam nesty
ĠHe y
30 5
ip eline
amp le
ere n
Ch amp
Ġdid nt
Ġbec ame
Ġbr ings
ĠJo se
sh ip
Ġplay ers
ris is
Ġfun ny
ON G
Ġfe ature
ĠMar ine
Ġsc hed
ĠJust in
Ġtalk s
Ġsign ature
ĠTrumpT urnberry
ĠTrumpT oronto
Ġwast ed
Mag azine
Ġtri al
Ġbring ing
Ġfr ag
Ġevent s
Scot t
John son
Ġincre ase
Ġed itor
ĠEm my
Ġdire ct
Ġmotiv ation
Ġic onic
ĠPenn sylvania
Ġopp os
ĠMel ania
Ġchallen ge
ĠApp le
Ġrespons ible
chie vers
Ġris k
Ġloc ation
Ġquick ly
OB AL
Ġbuff alob
Ġdiffic ult
ĠPine hurst
Ġcoup le
Ġweap ons
ĠGL OBAL
Ġcommer cial
Ġbuffalob ills
) ,
A Z
C E
C al
G eorge
I m
L ast
M C
M e
M id
N e
P al
R ove
R esort
S he
S ad
T ime
T BT
b ur
c ited
f ord
g ust
h o
i pp
j illette
k a
m ills
s he
s ive
s man
t ain
z ing
re al
ou l
er man
Ġs un
Ġs il
Ġs ector
Ġf ol
Ġf raud
it a
ar on
ll a
ic ag
Ġd ining
Ġth ird
ĠA ir
ot es
ĠC H
Ġfor mer
ĠM R
ĠM erry
ĠS c
ĠS andy
ig ation
ĠB arb
ĠB IG
ad ed
ĠTrump C
im my
ĠD O
ĠD r
ĠD ennis
Ġhe s
Ġst ri
Ġst yle
Ġst ories
ack son
ĠL il
ri b
13 1
ĠF ind
el a
el ch
Ġne ar
il ities
art on
ie v
Ġru les
Ġab ility
ĠK erry
ĠV er
iv id
Ġse x
iss ion
Ġinter n
Ch rist
ab e
ab ility
og an
ann ah
con s
ric ane
Ġatt end
att en
Ġsc reen
Ġrat ing
rem e
ĠSp itzer
ĠBl ack
Ġinv ol
Ġcontin u
Ġneg ative
Ġfl ag
yl ine
Ġdestroy ed
Ġpre z
Ġinspir ing
Ġhost ed
Ġsk yline
Ġind epend
riv ing
ĠDan Amira
ĠAs k
Ġmov ie
Ġwis dom
work s
ĠEvery one
ĠVince McMahon
Ġprep ared
ĠCharl otte
Ġple asure
ĠJeff rey
Ġshoot ing
Ġcongrat s
ĠCadillac Champ
Ġappreci ate
Ġpossib ly
ĠRec ord
ĠLov ed
Ġperfor man
Ġmagn ificent
noc ent
Ġoreillyfact or
ĠWARM ING
ĠHaw ai
Ġamen ities
B ack
E d
H OF
I ran
L a
M on
M an
M ore
P er
e rent
f er
f ort
i est
r on
v ant
Ġ .""
Ġ ult
Ġt v
Ġw hether
at ors
Ġs an
ĠT imes
en cy
Ġd ouble
Ġd aughter
Ġg uts
Ġo per
Ġin nov
ĠI ll
Ġn on
ĠA ri
ĠM L
ĠS er
ĠS tern
ĠS aud
ĠS gt
ill ed
ĠB y
ĠB ad
ĠB ry
ĠTrump P
ĠW IN
us ic
ĠP oint
im ul
ĠD M
ĠD T
ĠH as
ĠH olly
Ġst ick
ro g
ĠR EA
ĠR ock
ir t
20 1
Ġwe ather
un n
ĠF antastic
14 1
17 1
ag el
Ġr on
ant ly
end a
end ment
art in
ĠCh uck
ist ic
Ġall y
ak i
Ġch ampionship
ĠV A
Ġout side
Ġpro p
ord an
itt en
Ġbu ll
60 1
60 4
22 7
11 1
55 5
Ġevery body
Th at
74 7
95 7
uck y
Ġrec ent
Ġbec oming
Ġnight s
ound s
ĠIn st
Ġkeep ing
Ġrep orter
ĠSh ark
Ġpolitic o
eep stweet
ey ers
ĠSp ring
ĠNot hing
aul t
ĠGo vernor
Ġstay ed
Ġtell ing
Ġcons id
Ġacc ount
IC E
Ġlaw s
Ġcoll ection
Ġgret a
Ġins ide
Ġinvest ment
Ġvisit ing
Ġsurpris ed
ĠMay or
Ġeas ily
ĠCPAC news
Ġleg al
Ġsl ow
Ġdiff erent
Ġkn ock
Ġincre ased
Ġsell ing
ĠNE ED
Ġcap ital
Ġid ol
Ġappro val
Sc avino
Ġrestaur ants
Ġcontest ants
Ġprof essional
Ġrece ived
ĠLead ership
Ġmaster piece
ĠSar ah
Tom orrow
ĠAp ril
Ġpenal ty
ĠFo cus
Ġliber al
ĠWrest le
Ġsched u
0 8
A b
A ny
B iden
B aldwin
D P
D an
E P
E le
G OP
H ere
J ames
L ightweight
M ichael
N ever
V C
W ind
c le
c her
g iving
h m
j ournal
k o
m m
s et
v ious
"" .
"" """
an ies
or ious
en ing
Ġc ertificate
Ġd ie
Ġd ied
Ġd ying
Ġy ankees
Trump V
Ġin du
ed d
ĠA n
ĠA bs
ot ing
am b
am ily
om es
ac her
ĠS C
ĠS um
ĠS mart
ig an
et y
Ġe go
ad ing
ly n
ĠW all
us es
ĠP rez
ĠG i
ĠO ct
ĠD e
ĠD inner
ĠD iamond
ĠN J
ut h
ĠH amp
.. .""
ĠR od
ĠL os
ri but
19 1
12 1
15 1
18 1
il u
il es
Ġr adio
ast y
Ġwas n
ra ph
ĠV ancouver
Ġex ample
Ġman ufact
ĠSt reet
az e
itt ee
Ġco ast
ase ball
Ġun less
man n
Ġdis gr
Ġdis gust
44 2
50 5
50 9
22 2
Ġor iginal
40 1
Ġany body
24 7
96 4
83 4
76 9
95 1
uck er
iz z
iz es
eg ister
ib an
ER IC
Ġeven ing
Ġhard er
any thing
eb ow
ath an
Ġgr ant
Ġceleb rate
Ġfam il
Ġann iversary
ĠIran ian
Ġend orse
Ġcreat ing
ĠNe xt
Ġstay ing
Ġgen eral
Ġstand ard
Sp orts
orge ous
ĠQ VC
Ġcred ibility
Ġfree zing
Ġdiff erence
ĠWith out
Ġri pping
ĠWWE HOF
ĠMexic an
ĠNE VER
Ġprodu ct
Ġrequ est
Ġdro p
omb ardi
ĠPaul Ryan
la us
uild ing
ĠJim my
Ġwel come
Ġkick ed
Ġconst ruction
Ġsav ed
ĠPet e
Ġintellig ence
Ġentertain ing
ĠTal iban
Ġlat est
Ġaff ord
Ġbus y
Af ter
Ġpremium s
Charl otte
Ġvi ol
Ġbatt le
Ġpenn jillette
ĠBarb ara
Ġperforman ce
$ $
: "
B rian
D id
D aily
F rom
L ee
M ac
O X
O Y
O pen
R ead
S w
S orry
U L
U M
Y esterday
b and
c ent
d le
h us
n ight
t or
x as
y nn
Ġt ouch
in n
in cts
he l
Ġw ild
Ġw alk
ĠT oure
Ġf ly
Ġf abulous
Ġc risis
Ġm ur
Ġm ike
ar ant
Ġp ot
Ġp oin
Ġd ump
le vin
Ġin nocent
ed a
Ġl ater
om berg
id ge
id ays
ĠS an
ĠS ept
ĠB ack
ĠB rian
ĠB EST
ad o
ly nd
ĠW S
ĠP ac
ĠP ress
ĠG O
ĠD am
ĠN ight
ch n
ĠR es
ĠR onald
ĠR oger
un g
ĠL ombardi
16 1
el ess
ĠJ enn
Ġr ad
Ġr ising
ĠThanks giving
end s
if er
ĠE r
ast or
th is
ĠU P
ne ver
Ġlo ving
Ġle aving
ra w
ak ers
Ġru le
Ġpl aces
ĠK evin
Ġam ong
Ġpro ve
... """
30 4
30 8
Ġdis app
77 6
60 3
60 9
60 85
88 1
22 9
99 9
Ġcl iff
33 7
80 7
70 8
Ġpr ison
90 1
85 4
24 2
24 9
74 8
75 2
75 6
93 7
95 6
86 3
86 8
Ġtoday show
ax ter
Ġbr ave
ret t
Ġcomp anies
Ġqu ote
Ġfin ale
ĠMac Miller
ĠBr it
Ġresp ond
Ġres ign
Ġper vert
ĠSh ould
Ġlos s
anc es
ĠDoral Resort
ĠBill y
ath y
AT E
Ġhappen ing
ĠAf ter
Ġmay be
Ġmark levin
wh o
wh y
Do es
Ġind ivid
Ġcost s
pl us
Ġhealth y
Ġlearn ed
Ġlux urious
allen ge
ral ia
Ġlisten ing
Ad v
ĠSec ret
Celeb Apprentice
idd le
Every one
Ġbro ad
Ġesp ecially
Ġer ic
Ġdire ction
ĠOh io
Ġmon st
ĠKarl Rove
Ġrenov ations
Ġant i
Ġwindfar m
Gr oup
ĠTHAN KS
gin ia
Ġexpand ing
ĠLaw rence
ĠDoug las
istor ic
Bec ca
Ġbir ds
ĠFace book
Ġdocu ment
Ġfol ks
atten fall
Ġindepend ent
ĠPaulRyan VP
Ġmarklevin show
. '
A A
A VE
B usiness
C avuto
E l
E ven
G u
G ine
I reland
M el
M ark
P at
R St
R anc
R uss
T imes
W est
e en
e el
e ah
h as
j b
k ay
l om
m ur
p ts
p rah
t w
u ly
u ke
w eek
in p
on a
an o
Ġs us
Ġs orry
ru t
Ġb ob
ĠT ake
Ġf reedom
it able
Ġre ve
Ġre form
Ġc irc
Ġp ays
Ġp age
Ġp ath
Ġp rior
Ġd ad
Ġd eter
Ġy rs
ĠI r
ed nes
Ġl is
ĠA C
st ar
ĠC A
ĠC all
ĠC AN
ĠM en
ĠM ary
ĠM ich
ĠS ean
ad em
ĠP iano
ĠG ot
ĠO ver
ĠD NC
ĠH es
ur al
se e
ĠR ev
ĠR esort
20 12
20 14
ĠL EA
Ġsh ip
Ġsh ame
Ġsh arp
ĠF ree
ĠThe Real
if orn
Ġv s
Ġ"" :
th ur
Ġk at
ob er
Ġme asure
are n
os aki
Ġsp orts
Ġch ief
Ġch oose
Ġshould n
ear ch
Ġman ip
Ġpro sp
Ġpro ven
ĠHe re
ĠSt op
30 1
30 2
30 3
30 6
30 7
30 9
ĠWh arton
44 1
50 1
50 7
77 2
60 2
60 5
60 6
60 7
60 8
88 5
88 9
Ġknow n
22 1
22 4
22 6
99 7
99 8
Ġnow here
40 4
40 8
33 1
33 3
33 4
33 9
80 2
80 4
80 8
80 9
66 2
66 6
70 1
70 2
70 7
55 7
90 4
90 7
90 9
age ment
23 1
23 4
23 7
84 1
84 5
25 1
25 3
25 9
85 8
85 9
24 1
96 2
96 3
96 7
74 3
74 9
83 1
83 6
83 8
75 3
75 7
73 4
73 8
73 9
76 2
76 5
76 7
93 1
93 8
26 5
26 9
94 1
86 2
ah ia
28 9
29 2
27 2
27 8
Ġatt itude
ĠSo lynd
Ġimp act
Ġrep resent
Ġbel ie
Ġbl ue
ĠSh awn
ĠIs lam
for president
Ġdes p
OR T
Ġret weet
ather ine
ĠGo vernment
Ġplan et
Ġcall s
Ġcr ime
pris e
Ġvict ims
Ġspeak s
Ġins ight
wh ich
ĠAM ERIC
Ġpat ient
Ġser ies
Ġpower ful
Ġprom ised
Ġinst incts
ĠAberdeen shire
Ġeff ective
Ġpoll s
Ġlar gest
Ġear th
Ġcomplete ly
Ġdesign ed
me ier
Ġapolog ize
Ġbro ken
Ġdam n
Ġesp n
Ġfac ts
ĠBo ard
ĠWar ren
IM E
Ġhol iday
Ġexcept ional
Ġpersonal ly
ĠTiger Woods
Ġreview s
Ġexclusive ly
Ġir re
Ġvis ited
Ġtaxp ayers
Ġsuck s
Ġstrate gy
Ġsaf e
Ġlawsu it
Ġexpen sive
iy osaki
Ġparent s
Ġdownt own
lla GC
Ġinvol ved
ĠHawai i
Ġron meier
Ġconsid ered
Ġdisgr ace
Ġdisgust ing
Ġfamil ies
Ġpoin ts
ĠPac ific
Gine llaGC
Ranc ic
ednes day
iforn ia
- "
A g
A nthony
A ngel
B ob
C o
C ain
D ig
I AL
O f
O nce
R I
R egister
S ometimes
T onight
T RUMP
W in
W as
Y our
d avis
e mp
h a
h is
h old
j a
j ay
l ove
m ichael
n old
r am
r ig
t une
u an
v y
w ise
y e
Ġ )
in son
Ġa ud
al a
al se
at ives
Ġs am
Ġs now
Ġs ite
or rie
Ġthe view
ĠT ough
en ces
Ġf iled
Ġc ol
Ġm at
Ġm ain
Ġh us
Ġh ous
Ġp ra
Ġp ipeline
Ġd ip
Ġd rive
Ġd riving
Ġy a
Ġl ack
ĠA ug
st on
ay ed
am ent
om er
om en
ĠC ute
ĠC ahl
Ġfor g
ĠM uch
ĠM AN
ĠM UST
ac hes
ĠS P
ĠS ur
ill ing
ĠB oy
ank ee
ĠW GC
ĠP ay
ĠP ray
ĠG DP
ĠD es
ĠH agel
ur ance
Ġst unning
ĠR on
ol i
ir m
Ġwh atever
ĠL ance
ri ff
ĠF l
ĠF air
ĠF erry
ĠF IR
ĠF urious
el rod
ĠJ eb
ĠJ osh
ĠE N
Ġwor ried
ĠCh annel
Ġle ague
Ġsp ort
ĠK at
ĠV attenfall
Ġag reed
Ġjust ice
Ġpro gress
ĠHe ll
ass ion
44 3
44 5
44 6
44 7
44 8
44 9
50 2
50 3
50 4
50 6
50 8
77 1
77 3
77 4
77 5
77 8
77 9
88 2
88 3
88 4
88 6
88 7
22 3
22 5
22 8
99 1
99 2
99 3
99 4
99 5
99 6
40 2
40 3
40 5
40 6
40 7
40 9
ere m
33 2
33 5
33 6
33 8
80 1
80 3
80 5
80 6
66 1
66 3
66 4
66 5
66 7
66 8
66 9
70 3
70 4
70 5
70 6
70 9
55 1
55 2
55 3
55 4
55 6
55 8
55 9
90 2
90 3
90 5
90 6
90 8
23 2
23 5
23 6
23 8
23 9
84 2
84 3
84 6
84 7
84 8
84 9
25 2
25 4
25 6
25 7
25 8
85 1
85 2
85 3
85 6
85 7
24 3
24 5
24 6
24 8
96 1
96 5
96 8
96 9
74 1
74 2
74 5
74 6
83 2
83 5
83 7
83 9
75 1
75 4
75 8
75 9
73 1
73 2
73 5
73 6
73 7
76 1
76 3
76 4
76 8
93 2
93 4
93 5
93 6
93 9
95 2
95 3
95 4
95 8
95 9
26 1
26 2
26 3
26 4
26 7
26 8
94 2
94 3
94 5
94 6
94 7
94 8
94 9
86 1
86 4
86 5
86 7
86 9
Ch annel
ab y
ah u
Ġright s
28 1
28 2
28 7
29 1
29 7
29 8
Ġro ad
27 1
27 9
87 8
97 2
Ġhard ball
89 1
89 2
ĠInt l
Ġbl ame
Ġbl og
Ġres ult
ĠJust ice
ĠAm endment
ĠTe xas
Ġchar ac
AT ION
Ġplan e
Ġsupport s
Ġview ers
Ġvot es
Ġac qu
Ġsol id
Ġstate ments
ĠChrist ian
EC T
Ġcor rupt
Ġra ising
Ġsk ills
ĠQ u
Ġwr ite
ĠMid dle
On ly
Ġfund anything
Ġunemploy ed
ĠPat riots
Ġcompet ition
ĠAd am
ĠTeam Cavuto
Ġfeat uring
Ġcandid ates
Ġexpect ed
ĠMed ia
ĠCent er
Ġfall ing
Ġwel fare
ĠSad ly
Ġilleg als
ĠFrank lin
Ġimpress ive
Ġdop e
Ġdop ey
yler acc
ĠTer rible
Ġten acious
ĠArsenio Hall
Ġpus hing
ĠAct ually
Ġsubs id
Ġang ry
Ġindust ry
Ġcomplim ent
ĠAust ralia
Ġsuff er
ĠHuffington Post
iev able
ĠDM Register
ĠAbs olutely
ĠHamp shire
RSt orrie
ĠPiano Becca
ĠSolynd ra
Ġirre le
Ġtheview tv
ĠCahl RStorrie
yleracc io
6 35
A nn
A KE
C or
D eb
D anny
H ope
I vanka
L ife
M I
Q u
R S
R T
R ich
U r
V an
W al
Y es
a eda
b axter
c il
d n
e ace
f e
f r
g a
h ost
i h
i ro
i el
i ots
i ents
m k
n ote
o e
p r
r age
t a
u k
u mer
Ġ ess
Ġ !!
in as
Ġa ri
at rump
ru st
is l
Ġb orrow
Ġb lew
ĠT ax
ĠT owers
en bc
Ġf iring
Ġf alse
Ġre ck
Ġc iv
ar m
Ġp an
Ġp un
Ġp ull
as ota
le ted
Ġg ut
Ġg orgeous
Ġl ol
ĠA LL
ĠA chievers
st it
st ate
am ing
ĠC ant
ĠC ome
ĠC ost
ĠC OU
ĠC omp
Ġon line
ĠM and
ĠM illion
ac ts
ĠS U
ĠS ust
ĠS orry
ent y
ad dy
ĠW ednesday
us a
oo o
ke l
im in
ĠO prah
ĠN at
ĠN OW
ĠH ol
Ġit self
Ġst orm
ĠL a
Ġj ay
Ġare a
Ġsh ape
el p
el son
ust ain
ĠThe ir
ĠJ erry
ag ed
Ġsu g
ist ing
Ġme mb
Ġsp read
Ġpl ain
Ġus ual
Ġco al
oy d
Ġcl ip
Ġcl ue
Ġcl osing
Ġcour t
uck et
Ġrec ently
Ġbr other
Ġsome body
Ġsm arter
Ġcomp lain
87 1
87 2
87 9
97 1
97 8
97 9
89 8
Ġdef und
ran ge
Ġimp oss
Ġrep orts
Ġbel ong
AN D
98 1
Ġte chn
ik k
Ġgr ound
Ġsign ed
Ġexc ite
Ġsur v
Ġfar ms
Ġdest ination
Ġceleb r
Ġfam ous
ĠJohn ny
ash ion
Ġac res
Ġclass y
Ġtri ed
ĠYOU R
und red
ĠTo day
Real K
Ġnegoti ations
Ġcut ting
Ġadd ed
ham ed
ĠSqu are
Ġans wers
ĠIsrael i
Ġshir t
ĠDan Scavino
Ġfore ver
Re illy
Ġprot est
Ġref used
Ġserv ices
Ġtrans p
OF F
ĠBo e
ĠInd ia
Ġsupp orters
ĠLe ague
Ġimmig r
Ġland mark
Ġtim ing
Ġlik es
ĠMor ning
ĠMor gan
Ġwindfar ms
Ġhum an
Ġofficial ly
Ġjud ge
ĠOlymp ic
Ġtick et
ĠSe ason
Mor gan
Ġalex s
ĠCal ifornia
osp ital
ĠCons ervative
ĠDJ T
Ġapplic ations
Hunt sman
Ġnecess ary
ĠVir ginia
ĠEmmy s
Pal in
ĠLil Jon
Ġintern ational
annah uff
Ele ctions
Ġpot ential
Ġmonst ros
ĠAMERIC A
Dig est
Ġdip lom
Ġirrele vant
Ġreck less
ĠSust eren
) !"
. -
A ng
F AM
H ad
I P
I raq
I VE
K now
L ead
M A
M oney
M ania
N ational
N egotiation
P R
R A
R Y
R ec
S am
T er
a at
b ig
b est
b ie
c el
e or
f an
g ment
g uy
h ar
i end
i od
j amin
m ac
n ew
n ect
n ox
o es
p at
p or
p ress
t ake
t hen
u v
w w
w elch
Ġ x
Ġ !!!!
Ġt rend
Ġt aste
re a
in ister
on ly
Ġa id
al anc
er o
Ġs om
ru ct
Ġb it
Ġb as
Ġb anks
Ġb ret
ĠT IME
Ġc atch
Ġc ross
Ġm id
Ġm ad
Ġm iddle
ar cl
ic ally
Ġh ab
Ġh itting
Ġh aven
Ġh istoric
Ġh undred
Ġp ur
Ġp ush
Ġp aper
Ġd en
Ġg reen
ĠI am
ĠA c
ay lor
am as
ĠC oll
Ġfor ced
ĠM ichelle
et ter
ĠB ay
ad el
ĠW right
ĠD E
ĠN H
ĠN egotiation
ĠN orman
ew el
ĠH E
ĠH unt
Ġhe y
se as
ro ad
ĠR ay
ol ic
ĠL o
ĠL ets
Ġj eff
ĠF ound
ĠF ollow
Ġdo g
ul a
il s
il son
pprent ic
ĠE sp
ast ing
Ġnot ice
ard ing
Ġsu it
Ġsu its
ĠU se
The Elections
Ġas p
Ġas hamed
Ġk yleraccio
Ġwas hington
Ġcan cer
Ġab ove
Ġab andon
Ġsp o
Ġch ris
ĠK rist
Ġag e
od e
av or
av es
ĠSt art
um e
ord ers
Ġnew sp
az a
itt ed
Ġshow ed
ond e
Ġwork ed
rat ing
Ġinterview s
Ġlead ing
ell s
ab or
ab ri
og n
ax elrod
Ġtr ag
Ġar ri
Ġro bb
64 1
Ġqu arter
00 7
ĠNew York
ĠIn TheElections
ĠGolf Channel
ĠBr ady
67 2
Ġbl ack
98 2
Ġres ident
We iner
ĠSh arp
Ġdes erve
ĠNBC News
.... ..
Ġcome back
ĠSp a
Ġend ors
Ġsupport ing
Ġcons ervative
co mp
trump vlog
Ġpublic ity
Ġthrough out
reed s
Ġvict orious
Ġturb ine
esp ite
stand ing
Ġnegoti ation
Don nell
Ġsk y
Ġadd ition
Ġabs olute
ĠTO DAY
Ġtalent ed
ĠEx cell
Ġprom ise
ĠHope fully
Ġproper ties
John ny
Ġri p
Ġlar ger
ĠSteve King
Ġcritic al
ĠCo ast
Sc ary
rod man
Ph one
Ġchang ing
Ġstud y
ennis rodman
LEA DER
Ġgun s
Ġrel ations
Ġic on
Ġhur t
Ġfool ish
Ġstopp ing
ĠLook s
Ġfundra ising
Rob ert
Ġlik ed
ĠPal os
Ġunf air
ĠStephen Baldwin
Ġcop ies
Ġcertain ly
Ġbenef it
Ġlawy er
Ġdoct ors
Ġdavid axelrod
Ġrepl ace
Mid as
icag os
ĠTrumpC ollection
ĠVer des
ĠBry ant
ĠTrumpP anama
ĠInst ead
ĠOct ober
ĠSept ember
ĠLEA DER
Ġhus band
ĠAug ust
Ġciv il
ikk io
Ġexcite ment
Ġalexs almond
Ġwashington post
2 11
? )
? ?""
A G
A cc
B ill
B ut
B est
D ay
D avid
E O
L ive
M Z
N T
P D
P art
P GA
R un
R ev
S un
T ake
V ote
W elcome
b re
b ad
c ar
c as
d d
e a
e at
g re
g ers
h or
i LY
j eff
l ook
m en
m ans
r ance
t t
t own
t odd
u oli
Ġt all
Ġa verage
Ġw anna
Ġb ox
Ġb illionaire
ing er
Ġf ack
Ġf aith
Ġf atal
Ġre du
Ġc y
Ġc at
Ġc uff
Ġc arry
Ġm atch
ar z
ar ies
Ġto wn
ll en
Ġp ain
Ġd at
as c
Ġo bs
ĠI ce
ĠA S
ĠA T
ĠA sh
ow ell
st ein
am ie
om o
ĠC O
ĠC heck
ĠM ajor
ĠS ay
ĠS ch
ĠS chool
ill a
ad or
ĠP ar
ĠP att
ĠO B
ĠO UR
ĠH er
ĠH BO
ĠH AVE
ĠR ose
our ces
Ġat rium
20 13
ĠL isten
ĠL isa
Ġj ump
Ġsh ots
ri p
ri fic
Ġthat s
ĠF reedom
Ġgreat er
op h
ul ated
ĠJ ob
ĠJ ason
ĠJ uly
il a
Ġr alph
if th
Ġde v
Ġcan cell
Ġle verage
ist ent
Ġme mor
Ġpl ays
ĠK enn
ĠK yle
Ġag enda
Ġal ive
itt y
we red
we ather
Ġwork ers
Ġknow ing
Ġad s
ap ers
sh all
Ġcomp leted
Ġro oting
34 5
65 7
Ġaw are
ian ne
Ġimp lement
ĠGolf Digest
Ġrep orters
Ġtw ice
67 8
AN T
Ġsmart est
Ġper haps
oc r
Ġte mp
Ġte acher
36 2
Ġpolitic ally
any ahu
Ġwind mills
Ġhelp ed
OU LD
ĠBill M
Ġlet ter
Ġpass ing
ĠWill iams
Ġfocus ing
Ġset back
Ġinsp ire
oint ed
gr ound
Ġvot ers
co very
Ġsad ly
Ġhell o
Ġpress journal
wh at
Ġinspir ational
Ġnegoti ating
Ġreason s
Ġwr itten
ci uoli
On line
Ġrele asing
ĠAG A
Ġans wered
ĠMiami H
Mar ilu
Ġweak ness
ĠMatt GinellaGC
Ġincre ases
Ġtra itor
win ery
Ġpassion ate
Ġproject s
rav is
Ġapolog y
Ġsw eepstweet
Ġny post
Ġca used
Ġdam age
ĠAg ree
ĠComm ission
Ġspend s
Ġincompet ence
jo hn
TH E
ĠGl obal
Ġdefe ated
ĠFrank Cal
Ġreb uild
ĠSH OW
Ġprotect ing
Ġemploy ees
Ġrespons ibility
ĠDef ense
ĠSar asota
ĠWay ne
oun cil
ĠLI VE
ĠAL S
ĠMS NBC
Ġinf o
Ġhop ing
Ġsum mer
Ġrepeal ed
Ġscand al
bel ievable
Ġla unch
Ġexcus e
Ġund erest
Ġstamp s
Ġfeature d
Ġcontinu ed
ĠML B
ĠSaud i
ĠSarah Palin
ĠWrestle Mania
Ġschedu le
edd ing
ĠSum mit
Ġmanufact uring
Ġendorse ment
Ġdocument ary
inp eter
ĠVattenfall Group
Ur ciuoli
Ġari annahuff
Ġcelebr ities
FAM iLY
iend o
pprentic enbc
Ġfack inpeter
ĠFrankCal iendo
ĠSarahPalin USA
FAMiLY LEADER
, ""
0 7
A re
B ar
C ar
C ol
G en
G uy
G ilbert
L isten
P ut
P ress
a um
b ass
c ol
d am
d aily
e aks
g n
g raham
h onest
l iv
l ife
l eno
m al
m ike
o on
r t
s y
t oo
u pp
w r
w orld
Ġ +
Ġa meric
Ġa ccess
al ed
ou is
an a
at in
at ings
Ġs cot
Ġs weet
is or
Ġb ahia
Ġb aby
ĠT onight
en ed
Ġf ed
Ġf uck
es c
Ġm el
Ġm boy
ar ily
Ġto ol
ic ip
Ġh ired
Ġd iv
le g
le ad
Ġin eff
Ġn ikkio
ed ay
ĠA nt
Ġbe ating
ot om
am m
ĠC om
ĠC ard
ĠC arl
ĠC itizens
ĠM Y
ĠM od
ĠM itch
ĠM aher
ĠM artin
ĠS al
ĠS ounds
et ime
Ġe ag
ĠTrump V
ĠTrump National
us an
ke lly
ĠG ru
ĠG ala
ĠD en
ĠD opey
ĠN avy
ĠN elson
ut ism
ĠH ou
ĠH erald
ch ange
Ġst age
Ġst imul
.. ""
-- &
20 15
ack ing
ack ed
ĠL and
ĠL ind
Ġj on
Ġj ournal
Ġsh it
ĠF R
ĠF und
ust in
ul ate
ĠThe se
ĠJ ordan
il ty
Ġr ap
ĠE X
ĠE SP
ele cted
ia ble
Ġk ing
ra z
Ġso cial
Ġru ling
os er
Ġsp ir
ĠV ine
ear ing
Ġout s
Ġpresident s
ĠSt ill
ĠSt and
az y
Ġun ited
Ġdis ag
sp an
Ġ$ '
Ġen g
Ġevery day
Ġinterview ed
ĠUS C
ah a
Ġke pt
sh it
ret ty
Ġcont ribut
Ġgu arant
urn er
Ġro b
Ġro s
64 2
64 3
64 5
64 6
64 7
64 8
64 9
34 1
34 2
34 3
34 6
34 7
34 8
34 9
65 1
65 2
65 3
65 4
65 6
65 8
65 9
Ġdeb ates
Ġtrump forpresident
Ġtrump winery
ER S
63 1
63 2
63 6
63 7
63 8
63 9
Ġgot ten
ĠIn c
Ġimp rove
Ġfin ish
ĠUn ion
67 1
67 9
Ġdown gr
Ġbl ind
ang el
Ġsc rew
Ġsc ared
ert a
36 9
ĠCl ass
Ġattack ed
Ġlet ters
de v
Ġfail ures
Ġput s
Ġfar m
be at
Get ting
You ng
Ġmiss ing
!!!! !
ĠGo ing
iff any
ĠNe il
Ġenjoy ing
ph y
Ġstupid ity
Ġche ap
Ġconf ident
Ġsol utions
Ġph ony
Ġser ve
ĠTr avel
ĠDem s
ĠQ aeda
Ġwr ote
Ġwr iting
Ġwr iter
Ġgrow ing
Mar ine
ĠPat rick
Ġprom ises
Ġallow ing
Ġpos ition
Ġdumb est
ĠMatt hew
Ġcelebrity apprentice
ĠEvery thing
Ġreport ing
Ar t
Ar thur
Ġid iots
Ġkey note
olitic al
Le od
idd ing
ĠAg ain
ĠEd ison
Ġexcell ence
Ġprep are
Ġnet work
Ġnet anyahu
Ġhold ing
ĠPer haps
ĠGl ad
Ġreb els
Ġchallen ges
itiz en
ĠLead er
Ġball ot
Ġant baxter
Ġjack nick
ĠEnt repreneur
Ġopt ions
Ġcomb ination
ĠRo om
OC K
Ġpret ty
ĠLiberty U
Ġsett le
Look s
Mitt Romney
ĠWOR LD
ĠJud d
Ġfell ow
Ġeditor ial
AZ ING
ĠSer iously
ĠHolly wood
Ġindivid ual
Ġbroad cast
Russ ia
ĠMich igan
Ġprosp er
Ġdesp ite
michael s
erem ony
Ġcharac ter
Deb ate
ĠMand ela
ustain able
Ġbret michaels
ĠSteveKing IA
ĠAGA IN
Ġmboy le
Ġjacknick laus
B uff
B rown
D is
G reen
G reg
J ude
J OY
K ING
K atherine
M ost
N OT
P lease
P olitics
Y MI
a res
a un
a eed
b a
b or
b ren
c our
d an
d el
g i
j ets
k l
l ooking
m ag
o ices
p an
s ustainable
t im
u z
w ide
y ard
Ġ ut
Ġ ....
Ġ !!!
Ġt ired
Ġt urning
re ally
in ations
Ġa pprenticenbc
er ver
er view
er ger
an ell
Ġw edding
at ew
Ġs ep
Ġs ens
Ġs aving
is ers
or st
Ġb i
Ġb an
Ġb ased
Ġb rut
Ġthe FAMiLYLEADER
ĠT ot
ĠT ele
Ġf lex
Ġf ias
it mo
Ġc ards
Ġm ach
Ġm ult
ar in
ic ious
ic ient
Ġh ar
Ġp ool
Ġd ate
Ġd eep
Ġd ennisrodman
Ġy r
as ion
le e
le ep
le man
Ġo cc
Ġin de
ĠI Q
Ġn asty
Ġan tic
ed ia
Ġth x
Ġl inks
ĠA F
ĠA OL
ĠC or
ĠC ur
ĠC IA
ĠC EO
Ġfor tune
ĠM ON
ĠM AKE
ac ing
ĠS l
ĠS w
ĠS OT
ĠS erta
ĠB S
ĠB ri
ĠB illion
ĠB oth
ĠB owl
us sell
ĠP anama
ĠP astor
im on
im mer
ĠD ad
res a
res h
ur ther
ur ray
se qu
ĠR EP
Ġat h
un ately
ĠL ots
Ġj immy
Ġsh are
ĠF our
ĠF ore
ĠF rom
ĠF abulous
ĠF amily
Ġgreat ness
ess ion
ag h
Ġr ank
ĠY ankee
Ġv oice
ĠE le
ont Anthony
ard en
Ġsu ed
ore n
Ġcan cel
ĠCh ief
ra f
Ġso ft
Ġru ined
Ġ( &
Ġsp a
Ġsp in
Ġpl enty
Ġman ager
ub e
em e
ĠSt one
Ġcount s
Ġun ique
ond on
Ġse gment
44 44
oy al
oy aj
Ġover rated
Ġover seas
Ġjob less
ure n
amp anell
Ġen roll
ich ol
Ġpr act
ress ed
84 84
ark s
Ch allenge
lic t
Ġrec ogn
Ġgu ilty
ov a
ov es
35 1
35 2
35 3
35 4
35 6
35 7
35 8
35 9
Wh ite
Ġdeb ut
Ġqu ite
54 2
54 3
Ġinc ome
OP E
ĠMac Arthur
Ġow es
Ġent hus
ang o
Ġres ources
Ġmor ons
Ġper iod
36 1
36 8
In sp
Ġdec ide
ĠAm nesty
ĠAm anda
37 1
37 2
37 8
37 9
anc he
Ġchar ities
Ġlet terman
ĠBl ess
ĠReal ity
ĠReal Gilbert
Ġceleb rating
Ġcreat ive
Ġstrong er
Ġret urning
mploy ment
Ġinsp ired
LL Y
Ġconf lict
Ġacc ording
IC IAL
ash back
Ġteam s
Ġpublic ly
Ġsol ve
Ġcoll ect
Ġturn s
Our Marine
Ġins urance
Real ly
Ġbeg ins
Un ited
Ġpat riot
Ġcor por
Ġfeel ing
olog y
Ġleg isl
Ġfix ed
ĠPl an
ĠEn ough
ĠPat ton
Ġprom ote
And y
Ġcompet itor
AM AC
Americ ans
zz zz
anh att
ĠSec urity
Ġappro ve
ĠTrumpGolf DC
ĠMc Cain
Ġny jets
Ġtreat ment
Ġdefic its
Ġhouse hold
Ġdream s
Ex cited
hew davis
Ġhur ricane
ĠOr ganiz
Ġgold en
Ġve ter
Ġve ts
ĠGr and
Ġconst antly
Ġsound s
Ġval ue
Ġval ues
Ġintellig ent
ĠTru st
Ġaward ed
Ġopt im
ĠGov Christ
Ġdet ails
Int eresting
Ġbomb ed
amer on
Ġprov ide
ĠBrav o
Ġclear ly
ĠAngel es
Ġfrag rance
Ġdirect ly
Ġoppos ite
Ġsan ctions
TrumpV log
Ġindu cted
ĠGi ul
ĠWS J
Ġdeter min
ĠIr ish
ĠTheReal Marilu
Ġjay leno
Ġmemb ers
Ġimposs ible
RealK iyosaki
Ġimmigr ants
Ang le
aat hewdavis
Ġhab it
Ġhundred s
Ġpur p
Ġabandon ed
Ġarri ved
ĠSharp ton
Ġendors ed
Acc ording
Ġcancell ed
aum ontAnthony
bass ador
graham Angle
ĠHou ston
Ġdisag ree
Ġsep ar
ĠSOT U
immer man
oyaj ackson
ĠOrganiz ation
ĠGovChrist ie
) !
0 9
A B
B A
B arack
B ell
B ucket
C L
C om
D S
E n
F an
H ING
I ER
J ac
J Wal
K arl
K evin
N ice
R o
R ay
R ONG
S C
T une
U nder
W II
b augh
c ise
f ire
f riend
f erence
g ling
h h
h all
k h
k in
l ad
l ight
m ay
m om
m un
o res
o omberg
s w
u art
v an
y m
Ġ eth
Ġt ee
on line
he y
he never
an ne
Ġw ow
Ġw ays
is man
or ia
Ġb reat
Ġb reeds
ĠT ed
ĠT reat
ĠT ony
ĠT yler
ĠT MZ
en ess
Ġf irm
es ides
Ġc ust
Ġc ry
Ġc itizens
Ġc span
Ġc eremony
Ġm usic
Ġto wards
Ġd ed
Ġd om
Ġy eah
as y
Ġin ept
Ġn ic
Ġn atur
Ġan th
ed ini
Ġl ay
Ġl abor
ĠA AA
ve y
ĠC ont
ĠC ra
ĠC onde
ĠC ouncil
ĠM U
ĠM il
ĠM ub
ĠM aking
ĠM aster
ĠM anhatt
et ing
et ro
ĠB L
ĠB ern
ĠB iden
ĠB erg
ĠB ACK
ĠB uilding
ad d
ĠW is
ĠW alk
ĠW elcome
us ing
ĠP G
oo s
ĠG ET
ĠG itmo
im ed
ĠO K
ĠO R
ĠO ther
ĠO nce
ĠD ar
ĠD un
ĠD ream
ĠD EAL
ĠN ov
ĠH istory
ĠH uge
ur ate
Ġst ood
Ġst uck
Ġst ubb
.. """
ĠR ight
and i
ir ty
our s
our ce
Ġwe aring
ĠL ouis
ĠL ondon
Ġj er
Ġj ames
Ġsh ock
ri al
ĠF ast
ĠF ire
ĠF ather
ĠF OX
op en
ul es
ĠJ O
ĠJ r
ĠJ er
ĠJ up
ĠJ ournal
ĠE P
Ġsu ing
ĠU r
ĠU nder
ne gie
The D
ood y
ra ke
ist ence
ive red
Ġall ies
ink ing
Ġhas n
Ġpl ate
Ġch uck
ĠK im
ear s
od i
ĠAmeric as
Ġwin ter
... ."
ĠSt upid
ĠSt Jude
um n
Ġun p
Ġshow n
Ġshow ing
Ġdis honest
ĠWh ich
ick s
ĠPresident s
oy a
Ġint ro
Ġint eg
Ġany where
Ġdon ate
Ġpr ayers
Th omas
ĠUS MC
Ġi Phone
ild ren
Ġrec omm
og raph
ann ed
ris on
ric t
00 6
Ġdeal m
ER O
54 1
54 5
54 6
54 7
54 8
54 9
ĠAr nold
ĠSo on
ĠIn v
ĠIn vest
ĠGolf Magazine
ĠMac Leod
AN GE
Ġbl ock
45 6
We bb
Ġper se
erv ice
Ġlos ses
ĠAll en
Ġdec ided
Ġpolitic ian
OT E
Ġexp l
OU R
46 1
46 2
46 9
56 1
56 2
Ġlet ting
47 2
47 9
Ġbill s
ĠBl oomberg
ĠReal DonaldTrump
Ġpart s
Ġstrong ly
Ġopen ed
ĠFor Q
ĠCar son
ĠCar negie
Ġcampa igning
IC YMI
Ġstand s
Ġmajor ity
Ġph one
und it
ĠHotel s
Ġdel ivered
Ġbeg ging
Ġinvest or
Ġinvest ments
Ġinvest igation
ĠTrumpCh icagos
Ġless ons
ĠJon es
ĠJon athan
ĠJon Huntsman
vers ion
room s
ĠPl ayer
ĠTw o
ĠJoe Biden
Is n
Ġmin ute
Ġcheck s
ourn ament
Ġcompet it
Ġelect ric
Ġtra il
Americ an
cal led
ĠAd ministration
Ġfire works
Ġreport ed
Ġprodu ction
Ġrequ ire
ĠPaul a
ĠOsc ar
ĠWH AT
ott es
ĠCo ach
ĠCour t
ILL ION
orm al
IT Y
Ġed uc
ĠEm ily
Tr ack
Ġbeh alf
Ġchang es
Ġappear ing
Ġqual ified
Ġfool s
Ġimpress ed
rick son
Ġfundra iser
Ġhol es
Ġhonest ly
ĠEl iot
Ġfil ming
Ġfront s
ĠKate plus
che ster
Ġiss ues
Ġexec ut
ĠEnt repreneurs
gress ive
Ġlat oyajackson
Ġign or
ĠAb raham
ĠDis ney
Ġshut down
ĠArab ia
ĠOlymp ics
May be
Ġlawy ers
Ġenvironment al
yr shire
Ġcent er
ĠBel ieve
Ġorganiz ation
Ġembarrass ed
ĠJustin Rose
Ġdifficult ies
ĠCH ANGE
Ġstri ke
Ġult imate
ĠJenn ifer
adem y
Ġaud ience
ĠEN JOY
ĠCOU NT
Ġsurv ive
ĠIsraeli PM
OFF ICIAL
ĠBoe ing
arcl iff
adel ph
ĠExcell ent
ĠBillM aher
Ġfed eral
Bucket Challenge
JWal ters
ĠBerg d
Ġstubb orn
ĠKateplus my
, ,
. !
A BC
B D
C ongress
D ont
D em
D espite
E Z
F eed
G od
G raham
H o
H ead
I ve
M S
M o
M ade
M exic
N I
N or
N ight
N ation
O ver
R adio
S en
S ur
T U
T w
T im
T ube
W ork
W hether
a D
a unt
b at
c f
c os
e very
f it
f und
g ate
g ins
i ors
i pping
l ish
l inks
p m
p et
r ad
t ot
t ging
u u
u ine
u age
u omo
w atch
y H
y der
Ġ ing
Ġ ..."
Ġt re
Ġt ill
Ġt oug
he ll
an es
Ġw ine
at o
at on
Ġs n
Ġs election
ru b
or ado
Ġb ust
Ġthe RealKiyosaki
ĠT ank
ĠT alk
Ġf re
Ġf ig
Ġf ault
it o
Ġre ward
Ġc ow
Ġc ute
Ġc ash
Ġm outh
Ġm acy
Ġm sn
Ġm aathewdavis
Ġh i
Ġh ide
Ġh iring
Ġh iding
Ġd ig
Ġd ist
Ġin fect
ĠI D
ĠI RS
Ġn ames
Ġth row
Ġl ang
Ġl unch
ĠA W
ĠA my
ĠA RE
ĠA chieve
ot os
st ac
st ig
am ic
ĠC ross
ĠC BO
id ly
ĠM ic
ĠM eyers
ac ed
ĠS et
ĠS eb
ĠS almond
ĠS mith
ĠB UT
ld in
Ġe arn
ĠW ait
ĠW onder
ĠW eek
us ional
ĠP eter
ĠP olitics
ĠP otom
oo p
oo oo
ĠG umb
ĠG eor
im ir
ĠD ave
ĠD el
ĠD ead
ĠD ouble
ĠN ic
ĠN ation
ĠH on
ĠH im
se x
Ġst e
ĠR ink
ĠR iver
ĠR alph
ĠR atings
ĠR ussell
ave ler
est ic
Ġwill ing
un s
ĠL eg
ĠL ady
Ġj ury
ri k
ec e
ec hes
ĠF eb
ĠF ifth
ĠJ en
Ġr ates
Ġr oof
end ed
ast s
Ġde leg
Ġlo cal
Ġas sh
ia h
Ġk id
Ġle d
Ġle e
Ġgo al
Ġgo vernor
ra p
Ġour s
Ġru ining
ct or
all s
Ġsp ace
Ġpl us
ount ry
ĠV eter
ĠV lad
ĠYou re
ĠYou Tube
Ġwho se
Ġlike ly
um m
um mer
cc i
Ġnew tging
Ġco ach
ick y
ick ens
sp in
sp eaks
iss a
aw ay
Ġint act
Ġcon vin
Ġcon sequ
Ġdon ations
Ġcl own
Ġpr ide
Ġpr inc
Ġback ground
oll s
ĠMr s
Ch ris
Ġtoday s
ah n
Ġar gu
Ġter min
Ġro d
ĠNY Daily
ĠNY PD
xt ing
Ġpol ice
00 5
St ate
St even
ĠSo cial
conom ic
Ġher self
ĠIn grahamAngle
ĠTH IS
ĠAl one
Ġfun eral
ĠRep ort
Ġhope fully
45 1
45 2
45 3
45 7
45 8
45 9
Ġper cent
Ġwar ren
for med
Ġsc ore
In s
OT AL
anc y
ng reen
eep s
ĠCl are
omet hing
53 1
53 2
53 8
53 9
AL K
46 8
56 8
56 9
OR E
Ġspe eches
Ġgr ade
43 1
43 2
43 8
43 9
57 1
57 2
57 8
57 9
47 1
47 8
Ġdest ruction
Ġceleb apprentice
Ġann ual
Ġend e
Ġset hm
Ġneg ate
Be ing
Ġsomet imes
isit ion
ĠJohn son
vel t
Ġclass ic
Ġpres ents
cl ass
cl ock
Ġass ets
With out
Ġpre stig
Ġmil es
ĠAM AZING
Ġfr ank
ĠAt tor
Ġinvest ing
Ġnegoti ator
ĠSyri an
ĠTr ade
ĠBen jamin
On Track
ĠEricTrump F
Ġliv ed
Ġlow est
ĠAfric an
ĠMichael s
Ġlisten ed
Ġref uses
ĠAberdeen CC
Ġeff ect
Ġbeat en
Ġcompet e
Ġtra in
Ġtra ining
ĠNE W
Will iams
ĠGret awire
Ġid iot
Ġappro ved
Ġcritic s
Ġthreat s
iche le
Ġdr ama
Tr avel
Ġimag ination
Ġstud ent
Ġstud ents
Ġtour ism
ĠComm ittee
ĠJack shall
Ġinterest ed
ĠCharl ottes
Ġav o
Ġrel ax
Ġincl ude
ĠBob by
Ġdevelop ment
IM ATE
ias m
ani el
Ġrece ive
Ġhol idays
ĠBuff ett
Ġsub ject
Ġremain s
Ġnomin ee
ĠPr ime
ĠPiers Morgan
Ġgirl s
ĠEur o
Ġdeserv ed
Ġexec utive
ĠNOT HING
Ġdecis ive
Celebrity Apprentice
Ġautism speaks
ĠDec ember
ĠAb out
ĠTHAN K
Ġjohn rich
Ġpossib ilities
Con nell
cri pts
Ġpus hed
ĠMe et
Ġtaxp ayer
ows ki
Ġwhite house
Off icial
mon ium
Ġdisc ip
Ġdoct or
Call er
Ġscand als
ĠSpe aker
ĠBu zz
Ġinfl ation
ĠCap ital
ĠPol ice
Ġdep end
rib ute
Ġsex ual
ĠBlack dog
Ġgrant ed
ĠBarbara JWalters
ĠBack OnTrack
Ġrad ical
Ġdisapp ointed
ĠBrit ish
ĠBilly Graham
Adv ice
aren cy
Ġmat ters
Ġhous ing
ĠFIR ED
ĠHell o
Ġacqu isition
Danny Zuker
Ivanka Trump
rage ous
ĠNat l
Ġmonstros ity
ĠAc ademy
ĠFound ation
ĠEsp ngreen
comp et
Ġcuff links
asc in
ĠAsh ley
ĠGolfDigest Mag
Ġunderest imate
Ġeag les
ĠGru ber
Ġstimul us
Katherine Webb
atew ay
Ġfias co
Ġinde ed
Ġantic ip
Ġcorpor ate
Ġpurp ose
Jac obs
Ġnatur al
Ġanth ony
ĠMU CH
ĠManhatt an
Ġplate au
ĠCOUNT RY
ĠBergd ahl
Ġlang uage
ĠAchieve ment
ĠPotom ac
Ġassh ole
ĠVlad imir
Ġnewtging rich
Ġconsequ ences
ĠNYDaily News
Ġsethm eyers
ĠAttor ney
ĠJackshall is
ĠCharlottes ville
ĠBackOnTrack USA
ĠEspngreen y
, '
1 100
1 200
1 130
1 170
1 140
1 150
1 180
1 190
2 100
2 130
B L
B o
B ad
C ruz
D ON
D erek
E m
F act
F irst
F reedom
G as
G ov
H as
H ER
I F
J P
J Jacobs
M iami
O US
O bs
P res
P oint
P ORT
R ock
S S
S ec
S nowden
T ed
T ER
W H
W here
W orld
W eek
a ver
b it
b ar
b rity
b olling
c ess
c ahn
f ast
f ace
f ield
g le
g ia
g ov
h ave
h ol
h ner
i j
i ar
i qu
k le
k arl
m el
m ik
n ice
n ald
p e
p orts
p undit
r ant
t here
t imes
u is
w hen
y our
y per
z u
Ġ !"
Ġt x
Ġt it
Ġt ort
Ġt aunt
re as
re ens
on z
on ent
al y
al es
al le
al ie
er ter
er ning
Ġw ig
Ġw est
Ġw ake
Ġs i
Ġs ac
Ġs ize
Ġs cott
Ġs oph
or ial
Ġb id
Ġb ra
Ġb ase
Ġb rain
ĠT weet
ĠT odd
ĠT OTAL
ĠT zu
en joy
Ġf ate
Ġf ab
Ġf ought
Ġf allen
Ġf illed
it ney
it ational
Ġc ents
Ġc itizen
Ġm and
Ġm ens
ar th
ar ak
ar ious
ic o
ic ation
Ġp ure
Ġp acked
Ġd an
Ġd allas
Ġd irty
le m
Ġo bl
ĠI gn
Ġan im
Ġth ru
Ġl ance
Ġl ib
Ġl ady
ĠA ve
ot com
st ant
st ories
om a
ĠC L
ĠC R
ĠC her
ĠC ath
ĠC lear
ĠC DC
ĠC OME
ĠC uomo
id y
ĠM ail
ac le
ĠS k
ĠS end
ĠS her
ĠS up
ig ence
ĠB re
ĠB ain
ĠB aseball
ver ance
ĠW ishing
us on
ĠP an
ĠG reg
ĠG abri
ĠD ep
ĠN obody
ut ional
ĠH ard
ĠH onest
ĠH elp
ur ricane
Ġhe avy
Ġst ars
ĠR eg
ĠR io
ĠR oss
ĠR oose
ĠR olling
ĠR uth
ol en
Ġwe b
ĠL ight
ĠL ake
ĠL eno
Ġj ewel
ĠF il
ĠF ran
ĠF ired
ĠF inal
ĠF erg
ĠF aith
ĠF allon
Ġdo or
ul po
ĠJ ew
ĠJ ake
ĠJ ap
Ġr ing
Ġr ick
ant h
if t
ry s
Ġsu ites
ĠU s
ne g
Ġas pect
ia b
Ġk im
ĠCh ildren
ra e
ra ft
ook ed
Ġme mber
Ġch oices
ep han
ĠV ER
Ġag gressive
av s
Ġpro ves
Ġal ert
ans on
az eb
Ġbu ys
ĠWh ile
ass ies
Ġse qu
sp ir
Ġover looking
eal s
Ġ$ $$
Ġcon cept
ere my
Ġcl uel
Ġno on
Ġbec omes
Ġplay off
urn ett
ail ing
Ġcomp ared
Wh ich
ris k
Ġqu otes
Ġaw ful
00 9
Ġatt ract
St ates
ict ion
ĠAr my
Ġdef ending
ian e
ĠIn side
Ġrep e
Ġrep ut
ĠBr idge
ĠInt erview
ons ense
Ġfe es
Ġfe ed
Ġres olution
Ġwar fare
umb ia
Ġwonder ing
Ġsc ient
Ġfo ld
Ġte ach
ĠCan ad
In c
Ġdec ades
Ġown ers
ĠAm bassador
AL L
Ġfail s
Ġrem ind
Ġmorning s
AR D
AR E
AR Y
AT CH
ĠReal Pro
Ġperson able
Ġgl ass
Ġpart icip
Ġopen s
ĠFor ces
Ġep ic
ĠSunday s
Ġmay or
Ġsupport ed
Ġcomm ander
Ġfl ight
Ġvot er
Ġgen uine
Ġtri b
cl usive
Ġcoll ap
Ġdel ayed
Ġpre fer
Ġins ane
Ġinvest ig
Ġnegoti ators
Ġmove ment
Ġfeel s
unt a
Ġsurpris es
Ġdem os
Ġdem ands
ci ety
Ġleg acy
iec es
Ġsl ot
ĠZ immerman
ĠEx ec
Ġmod ern
Ġmov es
Ġmov ies
Ġcast ing
Ġincre asing
Ġconc erning
Ġpick ed
Ġemb assies
Ġexper ien
Ġprodu ce
Ġprodu cts
Ġcap able
ĠPro bably
ĠHis pan
Ġthreat ening
ĠAnn iversary
Ġtrans cripts
Ġtreat ed
Ġhor rend
Ġheart beat
ĠPer d
ĠON E
ĠON LY
Rep ort
ĠTim T
Ġconsider ing
Ġfundra isers
Ġnomin ation
Ġnomin ated
Ġob vious
ĠDef und
Go ing
Ġmention ed
Ġgif ts
Ġexplain ing
sell jr
Ġofficial s
Ġentertain ment
ĠPal mer
ĠHuff Post
Fr ank
ĠRead ing
Ġsuper b
Te a
Fl ashback
Ġlif etime
Ġarchitect ural
Ġsubs cri
Ġgener ation
Ġcru de
ĠJud ge
Ġdrug s
Ġsteal ing
ĠDeb t
ĠHar v
iana Rancic
Ġapart ment
Ġmatt ress
Ġemp ire
Ġexcus es
Ġsen ior
Ġinfl u
Ġlim it
Ġfrag ile
Sad ly
cons in
reme ly
Ġflag s
ĠREA LLY
Ġbull shit
ĠSecret ary
Ġeric bolling
Ġcirc ulation
Ġmeasure d
Ġess ential
Ġsug gest
Ġtransp arency
Ġasp iring
Ġspo ke
Ġnewsp aper
ĠTODAY show
Ġrelations hip
Sun day
cas selljr
Ġcat ast
Ġralph reed
Ġdev ast
Ġsetback s
ĠMiamiH erald
ĠCommission er
Put in
ĠLind a
Ġrap idly
ĠESP N
Ġouts our
bren ner
leep y
ĠBri arcliff
Ġrank ed
ampanell i
Ġlegisl ation
ĠGiul ianaRancic
ĠMub arak
ĠWis consin
ĠJup iter
Ġchuck todd
Ġinteg rity
Ġrecomm end
ĠInv itational
ĠJennifer JJacobs
Mexic o
Ġmsn bc
ĠGumb el
Ġconvin ced
Ġwarren casselljr
ĠBuzz Feed
ascin ating
DON ALD
Ġsoph istic
ĠMail Online
ĠRoose velt
ĠFerg uson
ĠVER Y
azeb ag
Ġcluel ess
Ġhorrend ous
9 11
: ""
A X
A pp
A sh
B N
B a
B oss
B ush
B reitbart
B lo
B ecause
B owl
C y
C ent
C ap
C arl
C omp
C ameron
D es
D ummy
E E
E G
E V
E ver
F C
F o
F erry
G H
G ot
G old
H ilton
I ll
I ce
I ST
J an
J ack
J ean
J ackson
K ay
K iss
L y
L ike
L em
L ance
L oc
L ots
L earn
M un
M AN
R O
R es
R ed
R osie
R andy
S m
S n
S ch
U C
V ideo
W all
W alker
b usiness
b oss
b rown
c at
c hen
c ase
c ious
f ired
g as
g row
h ill
h ard
h ole
i ac
k ar
k ers
k now
l ar
l ies
l ots
m t
m ad
m ust
o ax
p olitics
s qu
u f
u ction
u als
v iously
w en
w il
w ind
y son
Ġ ending
Ġ !!""
Ġt ou
Ġt ur
re ck
re ts
in ct
on er
on ny
Ġa ck
al em
he lp
er ick
an L
an ie
Ġw olf
Ġw ide
Ġw henever
at ory
Ġs outh
Ġs itting
Ġs ource
is ure
Ġb un
Ġb ri
Ġb iz
Ġb ody
Ġb ott
Ġb ases
Ġb aseball
Ġb alanc
ĠT W
ĠT ry
ĠT rip
en z
en ue
Ġf oll
Ġf its
Ġf ashion
Ġf urther
it i
it ers
Ġre venue
Ġc t
Ġc ard
Ġc ars
Ġm ax
Ġm elt
ar i
ar ner
ar mstrong
ic ed
Ġh om
Ġh av
Ġh unt
Ġh oax
Ġp et
Ġp ark
Ġp pl
Ġp eace
Ġp apers
Ġd un
Ġd ri
Ġd anny
Ġd raw
le ts
Ġg ross
Ġg ateway
Ġyou th
Ġin aug
ĠI M
ĠI ve
ĠI cahn
Ġn ick
Ġn onsense
Ġth rown
Ġis nt
Ġis su
Ġl oud
Ġl iter
ĠA NY
ĠA utism
ve red
ot le
st an
st eve
am i
am iner
om an
om ers
om enal
ĠC r
ĠC ENT
ĠM et
ĠM inister
ac he
ac ity
ac hed
ĠS r
ĠS ter
ĠS ince
ĠS ony
ĠS ometimes
ĠS ervice
ill o
et e
ĠB ru
ĠB ec
ĠB abe
ion age
ld er
Ġe at
ly ss
ĠW r
ĠW OW
ĠP rem
ĠG ates
ĠG erman
im id
im ated
ĠO UT
ĠO val
ĠO liv
ĠD at
ĠD ire
ĠD rew
ĠN et
ĠN BA
ĠH ad
ĠH um
ĠH igh
ĠH ospital
ch o
ch amp
Ġst rug
Ġst olen
ĠR a
ĠR yan
ĠR ivera
-- --
ol ine
ack s
ĠL ong
ĠL akers
Ġj im
Ġare as
Ġsh ips
ri f
ri age
19 88
19 96
ĠF A
ĠF ar
ĠF un
ĠF ight
el ius
ust er
ul ating
ĠThe E
Ġne igh
ĠJ C
ĠJ a
ĠJ ul
ĠJ ets
ĠJ amie
ĠJ Urciuoli
ag ing
ag ine
Ġr ink
ate ur
ĠE ng
ry an
th ank
ne mployment
ele ct
Ġk iss
Ġk idding
ĠCh air
ĠCh rys
Ġle ts
ie D
ble ms
Ġab use
are t
Ġwould nt
all up
os es
Ġsp y
Ġsp ok
ĠK e
ĠK ravis
ĠV OTE
Ġex er
Ġex emp
eop les
ĠYou ng
ub s
hen omenal
Ġout standing
em ain
em orial
Ġpro sec
ĠSt ein
Ġthey re
az on
ox o
Ġus es
Ġco inc
Ġup d
Ġup set
Ġun it
Ġun ve
hing s
Ġgood s
Ġdis l
ass idy
Ġse es
Ġse ank
ign ed
Ġ$ $
rat v
Ġint imid
Ġen cour
Ġcon v
Ġcon vers
ven ient
Ġpr ay
Ġad am
Ġevery where
ud y
ue z
ell er
Ġrec over
ab ly
og ul
ann on
ah oo
Ġar rest
urn s
xt ra
Ġpol s
alk in
00 1
00 2
00 3
00 4
00 8
Ġatt ending
Ġdeal ing
ĠBe en
Ġseason s
St ill
St op
Ġfox news
ĠAr med
Ġgot ta
ĠIn s
Ġinc or
Ġele g
Ġele ment
ran e
OP EC
ĠBr on
Ġapp ly
Ġpers u
air s
Ġbuild er
ON NI
Ġfe et
ock er
Ġwar ning
Ġlos es
Ġdes cri
Ġdes erter
Ġdec line
ens ive
Ġhon esty
Ġchar itable
ys cra
ath alie
Ġgr ad
Ġbill y
AT OUR
ĠBl air
Ġceleb ration
Ġpass port
ĠWill iam
Ġel imin
!!!! !!!!
ĠIran ians
Ġact ing
ĠTrumpT O
urb ines
ss ad
Jo an
?? ??
Ġhand led
Ġfl oor
ĠIraq i
Ġsol ar
Ġph otos
Ġdel aying
Ġdel usional
Watch ing
Ġimportant ly
WE rickson
Ġreason able
Do ing
Ġmag gie
Ġcost ly
Ġadm itting
Ġfund ing
Ġfix ing
ĠCon ference
Ġmar ried
ĠZ ucker
ĠZ ERO
arb on
ĠPat riot
ĠEx cited
Ġmod er
Is rael
Ġref use
Ġeff orts
Ġcheck ing
Ġsold ier
AM A
Ġpred ic
mar ie
OM ONNI
Ġreg ulations
Ġreg ular
Ġreg arding
ĠSec ond
Ġhead s
Ar senio
Ġemb r
Ġemb assy
Ġexper t
Ġid eal
ĠMc Connell
Ġapolog ized
OL OMONNI
rod y
Ph illy
Ġny times
igh ter
ĠGen ius
arr on
Ġbre aking
ĠJack son
Ġinterest s
au er
off icial
Ġprep aring
ĠST OP
Ġcover age
Ġext ratv
ĠForbes Insp
Ex po
over ty
ĠPer fect
Ġfound ation
Ġple as
ĠSH OULD
TV Bl
ĠMel Rivers
Ġhero es
MAR T
Ġcongrat ulations
ĠPhil adelph
Ġfil m
ĠCol orado
ĠCol umbia
ĠDef initely
Ġgirl friend
Ġcomment ary
Ġexplain s
Ġaccompl ished
ok ed
ĠFed eral
Rob erts
Ġcold est
ĠDid n
ĠTal isman
Ġlevel s
Ġcomb at
Ġdesper ately
AST ER
Ġjohn ny
Ġlegend ary
Fr iday
SP B
ĠGold en
ask et
Ġhands ome
Ġcop y
Ġaccept ed
AP P
yp ocr
ĠEst ate
ĠEst ates
ĠVP Debate
Ġvacc ines
Ġvacc inations
Ġment or
Ġstrate g
Ġgov t
rop he
Ġindust rial
Ġrev olution
PA OLOMONNI
ĠDaily Caller
Ne xt
bur g
Ġsil ent
Ġinnov ation
Ġinnov ative
ĠAri anna
Ġknock out
Any thing
UM B
ĠRes earch
ĠEr in
Ġlis al
Ġlis arin
ĠShawn Johnson
Angel o
Was hington
Ġcol umn
ĠMedia ite
Van ity
ih ad
Ter rible
Ġsom eday
ĠColl ege
Ġtrag edy
Ġquarter back
ĠNewYork Obs
Johnny A
Run ner
Ġdat a
ĠLand Expo
Ġspir it
Ġcontribut ions
oren z
4444 444
ichol as
Ġenthus iasm
ĠReality TVBl
Ġveter ans
Ġsepar ates
IER PAOLOMONNI
Ġeth ic
ĠPG ATOUR
Ġintro du
Ġperse verance
ĠEmily Miller
Ġinfect ed
ĠDead spin
ĠVeter ans
Ġrod monium
reas ury
Ġbra ins
Ġlance armstrong
ĠSup reme
ĠJew ish
rae us
States man
Ġrepe ated
Ġtrib ute
ĠExec utive
ĠTimT ebow
ĠHarv ard
Ġcatast rophe
Ferry Point
Ġack now
Ġfoll ower
ĠOliv ia
Ġstrug gling
ĠStein brenner
Ġcoinc idence
ĠForbesInsp ector
ĠTalisman JohnnyA
Ġlisarin na
ĠNewYorkObs erver
ĠRealityTVBl iss
! )
( ?)
. !"
0 3
A J
A K
A rab
B ru
B oth
C NN
C lin
C ountry
D M
D Y
D og
E W
F al
F ast
G ive
H ome
I X
J ay
J eff
K elly
L V
L aw
L ets
L ittle
M art
M eg
M ajor
M ayer
M ichelle
N ast
N orman
O il
P L
P ol
P rez
R on
S e
T ick
T alent
V iew
W he
W AY
Z en
_ _:
a bama
b ill
b ul
c heck
d est
d ie
d ah
d eb
f o
f in
f air
f ection
g old
h al
h appy
j ured
j mk
l ow
l ong
l aw
m at
m ake
m iss
m ind
m ory
m avs
p ac
p ower
p lease
r ag
r ina
r ound
u a
u ing
u ct
u able
u cci
w ight
x x
y y
z en
Ġ <
Ġ ident
Ġ iv
Ġ version
Ġt act
Ġt able
Ġt att
Ġt ony
Ġt read
Ġt ips
Ġt ask
Ġt yp
Ġt iny
re b
re ece
"" !"
in ny
Ġa wards
al ity
al ey
ou ise
ou nce
er d
er r
er ing
Ġw at
Ġs and
Ġs qu
ru ary
is her
Ġb c
Ġb on
Ġb ot
Ġb om
Ġb ur
Ġb orders
Ġthe hill
ĠT aking
ĠT ON
ĠT erry
ĠT rav
ĠT iffany
ĠT urbines
ĠT reasury
en f
en es
en ins
Ġf t
Ġf ran
Ġf aster
Ġf uel
Ġf elt
Ġre nt
Ġre election
Ġc urb
Ġc ases
Ġc amer
Ġc arbon
Ġm o
Ġm er
Ġm ichell
ar c
ar ity
ar rett
Ġto m
ll l
Ġh at
Ġh all
Ġh ated
Ġp ort
Ġp ub
Ġp aul
Ġp sy
Ġp upp
Ġp overty
Ġd il
Ġd omin
Ġy d
le c
le ebow
Ġg ent
Ġg em
Ġg allon
Trump T
Ġo h
Ġo k
Ġo we
Ġo kay
ĠI F
Ġn uts
Ġn umer
Ġl ines
Ġl ately
ĠA B
ĠA K
ĠA RT
ĠA yrshire
ow ens
ow itz
Ġbe head
st y
st ay
st ick
am ous
ĠC M
ĠC ook
ĠC up
ĠC ON
ĠC ool
ĠC UT
ĠC ruz
id able
id den
ĠM a
ĠM om
ĠM urray
ĠS m
ĠS and
ĠS ant
ĠS ays
ĠS ame
ĠS EAL
ĠS AD
ĠS usan
ĠS aeed
ĠS omething
ĠS MART
ent ify
et oo
ĠB et
ĠB OR
ĠB uild
ver se
ank atrump
Ġe y
Ġe arl
ad ium
ĠTrump FerryPoint
ĠW T
ĠW ine
ĠW AY
ĠW oods
ĠW omen
ĠW ATCH
ĠP ope
ĠP istor
ĠP olitical
ĠP unta
ke ep
ĠO WS
ĠD ark
ĠD ean
ĠD anger
ĠD allas
ĠD rake
ut y
ut ers
ĠH ost
ĠH ug
res pect
ur t
ur se
ch ise
Ġhe l
Ġhe at
Ġst at
Ġst ole
ro b
ĠR ust
ĠR ele
ĠR ub
ĠR eb
ĠR ises
ĠR yder
and ed
ol es
ht imes
un der
un ior
ĠL ittle
Ġj d
Ġj s
Ġj ail
Ġare nt
19 14
ec c
ĠF e
ĠF IN
ĠF ull
ers onal
op her
ess er
ess ed
ul u
ĠThe B
ĠJ ess
ĠJ eep
ĠJ ean
Ġr ic
Ġr out
Ġr ide
ate ful
ĠY ahoo
Ġv ent
Ġv irt
Ġv icious
ĠE ner
ry l
th a
Ġwas htimes
ĠCh inas
Ġle aks
Ġle aves
ra ine
ist otle
Ġme mory
ak ed
Ġsp ring
Ġpl at
Ġch air
ĠK night
ĠV ia
ĠV isit
ĠV illa
ear l
ear ning
av ior
Ġman agement
em b
em in
em alkin
Ġpro cess
ĠSt ars
ord s
Ġus open
Ġup on
Ġun rel
Ġun believable
man uel
Ġbu mp
Ġbu ck
Ġdis mal
ass o
Ġse xting
Ġover t
eal e
iss ions
ign ment
Ġsee k
Ġdon ated
Ġlove ly
Ġcl ot
Ġwant ing
ial s
ud es
land er
Ch ampionship
ab lish
ah ill
eg al
ĠJo el
sh ould
Ġtr illions
Ġsuccess es
Ġgu ard
Ġar rog
ublic an
Ġter rell
ov ed
ail ure
Ġsm ile
con n
Ġweek ly
aut y
Ġgolf ers
Ġ% ,
St ars
ict ed
ose ph
ĠAr istotle
io c
ach mann
Ġfin ance
ES OME
ĠTH AT
ĠAl an
Ġpers istent
ĠRep eal
ĠWhat s
Ġres iden
ock ing
ĠMar io
Ġwar ned
erv atives
umb ling
Ġsc am
Ġsc ale
Ġdes ire
gy n
Ġunder take
Ġdec ent
Ġown ed
ny c
Ġtalk ed
Ġafter no
AC T
Ġwind ow
Ġhelp s
Ġkill s
ĠBill Rancic
OR Y
Ġsign ific
Ġfav our
ĠReal S
aul ts
Ġmiss ion
Ġsec ure
Ġsec rets
Ġpart ners
Ġact ed
Ġact ual
ĠFor ce
Ġsomet ime
Ġche at
Ġwast es
ĠSu z
Ġcr ash
Ġhand ed
Ġconf ir
co rub
Ġdisaster s
ult ure
IS H
ĠTrumpDoral s
ĠNews week
Ġass ume
Ġass ignment
Ġph il
Ġspeak er
Ġpre vious
chneider mans
wh ile
Ġrest ore
Ġbeg un
Mc C
Mc Call
omp son
esp ect
esp ecially
ĠSen Ted
ĠGet ting
ĠTr ans
Ġmed ioc
ĠQ ue
Ġdem ocrat
Ġreturn ed
ENT ICE
Ġmag ic
imp son
ĠRob b
Ġadm itted
Ġhonor ing
pl ace
Ġeconomic ally
Ġgrow n
Ġgas oline
ĠCon nect
ĠPl ay
ĠZ ero
ĠRuss ian
ĠRuss ians
OW N
ĠTw ain
Ġmod els
Ġprot ection
Ġclose ly
Ġcompet itive
RE E
ĠWest chester
inc ent
Ġair ports
Ġpoll ing
ĠAd d
Ġunderstand s
Ġpick s
Ġpick ing
Ġhead ing
Ġtele cast
ĠPro ject
Ġaut hor
ĠMc Mahon
ĠCo ke
me h
ĠAnn ual
Ġsal ary
Ġcra ig
?! ?
IT H
Le a
ĠEm erson
Ph il
Ġtrans form
Ġentrepreneur ship
Every body
bo ard
ĠAg reed
Ġesp ionage
Ġhor iz
ĠEd ward
Br on
au cus
ĠCharl es
Ex per
Ġsle azebag
Ġhur ting
Ġdevelop ments
Ġfinanc es
TH ING
ĠWind y
Ġcla im
Ġrece iving
roll ing
Ġball s
Ġrenov ation
Ġpoor ly
Bl ack
ĠCol in
Ġpresent ation
fall on
Ġz one
ĠPet raeus
ĠX L
CC ESS
Ġopt ion
Ġappreci ated
UR Y
ĠMore land
let es
Ġform idable
Cl ub
Ġjud ges
Ġaddress ing
gl obal
ĠFin ally
ĠFin ale
rah i
Ġachieve ment
Ġcru cial
At t
ze ldin
ĠMad ison
ĠBBC News
ĠWal do
Ġcomplim ents
ĠSpe aking
Pr ime
ĠBel ich
ĠCap tain
ĠEVER Y
rib une
Ġcontinu ing
Mon ster
fort unately
Ġoper ation
Ġprop osed
ĠShark Greg
ĠNEED S
TrumpV ine
Ġcoast line
Ġviol ent
Ġfly ing
Ġmur d
Adv isor
Mel ania
Ġbelie ves
ĠIslam ists
ĠBoard room
rig uez
ĠBoy cott
ĠKat ie
assion ate
Ġpull ing
ĠComp lete
ĠHol iday
Ġspread ing
Ġbelong s
PR ENTICE
Ġrobb ing
Ġsky rock
Ġtall est
Ġredu ce
Ġobs essed
Ġtemp er
ĠCom edy
ĠMod ern
ĠTrumpNational NY
ĠFR OM
ĠVine yard
Ġguarant ee
Ġbi ased
ĠTot ally
Ġflex ible
Ġmach ine
Ġjimmy fallon
agh meh
anche z
mun do
ĠConde Nast
ĠMil itary
etro it
ĠDun can
ĠLouis iana
TheD eal
ĠAW ESOME
Ġearn ed
ĠFeb ruary
Ġdeleg ates
Ġlee zeldin
Ġprinc ip
eeps Tweet
Ġende avor
ĠEricTrumpF dn
Ġavo id
Ġtort ure
Ġdallas mavs
ĠCL IMATE
ĠJap an
Ġreput ation
ĠCanad ian
Blo omberg
Ġmelt down
Ġgateway pundit
ĠCENT URY
ĠSter ling
ĠChrys ler
Ġseank esser
Ġincor rect
SPB Scotland
WAY S
Ġiv ankatrump
Ġtact ics
enins ula
Ġnumer ous
Ġterrell owens
Ġresiden ces
Ġafterno on
corub io
ĠSenTed Cruz
ĠSharkGreg Norman
0 5
3 60
7 10
A nt
A lex
A chievers
B I
B el
C D
C ont
C omm
D am
D ef
D ept
E B
E Y
E ric
F ar
F ound
F amily
G R
G irl
H ouse
I l
I LD
J M
J oin
J osh
L ord
M ENT
M ister
M ama
M itch
M artin
N orth
N obody
O h
O ut
O ST
Q U
R N
R ink
S X
S er
S im
S her
S mith
S leepy
T ur
T our
T alk
T ony
T iger
T rust
U K
W rong
a L
a ats
b ow
c row
c girl
d ad
d addy
e z
e er
e ared
g g
g en
g ur
g ery
g reen
g allon
h at
h ig
h ab
h ino
h olly
h ani
i os
i els
j j
j m
k at
k es
k ward
k ids
l if
l ines
m and
m ist
m att
m ama
n in
n ic
p eople
p ass
p aul
p ective
p ieces
r as
r ac
r ink
r ary
s ion
s ad
s ch
s kins
s mith
t an
t ell
u ed
v is
v ander
w ear
y les
z ona
Ġ ;
Ġ |
Ġ ver
Ġ ord
Ġ !!"""
Ġt orn
Ġt ape
re ly
re ets
"" ,
"" -
"" ?
"" ""
"" ."
"" --
on ents
Ġa chie
al or
al ition
he m
er a
er deen
Ġw al
at is
at ures
Ġs ight
Ġs ale
Ġs ides
ru d
ru ck
ru de
is ors
Ġb oo
Ġb old
Ġb ald
Ġb asket
Ġthe bl
Ġthe apprentice
Ġthe daily
ĠT p
ĠT our
ĠT OP
ĠT ampa
en Rod
Ġf it
Ġf resh
Ġre ject
Ġre acts
Ġre new
Ġc c
Ġc her
Ġc ore
Ġc ode
Ġm ate
Ġm ort
Ġm ass
Ġm ug
Ġm ichael
ar ning
Ġto pped
ll e
ic ing
Ġh ill
Ġh ire
Ġh ott
Ġh rs
Ġh ospital
Ġp e
Ġp it
Ġp il
Ġp eter
Ġp ump
Ġp enny
Ġp henomenal
Ġd p
Ġy ard
le mon
Ġg reens
Ġreal D
Trump Advice
Ġo v
Ġo clock
Ġyou ve
Ġin acc
Ġan ger
ed ian
Ġl il
Ġl ink
Ġl ake
Ġl ous
Ġl azy
ĠA th
ĠA ng
ĠA iles
ĠA ssad
Ġbe ar
ot ed
st even
ĠC N
ĠC as
ĠC le
ĠC reat
ĠC ut
ĠC ash
ĠC andid
ĠC avuto
ĠC ahill
ĠM o
ĠM in
ĠM eg
ĠM oney
ĠM ets
ĠM otiv
ĠM oore
ĠM ORE
ĠM ichele
ĠM emorial
ac hel
ĠS n
ĠS ol
ig ent
ig ible
ĠB Y
ĠB on
ĠB us
ĠB ook
ĠB all
ĠB US
ĠB arry
ĠB usey
ĠB esides
Ġe mer
Ġe ye
Ġe online
ad er
ĠW on
ĠW ant
ĠW end
ĠW ood
ĠW int
ĠW orst
ĠW WII
ĠP ic
ĠP os
ĠP ublic
ĠP erry
ĠP LA
oo per
ĠG un
ĠG il
ĠG ib
ĠG reen
ĠG uy
im a
im ent
im ates
ĠO H
ĠO k
ĠO cc
ĠD L
ĠD ee
ĠD ress
ĠD ale
ĠD iet
ĠD Nor
ĠN ast
ĠN SA
ĠN aghmeh
ew is
ĠH O
ĠH us
ĠH il
ĠH app
ĠH ands
ĠH annity
ĠH urricane
res p
ur d
ur k
ch ain
Ġhe ck
se ar
Ġst or
Ġst range
ro ads
ĠR O
ĠR ic
ĠR et
ĠR os
ĠR EC
ĠR adio
ĠR IGHT
20 10
ĠL u
ĠL ast
ĠL ux
ĠL atin
Ġj et
Ġsh out
Ġsh ark
Ġsh aring
ri er
ri en
19 94
out s
ĠF t
ĠF all
Ġdo se
Ġgreat s
Ġgreat ly
ess age
ĠThe Art
ĠJ es
ĠJ ane
ĠJ eremy
ag on
ce led
Ġr ally
Ġr ange
ant i
ĠY et
ĠE PA
ry st
her n
th ink
ard o
Ġsu ic
Ġlo ck
Ġlo go
ia k
Ġk rist
Ġk erry
art s
art en
Ġwas nt
Ġcan celed
Ġle arning
ob e
ob erts
Ġgo d
ra eme
ook lyn
Ġso ciety
Ġme gyn
Ġu k
Ġru in
Ġab erdeen
os en
ain e
ain s
Ġsp ec
Ġsp ell
oug e
ĠK ay
ĠK ent
ĠK ier
ect ions
ĠV al
ĠV is
ĠV ict
Ġex ist
Ġex change
od ing
od es
od ity
av in
em ic
ĠSt even
Ġus ually
Ġco vers
Ġco vered
Ġun like
Ġun cle
Ġun sustainable
man ia
iv eness
Ġdis e
Ġdis p
ĠWh atever
oy le
app ing
ip e
Ġdon ors
Ġcl ock
Ġcl oser
Ġoff ered
Ġad ults
Ġad vert
oll a
ial ly
Ġcour ts
ud dy
Ġcom fort
ĠUS News
ell a
land Le
ap able
Ch icago
Ch ange
Ch ief
uck ab
ab les
ab lo
ug hes
iz za
ann as
ah oma
act ion
Ġbr ight
sh aun
Ġtr ave
ther s
Ġthere fore
ov in
EA D
EA T
Ġro ads
Ġwere n
Ġtrump s
Ġaw ait
Ġgolf er
ict rump
Ġdef in
ach a
ĠIn compet
Ġinc apable
ĠUn like
Ġrep ly
Ġbel ow
ĠBr ad
Ġtw ist
ĠFox Business
IN E
ĠAl ready
Ġits Ryan
Ġent it
Ġpers pective
ĠRep Weiner
AN CE
so ci
ang ers
Ġres ol
Ġres erv
Ġsmart s
ĠMar tha
Ġper man
Ġwar m
ĠSh oot
ĠSh annon
Ġagree ment
ĠIs land
umb ai
Ġsc he
Ġsc ar
Ġtweet ed
ert o
ĠCan cer
In vest
ern o
Ġexp osing
ins ured
ĠCl int
ĠTe resa
AL LY
.... ."
Ġspe ed
ues en
Ġrem ark
Ġrem ove
ĠSp eech
ĠSp ectacular
AR oberts
Ġsur plus
ĠBl ake
ier ce
Ġsoon er
Ġgl am
!!!! ""
Ġend less
Ġcreat es
Ġyesterday s
Ġset s
Ġopen ly
ampa ign
NY Mag
Ġrespect s
Ġact ions
Ġinsp ires
Ġfavor ites
Be fore
Be aumontAnthony
ĠCar r
Ġadv ance
Ġadv isors
For mer
?? ?""
Ġmind s
Ġgen es
ĠFr ack
ux e
Ġtri es
Ġlaw rence
ĠChrist ie
ĠChrist ine
Ġdel ivers
Ġins ist
ĠMonday s
Ġbeg ged
Ġpat ience
Ġpat ients
Ġmed ical
Ġsurpris ing
ced ent
Ġwr iters
Al most
ĠBen T
Ġcost ing
ĠRob in
Ġadm its
form etoo
Ġless on
pl aats
uc as
af ia
opp ing
ĠZ ach
ĠPat erno
Ġinst it
Ġproper ly
ĠState Dept
lin ed
oot ball
ĠBlue Monster
Ġreg ard
ĠEvery body
Ġconc ert
Ġhead ed
As k
Ġcrow n
Ġcap t
Ġlight s
Ġdro pping
ott a
Ġpositive ly
far m
Ġapolog izing
Ġpredict ions
IT T
Ġed ge
Ġsw itch
lo ad
Ġbeh avior
igh ters
Ġcorrect ly
idd ich
Ġentrepreneur ial
su ccess
Ġdam ages
Ġbre aks
Ġfac ing
Ġguest rooms
Ġer ictrump
Ġmotiv ated
ĠInd epend
ĠInd ones
Ġext ra
Ġdevelop ing
ĠStay ing
Ġsupp orter
ĠSuccess ful
Ġcrowd fund
II I
Ġintell ect
ani atrump
Ġremain ing
Ġnomin ate
Ġve t
Ġ.. ...
Jon es
ams ung
Ġpremie res
Go vernment
Obam acare
Ġsav vy
ns et
Ġris ks
Ġloc ated
Ġexec ute
Ġvacation er
ĠTru th
ene z
ĠAp lemon
ĠEast wood
Ġopin ions
Ġcomb ined
Ġign ore
ĠRo ast
ĠLI KE
ĠArsenio OFFICIAL
Ġlaugh s
Ġdet ail
Ġem ily
ĠLov ing
Ġstraight en
ĠNick laus
Ġsuper ior
Ġboy cott
Ġbomb ing
Ġbenef its
Matt hew
Ġdefend s
Ġsett lement
Ġgener ations
Ġvacc ine
Ġaccomplish ments
Ġhack ing
Ġhack ed
sec ure
ĠRich ard
Ġenter ing
Ġenter prise
Ġcurrent ly
atal ie
ĠWal ter
iley Cy
Ġlawsu its
cra ft
Ġcond ition
ĠBu ilt
Ġapplic ation
Ġblow ing
ĠId entify
Ġnecess arily
ĠFL IGHT
ĠJose ph
Ġoppos es
real DonaldTrump
Ġsun k
Ġattend ed
Ed ward
Mon day
Per vert
ĠAri zona
ĠSaud is
Ġschedu led
Ab edini
ĠRod man
ĠLos er
Ġviol ence
Ġwalk ed
ĠDam on
Ġeric leebow
tw o
week Mag
Ġbob vander
Ġreve als
ĠFree OurMarine
Ġkat yper
Ġmanip ulation
Ġinsight ful
ĠWarren Buff
Ag nes
Ġsam cgirl
Ġpra ise
ĠPray formetoo
riff in
ĠQu est
Cor p
fr ank
Ġborrow ing
ĠSU CCESS
ĠHol idays
Ġsug ar
Ġprotest s
Ġdiplom atic
Lead er
oes ch
Ġtrend ing
ruct ure
Ġbas is
ĠHunt er
ĠLo eb
ĠKrist en
Ġreplace ment
Ġcarry ing
arz ai
ĠSch w
ĠPar is
ĠPatt inson
ĠKenn edy
Ġknowing ly
Ġaware ness
Ġimplement ed
john son
Gen eral
Ġameric a
Ġfuck ing
Ġineff ective
Ġineff icient
ĠTrumpV ancouver
ĠFund Anything
ĠInc redible
Ġdowngr aded
kl ahoma
Ġbrut ally
ĠTele mundo
ĠFore ign
ĠYankee Runner
Ġdetermin ation
Ġhabit ual
En joy
sw eepstweet
Ġdom estic
ĠBL T
Ġdealm aker
Ġcompetit ors
Ġelectric ity
Ġeduc ation
Ġignor ant
EZ Z
Ġing red
Ġtre asure
ĠSeb elius
ĠWonder ful
ĠGeor gia
ĠLeg end
umm ies
Ġdepend ent
Week ABC
onz ale
Ġsi mpl
ĠIgn ore
ĠCath olic
ĠHonest ly
Ġplayoff s
ĠPerd uesen
ĠJudge Jean
Ġsophistic ated
Boss ie
Cent ral
Ice BucketChallenge
Lem on
Wall ace
grow th
squ ire
anL alor
Ġbalanc ed
ĠTrip Advisor
Ġfits news
Ġmax im
Ġdanny z
stan bul
ĠBru ce
ĠEng land
Ġexer cise
Ġdisl oyal
Ġconvers ation
ĠBron x
Ġpersu asion
yscra per
ĠPhiladelph ia
APP Y
bill maher
ĠTrav landLe
enf iddich
Ġfran chise
Ġpub l
Ġgent leman
Ġearl ier
Ġstat us
ecc able
Ġplat form
Ġunrel iable
ĠRealS QU
ĠConnect ic
Ġhoriz ons
ĠBelich ick
Ġthebl aze
enRod erick
Ġhott est
Ġlous y
ĠWint our
ĠDNor rell
ĠNaghmeh Abedini
ĠREC OR
Ġkerry gold
Ġmegyn kelly
ĠKier anLalor
ĠUSNews Travel
uckab ee
ĠitsRyan Hilton
ĠAplemon Lemon
ileyCy rus
Ġbobvander plaats
Ġkatyper ry
ĠWarrenBuff ett
ĠJudgeJean ine
ĠRealSQU EZZ
! !"
' "
, $
, %
, ....
- &
. ."
/ /
0 6
1 123
8 16
9 16
? !"
A ct
B B
B on
B ro
B ox
B illion
B ased
B LE
B abe
B erger
C ast
C ons
C ole
C ross
D G
D N
D i
D ub
D Romney
D iamond
D GE
E X
E ll
E OP
E LL
E bola
E yes
F F
F ive
F riends
F OX
F UL
G M
G i
G un
G ee
G raf
H er
H is
H ay
H ey
I Z
I RE
J im
J ab
J immy
J Urciuoli
J odi
K at
K ey
K nox
L C
L o
L ove
L ib
M G
M s
M en
M aking
M usic
M inister
N ick
N OW
N athalie
O K
P age
P oll
P OL
P help
R ight
R oy
R ory
R ising
S M
S i
S y
S et
S ON
S outh
S impson
T N
T oo
T ina
T ouch
T He
T yler
U nemployment
V ince
W ood
W ishing
a e
a ac
a os
b on
b al
b an
b ust
b ox
b arn
b by
b oring
b ring
b eck
c r
c or
c ook
c all
c oll
c arl
c orn
c ross
d c
d w
d eal
e o
f re
f rom
f ree
f antastic
f essional
g al
g ot
g il
g ach
g ency
g raph
g eme
g uns
h u
h y
h ope
h awk
i i
i q
i ate
j u
j al
j im
j osh
k b
k im
k raine
l se
l ost
l ace
l ucky
m d
m g
m r
m u
m ill
m et
m us
m uch
n i
n am
n et
o z
p olitic
r n
r ase
r adio
s b
s v
s ay
s am
s ur
s aid
s ky
t om
t ra
t remendous
u h
u ated
u erto
v a
v on
v esty
w y
w an
w as
w ould
w ire
w orth
x aminer
y on
Ġ !!!""
Ġ orders
Ġt on
Ġt as
Ġt ed
Ġt ank
Ġt cot
Ġt ournament
in os
in cl
Ġa in
Ġa st
al ing
al ways
al yst
he tor
an ity
Ġw and
Ġw all
Ġw reck
at i
at en
at son
at lin
Ġs ne
Ġs ake
Ġs ort
Ġs ons
Ġs its
Ġs ided
Ġs assy
Ġs atis
or amic
Ġb ed
Ġb ow
Ġb rian
ĠT en
ĠT ALK
en USA
Ġf le
Ġf lew
Ġf risk
Ġf ascinating
it est
it ka
Ġre ign
Ġre sear
Ġc aut
Ġc alm
Ġc olog
Ġc adillac
Ġc rane
Ġm oral
Ġm aker
ar o
ar alle
ic er
ic als
Ġh a
Ġh ang
Ġh aha
Ġh idden
Ġd j
Ġd ce
Ġd ime
Ġd ress
Ġd ark
Ġy ell
Ġy uan
as cal
le ans
le tic
le ading
Ġg rat
Ġg ary
Ġg aff
Ġg reg
Ġg allup
Ġreal ized
Ġo bama
Ġo sc
Ġyou ll
Ġin jured
Ġin secure
ĠI NC
ĠI stanbul
Ġn one
Ġn ormal
ed ing
ed wards
Ġth ug
Ġis land
Ġl it
Ġl oo
ĠA R
ĠA SA
ĠA NOT
ve land
ot ion
st or
st op
st age
st ory
st upid
st een
am azing
ĠC C
ĠC P
ĠC opp
ĠC AP
ĠC ulpo
Ġfor cing
id i
id o
id as
id el
ĠM C
ĠM T
ĠM ir
ĠM ade
ĠM ull
ĠM VP
ĠM icky
ĠM Mayer
ĠM anti
ĠM ileyCyrus
ac qu
ac hing
ĠS ig
ĠS il
ĠS ue
ĠS ci
ĠS EE
ill iams
ent um
ig l
ĠB R
ĠB U
ĠB ar
ĠB EA
ĠB order
ĠB uy
ĠB ette
ĠB ET
ĠB road
ĠB aton
ĠB achmann
ad v
ad ine
ly News
ly nn
ĠTrump Philly
ĠTrump Rink
ĠW ent
ĠW olf
ĠW ater
ĠW inner
ĠW alker
ĠW elch
ĠW ilson
ĠW OULD
ĠW RONG
ĠW ITH
ĠTh ought
us ky
ĠP L
ĠP ri
ĠP oll
ĠP ipeline
ĠP retty
ĠP IERPAOLOMONNI
ĠP eninsula
ĠP EOP
ĠP uerto
ĠP ascal
ke f
ĠG M
ĠG U
ĠG OT
ĠG ets
ĠG iving
ĠG ilbert
ĠG arden
ĠG raeme
im ately
ĠO s
ĠO il
ĠO kay
ĠO klahoma
ĠD al
ĠD ick
ĠD own
ĠD urst
ĠD avis
ĠD imon
ĠD iane
ĠD UMB
ĠD wight
ĠD etroit
ĠD itka
ĠN unn
ut t
ut ch
ĠH I
ĠH U
ĠH ud
ĠH aving
ĠH arry
ĠH OF
ĠH ilton
ĠH ogan
ĠH Mun
res hing
ch an
ch ick
se in
Ġst r
Ġst am
Ġst eve
Ġst yles
ro vers
ĠR and
ĠR est
ĠR oc
ĠR OCK
ĠR ouge
and rew
and ler
ave z
est yle
ol o
ol an
ht aking
ir ley
20 20
ĠL iber
ĠL OL
ĠL aud
ĠL uke
ĠL ocker
Ġj e
Ġj en
Ġj ess
Ġj osh
Ġsh ake
Ġsh ines
ri a
19 80
19 73
19 64
19 57
19 58
19 61
out hern
ĠF AST
ĠF ashion
ĠF avor
el and
ul ty
Ġne ither
ĠJ ude
ĠJ ewel
ag a
il ater
Ġr ag
Ġr are
Ġr ain
Ġr ough
Ġr hetor
ant on
ĠY ay
end er
if or
Ġv ill
Ġv ol
Ġv ast
Ġv ital
Ġv enue
ĠE ve
ĠE nd
ĠE aster
ĠE mb
ĠE llen
ĠE van
ĠE asy
ĠE WErickson
ĠE squire
ee zy
Ġ"" """
day s
ard ro
ard ner
."" """
ĠU kraine
Ġde ar
Ġde gre
The Donald
Ġlo an
Ġlo bby
Ġas h
Ġas soci
Ġk athy
art her
art ment
ĠCh i
ĠCh allenge
ĠCh avez
Ġle eb
ob in
ra ig
ie j
ist ant
ook s
Ġme ant
ble m
Ġru g
Ġru sh
Ġru ss
Ġru sty
Ġpl s
Ġch amp
Ġch annel
Ġch icag
Ġch ances
ĠK nick
ĠK raft
ĠK NOW
ĠV incent
ine z
ĠYou ll
ub by
ff ect
Ġwhat s
Ġpro ved
Ġpro ving
ĠHe at
ĠHe art
ĠHe ather
ĠSt ep
ĠSt aff
cc o
qu is
Ġnew ly
Ġun ilater
ĠGreat est
30 00
iv ion
iv ity
Ġbu lly
Ġdis covery
Ġdis respect
ond ers
ĠWe bb
Ġse ren
Ġse aled
oy ers
we iner
aw a
ional ly
cus e
Ġcon nect
Ġcon venient
ind s
ind y
Ġdon ation
Ġdon ating
ere r
Ġpr ime
Ġad ore
Ġad min
oll ar
ud ice
Ġlead s
ĠUS AT
ell e
Ġthem e
Ch ampion
Ġbusiness men
lic ated
Ġrec ession
ann i
ah ah
ish a
ish op
own s
sel in
ĠJo ey
Ġtr ash
21 20
Ġcont act
Ġar ming
rep resent
other s
ound ed
pt ion
Ġcomp l
Ġcomp licated
Ġro se
Ġworld s
Ġworld wide
ĠNY Times
Ġread s
ĠNew town
ĠBe aumontAnthony
St ock
St eve
St ephen
RU DGE
ĠSo ho
ĠIn spir
pen cer
US MC
US IVE
Ġimp erson
Ġimp eccable
ĠUn fortunately
ren ch
Ġrep ublican
ES P
Ġtw isting
get s
ĠTH ING
my ers
ĠAl i
ĠAl abama
ĠAnd rea
ĠThat cher
Ġfun n
Ġapp eal
Ġapp oint
ĠRep ubs
so lete
led ging
Ġbl ood
Ġbl ip
Ġbl own
Ġbuild s
Ġtru ck
Ġres c
Ġres olute
ĠMar ines
We ak
Ġper pet
Ġper fection
erv ed
Ġfo res
Ġdes k
ern ity
Ġim m
ester n
ester s
Ġdec ade
Ġlong est
ĠScotland s
ĠNBC Night
ik es
ĠAm ateur
OU T
ĠCl ay
ĠCl ark
ĠTime pieces
uff ington
AL ANCE
Ġgr acious
ĠMy rt
de f
ĠDo ctor
Ġrem emb
ĠSp ark
200 5
AT ES
Ġsur face
Ġsur round
Ġsur gery
ĠReal ize
Ġhigh light
Ġceleb rated
EN CE
Ġbuy er
oth y
ĠUSA Today
Ġinv ite
Ġinv ited
Ent hus
Sh ould
Ġact or
ĠDon nie
ĠGo Angelo
ĠShe lly
ĠBig gest
Ġfollow s
Ġfollow ed
not ing
Ġstupid ly
Ġadv iser
ĠSu pport
ĠSu cceed
Ġcons um
Ġcons ult
Ġcomm and
Ġcomm ittee
Ġcomm odity
Ġthr illed
Ġacc ident
Ġacc omm
Ġacc la
Ġacc urate
yl ove
IC K
IC T
Ġcampaign s
Ġcal end
ĠFr ance
ĠMike T
ĠMike Bloomberg
cl imate
Ġfriend ly
Ġass ault
Ġass aults
Ġph oney
Ġcoll ar
ĠBest Berger
He ather
Ġdel ay
Ġins ult
cept ion
wh ite
Ġbo ot
ĠBrand enRoderick
Sp itzer
Ġlaug hed
ĠSen Scott
ĠAt rium
Ġinvest ors
ole brity
ĠTr illion
wer ner
ĠMay weather
Ġevent ually
Ġfind ing
Ġdem on
Al so
Al bert
Ġmag az
Ġind ic
Ġeas ier
Ġposs ibility
ĠCon rad
Ġmar ch
Ġmar corubio
ĠPl s
ĠPl aza
ĠDan iel
Ġtalent s
Ġfact ories
ĠPat hetic
ĠEx po
ĠAs ia
LA SH
OW ER
Ġremember ing
Re id
Ġprot esters
Is nt
Ġref er
Ġref reshing
Ġmov ed
ĠSee ing
How ard
Ġbeat s
Ġest imates
Ġri ver
Ġri ots
Ġri bb
Ġelect ions
Ad ams
nov ation
ump h
Ġtra vesty
Ġair s
Ġair craft
Ġreg ime
ĠNE WS
Ġconc ent
bl ue
bl itzer
Ġcrow ned
omb ia
Can ada
ĠWH Y
ĠIm mig
ott o
ott en
ĠMake DC
Ġcritic ized
ĠCo ver
ĠCo hen
far ms
me ister
ĠAnn a
ĠAnn oun
ĠAnn DRomney
Ġapolog ies
ĠEnjoy ing
Su per
Ġcra p
IT E
Le akes
Ġsw ing
Ġdr illing
Ġdr inking
Ph q
Tr illion
Tr aveler
Ġny c
Ġsend s
Ġca uses
Ġca using
Every thing
mo il
Ġtreat ing
Ġbro ke
Ġfew er
Ġstud ying
Ġwel coming
Ġtour ist
Ġfac ilities
Ġpict ures
ĠComm un
ĠComm ander
ĠDON E
Br and
IR ED
br ad
of TheDeal
Ġnet works
ĠST AR
ĠWar ming
Gib son
jon es
Ġdeath s
Ġcontest ant
jo e
Ġschool s
Ġhur ts
Ġdevelop er
Ġfinanc ing
ĠGl enfiddich
ĠRed Cross
Ġsupp lies
Ġgenius es
__ __
Ġreb uilding
ĠLate Show
ĠMan ning
ĠBuff et
ĠOr der
Ġemploy ers
Ġemploy ee
Ġcommun ic
Ġdemand ing
Ġcrazy mama
ĠPr ot
ĠPr im
ĠGr ill
ĠGr ound
Ġpersonal ity
ĠPhil ipp
Ġsing ing
Ġfil med
Ġob nox
Ġob solete
OD AY
ĠTer rific
Ġmis leading
ros sing
Ġval uable
ĠTru man
Ġhum ble
Ġir onic
Ġunf ort
Ġdiscuss ed
Let terman
Ġign oring
Ġign ored
ĠTom orrow
ĠSam uel
ĠSam Jab
ĠPGA Championship
ĠRo ad
iet y
run k
ĠDoes n
gu ru
ask a
rock s
rock ets
ĠCarol inas
Ġboy s
Ben ghazi
Fl oyd
Ġpret end
Ġpret ending
Ġlif ted
ĠBret Ba
ĠFo ley
Ġdiffic ulty
Ġ? ?""
ĠAP PRENTICE
ĠEst e
Ġdefend ed
Ġgener ous
Ġaccomplish ment
Ġachieve ments
Ġev idence
ĠThomas ARoberts
Ġwealth y
Ġprov ides
ĠCould n
ĠBrav olebrity
Ġequ ity
ĠHar vey
Ġroll out
ĠNeed s
Ġdeliver ing
Rick Santorum
SH IP
Ġemp has
Ġamount s
Ġorganiz er
ĠBring Back
??? ?""
Ġembarrass ing
Ġembarrass ment
Ġsen ator
Ġlim its
ĠPol ic
Ġcommercial s
Ġsil ver
Ġsil ence
ĠDO ES
ĠDennis Rod
Ġnear ly
Per haps
Ġult imately
Ġdouble d
Ġstick ing
ĠREA D
Ġchampionship s
Ġaccount able
ĠWrestle mania
Ab out
amb ling
izz le
ĠPete Rose
Daily Show
Ġwild life
Ġmur der
ĠGO OD
ĠDam ac
Ġprison ers
Ġindivid uals
Gu ard
jb rain
Ġsus p
Ġreve aled
Ġprior ity
Ġbelie ver
Ag ain
Win ning
Ġsnow ing
Ġmain tain
Ġhous es
Ġforg ot
ECT ION
Ġcorrupt ion
Ġsuffer ing
host ing
Ġess ence
Ġpan oramic
stit ute
stit utional
Ġmonstros ities
Rec ord
Ġsom ew
Ġmid ter
ĠLo is
Ġnewsp apers
Ġtrag ic
Ġrobb ed
ĠLEADER SHIP
Part y
bre aking
ĠMajor ity
ĠPatt i
ĠOB AMAC
ĠALS IceBucketChallenge
Bar rel
Ġmel aniatrump
Ġdiv ided
lead er
lead ers
ĠCarl os
ĠSal on
Ġjournal ist
raz il
Ġros ie
ĠInc re
angel o
Ġscrew ed
Ġprosper ity
Ġprosper ous
Ġbrut al
Ġhar sh
Ġocc as
ĠAF Phq
ĠREP EAL
Ġath letes
Ġenroll ment
8484 84
Ġhousehold s
Ġoptim ist
CL USIVE
Ġcust omers
ĠCont in
ĠCra zy
ĠMaster s
ĠBern ard
Ġjer k
Ġshock ed
ĠFather s
ĠEP IC
Ġunp aralle
Head ing
Ġtoug hest
Ġfig ure
Ġdig ital
stac les
ĠNic ole
ĠHon ol
sex ylove
Ġprestig ious
ĠPrime Minister
mik a
Ġtit le
Ġtaunt ing
Ġmand ate
Ġmens wear
ĠClear ly
ĠGabri el
ĠFil m
Ġsequ ester
Ġscient ists
Ġcollap se
Flashback Friday
Ġdevast ating
Loc ated
Ġtur moil
Ġwolf blitzer
Ġbri ef
Ġdun es
Ġinaug ural
Ġissu ing
Ġliter ally
lyss a
Ġneigh bor
ĠJC OPE
Ġprosec ut
Ġarrest ed
Ġpredic ting
Ġembr ace
Ġlisal ampanelli
Ġrepeated ly
Clin ton
jmk jmk
erd ale
Ġwat ches
Ġbom ber
ĠRub io
ersonal ly
ĠEner gy
Ġclot hing
Ġarrog ant
Ġfavour ite
Ġconfir med
Exper ience
Ġtemper atures
ĠCondeNast Corp
Ġbasket ball
ĠTp Graf
steven s
ĠWend y
ĠPic asso
ĠDL oesch
ĠHus sein
ĠTheArt ofTheDeal
ĠShoot ing
Ġcrowdfund ing
enez uel
ĠFLIGHT S
ĠSchw arz
ĠYankeeRunner LV
onzale z
ĠPerduesen ate
ĠTravlandLe isure
ĠRECOR D
Nathalie S
Phelp s
bust ers
geme iner
Ġtas ks
Ġsassy sexylove
itest one
Ġcolog ne
Ġcadillac champ
Ġdce xaminer
Ġgallup news
Ġosc ars
ĠANOT HER
ĠWater gate
ĠHud son
ĠHMun jal
ĠLaud erdale
ĠLocker bie
Ġdegre es
Ġrusty rockets
Ġunilater ally
ĠUSAT ODAY
ĠNBCNight lyNews
ĠMyrt le
Ġaccomm od
ĠBestBerger Ever
ĠSenScott Brown
Ġribb on
ĠMakeDC Listen
Ġcrazymama a
ĠPhilipp ines
Ġobnox ious
ĠSamJab bo
ĠOBAMAC ARE
Ġunparalle led
ĠPrimeMinister SX
! ).
! )."
' :
) ""
) """
, :
, _
. )
. --
0 2
0 4
2 123
3 16
7 16
? '
A ward
A utism
A rison
B P
B us
B ur
B oy
B ills
B eck
B ACK
B oe
B urnett
C O
C Y
C he
C reat
C ur
C our
C ant
C ome
C ool
C AR
C ollection
C BS
C oming
C assidy
D ec
D iv
D rew
D oyle
E ach
E gypt
E xtra
F ore
F ans
F ace
F ile
F ired
F eat
F ailure
F LASH
G al
G az
G ates
G eor
H O
H ar
H ard
H ost
H erman
H ogan
H elp
I r
I AN
J R
J ob
J erry
K e
K ate
L ess
L ope
L eg
L ady
M er
M om
M ill
M and
M ir
M uch
M edia
M urray
M afia
N R
N V
N ESS
O G
O O
O r
O ak
O sc
O dd
P et
P ower
P att
P erry
R L
R am
R om
R ice
R eb
R ush
R oger
S ar
S um
S aw
S uch
S oc
S ean
S andy
S ea
S anchez
T O
T S
T ry
T ell
T Miller
T aylor
U B
U P
U nd
U RE
V A
V R
V isit
W ay
W ur
W ron
W ilson
X T
Z erv
a es
b ed
b ro
b ec
b ug
b irth
b log
b uild
b ecause
b owl
b ahia
b alanc
c is
c ip
c ongrat
c ool
c nn
c ruz
d i
d oug
d ney
d allas
d raw
e u
e ous
e iving
f ly
f ie
f ox
f ied
g ies
g ory
g gs
g aret
h om
h arry
h Times
i ol
i ast
i very
i ance
i ern
i pped
j ud
j ordan
j myers
k d
k ie
k han
l h
l ers
l il
l ock
l ady
l ights
l oser
m op
m ate
m ont
m od
m ical
m ichell
n ecess
o ker
p le
p ut
p ers
p age
p ug
p oint
p iersmorgan
p rez
p ickens
r ast
r ont
r iss
r onic
r ams
s q
s an
s ar
s ided
s mand
t f
t j
u o
u ru
u ate
u ment
u per
v ote
v oice
w g
w ing
w ar
w alker
w ynn
w ilson
w oman
y d
y et
y co
z i
z ar
Ġ *
Ġ >
Ġ ?"""
Ġ esc
Ġt ight
Ġt ang
Ġt ennis
in et
in ers
in ally
in ated
in the
in vest
on ies
Ġa im
Ġa pt
al im
he p
an im
an ch
an ey
Ġw a
Ġw ing
Ġw we
Ġw oof
Ġs ain
Ġs ister
Ġs int
Ġs oul
Ġs imul
ru th
is k
is en
or is
or ough
or able
or ges
Ġb al
Ġb ag
Ġb end
Ġb ast
Ġb day
Ġb urn
Ġb ail
Ġb ailed
Ġb atter
Ġb arr
Ġb ias
ing Sh
ĠT EA
ĠT aylor
ĠT ournament
en ah
Ġf ir
Ġf ame
Ġf urious
Ġf inger
it ions
es n
Ġc art
Ġc ure
Ġc able
Ġc ath
Ġc ongress
Ġc aring
Ġc rus
Ġc uz
Ġc ooked
Ġm a
Ġm ac
Ġm oo
Ġm ik
Ġm aj
Ġm otto
ar row
ar io
Ġto ward
Ġto wers
Ġto dd
Ġto oooo
ll i
ic i
ic ular
ic key
Ġh am
Ġh ike
Ġh ates
Ġh ater
Ġh ung
Ġh uffington
Ġp o
Ġp ri
Ġp iss
Ġp ean
Ġp urs
Ġp unch
Ġp ga
Ġp eoples
Ġp izza
Ġd ave
Ġd ude
Ġd onaldtrump
Ġd rain
Ġd yn
Ġd isting
Ġd ressed
Ġd cf
Ġd iction
Ġd uty
Ġd ummies
Ġy o
as m
as hes
le arn
Ġg am
Ġg aming
Trump s
Ġo cean
Ġo mg
Ġin ev
Ġin formed
ĠI C
ĠI mp
ĠI BD
ĠI Got
Ġn or
Ġn erv
ed itor
ed ison
Ġl ad
Ġl one
Ġl ands
Ġl iberty
Ġl uv
Ġl iab
ĠA Z
ĠA cc
ĠA ud
ĠA ren
ĠA ns
ĠA aron
ĠA hm
ĠA ils
ĠA lec
Ġbe lll
ot ting
ot ribune
st ood
st ance
st ock
st ances
st hings
am my
ĠC T
ĠC y
ĠC os
ĠC ompet
Ġand y
Ġand rew
Ġon to
id al
id an
id emic
ĠM u
ĠM al
ĠM er
ĠM ax
ĠM AC
ĠM ors
ĠM assive
ĠM ILLION
ĠM umbai
ac ar
ac ent
ac ido
ĠS I
ĠS om
ĠS aw
ĠS ab
ĠS hes
ĠS imp
ĠS assy
ĠS amsung
ill is
ig e
ig ious
ig ger
ig inally
et ernity
ĠB C
ĠB W
ĠB ank
ĠB un
ĠB oring
ĠB etter
ĠB urnett
ĠB ALANCE
Ġe ating
ad h
ĠTrump for
ĠW M
ĠW oll
ĠW aikiki
ĠTh an
ĠTh ose
us alem
ĠP re
ĠP ak
ĠP ass
ĠP AC
ĠP arent
ĠP assion
ĠP ickens
ĠP eale
ĠP ablo
oo ooo
oo gle
ke vin
ĠG er
ĠG am
ĠG ir
ĠG os
ĠG ail
ĠG raham
ĠG OD
ĠG MA
ĠG reece
ĠG otta
im m
im o
im ena
ĠO IL
ĠO wen
ĠD onal
ĠD ur
ĠD umb
ĠD IS
ĠD AM
ĠD espite
ĠD ianne
ĠD AMAC
ĠD VR
ĠN ad
ĠN egoti
ĠN RO
ĠN atalie
ut ing
ut ul
ĠH an
ĠH or
ĠH ill
ĠH el
ĠH ate
ĠH EA
ĠH orm
ĠH AS
ĠH omer
ĠH earing
ĠH OPE
res ents
ur able
ur phy
ter ry
ch ild
Ġhe aven
Ġst ays
Ġst ress
Ġst reet
Ġst kh
Ġst reets
ro k
ro cus
ro ys
ro de
ro bb
ĠR ory
ĠR ED
ĠR ahm
ĠR oves
ĠR emain
ĠR uddy
est ate
ol t
ol ve
ol ous
ol ades
ol amas
ht on
ir k
our t
20 11
un ate
ĠL at
ĠL ot
ĠL ol
ĠL ess
ĠL if
ĠL ie
ĠL od
ĠL ine
ĠL ife
ĠL ara
ĠL ogan
ĠL ucky
ĠL uv
ĠL earning
Ġj am
Ġj oy
Ġj enn
Ġj wil
10 19
Ġsh an
ri ors
19 77
19 70
19 74
ec ided
ĠF re
ĠF an
ĠF ort
ĠF az
ĠF ix
ĠF ried
ĠF IGHT
ĠF actor
ĠF rench
el iner
Ġdo ses
ight ed
Ġwith in
Ġwith draw
ul f
ĠThe G
ĠThe od
ĠThe DailyShow
ĠJ L
ĠJ P
ĠJ UST
ĠJ odi
ĠJ ihad
ag ain
ce le
ce ived
il z
il er
Ġr t
Ġr ow
Ġr amp
Ġr aving
Ġr hino
Ġ& "
ant ed
ĠY EA
if ying
Ġv ic
Ġv ide
ĠE p
ĠE v
ĠE mp
ĠE ll
ĠE ver
ĠE ug
ĠE ach
ĠE yes
ĠE rik
ĠE conomic
ĠE arth
ĠE manuel
ee e
th y
th ough
th ompson
Ġnot e
."" --
one pickens
ore y
The n
The se
Ġlo ans
ele d
Ġk or
Ġk enny
Ġk wr
ĠCh ad
ĠCh ase
ĠCh ance
ĠCh oice
ra it
Ġall eg
Ġso le
Ġme ets
Ġour selves
Ġru s
Ġru led
Ġru ins
ct ors
ck ay
are k
os al
os ers
Ġsp l
Ġsp ying
Ġpl anned
Ġpl aced
Ġch ose
Ġch icago
Ġch rist
Ġch ampions
Ġch osen
Ġch aos
ount ain
ĠK ar
ĠK ick
ĠK ud
ĠK ell
ĠK ath
ĠK athy
ĠK iyosaki
ĠK raf
ĠK arzai
ĠV esc
ĠV inny
ĠV enezuel
Ġex ists
Ġex ha
od cast
av age
Ġman sion
ub es
ff ee
Ġwin ery
Ġout rage
Ġout look
em an
ĠHe ad
ĠHe idi
ĠSt rong
ĠSt ory
ĠSt uart
um ble
um stances
ans ion
qu er
qu otes
ord on
az ard
itt e
Ġus er
Ġus eless
Ġco ffee
ase y
Ġup s
Ġun ion
Ġun ite
Ġun con
Ġun able
Ġun ivers
Ġun gr
Ġun pro
Ġun insured
man y
!"" """
iv ision
Ġdis adv
ĠWh itestone
ass hole
Ġthink er
ĠPresident Trump
Ġse ven
Ġbest sell
Ġcountry s
aw ays
aw illiams
Ġsee ks
Ġsee king
app er
app ed
Ġwork er
ip le
Ġint el
Ġint ense
Ġor iginally
Ġen orm
Ġinter act
Ġcon cl
Ġcon sec
Ġdon or
Ġcl im
Ġcl os
Ġcl ient
Ġcl osed
Ġbig gov
Ġpr aying
Ġoff end
Ġoff ense
ace y
ress ion
ud io
Ġcom edian
ark ov
ower y
Th x
Th om
ĠUS GA
ĠUS Open
land o
ĠAmerica Now
ap h
Ġi P
Ġi am
Ġhow ever
ree k
ab s
ab rams
eg a
red man
red ict
Ġbr idge
Ġcont ain
Ġcont rovers
Ġar med
Ġar ray
Ġar sen
rep ort
oral es
Ġter r
EA K
Ġro bs
Ġro bo
Ġsay fie
xt een
xt remely
Ġtrump d
Ġtrump t
Ġaw ake
Ġaw kward
Ġgolf ing
ib e
ib ly
ib son
Ġhapp ier
Ġatt emp
ĠBe at
St one
ĠAr thur
ĠMiss y
ĠSo Ho
up y
Ġrecord ed
ian iej
Ġinc ent
Ġele v
Ġimp ro
Ġwait ed
Ġfin ishing
ĠGolf Sw
ĠGolf weekMag
Ġrep resents
Ġbel ief
ĠBr illiant
Ġluck ier
ĠTH IN
ty ler
ty Wur
enn edy
ĠAl most
ĠAl gemeiner
ĠAl though
Ġfun ds
Ġapp la
Ġpers istence
Ġbl at
ON E
Ġres il
ĠMar ilu
Ġper ver
Ġper form
Ġwar s
ĠSh a
ĠSh aron
erv ation
ĠIs aac
oc ation
Ġsc ene
Ġshe s
Ġte resa
oin c
Ġim age
Ġdec ept
ĠAm en
ĠAm azon
anc ing
anc ed
anc ial
Ġexp oses
Ġwind ows
ey er
ey ton
ins ider
Ġhelp ful
OU D
ens ion
ĠMon nin
ĠBill Gates
Ġchar ges
Ġtop s
Ġtop ics
Ġsign age
ĠDo ing
ĠVery Odd
ĠSp ecial
200 1
ĠThis WeekABC
Ġdest ined
Ġdest iny
Ġdest ruct
com fort
be ach
Ġperson a
Ġbuy ers
Ġmiss ile
hes s
Ġpay er
Ġend s
Ġpart ies
ĠWas hTimes
Sh arp
Ġact iv
ĠDon ny
Ġcontin ually
ved ev
Ġep it
iff s
ĠNe Ne
Ġche ating
roy Rory
arn s
ev ans
!!! !"
Ġcons ervatives
Ġcr ook
Ġcr imin
Ġhand ing
Ġcomm it
Ġcomm itted
ĠJohn D
isod e
Ġfl ies
Ġconf irm
Ġconf ront
Ġacc olades
IC H
Ġsad d
Ġener g
Ġtri als
Ġstand ards
Ġfast est
Ġsol ved
ĠChrist ians
ĠChrist opher
Gl obal
ĠSy dney
Ġass et
Just ice
Ġph ones
Ġph rase
Ġdel ivery
Ġpre cise
Ġins ights
Real ity
Real ize
Ġbo om
Ġbo oming
Ġbo onepickens
Ġrest rict
Mc N
Sp e
Ġfr ight
Ġfr acking
ĠSen ior
eve rend
Ġpat riots
ĠAt t
Ġmeet ings
ĠGREAT EST
ific ation
Ġmed al
irl ines
Ġtruth ful
ĠQ U
ĠQ ual
Ġwr ites
Ġdem ograph
ĠBen ef
Ġadd ing
Ġadd icted
Ġrele ases
riv olous
ĠDanny Z
Ġadm ired
pl ayer
pl acido
you ng
ĠJon as
af i
af ety
Mar in
Mar ch
Ġsl ight
Ġmar i
ĠCity s
ĠPl z
ĠDan a
arb or
ĠEx pl
ĠEx clusive
Ġpast or
Ġlow lif
ĠAfric ans
Re view
ĠMichael Phelps
Ġref s
Ġeff icient
Ġwebs ites
Ġvac ations
ett a
ett itte
Mike H
Ġelect ing
ĠCNN Money
Ġimmedi ate
RE PORT
Ġsell out
Ġcontrol s
ĠAd v
ĠCongress man
ĠYear s
Ġreg ister
Ġconc ise
ĠMidas Touch
ĠTeam Lee
Ġhead line
Ġmarket ing
Ġemb ar
Ġprodu ced
Ġproject ed
ĠGret chen
Ġdro ve
Ġclub s
Ġappro ach
ĠIm agine
ĠMc Il
Ġcritic ize
Ġcritic izing
Ġthreat ened
ĠCo alition
ĠCour ses
Ġkey noting
Ġdesign s
ĠEnjoy ed
ĠMed vedev
Le igh
Ġed ition
Ph oto
lo an
Ġtrans formed
bo i
bo arding
mo oth
Ġfall s
Ġesp ng
mc g
Ġtour s
Ġtour ists
Ġfac ility
ĠComm on
Br ad
Br andi
Ġer ror
ĠBo one
Ġcover ing
Ġmen u
Ġmotiv ate
Ġmotiv ates
ĠWar ner
Ġkind a
Ġkind ness
ĠCharl ie
jon i
Ġext remely
Ġincl udes
Ġilleg ally
ĠSuper Bowl
ĠWind mills
ĠGl enn
ĠRed skins
ĠLO S
ĠLib yan
Ġrich ard
Ġsupp osed
Success ful
Ġimpress ion
Ġopp ose
Ġopp osed
Ġopp onent
Ġchallen ging
Ġprof it
Ġprof ess
ĠAndrew Breitbart
mart ino
ani els
Ġvision ary
Ġsub stant
Ġcongrat ulate
Ġemploy ment
Ġcommun ities
arent ly
Ġrenov ated
ĠPr oud
cott o
ĠPhil ip
Bl ue
Ġob ject
Ġob viously
Ġtim eless
Ġsav ings
ĠTer ror
Ġexplain ed
ok es
Ġpop ulation
oods afety
Ġannoun cing
Ġmis st
Ġmis represent
ĠTrumpScotland s
Ġpurch ased
ĠEven ing
ĠBills Mafia
Ġunf ollow
ĠTom my
ĠAb edini
ĠSam Doyle
Ġbuff alo
Ġcontract ors
Ġaff ect
Ġinform ative
ĠChe f
Ġem ails
Ġperfor med
Ġexpand ed
Ġsales dan
Ġtest ing
Ġform ula
Te am
Te enUSA
Ġwise ly
ĠWin ning
ĠWin ners
ĠGeneral s
Miss USA
erg io
Ġpenal ties
Ġgain s
Ġgain ed
ĠAL WAYS
ĠBret t
Ġtrust ed
Af ghan
ĠMS M
ĠSome one
ĠSome body
ĠChampionship s
Ġadmire r
May weather
Off ering
Tweet s
yn ch
Ġtick ets
Ġment ions
Ġment ally
Ġinf rast
ĠWOR K
Some one
Ġboss es
Ġhop eless
Ġsum mit
Pl an
dog s
ĠGu ess
ĠGu ide
ĠDeb bie
Ġroll s
Ġroll ing
Ġrepl ay
ĠSpe ak
Pr oud
Ġcent ral
ĠAust in
ĠAngel o
ĠNC AA
Ġsuff ered
Ġsecret ary
Ġbar rel
Ġlim baugh
ĠOut standing
Ġjoin ing
Ġjoin ed
eren ces
AZ Y
Mid ler
She riff
ipp ers
oul ter
ĠSc and
Ġstri king
Ġsex ter
cons ervative
ĠSer ies
ĠWIN N
Ġbull ies
Ġslow ing
Dan Scavino
ĠSum mer
ĠGi ants
Ġgeneral s
Ġproduct ive
ĠJenn a
Ġrad icals
ĠEr nie
rett i
ĠBrit ain
El iot
Pat hetic
Pat rick
mur ray
Ġsus pen
Ġsus pect
ĠAC TU
ĠCall s
ĠMich mus
Ġmanip ulating
Ġblue joni
Ġdisgrace ful
Angel Eyes
Win ners
Ġcol or
Ġmat ches
Ġpra ised
Ġforg otten
ĠMAN Y
ĠPray er
Ġsubsid y
ĠCost ume
ĠSU RE
kel son
Ġcomplain ing
Ġtechn ology
ĠBoe hner
Ġreckless ly
pat riot
ww w
Ġden y
ĠIam Steven
Ġjeff redman
ĠEsp ecially
Ġchris werner
ells cuse
Ġresident s
Ġresident ial
Ġunfair ly
Rev Al
bre ak
Ġcy ber
Ġcy cle
llen Show
Ġpain t
ĠIce BucketChallenge
ĠOB AMA
ĠListen ing
Ġjump ed
Ġmemor ies
ocr acy
ĠMiamiH EAT
Ġscot smand
amm ond
ĠDen ver
Ġjournal ists
Ġros annas
ĠUnion Leader
Ġdowngr ade
ĠClass ic
dev lin
ĠMatthew s
ba iley
Ġsens ational
ĠTot al
Ġmach ines
Ġmult i
Ġhar ass
ĠSl ams
ĠSw eepsTweet
ĠEle ction
Ġpract ices
Ġrecogn ized
ĠAmanda TMiller
Ġpatriot ic
ĠBravo Andy
Ġdetermin ed
Barack Obamas
Ro ad
Ġbreat htaking
Ġcust omer
ĠCra ig
ĠJer sey
ĠJer usalem
ĠAllen West
Ġcompetit iveness
Ġexecut ives
Made OFF
Sur prise
Tw o
watch able
ĠMic kelson
Ġclown s
Ins ider
Ġprestig e
Ġmiles wynn
Ġdiscip line
ĠSpeaker Boe
ĠVladimir Russia
bar rel
nald Trump
uis hes
Ġsac rif
Ġfab ric
Ġobl ivion
Ġanim als
ĠCR AZY
ĠSk ating
ĠBre ak
ĠReg is
Ġjewel ry
ĠFran cis
Ġparticip ation
ĠHispan ic
Ġinflu ence
Ġoutsour cing
Comp any
Fo cus
Sn urk
Ġbott om
Ġct obin
Ġhav ent
Ġdri ver
ĠANY THING
ĠPrem ie
ĠDat eline
ĠDrew MadeOFF
Ġexemp t
Ġeleg ant
Ġelimin ate
Arsenio Hall
Ġpleas urable
ypocr ite
Ġstrateg ic
orenz olamas
Ġacknow ledging
Bru no
Meg rahi
Whe res
Ġtyp e
reb els
ĠTON IGHT
Ġcamer a
Ġdil igence
Ġbehead ing
ĠMom entum
Ġey eliner
ĠPistor ious
ĠRust y
ĠJess ica
Ġusopen golf
Ġbuck et
Ġovert urn
Ġguard ian
Ġsignific ance
Ġclaim ing
Ġmurd ered
ĠKatie Show
holly wood
iels en
Ġord ered
Ġwal let
Ġboo st
Ġmort g
Ġpil ots
ĠrealD BP
Ġinacc urate
ĠCN Traveler
ĠCle veland
ĠBus hes
ĠPos itive
ĠGib bs
ĠHil ary
ĠLu cy
ĠLux ury
ĠJane iro
ĠVis ited
Ġdise ase
Ġbright est
Ġentit led
Ġreserv es
Ġperman ent
Ġglam our
ĠCarr Gaz
ĠBenT rolling
success ful
ĠIndepend ence
ĠBLT Prime
Ġdannyz uker
ĠConnectic ut
Key stone
POL ICE
Ġsne ak
Ġresear ch
Ġcaut ious
ĠASA P
stor ino
ĠCopp ins
ĠMicky Arison
ĠBette Midler
adine j
ĠPEOP LE
kef eller
ĠHU GE
Ġstam ina
ĠRoc kefeller
ĠJewel ry
ĠEmb assy
Ġassoci ated
Ġchicag otribune
ĠKnick s
quis ite
Ġseren awilliams
ĠMikeT yson
Ġdemon st
Ġmagaz ines
Ġconcent rated
ĠBretBa ier
ĠBringBack OurMarine
ĠDennisRod man
ĠHonol ulu
Ġwolfblitzer cnn
Ġneighbor hood
Award ed
Feat uring
FLASH BACK
Lope z
Osc ar
Wron owski
Zerv s
balanc ing
michell emalkin
necess ary
Ġtang ible
Ġwoof eous
Ġsint ianiej
Ġsimul cast
Ġbatter ies
ingSh irt
Ġcath am
Ġmoo ovin
Ġhung ry
Ġdyn amic
Ġdisting uishes
Ġdcf oodsafety
Ġdiction ary
ĠIGot AngelEyes
editor ials
ĠAhm adinej
ĠWoll man
ĠPak istan
ĠGos selin
ĠHorm uz
Ġstkh lder
ĠFaz io
ĠEug ene
Ġkwr crow
ĠKraf tyWur
ĠVesc io
ĠVenezuel a
Ġexha ust
Ġuncon stitutional
Ġdisadv antage
Ġenorm ous
Ġconsec utive
Ġbiggov t
ĠAmericaNow Radio
ĠGolfSw ingShirt
ĠTHIN K
ĠVeryOdd Dog
Ġcrimin als
Ġrestrict ions
Ġlowlif es
ĠTeamLee za
Ġinfrast ructure
ĠACTU ALLY
ĠMichmus M
ĠIamSteven T
Ġscotsmand otcom
Ġrosannas cotto
ĠSpeakerBoe hner
ĠKraftyWur ker
' ,
* *
- $
2 83
3 11
3 957
4 20
5 11
6 13
6 14
6 15
6 23
7 14
7 22
8 13
9 80
A W
A ir
A ust
A ik
A Win
A storino
B k
B et
B ank
B ri
B rent
B ook
B uild
B aker
B rett
B etter
C A
C T
C at
C orn
C ares
C rude
D D
D H
D a
D r
D or
D ot
D ur
D ave
D est
D oug
D ine
D ue
D OM
D avis
D owell
D rake
D aniel
D iane
E I
E M
E r
E ve
E rol
E WS
E sq
F R
F T
F le
F ly
F our
F un
F ort
F ind
F ran
F ollow
F lor
F acts
F resh
F ootball
G er
G ir
G REAT
G raydon
G ardner
H L
H on
H ot
H istory
H onest
H enry
H agel
I nd
I de
J L
J O
J ud
J oseph
K n
K en
K as
K yle
K idd
K amin
K night
L u
L il
L ong
L og
L ef
L inks
L iber
L arry
L iving
L ampanelli
M H
M al
M ed
M ad
M od
M ann
M ov
M ull
M ON
M aster
M erry
M illions
M UST
M ichele
N O
N ic
O S
O b
O l
P re
P an
P ar
P ay
P ri
P atch
P ark
P enn
P ants
P astor
P retty
P oulter
R C
R h
R y
R el
R os
R um
R ated
R oss
R AT
R espect
R SPBScotland
S D
S G
S K
S it
S ut
S and
S now
S ox
S ince
S ex
S lo
S mit
S ky
S ummer
S Wood
S pencer
T Y
T re
T or
T ank
T ut
T ant
T ra
T ier
T ex
T urner
T illis
U p
U MP
U asshole
V i
V er
V ING
V oice
V EST
W V
W r
W il
W ant
W ine
W ord
W ere
W OW
W right
W aste
W ells
W itty
W Ly
Y un
Y alim
a as
a iley
b u
b ing
b st
b ee
b ear
b iz
b urn
b any
b oth
b aldwin
b etter
c b
c d
c s
c ut
c ap
c alm
c arr
c assidy
d h
d onald
d ow
d ot
d ont
d ick
d ue
d ds
d aughter
d rop
d ha
d otcom
d aniels
e ach
e mpl
e xtremely
f c
f ol
f un
f ight
f ood
f itz
g ent
g ri
g op
g ive
g ain
g em
g ame
g ue
g ret
g onzalez
h i
h art
h um
h orse
h anded
h ughes
i at
i ann
i astic
j e
j f
j k
j t
j ack
j trump
j ango
k c
k op
l t
l u
l ny
l ied
l uge
l azy
l tim
l oding
m i
m es
m ia
m ie
m ble
m ort
m ine
m ous
m oney
m aking
m aster
m iller
m osp
n or
n eck
o ly
o bama
o akes
o jay
p P
p re
p ar
p ot
p res
p ri
p aw
p riv
p atter
p ga
p olls
p earl
p gach
r h
r ice
r and
r ous
r itt
r ins
r pe
s ome
s uch
s cot
t m
t ax
t roll
u le
u ous
u em
v ia
w a
w d
w p
w ick
w ich
w ild
w yn
w hel
x y
x oxo
y c
y k
y ers
z k
z o
z t
z one
z ko
z iak
Ġ ou
Ġ !!!"""
Ġ !!!!"""
Ġt ack
Ġt one
Ġt ire
Ġt ree
Ġt roll
Ġt yler
Ġt aught
Ġt ears
re ig
re ason
in is
in el
in ary
in wich
on West
Ġa x
Ġa le
Ġa ve
Ġa est
Ġa rab
Ġa ka
al as
al ian
al ified
al evans
he ro
he ast
he art
he red
ou ng
er ate
er os
er ner
an ow
an ormal
Ġw ave
Ġw ood
Ġw itch
Ġw ounded
at he
Ġs y
Ġs ch
Ġs her
Ġs ix
Ġs ands
Ġs idel
Ġs outhern
ru ff
ru ett
ru ns
ru thers
is c
is p
is le
is ms
or a
or i
or ous
or ney
or sing
or ated
Ġb at
Ġb le
Ġb ld
Ġb ite
Ġb und
Ġb ored
Ġb will
Ġb esides
Ġb anned
Ġthe res
Ġthe jbrain
ĠT P
ĠT R
ĠT it
ĠT ig
ĠT aj
ĠT ump
ĠT yr
ĠT ebow
ĠT RI
ĠT ours
ĠT AX
en eg
en ced
en oun
en Poll
rump y
rump yH
Ġf ill
Ġf ave
Ġf ake
Ġf ud
Ġf led
Ġf reed
Ġf rust
Ġf ighters
Ġf arther
Ġf rivolous
it ar
it che
it adel
it utional
Ġre n
Ġre in
Ġre im
Ġre son
Ġre ach
Ġre hab
Ġc as
Ġc and
Ġc ate
Ġc os
Ġc ous
Ġc ell
Ġc ab
Ġc ities
Ġc oun
Ġc ulture
Ġc rossing
Ġc hess
Ġm t
Ġm ill
Ġm ir
Ġm ix
Ġm rs
Ġm erger
Ġm ogul
Ġm ocking
ar os
ar ge
ar iz
Ġto ying
ll s
ll ey
ic ian
Ġh al
Ġh il
Ġh olly
Ġh osp
Ġh omes
Ġh arm
Ġp and
Ġp our
Ġp ess
Ġp ace
Ġp uss
Ġp eek
Ġp ages
Ġp inn
Ġp ellscuse
Ġd m
Ġd er
Ġd ee
Ġd oral
Ġd rew
Ġd umber
Ġd irt
Ġd aniel
Ġy ay
as o
as hing
as hed
le in
le em
le AWin
Ġg ay
Ġg ill
Ġg ig
Ġg rew
Ġg arth
Trump Doral
Ġo val
Ġo dds
Ġyou d
Ġin her
Ġin vent
Ġin cons
ĠI II
Ġn at
Ġn ite
Ġn ail
Ġn ature
Ġn ailed
Ġn orth
Ġn uk
Ġn aming
Ġn urse
Ġan x
Ġan alyst
ed e
ed ent
Ġth ro
Ġl aid
Ġl ending
Ġl ying
Ġl aying
Ġl iar
Ġl ucas
Ġl orenzolamas
ĠA J
ĠA v
ĠA pprent
ĠA ub
ĠA ccess
ow ing
Ġbe ach
Ġbe gan
ot v
ot ter
st r
st he
st hey
ay n
ay Zen
ay von
am us
am atic
om on
ĠC hen
ĠC ox
ĠC ann
ĠC able
ĠC OM
ĠC andy
ĠC ertificate
ĠC irc
ĠC ONG
ĠC ameron
ĠC ARE
ĠC aucus
ĠC ryst
ĠC ampaign
ĠC indy
ĠC aes
ĠC rocus
," :
Ġfor t
Ġfor ces
ĠM I
ĠM ack
ĠM un
ĠM ight
ĠM ont
ĠM atch
ĠM ah
ĠM anny
ĠM IS
ĠM illions
ĠM olly
ĠM ilton
ĠM anche
ĠM essage
ac ion
ac ist
ĠS ong
ĠS now
ĠS ending
ĠS EL
ĠS OD
ĠS eals
ĠS chneidermans
ill ips
ent er
ent house
ig g
ig riffin
et a
et he
et ary
ĠB an
ĠB id
ĠB oo
ĠB ur
ĠB ike
ĠB ox
ĠB ud
ĠB ug
ĠB old
ĠB EN
ĠB eth
ĠB ird
ĠB ILL
ĠB AD
ĠB aldwin
ĠB aron
ĠB ucket
ĠB ILLION
ĠB razil
ver Mc
Ġe c
Ġe ve
Ġe ars
Ġe min
Ġe has
ad ians
ad omen
ĠTrump Ro
ĠW I
ĠW P
ĠW W
ĠW ake
ĠW ins
ĠW hether
ĠW aste
ĠW ien
ĠW asting
ĠW earing
ĠW oody
ĠTh ing
ĠTh ore
ĠTh ird
ĠTh ousands
pp er
pp ins
us ion
ĠP o
ĠP ec
ĠP oor
ĠP eoples
ĠP earl
ĠP OWER
oo le
ke v
ĠG Q
ĠG W
ĠG and
ĠG ee
ĠG ame
ĠG EN
ĠG orgeous
ĠG IVE
ĠG Zervs
im i
im it
im ist
im ming
ĠO D
ĠO b
ĠO wn
ĠO range
ĠO gre
ĠD R
ĠD ig
ĠD ut
ĠD est
ĠD ear
ĠD og
ĠD ann
ĠD oc
ĠD uring
ĠD ash
ĠD AY
ĠD unn
ĠD OWN
ĠD RUDGE
ĠN A
ĠN av
ĠN umber
ĠN ATION
ĠN ancy
ew ork
ut er
ut ed
ut ter
ĠH it
ĠH ank
ĠH ear
ĠH ER
ĠH OT
ĠH ors
ĠH AR
ĠH agan
ĠH amas
ĠH APPY
ĠH ammond
ch ar
ch icago
ch arl
ch rist
Ġst ir
Ġst ance
Ġst ead
Ġst yl
Ġst unt
Ġst ream
Ġst rict
Ġst adium
Ġst umbling
Ġst ruck
ro c
ro pping
ro phy
ĠR en
ĠR ide
ĠR itz
ĠR OC
ĠR espect
ĠR SPBScotland
ĠR achel
ĠR asm
ĠR ICH
-- ""
and at
and ing
and Freedom
est in
ol it
ol ves
ol ences
ir ation
our ic
Ġat mosp
Ġwill weather
ack o
ack ova
Ġwe ight
un z
ĠL ist
ĠL iam
ĠL ik
ĠL ane
ĠL aur
ĠL AST
ĠL ONG
ĠL UC
ĠL imit
Ġj an
Ġj ake
Ġj sh
Ġj ose
Ġj ock
Ġj enny
Ġj ij
Ġsh all
Ġsh arks
19 60
19 84
19 75
19 63
19 67
19 81
19 69
19 72
19 71
ec a
ĠF al
ĠF ew
ĠF el
ĠF UN
ĠF eel
ĠF arm
ĠF ANT
ĠF urther
ĠF risk
ĠF ascinating
ĠF ACT
ĠF BI
el i
Ġdo zen
12 60
12 34
ust on
ers en
ers che
ess a
ess ions
17 75
18 28
rent ly
Ġyour fired
ĠThe D
ĠThe S
ĠThe View
ĠThe RevAl
ĠJ F
ĠJ ared
ĠJ erem
ĠJ unior
ag g
ag ious
ag azine
ag ging
ag ination
ce pts
il f
il it
il us
il ne
il ib
Ġr ig
Ġr anks
Ġr yan
Ġr ape
ate o
ant ic
ant ig
ĠY Mc
ĠY eah
end re
Ġv an
Ġv ar
Ġv ice
Ġv arious
ĠE L
ĠE U
ĠE W
ĠE th
ĠE ne
ĠE vent
ĠE ND
ĠE BO
ĠE xtra
ĠE ASTER
ĠE ggs
ast ed
Ġmy st
ee M
ee fe
her win
Ġnot ch
ĠObama Cares
ard ash
ard ym
."" -
Ġsu ite
ĠU gly
Ġde pl
Ġde esn
The Real
The Tea
Ġas ide
ele graph
ia o
Ġk arl
Ġk mc
Ġk oos
art y
art ist
Ġcan ned
ĠCh amp
ĠCh ampions
Ġle on
Ġle ct
ra ff
ra ves
ie lle
ist le
ist ribute
Ġme mo
Ġme enah
mer y
Ġu gl
Ġru mor
Ġab c
Ġab ys
Ġab road
all o
Ġget away
Ġsp ark
Ġsp ade
Ġsp ider
Ġpl ag
ort ant
Ġch ill
Ġch ase
Ġch ap
ĠK ill
ĠK ind
ĠK enny
ĠK atherine
ĠK nox
ĠK daniels
ĠK luge
ep s
Ġshould nt
ect s
ect ator
ĠV ice
ĠV ick
ĠV ets
ĠV alent
ĠV iet
Ġag ency
Ġex it
Ġex ceed
Ġex isting
Ġex quisite
Ġjust ify
od a
Ġman age
Ġman aging
ff er
ff icial
ous ly
ire ment
Ġam ass
Ġam aze
Ġout l
Ġout come
Ġout lets
olf ini
now ned
ĠHe alth
ĠHe aded
ĠSt adium
ĠSt ras
ĠSt aten
ĠSt rait
qu are
qu ote
qu alified
ord able
Ġnew h
Ġnew est
Ġcount ing
az z
Ġco ck
Ġco aches
Apprentice NBC
Ġun c
Ġun w
Ġun st
Ġun happy
Ġun lucky
Ġun comfort
Ġun watchable
Ġun necessary
iv al
iv ic
iv able
hing t
Ġbu zz
Ġdis s
Ġdis cl
Ġtime ly
ond ents
ĠWe re
ass im
Ġse a
Ġse at
oy er
oy ing
sp ent
sp ace
sp ull
Ġover take
Ġover whel
iss ance
app en
app as
rat es
ip er
Ġint ent
ina oakes
ame ful
ĠIt alian
Ġlook out
ind ing
Ġcl out
Ġcl ients
ven ge
ven cy
Ġoff set
Ġback s
Ġback wards
Ġback stage
Ġad ap
Ġad vers
ace Show
85 14
ark hani
ĠMr Ins
Th ose
Th ought
Th ousands
ell igent
ap iro
Ġmake over
Ch uck
Ch oice
Ch inese
ove red
ree ze
ab el
ab eth
ab ooo
ab uru
iz zy
ann ie
ah s
ah Dan
Ġke lly
ish onest
ile en
Romney Care
red it
Ġbr it
sel m
sel beck
ĠJo in
ĠJo int
sh ore
Ġtr ading
21 12
Ġar ms
Ġar my
Ġter ms
ound ing
ov sky
Ġsm ash
con edison
Ġcomp uters
Ġcomp assionate
Ġro ast
Ġro bert
ĠNY Post
Ġread ers
aut ilus
Ġqu its
Ġqu itter
Ġhapp iness
Ġatt ribut
Ġatt ached
Ġatt orney
Ġdeal t
Ġdeal ings
ĠBe ats
ĠBe yond
son nset
St ay
St ack
St rong
St upid
St ewart
St eel
St uart
St ephan
Ġcould nt
Ġother wise
att y
Ġhard work
RU N
ĠMiss TeenUSA
ian i
Ġimp loding
ĠGolf World
ĠUn ity
ĠUn less
ĠUn cle
ĠUn believable
ĠUn sustainable
Ġrep s
Ġrep ublicans
ES DAY
Ġaf rode
Ġ: //
ĠBr ooklyn
ĠInt o
ĠAl bany
ĠAnd re
ĠAnd retti
Ġbook ed
Ġdown s
Ġdown ward
MP ET
Ġent ered
the press
Ġapp eared
so f
so on
Ġbl ake
Ġbl ows
Ġbl aming
ĠMar ia
ĠMar co
ĠMar riage
ĠMar garet
Ġtax ing
Ġper m
Ġwar rior
ĠSh ane
arl ing
ĠIs n
oc a
for ce
for ming
Ġsc en
Ġsc ience
Ġsc enes
Ġshe l
Ġshe er
Ġvia ble
Ġte aches
oin ting
ĠAll About
In st
In novation
ern and
Ġunder stood
iam enoun
Ġdec k
Ġdec re
Ġdec iding
Ġdec imated
OT T
ars en
AC E
AC U
rem ember
Ġexp ose
Ġexp ansion
Ġwind s
OU GH
rist en
ĠCl own
Ġkill ers
ĠTe h
ĠTe o
ĠTe utul
ĠBill Cassidy
Ġtop ic
.... ""
.... """
OR K
ath on
ony mous
Ġgr am
Ġgr ave
Ġgr ace
Ġgr ants
Ġgr ateful
Ġsign s
ange orges
Ġbill cl
ĠYork ers
Ġrem edy
ĠSp y
ĠSp ain
ĠSp orts
ĠSp iel
ĠSp ectator
Ġmorning mika
Ġexc er
Ġexc ess
ĠTHE Y
ĠLike wise
Ġfav ors
AR S
Ġsur ged
Ġdest roys
ĠBl og
ĠBl asts
ĠReal Sheriff
ĠIvankaTrump s
EN D
be ats
be autiful
!!!! !"""
!!!! !""
Ġend orsing
Ġpart icular
Ġcreat or
Ġcreat ion
Ġcare ers
Ġstrong voice
Sh ark
Sh ock
Ġrespect ful
Ġrespect fully
Ġact s
Ġact ive
Ġinsp ect
ĠDon ate
Ġep idemic
Ġnews cast
ST ER
ĠShe ep
ĠNe ither
ix on
ph il
ph Agnes
ph illips
not hing
Ġche ated
Ġche mical
roy er
Ġadv oc
Ġadv ised
Ġadv isor
Ġmay oral
For AG
ev ander
less ly
less ness
ĠFoxNews Sunday
ĠFoxNews Insider
Ġcons umer
Ġcons istent
Ġcons ulate
gr ams
Ġcr ony
Ġcomm ission
Ġfl ood
ĠIraq is
uss enPoll
ex i
Ġacc ru
Ġacc um
fl ix
co ver
co ppins
do ch
ĠWorld s
Ġcal c
IS IS
Ġmess ing
Ġac adem
Ġjo ep
Ġjo ey
ĠMike M
Ġtri umph
Ġthank ing
Ġthank ed
Ġthank ful
Ġstand point
Ġsol ving
Ġvict ories
Ġimport s
Ġass istant
Just in
Ġph ys
und y
Ġpress uring
He res
ĠTV G
Ġpre v
Ġpre view
Ġpre cious
Real ty
Ġbeg s
ĠBrand on
Mc L
Mc Dowell
Ġmist reat
ĠSen iors
eter min
ai res
Ġmeet thepress
ĠJoan Rivers
ĠTr aveler
ĠTr ayvon
ĠCount ing
ĠGREAT NESS
Ġfeel ings
Ġmed als
Ġvisit ors
Ġra ises
Ġsk in
Ġsk yscraper
New ly
New man
ĠQ E
Rod s
Ġdem ocracy
Al corn
ci ence
Ġrele vant
ĠRob Astorino
form ers
ham mad
pl ay
pl ane
af e
Ġfund ed
iec ouric
opp er
opp Mar
ĠCon st
ĠCon stit
Mar x
Mar ie
Mar co
ĠTO O
Ġmar ine
Ġmar vel
Ġmar gin
Ġmar riage
Ġmar leem
Ġmar iamenoun
ĠPl ans
ĠPl ayers
ĠPl ayed
Ġfact or
Ġcred ible
Ġmom ents
ĠEx cept
ĠEx press
Ġlow s
Ġlow ered
Re ed
ĠRe ed
ĠRe id
ĠRe view
ĠRe zko
Ġbrand ing
Ġbillmaher s
And rew
IG N
Ġref ere
Ġcheck ed
Ġest ablish
Ġwis hing
ourn ier
Ġworth less
ID E
Ġri ot
Ġri pped
Ġbankrupt ing
lim baugh
Ġair ing
Ġair plane
Ġpoll ution
ĠPres idency
Ġreg ul
Ġunderstand ing
bl ake
ĠSec y
Ġwaste ful
Ġproject ions
ĠSteve De
As hton
ring er
Ġ... """
Ġrequ ired
Ġcap s
Ġcap ability
ĠPro blems
ĠPro blem
ĠPaul son
Ġclub house
Ġaut o
ĠTrumpGolf Links
ĠWH O
rav o
Ġmedia ite
ract ice
Ġprim aries
Ġcritic ism
ium s
Ġcandid acy
Ġdesign er
Sc rug
ats Ben
ĠAnn ounce
uts ch
Ġpredict ion
Ġpredict able
OL D
Ġsal v
ĠMed al
Ġdr ill
Ġdr one
Ġdr ones
Ġdr amatic
bab y
just ed
just ice
Ġny daily
igh s
ĠWork ing
ĠPh oto
velop ment
ĠGen e
bo Woods
full er
Ġtreat ments
ĠFlor idas
Ġrac ial
Ġrac ists
ten ance
Ġwel com
ĠEd itor
Ġquestion ing
ĠAGS chneidermans
mc d
mc mur
Ġfac es
ĠComm issions
ĠJack Witty
Ġoffer ing
Ġguest s
Ġart ist
Ġart ific
IR L
br illiant
br anson
ges NYC
of w
of the
Ġsit es
ĠST RONG
Ġcool ing
Ġcool est
Ġmotiv ating
ĠInd y
ĠInd ian
ĠSad dam
Ġshort ly
rab hu
Ġrel ative
Ġrel igious
Ġpriv ately
Ex clusive
over c
Ġdevelop ers
Ġwater fall
Ġwater boarding
Ġple ased
ĠWind farms
ĠLas ker
ĠTim othy
ĠTim boWoods
Ġmon ster
Ġmon itor
Ġmon etary
ĠSH A
ĠSH O
ĠSH Mann
ĠLe on
ĠJeff erson
BO SS
Ġopp onents
Ġyoure fired
Ġland ed
ĠOpen s
Ġkick s
Ġkick ing
Ġprof its
ĠAndrew K
Ġconsider ation
ĠIN VEST
ĠApp ly
ĠMan or
ĠMan ager
ĠTrumpNewYork s
ĠWould n
ĠOr leans
Ġdop ing
Ġsub stance
Ġprotect ed
ĠTRU TH
Ġnomin ations
Ġstra w
Ġcommun ication
ĠBarack Obamas
ĠPr ince
ĠEl gin
Ġconst itutional
Bl aze
Jon Huntsman
Ġfair ly
Ġob stacles
ĠCol ts
ĠBusiness es
Pro pP
rend er
ĠTer ram
Ġcomment ator
Ġpresent ed
chie ffer
ĠFed s
avy blog
Ġannoun ces
aik en
ki w
Ġris en
Ġloc ations
ĠKing dom
ĠX i
ĠX Kidd
oun ced
ĠTru ly
elf are
ĠEast onWest
ancou vers
reet ings
ĠTal ackova
ĠPal estin
ĠGov t
eck less
AST IC
Ġcar ried
Ġcar rier
ĠSam martino
ĠDis aster
ĠDis covery
Fr ance
run ch
Ġdet ain
ĠIan James
ĠChe ryl
lymp ic
ĠGold wyn
Ġperfor ming
ĠDoes nt
Ġtest ament
Ġred istribute
Ġclean ing
ĠRead ers
Ġgroup s
Ġsleep y
vironment al
with out
with friends
Ġlower ing
ĠWin ery
ĠWin PropP
Ġvis its
Ġrock s
Ġaddress ed
Ġconcern s
gl ad
Ġlif estyle
ĠAny one
unning ham
ĠFin ance
ĠFin ancial
Ġarchitect ure
Ġbenef iting
AS H
AS S
AS CAR
Matt GinellaGC
Paul Cole
yp ical
Ġsick o
Ġpost ed
Ġliber als
ĠMS G
rior ities
See ms
aa aa
Ġtick ing
Ġment ality
ĠSe a
Ġev an
Ġweap on
Ġdisc ount
Charl es
ĠEurope an
des erved
Ġfour th
Ġhop es
Ġang el
Ġvi rus
ches s
Ġsaf ety
ĠBrav otv
Ġequ al
Ġequ als
Ġequ ilib
ĠWal t
ĠWal ters
ĠDeb ate
andon i
Ġbless ed
SH OCK
cra zy
ufact uring
Ġsigning s
ĠTell s
Ġrev oked
ĠNC GOP
Ġexpen se
Ġund ecided
Ġbreak down
Ġtarget s
Ġtarget ed
Ġsen iors
Ġbar gain
Ġbir ther
Ġhot ter
Ġpar anormal
Ġdonald jtrump
Ġdownt urn
ĠOut rageous
Ġjoin s
Ġdocu ments
Ġloyal ty
ĠVir gil
Ġoppos ition
Time ToGetTough
ho h
Ġsun day
ĠAir port
ĠDO LL
Ġintern et
Ġattend ance
Ġattend ees
ĠAsk TheDonald
Man or
Ġult ra
Ġsan ct
Ġoper ated
ĠAri as
ĠML auer
Ġprop osal
Ġaccount s
Ġknock ed
Ġcapital ism
Ġidol s
Michael s
mm m
ĠWall ace
ĠDe anna
uth ie
ĠRod riguez
Ġafford able
Did n
Mac F
Open ing
cent ration
Ġdump ed
ĠDam n
ĠRes erve
Ġrad ar
Mel issa
Ġbob by
Ġcirc umstances
ĠCAN NOT
ĠMen ie
Ġkat iecouric
Ġmanip ulated
Ġprosp ects
Ġrepresent ing
Ġrepresent ed
ĠIslam ic
ĠIslam ist
Ġdesp ise
Ġeffective ly
Co hen
RI ST
Ġsam ahDan
Ġmain tenance
Ġpra ising
ĠSP Y
ĠSur prise
ĠBoy s
ĠDes erve
riff ith
ĠFl ight
ĠFl ag
ĠFIR ST
Ġsport ing
Ġcharac ters
Ġacqu ire
Ġsubsid ize
Qu int
Rich ards
fe ld
ga e
Ġborrow ed
Ġpan el
Ġpan els
Ġpun ished
Ġpun ches
Ġgut ted
ĠLa uren
Ġmemb ership
Ġbrother s
Ġcomplain t
Ġdefund ing
AND S
Ġground breaking
ĠJohnny Dam
Ġtransp arent
Ġimmigr ant
Ġinternational ly
Ġdiplom acy
Lead ership
Rec eiving
har i
Ġ!!!! ""
Ġcross roads
ĠIam Slo
ĠColl ins
ĠBay ojay
ĠDE F
ĠDE M
ĠNH Freedom
Ġasp ire
abri el
Ġfoolish ly
Ġcivil ians
cas m
Ġbox ing
Ġredu ced
ĠAT T
ĠCO LL
ĠLisa Lampanelli
Ġralph reeds
Ġmemor ial
Ġmemor able
ĠKyle Kiss
Ġteacher s
ĠSHOW S
Col in
col m
Ġscot land
Ġmel anie
Ġdiv is
ĠAnt i
ĠAnt on
ĠTrumpV log
Ġjon karl
Ġjon iern
ĠEX CLUSIVE
Ġking sthings
Ġsocial ist
ĠStand ing
Ġeng agement
Ġeng aged
dev ine
Ġbroadcast ing
Russia E
gi udice
Ġut ter
Ġmult iple
Ġdeep ly
Ġocc asion
ĠCor resp
ĠMON STER
Ġath lete
ĠFore verMc
ĠEle ctions
Ġspin ning
Ġpract ice
Ġrecogn ize
Ġenthus iastic
ango Rick
Ġveter an
WII I
may or
Ġbreat h
Ġded ication
Ġinept itude
Ġnic est
Ġlay out
ĠDar nell
ĠDar rell
ĠDun es
ĠNov i
Ġjames hoh
ĠJO BS
ograph y
ĠInvest ment
ĠInvest igation
Ġblock ed
ĠAllen Wronowski
Ġexpl ode
Ġtrail er
Ġexecut ed
Ġenvironmental ists
Dem ocrat
Sen ate
bat ley
tot al
Ġing en
Ġtoug her
Ġfre qu
Ġreward ed
Ġcow ards
Ġdist inct
ĠMic key
ĠDel uxe
Ġargu ment
Ġargu ments
conomic Club
Ġdiscip lined
Ġanticip ation
Ġanticip ated
Ġanthony weiner
Ġanthony jmyers
Em my
iqu es
Ġcitizen ship
Ġdan abrams
lem ens
Ġobl igation
ĠSher ri
ĠGabri ela
ĠFinal izes
ĠFaith andFreedom
anth rop
neg oti
Ġaspect s
Ġ$$$ $
Ġscient ist
Ġcollap sing
Ġincreasing ly
Ġexperien ced
Ġexperien ces
ĠHispan ics
ĠHuffPost Pol
Ġsubscri be
Ġsubscri ption
Ġsenior pgach
Ġessential ly
ĠBriarcliff Manor
App le
Ash ley
Bush h
Cap ital
iac ulpo
Ġtou ched
Ġtou ches
Ġbun kers
ĠTW O
Ġhom ework
Ġpet ition
Ġpeace ful
ache lor
ache spull
ĠWr ite
ĠHum a
ĠFA IL
ĠTheE llenShow
ĠTheE conomicClub
ĠJa ayZen
ĠJul ie
Ġspok en
ĠKe atsBen
Ġencour age
ĠIns urance
Ġeleg ance
Ġgrad uate
ĠBlair Kamin
ĠZucker berg
Arsenio OFFICIAL
rody File
ypocr ites
Ġrevolution ized
Vanity Fair
AJ McC
Fal do
Jeff rey
Tick ets
dah dah
miss khan
mind ed
Ġtatt oo
Ġtatt oos
Ġbot ox
Ġbot hered
Ġrent als
Ġpsy ch
ĠCook ies
ĠMa arten
ĠBet ty
ĠBOR DER
ĠWine Enthus
ĠHug o
Ġjd m
ĠFe ud
ĠFIN AL
ĠTheB rodyFile
Ġric her
Ġrout ine
Ġvent ure
Ġvent ures
Ġvirt ually
ĠSuz anne
Ġphil anthrop
Ġmedioc re
Ġmedioc rity
ĠQue en
ĠQue ens
ĠRobb Report
ĠAdd ress
Ġauthor ity
Ġcraig devlin
Lea Yun
Bron cos
ĠColin SWood
ĠEVERY ONE
Ġskyrock et
Ġprincip les
Ġincorrect ly
Ant i
Out rageous
hig hest
tan selm
ĠTour ism
Ġreject ed
Ġmug ging
Ġpe achespull
Ġpit cher
Ġyard stick
Ġov ation
ĠAth letic
ĠCreat e
ĠCahill ForAG
ĠMo ines
ĠMin utes
ĠSol omon
ĠBall room
ĠBUS H
Ġemer gency
ĠWood en
ĠPLA Y
ĠRO VE
ĠJes us
Ġsuic ide
Ġkrist inaoakes
Ġaberdeen shire
Ġdefin ition
ĠIncompet ent
Ġresol utions
Ġremark able
cedent ed
ĠRobin Roberts
Ġregard less
Ġswitch ing
ĠIndones ia
Edward Ashton
ĠQuest ions
ĠHunter boss
Ġingred ient
Ġmaxim um
Act ually
Cast ro
Ell is
OK eefe
Si xteen
worth y
Ġton ite
Ġted cruz
Ġwand acar
Ġgary player
Ġgaff e
ĠAR OD
ĠSil ver
ĠBU ILD
ĠBEA UT
ĠBET TER
ĠTrumpPhilly GM
ĠGOT V
chan ical
Ġje angeorges
ĠFavor ite
Ġrhetor ic
ifor ms
Ġvol unt
Ġash ley
Ġrush limbaugh
Ġruss iann
Ġcompl acent
Ġimperson ator
ĠTHING S
Ġresc ue
Weak ness
Ġfores ight
Ġrememb ered
ĠSpark leAWin
Ġhighlight ing
Ġconsum ers
Ġaccla imed
Ġcalend ar
Ġrefer ring
ĠAnnoun ces
ĠProt ect
ĠPrim ary
Ġunfort unately
Ġemphas ize
ĠPolic y
ĠDamac Official
Ġsusp end
ĠIncre ase
Ġoccas ionally
Ġprosecut or
ĠWendy Williams
Ġaccommod ations
Cour age
Div a
Geor gesNYC
Leg it
Sum mit
Soc ial
Sea isle
congrat ulations
di allo
mod el
yco on
Ġapt itude
Ġsain tanselm
Ġbarr man
Ġfir ings
Ġmik er
Ġtodd inwich
Ġhuffington post
Ġpean uts
Ġinev itable
Ġlad ies
ĠAils a
Ġbelll abooo
ĠMAC Y
ĠSassy Pants
ĠGir ardi
ĠDIS ASTER
ĠNad arkhani
ĠHan se
robb ins
ĠLess ons
ĠLod ge
Ġshan evander
ĠFort une
ĠFried man
Ġwithdraw al
ĠTheod ore
Ġvide os
Ġrus hed
ckay coppins
Ġunivers al
Ġungr ateful
Ġbestsell er
Ġinteract ing
Ġtrumpd oral
Ġincent ive
Ġimpro ving
Ġappla ud
oinc idence
Ġdestruct ive
Ġepit om
ĠNeNe Leakes
ĠJohnD uthie
ĠQual ity
ĠBenef actor
Ġmari adomen
MikeH uckabee
ĠMcIl royRory
ĠMedvedev RussiaE
Ġespng olic
Ġrichard branson
Ġsubstant ially
Ġmisst cassidy
ĠDebbie Gibson
ĠScand al
patriot ic
ĠPremie res
ĠBLTPrime Miami
Lopez Extra
ĠAhmadinej ad
Erol Yalim
Flor ida
WLy kins
gret awire
patter son
rpe ete
scot ty
Ġaest hetic
Ġbwill iams
rumpyH usky
Ġcoun sel
ariz ona
Ġhil arious
Ġholly rpeete
Ġpinn acle
Ġgarth dahdah
Ġnuk es
ĠMIS S
ĠManche ster
Ġemin official
Ġehas selbeck
ĠTrumpRo ast
ĠWien er
ĠThore au
ĠPeoples Company
ĠGand olfini
ĠOgre Uasshole
ĠDut chess
ĠDann Bushh
ĠROC KS
ĠRasm ussenPoll
Ġatmosp here
Ġwillweather ford
ĠLUC K
Ġjij assim
ĠFANT ASTIC
ersche l
ĠJerem iah
ĠYMc Tier
ĠEBO LA
ardym ilne
Ġdeesn ider
Ġkmc s
Ġugl iest
Ġabys mal
ĠKdaniels K
ĠViet nam
ĠStras burg
Ġuncomfort able
Ġadap t
ĠMrIns af
Ġafrode ziak
ĠAllAbout TheTea
Ġbillcl inton
ĠSpiel berg
ĠRealSheriff Joe
ĠConstit ution
Ġmarleem atlin
Ġmariamenoun os
ĠSteveDe aceShow
Scrug gs
Ġnydaily news
mcmur ry
ĠElgin et
ĠTerram arkov
ĠKingdom Mag
ĠEastonWest wood
ĠSammartino Bruno
ĠIanJames Poulter
Ġequilib rium
Ġparanormal fact
Ġdonaldjtrump jr
ĠsamahDan ash
ĠJohnnyDam on
ĠIamSlo any
ĠNHFreedom Summit
ĠKyleKiss Kiss
Ġmelanie batley
Ġjoniern st
ĠCorresp ondents
ĠForeverMc In
Ġseniorpgach amp
AJMcC arron
LeaYun aska
Ġpeachespull iam
Ġwandacar ruthers
Ġrussiann avyblog
Ġtoddinwich ita
ĠSassyPants jj
Ġmariadomen ique
! .
' .
' ?
) -
, -
2 14
2 60
2 33
2 70
3 21
3 64
3 65
3 177
3 401
4 50
4 24
4 21
4 87
4 748
5 20
5 30
5 50
5 22
5 24
5 86
5 67
5 337
6 10
6 19
7 20
7 19
7 44
7 50
7 11
8 14
8 23
8 21
9 18
9 60
9 76
9 21
9 28
9 29
9 103
? !""
A E
A h
A w
A y
A im
A ction
A US
A my
A IS
A IL
A lyssa
A Marin
B re
B ay
B ir
B ear
B ab
B ug
B iz
B ull
B ern
B ash
B arb
B oring
B IG
B ird
B ring
B rain
B edminster
B allas
B aby
B rody
C r
C le
C ow
C ould
C el
C ard
C ox
C atch
C ud
C up
C old
C PAC
C adillac
C ena
C OME
C PA
C onde
C raig
D A
D L
D el
D il
D ire
D ick
D ress
D own
D eep
D NY
D ev
D ude
D ream
D ouble
D anger
D ennis
D rug
D rive
D unn
D addy
E p
E nd
E ff
E sp
E vent
E ng
E ED
E VER
E EP
E WErickson
F E
F M
F il
F all
F OR
F iscal
F ifth
F err
G P
G ill
G OT
G eek
G unn
G abriel
H a
H ill
H ol
H el
H ood
H ear
H ub
H em
H oy
H anc
H aving
H EAD
H APPY
H ypocrite
I O
I an
I mp
I US
I mb
I me
I VER
I owa
I ANT
I OUS
I EV
I EW
I BLE
J B
J D
J es
J ind
J enn
J ane
J ournal
J ordan
J amie
J Simpson
K K
K T
K ick
K ev
K opp
K aren
K Walker
K ennedy
L l
L ou
L ad
L and
L ate
L od
L US
L ES
L isa
L uke
L earning
L ewis
L osers
M O
M X
M ic
M ow
M end
M arl
M oss
M IG
M ANI
M ELANIATRUMP
M iddle
M Talk
M essage
M Ms
M Davis
N et
N ch
N av
N oc
N ature
N umbers
N EST
N eed
N asty
N ielsen
O V
O g
O le
O ther
O steen
O lympic
P T
P ot
P our
P ear
P ER
P alm
P orter
P iano
P assion
P eace
P arks
P PORT
P IERPAOLOMONNI
P acqu
P ersonally
P ettitte
P ruett
P appas
P riorities
Q ue
R ing
R ome
R ain
R ap
R ab
R ef
R ex
R ED
R idd
R alph
R ATION
R ules
R ITY
R emain
R angers
R everend
R acist
S N
S in
S ing
S ent
S ter
S il
S ign
S ug
S eb
S hes
S ix
S eth
S earch
S aeed
S onny
T A
T R
T ot
T ew
T remendous
T oronto
T ION
T oure
T IME
T iffany
T ova
T oya
T ALK
T hings
T ruth
T Diva
U D
U E
U V
U se
U BL
U ltim
V al
V ir
V ict
V ision
W C
W O
W y
W ing
W ee
W ire
W ell
W ise
W inner
W atched
W inston
W ynn
W arner
Y S
Y ear
Y ES
Y OU
Y ankees
Y ea
Z WLykins
a S
a q
a is
a ele
a up
a ux
a iser
a ustin
b k
b ru
b us
b our
b ag
b od
b ell
b ull
b ors
b ys
b irthday
b les
b ush
b orn
b ett
b uy
b post
b elt
b ells
b ishop
c j
c ur
c ould
c ity
c th
c ount
c ord
c ox
c up
c ock
c ibility
c arter
c ify
c alls
c ountry
d m
d it
d ig
d et
d ur
d ave
d ee
d ead
d ys
d anna
d erek
d ennisrodman
e j
e on
e as
e ast
e ak
e qu
f w
f el
f il
f ident
f ound
f irst
f ran
f old
f elt
f raud
f inn
f ighters
g p
g on
g ar
g oo
g and
g one
g ore
g ments
g erald
g rove
g omer
g riffith
h l
h on
h it
h ate
h ans
h sp
h ind
h ower
h ue
h ile
h air
h unt
h orn
h aters
h igh
h DS
h uston
i oo
i ee
i eth
j p
j en
j ac
j ake
j ames
j ump
j acks
k n
k p
k r
k on
k id
k ind
k rist
k illing
k Hogan
k phillips
l b
l an
l at
l ick
l ass
l ip
l ue
l ug
l ins
l ier
l oves
l oved
m j
m ic
m ch
m ant
m are
m all
m ies
m man
m ond
m ary
m ah
m ade
m illion
m ey
m atched
m ilton
m har
m aha
n l
n x
n st
n up
n iter
n onny
n igg
o ch
o ine
o ated
o ach
o ft
p a
p ow
p ace
p att
p ock
p ania
p br
p ayer
p retty
p stevens
r r
r x
r oo
r ave
r one
r ough
r ings
r oup
r ites
r ita
r imin
r beach
s a
s k
s al
s at
s le
s us
s ort
s ions
s weet
s mart
s cott
s ki
s usan
s igned
s mooth
s herwin
t c
t d
t g
t is
t az
t rue
t ough
t onight
t ah
t alk
t mur
t ubby
t iffs
u i
u w
u ay
u id
u ice
u ity
u um
u aD
v or
v as
v ity
v iv
v ick
v ich
v ib
w f
w t
w ow
w ig
w mer
w ab
w alk
w omen
w undy
x Box
y G
y J
y er
y ne
y ric
z el
z ak
z ine
z qu
z ky
Ġ [
Ġ es
Ġ ,"
Ġ )"
Ġ urb
Ġ ??
Ġ ???
Ġt u
Ġt ir
Ġt il
Ġt ear
Ġt ap
Ġt ens
Ġt ied
Ġt ourn
Ġt ying
Ġt earing
Ġt iffany
Ġt apping
Ġt ubes
Ġt apped
Ġt ycoon
re v
re es
re id
re ak
re hen
re ign
re covery
re kh
"" ?"
"" ---
in f
in ch
in ate
in ine
in ction
in nie
in ja
on f
on k
on ed
on sh
on ian
Ġa ec
Ġa ired
Ġa venue
Ġa ustin
Ġa yrshire
al id
al led
al ex
al Man
he t
he res
he il
ou za
ou che
er ic
er gy
er ably
er ovsky
er justice
an age
an ish
an other
an ja
an amas
an cho
Ġw k
Ġw en
Ġw ard
Ġw ft
Ġw rest
Ġw aves
Ġw oody
Ġw alls
Ġw onders
Ġw estern
Ġw tf
at an
at ics
at lo
Ġs q
Ġs is
Ġs ar
Ġs ink
Ġs ab
Ġs ail
Ġs ash
Ġs andy
Ġs earch
Ġs ooo
Ġs ustain
Ġs elected
Ġs oooo
Ġs ailing
Ġs elect
Ġs ections
Ġs ooooo
is ke
is hes
is ures
or f
or ity
Ġb s
Ġb or
Ġb one
Ġb arack
Ġb od
Ġb other
Ġb ath
Ġb ush
Ġb ats
Ġb ows
Ġb ubb
Ġb idding
Ġb ryan
Ġthe at
Ġthe quote
ing g
ing ers
ing aling
ĠT N
ĠT ar
ĠT am
ĠT ri
ĠT ra
ĠT ies
ĠT ina
ĠT MP
ĠT akes
ĠT roy
ĠT BT
ĠT edd
ĠT AKE
ĠT asting
ĠT oya
ĠT yson
ĠT Alcorn
ĠT ypical
ĠT Ime
en g
en ap
en way
en stein
Ġf at
Ġf ot
Ġf el
Ġf urn
Ġf ence
Ġf uss
Ġf ierce
Ġf isc
Ġf ingers
it ation
it ure
it ory
it ulated
es on
es man
es ley
Ġre x
Ġre ly
Ġre un
Ġre na
Ġre elected
Ġre ached
Ġre elect
Ġre ception
Ġre nowned
Ġc ot
Ġc ad
Ġc ough
Ġc up
Ġc arl
Ġc arp
Ġc ns
Ġc yn
Ġm b
Ġm l
Ġm u
Ġm ig
Ġm all
Ġm os
Ġm ile
Ġm ock
Ġm erry
Ġm ets
Ġm ater
Ġm aff
Ġm ior
Ġm akers
Ġm dam
Ġm sv
Ġm said
Ġm ckaycoppins
ar ct
ar ound
ar ris
ar ma
ar ray
ar ison
Ġto pping
Ġto lls
ll sn
ll lll
ic z
ic ine
,""" .
Ġh ook
Ġh oc
Ġh lp
Ġh aul
Ġh ats
Ġh bo
Ġh ires
Ġh illary
Ġh tt
Ġh amm
Ġh ikes
Ġh azard
Ġh diallo
Ġp a
Ġp t
Ġp al
Ġp ic
Ġp pp
Ġp ew
Ġp ack
Ġp ose
Ġp ren
Ġp led
Ġp air
Ġp ock
Ġp inst
Ġp ander
Ġp ieces
Ġp rud
Ġp enthouse
Ġp bpost
Ġd w
Ġd al
Ġd ent
Ġd ry
Ġd ong
Ġd ra
Ġd ub
Ġd aw
Ġd ign
Ġd ial
Ġd ud
Ġd ict
Ġd ys
Ġd iverse
Ġd well
Ġd ianne
Ġd col
Ġd raft
Ġd runk
Ġd uo
Ġd arling
Ġy ork
Ġy ds
as ki
as icing
as ACU
le a
le vel
le cts
Ġg e
Ġg f
Ġg erman
Ġreal Donald
Ġreal izes
Trump LasVegas
Trump Collection
Ġo p
Ġo liv
Ġin ch
Ġin el
Ġin app
Ġin iti
ĠI A
ĠI I
ĠI R
ĠI ow
ĠI MP
Ġn ob
Ġn av
Ġn orm
Ġn eck
Ġan j
ed s
ed ie
ed On
ed dy
Ġth o
Ġth in
Ġth ie
Ġth read
Ġth orough
Ġis le
Ġl or
Ġl ic
Ġl end
Ġl ord
Ġl ays
Ġl ure
Ġl ark
Ġl aur
Ġl oose
Ġl ips
Ġl amb
Ġl iqu
Ġl ouise
Ġl ords
ĠA D
ĠA N
ĠA k
ĠA ce
ĠA mer
ĠA ff
ĠA ge
ĠA sp
ĠA ction
ĠA IG
ĠA uth
ĠA uction
ĠA irlines
ve t
ve ill
ve ment
ve gas
ow e
ow ard
ow ler
ow dy
Ġbe ef
ot ers
st al
st ers
st ation
st art
st ra
st rom
st alk
st uff
st ream
st yle
st orm
st eel
st arts
ay aiken
am o
am an
am am
am il
am aj
am ents
am bo
am ayer
am ilton
om i
om atic
om Tillis
ĠC el
ĠC atch
ĠC ond
ĠC ab
ĠC ory
ĠC AR
ĠC ST
ĠC EL
ĠC itizen
ĠC unningham
ĠC ASH
Ġon us
Ġfor med
id ant
id ney
id ges
id iculous
ĠM G
ĠM is
ĠM ot
ĠM ill
ĠM ur
ĠM ist
ĠM all
ĠM ond
ĠM ove
ĠM IN
ĠM iam
ĠM oss
ĠM ED
ĠM onth
ĠM ean
ĠM ister
ĠM iche
ĠM erger
ĠM IST
ĠM OST
ĠM orales
ĠM ateo
ac i
ac re
ac usa
ĠS A
ĠS G
ĠS N
ĠS i
ĠS in
ĠS at
ĠS ick
ĠS EA
ĠS St
ĠS ER
ĠS aid
ĠS aving
ĠS ix
ĠS ex
ĠS co
ĠS ister
ĠS AY
ĠS lam
ĠS leepy
ĠS emin
ĠS acha
ĠS oyer
ent agon
ig il
ig ob
ig ib
ig gy
et ts
et own
ĠB K
ĠB al
ĠB at
ĠB ir
ĠB rent
ĠB art
ĠB ear
ĠB ord
ĠB ah
ĠB eg
ĠB att
ĠB ull
ĠB irth
ĠB oss
ĠB ible
ĠB ash
ĠB REA
ĠB rown
ĠB rock
ĠB rain
ĠB arcl
ĠB agh
ĠB Nice
ĠB arron
ĠB HO
ver al
ver ly
ion e
Ġe ur
Ġe ct
Ġe ager
Ġe lder
nt on
nt imes
ad i
ad ow
ad ore
ad ick
ĠTrump Q
ĠTrump For
ĠTrump Int
ĠW ear
ĠW ON
ĠW NY
ĠW orth
ĠW ald
ĠW atched
ĠW orse
ĠW ynn
ĠW ANT
ĠW ILD
ĠW arns
ĠW heres
ĠTh ak
ĠTh ail
ĠTh sn
ĠTh omTillis
us d
us ers
us ong
us so
ĠP A
ĠP O
ĠP S
ĠP ure
ĠP age
ĠP ap
ĠP eg
ĠP une
ĠP ush
ĠP riv
ĠP urch
ĠP OL
ĠP BS
ĠP AST
ĠP eace
ĠP ersonally
ĠP redict
ĠP eyton
ĠP entagon
oo h
oo ch
oo ze
ke red
ke ef
ĠG C
ĠG R
ĠG e
ĠG as
ĠG all
ĠG row
ĠG ab
ĠG ran
ĠG irl
ĠG ray
ĠG lor
ĠG OM
ĠG ives
ĠG onna
ĠG aza
ĠG arrett
ĠG avin
ĠG aga
ĠG ambling
ĠG reetings
im er
im ms
im inal
im Rick
ĠO C
ĠO bs
ĠO maros
ĠO MG
ĠO maha
ĠD W
ĠD a
ĠD or
ĠD one
ĠD ie
ĠD ist
ĠD ines
ĠD ise
ĠD omin
ĠD ummy
ĠD awn
ĠD uke
ĠD EAD
ĠD ollar
ĠD jango
ĠD ropping
ĠD etermin
ĠN an
ĠN or
ĠN ine
ĠN ame
ĠN ations
ĠN ap
ĠN ork
ĠN eck
ĠN OB
ĠN asty
ĠN athan
ĠN athalie
ĠN icholas
ĠN ASCAR
ew rites
ut m
ut her
ut mc
ut gers
ĠH H
ĠH R
ĠH om
ĠH ig
ĠH ul
ĠH ag
ĠH ong
ĠH ood
ĠH ous
ĠH ence
ĠH ates
ĠH air
ĠH old
ĠH ired
ĠH IM
ĠH orse
ĠH erman
ĠH istoric
ĠH OUS
ĠH alle
ĠH uckabee
ĠH IRED
ĠH arbor
ĠH erschel
res earch
ur ation
ur gia
ch ow
ch ief
Ġhe d
se ven
se mb
Ġst ore
Ġst iff
Ġst ephen
Ġst ores
Ġst uart
Ġst acey
ro e
ro ed
ĠR G
ĠR U
ĠR y
ĠR ice
ĠR ox
ĠR aw
ĠR aj
ĠR ather
ĠR ush
ĠR ef
ĠR ole
ĠR aff
ĠR iley
ĠR egister
ĠR IP
ĠR ico
ĠR Sher
ĠR LC
ĠR ESP
ĠR Cold
ĠR ancho
ĠR utgers
and ra
and Be
est ration
est rian
est ically
est rooms
ol ate
ol ie
ol od
ol vency
ir s
ir ts
ir able
ir acusa
our d
our ke
Ġwill iam
Ġwe ars
un k
un o
un like
Ġwh ine
Ġwh itney
ĠL i
ĠL ay
ĠL ost
ĠL ass
ĠL ews
ĠL uck
ĠL ago
ĠL IN
ĠL OT
ĠL eb
ĠL GA
ĠL illy
ĠL unch
ĠL ewis
ĠL ynch
ĠL arge
ĠL Mow
ĠL UV
ĠL yric
Ġj c
Ġj j
Ġj p
Ġj ac
Ġj ul
Ġj erry
Ġj ailed
Ġj ihad
Ġj hsp
10 20
10 17
10 50
10 48
Ġsh o
Ġsh r
Ġsh ore
Ġsh ine
Ġsh ale
Ġsh uts
Ġsh oes
Ġsh ores
Ġsh rink
Ġsh opping
Ġsh mop
ri pp
ri ke
ri ers
ri ate
ri vers
13 72
19 76
19 93
19 54
19 89
19 78
19 79
19 52
19 68
19 49
19 59
ec at
ĠF F
ĠF riend
ĠF ab
ĠF ool
ĠF ury
ĠF uture
ĠF oot
ĠF iscal
ĠF OC
ĠF FC
ĠF IX
ĠF amous
ĠF REE
ĠF ootball
el is
el ing
el inc
el ias
ers istence
14 53
op es
op ens
op oul
op oly
ess ler
ess quare
15 23
18 97
ul z
ul ing
ul ent
ul se
ul ator
ĠThe Donald
ĠThe res
ĠThe GaryBusey
ĠThe Big
ĠThe Nick
ĠJ H
ĠJ am
ĠJ ill
ĠJ et
ĠJ oy
ĠJ ah
ĠJ enny
ĠJ ami
ĠJ wundy
ag n
ag at
ag le
ag et
ag ers
ag her
ag ne
ag les
ag anda
ce iling
il ight
il iate
Ġr c
Ġr y
Ġr ave
Ġr ational
Ġr att
Ġr aid
Ġr yder
Ġr otting
Ġr wild
ate urs
ant baxter
ant Randy
ĠY esterday
ĠY uan
ĠY ORK
ident al
end i
Ġv in
Ġv ancouver
Ġv ibe
ĠE conom
ĠE AR
ĠE min
ĠE du
ĠE ater
ĠE OW
ĠE ye
ĠE ffect
ĠE isen
Ġmy rbeach
ee C
ee le
ee ee
ont CNN
Ġ"" '
ation ary
ation Ide
her d
her ty
th on
th alMan
Ġnot es
Ġnot urb
Ġnot ices
Ġnot iced
."" ""
one NY
Ġsu d
Ġsu cc
ĠU ber
ĠU rug
ĠU nemployment
ĠU lt
ĠU tah
ne erjustice
Ġde jr
Ġde rekh
The B
The res
The Rock
Ġas a
Ġas yl
Ġas inine
ia z
Ġk p
Ġk er
Ġk il
Ġk ost
Ġk yle
Ġk lny
Ġk alevans
ĠCh ar
ĠCh arity
ood le
Ġle ak
Ġle aked
ob es
ob by
Ġgo angelo
ie ll
ist a
ist ine
ist ered
ist ics
Ġall lllll
Ġso ar
Ġso il
Ġso ars
Ġso aring
Ġso ho
Ġso calm
Ġme rely
mer ce
Ġru de
are l
are ly
are lli
os ity
os ure
os oph
Ġsp ur
Ġsp ies
Ġsp ree
Ġsp ons
Ġsp aces
Ġsp acious
Ġpl z
Ġpl oy
Ġpl astic
Ġpl ague
Ġpl atin
Ġch in
Ġch oo
Ġch ina
Ġch ump
Ġch ingaling
ĠK h
ĠK ong
ĠK ael
ĠK ev
ĠK ane
ĠK illing
ĠK itty
ĠK EEP
ĠK essler
ep i
ep er
nd um
Ġshould ve
ĠV on
ĠV ac
ĠV ideo
ĠV acc
ĠV IP
ĠV icky
ĠV enue
ĠV ICT
ĠV ega
ĠV TDiva
Ġag ent
ear y
ear ly
Ġex istence
Ġex aminer
av a
av ed
av ors
ine Turner
ber ly
Ġman ner
ff le
ire e
ire ll
Ġam endment
Ġam bassador
Ġam ateur
Ġam elias
Ġout rageous
Ġout break
em i
Ġpro port
Ġpro grams
ĠHe b
ĠHe ile
ĠHe ading
ĠSt an
ĠSt ock
ĠSt dy
ĠSt unning
ĠSt eel
ĠSt ephan
ĠSt rike
Ġal gae
ge ant
ge orge
Ġnew nonny
Ġcount er
Ġus gs
ning s
ase llsn
Ġup gr
Ġup side
ays on
Ġun s
Ġun att
Ġun iverse
Ġun ify
Ġun real
Ġun know
Ġun anim
Ġun iforms
ĠGreat er
!"" ""
30 11
iv en
Ġdis like
Ġdis array
ĠWh itney
ond a
ick ed
ĠWe ap
ĠWe bs
ĠWe iners
ass er
ass ess
Ġse gments
Ġse veral
oy ed
sp l
sp orts
sp ectacular
sp aper
Ġover runs
Ġcountry side
we at
iss amayer
aw less
aw na
aw atson
77 77
77 68
app le
Ġwork force
Ġ$ .
60 84
rat h
rat ional
rat ors
ip ton
ough lin
ure l
amp les
Ġor al
ĠIt aly
Ġinter iors
cus sing
Ġcon quer
Ġlook in
40 40
ind er
ere z
ere mployment
Ġcl ips
Ġcl ayaiken
33 84
Ġpr int
Ġpr oof
Ġpr iced
Ġpr istine
Ġoff ensive
Ġoff icer
Ġad ds
oll o
ial ity
23 50
23 23
ud ia
Ġcom bo
Ġno ise
ark er
ower ing
Th ird
Th ats
Th ursday
ell ing
ide an
ap ing
Ġi Hunt
Ġi adore
Ġhow ard
Ch ild
Ch alk
Ch inas
Ch imRick
uck s
uck le
lic ate
Ġrec ip
Ġrec ap
Ġrec ipe
Ġrec overed
ab il
og s
ann er
ann abe
ah andler
Ġright ly
Ġke v
Ġke ith
Ġke eg
own ers
act ions
eg u
eg arelli
ton y
per tmur
Ġtonight s
Ġbr ack
Ġbr ass
Ġbr agging
Ġbr asicing
Ġbr idges
sh ot
sh aw
sh ips
sh oes
Ġtr ad
Ġtr ace
Ġtr icks
ret e
Ġcont ent
Ġcont roll
Ġcont rolling
Ġar m
Ġar bit
Ġar gue
other wise
Ġbetter withfriends
ov ing
pt v
Ġsm ell
Ġsm iling
con ceived
ek ster
Ġcomp lex
Ġcomp lement
Ġcomp onents
Ġcomp arison
ris e
EA TH
EA WIII
Ġro yal
Ġworld net
irst yle
irst udio
ric an
ĠNY E
ĠNY S
ĠNY U
ĠNY Rangers
sing er
Ġtrump n
Ġtrump ties
Ġread justed
Ġqu iet
Ġqu arant
Ġaw es
ib les
ib ean
ib uster
ib owitz
Ġhapp ily
ĠNew spaper
Ġatt ribute
Ġ% """
ĠBe auty
ĠBe yon
ait ed
ĠScot s
Ġseason ed
St ep
St acy
ER E
ĠAr tic
Ġdiscus ses
Ġhard ly
Ġhard est
RU SH
ĠMiss ed
up s
Ġnice ly
Ġdef ence
Ġdef ault
Ġdef ensive
News max
ĠIn sp
Ġinc ident
Ġfin als
ĠUn fair
ĠUn chain
ĠUn ivision
ren zy
Ġrep eat
Ġbel ievable
Ġeconom ize
ES hep
ĠMac Mill
ĠBr aley
ĠTH ERE
Ġmost ly
Ġow ning
IN ESS
ty ro
Ġtake over
ĠInt elligent
ĠAl ong
ĠAl ph
ĠAnd ey
ĠAnd igriffin
ons ible
ons ervative
Ġbook ing
Ġdown side
Ġdown load
the se
Ġapp arently
Ġpers dev
ĠRep Lead
AN K
AN S
so cial
ĠThink Big
onder ful
Ġbl iss
Ġbl uff
Ġbl amed
Ġbl ades
Ġbl asting
Ġbuild up
ON FOX
Ġfe ud
Ġres orts
Ġres erve
ĠMar vin
ĠMar iano
We iss
Ġper sec
ĠSh irley
ĠSh ameful
arl ane
arl ene
Ġagree ing
ĠIs nt
ĠIs ler
ĠIs real
umb o
for prez
Ġsc ary
Ġsc ream
Ġsc off
Ġsc reens
Ġsure ly
Ġshe ila
aug hing
aug ural
Ġte a
Ġte x
Ġte res
Ġte ase
oin s
In The
In vin
In fo
In stitute
Ġunder way
alm art
alm edie
ĠJust S
Ġdec orated
vent ure
ĠScotland Golf
Ġown s
ik ed
ĠAm b
ĠAm es
OT S
any one
Ġexp ort
Ġexp ress
Ġexp orts
Ġexp osed
ey R
ey nold
ins ky
ĠDoral Res
ens en
ens ity
Ġhon ed
ĠCl a
ĠCl ick
ĠCl ose
ĠCl imate
ĠCl assy
ider ing
Ġkill ings
ĠTime Warner
omet own
ĠTe ch
Ġstop s
ĠBill Clinton
Ġchar ades
AL S
Ġspe edy
Ġgr ades
Ġgr ounds
ĠNational s
81 12
200 2
200 3
200 4
ĠTHE M
ĠTHE Herman
AT H
Ġsur rog
Ġsur pass
Ġsur render
ĠBl itzer
Ġhigh lights
Ġfam er
EN A
EN CY
be an
be ing
be ast
be fore
Ġann oying
Ġgl ory
Ġgl imp
Ġtomorrow s
You re
Ġmiss es
Ġel igible
!!!! !!
ĠTRUMP TU
Ġpay ment
Ġpay ments
Ġsec ured
ĠEric a
Ġcare fully
Ent er
Ent ertain
Ġret ail
Ġret ribut
Ġret irement
Sh ah
Sh ane
Sh awn
Sh aun
130 1
min ister
Ġthought lessness
ĠFor mer
ĠGo es
Ġnews stand
Ġnews busters
ĠShe l
ĠShe ena
Ġask s
med ia
Ġplan es
Ġfight s
Be ast
Be autiful
Be ardymilne
ph illy
oud in
170 1
Ġche f
Ġche aper
Ġche mist
ĠCar roll
190 3
116 4
Ġadv ancing
Ġtell in
Ġlist ed
For Q
For Trump
For ce
For get
ev ine
ev ich
ef ined
ĠSu ntimes
Ġcons cious
Jo anne
du ct
du cer
gr oup
gr ayson
Ġcr imes
Ġcr onies
Ġcr iminal
113 5
?? """
?? ?"""
pris ed
Ġtough ness
Ġhand ling
Ġhand wr
Ġhand outs
Ġcomm end
ĠJohn Rich
52 10
68 20
Ġfl ow
Ġfl ip
Ġfl uid
Ġconf used
ĠNYC s
ex p
ex cept
Ġmind ed
58 10
yl ar
co at
Ġcampaign ed
38 199
ĠYour Info
Ġteam br
trump run
Ġcal iber
ult iv
59 11
IS M
IS OD
Ġmess ages
Ġjo e
Ġjo an
Ġjo el
Ġjo king
Ġclass es
Ġpres ence
Ġfast frank
Ġmark ets
ĠAlex ander
ĠAlex Dub
ĠAlex Pappas
cl ar
cl ub
cl ark
cl overc
Ġsol ves
Ġstate hood
Ġvict im
EC AUS
ject ory
sc rew
sc ape
Ġpre vent
Ġpre viously
Ġpre cedent
Ġpre cip
Ġins ure
Ġins anity
Ġins olvency
Ġproud ly
wh istle
Ġbo ast
Ġbo asts
Ġrest oring
Ġmil it
Ġmil ion
ĠBrand e
Mc V
Mc El
Sp ent
Sp ieth
ĠAM NEST
Ġfr action
ĠSen ators
Ġpat tern
Ġnegoti ates
Ġcor n
Ġcor ner
Don na
Don nie
ĠTr oops
ific ations
Ġmed ian
Ġmed icine
Ġhost s
Ġsk ating
Ġsk imp
Ġsk illed
ĠWhite Shaun
Rod riguez
ĠMark M
Ġdem ise
Al i
Al ert
Ġind ec
Ġind igob
ĠAG O
riv al
ĠRob inson
pl ant
olog ical
ĠStar Jones
Ġeconomic s
pportun ity
af ter
af ox
opp ed
opp ers
Ġposs ess
ĠAlexSalmond s
Mar iano
Ġsl aughter
Ġsl ows
Ġmar ble
Ġmar ino
Ġmar issamayer
ĠBush s
ĠPl us
ĠPl aying
ean Golf
Ġfact ory
Ġfact ual
ĠZ ell
ĠZ uker
ĠZ agat
Ġfore cl
ĠEx p
ĠEx Cel
Ġprom in
Ġprom otes
Ġprom oted
Ġinst ru
Ġinst ance
Ġallow s
Ġnbc sn
ĠJoe S
ĠJoe NBC
ĠJoe Tor
Re ach
ĠRe uters
Ġweak est
Ġweak ening
Ġweak ened
And erson
And eyR
Ġref uge
ĠHope ful
Ġprem ier
197 23
EL ESS
Ġworth y
John ston
ĠDemocrat ic
Ġri vers
Ġserv ing
Ġserv ed
Ġcompet ent
Ġcompet ence
Ġelect oral
Ġelect ability
ĠCNN Debate
Ad rian
Am anda
GA S
Ġill ust
ĠSquawk Box
AM AZING
NC E
Ġtra ined
Ġtra jectory
ino is
Ġnational ly
ĠWest minster
ĠOff er
urs ed
Ġair port
ĠAd m
ĠCongress ional
nth ia
ĠPres edent
Ġreg ion
Ġreg ain
Ġreg ret
ĠNE XT
ĠNE GOT
Ġconc ession
ĠScott KWalker
All en
All red
na Search
zz z
Ġsir tyro
ĠTeam Kevin
ĠTeam Brandi
bl ack
bl ower
bl ah
ĠSec ure
Ġear nings
ĠStates man
Ġprodu cer
Ġprodu cing
Ġcur ious
Ġcap tain
Ġcap acity
Ġcap itulated
Ġcap etown
ĠGret zky
ĠChris C
Ġnation wide
omin iums
ĠPro gram
ĠPro fit
ĠPro fessional
Ġappro ving
Ġappro pri
Can es
Can adians
go ing
ĠWH CD
ract ive
ĠIm us
ĠIm agination
ĠMc Qu
ĠMc Car
ĠMc Kay
Ġprim arily
Ġcritic izes
Ġlaughing stock
UN D
ĠCo king
Ġkey chain
Ġdesign ated
Ġexpect s
Ġexpect ations
ILL E
ats uno
ĠAnn ieD
ida Was
olitic ians
Ġrid ic
ps y
Ġorder ing
Ġsal ute
IT ED
Le o
atter ing
Ġsw ap
Ġsw eep
Ġsw orn
Ġsw ept
Ġdr ink
ĠCent re
Ph ot
Tr ace
lo res
mig ration
Ġson nset
ĠPh illy
don nell
ĠWell es
Ġprice less
Ġtrans l
Ġtrans fer
Ġanswer ing
Ġtreat s
Ġdam ac
ĠAg ent
ĠJan ineTurner
ĠEd andBe
Ġrole model
OF T
mc uban
Ġbre ast
Ġbre vity
Ġfac et
Ġfac ilit
Ġdream ing
Ġart istic
NewYork GOP
Br ady
Br ooklyn
au H
au ly
br as
br ight
Ġer ode
Ġsit uated
Ġnet flix
ĠST R
ĠST RA
ĠST ATES
ĠPRESID ENCY
ĠInd ust
ĠWar hol
ĠWar riors
ĠVote ForTrump
Ġappear ances
Ġdead line
Ġext end
Ġext ort
Ġext ending
Ġext reme
Ġext ension
Ex press
jo anna
hew s
head s
ette Nav
ĠBob Smit
ĠPer iod
ĠPenn State
Ġqual ities
ĠSuper PAC
ĠPRESIDENT IAL
ĠRed Sox
ĠLO O
Ġsupp ly
que en
Ġdefe ating
IM ES
Ġmon ument
ĠAnthony Weiner
vert ising
ĠLe ach
ĠLe Bron
ĠLe ibowitz
ĠLate Night
ĠKey note
Ġcla imed
Ġcla udia
ĠMel issa
ield s
Ġprof itable
Ġfundra ise
mart in
ĠIN SP
ĠMan ufacturing
ĠOr g
ĠOr lando
Ġdop es
Ġvision aries
Ġsub mit
Ġsub stitute
ĠAfghan is
Moore Rev
mit ig
ĠTRU LY
Ġcongrat ulating
ĠNFL ONFOX
Ġstra it
ander thalMan
ĠLead ers
Ġrespons es
Ġrenov ate
Ġrenov acion
Ġmaster s
ĠPr ice
ĠPr oof
ĠGr ant
ĠGr imes
ĠEl is
ĠAtlant a
Bl u
Ġsing er
Ġfil es
Ġfil ibuster
Ġfair ways
ĠCol ombia
key e
ĠOF F
Ġtrouble d
Ġfront ing
Go vernor
Pro blems
Pro duct
boy s
Ġtim essquare
ĠTer rell
ĠEgypt ian
Ġsucceed ed
Ġcomment ing
Ġten acity
ĠJay Lef
Ġfoot pr
ĠTrumpGolfLA s
By Ray
Ġz e
Ġz ones
orse y
Ġreview ing
Ġmis ery
Ġmis erably
Ġlik ing
ĠPet erson
ĠDerek J
ĠKing James
Ġglad ly
Ġvacation ing
Ġintellig ently
aud ia
ĠX X
ĠAp ollo
ĠEnt er
osing Bell
Ġir rational
Ġcame o
ĠGov Walker
ĠGov MikeHuckabee
ĠNice ly
ĠKore an
Gr ill
Not hing
ĠTom Noc
ena Wells
ĠSam my
ĠRo cco
ĠLI UB
Ġlaugh ter
Ġlegend s
Fr ontCNN
Hall owell
to ast
Ġaff airs
Ġdet ailing
ĠChe ney
ĠChe vy
ĠChe lse
ĠCNBC Cl
Ġem issions
Ġem otion
ĠGold berg
Ġstreng then
ĠJames OKeefe
Con f
Con centration
Int ern
Int erview
gu est
Ġred es
ask ill
ĠNick Try
ĠRead y
ĠKnow ledge
Cl ass
Te ch
pro mp
pro bably
pro gress
pro fit
Ġboy friend
ĠMos que
Ġjud gment
Ġrock et
Ġmagn et
An ne
Ben jamin
Ġsystem s
ĠIT S
Ġlif eline
amer a
ĠBret Michaels
ĠLaw su
De velop
De utsch
Paul a
las vegas
yp rus
ĠCBS Sports
ĠEst ablish
Ġsuck ed
ĠVP Biden
Ġdefend er
Ġsett led
Ġvacc inated
May or
Off ice
Off shore
Ġment al
Ġev il
Ġev okes
ĠWOR SE
Ġdisc our
Ġdisc rimin
well Bank
ĠEurope ans
Mor ning
des ign
how e
ĠMad ness
ĠMad onna
ĠSeth MacF
ĠBBC oach
rop riate
Ġprov iding
Pl ay
ĠBrav a
Ġequ estrian
ĠGu ard
ĠGu estrooms
Pr ide
Rick y
Ġfear less
Ġcent re
Ġcond uct
Ġcond olences
Ġcond ominiums
Ġmatt y
ĠSO ON
ĠBu ying
Ġemp ty
Ġemp ires
ĠWE LL
ĠUN ITED
Ġund eremployment
Ġorganiz ations
ĠBring ing
ĠCarolina Live
tr avel
Ġpar ade
Ġdonald forpresident
ĠPower ful
ĠOut FrontCNN
Ġstep hani
ĠLearn ed
Ġdep ends
ĠJose lyn
Im agine
Im migration
Me et
Me ier
Ne il
Ne anderthalMan
bur se
bur ton
Ġfol k
ĠAir ways
ĠCH A
ĠCH RIST
Ġformer ly
ĠSc ore
ĠSc ary
ĠSc reen
ĠDr ChimRick
Ġstri kes
Christ mas
Ġinvol vement
Ġindepend ence
ĠRecord s
ĠHawai is
La uren
Mon itor
ĠIll egal
ĠBry an
ĠTrumpP anamas
imul us
ĠRock aways
Ġprop onent
Ġprop aganda
ĠInst it
Ġconsid ers
Ġaccount ability
Ġslow ly
Ele ct
Wind mills
Ġindu ct
Ġindu ction
ĠAn onymous
ĠSmart est
ĠHamp ton
Ġmanufact ure
Ġmanufact ured
Ġgrant ing
Ġrequest s
Ġrequest ed
Ġviol ently
Ġbattle ground
OY A
Sw eepsTweet
Sw ede
UL OUS
UM M
Ġwalk ing
Ġmur phy
Ġmike y
ĠWS OC
ĠPress Club
ĠGO ING
ifer Steven
Ġdisapp eared
Ġdisapp ointing
Ġrespond ing
Ġrespond ed
Ġresign ation
ĠBilly Hallowell
El i
Gu ess
Gu ide
tw it
inp ing
rut al
Ġreve al
Ġreve aling
Ġcirc les
ĠRev olution
Ġkat ie
Ġmanip ulator
Ġrepresent atives
Ġbelie ved
Ġretweet ed
Bob by
Of The
Of Green
hold er
rig ley
rig gs
Ġaud io
ĠSP EAK
ĠPray ing
ĠDes k
ĠRon Paul
ĠJosh uaD
ĠEN OUGH
ĠChannel Guide
ĠKat y
ĠKat rina
Ġblog ger
ECT LY
Ġsubsid ies
Ġsubsid izing
Ann ie
fr itz
pr ice
ĠTax es
Ġpan ic
Ġpun k
Ġpull ed
Ġgut ter
ĠCost a
ĠComp any
ĠSU PPORT
ĠLa Toya
Ġplain tiffs
Ġimposs ib
AND ING
Ġtechn ique
Ġtechn iques
ĠJohnny PaulCole
Ġprotest ors
Ġdiplom at
Ġdiplom ats
Know s
mac key
mac askill
pat hetic
pat rick
Ġx oxo
Ġx imena
rea ux
Ġbas ic
Ġmid town
Ġmad ness
Ġden ial
ĠHE LL
road cast
ĠFound er
ĠFollow ing
Ġchris p
ĠKrist ine
ĠStart ing
ogn ize
Ġarri ves
ĠNewYork Post
Ġendors es
ĠExcell ence
ĠCoast Guard
ĠAugust a
David son
car olla
eat on
hor rible
look s
Ġcy c
Ġpain ful
Ġobs ervation
ĠAsh ish
ĠPar ade
Ġjump ing
rific ed
ĠKenn eth
ĠKyle McCall
Ġimplement ation
Ġtemp s
ĠBillM oyers
Ġlaunch ing
Ġunderest imated
ĠMLB s
Car ney
col in
rt l
world wide
Ġameric ans
Ġtool s
ĠAnt arct
ĠCard inal
ĠCarl ton
ĠSal v
Ġeag le
ĠTrumpNational LA
ĠDen ise
ĠDen Zen
Ġstimul ating
ĠLind say
Ġjon athan
Ġjournal ism
ĠFR ACK
ĠJordan Spieth
Ġouts mart
ĠStand ard
Ġeng ine
Ġguarant ees
Ġguarant eed
Ġrob in
Ġrob ust
Ġrob oc
Ġcheap est
ĠTravel ers
ĠEntrepreneur ship
Buff alo
Ġban ning
Ġflex ibility
leman ia
ĠCor zine
ĠCur se
ĠCur rency
ĠCur rently
ĠCur tis
ĠMON EY
ĠSw ing
ĠEle ct
arden asACU
Ġenroll ed
Ġrecogn ition
ĠPlan ning
zzzz zzzz
ĠGiul iani
Ġsepar ate
AB LE
Com bs
Karl Rove
Under stand
hh hh
Ġeth ics
Ġcry stal
Ġded ic
Ġded uct
Ġdom estically
Ġnic er
ĠCont est
ĠBL UE
ĠBern ie
add afi
ĠWalk ers
ĠOther s
ĠOther wise
ĠDar ren
Ġjer r
ĠFOX Sports
ĠJO KE
ĠEP ISOD
ĠUr ban
Ġdealm akers
Ġperse ve
Ġexecut ing
Ġignor ance
aD ianne
fund anything
tot ally
uu uu
hell cat
anes e
ĠTalk s
Ġfig ures
Ġdist ract
Ġthrow ing
ĠSeb ast
ĠHim self
sex ual
Ġste ves
ĠJen iferSteven
rap evine
Ġprinc ess
Ġtermin ated
ĠEricTrumpF DN
Ġrelax ing
ĠBobby Jind
ĠPiersMorgan Live
ĠAbout TheRock
ĠCapital ism
Ġdepend ency
IF E
IF UL
Sec ret
Week ly
ij ing
Ġwest chester
Ġsac rificed
Ġfab iol
Ġmand atory
Ġmens amam
Ġanim al
Ġlib rary
ĠCDC whistle
ĠSk yscraper
ĠDep uty
ĠDep artment
ĠDep ression
ĠLight house
anth ony
neg ay
ĠChildren s
Ġsequ estration
Ġattract ion
Ġattract ions
Ġremind ed
Ġparticip ate
Ġgenuine ly
Ġinvestig ated
Ġinvestig ative
ĠPerd ue
Frank MDavis
Ġinflu enced
Ġdevast ated
Ġoutsour ced
Ġsophistic ation
Carl os
Carl son
Des igned
Gold berg
Jan is
Jan ise
MAN N
Sch roed
Ġsouth heast
Ġfashion ed
Ġhom eland
Ġhunt er
Ġhunt ers
Ġpark ing
Ġgross ly
Ġinaug uration
ĠIM ill
Ġissu ed
omers et
ĠMet al
ĠSince rely
ĠBec ca
ĠGerman y
ĠDire ctor
ĠDire ctors
ĠNet work
ĠRa ising
ĠFA V
ĠFun ny
Ġneigh bors
ĠJa ime
ĠChair man
Ġspok esman
ĠKe ith
Ġexemp ted
Ġupd ate
Ġupd ates
Ġunve iling
Ġunve ils
Ġintimid ate
Ġintimid ating
Ġconv ince
Ġconv icted
Ġadam carolla
Ġdescri be
Ġgrad uation
Ġbilly wmer
Ġmoder ation
Ġmoder ating
Ġinnovative ly
ĠErin Burnett
Ġintrodu ce
Ġintrodu ction
ĠVeterans Day
Ġacknow ledge
AK ES
Law rence
Mart inez
fin ale
rag gins
rag ni
Ġtyp es
Ġmer it
Ġmichell emalkin
Ġport fol
Ġpupp y
Ġdomin ate
TrumpT ower
TrumpT uesday
Ġok cth
ĠAB OUT
ĠAK OYA
Ġbehead ed
ĠCM ILLE
ĠCON F
ĠSm all
ĠSant a
ĠSant orum
ĠBOR ING
ĠWT C
ĠPistor ius
ĠDanger ous
ĠRele ase
ĠReb els
Ġjs ager
aked own
Ġchair man
ĠJoel Osteen
ĠMario LopezExtra
ĠTrans formers
Ġdemocrat s
ĠPlay a
Ġtransform ation
Att ention
Att itude
ĠEVERY THING
ĠComplete ly
Ġskyrock eting
ĠComedy Central
Bel ieve
Comm ittee
EB RITY
Far ber
Found ation
GR P
Ser ious
Sim oneNY
Tur key
Tour ism
ez NV
gur l
nic ole
pass more
rink ler
Ġtorn ado
Ġachie ving
Ġthedaily show
Ġthedaily beast
Ġpump ed
Ġlink ed
ĠAth lete
ĠCas ino
ĠCandid ate
ĠMeg an
ĠMotiv ationIde
ĠSn ooze
ĠBUS INESS
ĠWood ward
iment al
ĠOcc upy
ĠOcc idental
ĠHO AX
ĠHapp ened
ĠHands Off
Ġstor med
ĠRic olod
ĠJes se
think er
Ġsuic idal
Ġlock er
Ġspec ul
ĠKent ucky
ĠVal ley
Ġdisp utes
Ġadvert isers
Ġtrave ll
Ġawait s
Ġawait ing
ĠIncompet ence
Ġwarm est
ĠShannon Air
Ġscar red
Ġendless ly
ĠChristine Ster
ĠZach ary
Ġinstit utions
ĠIndones ian
Ġintellect ual
Ġemily placido
ĠQuest ion
Enjoy ed
Ġingred ients
ĠLegend ary
Ġsimpl ified
Cons umer
Gi ants
Hay es
Lib ya
Roy ce
Sy ria
bal on
hope fully
lse ahandler
politic o
sur prise
Ġsatis fied
Ġfle et
Ġha irstyle
Ġgrat itude
ĠINC RED
Ġlit igation
Ġloo ph
ĠMir anda
ĠMull ahs
igl anville
ĠBR ING
ĠBroad way
ĠBroad well
ĠPri x
ĠOs ama
ĠDal ton
ĠDal ai
ĠHogan Seaisle
ĠLiber al
Ġjen conservative
Ġrag s
Ġvill age
ardro be
ardro eper
Ġkathy kphillips
Ġrug ged
Ġdisrespect ful
Ġconnect ed
Ġconvenient ly
Stock s
ĠInspir ation
ĠInspir ational
ĠAndrea Tant
Ġfunn iest
Ġperpet rators
ĠClay Aik
Ġsurround ing
Ġconsult ants
Ġinsult ed
ĠImmig ration
ĠCommun ist
Floyd Mayweather
Ġsomew here
Ġsomew hat
Ġmidter m
Ġmidter ms
ĠLois Weiss
ĠBernard v
ĠBernard Castro
ĠNicole AMarin
Ġbrief ings
ĠSchwarz kop
ĠSchwarz eneg
Ke ith
Or iginal
Oak land
Patt i
UP ID
Und efined
Visit ing
hom s
Ġesc ape
Ġbast ard
ĠTEA M
Ġmaj estic
Ġham mer
Ġpri ze
Ġpurs ue
Ġpunch ing
ĠIC SC
ĠIBD editorials
Ġnerv ous
Ġlone ly
Ġliab ility
ĠAren a
ĠAns wer
ĠCos by
ĠCompet ition
ĠMu hammad
ĠMal colm
ĠMors is
ĠSI now
ĠSom eday
ĠBun kered
ĠTrumpfor President
ĠParent s
ĠOwen Tew
ĠDianne G
ĠHEA RT
ĠHomer JSimpson
rok aw
ĠLat ina
ĠLara LeaYunaska
Ġjam andat
1019 56
ĠFre idaWas
ĠFan OfGreen
ĠTheG rumpyHusky
cele brity
Ġramp ant
ĠYEA R
Ġvic iously
ĠEmp ire
ĠEll iot
Ġkor negay
Ġspl it
ĠKud low
Ġunpro fessional
Ġclos et
Ġcontrovers ial
Ġarsen ioo
report ed
Ġterr itory
Ġattemp t
Ġblat ant
Ġresil ience
Ġperver ts
Ġactiv ities
Ġcommit ment
Ġconfront ation
Ġsadd ling
ĠChristopher Cud
Ġprecise ly
Reality TV
McN all
Ġfright ening
Ġdemograph ic
ĠDannyZ ucker
Ġslight ly
Ġembar go
ĠGretchen Carlson
ĠLOS ERS
Ġprofess or
ĠTerror ists
Ġmisrepresent ed
ĠTommy guns
Ġaffect ed
Afghan istan
ĠWINN ING
Ġsuspen se
Ġsacrif ices
Ġfabric ated
ĠBreak fast
ĠFrancis co
Ġmortg ages
Ġexhaust ed
980 38199
Dest iny
Diane Jackson
Fle ming
Hon ored
Kyle McCall
Log ic
Liber al
Med iate
Mov ie
Ol son
Pri est
RAT S
Sut ton
Sex ual
Tex as
dha irstudio
handed ly
iat rist
pearl s
rins ic
troll er
alas ner
Ġsidel ines
Ġble eding
Ġbund lers
ĠTig re
ĠTyr rell
itar ian
itche ll
Ġreim burse
Ġreson ate
Ġcand or
Ġcate gory
Ġcab inet
Ġmt neerjustice
lley sherwin
Ġpour ing
Ġpess imist
Ġpuss y
Ġdee per
Ġgill ibean
Ġthro at
ĠCann ot
ĠCirc ulation
ĠCryst al
ĠMight y
ĠManny Pacqu
ĠBur ke
ĠBud get
ĠPec ker
ĠGEN IUS
ĠOD edOn
ĠDash Johnston
ĠHear st
ĠHOT EL
ĠHAR DER
Ġstrict ly
Ġjan ecat
Ġjose gonzalez
ĠFel ix
1828 21
endre Larry
Ġvar iety
ĠEL ECTION
ĠEne mies
Ġmyst ery
eeM ingg
ardash ian
Ġkarl rove
Ġmemo irs
Ġspider steve
Ġplag uing
ĠValent ine
Ġamass ed
Ġunc ertain
Ġunst able
ivic afox
Ġoverwhel ming
Ġattribut ed
ĠBeats ByRay
Stack Stacy
ĠGolfWorld US
Ġperm its
Inst ead
Ġdecre ased
ĠClown stick
ĠTeh ran
Ġgram mar
Ġexcer pt
Ġexcess ive
Ġinspect ing
Ġaccum ulated
ĠTVG rapevine
Ġprev ail
Ġrefere ndum
Ġregul atory
Ġsalv age
Ġartific ial
ĠSHA Q
ĠAndrewK irell
ĠPalestin ians
ĠDOLL ARS
ĠDEF UND
ĠCOLL ECTION
mayor gas
Ġjameshoh mann
Democrat s
Ġingen uity
Emmy s
ĠSherri EShep
negoti ate
Capital ism
Ġpsych iatrist
ĠBetty loves
ĠWineEnthus iast
ĠFINAL E
ĠBEAUT IFUL
Ġvolunt eer
Ġshanevander hart
ĠFortune Magazine
ĠLUCK IER
ĠJeremiah Wright
Aim ee
Bre aking
Ballas y
Dil igence
Dire ct
Esp inal
Hanc ock
Imb urgia
LUS II
Mend ezNV
MANI A
Nch in
Que en
Sing h
Sent inel
Vir ginia
bells kp
gand an
hDS ouza
mhar ris
nigg adick
pock eting
sus ans
viv or
xBox usd
Ġtir ade
Ġtourn aments
Ġtiffany pearls
onsh oring
Ġayrshire post
Ġwen eed
Ġwft ragni
Ġwoody johnson
atlo af
Ġsis ters
Ġsar casm
Ġbarack obama
Ġbubb awatson
ĠTam ster
ĠTMP LUSII
ĠTAlcorn Van
ĠTIme ToGetTough
Ġfisc ally
Ġrena issance
Ġcarp et
Ġcns news
Ġmaff ucci
Ġmdam elinc
Ġmsv ivicafox
Ġhillary susans
Ġhtt p
Ġppp polls
Ġpew research
Ġpinst rip
Ġpander ing
Ġprud ent
Ġdign ity
Ġdys fun
Ġdianne lea
Ġdcol on
Ġoliv iaculpo
Ġinel igible
Ġinapp ropriate
Ġnav al
eddy D
ĠAsp en
veill ance
amaj erovsky
ĠCEL EBRITY
ĠMond ale
ĠMED IA
ĠSEA SON
ĠSSt ew
ĠSoyer Janis
igib oria
ĠBah amas
ĠBagh dad
ĠBNice house
Ġelder ly
ĠTrumpInt Realty
ĠThak kar
ĠThail and
ĠThsn ks
ĠPurch ase
ĠPOL AR
ĠPAST OR
ĠGran ite
ĠGlor ia
ĠGOM ITT
imms Nchin
ĠOmaros as
ĠDines hDSouza
ĠDise ase
ĠNork s
ĠNicholas Ballasy
ĠHul kHogan
ĠHOUS E
semb ly
Ġstuart pstevens
ĠRSher man
ĠRESP ECT
ĠRCold wellBank
ĠLass ner
ĠLIN KS
ĠLMow le
Ġjerry san
Ġjhsp raggins
Ġshmop niggadick
ĠFOC US
opoul os
ĠTheNick Sutton
ĠJah balon
ĠJami eeMingg
Ġratt ed
Ġryder cup
Ġrwild ewrites
ĠEOW DC
ĠEisen hower
Ġmyrbeach online
Ġnoturb ine
ĠUber Facts
ĠUrug uay
ĠUlt imate
Ġderekh ough
Ġasyl um
Ġkost off
Ġklny news
Ġsocalm ike
Ġplatin um
ĠKael aDianne
ĠVenue Magazine
ĠVICT ORY
Ġexaminer com
Ġamelias g
Ġproport ions
ĠStdy eddyD
Ġusgs a
asellsn j
Ġunatt ractive
ĠWeap on
awna Tova
Ġiadore em
Child ers
Ġkeeg ster
pertmur doch
Ġbrasicing bras
Ġcontroll ed
Ġworldnet daily
ĠUnchain ed
ĠMacMill ers
ĠAlph a
Ġpersdev quotes
ĠRepLead Conf
Ġscoff ed
Invin cibility
eynold s
ĠDoralRes orts
Ġsurrog ate
Ġglimp se
ĠTRUMPTU ESDAY
Ġretribut ion
Ġchemist ry
ĠYourInfo Babe
Ġteambr andi
Ġfastfrank y
ECAUS E
ĠAMNEST Y
Ġskimp y
ĠWhiteShaun white
Ġindigob lue
ĠStarJones Esq
ĠJoeTor re
ĠNEGOT I
naSearch GRP
ĠMcQu aid
ĠEdandBe v
ĠSTRA IGHT
etteNav aret
Ġmonument al
ĠLateNight Jimmy
MooreRev a
Ġtimessquare hero
Ġfootpr int
ĠTomNoc era
ĠRocco Mediate
ĠChelse a
ĠCNBCCl osingBell
ĠNickTry It
ĠEstablish ment
ĠSethMacF arlane
ĠBBCoach KK
Ġstephani enap
ĠDrChimRick les
ĠPressClub DC
ĠJoshuaD ummer
Ġximena NR
ĠCoastGuard Found
Ġdeduct ibles
ĠJeniferSteven s
Ġfabiol asellsnj
Ġmensamam ma
ĠCDCwhistle blower
FrankMDavis JR
Ġsouthheast t
Ġbillywmer ritt
Ġportfol io
Ġokcth under
ĠMotivationIde as
ĠRicolod ean
ĠShannonAir port
ĠChristineSter gi
ĠINCRED IBLE
ĠClayAik en
ĠSchwarzkop f
ĠSchwarzeneg ger
Ġjamandat rtl
ĠFreidaWas hingt
ĠFanOfGreen MMs
Ġarsenioo fficial
ĠMannyPacqu iao
ĠODedOn RealityTV
ĠSherriEShep herd
ĠBettyloves dogs
Ġmdamelinc ourt
ĠRColdwellBank er
! (
! :
! ?
! ."
! )"
! .....
! ?!?
$ '
% )
% --
& __
' --
) ?
) .""
) ...
) ?"
, &
, --
, .....
, """""
. ?
. !""
. ?""
. '""
0 12
0 84
2 20
2 17
2 88
2 99
2 95
2 202
2 300
2 708
2 885
2 334
3 20
3 13
3 19
3 15
3 17
3 30
3 22
3 80
3 66
3 23
3 84
3 75
3 28
3 87
3 97
3 500
3 300
3 888
3 141
3 601
3 555
3 964
3 241
3 963
3 762
3 289
4 13
4 19
4 12
4 14
4 60
4 33
4 23
4 74
4 76
4 27
4 98
4 91
4 205
4 142
4 747
4 221
4 226
4 662
4 2120
5 10
5 18
5 23
5 25
5 75
5 21
5 35
5 28
5 29
5 150
5 999
5 253
5 962
5 672
6 12
6 50
6 60
6 11
6 83
6 26
6 28
6 29
6 130
6 127
6 997
6 891
7 13
7 40
7 90
7 83
7 21
7 189
7 305
7 889
7 998
7 878
8 19
8 17
8 22
8 90
8 94
8 104
8 185
8 500
8 509
8 753
9 12
9 14
9 44
9 88
9 23
9 25
9 862
: //
< <
= -&
? )."
A U
A k
A p
A x
A Trump
A un
A mer
A ge
A ran
A ss
A berdeen
A IT
A ns
A pat
A ustin
A KING
A ssad
A lec
A IGN
B F
B K
B M
B R
B ed
B ee
B are
B all
B od
B ord
B rat
B ann
B ret
B urn
B ER
B IN
B oc
B ey
B AR
B alth
B REA
B log
B orn
B ald
B oston
B run
B AD
B ows
B aron
B arton
B aseball
B uilding
B road
B ila
B ILLION
B nice
B ryan
B annon
B achmann
B aucus
B reeze
B ravo
B rutal
C J
C d
C as
C ut
C ity
C her
C ore
C ra
C ook
C os
C ost
C oll
C row
C ann
C ER
C AN
C ull
C anc
C ertain
C ompet
C off
C BO
C arter
C lement
C AP
C Johnson
C asting
C leg
C ulture
C ampaign
C indy
C orey
C OTT
C lemens
C oincidence
C ardenasACU
D F
D J
D en
D ar
D ard
D one
D ob
D ie
D ep
D av
D aw
D eg
D AN
D oc
D ING
D ale
D SA
D iet
D allas
D rop
D Green
D AMAC
D eals
D uf
D wight
D OWN
D ummies
D olan
D RUDGE
D EATH
E t
E y
E ar
E as
E EN
E sc
E IL
E ye
E state
E llen
E asy
E conomic
E manuel
E arther
E GAS
F I
F J
F i
F in
F it
F ed
F et
F ul
F ag
F ry
F ine
F ire
F ell
F ree
F ris
F ull
F ool
F ather
F ailed
F iring
F aith
F rog
F arm
F ORE
F BN
F DN
F lores
F Brooklyn
F Schroed
F Alec
G B
G I
G X
G Y
G j
G ar
G ut
G il
G ome
G ain
G ray
G iving
G ET
G ANI
G OD
G ena
G raw
G arden
G reece
G onzalez
G oogle
G reek
G IRL
G ooch
H H
H N
H Y
H i
H al
H at
H or
H ate
H ob
H ous
H um
H az
H eal
H aw
H oll
H ab
H ug
H ines
H AN
H ON
H ool
H uff
H ale
H ole
H aters
H awk
H arry
H igh
H olly
H ET
H itting
H omes
H uk
H urricane
H oles
H utch
H appen
H oppMar
H DSA
I d
I g
I PAC
I ED
I EL
I As
I ET
I BD
I EWS
J F
J T
J V
J e
J er
J en
J ul
J ov
J ared
J AM
J obs
J ET
J AD
J ules
J eremy
J Stone
J Ellis
J uice
J Grill
K L
K id
K ent
K ur
K and
K ra
K ud
K erry
K ET
K ravis
K ari
K eller
K CD
K lein
K aiser
K ardashian
L K
L O
L T
L W
L an
L es
L oo
L im
L ack
L ith
L if
L ist
L ies
L ark
L iver
L uck
L ang
L umb
L oss
L ING
L ev
L unt
L ents
L ama
L ights
L uding
L CH
L iberty
L evin
L incoln
L ONG
L ucky
L amb
L ynn
L inger
L atin
L enz
L ouise
L ynch
L exi
L eary
L IFE
M a
M d
M j
M l
M ot
M et
M il
M ont
M all
M em
M az
M ary
M ich
M ove
M ax
M ail
M illion
M IN
M ang
M ock
M AC
M assive
M ET
M rs
M VP
M oe
M oon
M enz
M emorial
M ogul
M OST
M ITT
M ae
M orales
M Kas
M Kopp
M itchell
N H
N Z
N y
N ol
N ort
N eal
N ame
N une
N ets
N ED
N ALD
N ene
N iles
N elson
N ichol
N BA
N icholas
N EW
N EY
N MENT
N ima
N EWS
N autilus
N AE
O k
O s
O ld
O ct
O ap
O pt
O OL
O marosa
O prah
O Donnell
O wen
O MPET
O keef
P V
P le
P ig
P ack
P op
P ak
P ort
P ick
P ublic
P ict
P ool
P rem
P AR
P eter
P RE
P OTUS
P rod
P fer
P CL
P olls
P ete
P ablo
P iper
P ractice
P erez
P oliticians
Q E
R F
R u
R x
R in
R onald
R ow
R ot
R ent
R ank
R and
R est
R if
R oll
R ell
R eg
R aid
R aj
R aul
R ather
R IS
R OW
R aff
R EST
R SE
R ahm
R ises
R oof
R ESS
R iley
R olling
R amb
R uth
R ucker
R love
R atings
R acing
R ico
R Cap
R Comp
R oses
R achel
R apper
R eckless
R usso
R eynolds
S I
S U
S V
S k
S ave
S ir
S all
S ick
S app
S ure
S ER
S up
S alm
S EC
S ale
S chool
S ein
S idd
S mart
S ington
S aud
S lam
S usan
S omething
S acha
S amsung
S ergio
S IDE
S OFT
T J
T W
T x
T it
T ir
T ack
T out
T op
T ee
T one
T ies
T ide
T ild
T own
T aking
T ON
T ash
T urnberry
T uesday
T ator
T roll
T rend
T odd
T MZ
T ravis
T ango
T rap
T AX
T ELL
T runk
T owery
T elegraph
T iggy
U G
U h
U RU
U far
U gly
U ARY
U GH
V H
V e
V on
V ent
V ES
V alm
V AL
V EN
V Be
V ED
V iner
V attenfall
V OTE
V ito
V incent
V era
V Beck
W I
W N
W R
W at
W or
W ar
W ig
W ould
W ard
W ake
W ild
W NY
W ater
W WE
W orry
W ednesday
W orst
W RONG
W ARD
W ATCH
W acha
W atson
W elfare
Y N
Y R
Y et
Y ash
Y WE
Y outh
Z A
Z ig
Z ol
Z ane
Z ATION
Z ero
Z immerman
Z ERO
a R
a qu
a ite
a ell
a que
a Leigh
a Kennedy
a omi
b A
b f
b i
b n
b p
b t
b in
b is
b et
b ir
b one
b ong
b az
b ase
b ound
b ury
b arb
b illions
b oot
b illionaire
b ands
b ics
b omb
b rian
b ats
b unch
b aker
b itz
b run
b aylor
b ij
b rody
b asket
b elle
c w
c am
c reat
c and
c ers
c ry
c ia
c ost
c ous
c ond
c ure
c ab
c og
c io
c ern
c akes
c ars
c ody
c ongress
c iting
c urs
c ollection
c ises
c asing
c avuto
c aves
c illo
c iak
d a
d j
d r
d ar
d id
d im
d ers
d one
d em
d ans
d ish
d ict
d der
d ny
d avid
d anny
d ouble
d aven
d NYC
d hm
d ano
d eals
d alasner
e he
e ment
e ens
e ath
e ating
e uan
e View
f u
f x
f y
f ed
f am
f est
f our
f ind
f og
f ish
f red
f ool
f lex
f ather
f ix
f reed
f oot
f rey
f osh
f ried
f eed
f abulous
f iscal
f eel
f uly
f dn
f acts
f inger
f isher
f amous
f renzy
g ru
g ow
g us
g ew
g ut
g ul
g os
g od
g ree
g ated
g ren
g ang
g als
g iers
g ents
g ross
g ians
g uts
g iant
g ently
g eck
g arbage
g ilbert
g ado
g arrett
g ibson
g raves
g fuller
g Bannon
h w
h ic
h ot
h ank
h and
h ould
h op
h ast
h ink
h ak
h nd
h od
h ire
h oy
h app
h ark
h ug
h io
h ang
h aul
h und
h ler
h ored
h ogan
h irt
h auer
h anced
h Bila
i ation
i ens
i anna
i ette
i ja
i asts
i Loc
i Goldberg
i Gonzalez
j c
j i
j n
j v
j y
j an
j or
j it
j ar
j am
j ch
j ul
j ry
j ost
j ord
j ame
j ason
j ose
j enn
j ock
j ury
j wh
j ean
j obs
j immy
j pat
j unior
j oseph
j ensen
k m
k ru
k ill
k il
k ap
k ane
k yle
k ats
k enny
k inson
k yleraccio
k itty
k face
k stan
k owitz
k RN
k ennedy
k otter
k mackey
l L
l is
l en
l ay
l un
l ive
l ake
l all
l ide
l ap
l oc
l ik
l oss
l ors
l iers
l uc
l aur
l ara
l ager
l ano
l uv
l angelo
l osers
m z
m am
m ir
m ack
m ers
m il
m os
m ain
m em
m ure
m ich
m eg
m other
m ail
m ates
m aj
m ony
m ma
m ean
m ett
m azi
m onic
m ena
m ails
m oul
m ala
m itted
m ete
m ione
n w
n z
n on
n al
n at
n as
n el
n ate
n ard
n ip
n ame
n able
n astic
n ett
n obody
n iving
n ificent
n jillette
n ikkio
n car
n cook
o V
o er
o at
o om
o ke
o ir
o ip
o fore
o oth
o jr
o Her
o anton
o kevin
o iler
p g
p i
p y
p ol
p ie
p rat
p ell
p rep
p aid
p ool
p oor
p hew
p rest
p arent
p Fr
p iano
p owers
p astor
p eace
p olitical
p oole
p iaz
r c
r d
r g
r j
r v
r id
r ill
r ome
r atch
r ish
r oth
r ley
r ants
r andy
r cott
r idge
r acing
r pm
r hino
r boi
r imental
s i
s m
s r
s er
s id
s ew
s un
s end
s we
s ame
s ues
s ix
s outh
s inner
s assy
s oul
s best
s fan
s kin
s incl
s devine
t i
t l
t in
t al
t le
t ill
t us
t ur
t op
t ick
t ina
t row
t ower
t urn
t weet
t able
t uff
t ier
t alent
t ures
t omm
t oronto
t rust
t aylor
t urner
t ucci
t ruth
t antig
t elegraph
u on
u er
u et
u ations
u ah
u pt
u ating
u ane
u ilt
u ko
u eled
u conservative
v b
v d
v g
v s
v ie
v oy
v ance
v ise
v ik
v ince
v ied
v anh
v ada
v acc
v ocation
w c
w j
w on
w al
w est
w art
w ine
w itt
w ester
w ater
w mc
w bit
w ift
w reck
w arner
w onders
w onderful
x o
x ny
x elrod
x press
x del
y D
y w
y in
y ork
y att
y esterday
y de
y ster
y yan
y ards
y Cor
y Tim
y olan
y boi
