{
  "!": 6,
  "!!": 480,
  "!!!": 1536,
  "!!!!": 1372,
  "!!!!!": 6852,
  "!!!!!!": 17214,
  "!!!!!!!!": 8884,
  "!!!!!\"\"": 14341,
  "!!!!!\"\"\"": 14340,
  "!!!!\"": 12553,
  "!!!!\"\"": 10214,
  "!!!!\"\"\"": 4328,
  "!!!\"\"": 3377,
  "!!!\"\"\"": 2705,
  "!!\"": 10535,
  "!!\"\"": 2251,
  "!!\"\"\"": 2081,
  "!\"": 356,
  "!\"\"": 623,
  "!\"\"\"": 619,
  "!\"\"\"\"": 16884,
  "!\"\"\"\"\"": 12376,
  "!(": 18783,
  "!)": 9083,
  "!)\"": 18787,
  "!).": 11676,
  "!).\"": 11677,
  "!.": 15325,
  "!.\"": 18786,
  "!.....": 18788,
  "!:": 18784,
  "!?": 18785,
  "!?!?": 18789,
  "\"": 7,
  "\"\"": 264,
  "\"\"!\"": 9187,
  "\"\"\"": 283,
  "\"\"\"\"": 9849,
  "\"\"\"\"\"": 5018,
  "\"\",": 9846,
  "\"\"-": 9847,
  "\"\"--": 9851,
  "\"\"---": 15932,
  "\"\".": 5017,
  "\"\".\"": 9850,
  "\"\"?": 9848,
  "\"\"?\"": 15931,
  "#": 8,
  "$": 9,
  "$$": 5154,
  "$'": 18790,
  "%": 10,
  "%)": 18791,
  "%--": 18792,
  "&": 11,
  "&__": 18793,
  "'": 12,
  "'\"": 10536,
  "'\"\"": 4164,
  "'\"\"\"": 4351,
  "',": 13128,
  "'--": 18794,
  "'.": 15326,
  "':": 11678,
  "'?": 15327,
  "'d": 1488,
  "'ll": 1003,
  "'m": 817,
  "'re": 822,
  "'s": 367,
  "'t": 435,
  "'ve": 1122,
  "(": 13,
  "(?)": 9084,
  ")": 14,
  ")!": 7262,
  ")!\"": 6156,
  ")\"": 898,
  ")\"\"": 11679,
  ")\"\"\"": 11680,
  "),": 4712,
  ")-": 15328,
  ").": 2002,
  ").\"": 3906,
  ").\"\"": 18796,
  ")...": 18797,
  ")?": 18795,
  ")?\"": 18798,
  "*": 15,
  "**": 13129,
  "+": 16,
  ",": 17,
  ",\"": 335,
  ",\"\"": 6648,
  ",\"\"\"": 298,
  ",\"\"\"\"\"": 18802,
  ",\"\"\".": 16110,
  ",\"\"\":": 468,
  ",\".": 1118,
  ",\"...": 4026,
  ",\":": 13718,
  ",$": 10537,
  ",%": 10538,
  ",&": 18799,
  ",'": 8054,
  ",,": 7613,
  ",-": 15329,
  ",--": 18800,
  ",.": 734,
  ",...": 2384,
  ",....": 10539,
  ",.....": 18801,
  ",:": 11681,
  ",_": 11682,
  "-": 18,
  "-\"": 5595,
  "-$": 13130,
  "-&": 10540,
  "--": 389,
  "--\"\"": 13884,
  "--&": 6745,
  "---": 1388,
  "----": 8735,
  ".": 19,
  ".!": 7614,
  ".!\"": 9085,
  ".!\"\"": 18804,
  ".\"": 365,
  ".\"\"": 475,
  ".\"\"\"": 606,
  ".\"\"\"\"": 16737,
  ".\"\"\"\"\"": 11026,
  ".\"\"-": 14006,
  ".\"\"--": 12288,
  ".'": 5336,
  ".'\"\"": 18806,
  ".)": 11683,
  ".,": 3764,
  ".-": 6157,
  ".--": 11684,
  "..": 386,
  "..\"": 10541,
  "..\"\"": 6744,
  "..\"\"\"": 7392,
  "...": 594,
  "...\"": 2203,
  "...\"\"": 5056,
  "...\"\"\"": 5243,
  "....": 1267,
  "....\"": 7436,
  "....\"\"": 14304,
  "....\"\"\"": 14305,
  ".....": 4219,
  ".....\"": 10201,
  "......": 6327,
  ".?": 18803,
  ".?\"\"": 18805,
  "/": 20,
  "//": 10542,
  "0": 21,
  "00": 941,
  "000": 3127,
  "001": 8838,
  "002": 8839,
  "003": 8840,
  "004": 8841,
  "005": 7834,
  "006": 7462,
  "007": 6314,
  "008": 8842,
  "009": 8305,
  "01": 3569,
  "012": 18807,
  "02": 11685,
  "03": 9086,
  "04": 11686,
  "05": 9721,
  "06": 10543,
  "07": 6649,
  "08": 4991,
  "084": 18808,
  "09": 7263,
  "1": 22,
  "10": 410,
  "100": 1296,
  "101": 3799,
  "1017": 16602,
  "1019": 12225,
  "101956": 18383,
  "102": 2729,
  "1020": 16601,
  "103": 2034,
  "104": 1992,
  "1048": 16604,
  "105": 2007,
  "1050": 16603,
  "106": 2205,
  "107": 2312,
  "108": 2522,
  "109": 2457,
  "11": 686,
  "110": 1576,
  "1100": 8055,
  "111": 4929,
  "112": 1628,
  "1123": 10544,
  "113": 1544,
  "1130": 8057,
  "1135": 17275,
  "114": 1595,
  "1140": 8059,
  "115": 1577,
  "1150": 8060,
  "116": 1489,
  "1164": 17254,
  "117": 1578,
  "1170": 8058,
  "118": 1579,
  "1180": 8061,
  "119": 1589,
  "1190": 8062,
  "12": 423,
  "120": 1543,
  "1200": 8056,
  "121": 5061,
  "122": 2763,
  "123": 1496,
  "1234": 13943,
  "124": 2060,
  "125": 2009,
  "126": 2131,
  "1260": 13942,
  "127": 2344,
  "128": 2553,
  "129": 2345,
  "13": 414,
  "130": 1409,
  "1301": 17230,
  "131": 4782,
  "132": 2730,
  "133": 2112,
  "134": 2036,
  "135": 2059,
  "136": 2176,
  "137": 2342,
  "1372": 16621,
  "138": 2523,
  "139": 2524,
  "14": 426,
  "140": 1476,
  "141": 4907,
  "142": 2703,
  "143": 2113,
  "144": 2038,
  "145": 2010,
  "1453": 16652,
  "146": 2178,
  "147": 2291,
  "148": 2525,
  "149": 2458,
  "15": 429,
  "150": 1477,
  "151": 5062,
  "152": 2732,
  "1523": 16659,
  "153": 2114,
  "154": 2039,
  "155": 2011,
  "156": 2132,
  "157": 2346,
  "158": 2526,
  "159": 2459,
  "16": 408,
  "160": 1585,
  "161": 5221,
  "162": 2761,
  "163": 2130,
  "164": 2033,
  "165": 2058,
  "166": 2204,
  "167": 2373,
  "168": 2552,
  "169": 2486,
  "17": 430,
  "170": 1473,
  "1701": 17248,
  "171": 4908,
  "172": 2733,
  "173": 2115,
  "174": 2040,
  "175": 2041,
  "176": 2154,
  "177": 2268,
  "1775": 13949,
  "178": 2527,
  "179": 2431,
  "18": 431,
  "180": 1478,
  "181": 5063,
  "182": 2734,
  "1828": 13950,
  "182821": 18496,
  "183": 2116,
  "184": 2012,
  "185": 2013,
  "186": 2179,
  "187": 2249,
  "188": 2528,
  "189": 2460,
  "1897": 16660,
  "19": 415,
  "190": 1485,
  "1903": 17253,
  "191": 5060,
  "1914": 9356,
  "192": 2731,
  "193": 2096,
  "194": 2008,
  "1949": 16630,
  "195": 2037,
  "1952": 16628,
  "1954": 16624,
  "1957": 10984,
  "1958": 10985,
  "1959": 16631,
  "196": 2177,
  "1960": 13918,
  "1961": 10986,
  "1963": 13921,
  "1964": 10983,
  "1967": 13922,
  "1968": 16629,
  "1969": 13924,
  "197": 2225,
  "1970": 12229,
  "1971": 13926,
  "1972": 13925,
  "19723": 17427,
  "1973": 10982,
  "1974": 12230,
  "1975": 13920,
  "1976": 16622,
  "1977": 12228,
  "1978": 16626,
  "1979": 16627,
  "198": 2487,
  "1980": 10981,
  "1981": 13923,
  "1984": 13919,
  "1988": 8745,
  "1989": 16625,
  "199": 2343,
  "1993": 16623,
  "1994": 10040,
  "1996": 8746,
  "2": 23,
  "20": 399,
  "200": 1309,
  "2001": 12526,
  "2002": 17189,
  "2003": 17190,
  "2004": 17191,
  "2005": 11203,
  "201": 4903,
  "2010": 10029,
  "2011": 12205,
  "2012": 5410,
  "2013": 6495,
  "2014": 5411,
  "2015": 6746,
  "2016": 1050,
  "202": 2638,
  "2020": 10968,
  "203": 2095,
  "204": 2032,
  "205": 1991,
  "206": 2174,
  "207": 2311,
  "208": 2520,
  "209": 2456,
  "21": 851,
  "210": 1612,
  "2100": 8063,
  "211": 6403,
  "2112": 14186,
  "212": 1677,
  "2120": 11122,
  "2123": 11687,
  "213": 1824,
  "2130": 8064,
  "214": 15330,
  "217": 18810,
  "22": 675,
  "220": 18809,
  "2202": 18814,
  "221": 5456,
  "222": 5085,
  "223": 5731,
  "224": 5457,
  "225": 5732,
  "226": 5458,
  "227": 4928,
  "228": 5733,
  "229": 5252,
  "23": 731,
  "2300": 18815,
  "231": 5482,
  "232": 5779,
  "2323": 16947,
  "233": 15332,
  "2334": 18818,
  "234": 5483,
  "235": 5780,
  "2350": 16946,
  "236": 5781,
  "237": 5484,
  "238": 5782,
  "239": 5783,
  "24": 752,
  "241": 5492,
  "242": 5261,
  "243": 5800,
  "245": 5801,
  "246": 5802,
  "247": 5089,
  "248": 5803,
  "249": 5262,
  "25": 742,
  "250": 4575,
  "251": 5487,
  "252": 5790,
  "253": 5488,
  "254": 5791,
  "256": 5792,
  "257": 5793,
  "258": 5794,
  "259": 5489,
  "26": 775,
  "260": 15331,
  "261": 5839,
  "262": 5840,
  "263": 5841,
  "264": 5842,
  "265": 5511,
  "267": 5843,
  "268": 5844,
  "269": 5512,
  "27": 900,
  "270": 15333,
  "2708": 18816,
  "271": 5868,
  "272": 5518,
  "278": 5519,
  "279": 5869,
  "28": 892,
  "281": 5861,
  "282": 5862,
  "283": 13131,
  "287": 5863,
  "288": 18811,
  "2885": 18817,
  "289": 5516,
  "29": 893,
  "291": 5864,
  "292": 5517,
  "295": 18813,
  "297": 5865,
  "298": 5866,
  "299": 18812,
  "3": 24,
  "30": 624,
  "300": 3273,
  "3000": 11079,
  "301": 5437,
  "3011": 16885,
  "302": 5438,
  "303": 5439,
  "304": 5244,
  "305": 4657,
  "306": 5440,
  "307": 5441,
  "308": 5245,
  "309": 5442,
  "31": 2280,
  "311": 13132,
  "313": 18820,
  "3141": 18837,
  "315": 18822,
  "316": 11688,
  "317": 18823,
  "3177": 15337,
  "319": 18821,
  "32": 1590,
  "320": 18819,
  "321": 15334,
  "322": 18825,
  "323": 18828,
  "3241": 18841,
  "328": 18831,
  "3289": 18844,
  "33": 702,
  "330": 18824,
  "3300": 18835,
  "331": 5464,
  "332": 5747,
  "333": 5465,
  "334": 5466,
  "335": 5748,
  "336": 5749,
  "337": 5255,
  "338": 5750,
  "3384": 16936,
  "339": 5467,
  "34": 903,
  "3401": 15338,
  "341": 6803,
  "342": 6804,
  "343": 6805,
  "345": 6533,
  "346": 6806,
  "347": 6807,
  "348": 6808,
  "349": 6809,
  "35": 886,
  "3500": 18834,
  "351": 7115,
  "352": 7116,
  "353": 7117,
  "354": 7118,
  "3555": 18839,
  "356": 7119,
  "357": 7120,
  "358": 7121,
  "359": 7122,
  "36": 1158,
  "360": 9722,
  "3601": 18838,
  "361": 7137,
  "362": 6548,
  "364": 15335,
  "365": 15336,
  "366": 18827,
  "368": 7138,
  "369": 6840,
  "37": 1196,
  "371": 7143,
  "372": 7144,
  "375": 18830,
  "3762": 18843,
  "378": 7145,
  "379": 7146,
  "38": 1613,
  "380": 18826,
  "38199": 17299,
  "384": 18829,
  "387": 18832,
  "3888": 18836,
  "39": 1656,
  "3957": 13133,
  "3963": 18842,
  "3964": 18840,
  "397": 18833,
  "4": 25,
  "40": 693,
  "400": 3230,
  "401": 5087,
  "402": 5740,
  "403": 5741,
  "404": 5462,
  "4040": 16930,
  "405": 5742,
  "406": 5743,
  "407": 5744,
  "408": 5463,
  "409": 5745,
  "41": 2709,
  "412": 18847,
  "413": 18845,
  "414": 18848,
  "4142": 18858,
  "419": 18846,
  "42": 1722,
  "420": 13134,
  "4205": 18857,
  "421": 15341,
  "42120": 18863,
  "4221": 18860,
  "4226": 18861,
  "423": 18851,
  "424": 15340,
  "427": 18854,
  "43": 1282,
  "431": 7874,
  "432": 7875,
  "433": 18850,
  "438": 7876,
  "439": 7877,
  "44": 643,
  "440": 4400,
  "441": 5444,
  "442": 5082,
  "443": 5709,
  "444": 3811,
  "4444": 7095,
  "4444444": 9042,
  "445": 5710,
  "446": 5711,
  "447": 5712,
  "448": 5713,
  "449": 5714,
  "45": 1105,
  "450": 15339,
  "451": 7846,
  "452": 7847,
  "453": 7848,
  "456": 7479,
  "457": 7849,
  "458": 7850,
  "459": 7851,
  "46": 1269,
  "460": 18849,
  "461": 7490,
  "462": 7491,
  "4662": 18862,
  "468": 7868,
  "469": 7492,
  "47": 1291,
  "471": 7882,
  "472": 7496,
  "474": 18852,
  "4747": 18859,
  "4748": 15343,
  "476": 18853,
  "478": 7883,
  "479": 7497,
  "48": 1629,
  "487": 15342,
  "49": 1596,
  "491": 18856,
  "498": 18855,
  "5": 26,
  "50": 653,
  "500": 2833,
  "501": 5445,
  "502": 5715,
  "503": 5716,
  "504": 5717,
  "505": 5083,
  "506": 5718,
  "507": 5446,
  "508": 5719,
  "509": 5084,
  "51": 2567,
  "510": 18864,
  "511": 13135,
  "5150": 18873,
  "518": 18865,
  "52": 1556,
  "520": 15344,
  "521": 18869,
  "5210": 17285,
  "522": 15347,
  "523": 18866,
  "524": 15348,
  "525": 18867,
  "5253": 18875,
  "528": 18871,
  "529": 18872,
  "53": 1265,
  "530": 15345,
  "531": 7863,
  "532": 7864,
  "5337": 15351,
  "535": 18870,
  "538": 7865,
  "539": 7866,
  "54": 973,
  "541": 7465,
  "542": 7126,
  "543": 7127,
  "545": 7466,
  "546": 7467,
  "547": 7468,
  "548": 7469,
  "549": 7470,
  "55": 711,
  "550": 15346,
  "551": 5767,
  "552": 5768,
  "553": 5769,
  "554": 5770,
  "555": 4930,
  "556": 5771,
  "557": 5477,
  "558": 5772,
  "559": 5773,
  "56": 1270,
  "561": 7493,
  "562": 7494,
  "567": 15350,
  "5672": 18877,
  "568": 7869,
  "569": 7870,
  "57": 1283,
  "571": 7878,
  "572": 7879,
  "575": 18868,
  "578": 7880,
  "579": 7881,
  "58": 1580,
  "5810": 17295,
  "586": 15349,
  "59": 1630,
  "5911": 17305,
  "5962": 18876,
  "5999": 18874,
  "6": 27,
  "60": 664,
  "600": 4048,
  "601": 4926,
  "602": 5448,
  "603": 5248,
  "604": 4927,
  "605": 5449,
  "606": 5450,
  "607": 5451,
  "608": 5452,
  "6084": 16916,
  "6085": 5250,
  "609": 5249,
  "61": 2047,
  "610": 15352,
  "611": 18881,
  "612": 18878,
  "6127": 18887,
  "613": 13136,
  "6130": 18886,
  "614": 13137,
  "615": 13138,
  "619": 15353,
  "62": 1657,
  "623": 13139,
  "626": 18883,
  "628": 18884,
  "629": 18885,
  "63": 988,
  "631": 6821,
  "632": 6822,
  "635": 5943,
  "636": 6823,
  "637": 6824,
  "638": 6825,
  "639": 6826,
  "64": 901,
  "641": 6312,
  "642": 6796,
  "643": 6797,
  "645": 6798,
  "646": 6799,
  "647": 6800,
  "648": 6801,
  "649": 6802,
  "65": 904,
  "650": 18879,
  "651": 6810,
  "652": 6811,
  "653": 6812,
  "654": 6813,
  "656": 6814,
  "657": 6534,
  "658": 6815,
  "659": 6816,
  "66": 706,
  "660": 18880,
  "661": 5755,
  "662": 5472,
  "663": 5756,
  "664": 5757,
  "665": 5758,
  "666": 5473,
  "667": 5759,
  "668": 5760,
  "669": 5761,
  "67": 1061,
  "671": 6832,
  "672": 6319,
  "678": 6541,
  "679": 6833,
  "68": 1557,
  "6820": 17286,
  "683": 18882,
  "6891": 18889,
  "69": 1494,
  "6997": 18888,
  "7": 28,
  "70": 707,
  "700": 4051,
  "701": 5474,
  "702": 5475,
  "703": 5762,
  "704": 5763,
  "705": 5764,
  "706": 5765,
  "707": 5476,
  "708": 5257,
  "709": 5766,
  "71": 1944,
  "710": 9723,
  "711": 15358,
  "713": 18890,
  "714": 13140,
  "716": 11689,
  "7189": 18895,
  "719": 15355,
  "72": 1499,
  "720": 15354,
  "721": 18894,
  "722": 13141,
  "73": 771,
  "7305": 18896,
  "731": 5820,
  "732": 5821,
  "734": 5503,
  "735": 5822,
  "736": 5823,
  "737": 5824,
  "738": 5504,
  "739": 5505,
  "74": 757,
  "740": 18891,
  "741": 5808,
  "742": 5809,
  "743": 5496,
  "744": 15356,
  "745": 5810,
  "746": 5811,
  "747": 4933,
  "748": 5263,
  "749": 5497,
  "75": 769,
  "750": 15357,
  "751": 5816,
  "752": 5264,
  "753": 5501,
  "754": 5817,
  "756": 5265,
  "757": 5502,
  "758": 5818,
  "759": 5819,
  "76": 772,
  "761": 5825,
  "762": 5506,
  "763": 5826,
  "764": 5827,
  "765": 5507,
  "767": 5508,
  "768": 5828,
  "769": 5092,
  "77": 656,
  "770": 4317,
  "771": 5720,
  "772": 5447,
  "773": 5721,
  "774": 5722,
  "775": 5723,
  "776": 5247,
  "7768": 16912,
  "777": 3812,
  "7777": 16911,
  "778": 5724,
  "779": 5725,
  "78": 1511,
  "783": 18893,
  "7878": 18899,
  "7889": 18897,
  "79": 1533,
  "790": 18892,
  "7998": 18898,
  "8": 29,
  "80": 703,
  "800": 3948,
  "801": 5751,
  "802": 5468,
  "803": 5752,
  "804": 5469,
  "805": 5753,
  "806": 5754,
  "807": 5256,
  "808": 5470,
  "809": 5471,
  "81": 1288,
  "8104": 18905,
  "8112": 17188,
  "813": 13142,
  "814": 15359,
  "816": 10545,
  "817": 18901,
  "8185": 18906,
  "819": 18900,
  "82": 1182,
  "821": 15361,
  "822": 18902,
  "823": 15360,
  "83": 758,
  "831": 5498,
  "832": 5812,
  "834": 5091,
  "835": 5813,
  "836": 5499,
  "837": 5814,
  "838": 5500,
  "839": 5815,
  "84": 740,
  "841": 5485,
  "842": 5784,
  "843": 5785,
  "845": 5486,
  "846": 5786,
  "847": 5787,
  "848": 5788,
  "8484": 7107,
  "848484": 11553,
  "849": 5789,
  "85": 746,
  "8500": 18907,
  "8509": 18908,
  "851": 5795,
  "8514": 14152,
  "852": 5796,
  "853": 5797,
  "854": 5260,
  "856": 5798,
  "857": 5799,
  "858": 5490,
  "859": 5491,
  "86": 791,
  "861": 5852,
  "862": 5514,
  "863": 5268,
  "864": 5853,
  "865": 5854,
  "867": 5855,
  "868": 5269,
  "869": 5856,
  "87": 930,
  "871": 6066,
  "872": 6067,
  "8753": 18909,
  "878": 5870,
  "879": 6068,
  "88": 665,
  "880": 4318,
  "881": 5251,
  "882": 5726,
  "883": 5727,
  "884": 5728,
  "885": 5453,
  "886": 5729,
  "887": 5730,
  "888": 4401,
  "889": 5454,
  "89": 991,
  "890": 18903,
  "891": 5873,
  "892": 5874,
  "894": 18904,
  "898": 6072,
  "9": 30,
  "90": 715,
  "900": 4132,
  "901": 5259,
  "902": 5774,
  "903": 5775,
  "904": 5478,
  "905": 5776,
  "906": 5777,
  "907": 5479,
  "908": 5778,
  "909": 5480,
  "91": 1254,
  "9103": 15368,
  "911": 8500,
  "912": 18910,
  "914": 18911,
  "916": 10546,
  "918": 15362,
  "92": 1222,
  "921": 15365,
  "923": 18914,
  "925": 18915,
  "928": 15366,
  "929": 15367,
  "93": 773,
  "931": 5509,
  "932": 5829,
  "934": 5830,
  "935": 5831,
  "936": 5832,
  "937": 5266,
  "938": 5510,
  "939": 5833,
  "94": 789,
  "941": 5513,
  "942": 5845,
  "943": 5846,
  "944": 18912,
  "945": 5847,
  "946": 5848,
  "947": 5849,
  "948": 5850,
  "949": 5851,
  "95": 774,
  "951": 5093,
  "952": 5834,
  "953": 5835,
  "954": 5836,
  "956": 5267,
  "957": 4934,
  "958": 5837,
  "959": 5838,
  "96": 754,
  "960": 15363,
  "961": 5804,
  "962": 5493,
  "963": 5494,
  "964": 5090,
  "965": 5805,
  "967": 5495,
  "968": 5806,
  "969": 5807,
  "97": 946,
  "971": 6069,
  "972": 5871,
  "976": 15364,
  "978": 6070,
  "979": 6071,
  "98": 1103,
  "980": 13143,
  "98038199": 18435,
  "981": 6079,
  "982": 6321,
  "9862": 18916,
  "988": 18913,
  "99": 679,
  "990": 4319,
  "991": 5734,
  "992": 5735,
  "993": 5736,
  "994": 5737,
  "995": 5738,
  "996": 5739,
  "997": 5459,
  "998": 5460,
  "999": 5253,
  ":": 31,
  ":\"": 5155,
  ":\"\"": 8501,
  "://": 18917,
  ";": 32,
  "<": 33,
  "</s>": 2,
  "<<": 18918,
  "<mask>": 4,
  "<pad>": 1,
  "<s>": 0,
  "<unk>": 3,
  "=": 34,
  "=-&": 18919,
  ">": 35,
  "?": 36,
  "?!": 2685,
  "?!\"": 10547,
  "?!\"\"": 15369,
  "?!?": 9568,
  "?\"": 1248,
  "?\"\"": 737,
  "?\"\"\"": 2324,
  "?'": 11690,
  "?)": 6404,
  "?).\"": 18920,
  "??": 1545,
  "??\"\"": 6405,
  "??\"\"\"": 17276,
  "???": 4543,
  "???\"\"": 10232,
  "???\"\"\"": 17277,
  "????": 8891,
  "????\"\"": 11465,
  "@": 37,
  "A": 38,
  "AA": 5337,
  "AB": 7264,
  "ABC": 7615,
  "ABLE": 18026,
  "AC": 1209,
  "ACE": 14289,
  "ACK": 4063,
  "ACT": 9477,
  "ACU": 14290,
  "AD": 3839,
  "AE": 15370,
  "AG": 6406,
  "AIGN": 18939,
  "AIL": 15379,
  "AIS": 15378,
  "AIT": 18932,
  "AJ": 9087,
  "AJMcC": 15026,
  "AJMcCarron": 15317,
  "AK": 9088,
  "AKE": 5945,
  "AKES": 18169,
  "AKING": 18936,
  "AL": 1266,
  "ALANCE": 11196,
  "ALD": 3132,
  "ALK": 7867,
  "ALL": 8332,
  "ALLY": 10200,
  "ALS": 17183,
  "AM": 2325,
  "AMA": 8922,
  "AMAC": 7186,
  "AMAZING": 17445,
  "AMarin": 15381,
  "AN": 1083,
  "ANCE": 10175,
  "AND": 6078,
  "ANDING": 17923,
  "ANDS": 14855,
  "ANGE": 7477,
  "ANI": 3130,
  "ANK": 17100,
  "ANS": 17101,
  "ANT": 6542,
  "AP": 4078,
  "APP": 8994,
  "APPY": 10498,
  "AR": 1319,
  "ARD": 8336,
  "ARE": 8337,
  "ARM": 4326,
  "ARS": 14330,
  "ARY": 8338,
  "ARoberts": 10208,
  "AS": 4079,
  "ASCAR": 14714,
  "ASH": 14712,
  "ASS": 14713,
  "AST": 3697,
  "ASTER": 8984,
  "ASTIC": 14673,
  "AT": 1320,
  "ATCH": 8339,
  "ATE": 5288,
  "ATES": 11204,
  "ATH": 17194,
  "ATION": 5883,
  "ATOUR": 8878,
  "ATRUMP": 3494,
  "ATrump": 18925,
  "AU": 18921,
  "AUS": 15376,
  "AVE": 5338,
  "AW": 13144,
  "AWin": 13148,
  "AX": 8502,
  "AY": 2625,
  "AZ": 4713,
  "AZING": 6918,
  "AZY": 12823,
  "Ab": 4992,
  "Abedini": 10382,
  "Aberdeen": 18931,
  "About": 11485,
  "Acc": 6407,
  "According": 7249,
  "Achievers": 9726,
  "Act": 10548,
  "Action": 15375,
  "Actually": 15112,
  "Ad": 2300,
  "Adams": 11309,
  "Adkins": 4255,
  "Adrian": 17440,
  "Adv": 5305,
  "Advice": 8001,
  "Advisor": 9644,
  "Af": 4080,
  "Afghan": 12782,
  "Afghanistan": 18426,
  "After": 5146,
  "Ag": 5596,
  "Again": 11502,
  "Age": 18928,
  "Agnes": 10398,
  "Ah": 15371,
  "Aik": 13147,
  "Aim": 15374,
  "Aimee": 18558,
  "Air": 13145,
  "Ak": 18922,
  "Al": 1903,
  "Albert": 11276,
  "Alcorn": 14447,
  "Alec": 18938,
  "Alert": 17372,
  "Alex": 9725,
  "Ali": 17371,
  "All": 2404,
  "Allen": 17466,
  "Allred": 17467,
  "Almost": 10251,
  "Also": 11275,
  "Always": 4423,
  "Alyssa": 15380,
  "Am": 2301,
  "Amanda": 17441,
  "Amazing": 4256,
  "Amer": 18927,
  "Americ": 2359,
  "America": 3342,
  "American": 7536,
  "Americans": 7187,
  "Amira": 4553,
  "Amy": 15377,
  "An": 3986,
  "And": 2189,
  "Anderson": 17422,
  "AndeyR": 17423,
  "Andrew": 14489,
  "Andy": 7184,
  "Ang": 6158,
  "Angel": 5598,
  "AngelEyes": 12858,
  "Angelo": 9023,
  "Angle": 7240,
  "Ann": 5944,
  "Anne": 17734,
  "Annie": 17909,
  "Another": 4352,
  "Ans": 18933,
  "Ant": 9724,
  "Anthony": 5597,
  "Anti": 15071,
  "Any": 4993,
  "Anything": 9016,
  "Ap": 18923,
  "Apat": 18934,
  "App": 8503,
  "Apple": 14992,
  "Apprentice": 618,
  "ApprenticeNBC": 14101,
  "Ar": 2449,
  "Arab": 9089,
  "Aran": 18929,
  "Are": 6650,
  "Arison": 11693,
  "Arsenio": 8931,
  "ArsenioHall": 12976,
  "ArsenioOFFICIAL": 15021,
  "Art": 6881,
  "Arthur": 6882,
  "As": 2468,
  "Ash": 8504,
  "Ashley": 14993,
  "Ashton": 14513,
  "Ask": 10274,
  "Ass": 18930,
  "Assad": 18937,
  "Astorino": 13149,
  "At": 4266,
  "Att": 9620,
  "Attention": 18207,
  "Attitude": 18208,
  "Aun": 18926,
  "Aust": 13146,
  "Austin": 18935,
  "Autism": 11692,
  "Aw": 15372,
  "Award": 11691,
  "Awarded": 13069,
  "Ax": 18924,
  "Ay": 15373,
  "B": 39,
  "BA": 7265,
  "BACK": 11700,
  "BAD": 18966,
  "BAR": 18958,
  "BB": 10549,
  "BC": 550,
  "BD": 7616,
  "BER": 18954,
  "BF": 18940,
  "BI": 9727,
  "BIG": 15394,
  "BILLION": 18974,
  "BIN": 18955,
  "BK": 18941,
  "BL": 8065,
  "BLE": 10555,
  "BM": 18942,
  "BN": 8505,
  "BO": 3137,
  "BOSS": 14613,
  "BP": 11694,
  "BR": 18943,
  "BREA": 18960,
  "BS": 2969,
  "BT": 3840,
  "Ba": 8506,
  "Bab": 15386,
  "Babe": 10556,
  "Baby": 15400,
  "Bachmann": 18978,
  "Back": 4849,
  "Bad": 8067,
  "Baker": 13157,
  "Bald": 18963,
  "Baldwin": 4995,
  "Ball": 18947,
  "Ballas": 15399,
  "Ballasy": 18560,
  "Balth": 18959,
  "Bank": 13152,
  "Bann": 18951,
  "Bannon": 18977,
  "Bar": 6651,
  "Barack": 7266,
  "BarackObama": 2568,
  "BarackObamas": 12923,
  "Barb": 15392,
  "Bare": 18946,
  "Baron": 18968,
  "Barrel": 11531,
  "Barton": 18969,
  "Baseball": 18970,
  "Based": 10554,
  "Bash": 15391,
  "Baucus": 18979,
  "Bay": 15383,
  "Be": 1465,
  "Bear": 15385,
  "Beardymilne": 17245,
  "Beast": 17243,
  "BeaumontAnthony": 10227,
  "Beautiful": 17244,
  "Bec": 4353,
  "Because": 8511,
  "Becca": 5327,
  "Beck": 11699,
  "Bed": 18944,
  "Bedminster": 15398,
  "Bee": 18945,
  "Before": 10226,
  "Being": 7890,
  "Bel": 9728,
  "Believe": 18213,
  "Bell": 7267,
  "Ben": 3987,
  "Benghazi": 11433,
  "Benjamin": 17735,
  "Berger": 10557,
  "Bern": 15390,
  "Best": 6410,
  "Bet": 13151,
  "Better": 13159,
  "Bey": 18957,
  "Biden": 4994,
  "Big": 4267,
  "Bila": 18973,
  "Bill": 6408,
  "Billion": 10553,
  "Bills": 11698,
  "Bir": 15384,
  "Bird": 15395,
  "Biz": 15388,
  "Bk": 13150,
  "Bl": 3348,
  "Black": 9597,
  "Blaze": 14641,
  "Blo": 8510,
  "Blog": 18961,
  "Bloomberg": 9701,
  "Blu": 17642,
  "Blue": 12736,
  "Bnice": 18975,
  "Bo": 8066,
  "Bob": 5599,
  "Bobby": 17889,
  "Boc": 18956,
  "Bod": 18948,
  "Boe": 11701,
  "Bon": 10550,
  "Book": 13155,
  "Bord": 18949,
  "Boring": 15393,
  "Born": 18962,
  "Boss": 8507,
  "Bossie": 10475,
  "Boston": 18964,
  "Both": 9091,
  "Bowl": 8512,
  "Bows": 18967,
  "Box": 10552,
  "Boy": 11697,
  "Br": 2889,
  "Brad": 12691,
  "Brady": 17559,
  "Brain": 15397,
  "Brand": 11365,
  "Brandi": 12692,
  "Brat": 18950,
  "Bravo": 18981,
  "Bre": 15382,
  "Breaking": 18559,
  "Breeze": 18980,
  "Breitbart": 8509,
  "Brent": 13154,
  "Bret": 18952,
  "Brett": 13158,
  "Bri": 13153,
  "Brian": 5156,
  "Bring": 15396,
  "Bro": 10551,
  "Broad": 18972,
  "Brody": 15401,
  "Bron": 9581,
  "Broncos": 15065,
  "Brooklyn": 17560,
  "Brown": 6939,
  "Bru": 9090,
  "Brun": 18965,
  "Bruno": 12982,
  "Brutal": 18982,
  "Bryan": 18976,
  "Bucket": 7268,
  "BucketChallenge": 7608,
  "Buff": 6938,
  "Buffalo": 18007,
  "Bug": 15387,
  "Build": 13156,
  "Building": 18971,
  "Bull": 15389,
  "Bur": 11696,
  "Burn": 18953,
  "Burnett": 11702,
  "Bus": 11695,
  "Busey": 3184,
  "Bush": 8508,
  "Bushh": 14994,
  "Business": 5339,
  "But": 6409,
  "By": 3506,
  "ByRay": 17665,
  "C": 40,
  "CA": 13160,
  "CAN": 18998,
  "CAP": 19007,
  "CAR": 11712,
  "CBO": 19004,
  "CBS": 11714,
  "CC": 3640,
  "CCESS": 9604,
  "CD": 9729,
  "CE": 4714,
  "CER": 18997,
  "CH": 3449,
  "CJ": 18983,
  "CJohnson": 19008,
  "CL": 7269,
  "CLUSIVE": 11556,
  "CNBC": 2385,
  "CNN": 9092,
  "CO": 11703,
  "COME": 15416,
  "COTT": 19015,
  "CPA": 15417,
  "CPAC": 15413,
  "CT": 13161,
  "CY": 11704,
  "Cadillac": 15414,
  "Cain": 5601,
  "Cal": 4715,
  "Call": 4354,
  "Caller": 7983,
  "Cameron": 8518,
  "Campaign": 19012,
  "Can": 2542,
  "Canada": 11322,
  "Canadians": 17496,
  "Canc": 19000,
  "Canes": 17495,
  "Cann": 18996,
  "Cant": 11709,
  "Cap": 8515,
  "Capital": 14995,
  "Capitalism": 18547,
  "Car": 6652,
  "Card": 15407,
  "CardenasACU": 19018,
  "Care": 882,
  "Cares": 13164,
  "Carl": 8516,
  "Carlos": 18114,
  "Carlson": 18115,
  "Carney": 17976,
  "Carter": 19005,
  "Cas": 18985,
  "Cassidy": 11716,
  "Cast": 10558,
  "Casting": 19009,
  "Castro": 15113,
  "Cat": 13162,
  "Catch": 15409,
  "Cavuto": 5340,
  "Cd": 18984,
  "Cel": 15406,
  "Celeb": 2469,
  "CelebApprentice": 5307,
  "Celebrity": 3635,
  "CelebrityApprentice": 7965,
  "Cena": 15415,
  "Cent": 8514,
  "Central": 10476,
  "Certain": 19001,
  "Ch": 792,
  "Chalk": 16963,
  "Challenge": 7109,
  "Champ": 4661,
  "Champion": 11110,
  "Championship": 9428,
  "Change": 10135,
  "Channel": 5857,
  "Charl": 4240,
  "Charles": 14731,
  "Charlotte": 5148,
  "Che": 11705,
  "Check": 4081,
  "Cher": 18988,
  "Chicago": 10134,
  "Chief": 10136,
  "Child": 16962,
  "Childers": 18700,
  "ChimRick": 16965,
  "China": 1788,
  "Chinas": 16964,
  "Chinese": 14163,
  "Choice": 14162,
  "Chris": 7824,
  "Christ": 4798,
  "Christmas": 17824,
  "Chuck": 14161,
  "Cindy": 19013,
  "City": 18987,
  "Cl": 3907,
  "Class": 17723,
  "Cle": 15403,
  "Cleg": 19010,
  "Clemens": 19016,
  "Clement": 19006,
  "Clin": 9093,
  "Clinton": 11607,
  "Club": 9611,
  "Co": 5600,
  "Coff": 19003,
  "Cohen": 14823,
  "Coincidence": 19017,
  "Col": 6653,
  "Cold": 15412,
  "Cole": 10560,
  "Colin": 14889,
  "Coll": 18994,
  "Collection": 11713,
  "Com": 7270,
  "Combs": 18027,
  "Come": 11710,
  "Coming": 11715,
  "Comm": 9731,
  "Committee": 18214,
  "Comp": 8517,
  "Company": 12962,
  "Compet": 19002,
  "Con": 3841,
  "Concentration": 17714,
  "Conde": 15418,
  "Conf": 17713,
  "Congrat": 1107,
  "Congrats": 2738,
  "Congratulations": 1305,
  "Congress": 7617,
  "Connell": 7972,
  "Cons": 10559,
  "Consumer": 18278,
  "Cont": 9730,
  "Cook": 18991,
  "Cool": 11711,
  "Cor": 5946,
  "Core": 18989,
  "Corey": 19014,
  "Corn": 13163,
  "Corp": 10404,
  "Cos": 18992,
  "Cost": 18993,
  "Could": 15405,
  "Country": 9094,
  "Cour": 11708,
  "Courage": 15165,
  "Cow": 15404,
  "Cox": 15408,
  "Cr": 15402,
  "Cra": 18990,
  "Craig": 15419,
  "Creat": 11706,
  "Cross": 10561,
  "Crow": 18995,
  "Crude": 13165,
  "Cruz": 8068,
  "Cud": 15410,
  "Cull": 18999,
  "Culture": 19011,
  "Cup": 15411,
  "Cur": 11707,
  "Cut": 18986,
  "Cy": 8513,
  "D": 41,
  "DA": 15420,
  "DAMAC": 19040,
  "DAN": 19031,
  "DAY": 4443,
  "DC": 2890,
  "DD": 13166,
  "DEATH": 19048,
  "DER": 3299,
  "DF": 19019,
  "DG": 10562,
  "DGE": 10568,
  "DGreen": 19039,
  "DH": 13167,
  "DING": 19033,
  "DJ": 19020,
  "DL": 15421,
  "DM": 9095,
  "DN": 10563,
  "DNY": 15429,
  "DOM": 13178,
  "DON": 8069,
  "DONALD": 8491,
  "DOWN": 19044,
  "DP": 4996,
  "DRUDGE": 19047,
  "DRomney": 10566,
  "DS": 7271,
  "DSA": 19035,
  "DY": 9096,
  "Da": 13168,
  "Daddy": 15439,
  "Daily": 5158,
  "DailyShow": 11489,
  "Dale": 19034,
  "Dallas": 19037,
  "Dam": 9732,
  "Dan": 4997,
  "DanScavino": 12836,
  "Danger": 15434,
  "Daniel": 13182,
  "Danny": 5948,
  "DannyZuker": 8008,
  "Dar": 19022,
  "Dard": 19023,
  "Dav": 19028,
  "Dave": 13173,
  "David": 6412,
  "Davidson": 17956,
  "Davis": 13179,
  "Daw": 19029,
  "Day": 6411,
  "De": 4082,
  "Deals": 19041,
  "Deb": 5947,
  "Debate": 6930,
  "Dec": 11717,
  "Deep": 15428,
  "Def": 9733,
  "Deg": 19030,
  "Del": 15422,
  "Dem": 7619,
  "Democrat": 14946,
  "Democrats": 18542,
  "Den": 19021,
  "Dennis": 15435,
  "Dep": 19027,
  "Dept": 9734,
  "Derek": 8070,
  "Des": 8519,
  "Designed": 18116,
  "Despite": 7620,
  "Dest": 13174,
  "Destiny": 18436,
  "Deutsch": 17743,
  "Dev": 15430,
  "Develop": 17742,
  "Di": 10564,
  "Diamond": 10567,
  "Diane": 13183,
  "DianeJackson": 18437,
  "Dick": 15425,
  "Did": 5157,
  "Didn": 14801,
  "Die": 19026,
  "Diet": 19036,
  "Dig": 5602,
  "Digest": 6151,
  "Dil": 15423,
  "Diligence": 18561,
  "Dine": 13176,
  "Dire": 15424,
  "Direct": 18562,
  "Dis": 6940,
  "Div": 11718,
  "Diva": 15166,
  "Do": 1890,
  "Dob": 19025,
  "Doc": 19032,
  "Does": 5295,
  "Dog": 9097,
  "Doing": 8903,
  "Dolan": 19046,
  "Don": 1834,
  "Donald": 306,
  "DonaldTrump": 317,
  "Done": 19024,
  "Donna": 17357,
  "Donnell": 6343,
  "Donnie": 17358,
  "Dont": 7618,
  "Dopey": 4083,
  "Dor": 13170,
  "Doral": 1521,
  "Dot": 13171,
  "Double": 15433,
  "Doug": 13175,
  "Dowell": 13180,
  "Down": 15427,
  "Doyle": 11720,
  "Dr": 13169,
  "Drake": 13181,
  "Dream": 15432,
  "Dress": 15426,
  "Drew": 11719,
  "Drive": 15437,
  "Drop": 19038,
  "Drug": 15436,
  "Dub": 10565,
  "Dude": 15431,
  "Due": 13177,
  "Duf": 19042,
  "Dummies": 19045,
  "Dummy": 8520,
  "Dunn": 15438,
  "Dur": 13172,
  "Dwight": 19043,
  "E": 42,
  "EA": 890,
  "EAD": 10151,
  "EAK": 12441,
  "EAL": 2770,
  "EAT": 10152,
  "EATH": 17021,
  "EAWIII": 17022,
  "EB": 9735,
  "EBRITY": 18215,
  "EC": 1711,
  "ECAUS": 17327,
  "ECAUSE": 18723,
  "ECT": 5892,
  "ECTION": 11508,
  "ECTLY": 17906,
  "ED": 1825,
  "EE": 8521,
  "EED": 15446,
  "EEN": 19053,
  "EEP": 15448,
  "EG": 8522,
  "EGAS": 19063,
  "EI": 13184,
  "EIL": 19055,
  "EL": 2236,
  "ELANI": 3445,
  "ELANIATRUMP": 3505,
  "ELESS": 17428,
  "ELL": 10572,
  "EM": 13185,
  "EN": 1335,
  "ENA": 17201,
  "ENCE": 11211,
  "ENCY": 17202,
  "END": 14337,
  "ENT": 1914,
  "ENTICE": 9528,
  "EO": 6413,
  "EOP": 10571,
  "EP": 4998,
  "ER": 969,
  "ERE": 17054,
  "ERIC": 5099,
  "ERO": 7464,
  "ERS": 6820,
  "ES": 1034,
  "ESDAY": 14236,
  "ESOME": 9455,
  "ESP": 11152,
  "ESS": 4243,
  "EST": 2884,
  "EShep": 17077,
  "ET": 3041,
  "EV": 8523,
  "EVER": 15447,
  "EW": 9098,
  "EWErickson": 15449,
  "EWS": 13189,
  "EX": 10569,
  "EY": 9736,
  "EZ": 7621,
  "EZZ": 10456,
  "Each": 11721,
  "Ear": 19051,
  "Earther": 19062,
  "Eas": 19052,
  "Easy": 19059,
  "Ebola": 10573,
  "Economic": 19060,
  "Ed": 4850,
  "Edward": 10376,
  "EdwardAshton": 15107,
  "Eff": 15442,
  "Egypt": 11722,
  "El": 5341,
  "Ele": 4999,
  "Elect": 17842,
  "Elections": 6147,
  "Eli": 17874,
  "Eliot": 12846,
  "Ell": 10570,
  "Ellen": 19058,
  "Ellis": 15114,
  "Em": 8071,
  "Emanuel": 19061,
  "Emmy": 14966,
  "Emmys": 18544,
  "En": 7272,
  "End": 15441,
  "Eng": 15445,
  "Enjoy": 10447,
  "Enjoyed": 18274,
  "Ent": 1398,
  "Enter": 17221,
  "Entertain": 17222,
  "Enthus": 11217,
  "Entrepreneurs": 1487,
  "Ep": 15440,
  "Er": 13186,
  "Eric": 9737,
  "Erol": 13188,
  "ErolYalim": 15235,
  "Esc": 19054,
  "Esp": 15443,
  "Espinal": 18563,
  "Esq": 13190,
  "Estate": 19057,
  "Et": 19049,
  "Eve": 13187,
  "Even": 5342,
  "Event": 15444,
  "Ever": 8524,
  "Every": 2776,
  "Everybody": 9575,
  "Everyone": 5309,
  "Everything": 11352,
  "Ex": 3003,
  "Excited": 7199,
  "Exclusive": 14595,
  "Exper": 9584,
  "Experience": 11619,
  "Expo": 8955,
  "Express": 17583,
  "Extra": 11723,
  "Ey": 19050,
  "Eye": 19056,
  "Eyes": 10574,
  "F": 43,
  "FAM": 6159,
  "FAMiLY": 6641,
  "FAMiLYLEADER": 6647,
  "FAlec": 19093,
  "FBN": 19088,
  "FBrooklyn": 19091,
  "FC": 8525,
  "FDN": 19089,
  "FE": 15450,
  "FF": 10575,
  "FI": 19064,
  "FJ": 19065,
  "FL": 2746,
  "FLASH": 11731,
  "FLASHBACK": 13071,
  "FM": 15451,
  "FOR": 15454,
  "FORE": 19087,
  "FOX": 10578,
  "FR": 13191,
  "FSchroed": 19092,
  "FT": 13192,
  "FUL": 10579,
  "Face": 11726,
  "Fact": 8072,
  "Facts": 13202,
  "Fag": 19072,
  "Failed": 19082,
  "Failure": 11730,
  "Fair": 3004,
  "Faith": 19084,
  "Fal": 9099,
  "Faldo": 15027,
  "Fall": 15453,
  "Family": 9740,
  "Fan": 7273,
  "Fans": 11725,
  "Far": 9738,
  "Farber": 18216,
  "Farm": 19086,
  "Fast": 9100,
  "Father": 19081,
  "Feat": 11729,
  "Featuring": 13070,
  "Fed": 19069,
  "Feed": 7622,
  "Fell": 19076,
  "Ferr": 15457,
  "Ferry": 8527,
  "FerryPoint": 9071,
  "Fet": 19070,
  "Fi": 19066,
  "Fifth": 15456,
  "Fil": 15452,
  "File": 11727,
  "Fin": 19067,
  "Find": 13198,
  "Fine": 19074,
  "Fire": 19075,
  "Fired": 11728,
  "Firing": 19083,
  "First": 8073,
  "Fiscal": 15455,
  "Fit": 19068,
  "Five": 10576,
  "Fl": 3988,
  "Flashback": 8418,
  "FlashbackFriday": 11588,
  "Fle": 13193,
  "Fleming": 18438,
  "Flor": 13201,
  "Flores": 19090,
  "Florida": 15236,
  "Floyd": 11434,
  "FloydMayweather": 18330,
  "Fly": 13194,
  "Fo": 8526,
  "Focus": 12963,
  "Follow": 13200,
  "Fool": 19080,
  "Football": 13204,
  "For": 1512,
  "ForAG": 14373,
  "ForPresident": 3556,
  "ForQ": 17258,
  "ForTrump": 17259,
  "Force": 17260,
  "Fore": 11724,
  "Forget": 17261,
  "Former": 10231,
  "Fort": 13197,
  "Found": 9739,
  "Foundation": 18217,
  "Four": 13195,
  "Fox": 3300,
  "Fr": 3765,
  "Fran": 13199,
  "France": 14679,
  "Frank": 8414,
  "FrankMDavis": 18109,
  "FrankMDavisJR": 18760,
  "Free": 19077,
  "Freedom": 8074,
  "Fresh": 13203,
  "Friday": 8987,
  "Friends": 10577,
  "Fris": 19078,
  "Frog": 19085,
  "From": 5159,
  "FrontCNN": 17699,
  "Fry": 19073,
  "Ful": 19071,
  "Full": 19079,
  "Fun": 13196,
  "G": 44,
  "GA": 2302,
  "GANI": 19107,
  "GAS": 17442,
  "GB": 19094,
  "GC": 3248,
  "GE": 4165,
  "GET": 19106,
  "GH": 8528,
  "GI": 19095,
  "GIRL": 19116,
  "GM": 10580,
  "GOD": 19108,
  "GOP": 5000,
  "GOT": 15460,
  "GP": 15458,
  "GR": 9741,
  "GREAT": 13207,
  "GRP": 18218,
  "GX": 19096,
  "GY": 19097,
  "Gabriel": 15463,
  "Gain": 19103,
  "Gal": 11732,
  "Gar": 19099,
  "Garden": 19111,
  "Gardner": 13209,
  "Gary": 3042,
  "GaryBusey": 3346,
  "Gas": 8075,
  "Gates": 11734,
  "Gaz": 11733,
  "Gee": 10583,
  "Geek": 15461,
  "Gen": 6654,
  "Gena": 19109,
  "General": 10431,
  "Geor": 11735,
  "George": 4716,
  "GeorgesNYC": 15167,
  "Ger": 13205,
  "Get": 1338,
  "Getting": 6849,
  "Gi": 10581,
  "Giants": 18279,
  "Gib": 2970,
  "Gibson": 11372,
  "Gil": 19101,
  "Gilbert": 6656,
  "Gill": 15459,
  "Gine": 5344,
  "GinellaGC": 5591,
  "Gir": 13206,
  "Girl": 9742,
  "Give": 9101,
  "Giving": 19105,
  "Gj": 19098,
  "Gl": 1698,
  "Glad": 4065,
  "Glanville": 2624,
  "Global": 12575,
  "Go": 3401,
  "God": 7623,
  "Going": 8405,
  "Gold": 8530,
  "Goldberg": 18117,
  "Golf": 1622,
  "Gome": 19102,
  "Gonzalez": 19113,
  "Gooch": 19117,
  "Good": 3005,
  "Google": 19114,
  "Got": 8529,
  "Gov": 8076,
  "Government": 10318,
  "Governor": 17652,
  "Gr": 3698,
  "Graf": 10584,
  "Graham": 7624,
  "Graw": 19110,
  "Gray": 19104,
  "Graydon": 13208,
  "Great": 1364,
  "Greece": 19112,
  "Greek": 19115,
  "Green": 6941,
  "Greg": 6942,
  "Grill": 17690,
  "Group": 5320,
  "Gu": 5343,
  "Guard": 11496,
  "Guess": 17875,
  "Guide": 17876,
  "Gun": 10582,
  "Gunn": 15462,
  "Gut": 19100,
  "Guy": 6655,
  "H": 45,
  "HAN": 19136,
  "HAPPY": 15476,
  "HDSA": 19156,
  "HEAD": 15475,
  "HER": 8078,
  "HET": 19147,
  "HH": 19118,
  "HING": 7274,
  "HL": 13210,
  "HN": 19119,
  "HO": 11736,
  "HOF": 4851,
  "HON": 19137,
  "HT": 3699,
  "HY": 19120,
  "Ha": 15464,
  "Hab": 19133,
  "Had": 6160,
  "Hagel": 13216,
  "Hal": 19122,
  "Hale": 19140,
  "Hall": 3766,
  "Hallowell": 17700,
  "Hanc": 15473,
  "Hancock": 18564,
  "Happen": 19154,
  "Happy": 3349,
  "Har": 11737,
  "Hard": 11738,
  "Harry": 19144,
  "Has": 8077,
  "Hat": 19123,
  "Hate": 19125,
  "Haters": 19142,
  "Have": 4576,
  "Having": 15474,
  "Haw": 19131,
  "Hawk": 19143,
  "Hay": 10587,
  "Hayes": 18280,
  "Haz": 19129,
  "He": 1732,
  "Head": 7626,
  "Heading": 11567,
  "Heal": 19130,
  "Hear": 15469,
  "Heather": 11256,
  "Hel": 15467,
  "Help": 11742,
  "Hem": 15471,
  "Henry": 13215,
  "Her": 10585,
  "Here": 5001,
  "Heres": 14416,
  "Herman": 11740,
  "Hey": 10588,
  "Hi": 19121,
  "High": 19145,
  "Hill": 15465,
  "Hilton": 8531,
  "Hines": 19135,
  "His": 10586,
  "History": 13213,
  "Hitting": 19148,
  "Ho": 7625,
  "Hob": 19126,
  "Hogan": 11741,
  "Hol": 15466,
  "Hole": 19141,
  "Holes": 19152,
  "Holl": 19132,
  "Holly": 19146,
  "Home": 9102,
  "Homes": 19149,
  "Hon": 13211,
  "Honest": 13214,
  "Honored": 18439,
  "Hood": 15468,
  "Hool": 19138,
  "Hope": 5949,
  "HoppMar": 19155,
  "Hor": 19124,
  "Host": 11739,
  "Hot": 13212,
  "Hous": 19127,
  "House": 9743,
  "How": 2212,
  "Howard": 11302,
  "Hoy": 15472,
  "Hub": 15470,
  "Huff": 19139,
  "Hug": 19134,
  "Huk": 19150,
  "Hum": 19128,
  "Hunt": 4577,
  "Huntsman": 6139,
  "Hurricane": 19151,
  "Hutch": 19153,
  "Hypocrite": 15477,
  "I": 46,
  "IA": 3507,
  "IAL": 5603,
  "IAN": 11744,
  "IANT": 15486,
  "IAs": 19162,
  "IBD": 19164,
  "IBLE": 15490,
  "IC": 1597,
  "ICE": 4955,
  "ICH": 12566,
  "ICIAL": 7162,
  "ICK": 11242,
  "ICT": 11243,
  "ICYMI": 7508,
  "ID": 2256,
  "IDE": 14497,
  "IED": 19160,
  "IEL": 19161,
  "IER": 7275,
  "IERPAOLOMONNI": 9048,
  "IET": 19163,
  "IEV": 15488,
  "IEW": 15489,
  "IEWS": 19165,
  "IF": 8079,
  "IFE": 18079,
  "IFUL": 18080,
  "IG": 2190,
  "IGHT": 3893,
  "IGN": 14490,
  "II": 3091,
  "III": 10308,
  "IL": 4444,
  "ILD": 9745,
  "ILL": 2626,
  "ILLE": 17514,
  "ILLION": 7549,
  "IM": 3092,
  "IMATE": 7948,
  "IME": 5563,
  "IMES": 17599,
  "IN": 1054,
  "INE": 10169,
  "INESS": 17083,
  "ING": 1479,
  "IO": 15478,
  "ION": 2971,
  "IOUS": 15487,
  "IP": 6161,
  "IPAC": 19159,
  "IR": 2891,
  "IRE": 10590,
  "IRED": 11366,
  "IRL": 14576,
  "IS": 1631,
  "ISH": 9504,
  "ISIS": 14397,
  "ISM": 17306,
  "ISOD": 17307,
  "IST": 8534,
  "IT": 2686,
  "ITE": 11340,
  "ITED": 17523,
  "ITH": 9569,
  "ITT": 10284,
  "ITY": 7551,
  "IUS": 15481,
  "IVE": 6163,
  "IVER": 15484,
  "IX": 9103,
  "IZ": 10589,
  "Ian": 15479,
  "Ice": 8533,
  "IceBucketChallenge": 10477,
  "Id": 19157,
  "Ide": 13218,
  "If": 1087,
  "Ig": 19158,
  "Il": 9744,
  "Ill": 8532,
  "Im": 4717,
  "Imagine": 17806,
  "Imb": 15482,
  "Imburgia": 18565,
  "Ime": 15483,
  "Immigration": 17807,
  "Imp": 15480,
  "In": 1161,
  "InThe": 17142,
  "Inc": 8328,
  "Ind": 13217,
  "Info": 17144,
  "Innovation": 14279,
  "Ins": 7856,
  "Insider": 12939,
  "Insp": 7139,
  "Inst": 14278,
  "Instead": 18519,
  "Institute": 17145,
  "Int": 3842,
  "Interesting": 7217,
  "Intern": 17715,
  "Interview": 17716,
  "Invest": 10194,
  "Invin": 17143,
  "Invincibility": 18712,
  "Iowa": 15485,
  "Ir": 11743,
  "Iran": 4852,
  "Iraq": 6162,
  "Ireland": 5345,
  "Is": 2191,
  "Isn": 7529,
  "Isnt": 11297,
  "Israel": 8917,
  "It": 1234,
  "Its": 3043,
  "Ivanka": 5950,
  "IvankaTrump": 8009,
  "Ive": 7627,
  "J": 47,
  "JAD": 19178,
  "JAM": 19175,
  "JB": 15491,
  "JD": 15492,
  "JET": 19177,
  "JEllis": 19182,
  "JF": 19166,
  "JGrill": 19184,
  "JJacobs": 8081,
  "JL": 13219,
  "JM": 9746,
  "JO": 13220,
  "JOY": 6944,
  "JP": 8080,
  "JR": 11745,
  "JSimpson": 15500,
  "JStone": 19181,
  "JT": 19167,
  "JTrump": 2303,
  "JUrciuoli": 10594,
  "JV": 19168,
  "JWal": 7277,
  "JWalters": 7609,
  "Jab": 10592,
  "Jac": 7276,
  "Jack": 8536,
  "Jackson": 8538,
  "Jacobs": 8032,
  "James": 5002,
  "Jamie": 15499,
  "Jan": 8535,
  "Jane": 15496,
  "Janis": 18118,
  "Janise": 18119,
  "Jared": 19174,
  "Jay": 9104,
  "Je": 19169,
  "Jean": 8537,
  "Jeff": 9105,
  "Jeffrey": 15028,
  "Jen": 19171,
  "Jenn": 15495,
  "Jer": 19170,
  "Jeremy": 19180,
  "Jerry": 11747,
  "Jes": 15493,
  "Jim": 10591,
  "Jimmy": 10593,
  "Jind": 15494,
  "Jo": 1538,
  "Joan": 8890,
  "Joanne": 17267,
  "Job": 11746,
  "Jobs": 19176,
  "Jodi": 10595,
  "Joe": 4542,
  "John": 2254,
  "Johnny": 6353,
  "JohnnyA": 9035,
  "Johnson": 4686,
  "Johnston": 17430,
  "Join": 9747,
  "Jon": 3350,
  "JonHuntsman": 14642,
  "Jones": 10315,
  "Jordan": 15498,
  "Joseph": 13222,
  "Josh": 9748,
  "Journal": 15497,
  "Jov": 19173,
  "Jr": 2192,
  "Jud": 13221,
  "Jude": 6943,
  "Juice": 19183,
  "Jul": 19172,
  "Jules": 19179,
  "Just": 1712,
  "Justice": 12578,
  "Justin": 14412,
  "K": 48,
  "KCD": 19197,
  "KE": 3843,
  "KET": 19193,
  "KING": 6945,
  "KK": 15501,
  "KL": 19185,
  "KS": 3402,
  "KT": 15502,
  "KWalker": 15507,
  "Kaiser": 19199,
  "Kamin": 13228,
  "Kand": 19189,
  "Kardashian": 19200,
  "Karen": 15506,
  "Kari": 19195,
  "Karl": 7278,
  "KarlRove": 18028,
  "Kas": 13225,
  "Kat": 10596,
  "Kate": 11749,
  "Katherine": 6946,
  "KatherineWebb": 8025,
  "Kay": 8539,
  "Ke": 11748,
  "Keep": 4268,
  "Keith": 18342,
  "Keller": 19196,
  "Kelly": 9106,
  "Ken": 13224,
  "Kennedy": 15508,
  "Kent": 19187,
  "Kerry": 19192,
  "Kev": 15504,
  "Kevin": 7279,
  "Key": 10597,
  "Keystone": 13036,
  "Kick": 15503,
  "Kid": 19186,
  "Kidd": 13227,
  "King": 4084,
  "Kiss": 8540,
  "Klein": 19198,
  "Kn": 13223,
  "Knight": 13229,
  "Know": 6164,
  "Knows": 17930,
  "Knox": 10598,
  "Kopp": 15505,
  "Kra": 19190,
  "Kravis": 19194,
  "Kud": 19191,
  "Kur": 19188,
  "Kyle": 13226,
  "KyleMcCall": 18440,
  "L": 49,
  "LA": 2139,
  "LASH": 11292,
  "LC": 10599,
  "LCH": 19227,
  "LD": 3185,
  "LE": 3767,
  "LEA": 2850,
  "LEADER": 6365,
  "LES": 15516,
  "LIFE": 19242,
  "LING": 19220,
  "LK": 19201,
  "LL": 1546,
  "LLY": 7159,
  "LO": 19202,
  "LONG": 19231,
  "LT": 19203,
  "LUS": 15515,
  "LUSII": 18566,
  "LV": 9107,
  "LW": 19204,
  "LY": 2777,
  "La": 4853,
  "Lack": 19209,
  "Lad": 15511,
  "Lady": 11753,
  "Lago": 3006,
  "Lama": 19224,
  "Lamb": 19233,
  "Lampanelli": 13239,
  "Lan": 19205,
  "Lance": 8544,
  "Land": 15512,
  "Lang": 19217,
  "Lark": 19214,
  "Larry": 13237,
  "Las": 3570,
  "LasVegas": 3696,
  "Last": 4718,
  "Late": 15513,
  "Latin": 19236,
  "Lauren": 17829,
  "Law": 9108,
  "Lawrence": 18170,
  "Le": 2687,
  "Lea": 9570,
  "LeaYun": 15064,
  "LeaYunaska": 15318,
  "Lead": 6165,
  "Leader": 10412,
  "Leadership": 14862,
  "Leakes": 11341,
  "Learn": 8547,
  "Learning": 15519,
  "Leary": 19241,
  "Lee": 5160,
  "Lef": 13234,
  "Leg": 11752,
  "Legit": 15168,
  "Leigh": 12676,
  "Lem": 8543,
  "Lemon": 10478,
  "Lents": 19223,
  "Lenz": 19237,
  "Leo": 17524,
  "Leod": 6886,
  "Les": 19206,
  "Less": 11750,
  "Let": 3700,
  "Lets": 9109,
  "Letterman": 11416,
  "Lev": 19221,
  "Levin": 19229,
  "Lewis": 15520,
  "Lexi": 19240,
  "Lib": 10602,
  "Liber": 13236,
  "Liberal": 18442,
  "Liberty": 19228,
  "Libya": 18281,
  "Lies": 19213,
  "Lif": 19211,
  "Life": 5951,
  "Lights": 19225,
  "Lightweight": 5003,
  "Like": 8542,
  "Lil": 13231,
  "Lim": 19208,
  "Lincoln": 19230,
  "Linger": 19235,
  "Links": 13235,
  "Lisa": 15517,
  "List": 19212,
  "Listen": 6657,
  "Lith": 19210,
  "Little": 9110,
  "Live": 6414,
  "Liver": 19215,
  "Living": 13238,
  "Ll": 15509,
  "Lo": 10600,
  "Loc": 8545,
  "Located": 11590,
  "Lod": 15514,
  "Log": 13233,
  "Logic": 18441,
  "Long": 13232,
  "Loo": 19207,
  "Look": 4166,
  "Looking": 2569,
  "Looks": 6912,
  "Lope": 11751,
  "Lopez": 13072,
  "LopezExtra": 15233,
  "Lord": 9749,
  "Losers": 15521,
  "Loss": 19219,
  "Lots": 8546,
  "Lou": 15510,
  "Louise": 19238,
  "Love": 10601,
  "Lu": 13230,
  "Luck": 19216,
  "Lucky": 19232,
  "Luding": 19226,
  "Luke": 15518,
  "Lumb": 19218,
  "Lunt": 19222,
  "Ly": 8541,
  "Lynch": 19239,
  "Lynn": 19234,
  "M": 50,
  "MA": 6166,
  "MAC": 19263,
  "MAN": 8549,
  "MANI": 15530,
  "MANIA": 18568,
  "MANN": 18120,
  "MAR": 3186,
  "MART": 8964,
  "MC": 4719,
  "MDavis": 15536,
  "MELANIATRUMP": 15531,
  "MENT": 9750,
  "MET": 19265,
  "MG": 10603,
  "MH": 13240,
  "MI": 5952,
  "MIG": 15529,
  "MIN": 19260,
  "MITT": 19274,
  "MKas": 19277,
  "MKopp": 19278,
  "MMs": 15535,
  "MO": 15522,
  "MON": 13248,
  "MOST": 19273,
  "MP": 1072,
  "MPET": 14247,
  "MS": 7628,
  "MTalk": 15533,
  "MUST": 13252,
  "MVP": 19267,
  "MX": 15523,
  "MZ": 6415,
  "Ma": 19243,
  "Mac": 5161,
  "MacF": 14802,
  "Mad": 13243,
  "Made": 7630,
  "MadeOFF": 12933,
  "Mae": 19275,
  "Mafia": 11762,
  "Mag": 1645,
  "Magazine": 4680,
  "Mah": 3351,
  "Mahon": 3568,
  "Mail": 19258,
  "Major": 9113,
  "Make": 4578,
  "Making": 10606,
  "Mal": 13241,
  "Mall": 19251,
  "Mama": 9752,
  "Man": 4855,
  "Mand": 11757,
  "Mang": 19261,
  "Mania": 6168,
  "Mann": 13245,
  "Manor": 14783,
  "Many": 3844,
  "Mar": 2065,
  "March": 12622,
  "Marco": 14464,
  "Mariano": 17389,
  "Marie": 14463,
  "Marilu": 6579,
  "Marin": 12621,
  "Marine": 6871,
  "Mark": 5347,
  "Marl": 15527,
  "Mart": 9111,
  "Martin": 9754,
  "Martinez": 18171,
  "Marx": 14462,
  "Mary": 19254,
  "Massive": 19264,
  "Master": 13249,
  "Matt": 4085,
  "MattGinellaGC": 14715,
  "Matthew": 10346,
  "Max": 19257,
  "May": 4167,
  "Maybe": 7581,
  "Mayer": 9114,
  "Mayor": 17754,
  "Mayweather": 12788,
  "Maz": 19253,
  "Mc": 1775,
  "McC": 9516,
  "McCall": 9517,
  "McDowell": 14425,
  "McEl": 17347,
  "McL": 14424,
  "McMahon": 4146,
  "McN": 12590,
  "McNall": 18413,
  "McV": 17346,
  "Md": 19244,
  "Me": 4720,
  "Med": 13242,
  "Media": 11760,
  "Mediate": 18443,
  "Meet": 17808,
  "Meg": 9112,
  "Megrahi": 12983,
  "Meier": 17809,
  "Mel": 5346,
  "Melania": 9645,
  "Melissa": 14809,
  "Mem": 19252,
  "Memorial": 19271,
  "Men": 10605,
  "Mend": 15526,
  "MendezNV": 18567,
  "Menz": 19270,
  "Mer": 11754,
  "Merry": 13250,
  "Message": 15534,
  "Met": 19248,
  "Mexic": 7631,
  "Mexico": 8484,
  "Miami": 8082,
  "Mic": 15524,
  "Mich": 19255,
  "Michael": 5004,
  "Michaels": 14794,
  "Michele": 13253,
  "Michelle": 9115,
  "Mid": 4721,
  "Midas": 6386,
  "Middle": 15532,
  "Midler": 12824,
  "Mike": 2257,
  "MikeH": 12642,
  "MikeHuckabee": 15221,
  "Mil": 19249,
  "Mill": 11756,
  "Miller": 3249,
  "Million": 19259,
  "Millions": 13251,
  "Minister": 10608,
  "Mir": 11758,
  "Miss": 3990,
  "MissUSA": 12774,
  "Mister": 9751,
  "Mitch": 9753,
  "Mitchell": 19279,
  "Mitt": 4168,
  "MittRomney": 6913,
  "Mj": 19245,
  "Ml": 19246,
  "Mo": 7629,
  "Mock": 19262,
  "Mod": 13244,
  "Moe": 19268,
  "Mogul": 19272,
  "Mom": 11755,
  "Mon": 4854,
  "Monday": 10377,
  "Money": 6167,
  "Monitor": 17830,
  "Monster": 9633,
  "Mont": 19250,
  "Moon": 19269,
  "Moore": 3250,
  "MooreRev": 17624,
  "MooreReva": 18738,
  "Mor": 4269,
  "Morales": 19276,
  "More": 4856,
  "Morgan": 6132,
  "Morning": 17765,
  "Moss": 15528,
  "Most": 6947,
  "Mot": 19247,
  "Mov": 13246,
  "Move": 19256,
  "Movie": 18444,
  "Mow": 15525,
  "Mr": 4355,
  "Mrs": 19266,
  "Ms": 10604,
  "Much": 11759,
  "Mull": 13247,
  "Mun": 8548,
  "Murray": 11761,
  "Music": 10607,
  "Must": 3989,
  "My": 788,
  "N": 51,
  "NAE": 19303,
  "NALD": 19290,
  "NBA": 19295,
  "NBC": 666,
  "NC": 2326,
  "NCE": 17446,
  "ND": 2972,
  "NED": 19289,
  "NESS": 11765,
  "NEST": 15543,
  "NEW": 19297,
  "NEWS": 19301,
  "NEY": 19298,
  "NH": 19280,
  "NI": 7632,
  "NMENT": 19299,
  "NN": 1945,
  "NO": 13254,
  "NOT": 6948,
  "NOW": 10610,
  "NR": 11763,
  "NT": 6416,
  "NV": 11764,
  "NY": 1405,
  "NYC": 4329,
  "NYMag": 10221,
  "NZ": 19281,
  "Name": 19286,
  "Nast": 9116,
  "Nasty": 15545,
  "Nathalie": 10611,
  "NathalieS": 11640,
  "Nation": 7635,
  "National": 6169,
  "Nature": 15541,
  "Nautilus": 19302,
  "Nav": 15539,
  "Nch": 15538,
  "Nchin": 18569,
  "Ne": 4722,
  "Neal": 19285,
  "NeanderthalMan": 17811,
  "Need": 15544,
  "Negotiation": 6170,
  "Neil": 17810,
  "Nelson": 19293,
  "Nene": 19291,
  "Net": 15537,
  "Nets": 19288,
  "Never": 5005,
  "New": 1877,
  "NewYork": 2886,
  "NewYorkGOP": 17558,
  "Newly": 14442,
  "Newman": 14443,
  "News": 1004,
  "Newsmax": 17066,
  "Next": 9009,
  "Nic": 13255,
  "Nice": 7280,
  "Nichol": 19294,
  "Nicholas": 19296,
  "Nick": 10609,
  "Nielsen": 15546,
  "Night": 7634,
  "Niles": 19292,
  "Nima": 19300,
  "No": 2470,
  "Nobody": 9756,
  "Noc": 15540,
  "Nol": 19283,
  "Nor": 7633,
  "Norman": 9117,
  "Nort": 19284,
  "North": 9755,
  "Not": 3701,
  "Nothing": 17691,
  "Now": 2281,
  "Numbers": 15542,
  "Nune": 19287,
  "Ny": 19282,
  "O": 52,
  "OB": 3702,
  "OBAL": 4703,
  "OC": 3908,
  "OCK": 6908,
  "OD": 3403,
  "ODAY": 11406,
  "ODonnell": 19313,
  "OF": 2851,
  "OFF": 6114,
  "OFFICIAL": 7601,
  "OFT": 17550,
  "OG": 11766,
  "OK": 10612,
  "OKeefe": 15115,
  "OL": 2651,
  "OLD": 14540,
  "OLOMONNI": 8938,
  "OM": 2386,
  "OME": 4428,
  "OMONNI": 8925,
  "OMPET": 19315,
  "ON": 1108,
  "ONE": 12487,
  "ONFOX": 17111,
  "ONG": 4670,
  "ONNI": 8863,
  "OO": 11767,
  "OOL": 19310,
  "OP": 1036,
  "OPE": 7129,
  "OPEC": 8857,
  "OR": 1271,
  "ORE": 7871,
  "ORK": 14306,
  "ORT": 5530,
  "ORY": 9482,
  "OS": 13256,
  "OSA": 3768,
  "OST": 9759,
  "OT": 1197,
  "OTAL": 7857,
  "OTE": 7487,
  "OTS": 17157,
  "OTT": 14287,
  "OTUS": 2401,
  "OU": 1227,
  "OUD": 12515,
  "OUGH": 14295,
  "OULD": 6553,
  "OUR": 7489,
  "OUS": 8083,
  "OUT": 11191,
  "OV": 15547,
  "OW": 2140,
  "OWER": 11293,
  "OWN": 9543,
  "OX": 5162,
  "OY": 5163,
  "OYA": 17856,
  "Oak": 11769,
  "Oakland": 18344,
  "Oap": 19308,
  "Ob": 13257,
  "Obam": 3404,
  "Obama": 506,
  "ObamaCare": 3161,
  "Obamacare": 10319,
  "Obamas": 3897,
  "Obs": 8084,
  "Oct": 19307,
  "Odd": 11771,
  "Of": 5604,
  "OfGreen": 17891,
  "OfThe": 17890,
  "Off": 4169,
  "Offering": 12789,
  "Office": 17755,
  "Official": 7979,
  "Offshore": 17756,
  "Og": 15548,
  "Oh": 9757,
  "Oil": 9118,
  "Ok": 19304,
  "Okeef": 19316,
  "Ol": 13258,
  "Old": 19306,
  "Ole": 15549,
  "Olson": 18445,
  "Olympic": 15552,
  "Omarosa": 19311,
  "On": 1916,
  "OnTrack": 7911,
  "Once": 5605,
  "One": 3571,
  "Online": 6574,
  "Only": 5899,
  "Open": 5164,
  "Opening": 14803,
  "Oprah": 19312,
  "Opt": 19309,
  "Or": 11768,
  "Original": 18343,
  "Os": 19305,
  "Osc": 11770,
  "Oscar": 13073,
  "Osteen": 15551,
  "Other": 15550,
  "Our": 1747,
  "OurMarine": 7169,
  "Out": 9758,
  "Outrageous": 15072,
  "Over": 7636,
  "Owen": 19314,
  "P": 53,
  "PA": 4579,
  "PAC": 1776,
  "PAOLOMONNI": 9007,
  "PAR": 19329,
  "PCL": 19335,
  "PD": 6417,
  "PER": 15557,
  "PGA": 6419,
  "PIERPAOLOMONNI": 15565,
  "PL": 9119,
  "PM": 3769,
  "POL": 10615,
  "POLICE": 13037,
  "PORT": 8087,
  "POTUS": 19332,
  "PPORT": 15564,
  "PR": 6171,
  "PRE": 19331,
  "PRENTICE": 9658,
  "PT": 15553,
  "PV": 19317,
  "Pablo": 19338,
  "Pack": 19320,
  "Pacqu": 15566,
  "Page": 10613,
  "Pak": 19322,
  "Pal": 4723,
  "Palin": 6143,
  "Palm": 15558,
  "Pan": 13260,
  "Pants": 13267,
  "Pappas": 15570,
  "Par": 13261,
  "Park": 13265,
  "Parks": 15563,
  "Part": 6418,
  "Party": 11525,
  "Passion": 15561,
  "Pastor": 13268,
  "Pat": 5348,
  "Patch": 13264,
  "Pathetic": 12847,
  "Patrick": 12848,
  "Patt": 11774,
  "Patti": 18345,
  "Paul": 4086,
  "PaulCole": 14716,
  "Paula": 17744,
  "Pay": 13262,
  "Peace": 15562,
  "Pear": 15556,
  "Penn": 13266,
  "People": 3991,
  "Per": 4857,
  "Perez": 19341,
  "Perhaps": 11477,
  "Perry": 11775,
  "Personally": 15567,
  "Pervert": 10378,
  "Pet": 11772,
  "Pete": 19337,
  "Peter": 19330,
  "Pettitte": 15568,
  "Pfer": 19334,
  "Ph": 2710,
  "Phelp": 10616,
  "Phelps": 11641,
  "Phil": 9572,
  "Philly": 8940,
  "Phone": 6361,
  "Phot": 17532,
  "Photo": 12678,
  "Phq": 11345,
  "Piano": 15560,
  "Pick": 19324,
  "Pict": 19326,
  "Pig": 19319,
  "Piper": 19339,
  "Pl": 4356,
  "Plan": 12801,
  "Play": 17774,
  "Ple": 19318,
  "Please": 6949,
  "Point": 8086,
  "Pol": 9120,
  "Politicians": 19342,
  "Politics": 6950,
  "Poll": 10614,
  "Polls": 19336,
  "Pool": 19327,
  "Pop": 19321,
  "Port": 19323,
  "Porter": 15559,
  "Post": 3187,
  "Pot": 15554,
  "Poulter": 13270,
  "Pour": 15555,
  "Power": 11773,
  "Pr": 4445,
  "Practice": 19340,
  "Pre": 13259,
  "Prem": 19328,
  "Pres": 8085,
  "President": 1658,
  "Press": 6659,
  "Pretty": 13269,
  "Prez": 9121,
  "Pri": 13263,
  "Pride": 17779,
  "Priest": 18446,
  "Prime": 9627,
  "Priorities": 15571,
  "Pro": 3405,
  "Problems": 17653,
  "Prod": 19333,
  "Product": 17654,
  "PropP": 14647,
  "Proud": 12810,
  "Pruett": 15569,
  "Public": 19325,
  "Put": 6658,
  "Putin": 8464,
  "Q": 54,
  "QE": 19343,
  "QU": 9760,
  "Qu": 5953,
  "Que": 15572,
  "Queen": 18570,
  "Quint": 14840,
  "R": 55,
  "RA": 6172,
  "RAT": 13279,
  "RATION": 15583,
  "RATS": 18447,
  "RC": 13271,
  "RCap": 19381,
  "RComp": 19382,
  "RE": 2327,
  "REA": 1639,
  "REAT": 1774,
  "RED": 15580,
  "REE": 9549,
  "REPORT": 12646,
  "RESS": 19371,
  "REST": 19366,
  "RF": 19344,
  "RI": 5606,
  "RIS": 19363,
  "RIST": 14824,
  "RITY": 15585,
  "RL": 11776,
  "RN": 9761,
  "RO": 8550,
  "RONG": 7283,
  "ROW": 19364,
  "RS": 5954,
  "RSE": 19367,
  "RSPBScotland": 13281,
  "RSt": 5349,
  "RStorrie": 5936,
  "RT": 5955,
  "RU": 984,
  "RUDGE": 11141,
  "RUMP": 1157,
  "RUN": 14224,
  "RUSH": 17059,
  "RY": 6173,
  "Rab": 15577,
  "Rachel": 19384,
  "Racing": 19379,
  "Racist": 15589,
  "Radio": 7637,
  "Raff": 19365,
  "Rahm": 19368,
  "Raid": 19359,
  "Rain": 15575,
  "Raj": 19360,
  "Ralph": 15582,
  "Ram": 11777,
  "Ramb": 19374,
  "Ranc": 5350,
  "Rancic": 5592,
  "Rand": 19353,
  "Randy": 8554,
  "Rangers": 15587,
  "Rank": 19352,
  "Rap": 15576,
  "Rapper": 19385,
  "Rated": 13277,
  "Rather": 19362,
  "Ratings": 19378,
  "Raul": 19361,
  "Ray": 7282,
  "Re": 2163,
  "Reach": 17417,
  "Read": 5165,
  "Real": 1762,
  "RealK": 6098,
  "RealKiyosaki": 7238,
  "Reality": 12584,
  "RealityTV": 18412,
  "Realize": 12585,
  "Really": 7171,
  "Realty": 14421,
  "Reb": 11780,
  "Rec": 6174,
  "Receiving": 14863,
  "Reckless": 19386,
  "Record": 11517,
  "Red": 8552,
  "Reed": 14482,
  "Ref": 15578,
  "Reg": 19358,
  "Register": 5607,
  "Reid": 11295,
  "Reilly": 6109,
  "Rel": 13274,
  "Rell": 19357,
  "Remain": 15586,
  "Remember": 2282,
  "Rent": 19351,
  "Rep": 3093,
  "Report": 8397,
  "Republicans": 4432,
  "Res": 8551,
  "Resort": 4725,
  "Respect": 13280,
  "Rest": 19354,
  "Rev": 6421,
  "RevAl": 12885,
  "Reverend": 15588,
  "Review": 12634,
  "Rex": 15579,
  "Reynolds": 19388,
  "Rh": 13272,
  "Rice": 11779,
  "Rich": 5956,
  "Richards": 14841,
  "Rick": 4446,
  "RickSantorum": 11459,
  "Ricky": 17780,
  "Rico": 19380,
  "Ridd": 15581,
  "Rif": 19355,
  "Right": 10617,
  "Riley": 19372,
  "Rin": 19347,
  "Ring": 15573,
  "Rink": 9762,
  "Rises": 19369,
  "Rising": 10620,
  "Rivera": 3352,
  "Rivers": 2599,
  "Rlove": 19377,
  "Ro": 7281,
  "Road": 12924,
  "Rob": 3508,
  "Robert": 6374,
  "Roberts": 8977,
  "Rock": 8088,
  "Rod": 1891,
  "Rodriguez": 17368,
  "Rods": 14445,
  "Roger": 11782,
  "Roll": 19356,
  "Rolling": 19373,
  "Rom": 11778,
  "Rome": 15574,
  "Romney": 837,
  "RomneyCare": 14177,
  "Ron": 9122,
  "Ronald": 19348,
  "Roof": 19370,
  "Rory": 10619,
  "Ros": 13275,
  "Rose": 4087,
  "Roses": 19383,
  "Rosie": 8553,
  "Ross": 13278,
  "Rot": 19350,
  "Rove": 4724,
  "Row": 19349,
  "Roy": 10618,
  "Royce": 18282,
  "Ru": 19345,
  "Rucker": 19376,
  "Rules": 15584,
  "Rum": 13276,
  "Run": 6420,
  "Runner": 9036,
  "Rush": 11781,
  "Russ": 5351,
  "Russia": 6923,
  "RussiaE": 14907,
  "Russo": 19387,
  "Ruth": 19375,
  "Rx": 19346,
  "Ry": 13273,
  "Ryan": 3509,
  "S": 56,
  "SA": 2570,
  "SC": 7284,
  "SD": 13282,
  "SE": 3094,
  "SEC": 19402,
  "SER": 19399,
  "SG": 13283,
  "SH": 4447,
  "SHIP": 11460,
  "SHOCK": 14749,
  "SI": 19389,
  "SIDE": 19416,
  "SK": 13284,
  "SM": 10621,
  "SN": 15590,
  "SOFT": 19417,
  "SON": 10625,
  "SP": 3770,
  "SPB": 8988,
  "SPBScotland": 9709,
  "SS": 8089,
  "ST": 1440,
  "STER": 14358,
  "SU": 19390,
  "SV": 19391,
  "SWood": 13296,
  "SX": 9763,
  "Sacha": 19413,
  "Sad": 4727,
  "Sadly": 8438,
  "Saeed": 15603,
  "Sale": 19403,
  "Sall": 19395,
  "Salm": 19401,
  "Salmond": 2020,
  "Sam": 6175,
  "Samsung": 19414,
  "Sanchez": 11791,
  "Sand": 13287,
  "Sandy": 11789,
  "Sant": 3406,
  "Santorum": 3761,
  "Sapp": 19397,
  "Sar": 11783,
  "Saud": 19409,
  "Save": 19393,
  "Saw": 11785,
  "Sc": 2627,
  "Scary": 6359,
  "Scavino": 4976,
  "Sch": 8557,
  "School": 19404,
  "Schroed": 18121,
  "Scot": 1892,
  "Scotland": 2597,
  "Scott": 4685,
  "Scrug": 14534,
  "Scruggs": 15295,
  "Se": 9123,
  "Sea": 11790,
  "Seaisle": 15171,
  "Sean": 11788,
  "Search": 15602,
  "Seb": 15598,
  "Sec": 8090,
  "Secret": 18081,
  "See": 4170,
  "Seems": 14723,
  "Sein": 19405,
  "Sen": 7638,
  "Senate": 14947,
  "Sent": 15593,
  "Sentinel": 18572,
  "Ser": 9764,
  "Sergio": 19415,
  "Serious": 18219,
  "Set": 10624,
  "Seth": 15601,
  "Sex": 13291,
  "Sexual": 18449,
  "Sh": 1408,
  "Shah": 17226,
  "Shane": 17227,
  "Shark": 14348,
  "Sharp": 12541,
  "Shaun": 17229,
  "Shawn": 17228,
  "She": 4726,
  "Sher": 9766,
  "Sheriff": 12825,
  "Shes": 15599,
  "Shock": 14349,
  "Should": 11218,
  "Show": 2380,
  "Si": 10622,
  "Sick": 19396,
  "Sidd": 19406,
  "Sign": 15596,
  "Sil": 15595,
  "Sim": 9765,
  "SimoneNY": 18220,
  "Simpson": 10627,
  "Sin": 15591,
  "Since": 13290,
  "Sing": 15592,
  "Singh": 18571,
  "Sington": 19408,
  "Sir": 19394,
  "Sit": 13285,
  "Six": 15600,
  "Sixteen": 15116,
  "Sk": 19392,
  "Sky": 13294,
  "Slam": 19410,
  "Sleepy": 9768,
  "Slo": 13292,
  "Sm": 8555,
  "Smart": 19407,
  "Smit": 13293,
  "Smith": 9767,
  "Sn": 8556,
  "Snow": 13288,
  "Snowden": 8091,
  "Snurk": 12964,
  "So": 2471,
  "Soc": 11787,
  "Social": 15170,
  "Some": 4270,
  "Someone": 12797,
  "Something": 19412,
  "Sometimes": 5608,
  "Sonny": 15604,
  "Sorry": 5167,
  "South": 10626,
  "Sox": 13289,
  "Sp": 1777,
  "Spe": 12591,
  "Spec": 3755,
  "Spencer": 13297,
  "Spent": 17348,
  "Spieth": 17349,
  "Spitzer": 11263,
  "Sports": 5116,
  "St": 960,
  "Stack": 14213,
  "StackStacy": 18516,
  "Stacy": 17053,
  "Star": 2043,
  "Stars": 9448,
  "State": 7835,
  "States": 8307,
  "Statesman": 9064,
  "Stay": 14212,
  "Steel": 14217,
  "Step": 17052,
  "Stephan": 14219,
  "Stephen": 11140,
  "Ster": 15594,
  "Stern": 3909,
  "Steve": 11139,
  "Steven": 7836,
  "Stewart": 14216,
  "Still": 8847,
  "Stock": 11138,
  "Stocks": 18318,
  "Stone": 12458,
  "Stop": 8848,
  "Strong": 14214,
  "Stuart": 14218,
  "Stupid": 14215,
  "Su": 2652,
  "Success": 3087,
  "Successful": 12715,
  "Such": 11786,
  "Sug": 15597,
  "Sugar": 2937,
  "Sum": 11784,
  "Summer": 13295,
  "Summit": 15169,
  "Sun": 6422,
  "Sunday": 8456,
  "Sup": 19400,
  "Super": 11338,
  "Sur": 7639,
  "Sure": 19398,
  "Surprise": 12934,
  "Susan": 19411,
  "Sut": 13286,
  "Sutton": 18448,
  "Sw": 5166,
  "Swede": 17858,
  "SweepsTweet": 17857,
  "Sy": 10623,
  "Syria": 18283,
  "T": 57,
  "TA": 15605,
  "TALK": 15617,
  "TAX": 19445,
  "TBT": 4729,
  "TDiva": 15620,
  "TELL": 19446,
  "TER": 8093,
  "TH": 3044,
  "THE": 6598,
  "THING": 9589,
  "THe": 10632,
  "TIME": 15613,
  "TION": 15611,
  "TJ": 19418,
  "TMZ": 19441,
  "TMiller": 11796,
  "TN": 10628,
  "TO": 11792,
  "TON": 19433,
  "TR": 15606,
  "TRUMP": 5610,
  "TS": 11793,
  "TU": 7640,
  "TV": 3138,
  "TVBl": 8961,
  "TW": 19419,
  "TY": 13298,
  "Tack": 19423,
  "Take": 6423,
  "Taking": 19432,
  "Talent": 9125,
  "Talk": 9771,
  "Tango": 19443,
  "Tank": 13301,
  "Tant": 13303,
  "Tash": 19434,
  "Tator": 19437,
  "Taylor": 11797,
  "Te": 3910,
  "Tea": 8417,
  "Team": 12768,
  "Tech": 17724,
  "Ted": 8092,
  "Tee": 19426,
  "TeenUSA": 12769,
  "Telegraph": 19449,
  "Tell": 11795,
  "Ter": 6176,
  "Terrible": 9029,
  "Tew": 15608,
  "Tex": 13306,
  "Texas": 18450,
  "Th": 755,
  "Thank": 2378,
  "Thanks": 1268,
  "That": 4932,
  "Thats": 16954,
  "The": 484,
  "TheB": 16749,
  "TheD": 7421,
  "TheDeal": 9684,
  "TheDonald": 11030,
  "TheElections": 6277,
  "TheReal": 14011,
  "TheRock": 16751,
  "TheTea": 14012,
  "Then": 12291,
  "There": 2989,
  "Theres": 16750,
  "These": 12292,
  "They": 4227,
  "Things": 15618,
  "Think": 3949,
  "Third": 16953,
  "This": 2235,
  "Thom": 12417,
  "Thomas": 7453,
  "Those": 14155,
  "Thought": 14156,
  "Thousands": 14157,
  "Thursday": 16955,
  "Thx": 12416,
  "Tick": 9124,
  "Tickets": 15029,
  "Tide": 19429,
  "Tier": 13305,
  "Ties": 19428,
  "Tiffany": 15614,
  "Tiger": 9773,
  "Tiggy": 19450,
  "Tild": 19430,
  "Tillis": 13308,
  "Tim": 7642,
  "Time": 4728,
  "TimeToGetTough": 14774,
  "Times": 5352,
  "Tina": 10630,
  "Tir": 19422,
  "Tit": 19421,
  "To": 1088,
  "ToGet": 1652,
  "ToGetTough": 1667,
  "Today": 2839,
  "Todd": 19440,
  "Tom": 3572,
  "Tomorrow": 4984,
  "Tone": 19427,
  "Tonight": 5609,
  "Tony": 9772,
  "Too": 10629,
  "Top": 19425,
  "Tor": 13300,
  "Toronto": 15610,
  "Tot": 15607,
  "Touch": 10631,
  "Tough": 1632,
  "Tour": 9770,
  "Toure": 15612,
  "Tourism": 18222,
  "Tout": 19424,
  "Tova": 15615,
  "Towery": 19448,
  "Town": 19431,
  "Toya": 15616,
  "Tr": 2711,
  "Tra": 13304,
  "Trace": 17533,
  "Track": 7554,
  "Trap": 19444,
  "Travel": 7934,
  "Traveler": 11347,
  "Travis": 19442,
  "Tre": 13299,
  "Tremendous": 15609,
  "Trend": 19439,
  "Trillion": 11346,
  "Troll": 19438,
  "True": 4171,
  "Trump": 309,
  "TrumpAdvice": 9916,
  "TrumpCollection": 16177,
  "TrumpDoral": 13653,
  "TrumpLasVegas": 16176,
  "TrumpT": 9255,
  "TrumpTower": 18181,
  "TrumpTuesday": 18182,
  "TrumpV": 5027,
  "TrumpVine": 9639,
  "TrumpVlog": 7228,
  "Trumps": 12031,
  "Trunk": 19447,
  "Trust": 9774,
  "Truth": 15619,
  "Try": 11794,
  "Tube": 7643,
  "Tuesday": 19436,
  "Tune": 7285,
  "Tur": 9769,
  "Turkey": 18221,
  "Turnberry": 19435,
  "Turner": 13307,
  "Tut": 13302,
  "Tw": 7641,
  "Tweet": 4172,
  "Tweets": 12790,
  "Two": 12935,
  "Tx": 19420,
  "Tyler": 10633,
  "U": 58,
  "UARY": 19456,
  "UB": 11798,
  "UBL": 15625,
  "UC": 8558,
  "UD": 15621,
  "UE": 15622,
  "UG": 19451,
  "UGH": 19457,
  "UK": 9775,
  "UL": 5168,
  "ULOUS": 17859,
  "UM": 5169,
  "UMB": 9017,
  "UMM": 17860,
  "UMP": 13310,
  "UN": 2600,
  "UND": 17508,
  "UP": 11799,
  "UPID": 18346,
  "UR": 3703,
  "URE": 11801,
  "URU": 19453,
  "URY": 9607,
  "US": 1012,
  "USA": 2044,
  "USIVE": 11146,
  "USMC": 11145,
  "UST": 3958,
  "UT": 2973,
  "UV": 15623,
  "Uasshole": 13311,
  "Ufar": 19454,
  "Ugly": 19455,
  "Uh": 19452,
  "Ultim": 15626,
  "Un": 1804,
  "Und": 11800,
  "Undefined": 18347,
  "Under": 7286,
  "Understand": 18029,
  "Unemployment": 10634,
  "United": 7173,
  "Universe": 2357,
  "Up": 13309,
  "Ur": 5957,
  "Urciuoli": 6638,
  "Use": 15624,
  "V": 59,
  "VA": 11802,
  "VAL": 19464,
  "VBe": 19466,
  "VBeck": 19474,
  "VC": 5006,
  "VE": 1878,
  "VED": 19467,
  "VEN": 19465,
  "VER": 2653,
  "VES": 19462,
  "VEST": 13316,
  "VH": 19458,
  "VING": 13314,
  "VOTE": 19470,
  "VP": 3771,
  "VR": 11803,
  "Val": 15627,
  "Valm": 19463,
  "Van": 5958,
  "Vanity": 9027,
  "VanityFair": 15025,
  "Vattenfall": 19469,
  "Ve": 19459,
  "Vegas": 3353,
  "Vent": 19461,
  "Ver": 13313,
  "Vera": 19473,
  "Very": 4088,
  "Vi": 13312,
  "Via": 819,
  "Vict": 15629,
  "Video": 8559,
  "View": 9126,
  "Vince": 10635,
  "Vincent": 19472,
  "Viner": 19468,
  "Vir": 15628,
  "Virginia": 18573,
  "Vision": 15630,
  "Visit": 11804,
  "Visiting": 18348,
  "Vito": 19471,
  "Vivica": 4357,
  "Voice": 13315,
  "Von": 19460,
  "Vote": 6424,
  "W": 60,
  "WARD": 19493,
  "WATCH": 19494,
  "WAY": 9128,
  "WAYS": 9710,
  "WC": 15631,
  "WE": 1864,
  "WErickson": 8901,
  "WH": 8094,
  "WI": 19475,
  "WII": 7287,
  "WIII": 14924,
  "WLy": 13329,
  "WLykins": 15237,
  "WN": 19476,
  "WNY": 19486,
  "WO": 15632,
  "WOW": 13324,
  "WR": 19477,
  "WRONG": 19492,
  "WS": 4580,
  "WV": 13317,
  "WWE": 19488,
  "Wacha": 19495,
  "Wake": 19484,
  "Wal": 5959,
  "Walker": 8561,
  "Wall": 8560,
  "Wallace": 10479,
  "Want": 13320,
  "War": 19480,
  "Ward": 19483,
  "Warner": 15643,
  "Was": 5612,
  "Washington": 9024,
  "Waste": 13326,
  "Wat": 19478,
  "Watch": 1826,
  "Watched": 15640,
  "Watching": 8899,
  "Water": 19487,
  "Watson": 19496,
  "Way": 11805,
  "We": 1116,
  "Weak": 11175,
  "Weakness": 15143,
  "Webb": 7480,
  "Wednesday": 19490,
  "Wee": 15635,
  "Week": 8097,
  "WeekABC": 10465,
  "Weekly": 18082,
  "Weiner": 6323,
  "Weiss": 17117,
  "Welcome": 6425,
  "Welfare": 19497,
  "Well": 15637,
  "Wells": 13327,
  "Were": 13323,
  "West": 5353,
  "Wh": 887,
  "What": 1704,
  "Whe": 9127,
  "When": 1961,
  "Where": 8095,
  "Wheres": 12984,
  "Whether": 7645,
  "Which": 8301,
  "While": 4134,
  "White": 7123,
  "Who": 3953,
  "Why": 1588,
  "Wig": 19481,
  "Wil": 13319,
  "Wild": 19485,
  "Will": 2421,
  "Williams": 7926,
  "Wilson": 11808,
  "Win": 5611,
  "Wind": 5007,
  "Windmills": 17843,
  "Wine": 13321,
  "Wing": 15634,
  "Winner": 15639,
  "Winners": 12859,
  "Winning": 11503,
  "Winston": 15641,
  "Wire": 15636,
  "Wise": 15638,
  "Wishing": 10637,
  "With": 1733,
  "Without": 7900,
  "Witty": 13328,
  "Wood": 10636,
  "Woods": 4448,
  "Wor": 19479,
  "Word": 13322,
  "Work": 7644,
  "World": 8096,
  "Worry": 19489,
  "Worst": 19491,
  "Would": 19482,
  "Wow": 2500,
  "Wr": 13318,
  "Wright": 13325,
  "Wron": 11807,
  "Wrong": 9776,
  "Wronowski": 13074,
  "Wur": 11806,
  "Wy": 15633,
  "Wynn": 15642,
  "X": 61,
  "XT": 11809,
  "Y": 62,
  "YES": 15646,
  "YMI": 6951,
  "YN": 19498,
  "YOU": 15647,
  "YR": 19499,
  "YS": 15644,
  "YWE": 19502,
  "Yalim": 13331,
  "Yankees": 15648,
  "Yash": 19501,
  "Yea": 15649,
  "Year": 15645,
  "Yes": 5960,
  "Yesterday": 5170,
  "Yet": 19500,
  "York": 2328,
  "You": 1365,
  "Young": 6850,
  "Your": 5613,
  "Youre": 17211,
  "Youth": 19503,
  "Yun": 13330,
  "Z": 63,
  "ZA": 19504,
  "ZATION": 19508,
  "ZERO": 19511,
  "ZWLykins": 15650,
  "Zane": 19507,
  "Zen": 9129,
  "Zero": 19509,
  "Zerv": 11810,
  "Zervs": 13075,
  "Ziering": 4449,
  "Zig": 19505,
  "Zimmerman": 19510,
  "Zol": 19506,
  "Zuker": 2472,
  "[": 64,
  "[UNK]": 5,
  "\\": 65,
  "]": 66,
  "^": 67,
  "_": 68,
  "_:": 2628,
  "__": 3095,
  "__:": 9130,
  "____": 11385,
  "`": 69,
  "a": 70,
  "aD": 7646,
  "aDianne": 18054,
  "aKennedy": 19518,
  "aL": 9777,
  "aLeigh": 19517,
  "aR": 19512,
  "aS": 15651,
  "aa": 4173,
  "aaaa": 14724,
  "aac": 10639,
  "aas": 13332,
  "aat": 6177,
  "aathewdavis": 7241,
  "aats": 9778,
  "ab": 809,
  "abama": 9131,
  "abe": 4799,
  "abel": 14166,
  "abeth": 14167,
  "abil": 16973,
  "ability": 4800,
  "able": 961,
  "ables": 10138,
  "ablish": 9429,
  "ablo": 10139,
  "ably": 8829,
  "abooo": 14168,
  "abor": 6305,
  "abrams": 12428,
  "abri": 6306,
  "abriel": 14874,
  "abs": 12427,
  "abulous": 3616,
  "aburu": 14169,
  "aby": 5858,
  "ac": 339,
  "acar": 12087,
  "acare": 2698,
  "acc": 3863,
  "ace": 721,
  "aceShow": 14151,
  "aced": 7728,
  "acent": 12088,
  "aces": 4027,
  "acey": 12410,
  "ach": 1000,
  "acha": 10160,
  "ache": 8691,
  "ached": 8693,
  "achel": 9954,
  "achelor": 15004,
  "acher": 5036,
  "aches": 5669,
  "achespull": 15005,
  "aching": 10861,
  "achmann": 9453,
  "aci": 16306,
  "acido": 12089,
  "acing": 7035,
  "acion": 13735,
  "acious": 4112,
  "acist": 13736,
  "acity": 8692,
  "ack": 401,
  "acked": 6748,
  "acking": 6747,
  "acko": 13896,
  "ackova": 13897,
  "acks": 8737,
  "ackson": 4779,
  "acle": 8211,
  "acqu": 10860,
  "acre": 16307,
  "act": 831,
  "action": 10144,
  "actions": 16983,
  "actor": 4133,
  "acts": 6021,
  "acusa": 16308,
  "acy": 2866,
  "ad": 352,
  "ada": 3057,
  "add": 7367,
  "addafi": 18040,
  "addy": 6026,
  "ade": 825,
  "aded": 4769,
  "adel": 6246,
  "adelph": 7604,
  "adem": 5400,
  "ademy": 7595,
  "aden": 4298,
  "ader": 9971,
  "ades": 3727,
  "adh": 12113,
  "adi": 16372,
  "adians": 13777,
  "adick": 16375,
  "adillac": 2824,
  "adine": 10882,
  "adinej": 13046,
  "ading": 5043,
  "adio": 3058,
  "adium": 9308,
  "ado": 5207,
  "adomen": 13778,
  "ador": 6484,
  "adore": 16374,
  "adow": 16373,
  "ads": 4210,
  "adv": 10881,
  "ady": 1295,
  "ae": 10638,
  "aeda": 5961,
  "aeed": 6954,
  "ael": 1490,
  "aele": 15654,
  "aell": 19515,
  "aes": 11811,
  "af": 2003,
  "afe": 14455,
  "afety": 12620,
  "aff": 2360,
  "afi": 12619,
  "afia": 10260,
  "afox": 17384,
  "after": 17383,
  "ag": 441,
  "aga": 10996,
  "again": 12255,
  "agan": 2953,
  "aganda": 16688,
  "agat": 16681,
  "agazine": 13963,
  "age": 723,
  "ageant": 2062,
  "aged": 6047,
  "agel": 4909,
  "agement": 5481,
  "ager": 3941,
  "agers": 16684,
  "ages": 4125,
  "aget": 16683,
  "agg": 13961,
  "agging": 13964,
  "agh": 7069,
  "agher": 16685,
  "aghmeh": 9676,
  "agination": 13965,
  "agine": 8763,
  "aging": 8762,
  "agious": 13962,
  "agle": 16682,
  "agles": 16687,
  "agn": 16680,
  "agne": 16686,
  "ago": 913,
  "agon": 10052,
  "ague": 3218,
  "ah": 820,
  "ahDan": 14173,
  "aha": 6787,
  "ahah": 11115,
  "ahandler": 16977,
  "aher": 4272,
  "ahia": 5515,
  "ahill": 9430,
  "ahl": 3815,
  "ahm": 3278,
  "ahn": 7826,
  "ahoma": 10143,
  "ahoo": 8832,
  "ahs": 14172,
  "ahu": 5859,
  "ai": 1805,
  "aid": 992,
  "aik": 3510,
  "aiken": 14656,
  "aikik": 3900,
  "aikiki": 4075,
  "ail": 874,
  "ailable": 3434,
  "ailed": 2119,
  "ailey": 13333,
  "ailing": 8299,
  "ails": 3816,
  "ailure": 9441,
  "aily": 1904,
  "ain": 533,
  "aine": 10085,
  "ains": 10086,
  "air": 1090,
  "aire": 2259,
  "aires": 14429,
  "airs": 8861,
  "ais": 15653,
  "aiser": 15657,
  "ait": 952,
  "aite": 19514,
  "aited": 17049,
  "aith": 4271,
  "aj": 1249,
  "ajor": 1504,
  "ak": 518,
  "ake": 522,
  "aked": 9388,
  "akedown": 18199,
  "aken": 3272,
  "aker": 3162,
  "akers": 5237,
  "akes": 1181,
  "aki": 4918,
  "aking": 924,
  "aks": 3737,
  "al": 268,
  "alMan": 15953,
  "ala": 5634,
  "alanc": 6211,
  "alas": 13503,
  "alasner": 18457,
  "ald": 2506,
  "aldwin": 4068,
  "ale": 1737,
  "aled": 6684,
  "alem": 8606,
  "alent": 1780,
  "ales": 8144,
  "alevans": 13506,
  "alex": 15952,
  "aley": 9191,
  "alf": 2941,
  "alian": 13504,
  "alid": 15950,
  "alie": 8146,
  "alified": 13505,
  "alim": 11931,
  "aling": 10746,
  "alition": 9855,
  "ality": 9190,
  "alk": 927,
  "alker": 4522,
  "alkin": 8837,
  "all": 531,
  "allas": 4230,
  "alle": 8145,
  "alled": 15951,
  "allen": 2097,
  "allenge": 5302,
  "allo": 14039,
  "allon": 4512,
  "alls": 7793,
  "allup": 8781,
  "ally": 805,
  "alm": 1171,
  "almart": 17147,
  "almedie": 17148,
  "almond": 1665,
  "alo": 3582,
  "alob": 4467,
  "alor": 9854,
  "alph": 4001,
  "als": 1376,
  "alse": 5635,
  "alth": 1534,
  "always": 10747,
  "aly": 8143,
  "alyst": 10748,
  "am": 330,
  "ama": 2512,
  "amaj": 16259,
  "amajerovsky": 18625,
  "amam": 16257,
  "aman": 16256,
  "amas": 6240,
  "amatic": 13699,
  "amayer": 16262,
  "amazing": 10839,
  "amb": 5033,
  "ambling": 11486,
  "ambo": 16261,
  "ame": 678,
  "amed": 2794,
  "ameful": 14137,
  "ament": 5660,
  "aments": 16260,
  "amer": 4025,
  "amera": 17739,
  "ameron": 7219,
  "ames": 1636,
  "ami": 8682,
  "amic": 7722,
  "amie": 6475,
  "amil": 16258,
  "amilton": 16263,
  "amily": 5034,
  "amin": 4612,
  "aminer": 8683,
  "aming": 6012,
  "amm": 6714,
  "ammond": 12899,
  "ammy": 12067,
  "amo": 16255,
  "amous": 9275,
  "amp": 681,
  "ampa": 1403,
  "ampaign": 10220,
  "ampanell": 7102,
  "ampanelli": 8473,
  "ampion": 1455,
  "ampions": 2271,
  "ampionship": 2541,
  "ample": 4659,
  "amples": 16923,
  "ams": 3366,
  "amsung": 10316,
  "amus": 13698,
  "an": 272,
  "anL": 8609,
  "anLalor": 10482,
  "ana": 6686,
  "anage": 15964,
  "anama": 4098,
  "anamas": 15968,
  "anc": 1206,
  "ance": 928,
  "anced": 12507,
  "ances": 5284,
  "anch": 11934,
  "anche": 7147,
  "anchez": 9677,
  "ancho": 15969,
  "ancial": 12508,
  "ancing": 12506,
  "ancou": 3621,
  "ancouver": 3902,
  "ancouvers": 14667,
  "ancy": 7858,
  "and": 390,
  "andBe": 16551,
  "andFreedom": 13887,
  "anda": 4305,
  "andat": 13885,
  "anded": 9346,
  "ander": 3269,
  "anderthalMan": 17630,
  "andfriends": 1019,
  "andi": 7394,
  "andid": 2414,
  "anding": 13886,
  "andler": 10961,
  "andon": 4390,
  "andoni": 14747,
  "andra": 16550,
  "andrew": 10960,
  "ands": 2393,
  "andy": 2581,
  "ane": 1851,
  "anell": 6984,
  "anes": 7678,
  "anese": 18059,
  "aney": 11935,
  "ang": 1110,
  "ange": 1292,
  "angel": 6836,
  "angelo": 11542,
  "angeorges": 14315,
  "anger": 2739,
  "angers": 10177,
  "ango": 7133,
  "angoRick": 14922,
  "anh": 2409,
  "anhannity": 3038,
  "anhatt": 7189,
  "ani": 3199,
  "ania": 2089,
  "aniatrump": 10310,
  "anie": 8610,
  "aniel": 7950,
  "aniels": 12725,
  "anies": 5019,
  "anim": 11933,
  "anish": 15965,
  "anity": 10750,
  "anja": 15967,
  "ank": 349,
  "ankatrump": 9305,
  "ankee": 5674,
  "ankees": 1897,
  "anks": 674,
  "ann": 815,
  "anna": 2880,
  "annabe": 16976,
  "annah": 4802,
  "annahuff": 6146,
  "annas": 10142,
  "anne": 7314,
  "anned": 7459,
  "annel": 3277,
  "anner": 16975,
  "anni": 11114,
  "annie": 14171,
  "annity": 2676,
  "annon": 8831,
  "anny": 1529,
  "ano": 5370,
  "anormal": 13516,
  "another": 15966,
  "anow": 13515,
  "ans": 600,
  "ansion": 12356,
  "anson": 8282,
  "ant": 448,
  "antRandy": 16703,
  "antage": 4040,
  "antastic": 1240,
  "antbaxter": 16702,
  "anted": 12266,
  "anth": 8261,
  "anthony": 18097,
  "anthrop": 14976,
  "anti": 10056,
  "antic": 13977,
  "antig": 13978,
  "antly": 4911,
  "anton": 11003,
  "ants": 1816,
  "anville": 2507,
  "any": 1207,
  "anyahu": 6550,
  "anyone": 17158,
  "anything": 5102,
  "aomi": 19519,
  "aos": 10640,
  "ap": 767,
  "apable": 10133,
  "ape": 3486,
  "aper": 3881,
  "apers": 6529,
  "aph": 12422,
  "aping": 16958,
  "apiro": 14159,
  "app": 661,
  "appas": 14132,
  "apped": 12391,
  "appen": 14131,
  "apper": 12390,
  "apping": 10117,
  "apple": 16913,
  "apprentice": 3641,
  "appy": 1226,
  "aps": 3382,
  "aq": 15652,
  "aqu": 19513,
  "aque": 19516,
  "ar": 293,
  "ara": 3054,
  "arack": 538,
  "arackObama": 556,
  "arak": 8179,
  "aralle": 10789,
  "arant": 5191,
  "arb": 2108,
  "arbage": 3892,
  "arbon": 8913,
  "arbor": 12628,
  "arc": 9233,
  "arcl": 6225,
  "arcliff": 7603,
  "arct": 16098,
  "ard": 474,
  "ardash": 14004,
  "ardashian": 18503,
  "arden": 7075,
  "ardenasACU": 18019,
  "ardi": 4397,
  "arding": 6273,
  "ardner": 11025,
  "ardo": 10062,
  "ardro": 11024,
  "ardrobe": 18311,
  "ardroeper": 18312,
  "ards": 3158,
  "ardym": 14005,
  "ardymilne": 15275,
  "are": 529,
  "ared": 2269,
  "arek": 12312,
  "arel": 16786,
  "arelli": 16788,
  "arely": 16787,
  "aren": 5425,
  "arency": 8002,
  "arent": 3301,
  "arently": 12731,
  "ares": 6952,
  "aret": 8779,
  "arge": 13612,
  "ari": 8644,
  "aries": 6462,
  "arily": 6701,
  "arin": 7005,
  "aring": 3055,
  "ario": 11990,
  "arious": 8180,
  "arison": 16103,
  "arity": 9234,
  "ariz": 13613,
  "arizona": 15246,
  "ark": 750,
  "arker": 16951,
  "arkhani": 14153,
  "arkov": 12414,
  "arks": 7108,
  "arl": 1126,
  "arlane": 17121,
  "arlene": 17122,
  "arling": 14264,
  "arm": 5999,
  "arma": 16101,
  "armstrong": 8646,
  "arn": 1506,
  "arner": 8645,
  "arning": 9895,
  "arns": 12551,
  "aro": 10788,
  "aron": 4753,
  "aros": 13611,
  "around": 16099,
  "arp": 2981,
  "arr": 2789,
  "arrass": 4430,
  "array": 16102,
  "arrett": 9235,
  "arris": 16100,
  "arron": 8944,
  "arrow": 11989,
  "arry": 2197,
  "ars": 1199,
  "arsen": 14288,
  "art": 491,
  "arten": 10070,
  "arter": 3144,
  "arth": 8178,
  "arther": 11036,
  "artin": 4914,
  "artist": 14020,
  "artment": 11037,
  "arton": 4788,
  "arts": 10069,
  "arty": 14019,
  "ary": 673,
  "arz": 6461,
  "arzai": 10422,
  "as": 304,
  "asACU": 16167,
  "asc": 6467,
  "ascal": 10803,
  "ascin": 8018,
  "ascinating": 8490,
  "ase": 615,
  "aseball": 5077,
  "ased": 1482,
  "asellsn": 16871,
  "asellsnj": 18695,
  "ases": 3145,
  "asey": 12365,
  "ash": 1603,
  "ashback": 7163,
  "ashed": 13644,
  "ashes": 12027,
  "ashing": 13643,
  "ashion": 6091,
  "asicing": 16166,
  "asing": 4014,
  "asion": 7014,
  "ask": 3859,
  "aska": 11428,
  "asket": 8990,
  "aski": 16165,
  "askill": 17719,
  "asm": 12026,
  "aso": 13642,
  "ason": 781,
  "asota": 6003,
  "ass": 639,
  "asser": 16895,
  "assess": 16896,
  "asshole": 12380,
  "assidy": 8811,
  "assies": 8286,
  "assim": 14120,
  "assion": 5708,
  "assionate": 9652,
  "assive": 2234,
  "asso": 9414,
  "assy": 3945,
  "ast": 459,
  "aste": 4311,
  "asted": 13997,
  "aster": 1152,
  "astic": 1180,
  "asting": 6271,
  "astor": 5230,
  "asts": 7779,
  "asty": 5067,
  "asure": 2823,
  "asy": 7339,
  "at": 274,
  "atal": 4369,
  "atalie": 10359,
  "atan": 15981,
  "atch": 626,
  "atched": 2751,
  "ate": 447,
  "ated": 934,
  "ateful": 9373,
  "ately": 1593,
  "aten": 10755,
  "ateo": 13976,
  "ater": 1660,
  "aters": 1918,
  "ates": 1015,
  "ateur": 8765,
  "ateurs": 16701,
  "atever": 4309,
  "atew": 6986,
  "ateway": 8026,
  "ath": 1273,
  "athalie": 8875,
  "athan": 5104,
  "athe": 13521,
  "ather": 1431,
  "atherine": 5532,
  "athon": 14307,
  "athy": 5287,
  "ati": 10754,
  "atic": 4187,
  "atics": 15982,
  "atin": 6687,
  "ating": 1339,
  "atings": 6688,
  "ation": 465,
  "ationIde": 16728,
  "ational": 768,
  "ationary": 16727,
  "ations": 765,
  "atis": 9860,
  "ative": 1680,
  "atives": 5636,
  "atlin": 10757,
  "atlo": 15983,
  "atloaf": 18591,
  "ato": 7680,
  "aton": 7681,
  "ator": 2167,
  "ators": 4868,
  "atory": 8614,
  "atrump": 5987,
  "ats": 2632,
  "atsBen": 14535,
  "atson": 10756,
  "atsuno": 17515,
  "att": 982,
  "atten": 4806,
  "attenfall": 5332,
  "atter": 2692,
  "attering": 17525,
  "atty": 14222,
  "atur": 2661,
  "ature": 1866,
  "atures": 9861,
  "au": 2892,
  "auH": 17561,
  "aucus": 9582,
  "aud": 3573,
  "audia": 17679,
  "auer": 8948,
  "aug": 1149,
  "augh": 2840,
  "aughing": 17135,
  "aught": 3751,
  "aughter": 3979,
  "augural": 17136,
  "aul": 1366,
  "ault": 4949,
  "aults": 9486,
  "auly": 17562,
  "aum": 6660,
  "aumontAnthony": 7251,
  "aun": 6953,
  "aunt": 7647,
  "aup": 15655,
  "aur": 2258,
  "ause": 895,
  "austin": 15658,
  "aut": 926,
  "autiful": 3745,
  "autilus": 14200,
  "auty": 9445,
  "aux": 15656,
  "av": 565,
  "ava": 16836,
  "avage": 12341,
  "ave": 391,
  "aved": 16837,
  "avel": 2582,
  "aveler": 7763,
  "aven": 4046,
  "aver": 8098,
  "aves": 6291,
  "avez": 10962,
  "avid": 1417,
  "avin": 10102,
  "aving": 1373,
  "avino": 4652,
  "avior": 9398,
  "avis": 4045,
  "avor": 6290,
  "avors": 16838,
  "avs": 8279,
  "avuto": 4232,
  "avy": 3481,
  "avyblog": 14654,
  "aw": 654,
  "awa": 11091,
  "awatson": 16910,
  "away": 7813,
  "aways": 12386,
  "awilliams": 12387,
  "awire": 1887,
  "awk": 2016,
  "awless": 16908,
  "awn": 3879,
  "awna": 16909,
  "awnaTova": 18698,
  "ax": 829,
  "axelrod": 6308,
  "axter": 5271,
  "ay": 329,
  "ayZen": 13696,
  "ayaiken": 16254,
  "ayed": 5659,
  "ayer": 3020,
  "ayers": 3595,
  "aying": 4024,
  "aylor": 6239,
  "ayn": 13695,
  "ays": 617,
  "ayson": 16874,
  "ayvon": 13697,
  "az": 609,
  "aza": 6296,
  "azard": 12360,
  "aze": 5074,
  "azeb": 8283,
  "azebag": 8497,
  "azi": 2618,
  "azine": 1787,
  "azing": 834,
  "azon": 8800,
  "azy": 6778,
  "azz": 14098,
  "b": 71,
  "bA": 19520,
  "ba": 6955,
  "bab": 2712,
  "bably": 3088,
  "baby": 14547,
  "back": 2164,
  "bad": 6427,
  "bag": 15663,
  "bahia": 11821,
  "bailey": 12908,
  "baker": 19546,
  "bal": 10642,
  "balanc": 11822,
  "balancing": 13076,
  "baldwin": 13343,
  "ball": 1946,
  "balon": 18284,
  "bam": 372,
  "bama": 383,
  "ban": 10643,
  "band": 5171,
  "bands": 19540,
  "bany": 13341,
  "bar": 8100,
  "barb": 19536,
  "barn": 10646,
  "barrel": 12945,
  "bart": 2601,
  "base": 19533,
  "basket": 19552,
  "bass": 6661,
  "bassador": 7252,
  "bat": 7648,
  "batley": 14948,
  "bats": 19544,
  "baugh": 7288,
  "baxter": 5962,
  "baylor": 19549,
  "baz": 19532,
  "bb": 2654,
  "bby": 10647,
  "bc": 1668,
  "be": 1336,
  "beach": 12532,
  "bean": 17203,
  "bear": 13338,
  "beast": 17205,
  "beat": 6848,
  "beats": 14338,
  "beautiful": 14339,
  "bec": 11814,
  "because": 11819,
  "beck": 10650,
  "bed": 11812,
  "bee": 13337,
  "before": 17206,
  "being": 17204,
  "bel": 4450,
  "believable": 6619,
  "bell": 15665,
  "belle": 19553,
  "bells": 15677,
  "bellskp": 18574,
  "belt": 15676,
  "ber": 569,
  "berdeen": 2134,
  "berg": 2919,
  "berly": 16840,
  "berry": 1974,
  "bert": 2377,
  "bes": 2747,
  "best": 6179,
  "bet": 19528,
  "bett": 15673,
  "better": 13344,
  "bf": 19521,
  "bi": 19522,
  "bics": 19541,
  "bie": 6180,
  "big": 6178,
  "bij": 19550,
  "bill": 9132,
  "billionaire": 19539,
  "billions": 19537,
  "billmaher": 10499,
  "bin": 19526,
  "bing": 13335,
  "bir": 19529,
  "birth": 11816,
  "birthday": 15669,
  "bis": 19527,
  "bishop": 15678,
  "bit": 8099,
  "bitz": 19547,
  "biz": 13339,
  "bk": 15659,
  "bl": 2422,
  "black": 17473,
  "blah": 17475,
  "blake": 14508,
  "ble": 516,
  "blem": 11048,
  "blems": 8777,
  "bles": 15670,
  "blitzer": 11319,
  "blog": 11817,
  "blower": 17474,
  "blue": 11318,
  "bn": 19523,
  "bo": 2778,
  "boWoods": 14556,
  "board": 9576,
  "boarding": 12682,
  "bod": 15664,
  "body": 1947,
  "boi": 12681,
  "bola": 1792,
  "bolling": 8102,
  "bomb": 19542,
  "bon": 10641,
  "bone": 19530,
  "bong": 19531,
  "bons": 3139,
  "book": 4273,
  "boot": 19538,
  "bor": 6956,
  "boring": 10648,
  "born": 15672,
  "bors": 15667,
  "boss": 8563,
  "both": 13342,
  "bound": 19534,
  "bour": 15662,
  "bow": 9779,
  "bowl": 11820,
  "box": 10645,
  "boy": 3407,
  "boys": 17655,
  "bp": 19524,
  "bpost": 15675,
  "br": 2893,
  "brad": 11367,
  "branson": 14578,
  "bras": 17563,
  "bre": 6426,
  "break": 12886,
  "breaking": 11526,
  "bren": 6957,
  "brenner": 8469,
  "brian": 19543,
  "bright": 17564,
  "brilliant": 14577,
  "bring": 10649,
  "brity": 8101,
  "bro": 11813,
  "brody": 19551,
  "brown": 8564,
  "bru": 15660,
  "brun": 19548,
  "bs": 1205,
  "bst": 13336,
  "bt": 19525,
  "bu": 13334,
  "bug": 11815,
  "build": 11818,
  "bul": 9133,
  "bull": 15666,
  "bunch": 19545,
  "bur": 4730,
  "burg": 9010,
  "burn": 13340,
  "burse": 17812,
  "burton": 17813,
  "bury": 19535,
  "bus": 15661,
  "bush": 15671,
  "business": 8562,
  "bust": 10644,
  "busters": 11642,
  "but": 1734,
  "buy": 15674,
  "by": 1905,
  "bys": 15668,
  "c": 72,
  "ca": 3704,
  "cab": 19565,
  "cahn": 8104,
  "cakes": 19569,
  "cal": 2361,
  "call": 10654,
  "called": 7537,
  "calls": 15692,
  "calm": 13350,
  "cam": 19555,
  "can": 4451,
  "cand": 19557,
  "cap": 13349,
  "car": 6428,
  "care": 3302,
  "carl": 10656,
  "carolla": 17957,
  "carr": 13351,
  "cars": 19570,
  "carter": 15690,
  "cas": 6429,
  "case": 8567,
  "casing": 19577,
  "casm": 14877,
  "casselljr": 8457,
  "cassidy": 13352,
  "cast": 3189,
  "cat": 8565,
  "caves": 19579,
  "cavuto": 19578,
  "cb": 13345,
  "cc": 597,
  "cceed": 3096,
  "ccess": 724,
  "cci": 7805,
  "cco": 11074,
  "cd": 13346,
  "ce": 442,
  "cean": 3869,
  "ced": 1872,
  "cedent": 10249,
  "cedented": 15102,
  "ceed": 2829,
  "ceiling": 16689,
  "ceived": 12257,
  "cel": 6181,
  "cele": 12256,
  "celebrity": 18387,
  "celed": 10053,
  "cell": 1994,
  "cent": 5172,
  "centration": 14804,
  "cept": 1756,
  "ception": 11259,
  "cepts": 13966,
  "cer": 3188,
  "cern": 19568,
  "cers": 19558,
  "ces": 2100,
  "cess": 8103,
  "cf": 7649,
  "cgirl": 9781,
  "ch": 380,
  "chain": 10016,
  "champ": 8729,
  "chan": 10947,
  "change": 6741,
  "chanical": 15130,
  "char": 13858,
  "charl": 13860,
  "che": 3511,
  "check": 9134,
  "ched": 2260,
  "chen": 8566,
  "cher": 5009,
  "ches": 4358,
  "chess": 14738,
  "chester": 7569,
  "chicago": 13859,
  "chick": 10948,
  "chie": 3469,
  "chief": 16516,
  "chieffer": 14652,
  "chieve": 3425,
  "chievers": 4699,
  "child": 12178,
  "chise": 9334,
  "chit": 3665,
  "chitect": 3838,
  "chn": 5215,
  "chne": 1716,
  "chneider": 1761,
  "chneiderman": 1889,
  "chneidermans": 9512,
  "cho": 8728,
  "chool": 2429,
  "chow": 16515,
  "chris": 4388,
  "christ": 13861,
  "ci": 1906,
  "cia": 19560,
  "ciak": 19581,
  "cial": 2571,
  "cibility": 15689,
  "cience": 14448,
  "ciety": 8368,
  "cify": 15691,
  "cil": 5963,
  "cillo": 19580,
  "cing": 3911,
  "cio": 19567,
  "cious": 8568,
  "cip": 11824,
  "cis": 11823,
  "cise": 7289,
  "cises": 19576,
  "cited": 4731,
  "citing": 19573,
  "city": 15682,
  "ciuoli": 6573,
  "cj": 15679,
  "ck": 527,
  "ckay": 12311,
  "ckaycoppins": 15204,
  "cl": 1688,
  "clar": 17320,
  "clark": 17322,
  "class": 7897,
  "cle": 5008,
  "climate": 11249,
  "clock": 7898,
  "cloverc": 17323,
  "club": 17321,
  "clusive": 8355,
  "cnn": 11827,
  "co": 1598,
  "coat": 17297,
  "cock": 15688,
  "cody": 19571,
  "cog": 19566,
  "col": 6662,
  "colin": 17977,
  "coll": 10655,
  "collection": 19575,
  "colm": 14890,
  "com": 1327,
  "come": 2602,
  "comfort": 12531,
  "coming": 3285,
  "comm": 2805,
  "comp": 6333,
  "compet": 8016,
  "con": 878,
  "conceived": 17014,
  "cond": 19563,
  "conedison": 14193,
  "congrat": 11825,
  "congratulations": 15172,
  "congress": 19572,
  "conn": 9443,
  "conom": 997,
  "conomic": 7838,
  "conomicClub": 14960,
  "cons": 4803,
  "conservative": 12831,
  "consin": 8439,
  "cont": 657,
  "cook": 10653,
  "cool": 11826,
  "coppins": 14393,
  "cor": 10652,
  "cord": 15685,
  "corn": 10657,
  "corub": 9501,
  "corubio": 9718,
  "cos": 7650,
  "cost": 19561,
  "cot": 747,
  "cott": 3329,
  "cotto": 12734,
  "could": 15681,
  "count": 15684,
  "country": 15693,
  "cour": 6958,
  "cous": 19562,
  "cover": 14392,
  "covery": 6564,
  "cow": 3912,
  "cox": 15686,
  "cr": 10651,
  "cra": 4452,
  "craft": 10363,
  "crazy": 14750,
  "creat": 19556,
  "cri": 3845,
  "cripts": 7973,
  "cross": 10658,
  "crow": 9780,
  "cruz": 11828,
  "cry": 19559,
  "cs": 13347,
  "ct": 525,
  "cted": 3805,
  "cth": 15683,
  "ction": 899,
  "ctions": 3326,
  "ctor": 7792,
  "ctors": 12310,
  "cts": 3671,
  "cu": 4174,
  "cup": 15687,
  "cur": 15680,
  "cure": 19564,
  "curs": 19574,
  "cus": 690,
  "cuse": 11093,
  "cussing": 16927,
  "cut": 13348,
  "cw": 19554,
  "cy": 1374,
  "d": 73,
  "dNYC": 19600,
  "da": 19582,
  "dad": 9782,
  "daddy": 9783,
  "dah": 9137,
  "dahdah": 15030,
  "daily": 6664,
  "dalasner": 19604,
  "dallas": 11832,
  "dam": 6663,
  "dan": 6959,
  "daniels": 13365,
  "danna": 15703,
  "danny": 19597,
  "dano": 19602,
  "dans": 19591,
  "dar": 19585,
  "daughter": 13361,
  "dave": 15699,
  "daven": 19599,
  "david": 19596,
  "davis": 5614,
  "day": 466,
  "days": 11023,
  "dc": 10659,
  "dd": 6430,
  "dder": 19594,
  "dds": 13360,
  "de": 1281,
  "dead": 15701,
  "deal": 10661,
  "deals": 19603,
  "deb": 9138,
  "dee": 15700,
  "deen": 1998,
  "def": 11199,
  "del": 6960,
  "dem": 19590,
  "den": 2165,
  "dennisrodman": 15705,
  "der": 1025,
  "derek": 15704,
  "ders": 19588,
  "des": 4274,
  "deserved": 14733,
  "design": 17766,
  "dest": 9135,
  "det": 15697,
  "dev": 6844,
  "devine": 14905,
  "devlin": 12906,
  "dh": 13353,
  "dha": 13363,
  "dhairstudio": 18451,
  "dhm": 19601,
  "di": 11829,
  "diallo": 15173,
  "dick": 13358,
  "dict": 19593,
  "did": 19586,
  "die": 9136,
  "dig": 15696,
  "dim": 19587,
  "dish": 19592,
  "dit": 15695,
  "dj": 19583,
  "dle": 5173,
  "dm": 15694,
  "dn": 5964,
  "dney": 11831,
  "dny": 19595,
  "do": 1599,
  "doch": 14394,
  "dog": 4359,
  "dogs": 12802,
  "dom": 4089,
  "don": 2748,
  "donald": 13354,
  "donaldtrump": 2405,
  "done": 19589,
  "donnell": 17538,
  "dont": 13357,
  "dot": 13356,
  "dotcom": 13364,
  "double": 19598,
  "doug": 11830,
  "dow": 13355,
  "down": 3574,
  "dr": 19584,
  "draw": 11833,
  "drop": 13362,
  "ds": 1505,
  "du": 1539,
  "ducer": 17269,
  "duct": 17268,
  "due": 13359,
  "dur": 15698,
  "dw": 10660,
  "dy": 3097,
  "dys": 15702,
  "e": 74,
  "eView": 19611,
  "ea": 6431,
  "eace": 5965,
  "each": 13366,
  "ead": 1168,
  "eah": 5356,
  "eak": 15710,
  "eaks": 6665,
  "eal": 650,
  "eale": 9417,
  "ealous": 4316,
  "eals": 8290,
  "ean": 2086,
  "eanGolf": 17398,
  "ear": 558,
  "earch": 5431,
  "eared": 9786,
  "earing": 6773,
  "earl": 9396,
  "early": 16833,
  "earn": 3609,
  "earning": 9397,
  "ears": 7432,
  "eary": 16832,
  "eas": 15708,
  "east": 15709,
  "eat": 6432,
  "eath": 19608,
  "eating": 19609,
  "eaton": 17958,
  "eb": 1221,
  "ebow": 5103,
  "ec": 416,
  "eca": 13927,
  "ecat": 16632,
  "ecause": 3271,
  "ecc": 9357,
  "eccable": 10507,
  "ece": 7771,
  "ecess": 4037,
  "eches": 7772,
  "ecial": 1786,
  "ecially": 3827,
  "ecided": 12231,
  "eck": 3667,
  "eckless": 14672,
  "ect": 552,
  "ectac": 2766,
  "ectacular": 2808,
  "ectator": 14059,
  "ection": 1720,
  "ections": 10093,
  "ective": 3608,
  "ector": 3607,
  "ects": 14058,
  "ed": 316,
  "edOn": 16196,
  "eda": 5197,
  "eday": 6710,
  "edd": 5029,
  "edding": 6631,
  "eddy": 16197,
  "eddyD": 18622,
  "ede": 13672,
  "edent": 13673,
  "edia": 7023,
  "edian": 9922,
  "edie": 16195,
  "eding": 10822,
  "edini": 7344,
  "edison": 12043,
  "editor": 12042,
  "editorials": 13093,
  "edminster": 4202,
  "ednes": 5389,
  "ednesday": 5593,
  "eds": 16194,
  "edwards": 10823,
  "edy": 3365,
  "ee": 462,
  "eeC": 16722,
  "eeM": 13999,
  "eeMingg": 18502,
  "eech": 1453,
  "eed": 3303,
  "eee": 12283,
  "eeee": 16724,
  "eefe": 14000,
  "eek": 2832,
  "eel": 5355,
  "eele": 16723,
  "een": 5354,
  "eens": 19607,
  "eep": 1214,
  "eeps": 7860,
  "eepsTweet": 9691,
  "eepstweet": 4945,
  "eer": 9785,
  "ees": 1523,
  "eezy": 11021,
  "ef": 1522,
  "eff": 1778,
  "efined": 17264,
  "eg": 832,
  "ega": 12429,
  "egal": 9431,
  "egarelli": 16985,
  "egas": 1770,
  "ege": 2688,
  "egister": 5097,
  "egoti": 3487,
  "egotiation": 3899,
  "egu": 16984,
  "ehe": 19605,
  "ein": 2473,
  "eiving": 11836,
  "ej": 15706,
  "ek": 880,
  "ekster": 17015,
  "el": 419,
  "ela": 4784,
  "eland": 10991,
  "elch": 4785,
  "elcome": 4222,
  "ele": 487,
  "eleb": 515,
  "elect": 8770,
  "elected": 6764,
  "election": 4313,
  "eled": 12294,
  "elegraph": 14014,
  "eless": 5222,
  "elf": 3600,
  "elfare": 14665,
  "eli": 13940,
  "elias": 16650,
  "elinc": 16649,
  "eline": 3427,
  "eliner": 12241,
  "eling": 16648,
  "elis": 16647,
  "elius": 8751,
  "ell": 761,
  "ella": 10131,
  "elle": 11108,
  "eller": 8827,
  "elligent": 14158,
  "elling": 16956,
  "ells": 6304,
  "ellscuse": 12881,
  "elly": 3615,
  "elp": 6042,
  "elrod": 5694,
  "els": 2374,
  "elson": 6043,
  "elt": 4124,
  "em": 587,
  "emain": 8795,
  "emalkin": 9402,
  "eman": 12348,
  "emb": 9400,
  "ember": 1144,
  "eme": 7089,
  "emember": 1844,
  "ement": 19606,
  "emi": 16851,
  "emic": 10103,
  "emin": 9401,
  "emorial": 8796,
  "emp": 5615,
  "empl": 13367,
  "employ": 2004,
  "en": 285,
  "enPoll": 13568,
  "enRod": 9880,
  "enRoderick": 10515,
  "enUSA": 10772,
  "ena": 3713,
  "enaWells": 17693,
  "enah": 11967,
  "enal": 3415,
  "enap": 16044,
  "enbc": 5994,
  "ence": 955,
  "enced": 13566,
  "ences": 5643,
  "ency": 4871,
  "end": 453,
  "enda": 4912,
  "ended": 7778,
  "ender": 11005,
  "endi": 16708,
  "ending": 1233,
  "endment": 4913,
  "endous": 2313,
  "endre": 13981,
  "endreLarry": 18497,
  "ends": 5227,
  "ene": 3586,
  "ened": 6695,
  "eneg": 13565,
  "enes": 9217,
  "eness": 7326,
  "enez": 10327,
  "enezuel": 11632,
  "enf": 9216,
  "enfiddich": 10501,
  "eng": 16043,
  "ening": 5021,
  "enins": 9218,
  "eninsula": 9713,
  "enjoy": 8166,
  "enn": 1057,
  "ennedy": 12479,
  "ennis": 2837,
  "ennisrodman": 6364,
  "enny": 3817,
  "eno": 4008,
  "enoun": 13567,
  "enry": 4191,
  "ens": 1232,
  "ense": 1415,
  "ensen": 17167,
  "ension": 12516,
  "ensity": 17168,
  "ensive": 8871,
  "enstein": 16046,
  "ent": 342,
  "entagon": 16331,
  "enter": 13745,
  "enthouse": 13746,
  "ential": 3786,
  "entify": 9299,
  "ention": 2245,
  "ently": 3369,
  "ents": 1883,
  "entum": 10868,
  "enty": 6025,
  "enue": 8631,
  "enway": 16045,
  "enz": 8630,
  "eo": 10662,
  "eon": 15707,
  "eop": 562,
  "eople": 567,
  "eoples": 8790,
  "eor": 6182,
  "eorge": 2283,
  "eous": 11835,
  "ep": 547,
  "epend": 3877,
  "eper": 16818,
  "ephan": 8276,
  "ephen": 3225,
  "epi": 16817,
  "eps": 14056,
  "ept": 2801,
  "equ": 15711,
  "er": 271,
  "era": 9857,
  "erably": 15961,
  "eral": 1164,
  "erald": 3820,
  "eraldo": 2276,
  "erate": 13512,
  "erd": 9194,
  "erdale": 11609,
  "erdeen": 9858,
  "ere": 700,
  "ered": 2273,
  "erek": 2923,
  "erem": 5746,
  "eremony": 6928,
  "eremployment": 16933,
  "eremy": 8293,
  "eren": 4660,
  "erence": 2350,
  "erences": 12822,
  "erent": 4858,
  "erer": 11100,
  "erest": 1175,
  "eresting": 1510,
  "erez": 16932,
  "erg": 4002,
  "erger": 6983,
  "ergio": 12775,
  "ergy": 15960,
  "eric": 15959,
  "erick": 8608,
  "ering": 9196,
  "erjustice": 15963,
  "erman": 4746,
  "ern": 1166,
  "ernand": 14280,
  "erner": 13514,
  "erning": 8148,
  "ernity": 11181,
  "erno": 10195,
  "ero": 6212,
  "eros": 13513,
  "erovsky": 15962,
  "err": 9195,
  "erry": 1441,
  "ers": 425,
  "ersche": 13946,
  "erschel": 15271,
  "ersen": 13945,
  "ership": 3474,
  "ersistence": 16651,
  "erson": 3736,
  "ersonal": 9361,
  "ersonally": 11613,
  "ert": 1145,
  "erta": 6839,
  "ertain": 2157,
  "erter": 8147,
  "ertific": 4531,
  "ertificate": 4574,
  "erto": 10192,
  "erts": 3099,
  "erv": 1128,
  "ervation": 12495,
  "ervative": 3332,
  "ervatives": 9465,
  "erve": 3853,
  "erved": 11178,
  "erver": 6981,
  "ervice": 7482,
  "erview": 6982,
  "ery": 1038,
  "es": 289,
  "esc": 6698,
  "esides": 7328,
  "esley": 16062,
  "esman": 16061,
  "esn": 11973,
  "esome": 1334,
  "eson": 16060,
  "esort": 3260,
  "esp": 1781,
  "especially": 9520,
  "espect": 9519,
  "espite": 6340,
  "ess": 428,
  "essa": 13947,
  "essage": 10047,
  "essed": 9364,
  "esser": 9363,
  "ession": 7068,
  "essional": 4223,
  "essions": 13948,
  "essler": 16657,
  "essquare": 16658,
  "est": 392,
  "estate": 12196,
  "ester": 1173,
  "esterday": 1276,
  "estern": 11183,
  "esters": 11184,
  "estic": 7764,
  "estically": 16554,
  "estin": 13888,
  "estration": 16552,
  "estrian": 16553,
  "estrooms": 16555,
  "esty": 2701,
  "estyle": 10963,
  "et": 344,
  "eta": 13749,
  "etary": 13751,
  "ete": 8701,
  "eter": 1798,
  "etermin": 14428,
  "eternity": 12103,
  "eth": 2222,
  "ethe": 13750,
  "etime": 6726,
  "eting": 7359,
  "etoo": 9300,
  "etown": 16337,
  "etro": 7360,
  "etroit": 9681,
  "ets": 1471,
  "ett": 2246,
  "etta": 12640,
  "ette": 3021,
  "etteNav": 17587,
  "etteNavaret": 18735,
  "etter": 6244,
  "ettitte": 12641,
  "etts": 16336,
  "ety": 5041,
  "eu": 11834,
  "euan": 19610,
  "ev": 1513,
  "evander": 14374,
  "evans": 12552,
  "eve": 1806,
  "even": 3190,
  "ever": 2974,
  "everend": 12595,
  "every": 7651,
  "evich": 17263,
  "evin": 3557,
  "evine": 17262,
  "ew": 373,
  "ewart": 3468,
  "ewel": 6252,
  "ewis": 10005,
  "ework": 13843,
  "ewrites": 16483,
  "ews": 735,
  "ex": 1568,
  "except": 17293,
  "exi": 14388,
  "exic": 2138,
  "exp": 17292,
  "extremely": 13368,
  "ey": 1223,
  "eyR": 17163,
  "eyer": 12511,
  "eyers": 4946,
  "eynold": 17164,
  "eynolds": 18713,
  "eyton": 12512,
  "ez": 9784,
  "ezNV": 18223,
  "f": 75,
  "fabulous": 19633,
  "face": 8106,
  "fact": 2543,
  "facts": 19638,
  "fair": 9141,
  "fall": 3512,
  "fallon": 9600,
  "fam": 19616,
  "famous": 19641,
  "fan": 6183,
  "fantastic": 10666,
  "far": 2629,
  "fare": 4090,
  "farm": 10281,
  "farms": 11331,
  "fast": 8105,
  "father": 19625,
  "fc": 13369,
  "fdn": 19637,
  "fe": 5966,
  "fect": 2423,
  "fection": 9142,
  "fed": 19615,
  "feed": 19632,
  "feel": 19635,
  "fel": 15713,
  "feld": 14842,
  "felt": 15720,
  "fer": 4859,
  "ference": 7292,
  "fessional": 10667,
  "fest": 19617,
  "ff": 576,
  "ffect": 11065,
  "ffee": 12344,
  "ffer": 14074,
  "fficial": 14075,
  "ffle": 16842,
  "fic": 1933,
  "fident": 15715,
  "fie": 11838,
  "fied": 11840,
  "field": 8107,
  "fight": 13372,
  "fighters": 15723,
  "fil": 15714,
  "fin": 9140,
  "finale": 18172,
  "find": 19619,
  "finger": 19639,
  "finn": 15722,
  "fire": 7290,
  "fired": 8569,
  "first": 15717,
  "fiscal": 19634,
  "fish": 19621,
  "fisher": 19640,
  "fit": 7652,
  "fitz": 13374,
  "fix": 19626,
  "fl": 1581,
  "flex": 19624,
  "flix": 14391,
  "fly": 11837,
  "fo": 9139,
  "fog": 19620,
  "fol": 13370,
  "fold": 15719,
  "food": 13373,
  "fool": 19623,
  "foot": 19628,
  "for": 1134,
  "force": 14267,
  "ford": 4732,
  "fore": 1298,
  "form": 1943,
  "formed": 7854,
  "formers": 14451,
  "formetoo": 10256,
  "forming": 14268,
  "forpresident": 5528,
  "forprez": 17128,
  "fort": 4860,
  "fortunately": 9634,
  "fosh": 19630,
  "found": 15716,
  "four": 19618,
  "fox": 11839,
  "fr": 5967,
  "fran": 15718,
  "frank": 10405,
  "fraud": 15721,
  "fre": 10663,
  "fred": 19622,
  "free": 10665,
  "freed": 19627,
  "frenzy": 19642,
  "frey": 19629,
  "fried": 19631,
  "friend": 7291,
  "friends": 998,
  "fritz": 17910,
  "from": 10664,
  "ft": 1446,
  "fu": 19612,
  "ful": 776,
  "full": 2779,
  "fuller": 14557,
  "fully": 3089,
  "fuly": 19636,
  "fun": 13371,
  "fund": 7653,
  "fundanything": 18055,
  "fw": 15712,
  "fx": 19613,
  "fy": 19614,
  "g": 76,
  "gBannon": 19671,
  "ga": 5968,
  "gach": 10671,
  "gado": 19666,
  "gae": 14843,
  "gain": 13379,
  "gal": 10668,
  "gallon": 9792,
  "gals": 19655,
  "game": 13381,
  "gan": 1367,
  "gand": 15728,
  "gandan": 18575,
  "gang": 19654,
  "ganiz": 3495,
  "gar": 15726,
  "garbage": 19664,
  "garet": 11844,
  "garrett": 19667,
  "gas": 8570,
  "gate": 7654,
  "gated": 19652,
  "ge": 603,
  "geant": 16865,
  "geck": 19663,
  "ged": 4175,
  "gem": 13380,
  "geme": 10674,
  "gemeiner": 11643,
  "gen": 9788,
  "gency": 10672,
  "gent": 13375,
  "gently": 19662,
  "gents": 19657,
  "george": 16866,
  "ger": 1547,
  "gerald": 15732,
  "gers": 6434,
  "gery": 9790,
  "ges": 2894,
  "gesNYC": 14579,
  "gest": 1735,
  "get": 1045,
  "gets": 11154,
  "gew": 19646,
  "gfuller": 19670,
  "gg": 9787,
  "ggs": 11843,
  "gh": 1678,
  "ghan": 2997,
  "ghazi": 2742,
  "gi": 6961,
  "gia": 8109,
  "gians": 19659,
  "giant": 19661,
  "gibson": 19668,
  "gie": 3847,
  "giers": 19656,
  "gies": 11841,
  "gil": 10670,
  "gilbert": 19665,
  "gin": 3772,
  "ging": 2689,
  "ginia": 5322,
  "gins": 7655,
  "girl": 3705,
  "giudice": 14908,
  "give": 13378,
  "giving": 5010,
  "gl": 3992,
  "glad": 14704,
  "gle": 8108,
  "gling": 7293,
  "global": 9614,
  "gly": 3007,
  "gment": 6184,
  "gments": 15731,
  "gn": 6666,
  "go": 2544,
  "god": 19650,
  "going": 17497,
  "gold": 9143,
  "golf": 4582,
  "gomer": 15734,
  "gon": 15725,
  "gone": 15729,
  "gonzalez": 13384,
  "goo": 15727,
  "good": 4091,
  "gop": 13377,
  "gore": 15730,
  "gory": 11842,
  "gos": 19649,
  "got": 10669,
  "gov": 8110,
  "gow": 19644,
  "gp": 15724,
  "gr": 1540,
  "graham": 6667,
  "grahamAngle": 7253,
  "gram": 3826,
  "grams": 14382,
  "graph": 10673,
  "graves": 19669,
  "grayson": 17271,
  "gre": 6433,
  "great": 2809,
  "gree": 19651,
  "green": 9791,
  "gren": 19653,
  "gress": 3642,
  "gressive": 7573,
  "gret": 13383,
  "gretawire": 15238,
  "gri": 13376,
  "griffith": 15735,
  "gross": 19658,
  "ground": 6562,
  "group": 17270,
  "grove": 15733,
  "grow": 8571,
  "growth": 10480,
  "gru": 19643,
  "gs": 3993,
  "gt": 4581,
  "gu": 3846,
  "gue": 13382,
  "guest": 17717,
  "gul": 19648,
  "guns": 10675,
  "gur": 9789,
  "gurl": 18224,
  "guru": 11427,
  "gus": 19645,
  "gust": 4733,
  "gut": 19647,
  "guts": 19660,
  "guy": 6185,
  "gy": 1150,
  "gyn": 9470,
  "gypt": 3174,
  "h": 77,
  "hBila": 19699,
  "hDS": 15751,
  "hDSouza": 18576,
  "hTimes": 11847,
  "ha": 5616,
  "hab": 9795,
  "hair": 15746,
  "hak": 19681,
  "hal": 9144,
  "hall": 7295,
  "ham": 1948,
  "hamed": 6102,
  "hammad": 14452,
  "han": 4360,
  "hanced": 19698,
  "hand": 19676,
  "handed": 13389,
  "handedly": 18452,
  "hang": 19690,
  "hani": 9798,
  "hank": 19675,
  "hans": 15740,
  "happ": 19686,
  "happy": 9145,
  "haps": 3575,
  "har": 6186,
  "hard": 8573,
  "hari": 14864,
  "hark": 19687,
  "harry": 11846,
  "hart": 13386,
  "has": 5357,
  "hast": 19679,
  "hat": 9793,
  "hate": 15739,
  "haters": 15749,
  "hauer": 19697,
  "haul": 19691,
  "have": 8111,
  "hawk": 10679,
  "he": 269,
  "head": 3014,
  "heads": 17586,
  "heart": 13509,
  "heast": 13508,
  "heck": 2815,
  "hed": 1155,
  "heil": 15956,
  "hel": 5182,
  "hell": 7677,
  "hellcat": 18058,
  "help": 8607,
  "hem": 9856,
  "hen": 580,
  "henever": 7313,
  "henomenal": 8793,
  "hep": 11932,
  "her": 469,
  "herd": 16729,
  "here": 953,
  "hered": 13510,
  "heres": 15955,
  "hern": 10060,
  "hero": 13507,
  "herty": 16730,
  "herwin": 14001,
  "hes": 1377,
  "hess": 12536,
  "hest": 2749,
  "het": 15954,
  "hether": 3523,
  "hetic": 2750,
  "hetor": 10749,
  "hew": 3013,
  "hewdavis": 7200,
  "hews": 17585,
  "hey": 7312,
  "hh": 7294,
  "hhhh": 18030,
  "hi": 13385,
  "hic": 19673,
  "hig": 9794,
  "high": 15750,
  "highest": 15073,
  "hile": 15745,
  "hill": 8572,
  "hind": 15742,
  "hing": 629,
  "hings": 8808,
  "hingt": 14113,
  "hington": 1395,
  "hink": 19680,
  "hino": 9796,
  "hio": 19689,
  "hip": 1075,
  "hire": 19684,
  "hirt": 19696,
  "his": 5617,
  "hit": 15738,
  "hl": 15736,
  "hler": 19693,
  "hm": 5011,
  "hn": 1020,
  "hnd": 19682,
  "hner": 8113,
  "ho": 4734,
  "hod": 19683,
  "hogan": 19695,
  "hoh": 14775,
  "hol": 8112,
  "hold": 5618,
  "holder": 17892,
  "hole": 8574,
  "holly": 9797,
  "hollywood": 13004,
  "hom": 11845,
  "homs": 18349,
  "hon": 15737,
  "honest": 6668,
  "hood": 3251,
  "hop": 19678,
  "hope": 10678,
  "hopefully": 18285,
  "hor": 6435,
  "hored": 19694,
  "horn": 15748,
  "horrible": 17959,
  "horse": 13388,
  "host": 5969,
  "hosting": 11511,
  "hot": 19674,
  "hould": 19677,
  "house": 3513,
  "how": 4275,
  "howe": 17767,
  "hower": 15743,
  "hoy": 19685,
  "hsp": 15741,
  "ht": 395,
  "htaking": 10966,
  "htimes": 9348,
  "hton": 12202,
  "hu": 10676,
  "hue": 15744,
  "hug": 19688,
  "hughes": 13390,
  "hum": 13387,
  "hund": 19692,
  "hunt": 15747,
  "hurst": 4361,
  "hus": 5174,
  "huston": 15752,
  "hw": 19672,
  "hy": 10677,
  "i": 78,
  "iGoldberg": 19707,
  "iGonzalez": 19708,
  "iLY": 6436,
  "iLoc": 19706,
  "ia": 489,
  "iab": 8268,
  "iable": 6765,
  "iac": 8575,
  "iaculpo": 14996,
  "iah": 7783,
  "iak": 10066,
  "ial": 726,
  "iality": 16945,
  "ially": 10126,
  "ials": 9425,
  "iam": 1177,
  "iamenoun": 14282,
  "iami": 1861,
  "iamond": 4062,
  "iams": 3619,
  "ian": 1006,
  "iana": 4408,
  "ianaRancic": 8429,
  "iance": 11851,
  "iane": 8311,
  "iani": 14226,
  "ianiej": 12464,
  "iann": 13392,
  "ianna": 19702,
  "ianne": 6536,
  "iano": 3882,
  "ians": 2237,
  "iant": 2852,
  "iao": 14015,
  "iar": 8115,
  "ias": 3191,
  "iasm": 7949,
  "iast": 11849,
  "iastic": 13393,
  "iasts": 19705,
  "iat": 13391,
  "iate": 10682,
  "iation": 19700,
  "iatrist": 18453,
  "iaz": 16755,
  "ib": 936,
  "iban": 5098,
  "ibe": 12452,
  "ibean": 17040,
  "iber": 1982,
  "iberty": 3499,
  "ibility": 2802,
  "ible": 1289,
  "ibles": 17039,
  "ibly": 12453,
  "ibowitz": 17042,
  "ibson": 12454,
  "ibuster": 17041,
  "ic": 296,
  "ica": 3202,
  "icag": 4755,
  "icago": 1021,
  "icagos": 6387,
  "ical": 2755,
  "ically": 6226,
  "icals": 10791,
  "icare": 4101,
  "ication": 8182,
  "ice": 369,
  "iced": 8647,
  "icer": 10790,
  "ices": 1535,
  "ich": 694,
  "ichael": 1553,
  "iche": 2666,
  "ichele": 7932,
  "ichell": 3398,
  "ichelle": 4434,
  "ichol": 7104,
  "icholas": 9043,
  "ici": 11996,
  "icial": 2452,
  "ician": 13617,
  "icient": 7007,
  "icine": 16109,
  "icing": 9898,
  "icious": 7006,
  "icip": 6703,
  "ick": 637,
  "icked": 16891,
  "ickens": 7809,
  "ickey": 11998,
  "icks": 7445,
  "icky": 7808,
  "ico": 8181,
  "ics": 2509,
  "ict": 963,
  "icted": 9449,
  "iction": 8308,
  "ictrump": 10158,
  "icular": 11997,
  "iculous": 3457,
  "icz": 16108,
  "id": 337,
  "ida": 2634,
  "idaWas": 17517,
  "idable": 9283,
  "idal": 12075,
  "idan": 12076,
  "idant": 16280,
  "idas": 10848,
  "iday": 2006,
  "idays": 5201,
  "idd": 2756,
  "idden": 9284,
  "iddich": 10291,
  "idding": 6887,
  "iddle": 5308,
  "ide": 762,
  "idean": 16957,
  "ided": 3315,
  "idel": 10849,
  "idemic": 12077,
  "iden": 2243,
  "idence": 2911,
  "idency": 4153,
  "ident": 452,
  "idental": 16707,
  "ideo": 2184,
  "ider": 1239,
  "idering": 17175,
  "ides": 3464,
  "idge": 5200,
  "idges": 16282,
  "idi": 10846,
  "idiculous": 16283,
  "iding": 4204,
  "idly": 7725,
  "idney": 16281,
  "ido": 10847,
  "ids": 2910,
  "idy": 8209,
  "ie": 502,
  "ieD": 8776,
  "iec": 2021,
  "iece": 2496,
  "ieces": 8370,
  "iecouric": 14457,
  "ied": 1748,
  "iee": 15754,
  "ief": 2589,
  "iej": 11044,
  "iel": 5972,
  "ield": 3160,
  "ields": 17611,
  "iell": 16771,
  "ielle": 14028,
  "iels": 9800,
  "ielsen": 13005,
  "ien": 4584,
  "ience": 2101,
  "iend": 6187,
  "iendo": 6642,
  "iens": 19701,
  "ient": 2329,
  "ients": 5974,
  "ier": 1328,
  "ierce": 10211,
  "iering": 4248,
  "iern": 11852,
  "iers": 1414,
  "iersmorgan": 2441,
  "ies": 570,
  "iest": 4861,
  "iet": 3773,
  "ieth": 15755,
  "iette": 19703,
  "iety": 11424,
  "iev": 4789,
  "ievable": 5932,
  "ieve": 1042,
  "iew": 585,
  "if": 454,
  "ife": 951,
  "ifer": 5228,
  "iferSteven": 17867,
  "iff": 1444,
  "iffany": 6854,
  "iffs": 12547,
  "ific": 1843,
  "ification": 12600,
  "ifications": 17360,
  "ificent": 4550,
  "ified": 4396,
  "ifor": 11006,
  "iforms": 15134,
  "iforn": 5418,
  "ifornia": 5594,
  "ift": 8262,
  "ifth": 6512,
  "iful": 1066,
  "ify": 3871,
  "ifying": 12268,
  "ig": 343,
  "igan": 5040,
  "igation": 4766,
  "ige": 12099,
  "igence": 8216,
  "igent": 9957,
  "iger": 2795,
  "igg": 13747,
  "igger": 12101,
  "iggy": 16335,
  "igh": 2726,
  "ighs": 14551,
  "ight": 422,
  "ighted": 12243,
  "ighter": 8942,
  "ighters": 10289,
  "ights": 2799,
  "ightweight": 4506,
  "igib": 16334,
  "igible": 9958,
  "igiboria": 18632,
  "igil": 16332,
  "iginal": 4296,
  "iginally": 12102,
  "igious": 12100,
  "igl": 10869,
  "iglanville": 18298,
  "ign": 655,
  "igned": 8814,
  "igning": 3423,
  "ignment": 9419,
  "igob": 16333,
  "igriffin": 13748,
  "ih": 5970,
  "ihad": 9028,
  "ii": 10680,
  "ij": 8114,
  "ija": 19704,
  "ijing": 18083,
  "ik": 1190,
  "ike": 488,
  "iked": 17154,
  "ikes": 11189,
  "ikk": 6081,
  "ikkio": 6399,
  "il": 443,
  "ila": 6510,
  "ilater": 10997,
  "ilbert": 4645,
  "ild": 795,
  "ildren": 7456,
  "ile": 833,
  "iled": 1789,
  "ileen": 14176,
  "iler": 12259,
  "iles": 5065,
  "iley": 4404,
  "ileyCy": 10361,
  "ileyCyrus": 10529,
  "ilf": 13967,
  "iliate": 16691,
  "ilib": 13971,
  "ilight": 16690,
  "iling": 3476,
  "ilit": 13968,
  "ilities": 4787,
  "ility": 1617,
  "ill": 341,
  "illa": 6483,
  "illac": 2757,
  "illary": 3596,
  "ille": 2030,
  "illed": 4885,
  "iller": 2056,
  "illette": 4379,
  "illiams": 10867,
  "illiant": 3151,
  "illing": 5672,
  "illion": 884,
  "illionaire": 2379,
  "illions": 2244,
  "illips": 13744,
  "illis": 12098,
  "illo": 8700,
  "ills": 2075,
  "illy": 2413,
  "illyfact": 4554,
  "ilne": 13970,
  "ils": 6267,
  "ilson": 6268,
  "ilt": 2529,
  "ilton": 4394,
  "ilty": 6760,
  "ilu": 5064,
  "ilus": 13969,
  "ily": 931,
  "ilz": 12258,
  "im": 366,
  "imRick": 16446,
  "ima": 9990,
  "imate": 2391,
  "imated": 8715,
  "imately": 10918,
  "imates": 9992,
  "ime": 528,
  "imed": 7376,
  "imena": 12145,
  "iment": 9991,
  "imental": 18242,
  "imer": 16443,
  "imes": 1147,
  "imi": 13815,
  "imid": 8714,
  "imin": 6031,
  "iminal": 16445,
  "imir": 7747,
  "imist": 13817,
  "imit": 13816,
  "imm": 12143,
  "immer": 7049,
  "immerman": 7258,
  "imming": 13818,
  "imms": 16444,
  "immsNchin": 18647,
  "immy": 4771,
  "imo": 12144,
  "imon": 7048,
  "imp": 1934,
  "impson": 9530,
  "ims": 2615,
  "imul": 4893,
  "imulus": 17834,
  "in": 265,
  "ina": 677,
  "inal": 2857,
  "inally": 11924,
  "inaoakes": 14136,
  "inary": 13494,
  "inas": 5985,
  "inate": 15935,
  "inated": 11925,
  "ination": 2977,
  "inations": 6979,
  "inc": 2364,
  "ince": 1231,
  "incent": 9551,
  "inch": 15934,
  "incl": 10743,
  "incoln": 4156,
  "inct": 8602,
  "inction": 15937,
  "incts": 5181,
  "ind": 697,
  "inder": 16931,
  "inding": 14140,
  "inds": 11096,
  "indy": 11097,
  "ine": 566,
  "ineTurner": 16839,
  "ined": 2785,
  "inel": 13493,
  "iner": 1827,
  "iners": 11923,
  "ines": 994,
  "inese": 2209,
  "iness": 709,
  "inet": 11922,
  "inez": 11062,
  "inf": 15933,
  "ing": 282,
  "ingSh": 11963,
  "ingShirt": 13084,
  "ingaling": 16023,
  "inger": 6451,
  "ingers": 16022,
  "ingg": 16021,
  "ings": 729,
  "ington": 3525,
  "ini": 4465,
  "inine": 15936,
  "ining": 2784,
  "inis": 13492,
  "inister": 6208,
  "inite": 2660,
  "initely": 2807,
  "inja": 15939,
  "ink": 509,
  "inking": 7427,
  "inks": 1831,
  "inn": 5180,
  "inner": 2505,
  "innie": 15938,
  "inny": 9188,
  "ino": 2331,
  "inois": 17449,
  "inos": 10742,
  "inp": 5368,
  "inpeter": 6636,
  "inping": 17878,
  "ins": 1224,
  "insider": 12513,
  "insky": 17165,
  "inson": 5632,
  "inst": 2262,
  "instein": 3759,
  "inston": 3975,
  "insured": 10197,
  "int": 2901,
  "inthe": 11926,
  "inton": 3851,
  "invest": 11927,
  "inwich": 13495,
  "iny": 4368,
  "io": 986,
  "ioc": 9452,
  "iod": 6188,
  "iol": 11848,
  "ion": 347,
  "ionage": 8705,
  "ional": 684,
  "ionally": 11092,
  "ione": 16365,
  "ions": 730,
  "ioo": 15753,
  "ior": 2895,
  "iors": 7656,
  "ios": 9799,
  "iot": 3354,
  "iots": 5973,
  "ious": 937,
  "iously": 2534,
  "ip": 668,
  "ipe": 10118,
  "ipeline": 4658,
  "iper": 14134,
  "iple": 12393,
  "ipp": 4735,
  "ipped": 11853,
  "ippers": 12826,
  "ipping": 7657,
  "ips": 3674,
  "ipton": 16920,
  "iq": 10681,
  "iqu": 8116,
  "ique": 4276,
  "iques": 14967,
  "ir": 396,
  "ira": 4119,
  "irable": 16562,
  "iracusa": 16563,
  "iration": 13892,
  "irc": 4634,
  "ird": 2310,
  "ire": 578,
  "ired": 1258,
  "iree": 16843,
  "irell": 16844,
  "irement": 14077,
  "ires": 3045,
  "iring": 2871,
  "irk": 12203,
  "irl": 1868,
  "irley": 10967,
  "irlines": 12602,
  "irm": 5685,
  "iro": 5971,
  "irs": 16560,
  "irst": 908,
  "irstudio": 17026,
  "irstyle": 17025,
  "irt": 4902,
  "irth": 1202,
  "irthday": 1337,
  "irts": 16561,
  "irty": 7395,
  "is": 277,
  "isa": 4280,
  "isc": 13533,
  "iscal": 3650,
  "ise": 1070,
  "ised": 2366,
  "isen": 11947,
  "iser": 4593,
  "isers": 6990,
  "ises": 3308,
  "ish": 824,
  "isha": 11116,
  "ished": 2508,
  "isher": 9201,
  "ishes": 16002,
  "ishing": 4189,
  "ishonest": 14175,
  "ishop": 11117,
  "ising": 2121,
  "ision": 1255,
  "isit": 1519,
  "isition": 7892,
  "isk": 11946,
  "iske": 16001,
  "isl": 5989,
  "isle": 13535,
  "ism": 1558,
  "isman": 7317,
  "isms": 13536,
  "isod": 1559,
  "isode": 12561,
  "ison": 2663,
  "isor": 6691,
  "isors": 9868,
  "isp": 13534,
  "iss": 652,
  "issa": 7812,
  "issamayer": 16907,
  "issance": 14130,
  "ission": 4796,
  "issions": 9418,
  "ist": 503,
  "ista": 16772,
  "istan": 3378,
  "istant": 11045,
  "isten": 3943,
  "istence": 7424,
  "istent": 6516,
  "ister": 2144,
  "istered": 16774,
  "istic": 4916,
  "istics": 16775,
  "istine": 16773,
  "isting": 6049,
  "istle": 14029,
  "istor": 4229,
  "istoric": 5326,
  "istory": 1830,
  "istotle": 9386,
  "istration": 2736,
  "istribute": 14030,
  "ists": 2015,
  "isure": 8618,
  "isures": 16003,
  "it": 288,
  "ita": 4752,
  "itable": 5377,
  "itadel": 13583,
  "ital": 2264,
  "itar": 13581,
  "itarian": 18463,
  "itary": 1920,
  "itation": 16056,
  "itational": 8173,
  "itch": 2753,
  "itche": 13582,
  "itchell": 18464,
  "ite": 625,
  "ited": 1091,
  "iter": 3258,
  "iters": 8637,
  "ites": 3052,
  "itest": 10777,
  "itestone": 11646,
  "ith": 405,
  "ither": 3053,
  "iti": 8636,
  "itic": 905,
  "ities": 1314,
  "iting": 2147,
  "ition": 1811,
  "itions": 11972,
  "itive": 2092,
  "itiz": 3259,
  "itizen": 6899,
  "itizens": 4347,
  "itka": 10778,
  "itmo": 7001,
  "itney": 8172,
  "ito": 7693,
  "itor": 2265,
  "itory": 16058,
  "its": 1313,
  "itt": 611,
  "itte": 12361,
  "itted": 6297,
  "ittee": 5075,
  "itten": 4924,
  "itter": 1550,
  "itting": 3074,
  "ittle": 2155,
  "itty": 6523,
  "itude": 3527,
  "itulated": 16059,
  "iture": 16057,
  "itutional": 13584,
  "ity": 456,
  "itz": 3714,
  "itzer": 3416,
  "ium": 2603,
  "iums": 14531,
  "ius": 2193,
  "iv": 628,
  "ivable": 14112,
  "ival": 14110,
  "ive": 504,
  "ived": 3612,
  "iven": 16886,
  "iveness": 10112,
  "iver": 756,
  "ivera": 2878,
  "ivered": 7425,
  "ivers": 1253,
  "iversary": 3960,
  "iverse": 1355,
  "iversity": 3885,
  "ivery": 11850,
  "ives": 3483,
  "ivic": 14111,
  "ivica": 4235,
  "ivicafox": 18512,
  "ivid": 4794,
  "iving": 2875,
  "ivion": 11080,
  "ivision": 12377,
  "ivity": 11081,
  "ix": 1461,
  "ixon": 14361,
  "iy": 4583,
  "iyosaki": 5578,
  "iz": 814,
  "ize": 1638,
  "ized": 3168,
  "izes": 5096,
  "izing": 4241,
  "izz": 5095,
  "izza": 10141,
  "izzle": 11487,
  "izzy": 14170,
  "j": 79,
  "ja": 5619,
  "jac": 15758,
  "jack": 13398,
  "jacks": 15762,
  "jake": 15759,
  "jal": 10684,
  "jam": 19718,
  "jame": 19724,
  "james": 15760,
  "jamin": 6189,
  "jan": 19714,
  "jango": 13400,
  "jar": 19717,
  "jason": 19725,
  "jay": 5620,
  "jb": 5358,
  "jbrain": 11497,
  "jc": 19709,
  "jch": 19719,
  "je": 13394,
  "jean": 19731,
  "ject": 1713,
  "jectory": 17328,
  "jeff": 6437,
  "jen": 15757,
  "jenn": 19727,
  "jensen": 19737,
  "jets": 6962,
  "jf": 13395,
  "ji": 19710,
  "jillette": 4736,
  "jim": 10685,
  "jimmy": 19733,
  "jit": 19716,
  "jj": 9801,
  "jk": 13396,
  "jm": 9802,
  "jmk": 9147,
  "jmkjmk": 11608,
  "jmyers": 11856,
  "jn": 19711,
  "jo": 3008,
  "joanna": 17584,
  "jobs": 19732,
  "jock": 19728,
  "joe": 11376,
  "john": 6597,
  "johnson": 10430,
  "jon": 2975,
  "jonas": 4070,
  "jones": 11373,
  "joni": 12703,
  "jor": 19715,
  "jord": 19723,
  "jordan": 11855,
  "jose": 19726,
  "joseph": 19736,
  "josh": 10686,
  "jost": 19722,
  "journal": 5012,
  "joy": 1125,
  "jp": 15756,
  "jpat": 19734,
  "jr": 3514,
  "jry": 19721,
  "jt": 13397,
  "jtrump": 13399,
  "ju": 10683,
  "jud": 11854,
  "jul": 19720,
  "jump": 15761,
  "junior": 19735,
  "jured": 9146,
  "jury": 19729,
  "just": 2713,
  "justed": 14548,
  "justice": 14549,
  "jv": 19712,
  "jwh": 19730,
  "jy": 19713,
  "k": 80,
  "kHogan": 15771,
  "kRN": 19753,
  "ka": 4737,
  "kane": 19743,
  "kap": 19742,
  "kar": 8576,
  "karl": 8118,
  "kat": 9803,
  "kats": 19745,
  "kay": 5359,
  "kb": 10687,
  "kc": 13401,
  "kd": 11857,
  "ke": 363,
  "keef": 16422,
  "keep": 9320,
  "kef": 10909,
  "kefeller": 13048,
  "kel": 6030,
  "kelly": 6731,
  "kelson": 12869,
  "ken": 4092,
  "kennedy": 19754,
  "kenny": 19746,
  "ker": 1689,
  "kered": 16421,
  "kers": 8577,
  "kes": 9804,
  "kev": 13805,
  "kevin": 12132,
  "key": 3373,
  "keye": 17648,
  "kface": 19750,
  "kh": 7296,
  "khan": 11859,
  "ki": 3515,
  "kid": 15767,
  "kids": 9806,
  "kie": 11858,
  "kil": 19741,
  "kill": 19740,
  "killing": 15770,
  "kim": 10688,
  "kin": 7297,
  "kind": 15768,
  "king": 4453,
  "kins": 2896,
  "kinson": 19747,
  "kitty": 19749,
  "kiw": 14657,
  "kl": 6963,
  "klahoma": 10440,
  "kle": 8117,
  "km": 19738,
  "kmackey": 19756,
  "kn": 15763,
  "know": 8578,
  "ko": 5013,
  "kon": 15766,
  "kop": 13402,
  "kotter": 19755,
  "kowitz": 19752,
  "kp": 15764,
  "kphillips": 15772,
  "kr": 15765,
  "kraine": 10689,
  "krist": 15769,
  "kru": 19739,
  "ks": 2501,
  "kstan": 19751,
  "kward": 9805,
  "ky": 3304,
  "kyle": 19744,
  "kyleraccio": 19748,
  "l": 81,
  "lL": 19757,
  "la": 2655,
  "lace": 10692,
  "lad": 7298,
  "lady": 11864,
  "lager": 19775,
  "lain": 2604,
  "lake": 19763,
  "lall": 19764,
  "lam": 4176,
  "lan": 15774,
  "land": 763,
  "landLe": 10132,
  "lander": 9427,
  "lando": 12420,
  "langelo": 19778,
  "lano": 19776,
  "lant": 3192,
  "lap": 19766,
  "lar": 8579,
  "lara": 19774,
  "las": 4093,
  "lass": 15777,
  "lasvegas": 17745,
  "lat": 15775,
  "laur": 19773,
  "laus": 5132,
  "law": 9150,
  "lay": 19760,
  "lazy": 13408,
  "lb": 15773,
  "ld": 348,
  "lder": 8706,
  "ldin": 7734,
  "le": 305,
  "leAWin": 13647,
  "lea": 16168,
  "lead": 6707,
  "leader": 11534,
  "leaders": 11535,
  "leading": 10806,
  "lean": 3590,
  "leans": 10804,
  "lear": 1967,
  "learn": 12028,
  "lease": 764,
  "lec": 9250,
  "lects": 16170,
  "led": 1086,
  "ledge": 3387,
  "ledging": 11166,
  "lee": 7015,
  "leebow": 9251,
  "leem": 13646,
  "leep": 7016,
  "leepy": 8470,
  "leg": 6706,
  "lein": 13645,
  "lem": 8188,
  "leman": 7017,
  "lemania": 18010,
  "lemens": 14970,
  "lement": 3861,
  "lemon": 9913,
  "len": 19759,
  "leno": 6671,
  "ler": 2213,
  "lers": 11861,
  "les": 1500,
  "less": 1517,
  "lessly": 14375,
  "lessness": 14376,
  "let": 3860,
  "lete": 1936,
  "leted": 6004,
  "letes": 9609,
  "letic": 10805,
  "lets": 8661,
  "level": 16169,
  "levin": 5195,
  "lew": 4015,
  "lex": 1290,
  "ley": 1671,
  "lh": 11860,
  "lic": 801,
  "licate": 16968,
  "licated": 11112,
  "lick": 15776,
  "lict": 7110,
  "lide": 19765,
  "lied": 13406,
  "lier": 15782,
  "liers": 19771,
  "lies": 8580,
  "lif": 9807,
  "life": 6670,
  "light": 7299,
  "lights": 11865,
  "lik": 19768,
  "like": 3450,
  "lil": 11862,
  "lim": 2304,
  "limbaugh": 14501,
  "lin": 2238,
  "line": 1984,
  "lined": 10267,
  "lines": 9808,
  "ling": 1807,
  "links": 7659,
  "lins": 15781,
  "lip": 15778,
  "lis": 19758,
  "lish": 7658,
  "liv": 6669,
  "live": 19762,
  "ll": 295,
  "lla": 4754,
  "llaGC": 5581,
  "lle": 9897,
  "llen": 6464,
  "llenShow": 12889,
  "lley": 13616,
  "lleysherwin": 18471,
  "lli": 11995,
  "lll": 9237,
  "lllll": 16107,
  "lls": 13615,
  "llsn": 16106,
  "lly": 3717,
  "lny": 13405,
  "lo": 2714,
  "load": 10287,
  "loan": 12679,
  "loc": 19767,
  "lock": 11863,
  "loding": 13410,
  "log": 1749,
  "lom": 5360,
  "long": 9149,
  "look": 6438,
  "looking": 6964,
  "looks": 17960,
  "lor": 1983,
  "lores": 17534,
  "lors": 19770,
  "loser": 11866,
  "losers": 19779,
  "loss": 19769,
  "lost": 10691,
  "lots": 8581,
  "love": 5621,
  "loved": 15784,
  "loves": 15783,
  "low": 9148,
  "lp": 1153,
  "lse": 10690,
  "lseahandler": 18286,
  "lt": 13403,
  "ltim": 13409,
  "lu": 13404,
  "luc": 19772,
  "lucky": 10693,
  "lue": 15779,
  "lug": 15780,
  "luge": 13407,
  "lun": 19761,
  "lusive": 3576,
  "luv": 19777,
  "ly": 353,
  "lyNews": 10883,
  "lymp": 3790,
  "lympic": 14684,
  "lyn": 5044,
  "lynd": 5208,
  "lynn": 10884,
  "lyss": 8708,
  "lyssa": 11598,
  "m": 82,
  "ma": 1591,
  "mac": 6190,
  "macaskill": 17932,
  "mack": 19783,
  "mackey": 17931,
  "mad": 8583,
  "made": 15796,
  "mag": 6965,
  "mah": 15795,
  "maha": 15802,
  "maher": 1999,
  "mail": 19793,
  "mails": 19803,
  "main": 19787,
  "maj": 19795,
  "make": 9152,
  "making": 13420,
  "mal": 6672,
  "mala": 19805,
  "mall": 15790,
  "mam": 19781,
  "mama": 9812,
  "man": 622,
  "mand": 9809,
  "mania": 10111,
  "mann": 5079,
  "mans": 6440,
  "mant": 15788,
  "manuel": 9410,
  "many": 12375,
  "mar": 2362,
  "mare": 15789,
  "marie": 8924,
  "mark": 4178,
  "maros": 3894,
  "marosa": 4264,
  "mart": 3193,
  "martin": 17614,
  "martino": 12724,
  "mary": 15794,
  "mas": 2141,
  "master": 13421,
  "mat": 9151,
  "matched": 15799,
  "mate": 11868,
  "mates": 19794,
  "matt": 9811,
  "mavs": 9156,
  "max": 3194,
  "may": 7300,
  "mayor": 14925,
  "mayorgas": 18540,
  "mazi": 19800,
  "mb": 1690,
  "mber": 2854,
  "mble": 13415,
  "mc": 2853,
  "mcd": 14567,
  "mcg": 12686,
  "mch": 15787,
  "mcmur": 14568,
  "mcmurry": 15297,
  "mcuban": 17551,
  "md": 10694,
  "me": 2630,
  "mean": 19798,
  "med": 1448,
  "medi": 2278,
  "media": 17240,
  "meg": 19791,
  "meh": 9564,
  "meier": 5555,
  "meister": 11332,
  "mel": 8119,
  "mem": 19788,
  "men": 6439,
  "mena": 19802,
  "ment": 534,
  "ments": 1486,
  "mer": 514,
  "merce": 16784,
  "meric": 546,
  "mers": 19784,
  "mery": 14033,
  "mes": 13412,
  "met": 10699,
  "mete": 19807,
  "mett": 19799,
  "mey": 15798,
  "mg": 10695,
  "mhar": 15801,
  "mharris": 18577,
  "mi": 13411,
  "mia": 13413,
  "mic": 15786,
  "mical": 11871,
  "mich": 19790,
  "michael": 5622,
  "michaels": 6927,
  "michell": 11872,
  "michellemalkin": 13077,
  "mie": 13414,
  "mies": 15791,
  "mig": 2715,
  "migration": 17535,
  "mik": 8120,
  "mika": 11577,
  "mike": 6673,
  "mil": 19785,
  "mill": 10698,
  "miller": 13422,
  "million": 15797,
  "mills": 4738,
  "milton": 15800,
  "min": 1420,
  "mind": 9154,
  "minded": 15032,
  "mine": 13417,
  "ming": 1447,
  "minister": 17231,
  "ministration": 2774,
  "minster": 3887,
  "mione": 19808,
  "mir": 19782,
  "miss": 9153,
  "misskhan": 15031,
  "mist": 9810,
  "mit": 3252,
  "mith": 3848,
  "mitig": 17625,
  "mitted": 19806,
  "mj": 15785,
  "mk": 5975,
  "mm": 5014,
  "mma": 19797,
  "mman": 15792,
  "mmm": 14795,
  "mo": 2780,
  "mod": 11870,
  "model": 15174,
  "moil": 11353,
  "mom": 7301,
  "mon": 4177,
  "mond": 15793,
  "money": 13419,
  "monic": 19801,
  "monium": 7980,
  "mont": 11869,
  "mony": 19796,
  "mooth": 12683,
  "mop": 11867,
  "mor": 1026,
  "more": 3046,
  "morgan": 2417,
  "mort": 13416,
  "mory": 9155,
  "mos": 19786,
  "mosp": 13423,
  "most": 2656,
  "mother": 19792,
  "moul": 19804,
  "mous": 13418,
  "mp": 280,
  "mpl": 1172,
  "mploy": 1413,
  "mployment": 7157,
  "mr": 10696,
  "ms": 1046,
  "mst": 3516,
  "mstrong": 3694,
  "mt": 8582,
  "mu": 10697,
  "much": 10701,
  "mun": 7302,
  "mundo": 9678,
  "mur": 5361,
  "mure": 19789,
  "murray": 12849,
  "mus": 10700,
  "must": 8584,
  "my": 1059,
  "myers": 11156,
  "mz": 19780,
  "n": 83,
  "na": 2406,
  "naSearch": 17468,
  "naSearchGRP": 18731,
  "nable": 19820,
  "nal": 19812,
  "nald": 8122,
  "naldTrump": 12946,
  "nam": 10703,
  "name": 19819,
  "nard": 19817,
  "nas": 19814,
  "nastic": 19821,
  "nat": 19813,
  "nate": 19816,
  "ncar": 19828,
  "nce": 1242,
  "ncook": 19829,
  "nd": 549,
  "nder": 4231,
  "ndum": 16819,
  "ne": 481,
  "necess": 11873,
  "necessary": 13078,
  "neck": 13425,
  "nect": 6192,
  "ned": 4362,
  "neerjustice": 16746,
  "neg": 8266,
  "negay": 18098,
  "negie": 7420,
  "negoti": 14977,
  "negotiate": 18546,
  "nel": 19815,
  "nell": 3431,
  "nemployment": 8769,
  "ner": 932,
  "ners": 2938,
  "nes": 3913,
  "ness": 1848,
  "nesty": 3451,
  "net": 10704,
  "nett": 19822,
  "never": 5233,
  "new": 6191,
  "news": 2142,
  "ney": 705,
  "ng": 1210,
  "ngel": 3235,
  "ngreen": 7859,
  "ni": 10702,
  "nic": 9814,
  "nice": 8121,
  "nick": 4363,
  "nicole": 18225,
  "nie": 3994,
  "nificent": 19825,
  "nigg": 15809,
  "niggadick": 18578,
  "night": 5175,
  "nikkio": 19827,
  "nin": 9813,
  "ning": 614,
  "nings": 16870,
  "nip": 19818,
  "niter": 15807,
  "niving": 19824,
  "njillette": 19826,
  "nl": 15803,
  "nn": 1524,
  "no": 2605,
  "nobody": 19823,
  "noc": 4585,
  "nocent": 4844,
  "nold": 5623,
  "non": 19811,
  "nonny": 15808,
  "nor": 13424,
  "not": 1474,
  "note": 5976,
  "nother": 2502,
  "nothing": 14365,
  "noting": 11226,
  "nov": 2305,
  "novation": 11310,
  "now": 592,
  "nowden": 3122,
  "nowned": 14084,
  "nox": 6193,
  "ns": 3517,
  "nset": 10321,
  "nst": 15805,
  "nt": 351,
  "nth": 2370,
  "nthia": 17457,
  "nthony": 2499,
  "ntimes": 16371,
  "nton": 16370,
  "nup": 15806,
  "nw": 19809,
  "nx": 15804,
  "ny": 1198,
  "nyc": 9474,
  "nz": 19810,
  "o": 84,
  "oHer": 19840,
  "oV": 19830,
  "oach": 15813,
  "oakes": 13428,
  "oanton": 19841,
  "oat": 19832,
  "oated": 15812,
  "oax": 8585,
  "ob": 499,
  "obal": 1719,
  "obama": 13427,
  "obby": 16769,
  "obe": 10074,
  "ober": 5423,
  "oberts": 10075,
  "obes": 16768,
  "obin": 11042,
  "obody": 2588,
  "obs": 2764,
  "oc": 1132,
  "oca": 14266,
  "ocation": 12497,
  "och": 15810,
  "ock": 1114,
  "ocker": 8865,
  "ocking": 9462,
  "ocr": 6545,
  "ocracy": 12896,
  "ocrat": 1980,
  "od": 563,
  "oda": 14071,
  "odcast": 12340,
  "odd": 3739,
  "ode": 6289,
  "odes": 10100,
  "odi": 7433,
  "oding": 10099,
  "odity": 10101,
  "ody": 1287,
  "oe": 5977,
  "oer": 19831,
  "oes": 6194,
  "oesch": 10413,
  "of": 2897,
  "ofTheDeal": 11368,
  "off": 2898,
  "official": 8949,
  "ofore": 19837,
  "oft": 15814,
  "ofthe": 14581,
  "ofw": 14580,
  "og": 810,
  "ogan": 4801,
  "oger": 4403,
  "ogn": 6307,
  "ognize": 17949,
  "ograph": 7458,
  "ography": 14937,
  "ogs": 16974,
  "ogul": 8830,
  "oice": 2023,
  "oices": 6966,
  "oiler": 19843,
  "oin": 1154,
  "oinc": 12501,
  "oincidence": 15213,
  "oine": 15811,
  "oins": 17141,
  "oint": 1439,
  "ointed": 6561,
  "ointing": 14276,
  "oip": 19836,
  "oir": 19835,
  "ojay": 13429,
  "ojr": 19839,
  "ok": 3452,
  "oke": 19834,
  "oked": 8975,
  "oker": 11874,
  "okes": 12743,
  "okevin": 19842,
  "ol": 393,
  "ola": 1674,
  "olades": 12200,
  "olamas": 12201,
  "olan": 10965,
  "olate": 16556,
  "old": 1243,
  "ole": 1835,
  "olebrity": 11268,
  "olen": 8241,
  "olences": 13891,
  "oles": 9347,
  "olf": 586,
  "olfini": 14083,
  "oli": 5684,
  "olic": 6259,
  "olie": 16557,
  "oline": 8736,
  "olit": 13889,
  "olitic": 2637,
  "olitical": 6885,
  "oliticians": 17518,
  "olitics": 3689,
  "oll": 725,
  "olla": 10125,
  "ollar": 11104,
  "ollection": 2556,
  "olling": 4520,
  "ollo": 16944,
  "ollow": 1297,
  "olls": 7822,
  "olly": 3030,
  "oln": 4118,
  "olo": 10964,
  "olod": 16558,
  "olog": 1970,
  "ological": 17379,
  "ology": 7177,
  "olous": 12199,
  "olt": 12197,
  "olute": 1717,
  "olutely": 2085,
  "olution": 4633,
  "olve": 12198,
  "olvency": 16559,
  "olves": 13890,
  "oly": 13426,
  "om": 331,
  "omTillis": 16266,
  "oma": 8200,
  "oman": 8684,
  "omas": 3109,
  "omatic": 16265,
  "omb": 2513,
  "ombardi": 5130,
  "omberg": 5199,
  "ombia": 11321,
  "ome": 505,
  "omen": 5662,
  "omenal": 8686,
  "omer": 5661,
  "omers": 8685,
  "omerset": 18132,
  "omes": 5035,
  "omet": 1246,
  "omething": 7862,
  "ometimes": 4245,
  "ometown": 17178,
  "omi": 16264,
  "omin": 2514,
  "oming": 3421,
  "ominiums": 17489,
  "omm": 2073,
  "omney": 782,
  "omo": 6476,
  "omon": 13700,
  "omp": 1779,
  "ompet": 2682,
  "ompl": 3355,
  "ompson": 9518,
  "on": 266,
  "onWest": 13496,
  "ona": 5369,
  "onal": 297,
  "onald": 303,
  "onaldtrump": 2287,
  "onb": 3917,
  "onbeg": 4076,
  "ond": 636,
  "onda": 16890,
  "onde": 6299,
  "ondents": 14118,
  "onder": 1096,
  "onderful": 17104,
  "onders": 11085,
  "ondon": 7093,
  "one": 476,
  "oneNY": 16738,
  "oned": 15942,
  "onent": 8142,
  "onents": 9852,
  "onepickens": 12289,
  "oner": 8603,
  "ones": 4466,
  "onest": 3852,
  "oney": 885,
  "onf": 15940,
  "ong": 495,
  "ongrat": 845,
  "ongress": 1972,
  "onian": 15944,
  "onic": 3307,
  "onies": 11928,
  "onight": 812,
  "onk": 15941,
  "online": 7311,
  "only": 6209,
  "onna": 3646,
  "onny": 8604,
  "ons": 1067,
  "onse": 3581,
  "onsense": 8317,
  "onservative": 17092,
  "onsh": 15943,
  "onshoring": 18586,
  "onsible": 17091,
  "ont": 463,
  "ontAnthony": 7074,
  "ontCNN": 16725,
  "onth": 1971,
  "ony": 1277,
  "onymous": 14308,
  "onz": 8141,
  "onzale": 10466,
  "onzalez": 11636,
  "oo": 362,
  "ooch": 16419,
  "ood": 497,
  "oodle": 16765,
  "oods": 3478,
  "oodsafety": 12745,
  "oody": 7422,
  "oof": 4215,
  "oogle": 12131,
  "ooh": 16418,
  "ook": 507,
  "ooked": 8273,
  "ooking": 1497,
  "ooklyn": 10078,
  "ooks": 11046,
  "ool": 1146,
  "oole": 13804,
  "oom": 19833,
  "oomberg": 7304,
  "oon": 6674,
  "ooo": 6029,
  "oooo": 7744,
  "ooooo": 12130,
  "oop": 7743,
  "ooper": 9984,
  "oops": 3372,
  "oor": 2657,
  "oore": 2672,
  "ooress": 3931,
  "ooressi": 4077,
  "oos": 7373,
  "oose": 3597,
  "oot": 2284,
  "ootball": 10268,
  "ooth": 19838,
  "ooze": 16420,
  "op": 427,
  "ope": 783,
  "open": 7409,
  "opens": 16654,
  "opes": 16653,
  "opey": 3232,
  "oph": 6505,
  "opher": 9362,
  "opoly": 16656,
  "opoul": 16655,
  "opoulos": 18667,
  "opp": 2022,
  "oppMar": 14459,
  "opped": 17385,
  "opper": 14458,
  "oppers": 17386,
  "opping": 10261,
  "or": 278,
  "ora": 13537,
  "orable": 11950,
  "orado": 7685,
  "oral": 865,
  "orales": 12439,
  "oramic": 10766,
  "orated": 13542,
  "ord": 604,
  "ordable": 14094,
  "ordan": 4923,
  "order": 1769,
  "orders": 6294,
  "ording": 4234,
  "ordon": 12359,
  "ords": 9405,
  "ore": 483,
  "ored": 2490,
  "oren": 7077,
  "orenz": 9041,
  "orenzolamas": 12980,
  "ores": 7303,
  "orey": 12290,
  "orf": 16004,
  "orge": 1810,
  "orgeous": 5117,
  "orges": 11951,
  "ori": 13538,
  "oria": 7318,
  "orial": 8157,
  "ories": 3049,
  "oring": 2145,
  "orious": 5020,
  "oris": 11948,
  "ority": 16005,
  "ork": 807,
  "orld": 1422,
  "orm": 2664,
  "ormal": 7550,
  "orman": 4190,
  "orn": 1908,
  "orney": 13540,
  "oront": 2309,
  "oronto": 2382,
  "orough": 11949,
  "orous": 13539,
  "orrie": 5640,
  "orrow": 2817,
  "orry": 2575,
  "ors": 1219,
  "orse": 3524,
  "orsey": 17668,
  "orsing": 13541,
  "orst": 6991,
  "ort": 541,
  "ortant": 14045,
  "orter": 3256,
  "orters": 3710,
  "orth": 2451,
  "orts": 1832,
  "orum": 3453,
  "ory": 906,
  "os": 532,
  "osaki": 5426,
  "osal": 12313,
  "ose": 967,
  "osed": 3738,
  "osen": 10084,
  "oseph": 9450,
  "oser": 6770,
  "osers": 12314,
  "oses": 8782,
  "osh": 3120,
  "osie": 2294,
  "osing": 3606,
  "osingBell": 17683,
  "osity": 16789,
  "osoph": 16791,
  "osp": 4398,
  "ospital": 6135,
  "oss": 1212,
  "ost": 548,
  "oston": 3072,
  "osure": 16790,
  "ot": 326,
  "ota": 4610,
  "otcom": 8197,
  "ote": 720,
  "oted": 9933,
  "otel": 921,
  "oters": 16240,
  "otes": 4759,
  "oth": 1350,
  "other": 863,
  "otherhood": 4055,
  "others": 11126,
  "otherwise": 17008,
  "othy": 11213,
  "oti": 1433,
  "oting": 5032,
  "otion": 10832,
  "otiv": 2669,
  "otle": 8679,
  "oto": 3594,
  "otom": 6713,
  "otos": 7719,
  "otribune": 12061,
  "ots": 1605,
  "ott": 2577,
  "otta": 10279,
  "otte": 3108,
  "otten": 11326,
  "otter": 13691,
  "ottes": 7546,
  "otting": 12060,
  "otto": 11325,
  "otv": 13690,
  "ou": 270,
  "oub": 3412,
  "ouble": 2088,
  "ouch": 1670,
  "ouche": 15958,
  "oud": 1470,
  "oudin": 17247,
  "oug": 537,
  "ouge": 10089,
  "ough": 669,
  "oughlin": 16921,
  "ought": 1022,
  "ouis": 6685,
  "ouise": 9192,
  "oul": 4745,
  "ould": 394,
  "oulter": 12827,
  "oun": 3583,
  "ounce": 9193,
  "ounced": 14663,
  "ouncil": 6610,
  "ound": 872,
  "ounded": 11127,
  "ounding": 14190,
  "ounds": 4939,
  "oung": 13511,
  "ount": 544,
  "ountain": 12325,
  "ountry": 7796,
  "oup": 1907,
  "our": 397,
  "ource": 7397,
  "ources": 6493,
  "ourd": 16564,
  "oure": 4591,
  "ouric": 13893,
  "ourke": 16565,
  "ourn": 2248,
  "ournal": 2929,
  "ournament": 7532,
  "ournier": 14495,
  "ours": 7396,
  "ourt": 12204,
  "ous": 577,
  "ousands": 3740,
  "ouse": 1097,
  "ously": 14076,
  "out": 417,
  "outh": 2153,
  "outhern": 10987,
  "outs": 10041,
  "ouza": 15957,
  "ov": 873,
  "ova": 7113,
  "ove": 796,
  "oved": 9440,
  "ovember": 3383,
  "over": 3009,
  "overc": 14596,
  "overed": 14164,
  "overty": 8956,
  "overy": 4364,
  "oves": 7114,
  "ovin": 10150,
  "oving": 17010,
  "ovsky": 14191,
  "ow": 324,
  "owa": 2793,
  "oward": 16236,
  "owdy": 16238,
  "owe": 16235,
  "owell": 6473,
  "owens": 9269,
  "ower": 753,
  "owering": 16952,
  "owers": 4203,
  "owery": 12415,
  "owing": 13687,
  "owitz": 9270,
  "owl": 4023,
  "owler": 16237,
  "own": 830,
  "owners": 16982,
  "owns": 11118,
  "ownt": 4292,
  "ows": 4109,
  "owski": 7977,
  "ox": 610,
  "oxo": 8801,
  "oy": 644,
  "oya": 7447,
  "oyaj": 7097,
  "oyajackson": 7259,
  "oyal": 7096,
  "oyd": 6055,
  "oyed": 16899,
  "oyer": 14123,
  "oyers": 11089,
  "oying": 14124,
  "oyle": 10116,
  "oz": 10705,
  "p": 85,
  "pFr": 19858,
  "pP": 13430,
  "pa": 15815,
  "pac": 9157,
  "pace": 15817,
  "page": 11878,
  "paid": 19852,
  "pan": 6967,
  "pania": 15820,
  "par": 13432,
  "parent": 19857,
  "pass": 9816,
  "passmore": 18226,
  "pastor": 19861,
  "pat": 6195,
  "pathetic": 17933,
  "patrick": 17934,
  "patriot": 12874,
  "patriotic": 15230,
  "patt": 15818,
  "patter": 13438,
  "patterson": 15239,
  "paul": 9817,
  "paw": 13436,
  "payer": 15822,
  "pbr": 15821,
  "pe": 8123,
  "peace": 19862,
  "pearl": 13441,
  "pearls": 18454,
  "pect": 4365,
  "pective": 9818,
  "pell": 19850,
  "pen": 1008,
  "pencer": 11144,
  "people": 9815,
  "per": 840,
  "pers": 11877,
  "pertmur": 16987,
  "pertmurdoch": 18702,
  "pet": 7661,
  "pg": 19844,
  "pga": 13439,
  "pgach": 13442,
  "ph": 1466,
  "phAgnes": 14363,
  "phew": 19855,
  "phil": 14362,
  "phillips": 14364,
  "philly": 17246,
  "phy": 6857,
  "pi": 19845,
  "piano": 19859,
  "piaz": 19865,
  "pickens": 11883,
  "pie": 19848,
  "piece": 4455,
  "pieces": 9819,
  "piersmorgan": 11881,
  "pin": 3356,
  "pl": 1962,
  "plaats": 10258,
  "place": 9534,
  "placido": 12616,
  "plane": 14454,
  "plant": 17378,
  "play": 14453,
  "player": 12615,
  "ple": 11875,
  "please": 9159,
  "plus": 5298,
  "pm": 7660,
  "po": 3995,
  "pock": 15819,
  "pocketing": 18579,
  "point": 11880,
  "pol": 19847,
  "politic": 10706,
  "political": 19863,
  "politico": 18287,
  "politics": 8586,
  "polls": 13440,
  "pool": 19853,
  "poole": 19864,
  "poor": 19854,
  "por": 6196,
  "port": 3996,
  "ports": 8124,
  "post": 2976,
  "pot": 13433,
  "pow": 15816,
  "power": 9158,
  "powers": 19860,
  "pp": 358,
  "pped": 3061,
  "pper": 13795,
  "pping": 2758,
  "ppins": 13796,
  "pport": 1099,
  "pportun": 1977,
  "pportunity": 17382,
  "pprent": 446,
  "pprentic": 6269,
  "pprentice": 449,
  "pprenticenbc": 6643,
  "pr": 5978,
  "prah": 5363,
  "prat": 19849,
  "pre": 13431,
  "prep": 19851,
  "pres": 13434,
  "president": 4454,
  "press": 6197,
  "prest": 19856,
  "pretty": 15823,
  "prez": 11882,
  "pri": 13435,
  "price": 17911,
  "pris": 1548,
  "prise": 5537,
  "prised": 17278,
  "priv": 13437,
  "pro": 3914,
  "probably": 17726,
  "profit": 17728,
  "progress": 17727,
  "promp": 17725,
  "ps": 2658,
  "pstevens": 15824,
  "psy": 17520,
  "pt": 875,
  "ption": 11128,
  "pts": 5362,
  "ptv": 17011,
  "pug": 11879,
  "pundit": 8125,
  "put": 11876,
  "py": 19846,
  "q": 86,
  "qu": 601,
  "qualified": 14093,
  "quare": 14091,
  "que": 3073,
  "queen": 17597,
  "quer": 12357,
  "quis": 11075,
  "quisite": 13057,
  "quote": 14092,
  "quotes": 12358,
  "r": 87,
  "ra": 501,
  "rab": 2958,
  "rabhu": 14591,
  "rac": 9821,
  "racing": 19882,
  "ract": 2572,
  "ractice": 14528,
  "ractive": 17499,
  "rad": 7662,
  "radio": 10709,
  "rae": 8271,
  "rael": 1801,
  "raeme": 10077,
  "raeus": 9063,
  "raf": 7080,
  "raff": 14026,
  "raft": 8272,
  "rag": 9160,
  "rage": 5979,
  "rageous": 8010,
  "raggins": 18173,
  "ragni": 18174,
  "rah": 4044,
  "raham": 3119,
  "rahi": 9617,
  "raid": 2916,
  "raig": 11043,
  "rain": 3874,
  "raine": 9385,
  "rait": 12302,
  "rake": 7423,
  "ral": 2143,
  "ralia": 5303,
  "ram": 5624,
  "rams": 11888,
  "ran": 1013,
  "rance": 6441,
  "rand": 13445,
  "randy": 19879,
  "rane": 8856,
  "range": 6074,
  "rant": 8126,
  "rants": 19878,
  "rap": 7789,
  "rapevine": 18069,
  "raph": 5069,
  "raq": 1460,
  "rary": 9823,
  "ras": 9820,
  "rase": 10708,
  "rast": 11884,
  "rat": 667,
  "ratch": 19874,
  "rate": 2781,
  "rated": 3484,
  "rates": 14133,
  "rath": 16917,
  "rating": 6301,
  "ration": 1600,
  "rational": 16918,
  "rators": 16919,
  "ratv": 8816,
  "raud": 4314,
  "rav": 2554,
  "rave": 15828,
  "raves": 14027,
  "ravis": 6587,
  "ravo": 14526,
  "raw": 5236,
  "ray": 1917,
  "raydon": 3973,
  "raz": 6767,
  "razil": 11539,
  "rbeach": 15836,
  "rboi": 19885,
  "rc": 19866,
  "rcott": 19880,
  "rd": 19867,
  "re": 263,
  "rea": 6207,
  "read": 3255,
  "ready": 1647,
  "reak": 15926,
  "real": 4744,
  "realDonaldTrump": 10373,
  "really": 6978,
  "ream": 1965,
  "reas": 8139,
  "reason": 13491,
  "reasury": 9058,
  "reat": 361,
  "reaux": 17937,
  "reb": 9185,
  "rebels": 12986,
  "reci": 3411,
  "reck": 8600,
  "recovery": 15929,
  "rect": 2450,
  "red": 842,
  "redible": 3126,
  "redict": 12431,
  "redit": 14178,
  "redman": 12430,
  "ree": 799,
  "reece": 9186,
  "reed": 1691,
  "reedom": 3178,
  "reeds": 6337,
  "reek": 12426,
  "reen": 2067,
  "reens": 8140,
  "rees": 15924,
  "reet": 3645,
  "reetings": 14668,
  "reets": 9845,
  "reeze": 14165,
  "reg": 3409,
  "rehen": 15927,
  "reid": 15925,
  "reig": 13490,
  "reign": 15928,
  "reillyfact": 4590,
  "reit": 2545,
  "reitbart": 2650,
  "rekh": 15930,
  "rel": 3999,
  "reland": 2363,
  "rell": 3775,
  "rely": 9844,
  "rem": 1211,
  "reme": 4809,
  "remely": 8440,
  "remember": 14291,
  "remendous": 2318,
  "ren": 1029,
  "rence": 3959,
  "rench": 11150,
  "rency": 4138,
  "rend": 3410,
  "render": 14648,
  "rene": 970,
  "reneur": 977,
  "reng": 3617,
  "rent": 433,
  "rently": 13951,
  "renzy": 17073,
  "rep": 857,
  "report": 12438,
  "reported": 18400,
  "repreneur": 981,
  "repreneurs": 1176,
  "represent": 11125,
  "res": 376,
  "resa": 7051,
  "research": 16512,
  "resent": 4216,
  "resents": 12174,
  "resh": 7052,
  "reshing": 10946,
  "resident": 457,
  "resp": 10013,
  "respect": 9331,
  "ress": 733,
  "ressed": 7106,
  "ression": 12411,
  "rest": 3047,
  "ret": 849,
  "rete": 17001,
  "rets": 8601,
  "rett": 5273,
  "retti": 12844,
  "retty": 6790,
  "rev": 15923,
  "rew": 1601,
  "rey": 2814,
  "rez": 3580,
  "rg": 19868,
  "rh": 13443,
  "rhino": 19884,
  "ri": 412,
  "ria": 10980,
  "riage": 8744,
  "rial": 7404,
  "rian": 2584,
  "riate": 16619,
  "rib": 4781,
  "rible": 2617,
  "ribune": 9631,
  "ribut": 5059,
  "ribute": 7991,
  "ric": 910,
  "rican": 17027,
  "ricane": 4804,
  "rice": 13444,
  "rich": 3915,
  "rick": 3140,
  "rickson": 7561,
  "rict": 7461,
  "rid": 19871,
  "ridge": 19881,
  "rie": 3938,
  "ried": 3216,
  "rien": 10039,
  "riend": 682,
  "riends": 804,
  "rier": 10038,
  "riers": 16618,
  "ries": 2585,
  "rif": 8743,
  "riff": 5688,
  "riffin": 10402,
  "riffith": 14832,
  "rific": 6501,
  "rificed": 17967,
  "rig": 5625,
  "riggs": 17894,
  "right": 3997,
  "rigley": 17893,
  "riguez": 9649,
  "rik": 7770,
  "rike": 16617,
  "ril": 4638,
  "rill": 19872,
  "rimental": 19886,
  "rimin": 15835,
  "rina": 9161,
  "ring": 2474,
  "ringer": 14514,
  "rings": 15831,
  "rink": 9822,
  "rinkler": 18227,
  "rins": 13448,
  "rinsic": 18455,
  "rior": 4122,
  "riorities": 14722,
  "riors": 12227,
  "riot": 3939,
  "riots": 4504,
  "rip": 6500,
  "ripp": 16616,
  "ris": 888,
  "rise": 17020,
  "rish": 19875,
  "risis": 4668,
  "risk": 8302,
  "rison": 7460,
  "riss": 11886,
  "rist": 1230,
  "risten": 14296,
  "rita": 15834,
  "rites": 15833,
  "ritt": 13447,
  "rity": 710,
  "rium": 4503,
  "riv": 1929,
  "rival": 17376,
  "rive": 4036,
  "rivers": 16620,
  "riving": 4823,
  "rivolous": 12612,
  "rj": 19869,
  "rley": 19877,
  "rn": 10707,
  "ro": 387,
  "road": 6257,
  "roadcast": 17943,
  "roads": 10021,
  "rob": 9339,
  "robb": 12189,
  "robbins": 15194,
  "roc": 13872,
  "rock": 3867,
  "rockets": 11430,
  "rocks": 11429,
  "rocus": 12186,
  "rod": 2673,
  "rode": 12188,
  "rodman": 6360,
  "rody": 8939,
  "rodyFile": 15022,
  "roe": 16526,
  "roed": 16527,
  "rog": 4899,
  "rok": 12185,
  "rokaw": 18379,
  "rol": 1990,
  "roll": 3214,
  "rolling": 9593,
  "rom": 521,
  "rome": 19873,
  "ron": 4862,
  "rone": 15829,
  "rong": 876,
  "ronic": 11887,
  "ront": 11885,
  "roo": 15827,
  "room": 2057,
  "rooms": 7525,
  "rop": 4302,
  "rophe": 9004,
  "rophy": 13874,
  "ropping": 13873,
  "ropriate": 17772,
  "ror": 2120,
  "ros": 3540,
  "ross": 2094,
  "rossing": 11409,
  "roth": 19876,
  "rough": 15830,
  "round": 9162,
  "roup": 15832,
  "rous": 13446,
  "rove": 4500,
  "rovers": 10954,
  "row": 738,
  "rown": 3485,
  "roy": 1484,
  "royRory": 12550,
  "royer": 14368,
  "roys": 12187,
  "rpe": 13449,
  "rpeete": 15240,
  "rpm": 19883,
  "rr": 15825,
  "rs": 3195,
  "rt": 6675,
  "rtl": 17978,
  "ru": 276,
  "ruary": 9200,
  "rub": 7684,
  "ruck": 9866,
  "ruct": 6214,
  "ruction": 3709,
  "ructure": 10415,
  "rud": 9865,
  "rude": 9867,
  "rue": 647,
  "ruett": 13530,
  "ruff": 13529,
  "rug": 2903,
  "rum": 2942,
  "rump": 286,
  "rumpy": 13569,
  "rumpyH": 13570,
  "rumpyHusky": 15244,
  "run": 3777,
  "runch": 14680,
  "runk": 11425,
  "runs": 13531,
  "rupt": 1809,
  "rus": 3649,
  "rust": 5988,
  "rut": 5373,
  "rutal": 17879,
  "ruth": 11945,
  "ruthers": 13532,
  "ruz": 4372,
  "rv": 19870,
  "rx": 15826,
  "ry": 460,
  "ryan": 8767,
  "ryl": 9379,
  "rys": 8263,
  "ryst": 10059,
  "s": 88,
  "sa": 15837,
  "sad": 9825,
  "said": 10715,
  "sal": 15839,
  "sam": 10713,
  "same": 19896,
  "san": 11890,
  "sar": 11891,
  "sassy": 19901,
  "sat": 15840,
  "say": 10712,
  "sb": 10710,
  "sbest": 19903,
  "sc": 1723,
  "scape": 17330,
  "sch": 9826,
  "scot": 13452,
  "scott": 15847,
  "scotty": 15241,
  "screw": 17329,
  "sdevine": 19907,
  "se": 382,
  "sear": 10018,
  "seas": 6256,
  "sec": 4217,
  "secure": 10354,
  "see": 5407,
  "sein": 10949,
  "sel": 844,
  "selbeck": 14181,
  "self": 940,
  "selin": 11119,
  "sell": 3470,
  "selljr": 8409,
  "selm": 14180,
  "selves": 3488,
  "semb": 16519,
  "sembly": 18655,
  "sen": 2631,
  "send": 19894,
  "senio": 3183,
  "sequ": 7055,
  "ser": 19890,
  "ses": 1949,
  "set": 5015,
  "seven": 16518,
  "sew": 19892,
  "sex": 7756,
  "sexual": 18066,
  "sexylove": 11574,
  "sey": 4498,
  "sfan": 19904,
  "sh": 847,
  "shall": 6530,
  "shaun": 10146,
  "shaw": 16995,
  "she": 4739,
  "sherwin": 15852,
  "ship": 4666,
  "ships": 16996,
  "shire": 2677,
  "shit": 6789,
  "shoes": 16997,
  "shore": 14184,
  "shot": 16994,
  "should": 9433,
  "show": 1932,
  "si": 19887,
  "sid": 19891,
  "side": 3010,
  "sided": 11892,
  "signed": 15850,
  "sincl": 19906,
  "sing": 915,
  "singer": 17032,
  "sinner": 19900,
  "sion": 9824,
  "sions": 15844,
  "sive": 4740,
  "six": 19898,
  "sk": 15838,
  "ski": 15848,
  "skin": 19905,
  "skins": 9827,
  "sky": 10716,
  "sle": 15841,
  "sm": 19888,
  "sman": 4741,
  "smand": 11893,
  "smart": 15846,
  "smith": 9828,
  "smooth": 15851,
  "sn": 4456,
  "so": 1084,
  "soci": 10176,
  "social": 17102,
  "sof": 14251,
  "solete": 11165,
  "some": 13450,
  "son": 954,
  "sonnset": 14211,
  "soon": 14252,
  "sort": 15843,
  "soul": 19902,
  "south": 19899,
  "sp": 645,
  "space": 14126,
  "span": 6781,
  "spaper": 16903,
  "speaks": 7811,
  "spectacular": 16902,
  "spent": 14125,
  "spin": 7810,
  "spir": 8288,
  "spl": 16900,
  "sports": 16901,
  "spull": 14127,
  "sq": 11889,
  "squ": 8587,
  "squire": 10481,
  "sr": 19889,
  "ss": 1514,
  "ssad": 8889,
  "st": 328,
  "stac": 7720,
  "stacles": 11571,
  "stage": 10835,
  "stal": 16241,
  "stalk": 16247,
  "stan": 8680,
  "stanbul": 10488,
  "stance": 12063,
  "stances": 12065,
  "stand": 1796,
  "standing": 6341,
  "stant": 8198,
  "star": 5392,
  "start": 16244,
  "starts": 16253,
  "state": 6011,
  "station": 16243,
  "stay": 9273,
  "steel": 16252,
  "steen": 10838,
  "stein": 6474,
  "ster": 1387,
  "sters": 16242,
  "steve": 8681,
  "steven": 9934,
  "stevens": 11624,
  "sthe": 13693,
  "sthey": 13694,
  "sthings": 12066,
  "stick": 9274,
  "stig": 7721,
  "stit": 6010,
  "stitute": 11514,
  "stitutional": 11515,
  "stock": 12064,
  "ston": 5658,
  "stone": 3314,
  "stood": 12062,
  "stop": 10834,
  "stor": 10833,
  "stories": 8199,
  "storino": 13042,
  "storm": 16251,
  "story": 10836,
  "str": 13692,
  "stra": 16245,
  "stream": 16249,
  "strom": 16246,
  "stuff": 16248,
  "stupid": 10837,
  "stweet": 4611,
  "sty": 9272,
  "style": 16250,
  "su": 2782,
  "success": 10293,
  "successful": 13031,
  "such": 13451,
  "sues": 19897,
  "sun": 19893,
  "sur": 10714,
  "surprise": 18288,
  "sus": 15842,
  "susan": 15849,
  "susans": 18580,
  "sustainable": 6968,
  "sv": 10711,
  "sw": 7305,
  "swe": 19895,
  "sweepstweet": 10448,
  "sweet": 15845,
  "sy": 6676,
  "syl": 4366,
  "sylvania": 4441,
  "t": 89,
  "ta": 5980,
  "table": 19923,
  "tah": 15861,
  "tain": 4742,
  "take": 6198,
  "tal": 19911,
  "talent": 19926,
  "talk": 15862,
  "tan": 9829,
  "tanselm": 15074,
  "tantig": 19935,
  "tax": 13454,
  "taylor": 19931,
  "taz": 15857,
  "tc": 15853,
  "td": 15854,
  "te": 1163,
  "ted": 2899,
  "telegraph": 19936,
  "tell": 9830,
  "ten": 2811,
  "tenance": 14562,
  "ter": 379,
  "terman": 1928,
  "tern": 1956,
  "terry": 12177,
  "ters": 1742,
  "tf": 11894,
  "tg": 15855,
  "tging": 7664,
  "th": 470,
  "tha": 9380,
  "thalMan": 16732,
  "thank": 8768,
  "thanks": 2376,
  "that": 3802,
  "the": 1078,
  "then": 6199,
  "thepress": 14249,
  "ther": 852,
  "there": 8127,
  "thers": 10148,
  "these": 17096,
  "they": 2558,
  "thing": 962,
  "think": 10061,
  "thinker": 18251,
  "this": 5231,
  "thompson": 12286,
  "thon": 16731,
  "though": 12285,
  "thur": 5421,
  "thy": 12284,
  "ti": 19908,
  "tic": 1375,
  "tick": 19917,
  "tier": 19925,
  "ties": 3998,
  "tiffs": 15865,
  "till": 19913,
  "tim": 6969,
  "time": 3518,
  "times": 8128,
  "tin": 19910,
  "tina": 19918,
  "ting": 938,
  "tis": 15856,
  "tj": 11895,
  "tl": 19909,
  "tle": 19912,
  "tm": 13453,
  "tmur": 15863,
  "to": 3774,
  "toast": 17701,
  "todd": 6444,
  "tom": 10717,
  "tomm": 19928,
  "ton": 838,
  "tonight": 15860,
  "tony": 16986,
  "too": 6677,
  "top": 19916,
  "tor": 5176,
  "toronto": 19929,
  "tot": 7663,
  "total": 14949,
  "totally": 18056,
  "tough": 15859,
  "tower": 19920,
  "town": 6443,
  "tr": 4586,
  "tra": 10718,
  "travel": 17797,
  "tremendous": 10719,
  "troll": 13455,
  "troller": 18456,
  "trow": 19919,
  "true": 15858,
  "trump": 1623,
  "trumprun": 17302,
  "trumpvlog": 6334,
  "trust": 19930,
  "truth": 19934,
  "ts": 785,
  "tt": 6442,
  "tubby": 15864,
  "tucci": 19933,
  "tuff": 19924,
  "tune": 5626,
  "tur": 19915,
  "tures": 19927,
  "turn": 19921,
  "turner": 19932,
  "tus": 19914,
  "tv": 2810,
  "tw": 5364,
  "tweet": 19922,
  "twit": 17877,
  "two": 10389,
  "ty": 1055,
  "tyWur": 12478,
  "tyler": 12477,
  "tyro": 17084,
  "u": 90,
  "ua": 9163,
  "uaD": 15873,
  "uable": 9166,
  "uage": 7667,
  "uah": 19941,
  "ual": 1679,
  "ually": 1646,
  "uals": 8590,
  "uan": 5627,
  "uane": 19944,
  "uart": 7306,
  "uary": 4094,
  "uate": 11898,
  "uated": 10721,
  "uating": 19943,
  "uation": 3577,
  "uations": 19940,
  "uay": 15868,
  "ub": 575,
  "uban": 2181,
  "ubb": 4653,
  "ubby": 11064,
  "ube": 7088,
  "ubes": 12343,
  "ublic": 866,
  "ublican": 9438,
  "ublicans": 4056,
  "ubs": 8792,
  "uc": 1963,
  "ucas": 10259,
  "ucci": 9167,
  "uch": 743,
  "uck": 800,
  "uckab": 10137,
  "uckabee": 10526,
  "ucker": 5094,
  "ucket": 6060,
  "uckle": 16967,
  "ucks": 16966,
  "ucky": 4935,
  "uconservative": 19948,
  "uct": 9165,
  "uction": 8589,
  "ud": 741,
  "uddy": 10128,
  "ude": 1931,
  "udes": 9426,
  "udia": 16948,
  "udice": 11105,
  "uding": 3381,
  "udio": 12412,
  "udy": 8825,
  "ue": 759,
  "ued": 9831,
  "uel": 3196,
  "ueled": 19947,
  "uem": 13458,
  "uer": 19938,
  "uerto": 10722,
  "ues": 1284,
  "uesday": 2158,
  "uesen": 10203,
  "uet": 19939,
  "uez": 8826,
  "uf": 8588,
  "ufact": 4457,
  "ufacturing": 14751,
  "uff": 1259,
  "uffington": 11195,
  "ug": 811,
  "ugar": 2098,
  "uge": 2307,
  "ughes": 10140,
  "uh": 10720,
  "ui": 15866,
  "uice": 15870,
  "uid": 15869,
  "uild": 2717,
  "uilding": 5133,
  "uilt": 19945,
  "uine": 7666,
  "uing": 9164,
  "uis": 8129,
  "uishes": 12947,
  "uity": 15871,
  "uk": 5981,
  "uke": 5366,
  "uker": 2214,
  "uko": 19946,
  "ul": 437,
  "ula": 6266,
  "ular": 1743,
  "ulate": 6757,
  "ulated": 6506,
  "ulating": 8753,
  "ulation": 3940,
  "ulations": 1101,
  "ulator": 16665,
  "ule": 13456,
  "ulent": 16663,
  "ules": 7410,
  "ulf": 12246,
  "uling": 16662,
  "ull": 1106,
  "ulous": 2180,
  "ulpo": 8255,
  "ulse": 16664,
  "ult": 1626,
  "ultiv": 17304,
  "ults": 2586,
  "ulture": 9503,
  "ulty": 10992,
  "ulu": 9365,
  "uly": 5365,
  "ulz": 16661,
  "um": 596,
  "umb": 1131,
  "umbai": 10188,
  "umber": 2675,
  "umbers": 2099,
  "umbia": 8322,
  "umble": 12354,
  "umbling": 9466,
  "umbo": 17127,
  "ume": 6293,
  "ument": 11899,
  "umer": 5982,
  "umm": 7803,
  "ummer": 7804,
  "ummies": 10463,
  "ummy": 2920,
  "umn": 7439,
  "ump": 2306,
  "umph": 11311,
  "umstances": 12355,
  "un": 403,
  "unate": 12206,
  "unately": 7058,
  "unch": 3114,
  "und": 1718,
  "under": 9349,
  "undit": 7512,
  "undred": 6096,
  "undy": 14414,
  "une": 1353,
  "ung": 5219,
  "unior": 9350,
  "unk": 16568,
  "unlike": 16570,
  "unn": 4905,
  "unning": 4033,
  "unningham": 14707,
  "uno": 16569,
  "uns": 7766,
  "unt": 1849,
  "unta": 8364,
  "unz": 13899,
  "uo": 11896,
  "uoli": 6445,
  "uomo": 7668,
  "uon": 19937,
  "uous": 13457,
  "up": 993,
  "uper": 11900,
  "upid": 1343,
  "upp": 6678,
  "ups": 17061,
  "upt": 19942,
  "upy": 12462,
  "ur": 377,
  "urable": 12175,
  "ural": 5406,
  "urance": 5681,
  "urate": 7388,
  "uration": 16513,
  "urb": 1491,
  "urbines": 8888,
  "urch": 2110,
  "urd": 10014,
  "ure": 670,
  "ured": 3947,
  "urel": 16922,
  "uren": 7101,
  "ures": 1850,
  "urgia": 16514,
  "uring": 1308,
  "urious": 3155,
  "urity": 2636,
  "urk": 10015,
  "urn": 862,
  "urnberry": 2082,
  "urner": 6793,
  "urnett": 8298,
  "urning": 3933,
  "urns": 8834,
  "urphy": 12176,
  "urray": 7054,
  "urricane": 8232,
  "urs": 2340,
  "ursday": 3135,
  "urse": 9333,
  "ursed": 17453,
  "urst": 3731,
  "urt": 9332,
  "urther": 7053,
  "uru": 11897,
  "ury": 1701,
  "us": 359,
  "usa": 6028,
  "usalem": 12120,
  "usan": 6730,
  "usd": 16395,
  "use": 803,
  "used": 3320,
  "users": 16396,
  "uses": 5046,
  "usey": 2879,
  "ush": 1508,
  "usic": 4891,
  "usiness": 716,
  "using": 7371,
  "usion": 13797,
  "usional": 7739,
  "usive": 2985,
  "usky": 10898,
  "uson": 8222,
  "usong": 16397,
  "uss": 1563,
  "ussell": 7045,
  "ussenPoll": 14387,
  "usso": 16398,
  "ust": 424,
  "ustain": 6044,
  "ustainable": 6932,
  "uster": 8752,
  "ustin": 6756,
  "uston": 13944,
  "ut": 374,
  "utch": 10936,
  "ute": 1179,
  "uted": 13845,
  "uter": 13844,
  "uters": 9328,
  "utes": 2616,
  "utgers": 16487,
  "uth": 5054,
  "uther": 16485,
  "uthie": 14798,
  "uting": 12161,
  "ution": 2172,
  "utional": 8228,
  "utions": 4627,
  "utism": 6738,
  "utive": 4497,
  "utm": 16484,
  "utmc": 16486,
  "uto": 3794,
  "uts": 2635,
  "utsch": 14537,
  "utt": 10935,
  "utter": 13846,
  "utul": 12162,
  "uture": 2223,
  "uty": 9327,
  "uu": 7665,
  "uum": 15872,
  "uuuu": 18057,
  "uv": 6200,
  "uw": 15867,
  "ux": 1633,
  "uxe": 10236,
  "uy": 2716,
  "uz": 6970,
  "v": 91,
  "va": 10723,
  "vacc": 19962,
  "vada": 19961,
  "val": 3098,
  "van": 7307,
  "vance": 19955,
  "vander": 9833,
  "vanh": 19960,
  "vania": 4367,
  "vank": 1135,
  "vanka": 1143,
  "vant": 4863,
  "vas": 15875,
  "vb": 19949,
  "vd": 19950,
  "ve": 323,
  "ved": 1430,
  "vedev": 12545,
  "vegas": 16234,
  "veill": 16232,
  "veillance": 18624,
  "vel": 1573,
  "veland": 10831,
  "velop": 2740,
  "velopment": 14554,
  "velt": 7894,
  "vement": 16233,
  "ven": 712,
  "vency": 14144,
  "venge": 14143,
  "venient": 8821,
  "vent": 1183,
  "vention": 2136,
  "venture": 17151,
  "venue": 3231,
  "ver": 346,
  "verMc": 13771,
  "verage": 3787,
  "veral": 16363,
  "verance": 8220,
  "vered": 8678,
  "verly": 16364,
  "vern": 1213,
  "vernment": 1382,
  "vernor": 3622,
  "vers": 2031,
  "verse": 9304,
  "version": 7524,
  "vert": 3111,
  "vertising": 17602,
  "very": 479,
  "ves": 1469,
  "vest": 4458,
  "vesty": 10725,
  "vet": 16231,
  "vey": 7348,
  "vg": 19951,
  "via": 13459,
  "vib": 15880,
  "vich": 15879,
  "vick": 15878,
  "vie": 19953,
  "vied": 19959,
  "view": 658,
  "vik": 19957,
  "ville": 2066,
  "vin": 1985,
  "vince": 19958,
  "ving": 2939,
  "vious": 5016,
  "viously": 8591,
  "vir": 3643,
  "viron": 3763,
  "vironment": 3904,
  "vironmental": 14694,
  "vis": 9832,
  "vise": 19956,
  "vision": 3011,
  "vity": 15876,
  "viv": 15877,
  "vivor": 18581,
  "vlog": 2215,
  "vocation": 19963,
  "voice": 11902,
  "von": 10724,
  "vor": 15874,
  "vote": 11901,
  "voy": 19954,
  "vs": 19952,
  "vy": 5628,
  "w": 92,
  "wa": 13460,
  "wab": 15886,
  "wal": 19967,
  "walk": 15887,
  "walker": 11906,
  "wan": 10727,
  "war": 11905,
  "ward": 793,
  "wards": 2492,
  "warner": 19978,
  "wart": 19969,
  "was": 10728,
  "watch": 7669,
  "watchable": 12936,
  "water": 19973,
  "way": 2606,
  "ways": 839,
  "wbit": 19975,
  "wc": 19964,
  "wd": 13461,
  "we": 651,
  "wear": 9834,
  "weat": 16906,
  "weather": 6525,
  "week": 5367,
  "weekMag": 10390,
  "ween": 3550,
  "weet": 891,
  "weight": 2530,
  "weiner": 11090,
  "welch": 6202,
  "well": 4238,
  "wellBank": 17763,
  "wen": 8592,
  "wer": 1879,
  "wered": 6524,
  "werner": 11270,
  "wers": 4460,
  "west": 19968,
  "wester": 19972,
  "wf": 15881,
  "wg": 11903,
  "wh": 1763,
  "what": 6568,
  "whel": 13467,
  "when": 8130,
  "where": 4461,
  "which": 5541,
  "while": 9513,
  "whistle": 17339,
  "white": 11260,
  "who": 5293,
  "why": 5294,
  "wich": 13464,
  "wick": 13463,
  "wide": 6971,
  "wift": 19976,
  "wig": 15884,
  "wight": 9168,
  "wil": 8593,
  "wild": 13465,
  "will": 3849,
  "wilson": 11908,
  "win": 2387,
  "wind": 8594,
  "wine": 19970,
  "winery": 6584,
  "wing": 11904,
  "wire": 10730,
  "wise": 5629,
  "with": 3916,
  "withfriends": 14696,
  "without": 14695,
  "witt": 19971,
  "wj": 19965,
  "wmc": 19974,
  "wmer": 15885,
  "wn": 4459,
  "woman": 11909,
  "women": 15888,
  "won": 19966,
  "wonderful": 19980,
  "wonders": 19979,
  "wood": 3253,
  "work": 2285,
  "works": 4828,
  "world": 6680,
  "worldwide": 17979,
  "worth": 10731,
  "worthy": 15117,
  "would": 10729,
  "wow": 15883,
  "wp": 13462,
  "wr": 6679,
  "wreck": 19977,
  "wt": 15882,
  "wundy": 15889,
  "ww": 6201,
  "www": 12875,
  "wy": 10726,
  "wyn": 13466,
  "wynn": 11907,
  "x": 93,
  "xBox": 15890,
  "xBoxusd": 18582,
  "xaminer": 10732,
  "xas": 5177,
  "xdel": 19985,
  "xelrod": 19983,
  "xny": 19982,
  "xo": 19981,
  "xoxo": 13469,
  "xpress": 19984,
  "xt": 914,
  "xteen": 12445,
  "xting": 7832,
  "xtra": 8835,
  "xtremely": 12446,
  "xx": 9169,
  "xy": 13468,
  "y": 94,
  "yCor": 19996,
  "yD": 19986,
  "yG": 15891,
  "yH": 7670,
  "yJ": 15892,
  "yTim": 19997,
  "ya": 1634,
  "yal": 4277,
  "yan": 2573,
  "yard": 6972,
  "yards": 19995,
  "yatt": 19990,
  "yboi": 19999,
  "yc": 13470,
  "yco": 11912,
  "ycoon": 15175,
  "yd": 11910,
  "yde": 19992,
  "yder": 7671,
  "ye": 5630,
  "yer": 15893,
  "yers": 13472,
  "yes": 3141,
  "yesterday": 19991,
  "yet": 11911,
  "yin": 19988,
  "ying": 2475,
  "yk": 13471,
  "yl": 1582,
  "ylar": 17296,
  "yle": 2388,
  "yler": 3337,
  "yleracc": 5919,
  "yleraccio": 5942,
  "yles": 9835,
  "yline": 4816,
  "ylove": 11241,
  "ym": 7308,
  "yn": 4179,
  "ynch": 12791,
  "yne": 15894,
  "ynn": 5178,
  "yolan": 19998,
  "yon": 10733,
  "yond": 4180,
  "york": 19989,
  "you": 1986,
  "young": 12617,
  "your": 8131,
  "yp": 4095,
  "yper": 8132,
  "ypical": 14717,
  "ypocr": 8995,
  "ypocrite": 12978,
  "ypocrites": 15023,
  "yprus": 17746,
  "yr": 4462,
  "yric": 15895,
  "yrshire": 7584,
  "ys": 1272,
  "yscra": 8874,
  "yscraper": 10496,
  "yson": 8595,
  "yst": 3197,
  "ystem": 3982,
  "yster": 19993,
  "yw": 19987,
  "yy": 9170,
  "yyan": 19994,
  "z": 95,
  "za": 2048,
  "zak": 15897,
  "zar": 11914,
  "ze": 4278,
  "zel": 15896,
  "zeldin": 9621,
  "zen": 9171,
  "zer": 1964,
  "zero": 3686,
  "zi": 11913,
  "ziak": 13478,
  "zine": 15898,
  "zing": 4743,
  "zk": 13473,
  "zko": 13477,
  "zky": 15900,
  "zo": 13474,
  "zona": 9836,
  "zone": 13476,
  "zqu": 15899,
  "zt": 13475,
  "zu": 8133,
  "zy": 2166,
  "zz": 2407,
  "zzz": 17469,
  "zzzz": 7188,
  "zzzzzzzz": 18023,
  "{": 96,
  "|": 97,
  "}": 98,
  "~": 99,
  "¡": 100,
  "¢": 101,
  "£": 102,
  "¤": 103,
  "¥": 104,
  "¦": 105,
  "§": 106,
  "¨": 107,
  "©": 108,
  "ª": 109,
  "«": 110,
  "¬": 111,
  "®": 112,
  "¯": 113,
  "°": 114,
  "±": 115,
  "²": 116,
  "³": 117,
  "´": 118,
  "µ": 119,
  "¶": 120,
  "·": 121,
  "¸": 122,
  "¹": 123,
  "º": 124,
  "»": 125,
  "¼": 126,
  "½": 127,
  "¾": 128,
  "¿": 129,
  "À": 130,
  "Á": 131,
  "Â": 132,
  "Ã": 133,
  "Ä": 134,
  "Å": 135,
  "Æ": 136,
  "Ç": 137,
  "È": 138,
  "É": 139,
  "Ê": 140,
  "Ë": 141,
  "Ì": 142,
  "Í": 143,
  "Î": 144,
  "Ï": 145,
  "Ð": 146,
  "Ñ": 147,
  "Ò": 148,
  "Ó": 149,
  "Ô": 150,
  "Õ": 151,
  "Ö": 152,
  "×": 153,
  "Ø": 154,
  "Ù": 155,
  "Ú": 156,
  "Û": 157,
  "Ü": 158,
  "Ý": 159,
  "Þ": 160,
  "ß": 161,
  "à": 162,
  "á": 163,
  "â": 164,
  "ã": 165,
  "ä": 166,
  "å": 167,
  "æ": 168,
  "ç": 169,
  "è": 170,
  "é": 171,
  "ê": 172,
  "ë": 173,
  "ì": 174,
  "í": 175,
  "î": 176,
  "ï": 177,
  "ð": 178,
  "ñ": 179,
  "ò": 180,
  "ó": 181,
  "ô": 182,
  "õ": 183,
  "ö": 184,
  "÷": 185,
  "ø": 186,
  "ù": 187,
  "ú": 188,
  "û": 189,
  "ü": 190,
  "ý": 191,
  "þ": 192,
  "ÿ": 193,
  "Ā": 194,
  "ā": 195,
  "Ă": 196,
  "ă": 197,
  "Ą": 198,
  "ą": 199,
  "Ć": 200,
  "ć": 201,
  "Ĉ": 202,
  "ĉ": 203,
  "Ċ": 204,
  "ċ": 205,
  "Č": 206,
  "č": 207,
  "Ď": 208,
  "ď": 209,
  "Đ": 210,
  "đ": 211,
  "Ē": 212,
  "ē": 213,
  "Ĕ": 214,
  "ĕ": 215,
  "Ė": 216,
  "ė": 217,
  "Ę": 218,
  "ę": 219,
  "Ě": 220,
  "ě": 221,
  "Ĝ": 222,
  "ĝ": 223,
  "Ğ": 224,
  "ğ": 225,
  "Ġ": 226,
  "Ġ!": 1865,
  "Ġ!!": 5984,
  "Ġ!!!": 6975,
  "Ġ!!!!": 6204,
  "Ġ!!!!\"\"": 14865,
  "Ġ!!!!\"\"\"": 13481,
  "Ġ!!!\"\"": 10734,
  "Ġ!!!\"\"\"": 13480,
  "Ġ!!\"\"": 8597,
  "Ġ!!\"\"\"": 9841,
  "Ġ!\"": 8134,
  "Ġ!\"\"": 4589,
  "Ġ!\"\"\"": 3254,
  "Ġ\"\"": 464,
  "Ġ\"\"\"": 826,
  "Ġ\"\"\"\"\"": 11022,
  "Ġ\"\"'": 16726,
  "Ġ\"\":": 5420,
  "Ġ$": 663,
  "Ġ$$": 8815,
  "Ġ$$$": 8291,
  "Ġ$$$$": 14979,
  "Ġ$'": 6782,
  "Ġ$.": 16915,
  "Ġ%": 945,
  "Ġ%\"\"\"": 17046,
  "Ġ%,": 9447,
  "Ġ%.": 4057,
  "Ġ&": 445,
  "Ġ&\"": 12265,
  "Ġ'": 784,
  "Ġ(": 526,
  "Ġ(&": 7083,
  "Ġ)": 5631,
  "Ġ)\"": 15904,
  "Ġ*": 11915,
  "Ġ+": 6681,
  "Ġ,": 1518,
  "Ġ,\"": 15903,
  "Ġ-": 467,
  "Ġ--": 676,
  "Ġ---": 3380,
  "Ġ.": 902,
  "Ġ.\"": 4182,
  "Ġ.\"\"": 4864,
  "Ġ.\"\"\"": 4588,
  "Ġ..": 3306,
  "Ġ...": 2476,
  "Ġ...\"": 7673,
  "Ġ...\"\"\"": 14515,
  "Ġ....": 6974,
  "Ġ.....": 10314,
  "Ġ/": 2408,
  "Ġ:": 1037,
  "Ġ://": 14238,
  "Ġ;": 9837,
  "Ġ<": 9172,
  "Ġ=": 3519,
  "Ġ>": 11916,
  "Ġ?": 4096,
  "Ġ?\"\"": 4183,
  "Ġ?\"\"\"": 11917,
  "Ġ??": 15906,
  "Ġ??\"\"": 11441,
  "Ġ???": 15907,
  "ĠA": 322,
  "ĠAAA": 7347,
  "ĠAB": 9265,
  "ĠABC": 3926,
  "ĠABOUT": 18184,
  "ĠAC": 5391,
  "ĠACTU": 12852,
  "ĠACTUALLY": 13121,
  "ĠAD": 16218,
  "ĠAF": 7026,
  "ĠAFPhq": 11549,
  "ĠAG": 1926,
  "ĠAGA": 6576,
  "ĠAGAIN": 6935,
  "ĠAGO": 17375,
  "ĠAGS": 2844,
  "ĠAGSchneiderman": 3002,
  "ĠAGSchneidermans": 14566,
  "ĠAIG": 16227,
  "ĠAJ": 13682,
  "ĠAK": 9266,
  "ĠAKOYA": 18185,
  "ĠAL": 4019,
  "ĠALL": 6008,
  "ĠALS": 6612,
  "ĠALSIceBucketChallenge": 11530,
  "ĠALWAYS": 12779,
  "ĠAM": 1785,
  "ĠAMAZING": 7903,
  "ĠAMERIC": 5542,
  "ĠAMERICA": 6150,
  "ĠAMNEST": 17350,
  "ĠAMNESTY": 18724,
  "ĠAN": 16219,
  "ĠAND": 3462,
  "ĠANOT": 10830,
  "ĠANOTHER": 11652,
  "ĠANY": 8676,
  "ĠANYTHING": 12969,
  "ĠAOL": 7027,
  "ĠAP": 4107,
  "ĠAPPRENTICE": 11442,
  "ĠAR": 10828,
  "ĠARE": 7717,
  "ĠAROD": 15123,
  "ĠART": 9267,
  "ĠAS": 6470,
  "ĠASA": 10829,
  "ĠASAP": 13041,
  "ĠAT": 6471,
  "ĠATT": 14880,
  "ĠAW": 7715,
  "ĠAWESOME": 9685,
  "ĠAZ": 12050,
  "ĠAaron": 12055,
  "ĠAb": 3722,
  "ĠAbedini": 12755,
  "ĠAberdeen": 2199,
  "ĠAberdeenCC": 7919,
  "ĠAberdeenshire": 5548,
  "ĠAbout": 7968,
  "ĠAboutTheRock": 18076,
  "ĠAbraham": 7576,
  "ĠAbs": 5031,
  "ĠAbsolutely": 5934,
  "ĠAc": 6238,
  "ĠAcademy": 8013,
  "ĠAcc": 12051,
  "ĠAccess": 13686,
  "ĠAce": 16221,
  "ĠAchieve": 7718,
  "ĠAchievement": 8041,
  "ĠAchievers": 6009,
  "ĠAct": 4020,
  "ĠAction": 16226,
  "ĠActually": 5924,
  "ĠAd": 2368,
  "ĠAdam": 5904,
  "ĠAdd": 9554,
  "ĠAddress": 15061,
  "ĠAdm": 17455,
  "ĠAdministration": 7538,
  "ĠAdv": 12649,
  "ĠAf": 1416,
  "ĠAff": 16223,
  "ĠAfghan": 3239,
  "ĠAfghanis": 17623,
  "ĠAfghanistan": 3983,
  "ĠAfric": 2137,
  "ĠAfrica": 2566,
  "ĠAfrican": 7915,
  "ĠAfricans": 12633,
  "ĠAfter": 5290,
  "ĠAg": 2792,
  "ĠAgain": 6888,
  "ĠAge": 16224,
  "ĠAgent": 17546,
  "ĠAgree": 6593,
  "ĠAgreed": 9577,
  "ĠAhm": 12056,
  "ĠAhmadinej": 13094,
  "ĠAhmadinejad": 15234,
  "ĠAiles": 9930,
  "ĠAils": 12057,
  "ĠAilsa": 15186,
  "ĠAir": 4758,
  "ĠAirlines": 16230,
  "ĠAirport": 14777,
  "ĠAirways": 17815,
  "ĠAk": 16220,
  "ĠAl": 1063,
  "ĠAlabama": 11158,
  "ĠAlan": 9457,
  "ĠAlbany": 14241,
  "ĠAlbert": 4323,
  "ĠAlec": 12058,
  "ĠAlex": 1683,
  "ĠAlexDub": 17318,
  "ĠAlexPappas": 17319,
  "ĠAlexSalmond": 2064,
  "ĠAlexSalmonds": 17388,
  "ĠAlexander": 17317,
  "ĠAlgemeiner": 12481,
  "ĠAli": 11157,
  "ĠAll": 1160,
  "ĠAllAbout": 14277,
  "ĠAllAboutTheTea": 15287,
  "ĠAllen": 7484,
  "ĠAllenWest": 12930,
  "ĠAllenWronowski": 14941,
  "ĠAlmost": 12480,
  "ĠAlone": 7842,
  "ĠAlong": 17087,
  "ĠAlph": 17088,
  "ĠAlpha": 18708,
  "ĠAlready": 10170,
  "ĠAlso": 4411,
  "ĠAlthough": 12482,
  "ĠAlways": 3034,
  "ĠAm": 1192,
  "ĠAmSpec": 3821,
  "ĠAmanda": 7142,
  "ĠAmandaTMiller": 12919,
  "ĠAmateur": 11190,
  "ĠAmazing": 2926,
  "ĠAmazon": 12505,
  "ĠAmb": 17155,
  "ĠAmbassador": 8331,
  "ĠAmen": 12504,
  "ĠAmendment": 5880,
  "ĠAmer": 16222,
  "ĠAmeric": 571,
  "ĠAmerica": 766,
  "ĠAmericaNow": 12421,
  "ĠAmericaNowRadio": 13112,
  "ĠAmerican": 1194,
  "ĠAmericans": 1594,
  "ĠAmericas": 7434,
  "ĠAmes": 17156,
  "ĠAmnesty": 7141,
  "ĠAmy": 7716,
  "ĠAn": 5030,
  "ĠAnd": 1064,
  "ĠAndey": 17089,
  "ĠAndigriffin": 17090,
  "ĠAndre": 14242,
  "ĠAndrea": 11159,
  "ĠAndreaTant": 18321,
  "ĠAndretti": 14243,
  "ĠAndrew": 3173,
  "ĠAndrewBreitbart": 12723,
  "ĠAndrewK": 14621,
  "ĠAndrewKirell": 18535,
  "ĠAndy": 3385,
  "ĠAng": 9929,
  "ĠAngel": 4484,
  "ĠAngeles": 7223,
  "ĠAngelo": 12813,
  "ĠAnn": 2633,
  "ĠAnnDRomney": 11335,
  "ĠAnna": 11333,
  "ĠAnnieD": 17516,
  "ĠAnniversary": 8389,
  "ĠAnnoun": 11334,
  "ĠAnnounce": 14536,
  "ĠAnnounces": 15152,
  "ĠAnnual": 9565,
  "ĠAnonymous": 17846,
  "ĠAnother": 3593,
  "ĠAns": 12054,
  "ĠAnswer": 18364,
  "ĠAnt": 6711,
  "ĠAntarct": 17982,
  "ĠAnthony": 3107,
  "ĠAnthonyWeiner": 17601,
  "ĠAnti": 14894,
  "ĠAnton": 14895,
  "ĠAny": 4021,
  "ĠAnyone": 14706,
  "ĠAp": 3592,
  "ĠAplemon": 10328,
  "ĠAplemonLemon": 10528,
  "ĠApollo": 17681,
  "ĠApp": 3205,
  "ĠApple": 4697,
  "ĠApply": 14624,
  "ĠApprent": 13684,
  "ĠApprentice": 554,
  "ĠApprenticeNBC": 794,
  "ĠApril": 4985,
  "ĠAr": 978,
  "ĠArab": 4108,
  "ĠArabia": 7579,
  "ĠAre": 2864,
  "ĠAren": 12053,
  "ĠArena": 18363,
  "ĠAri": 4879,
  "ĠArianna": 9014,
  "ĠArias": 14787,
  "ĠAristotle": 9451,
  "ĠArizona": 10379,
  "ĠArmed": 8850,
  "ĠArmstrong": 4523,
  "ĠArmy": 8309,
  "ĠArnold": 7471,
  "ĠArsenio": 3746,
  "ĠArsenioHall": 5922,
  "ĠArsenioOFFICIAL": 10335,
  "ĠArt": 1410,
  "ĠArthur": 12459,
  "ĠArtic": 17055,
  "ĠAs": 2128,
  "ĠAsh": 6472,
  "ĠAshish": 17964,
  "ĠAshley": 8019,
  "ĠAsia": 11291,
  "ĠAsk": 4825,
  "ĠAskTheDonald": 14782,
  "ĠAsp": 16225,
  "ĠAspen": 18623,
  "ĠAssad": 9931,
  "ĠAt": 1813,
  "ĠAth": 9928,
  "ĠAthlete": 18234,
  "ĠAthletic": 15082,
  "ĠAtlant": 3338,
  "ĠAtlanta": 17641,
  "ĠAtlantic": 3504,
  "ĠAtrium": 11266,
  "ĠAtt": 12597,
  "ĠAttor": 7905,
  "ĠAttorney": 8049,
  "ĠAub": 13685,
  "ĠAuction": 16229,
  "ĠAud": 12052,
  "ĠAug": 5657,
  "ĠAugust": 6397,
  "ĠAugusta": 17955,
  "ĠAust": 4483,
  "ĠAustin": 12812,
  "ĠAustralia": 5929,
  "ĠAuth": 16228,
  "ĠAutism": 8677,
  "ĠAv": 13683,
  "ĠAve": 8196,
  "ĠAvenue": 4022,
  "ĠAw": 3420,
  "ĠAward": 3657,
  "ĠAwards": 4376,
  "ĠAwesome": 4259,
  "ĠAyrshire": 9268,
  "ĠB": 345,
  "ĠBACK": 7365,
  "ĠBAD": 13765,
  "ĠBALANCE": 12111,
  "ĠBBC": 4297,
  "ĠBBCNews": 9623,
  "ĠBBCoach": 17771,
  "ĠBBCoachKK": 18748,
  "ĠBC": 12104,
  "ĠBE": 3929,
  "ĠBEA": 10873,
  "ĠBEAUT": 15126,
  "ĠBEAUTIFUL": 18552,
  "ĠBEN": 13761,
  "ĠBEST": 5206,
  "ĠBET": 10877,
  "ĠBETTER": 15127,
  "ĠBHO": 16362,
  "ĠBIG": 4768,
  "ĠBILL": 13764,
  "ĠBILLION": 13769,
  "ĠBK": 16338,
  "ĠBL": 7361,
  "ĠBLT": 10450,
  "ĠBLTPrime": 13033,
  "ĠBLTPrimeMiami": 15232,
  "ĠBLUE": 18038,
  "ĠBNice": 16360,
  "ĠBNicehouse": 18635,
  "ĠBOR": 9302,
  "ĠBORDER": 15042,
  "ĠBORING": 18192,
  "ĠBR": 10870,
  "ĠBREA": 16354,
  "ĠBRING": 18299,
  "ĠBS": 7040,
  "ĠBU": 10871,
  "ĠBUILD": 15125,
  "ĠBUS": 9964,
  "ĠBUSH": 15089,
  "ĠBUSINESS": 18240,
  "ĠBUT": 7733,
  "ĠBW": 12105,
  "ĠBY": 9959,
  "ĠBabe": 8704,
  "ĠBachmann": 10880,
  "ĠBack": 5204,
  "ĠBackOnTrack": 7996,
  "ĠBackOnTrackUSA": 8052,
  "ĠBad": 4887,
  "ĠBagh": 16359,
  "ĠBaghdad": 18634,
  "ĠBah": 16346,
  "ĠBahamas": 18633,
  "ĠBain": 8218,
  "ĠBal": 16339,
  "ĠBaldwin": 13766,
  "ĠBall": 9963,
  "ĠBallroom": 15088,
  "ĠBan": 13752,
  "ĠBank": 12106,
  "ĠBar": 10872,
  "ĠBarack": 3317,
  "ĠBarackObama": 574,
  "ĠBarackObamas": 14637,
  "ĠBarb": 4767,
  "ĠBarbara": 5152,
  "ĠBarbaraJWalters": 7995,
  "ĠBarcl": 16358,
  "ĠBaron": 13767,
  "ĠBarron": 16361,
  "ĠBarry": 9965,
  "ĠBart": 16343,
  "ĠBaseball": 8219,
  "ĠBash": 16353,
  "ĠBat": 16340,
  "ĠBaton": 10879,
  "ĠBatt": 16348,
  "ĠBay": 6245,
  "ĠBayojay": 14869,
  "ĠBe": 949,
  "ĠBeach": 2737,
  "ĠBear": 16344,
  "ĠBeat": 12457,
  "ĠBeats": 14209,
  "ĠBeatsByRay": 18515,
  "ĠBeaumontAnthony": 11137,
  "ĠBeautiful": 4322,
  "ĠBeauty": 17047,
  "ĠBec": 8703,
  "ĠBecause": 4207,
  "ĠBecca": 18135,
  "ĠBedminster": 4491,
  "ĠBeen": 8845,
  "ĠBeg": 16347,
  "ĠBeing": 4407,
  "ĠBel": 4490,
  "ĠBelich": 9628,
  "ĠBelichick": 10513,
  "ĠBelieve": 7586,
  "ĠBen": 1909,
  "ĠBenT": 10252,
  "ĠBenTrolling": 13030,
  "ĠBenef": 12608,
  "ĠBenefactor": 15219,
  "ĠBenghazi": 2965,
  "ĠBenjamin": 7910,
  "ĠBerg": 7364,
  "ĠBergd": 7610,
  "ĠBergdahl": 8039,
  "ĠBern": 7362,
  "ĠBernard": 11561,
  "ĠBernardCastro": 18337,
  "ĠBernardv": 18336,
  "ĠBernie": 18039,
  "ĠBesides": 9967,
  "ĠBest": 1727,
  "ĠBestBerger": 11255,
  "ĠBestBergerEver": 11665,
  "ĠBet": 9301,
  "ĠBeth": 13762,
  "ĠBette": 10876,
  "ĠBetteMidler": 13045,
  "ĠBetter": 12109,
  "ĠBetty": 15041,
  "ĠBettyloves": 18549,
  "ĠBettylovesdogs": 18780,
  "ĠBeyon": 17048,
  "ĠBeyond": 14210,
  "ĠBible": 16352,
  "ĠBid": 13753,
  "ĠBiden": 7363,
  "ĠBig": 1443,
  "ĠBiggest": 11223,
  "ĠBike": 13756,
  "ĠBill": 1261,
  "ĠBillCassidy": 14302,
  "ĠBillClinton": 17181,
  "ĠBillGates": 12518,
  "ĠBillM": 6554,
  "ĠBillMaher": 7606,
  "ĠBillMoyers": 17972,
  "ĠBillRancic": 9481,
  "ĠBillion": 7042,
  "ĠBillionaire": 2950,
  "ĠBills": 3624,
  "ĠBillsMafia": 12752,
  "ĠBilly": 5286,
  "ĠBillyGraham": 8000,
  "ĠBillyHallowell": 17873,
  "ĠBin": 4489,
  "ĠBir": 16341,
  "ĠBird": 13763,
  "ĠBirth": 16350,
  "ĠBirthday": 2129,
  "ĠBl": 1324,
  "ĠBlack": 4811,
  "ĠBlackdog": 7993,
  "ĠBlair": 8879,
  "ĠBlairKamin": 15019,
  "ĠBlake": 10210,
  "ĠBlasts": 14334,
  "ĠBless": 7150,
  "ĠBlitzer": 17198,
  "ĠBlog": 14333,
  "ĠBloomberg": 7499,
  "ĠBlue": 2319,
  "ĠBlueMonster": 10269,
  "ĠBo": 2914,
  "ĠBoard": 5561,
  "ĠBoardroom": 9648,
  "ĠBob": 3022,
  "ĠBobSmit": 17588,
  "ĠBobby": 7946,
  "ĠBobbyJind": 18074,
  "ĠBoe": 6115,
  "ĠBoehner": 12872,
  "ĠBoeing": 7602,
  "ĠBold": 13760,
  "ĠBon": 9960,
  "ĠBoo": 13754,
  "ĠBook": 9962,
  "ĠBoone": 12694,
  "ĠBord": 16345,
  "ĠBorder": 10874,
  "ĠBoring": 12108,
  "ĠBoss": 16351,
  "ĠBoston": 3318,
  "ĠBoth": 7043,
  "ĠBowl": 7044,
  "ĠBox": 13757,
  "ĠBoy": 5673,
  "ĠBoycott": 9650,
  "ĠBoys": 14830,
  "ĠBr": 1040,
  "ĠBrad": 10166,
  "ĠBrady": 6318,
  "ĠBrain": 16357,
  "ĠBraley": 17079,
  "ĠBrand": 1771,
  "ĠBrande": 17345,
  "ĠBrandenRoderick": 11262,
  "ĠBrandi": 2321,
  "ĠBrandiGlanville": 2648,
  "ĠBrandon": 14423,
  "ĠBrav": 4380,
  "ĠBrava": 17775,
  "ĠBravo": 7221,
  "ĠBravoAndy": 12921,
  "ĠBravolebrity": 11453,
  "ĠBravotv": 14740,
  "ĠBrazil": 13770,
  "ĠBre": 8217,
  "ĠBreak": 12954,
  "ĠBreakfast": 18431,
  "ĠBreitbart": 2984,
  "ĠBreitbartNews": 3247,
  "ĠBrent": 16342,
  "ĠBret": 4029,
  "ĠBretBa": 11438,
  "ĠBretBaier": 13063,
  "ĠBretMichaels": 17740,
  "ĠBrett": 12780,
  "ĠBri": 7041,
  "ĠBrian": 5205,
  "ĠBriarcliff": 8471,
  "ĠBriarcliffManor": 14991,
  "ĠBridge": 8315,
  "ĠBrilliant": 12474,
  "ĠBring": 4525,
  "ĠBringBack": 11464,
  "ĠBringBackOurMarine": 13064,
  "ĠBringing": 17795,
  "ĠBrit": 5278,
  "ĠBritain": 12845,
  "ĠBritish": 7999,
  "ĠBroad": 10878,
  "ĠBroadway": 18300,
  "ĠBroadwell": 18301,
  "ĠBrock": 16356,
  "ĠBron": 8858,
  "ĠBronx": 10494,
  "ĠBrooklyn": 14239,
  "ĠBrotherhood": 4244,
  "ĠBrown": 16355,
  "ĠBru": 8702,
  "ĠBruce": 10489,
  "ĠBry": 4888,
  "ĠBryan": 17832,
  "ĠBryant": 6390,
  "ĠBu": 4488,
  "ĠBucket": 13768,
  "ĠBud": 13758,
  "ĠBudget": 18484,
  "ĠBuff": 3208,
  "ĠBuffalo": 4562,
  "ĠBuffet": 11389,
  "ĠBuffett": 7953,
  "ĠBug": 13759,
  "ĠBuild": 9303,
  "ĠBuilding": 7366,
  "ĠBuilt": 10365,
  "ĠBull": 16349,
  "ĠBun": 12107,
  "ĠBunkered": 18372,
  "ĠBur": 13755,
  "ĠBurke": 18483,
  "ĠBurnett": 12110,
  "ĠBus": 9961,
  "ĠBusey": 9966,
  "ĠBush": 2076,
  "ĠBushes": 13015,
  "ĠBushs": 17395,
  "ĠBusiness": 3370,
  "ĠBusinesses": 14646,
  "ĠBut": 1642,
  "ĠBuy": 10875,
  "ĠBuying": 17788,
  "ĠBuzz": 7986,
  "ĠBuzzFeed": 8489,
  "ĠBy": 4886,
  "ĠC": 332,
  "ĠCA": 5393,
  "ĠCAN": 5395,
  "ĠCANNOT": 14812,
  "ĠCAP": 10843,
  "ĠCAR": 16272,
  "ĠCARE": 13711,
  "ĠCASH": 16277,
  "ĠCBO": 7724,
  "ĠCBS": 4110,
  "ĠCBSSports": 17747,
  "ĠCC": 10840,
  "ĠCDC": 8206,
  "ĠCDCwhistle": 18091,
  "ĠCDCwhistleblower": 18759,
  "ĠCEL": 16274,
  "ĠCELEBRITY": 18626,
  "ĠCENT": 8688,
  "ĠCENTURY": 9704,
  "ĠCEO": 7031,
  "ĠCH": 4760,
  "ĠCHA": 17816,
  "ĠCHANGE": 7591,
  "ĠCHRIST": 17817,
  "ĠCIA": 7030,
  "ĠCL": 8201,
  "ĠCLIMATE": 9697,
  "ĠCM": 9276,
  "ĠCMILLE": 18187,
  "ĠCN": 9935,
  "ĠCNBC": 3784,
  "ĠCNBCCl": 17707,
  "ĠCNBCClosingBell": 18744,
  "ĠCNN": 2288,
  "ĠCNNDebate": 17439,
  "ĠCNNMoney": 12644,
  "ĠCNTraveler": 13013,
  "ĠCO": 6477,
  "ĠCOLL": 14881,
  "ĠCOLLECTION": 18539,
  "ĠCOM": 13705,
  "ĠCOME": 8207,
  "ĠCON": 9279,
  "ĠCONF": 18188,
  "ĠCONG": 13709,
  "ĠCOU": 6016,
  "ĠCOUNT": 7598,
  "ĠCOUNTRY": 8038,
  "ĠCP": 10841,
  "ĠCPAC": 1989,
  "ĠCPACnews": 4965,
  "ĠCR": 8202,
  "ĠCRAZY": 12952,
  "ĠCST": 16273,
  "ĠCT": 12068,
  "ĠCUT": 9281,
  "ĠCab": 16270,
  "ĠCable": 13704,
  "ĠCadillac": 3263,
  "ĠCadillacChamp": 4837,
  "ĠCaes": 13716,
  "ĠCahill": 9943,
  "ĠCahillForAG": 15084,
  "ĠCahl": 5664,
  "ĠCahlRStorrie": 5941,
  "ĠCal": 4293,
  "ĠCalifornia": 6134,
  "ĠCall": 5394,
  "ĠCalls": 12853,
  "ĠCameron": 13710,
  "ĠCampaign": 13714,
  "ĠCan": 1156,
  "ĠCanad": 8327,
  "ĠCanada": 3884,
  "ĠCanadian": 9700,
  "ĠCancer": 10193,
  "ĠCandid": 9941,
  "ĠCandidate": 18236,
  "ĠCandy": 13706,
  "ĠCann": 13703,
  "ĠCannot": 18478,
  "ĠCant": 6013,
  "ĠCap": 4613,
  "ĠCapital": 7988,
  "ĠCapitalism": 18077,
  "ĠCaptain": 9629,
  "ĠCar": 1483,
  "ĠCard": 6716,
  "ĠCardinal": 17983,
  "ĠCare": 3724,
  "ĠCarl": 6717,
  "ĠCarlos": 11536,
  "ĠCarlton": 17984,
  "ĠCarnegie": 7506,
  "ĠCarol": 3888,
  "ĠCarolina": 4568,
  "ĠCarolinaLive": 17796,
  "ĠCarolinas": 11431,
  "ĠCarr": 10228,
  "ĠCarrGaz": 13029,
  "ĠCarroll": 17252,
  "ĠCarson": 7505,
  "ĠCarter": 3287,
  "ĠCas": 9936,
  "ĠCash": 9940,
  "ĠCasino": 18235,
  "ĠCatch": 16268,
  "ĠCath": 8204,
  "ĠCatholic": 10469,
  "ĠCaucus": 13712,
  "ĠCavuto": 9942,
  "ĠCel": 16267,
  "ĠCeleb": 561,
  "ĠCelebApprentice": 787,
  "ĠCelebrity": 854,
  "ĠCelebrityApprentice": 1429,
  "ĠCent": 2697,
  "ĠCenter": 5910,
  "ĠCentral": 3830,
  "ĠCentre": 17531,
  "ĠCertificate": 13707,
  "ĠCh": 496,
  "ĠChad": 12298,
  "ĠChair": 8773,
  "ĠChairman": 18145,
  "ĠChallenge": 11039,
  "ĠChamp": 14022,
  "ĠChampion": 1800,
  "ĠChampions": 14023,
  "ĠChampionship": 4129,
  "ĠChampionships": 12786,
  "ĠChance": 12300,
  "ĠChange": 4649,
  "ĠChannel": 5699,
  "ĠChannelGuide": 17902,
  "ĠChar": 16763,
  "ĠCharity": 16764,
  "ĠCharl": 2956,
  "ĠCharles": 9583,
  "ĠCharlie": 12702,
  "ĠCharlotte": 4832,
  "ĠCharlottes": 7942,
  "ĠCharlottesville": 8051,
  "ĠChase": 12299,
  "ĠChavez": 11040,
  "ĠChe": 3783,
  "ĠCheck": 6478,
  "ĠChef": 12761,
  "ĠChelse": 17706,
  "ĠChelsea": 18743,
  "ĠChen": 13701,
  "ĠCheney": 17704,
  "ĠCher": 8203,
  "ĠCheryl": 14683,
  "ĠChevy": 17705,
  "ĠChi": 11038,
  "ĠChicago": 1369,
  "ĠChief": 7079,
  "ĠChildren": 8270,
  "ĠChildrens": 18099,
  "ĠChina": 870,
  "ĠChinas": 9382,
  "ĠChinese": 2293,
  "ĠChoice": 12301,
  "ĠChris": 2491,
  "ĠChrisC": 17487,
  "ĠChrist": 1696,
  "ĠChristian": 5891,
  "ĠChristians": 12573,
  "ĠChristie": 10239,
  "ĠChristine": 10240,
  "ĠChristineSter": 18267,
  "ĠChristineStergi": 18768,
  "ĠChristmas": 2538,
  "ĠChristopher": 12574,
  "ĠChristopherCud": 18410,
  "ĠChrys": 8774,
  "ĠChrysler": 9706,
  "ĠChuck": 4915,
  "ĠChurch": 3546,
  "ĠChurchill": 3901,
  "ĠCindy": 13715,
  "ĠCirc": 13708,
  "ĠCirculation": 18479,
  "ĠCitizen": 16275,
  "ĠCitizens": 6718,
  "ĠCity": 2074,
  "ĠCitys": 12625,
  "ĠCl": 1237,
  "ĠCla": 17170,
  "ĠClare": 7861,
  "ĠClark": 11193,
  "ĠClass": 6841,
  "ĠClassic": 12905,
  "ĠClassy": 17174,
  "ĠClay": 11192,
  "ĠClayAik": 18324,
  "ĠClayAiken": 18770,
  "ĠCle": 9937,
  "ĠClear": 8205,
  "ĠClearly": 11582,
  "ĠCleveland": 13014,
  "ĠClick": 17171,
  "ĠClimate": 17173,
  "ĠClint": 10198,
  "ĠClinton": 4414,
  "ĠClose": 17172,
  "ĠClown": 14297,
  "ĠClownstick": 18521,
  "ĠClub": 2084,
  "ĠCo": 2613,
  "ĠCoach": 7547,
  "ĠCoalition": 12670,
  "ĠCoast": 6358,
  "ĠCoastGuard": 17954,
  "ĠCoastGuardFound": 18754,
  "ĠCohen": 11330,
  "ĠCoke": 9563,
  "ĠCoking": 17509,
  "ĠCol": 3367,
  "ĠColin": 9598,
  "ĠColinSWood": 15066,
  "ĠColl": 6241,
  "ĠCollection": 3463,
  "ĠCollege": 9031,
  "ĠCollins": 14868,
  "ĠColombia": 17647,
  "ĠColorado": 8968,
  "ĠColts": 14645,
  "ĠColumbia": 8969,
  "ĠCom": 6715,
  "ĠCome": 6014,
  "ĠComedy": 9665,
  "ĠComedyCentral": 18212,
  "ĠComm": 2865,
  "ĠCommander": 11363,
  "ĠCommission": 6594,
  "ĠCommissioner": 8463,
  "ĠCommissions": 14570,
  "ĠCommittee": 7939,
  "ĠCommon": 12690,
  "ĠCommun": 11362,
  "ĠCommunist": 18329,
  "ĠComp": 6017,
  "ĠCompany": 17918,
  "ĠCompet": 12071,
  "ĠCompetition": 18366,
  "ĠComplete": 9654,
  "ĠCompletely": 18210,
  "ĠCon": 2055,
  "ĠCond": 16269,
  "ĠConde": 7351,
  "ĠCondeNast": 9679,
  "ĠCondeNastCorp": 11621,
  "ĠConference": 8909,
  "ĠCongrat": 1953,
  "ĠCongrats": 2966,
  "ĠCongratulations": 3559,
  "ĠCongress": 2369,
  "ĠCongressional": 17456,
  "ĠCongressman": 12650,
  "ĠConnect": 9538,
  "ĠConnectic": 10511,
  "ĠConnecticut": 13035,
  "ĠConrad": 11281,
  "ĠCons": 4485,
  "ĠConservative": 6136,
  "ĠConst": 14460,
  "ĠConstit": 14461,
  "ĠConstitution": 15291,
  "ĠCont": 7349,
  "ĠContest": 18037,
  "ĠContin": 11558,
  "ĠConvention": 4149,
  "ĠCook": 9277,
  "ĠCookies": 15039,
  "ĠCool": 9280,
  "ĠCopp": 10842,
  "ĠCoppins": 13043,
  "ĠCor": 7028,
  "ĠCorresp": 14913,
  "ĠCorrespondents": 15314,
  "ĠCory": 16271,
  "ĠCorzine": 18011,
  "ĠCos": 12070,
  "ĠCosby": 18365,
  "ĠCost": 6015,
  "ĠCosta": 17917,
  "ĠCostume": 12867,
  "ĠCould": 4377,
  "ĠCouldn": 11452,
  "ĠCouncil": 7352,
  "ĠCount": 1841,
  "ĠCounting": 14434,
  "ĠCountry": 2540,
  "ĠCounty": 4549,
  "ĠCour": 2614,
  "ĠCourse": 3502,
  "ĠCourses": 12671,
  "ĠCourt": 7548,
  "ĠCover": 11329,
  "ĠCox": 13702,
  "ĠCr": 8687,
  "ĠCra": 7350,
  "ĠCraig": 12927,
  "ĠCrazy": 11559,
  "ĠCreat": 9938,
  "ĠCreate": 15083,
  "ĠCrocus": 13717,
  "ĠCross": 7723,
  "ĠCruz": 9282,
  "ĠCryst": 13713,
  "ĠCrystal": 18480,
  "ĠCuban": 4614,
  "ĠCulpo": 10844,
  "ĠCunningham": 16276,
  "ĠCuomo": 8208,
  "ĠCup": 9278,
  "ĠCur": 7029,
  "ĠCurrency": 18013,
  "ĠCurrently": 18014,
  "ĠCurse": 18012,
  "ĠCurtis": 18015,
  "ĠCut": 9939,
  "ĠCute": 5663,
  "ĠCy": 12069,
  "ĠD": 370,
  "ĠDAM": 12152,
  "ĠDAMAC": 12155,
  "ĠDAY": 13834,
  "ĠDC": 2152,
  "ĠDE": 6248,
  "ĠDEAD": 16464,
  "ĠDEAL": 7384,
  "ĠDEF": 14870,
  "ĠDEFUND": 18538,
  "ĠDEM": 14871,
  "ĠDIS": 12151,
  "ĠDISASTER": 15191,
  "ĠDJ": 4495,
  "ĠDJT": 6137,
  "ĠDL": 9996,
  "ĠDLoesch": 11627,
  "ĠDM": 4894,
  "ĠDMRegister": 5933,
  "ĠDNC": 5404,
  "ĠDNor": 10001,
  "ĠDNorrell": 10519,
  "ĠDO": 4772,
  "ĠDOES": 11474,
  "ĠDOLL": 14778,
  "ĠDOLLARS": 18537,
  "ĠDON": 2869,
  "ĠDONALD": 3832,
  "ĠDONE": 11364,
  "ĠDOWN": 13836,
  "ĠDR": 13824,
  "ĠDRUDGE": 13837,
  "ĠDT": 4895,
  "ĠDUMB": 10930,
  "ĠDVR": 12156,
  "ĠDW": 16452,
  "ĠDa": 16453,
  "ĠDad": 7050,
  "ĠDaily": 4626,
  "ĠDailyCaller": 9008,
  "ĠDal": 10923,
  "ĠDalai": 18305,
  "ĠDale": 9999,
  "ĠDallas": 9325,
  "ĠDalton": 18304,
  "ĠDam": 5213,
  "ĠDamac": 11493,
  "ĠDamacOfficial": 15158,
  "ĠDamn": 14806,
  "ĠDamon": 10387,
  "ĠDan": 2078,
  "ĠDanAmira": 4824,
  "ĠDanScavino": 6107,
  "ĠDana": 12627,
  "ĠDanger": 9324,
  "ĠDangerous": 18195,
  "ĠDaniel": 11286,
  "ĠDann": 13830,
  "ĠDannBushh": 15263,
  "ĠDanny": 1938,
  "ĠDannyZ": 12613,
  "ĠDannyZucker": 18416,
  "ĠDannyZuker": 2845,
  "ĠDar": 7381,
  "ĠDark": 9322,
  "ĠDarnell": 14931,
  "ĠDarrell": 14932,
  "ĠDarren": 18044,
  "ĠDash": 13833,
  "ĠDashJohnston": 18488,
  "ĠDat": 8719,
  "ĠDateline": 12971,
  "ĠDave": 7748,
  "ĠDavid": 1815,
  "ĠDavis": 10927,
  "ĠDawn": 16462,
  "ĠDay": 2549,
  "ĠDe": 5050,
  "ĠDead": 7750,
  "ĠDeadspin": 9055,
  "ĠDeal": 1359,
  "ĠDean": 9323,
  "ĠDeanna": 14797,
  "ĠDear": 13828,
  "ĠDeb": 4386,
  "ĠDebate": 14746,
  "ĠDebbie": 12805,
  "ĠDebbieGibson": 15228,
  "ĠDebt": 8427,
  "ĠDec": 3662,
  "ĠDecember": 7967,
  "ĠDee": 9997,
  "ĠDef": 3375,
  "ĠDefense": 6607,
  "ĠDefinitely": 8970,
  "ĠDefund": 8404,
  "ĠDel": 7749,
  "ĠDeluxe": 14957,
  "ĠDem": 1856,
  "ĠDemocrat": 2255,
  "ĠDemocratic": 17431,
  "ĠDemocrats": 3000,
  "ĠDems": 6865,
  "ĠDen": 6734,
  "ĠDenZen": 17989,
  "ĠDenise": 17988,
  "ĠDennis": 4774,
  "ĠDennisRod": 11475,
  "ĠDennisRodman": 13065,
  "ĠDenver": 12900,
  "ĠDep": 8226,
  "ĠDepartment": 18094,
  "ĠDepression": 18095,
  "ĠDeputy": 18093,
  "ĠDerek": 3539,
  "ĠDerekJ": 17674,
  "ĠDes": 5679,
  "ĠDeserve": 14831,
  "ĠDesk": 17898,
  "ĠDespite": 12153,
  "ĠDest": 13827,
  "ĠDetermin": 16468,
  "ĠDetroit": 10932,
  "ĠDiamond": 5052,
  "ĠDiane": 10929,
  "ĠDianne": 12154,
  "ĠDianneG": 18376,
  "ĠDick": 10924,
  "ĠDid": 3598,
  "ĠDidn": 8979,
  "ĠDie": 16456,
  "ĠDiet": 10000,
  "ĠDig": 13825,
  "ĠDimon": 10928,
  "ĠDines": 16458,
  "ĠDineshDSouza": 18649,
  "ĠDinner": 5051,
  "ĠDire": 8720,
  "ĠDirector": 18137,
  "ĠDirectors": 18138,
  "ĠDis": 3729,
  "ĠDisaster": 14677,
  "ĠDiscovery": 14678,
  "ĠDise": 16459,
  "ĠDisease": 18650,
  "ĠDisney": 7577,
  "ĠDist": 16457,
  "ĠDitka": 10933,
  "ĠDjango": 16466,
  "ĠDo": 1301,
  "ĠDoc": 13831,
  "ĠDoctor": 11200,
  "ĠDoes": 3823,
  "ĠDoesn": 11426,
  "ĠDoesnt": 14687,
  "ĠDog": 13829,
  "ĠDoing": 12523,
  "ĠDollar": 16465,
  "ĠDomin": 16460,
  "ĠDon": 1426,
  "ĠDonal": 12148,
  "ĠDonald": 520,
  "ĠDonaldJTrump": 2347,
  "ĠDonaldJTrumpJr": 2383,
  "ĠDonaldTrump": 1950,
  "ĠDonate": 14355,
  "ĠDone": 16455,
  "ĠDonnie": 11220,
  "ĠDonny": 12543,
  "ĠDont": 4031,
  "ĠDoonbeg": 4247,
  "ĠDopey": 6735,
  "ĠDor": 16454,
  "ĠDoral": 1228,
  "ĠDoralRes": 17166,
  "ĠDoralResort": 5285,
  "ĠDoralResorts": 18714,
  "ĠDouble": 7751,
  "ĠDoug": 4117,
  "ĠDouglas": 5325,
  "ĠDown": 10925,
  "ĠDr": 4773,
  "ĠDrChimRick": 17822,
  "ĠDrChimRickles": 18750,
  "ĠDrake": 9326,
  "ĠDream": 7383,
  "ĠDress": 9998,
  "ĠDrew": 8721,
  "ĠDrewMadeOFF": 12972,
  "ĠDropping": 16467,
  "ĠDub": 3153,
  "ĠDubai": 3297,
  "ĠDuke": 16463,
  "ĠDumb": 12150,
  "ĠDummy": 16461,
  "ĠDun": 7382,
  "ĠDuncan": 9682,
  "ĠDunes": 14933,
  "ĠDunn": 13835,
  "ĠDur": 12149,
  "ĠDuring": 13832,
  "ĠDurst": 10926,
  "ĠDut": 13826,
  "ĠDutchess": 15262,
  "ĠDwight": 10931,
  "ĠE": 458,
  "ĠEAR": 16713,
  "ĠEASTER": 13995,
  "ĠEBO": 13993,
  "ĠEBOLA": 15274,
  "ĠEL": 13986,
  "ĠELECTION": 18499,
  "ĠEN": 5697,
  "ĠEND": 13992,
  "ĠENJOY": 7597,
  "ĠENOUGH": 17901,
  "ĠEOW": 16717,
  "ĠEOWDC": 18674,
  "ĠEP": 7416,
  "ĠEPA": 10058,
  "ĠEPIC": 11565,
  "ĠEPISOD": 18048,
  "ĠESP": 6763,
  "ĠESPN": 8467,
  "ĠEST": 2831,
  "ĠET": 2432,
  "ĠEU": 13987,
  "ĠEVER": 4646,
  "ĠEVERY": 9630,
  "ĠEVERYONE": 15067,
  "ĠEVERYTHING": 18209,
  "ĠEW": 13988,
  "ĠEWErickson": 11019,
  "ĠEX": 6762,
  "ĠEXCLUSIVE": 14899,
  "ĠEach": 12277,
  "ĠEarth": 12281,
  "ĠEast": 3602,
  "ĠEaster": 11014,
  "ĠEastonWest": 14666,
  "ĠEastonWestwood": 15301,
  "ĠEastwood": 10329,
  "ĠEasy": 11018,
  "ĠEater": 16716,
  "ĠEbola": 1898,
  "ĠEconom": 16712,
  "ĠEconomic": 12280,
  "ĠEd": 2830,
  "ĠEdandBe": 17548,
  "ĠEdandBev": 18733,
  "ĠEdison": 6889,
  "ĠEditor": 14564,
  "ĠEdu": 16715,
  "ĠEdward": 9580,
  "ĠEffect": 16719,
  "ĠEggs": 13996,
  "ĠEgypt": 3429,
  "ĠEgyptian": 17658,
  "ĠEinstein": 3872,
  "ĠEisen": 16720,
  "ĠEisenhower": 18675,
  "ĠEl": 3324,
  "ĠEle": 7073,
  "ĠElect": 18018,
  "ĠElection": 12916,
  "ĠElections": 14917,
  "ĠElgin": 14639,
  "ĠElginet": 15298,
  "ĠEliot": 7565,
  "ĠElis": 17640,
  "ĠEll": 12274,
  "ĠEllen": 11016,
  "ĠElliot": 18392,
  "ĠEm": 2704,
  "ĠEmanuel": 12282,
  "ĠEmb": 11015,
  "ĠEmbassy": 13053,
  "ĠEmerson": 9571,
  "ĠEmily": 7553,
  "ĠEmilyMiller": 9053,
  "ĠEmin": 16714,
  "ĠEmmy": 4689,
  "ĠEmmys": 6142,
  "ĠEmp": 12273,
  "ĠEmpire": 18391,
  "ĠEn": 2079,
  "ĠEnd": 11013,
  "ĠEne": 13990,
  "ĠEnemies": 18500,
  "ĠEner": 9378,
  "ĠEnergy": 11614,
  "ĠEng": 8766,
  "ĠEngland": 10490,
  "ĠEnjoy": 2647,
  "ĠEnjoyed": 12674,
  "ĠEnjoying": 11337,
  "ĠEnough": 7181,
  "ĠEnt": 3601,
  "ĠEnter": 17682,
  "ĠEntrepreneur": 6904,
  "ĠEntrepreneurs": 7572,
  "ĠEntrepreneurship": 18006,
  "ĠEp": 12271,
  "ĠEr": 5229,
  "ĠEric": 1389,
  "ĠEricTrump": 1981,
  "ĠEricTrumpF": 7912,
  "ĠEricTrumpFDN": 18072,
  "ĠEricTrumpFdn": 9693,
  "ĠErica": 17219,
  "ĠErik": 12279,
  "ĠErin": 9019,
  "ĠErinBurnett": 18164,
  "ĠErnie": 12843,
  "ĠEsp": 6270,
  "ĠEspecially": 12879,
  "ĠEspngreen": 8015,
  "ĠEspngreeny": 8053,
  "ĠEsquire": 11020,
  "ĠEst": 4126,
  "ĠEstablish": 17748,
  "ĠEstablishment": 18746,
  "ĠEstate": 8996,
  "ĠEstates": 8997,
  "ĠEste": 11443,
  "ĠEth": 13989,
  "ĠEug": 12276,
  "ĠEugene": 13101,
  "ĠEur": 3428,
  "ĠEuro": 7960,
  "ĠEurope": 4260,
  "ĠEuropean": 14732,
  "ĠEuropeans": 17764,
  "ĠEv": 12272,
  "ĠEvan": 11017,
  "ĠEve": 11012,
  "ĠEven": 3603,
  "ĠEvening": 12751,
  "ĠEvent": 13991,
  "ĠEver": 12275,
  "ĠEvery": 2395,
  "ĠEverybody": 10271,
  "ĠEveryone": 4829,
  "ĠEverything": 6879,
  "ĠEx": 2117,
  "ĠExCel": 17406,
  "ĠExcell": 6349,
  "ĠExcellence": 17953,
  "ĠExcellent": 7605,
  "ĠExcept": 14478,
  "ĠExcited": 8915,
  "ĠExclusive": 12630,
  "ĠExec": 8373,
  "ĠExecutive": 9067,
  "ĠExp": 17405,
  "ĠExpl": 12629,
  "ĠExpo": 11290,
  "ĠExpress": 14479,
  "ĠExtra": 13994,
  "ĠEye": 16718,
  "ĠEyes": 12278,
  "ĠF": 418,
  "ĠFA": 8747,
  "ĠFACT": 13938,
  "ĠFAIL": 15008,
  "ĠFANT": 13934,
  "ĠFANTASTIC": 15270,
  "ĠFAST": 10988,
  "ĠFAV": 18141,
  "ĠFBI": 13939,
  "ĠFF": 16633,
  "ĠFFC": 16642,
  "ĠFIGHT": 12238,
  "ĠFIN": 9359,
  "ĠFINAL": 15047,
  "ĠFINALE": 18551,
  "ĠFIR": 5692,
  "ĠFIRED": 8005,
  "ĠFIRST": 14835,
  "ĠFIX": 16643,
  "ĠFL": 4639,
  "ĠFLIGHT": 10370,
  "ĠFLIGHTS": 11633,
  "ĠFOC": 16641,
  "ĠFOCUS": 18666,
  "ĠFOR": 2827,
  "ĠFOX": 7408,
  "ĠFOXSports": 18046,
  "ĠFR": 6754,
  "ĠFRACK": 17994,
  "ĠFREE": 16645,
  "ĠFROM": 9668,
  "ĠFUN": 13931,
  "ĠFab": 16635,
  "ĠFabulous": 7065,
  "ĠFace": 4640,
  "ĠFacebook": 5329,
  "ĠFactor": 12239,
  "ĠFair": 5690,
  "ĠFaith": 8252,
  "ĠFaithandFreedom": 14975,
  "ĠFal": 13928,
  "ĠFall": 10043,
  "ĠFallon": 8253,
  "ĠFame": 3473,
  "ĠFamily": 7066,
  "ĠFamous": 16644,
  "ĠFan": 12233,
  "ĠFanOfGreen": 18385,
  "ĠFanOfGreenMMs": 18775,
  "ĠFantastic": 4906,
  "ĠFar": 8748,
  "ĠFarm": 13933,
  "ĠFascinating": 13937,
  "ĠFashion": 10989,
  "ĠFast": 7405,
  "ĠFather": 7407,
  "ĠFathers": 11564,
  "ĠFavor": 10990,
  "ĠFavorite": 15132,
  "ĠFaz": 12235,
  "ĠFazio": 13100,
  "ĠFe": 9358,
  "ĠFeb": 7773,
  "ĠFebruary": 9687,
  "ĠFed": 3472,
  "ĠFederal": 8976,
  "ĠFeds": 14653,
  "ĠFeel": 13932,
  "ĠFel": 13930,
  "ĠFelix": 18495,
  "ĠFerg": 8251,
  "ĠFerguson": 8495,
  "ĠFerry": 5691,
  "ĠFeud": 15046,
  "ĠFew": 13929,
  "ĠFifth": 7774,
  "ĠFight": 8750,
  "ĠFil": 8247,
  "ĠFilm": 11584,
  "ĠFin": 4039,
  "ĠFinal": 8250,
  "ĠFinale": 9616,
  "ĠFinalizes": 14974,
  "ĠFinally": 9615,
  "ĠFinance": 14708,
  "ĠFinancial": 14709,
  "ĠFind": 4783,
  "ĠFire": 7406,
  "ĠFired": 8249,
  "ĠFirst": 3800,
  "ĠFiscal": 16640,
  "ĠFive": 4123,
  "ĠFix": 12236,
  "ĠFl": 5689,
  "ĠFlag": 14834,
  "ĠFlight": 14833,
  "ĠFlor": 2798,
  "ĠFlorida": 3039,
  "ĠFloridas": 14559,
  "ĠFo": 4038,
  "ĠFocus": 4987,
  "ĠFoley": 11439,
  "ĠFollow": 6264,
  "ĠFollowing": 17945,
  "ĠFool": 16636,
  "ĠFoot": 16639,
  "ĠFootball": 16646,
  "ĠFor": 1427,
  "ĠForQ": 7504,
  "ĠForbes": 2996,
  "ĠForbesInsp": 8954,
  "ĠForbesInspector": 9078,
  "ĠForce": 9493,
  "ĠForces": 8345,
  "ĠFord": 4505,
  "ĠFore": 7063,
  "ĠForeign": 10443,
  "ĠForeverMc": 14916,
  "ĠForeverMcIn": 15315,
  "ĠFormer": 17233,
  "ĠFort": 12234,
  "ĠFortune": 15198,
  "ĠFortuneMagazine": 18555,
  "ĠFound": 6263,
  "ĠFoundation": 8014,
  "ĠFounder": 17944,
  "ĠFour": 7062,
  "ĠFox": 1052,
  "ĠFoxBusiness": 10168,
  "ĠFoxNews": 1532,
  "ĠFoxNewsInsider": 14378,
  "ĠFoxNewsSunday": 14377,
  "ĠFr": 1625,
  "ĠFrack": 10235,
  "ĠFran": 8248,
  "ĠFrance": 11246,
  "ĠFrancis": 12957,
  "ĠFrancisco": 18432,
  "ĠFrank": 3082,
  "ĠFrankCal": 6601,
  "ĠFrankCaliendo": 6645,
  "ĠFranklin": 5915,
  "ĠFre": 12232,
  "ĠFred": 4393,
  "ĠFree": 5416,
  "ĠFreeOurMarine": 10393,
  "ĠFreedom": 6503,
  "ĠFreidaWas": 18384,
  "ĠFreidaWashingt": 18774,
  "ĠFrench": 12240,
  "ĠFriday": 3133,
  "ĠFried": 12237,
  "ĠFriedman": 15199,
  "ĠFriend": 16634,
  "ĠFriends": 2762,
  "ĠFrisk": 13936,
  "ĠFrom": 7064,
  "ĠFt": 10042,
  "ĠFull": 9360,
  "ĠFun": 8749,
  "ĠFund": 6755,
  "ĠFundAnything": 10437,
  "ĠFunny": 18142,
  "ĠFurious": 5693,
  "ĠFurther": 13935,
  "ĠFury": 16637,
  "ĠFuture": 16638,
  "ĠG": 364,
  "ĠGC": 16423,
  "ĠGDP": 5678,
  "ĠGEN": 13811,
  "ĠGENIUS": 18486,
  "ĠGET": 7374,
  "ĠGIVE": 13813,
  "ĠGL": 4494,
  "ĠGLOBAL": 4709,
  "ĠGM": 10910,
  "ĠGMA": 12140,
  "ĠGO": 5212,
  "ĠGOD": 12139,
  "ĠGOING": 17866,
  "ĠGOM": 16434,
  "ĠGOMITT": 18646,
  "ĠGOOD": 11492,
  "ĠGOP": 1280,
  "ĠGOT": 10912,
  "ĠGOTV": 15129,
  "ĠGQ": 13806,
  "ĠGR": 16424,
  "ĠGREAT": 1842,
  "ĠGREATEST": 12599,
  "ĠGREATNESS": 14435,
  "ĠGU": 10911,
  "ĠGW": 13807,
  "ĠGZervs": 13814,
  "ĠGab": 16429,
  "ĠGabri": 8225,
  "ĠGabriel": 11583,
  "ĠGabriela": 14973,
  "ĠGaga": 16440,
  "ĠGail": 12137,
  "ĠGala": 6733,
  "ĠGall": 16427,
  "ĠGam": 12134,
  "ĠGambling": 16441,
  "ĠGame": 13810,
  "ĠGand": 13808,
  "ĠGandolfini": 15260,
  "ĠGarden": 10916,
  "ĠGarrett": 16438,
  "ĠGary": 3467,
  "ĠGas": 16426,
  "ĠGates": 8712,
  "ĠGavin": 16439,
  "ĠGaza": 16437,
  "ĠGe": 16425,
  "ĠGee": 13809,
  "ĠGen": 2759,
  "ĠGene": 14555,
  "ĠGeneral": 3978,
  "ĠGenerals": 12773,
  "ĠGenius": 8943,
  "ĠGeor": 7746,
  "ĠGeorge": 2986,
  "ĠGeorgia": 10461,
  "ĠGer": 12133,
  "ĠGeraldo": 2338,
  "ĠGeraldoRivera": 3397,
  "ĠGerman": 8713,
  "ĠGermany": 18136,
  "ĠGet": 1814,
  "ĠGets": 10913,
  "ĠGetting": 9522,
  "ĠGi": 5048,
  "ĠGiants": 12838,
  "ĠGib": 9987,
  "ĠGibbs": 13017,
  "ĠGil": 9986,
  "ĠGilbert": 10915,
  "ĠGir": 12135,
  "ĠGirardi": 15190,
  "ĠGirl": 16431,
  "ĠGitmo": 7375,
  "ĠGiul": 7230,
  "ĠGiulianaRancic": 8475,
  "ĠGiuliani": 18024,
  "ĠGive": 2868,
  "ĠGives": 16435,
  "ĠGiving": 10914,
  "ĠGl": 3063,
  "ĠGlad": 6896,
  "ĠGlenfiddich": 11381,
  "ĠGlenn": 12709,
  "ĠGlobal": 6599,
  "ĠGlor": 16433,
  "ĠGloria": 18645,
  "ĠGo": 1435,
  "ĠGoAngelo": 11221,
  "ĠGod": 2455,
  "ĠGoes": 17234,
  "ĠGoing": 6853,
  "ĠGold": 3793,
  "ĠGoldberg": 17710,
  "ĠGolden": 8989,
  "ĠGoldwyn": 14685,
  "ĠGolf": 1027,
  "ĠGolfChannel": 6317,
  "ĠGolfDigest": 6538,
  "ĠGolfDigestMag": 8020,
  "ĠGolfMagazine": 7475,
  "ĠGolfSw": 12470,
  "ĠGolfSwingShirt": 13113,
  "ĠGolfWorld": 14228,
  "ĠGolfWorldUS": 18517,
  "ĠGolfweekMag": 12471,
  "ĠGonna": 16436,
  "ĠGood": 1193,
  "ĠGorgeous": 13812,
  "ĠGos": 12136,
  "ĠGosselin": 13097,
  "ĠGot": 5402,
  "ĠGotta": 12142,
  "ĠGov": 3661,
  "ĠGovChrist": 7215,
  "ĠGovChristie": 7261,
  "ĠGovMikeHuckabee": 17687,
  "ĠGovWalker": 17686,
  "ĠGovernment": 5533,
  "ĠGovernor": 4950,
  "ĠGovt": 14671,
  "ĠGr": 3322,
  "ĠGraeme": 10917,
  "ĠGraham": 12138,
  "ĠGran": 16430,
  "ĠGrand": 7206,
  "ĠGranite": 18644,
  "ĠGrant": 17638,
  "ĠGray": 16432,
  "ĠGraydon": 4299,
  "ĠGreat": 621,
  "ĠGreater": 16883,
  "ĠGreatest": 11078,
  "ĠGreece": 12141,
  "ĠGreen": 9988,
  "ĠGreetings": 16442,
  "ĠGreg": 8224,
  "ĠGret": 2485,
  "ĠGreta": 3246,
  "ĠGretawire": 7927,
  "ĠGretchen": 12661,
  "ĠGretchenCarlson": 18419,
  "ĠGretzky": 17486,
  "ĠGrill": 11398,
  "ĠGrimes": 17639,
  "ĠGround": 11399,
  "ĠGrow": 16428,
  "ĠGru": 6732,
  "ĠGruber": 8023,
  "ĠGu": 4384,
  "ĠGuard": 17777,
  "ĠGuess": 12803,
  "ĠGuestrooms": 17778,
  "ĠGuide": 12804,
  "ĠGumb": 7745,
  "ĠGumbel": 8486,
  "ĠGun": 9985,
  "ĠGuy": 9989,
  "ĠH": 375,
  "ĠHAPPY": 13856,
  "ĠHAR": 13853,
  "ĠHARDER": 18491,
  "ĠHAS": 12170,
  "ĠHAVE": 6491,
  "ĠHBO": 6490,
  "ĠHE": 6253,
  "ĠHEA": 12168,
  "ĠHEART": 18377,
  "ĠHELL": 17942,
  "ĠHER": 13850,
  "ĠHH": 16488,
  "ĠHI": 10937,
  "ĠHIM": 16502,
  "ĠHIRED": 16509,
  "ĠHMun": 10945,
  "ĠHMunjal": 11655,
  "ĠHO": 10006,
  "ĠHOAX": 18245,
  "ĠHOF": 10942,
  "ĠHOPE": 12173,
  "ĠHOT": 13851,
  "ĠHOTEL": 18490,
  "ĠHOUS": 16506,
  "ĠHOUSE": 18654,
  "ĠHR": 16489,
  "ĠHU": 10938,
  "ĠHUGE": 13049,
  "ĠHad": 8724,
  "ĠHag": 16493,
  "ĠHagan": 13854,
  "ĠHagel": 5680,
  "ĠHair": 16499,
  "ĠHall": 3267,
  "ĠHalle": 16507,
  "ĠHamas": 13855,
  "ĠHammond": 13857,
  "ĠHamp": 5055,
  "ĠHampshire": 5935,
  "ĠHampton": 17848,
  "ĠHan": 12163,
  "ĠHands": 10010,
  "ĠHandsOff": 18247,
  "ĠHank": 13848,
  "ĠHannity": 10011,
  "ĠHanse": 15193,
  "ĠHapp": 10009,
  "ĠHappened": 18246,
  "ĠHappy": 1472,
  "ĠHar": 4387,
  "ĠHarbor": 16510,
  "ĠHard": 8229,
  "ĠHarry": 10941,
  "ĠHarv": 8428,
  "ĠHarvard": 9069,
  "ĠHarvey": 11455,
  "ĠHas": 4896,
  "ĠHate": 12167,
  "ĠHates": 16498,
  "ĠHave": 2550,
  "ĠHaving": 10940,
  "ĠHaw": 4629,
  "ĠHawai": 4847,
  "ĠHawaii": 5583,
  "ĠHawaiis": 17828,
  "ĠHe": 593,
  "ĠHead": 12349,
  "ĠHeaded": 14086,
  "ĠHeading": 16856,
  "ĠHealth": 14085,
  "ĠHear": 13849,
  "ĠHearing": 12172,
  "ĠHearst": 18489,
  "ĠHeart": 11070,
  "ĠHeat": 11069,
  "ĠHeather": 11071,
  "ĠHeb": 16854,
  "ĠHeidi": 12350,
  "ĠHeile": 16855,
  "ĠHel": 12166,
  "ĠHell": 5707,
  "ĠHello": 8006,
  "ĠHelp": 8231,
  "ĠHence": 16497,
  "ĠHenry": 4630,
  "ĠHer": 6489,
  "ĠHerald": 6740,
  "ĠHere": 5435,
  "ĠHerman": 16504,
  "ĠHerschel": 16511,
  "ĠHes": 5405,
  "ĠHey": 4656,
  "ĠHi": 3730,
  "ĠHig": 16491,
  "ĠHigh": 8726,
  "ĠHil": 10008,
  "ĠHilary": 13018,
  "ĠHill": 12165,
  "ĠHillary": 3932,
  "ĠHilton": 10943,
  "ĠHim": 7755,
  "ĠHimself": 18065,
  "ĠHired": 16501,
  "ĠHis": 2580,
  "ĠHispan": 8387,
  "ĠHispanic": 12959,
  "ĠHispanics": 14985,
  "ĠHistoric": 16505,
  "ĠHistory": 7386,
  "ĠHit": 13847,
  "ĠHogan": 10944,
  "ĠHoganSeaisle": 18306,
  "ĠHol": 6035,
  "ĠHold": 16500,
  "ĠHoliday": 9655,
  "ĠHolidays": 10408,
  "ĠHolly": 4897,
  "ĠHollywood": 6920,
  "ĠHom": 16490,
  "ĠHome": 4628,
  "ĠHomer": 12171,
  "ĠHomerJSimpson": 18378,
  "ĠHon": 7754,
  "ĠHonest": 8230,
  "ĠHonestly": 10470,
  "ĠHong": 16494,
  "ĠHonol": 11573,
  "ĠHonolulu": 13066,
  "ĠHood": 16495,
  "ĠHope": 2202,
  "ĠHopeful": 17425,
  "ĠHopefully": 6351,
  "ĠHor": 12164,
  "ĠHorm": 12169,
  "ĠHormuz": 13098,
  "ĠHors": 13852,
  "ĠHorse": 16503,
  "ĠHospital": 8727,
  "ĠHost": 9329,
  "ĠHotel": 1728,
  "ĠHotels": 7513,
  "ĠHou": 6739,
  "ĠHous": 16496,
  "ĠHouse": 1552,
  "ĠHouston": 7254,
  "ĠHow": 1189,
  "ĠHoward": 2438,
  "ĠHowardStern": 4158,
  "ĠHuckabee": 16508,
  "ĠHud": 10939,
  "ĠHudson": 11654,
  "ĠHuff": 3664,
  "ĠHuffPost": 8413,
  "ĠHuffPostPol": 14986,
  "ĠHuffington": 4566,
  "ĠHuffingtonPost": 5931,
  "ĠHug": 9330,
  "ĠHuge": 7387,
  "ĠHugo": 15044,
  "ĠHul": 16492,
  "ĠHulkHogan": 18653,
  "ĠHum": 8725,
  "ĠHuma": 15007,
  "ĠHunt": 6254,
  "ĠHunter": 10417,
  "ĠHunterboss": 15109,
  "ĠHurricane": 10012,
  "ĠHus": 10007,
  "ĠHussein": 11628,
  "ĠI": 313,
  "ĠIA": 16184,
  "ĠIBD": 12038,
  "ĠIBDeditorials": 18359,
  "ĠIC": 12036,
  "ĠICSC": 18358,
  "ĠID": 7709,
  "ĠIF": 9260,
  "ĠIGot": 12039,
  "ĠIGotAngelEyes": 13092,
  "ĠII": 16185,
  "ĠIII": 13660,
  "ĠIM": 8666,
  "ĠIMP": 16188,
  "ĠIMill": 18130,
  "ĠIN": 3204,
  "ĠINC": 10818,
  "ĠINCRED": 18293,
  "ĠINCREDIBLE": 18769,
  "ĠINSP": 17615,
  "ĠINVEST": 14623,
  "ĠIQ": 7020,
  "ĠIR": 16186,
  "ĠIRS": 7710,
  "ĠIS": 1754,
  "ĠISIS": 2644,
  "ĠIT": 4017,
  "ĠITS": 17737,
  "ĠIam": 6237,
  "ĠIamSlo": 14867,
  "ĠIamSloany": 15309,
  "ĠIamSteven": 12877,
  "ĠIamStevenT": 13123,
  "ĠIan": 3781,
  "ĠIanJames": 14682,
  "ĠIanJamesPoulter": 15303,
  "ĠIanZiering": 4567,
  "ĠIcahn": 8668,
  "ĠIce": 6469,
  "ĠIceBucketChallenge": 12891,
  "ĠId": 4605,
  "ĠIdentify": 10368,
  "ĠIf": 985,
  "ĠIgn": 8190,
  "ĠIgnore": 10468,
  "ĠIll": 4877,
  "ĠIllegal": 17831,
  "ĠIm": 2576,
  "ĠImagination": 17501,
  "ĠImagine": 12665,
  "ĠImmig": 11324,
  "ĠImmigration": 18328,
  "ĠImp": 12037,
  "ĠImus": 17500,
  "ĠIn": 1007,
  "ĠInTheElections": 6316,
  "ĠInc": 6828,
  "ĠIncompet": 10161,
  "ĠIncompetence": 18262,
  "ĠIncompetent": 15099,
  "ĠIncre": 11541,
  "ĠIncrease": 15160,
  "ĠIncredible": 10438,
  "ĠInd": 2947,
  "ĠIndepend": 10300,
  "ĠIndependence": 13032,
  "ĠIndia": 6116,
  "ĠIndian": 14588,
  "ĠIndones": 10301,
  "ĠIndonesia": 15106,
  "ĠIndonesian": 18270,
  "ĠIndust": 17572,
  "ĠIndy": 14587,
  "ĠIngrahamAngle": 7840,
  "ĠIns": 8852,
  "ĠInside": 8312,
  "ĠInsp": 17067,
  "ĠInspir": 11143,
  "ĠInspiration": 18319,
  "ĠInspirational": 18320,
  "ĠInst": 4940,
  "ĠInstead": 6392,
  "ĠInstit": 17838,
  "ĠInsurance": 15016,
  "ĠInt": 1062,
  "ĠIntelligent": 17086,
  "ĠInteresting": 3283,
  "ĠIntern": 1745,
  "ĠInternational": 1791,
  "ĠInterview": 8316,
  "ĠIntl": 5875,
  "ĠInto": 14240,
  "ĠInv": 7473,
  "ĠInvest": 7474,
  "ĠInvestigation": 14939,
  "ĠInvestment": 14938,
  "ĠInvitational": 8482,
  "ĠIow": 16187,
  "ĠIowa": 2983,
  "ĠIr": 5388,
  "ĠIran": 1381,
  "ĠIranian": 5109,
  "ĠIranians": 8885,
  "ĠIraq": 1561,
  "ĠIraqi": 8894,
  "ĠIraqis": 14386,
  "ĠIreland": 2948,
  "ĠIrish": 7233,
  "ĠIs": 1129,
  "ĠIsaac": 12496,
  "ĠIslam": 5527,
  "ĠIslamic": 14819,
  "ĠIslamist": 14820,
  "ĠIslamists": 9647,
  "ĠIsland": 10187,
  "ĠIsler": 17125,
  "ĠIsn": 14265,
  "ĠIsnt": 17124,
  "ĠIsrael": 1978,
  "ĠIsraeli": 6105,
  "ĠIsraeliPM": 7600,
  "ĠIsreal": 17126,
  "ĠIstanbul": 10819,
  "ĠIt": 688,
  "ĠItalian": 14138,
  "ĠItaly": 16925,
  "ĠIts": 3274,
  "ĠIvanka": 1201,
  "ĠIvankaTrump": 1332,
  "ĠIvankaTrumps": 14336,
  "ĠIve": 8667,
  "ĠJ": 440,
  "ĠJC": 8756,
  "ĠJCOPE": 11600,
  "ĠJF": 13957,
  "ĠJH": 16671,
  "ĠJL": 12250,
  "ĠJO": 7411,
  "ĠJOBS": 14936,
  "ĠJOKE": 18047,
  "ĠJP": 12251,
  "ĠJUST": 12252,
  "ĠJUrciuoli": 8761,
  "ĠJa": 8757,
  "ĠJaayZen": 15011,
  "ĠJack": 2872,
  "ĠJackWitty": 14571,
  "ĠJackshall": 7940,
  "ĠJackshallis": 8050,
  "ĠJackson": 8946,
  "ĠJah": 16676,
  "ĠJahbalon": 18669,
  "ĠJaime": 18144,
  "ĠJake": 8257,
  "ĠJam": 16672,
  "ĠJames": 3801,
  "ĠJamesOKeefe": 17712,
  "ĠJami": 16678,
  "ĠJamie": 8760,
  "ĠJamieeMingg": 18670,
  "ĠJan": 2828,
  "ĠJane": 10050,
  "ĠJaneiro": 13021,
  "ĠJanineTurner": 17547,
  "ĠJanuary": 4343,
  "ĠJap": 8258,
  "ĠJapan": 9698,
  "ĠJared": 13958,
  "ĠJason": 6508,
  "ĠJay": 3475,
  "ĠJayLef": 17662,
  "ĠJean": 9369,
  "ĠJeb": 5695,
  "ĠJeep": 9368,
  "ĠJeff": 3118,
  "ĠJefferson": 14612,
  "ĠJeffrey": 4834,
  "ĠJen": 7775,
  "ĠJeniferSteven": 18068,
  "ĠJeniferStevens": 18756,
  "ĠJenn": 5223,
  "ĠJenna": 12841,
  "ĠJennifer": 7594,
  "ĠJenniferJJacobs": 8483,
  "ĠJenny": 16677,
  "ĠJer": 7413,
  "ĠJerem": 13959,
  "ĠJeremiah": 15272,
  "ĠJeremiahWright": 18557,
  "ĠJeremy": 10051,
  "ĠJerry": 6046,
  "ĠJersey": 12928,
  "ĠJerusalem": 12929,
  "ĠJes": 10049,
  "ĠJess": 9367,
  "ĠJesse": 18250,
  "ĠJessica": 12995,
  "ĠJesus": 15094,
  "ĠJet": 16674,
  "ĠJeter": 4508,
  "ĠJets": 8759,
  "ĠJew": 8256,
  "ĠJewel": 10995,
  "ĠJewelry": 13052,
  "ĠJewish": 9062,
  "ĠJihad": 12254,
  "ĠJill": 16673,
  "ĠJim": 2735,
  "ĠJimmy": 5134,
  "ĠJo": 846,
  "ĠJoan": 1818,
  "ĠJoanRivers": 14431,
  "ĠJob": 6507,
  "ĠJobs": 3668,
  "ĠJodi": 12253,
  "ĠJoe": 2156,
  "ĠJoeBiden": 7528,
  "ĠJoeNBC": 17415,
  "ĠJoeS": 17414,
  "ĠJoeTor": 17416,
  "ĠJoeTorre": 18729,
  "ĠJoel": 9432,
  "ĠJoelOsteen": 18201,
  "ĠJoey": 11120,
  "ĠJohn": 1555,
  "ĠJohnD": 12560,
  "ĠJohnDuthie": 15217,
  "ĠJohnRich": 17284,
  "ĠJohnny": 6090,
  "ĠJohnnyDam": 14857,
  "ĠJohnnyDamon": 15308,
  "ĠJohnnyPaulCole": 17926,
  "ĠJohnson": 7893,
  "ĠJoin": 14182,
  "ĠJoint": 14183,
  "ĠJon": 1993,
  "ĠJonHuntsman": 7523,
  "ĠJonas": 12618,
  "ĠJonathan": 7522,
  "ĠJones": 7521,
  "ĠJordan": 6759,
  "ĠJordanSpieth": 17995,
  "ĠJose": 4665,
  "ĠJoselyn": 17805,
  "ĠJoseph": 10371,
  "ĠJosh": 5696,
  "ĠJoshuaD": 17900,
  "ĠJoshuaDummer": 18752,
  "ĠJournal": 7415,
  "ĠJoy": 16675,
  "ĠJr": 7412,
  "ĠJud": 4224,
  "ĠJudd": 6915,
  "ĠJude": 10994,
  "ĠJudge": 8424,
  "ĠJudgeJean": 10473,
  "ĠJudgeJeanine": 10533,
  "ĠJul": 8758,
  "ĠJulie": 15012,
  "ĠJuly": 6509,
  "ĠJune": 4644,
  "ĠJunior": 13960,
  "ĠJup": 7414,
  "ĠJupiter": 8478,
  "ĠJust": 1174,
  "ĠJustS": 17149,
  "ĠJustice": 5879,
  "ĠJustin": 4674,
  "ĠJustinRose": 7589,
  "ĠJwundy": 16679,
  "ĠK": 545,
  "ĠKEEP": 16815,
  "ĠKNOW": 11060,
  "ĠKael": 16810,
  "ĠKaelaDianne": 18687,
  "ĠKane": 16812,
  "ĠKar": 12326,
  "ĠKarl": 3224,
  "ĠKarlRove": 5316,
  "ĠKarzai": 12334,
  "ĠKat": 5702,
  "ĠKate": 3480,
  "ĠKateplus": 7568,
  "ĠKateplusmy": 7612,
  "ĠKath": 12330,
  "ĠKatherine": 14052,
  "ĠKathy": 12331,
  "ĠKatie": 9651,
  "ĠKatieShow": 13003,
  "ĠKatrina": 17904,
  "ĠKaty": 17903,
  "ĠKay": 10090,
  "ĠKdaniels": 14054,
  "ĠKdanielsK": 15280,
  "ĠKe": 8785,
  "ĠKeatsBen": 15014,
  "ĠKeep": 1858,
  "ĠKeith": 18147,
  "ĠKell": 12329,
  "ĠKelly": 4513,
  "ĠKen": 2231,
  "ĠKenn": 6519,
  "ĠKennedy": 10426,
  "ĠKenneth": 17968,
  "ĠKenny": 14051,
  "ĠKent": 10091,
  "ĠKentucky": 18255,
  "ĠKenya": 2447,
  "ĠKenyaMoore": 3563,
  "ĠKerry": 4792,
  "ĠKessler": 16816,
  "ĠKev": 16811,
  "ĠKevin": 5240,
  "ĠKey": 3121,
  "ĠKeynote": 17607,
  "ĠKeystone": 3693,
  "ĠKh": 16808,
  "ĠKick": 12327,
  "ĠKier": 10092,
  "ĠKieranLalor": 10524,
  "ĠKill": 14049,
  "ĠKilling": 16813,
  "ĠKim": 7431,
  "ĠKind": 14050,
  "ĠKing": 3547,
  "ĠKingJames": 17675,
  "ĠKingdom": 14660,
  "ĠKingdomMag": 15300,
  "ĠKitty": 16814,
  "ĠKiyosaki": 12332,
  "ĠKluge": 14055,
  "ĠKnick": 11058,
  "ĠKnicks": 13056,
  "ĠKnight": 9392,
  "ĠKnow": 3876,
  "ĠKnowledge": 17722,
  "ĠKnox": 14053,
  "ĠKong": 16809,
  "ĠKore": 3672,
  "ĠKorea": 3985,
  "ĠKorean": 17689,
  "ĠKraf": 12333,
  "ĠKraft": 11059,
  "ĠKraftyWur": 13103,
  "ĠKraftyWurker": 13127,
  "ĠKravis": 8786,
  "ĠKrist": 6287,
  "ĠKristen": 10419,
  "ĠKristine": 17947,
  "ĠKud": 12328,
  "ĠKudlow": 18395,
  "ĠKyle": 6520,
  "ĠKyleKiss": 14886,
  "ĠKyleKissKiss": 15311,
  "ĠKyleMcCall": 17969,
  "ĠL": 406,
  "ĠLA": 4306,
  "ĠLAST": 13905,
  "ĠLEA": 5412,
  "ĠLEADER": 6395,
  "ĠLEADERSHIP": 11524,
  "ĠLGA": 16583,
  "ĠLI": 3734,
  "ĠLIKE": 10334,
  "ĠLIN": 16580,
  "ĠLINKS": 18661,
  "ĠLIUB": 17696,
  "ĠLIVE": 6611,
  "ĠLMow": 16589,
  "ĠLMowle": 18662,
  "ĠLO": 3066,
  "ĠLOL": 10970,
  "ĠLONG": 13906,
  "ĠLOO": 17595,
  "ĠLOS": 12711,
  "ĠLOSERS": 18420,
  "ĠLOT": 16581,
  "ĠLOVE": 3896,
  "ĠLUC": 13907,
  "ĠLUCK": 15268,
  "ĠLUCKIER": 18556,
  "ĠLUV": 16590,
  "ĠLa": 6038,
  "ĠLaToya": 17920,
  "ĠLaden": 4636,
  "ĠLady": 7768,
  "ĠLago": 16579,
  "ĠLake": 8244,
  "ĠLakers": 8739,
  "ĠLance": 5687,
  "ĠLand": 6749,
  "ĠLandExpo": 9038,
  "ĠLane": 13903,
  "ĠLara": 12216,
  "ĠLaraLeaYunaska": 18381,
  "ĠLarge": 16588,
  "ĠLarry": 4391,
  "ĠLas": 3067,
  "ĠLasker": 14602,
  "ĠLass": 16576,
  "ĠLassner": 18660,
  "ĠLast": 10031,
  "ĠLat": 12207,
  "ĠLate": 3116,
  "ĠLateNight": 17606,
  "ĠLateNightJimmy": 18737,
  "ĠLateShow": 11387,
  "ĠLatin": 10033,
  "ĠLatina": 18380,
  "ĠLaud": 10971,
  "ĠLauderdale": 11656,
  "ĠLaur": 13904,
  "ĠLauren": 14850,
  "ĠLaw": 4034,
  "ĠLawrence": 5324,
  "ĠLawsu": 17741,
  "ĠLay": 16574,
  "ĠLe": 3115,
  "ĠLeBron": 17604,
  "ĠLeach": 17603,
  "ĠLead": 3270,
  "ĠLeader": 6900,
  "ĠLeaders": 17631,
  "ĠLeadership": 4981,
  "ĠLeague": 6118,
  "ĠLearn": 4635,
  "ĠLearned": 17803,
  "ĠLearning": 12220,
  "ĠLeb": 16582,
  "ĠLee": 2583,
  "ĠLeeza": 2887,
  "ĠLeezaGib": 3344,
  "ĠLeezaGibbons": 3347,
  "ĠLeg": 7767,
  "ĠLegend": 10462,
  "ĠLegendary": 18276,
  "ĠLeibowitz": 17605,
  "ĠLeno": 8245,
  "ĠLeon": 14611,
  "ĠLess": 12210,
  "ĠLessons": 15195,
  "ĠLet": 1616,
  "ĠLets": 6261,
  "ĠLetterman": 2354,
  "ĠLewis": 16586,
  "ĠLews": 16577,
  "ĠLi": 16573,
  "ĠLiam": 13901,
  "ĠLib": 3068,
  "ĠLiber": 10969,
  "ĠLiberal": 18307,
  "ĠLiberty": 4121,
  "ĠLibertyU": 6910,
  "ĠLibya": 3400,
  "ĠLibyan": 12712,
  "ĠLie": 12212,
  "ĠLif": 12211,
  "ĠLife": 12215,
  "ĠLight": 8243,
  "ĠLighthouse": 18096,
  "ĠLik": 13902,
  "ĠLike": 1316,
  "ĠLikewise": 14328,
  "ĠLil": 4780,
  "ĠLilJon": 6144,
  "ĠLilly": 16584,
  "ĠLimit": 13908,
  "ĠLincoln": 4307,
  "ĠLind": 6750,
  "ĠLinda": 8465,
  "ĠLindsay": 17991,
  "ĠLine": 12214,
  "ĠLinks": 2521,
  "ĠLisa": 6497,
  "ĠLisaLampanelli": 14882,
  "ĠList": 13900,
  "ĠListen": 6496,
  "ĠListening": 12893,
  "ĠLittle": 9351,
  "ĠLive": 4502,
  "ĠLo": 6260,
  "ĠLocker": 10973,
  "ĠLockerbie": 11657,
  "ĠLod": 12213,
  "ĠLodge": 15196,
  "ĠLoeb": 10418,
  "ĠLogan": 12217,
  "ĠLois": 11520,
  "ĠLoisWeiss": 18335,
  "ĠLol": 12209,
  "ĠLombardi": 5220,
  "ĠLondon": 7400,
  "ĠLong": 8738,
  "ĠLook": 3117,
  "ĠLooking": 2702,
  "ĠLooks": 6372,
  "ĠLord": 2341,
  "ĠLos": 5058,
  "ĠLoser": 10384,
  "ĠLost": 16575,
  "ĠLot": 12208,
  "ĠLots": 7059,
[...]
